{
  "version": "1.0",
  "truncation": null,
  "padding": null,
  "added_tokens": [
    {
      "id": 0,
      "content": "<unk>",
      "single_word": false,
      "lstrip": false,
      "rstrip": false,
      "normalized": false,
      "special": true
    },
    {
      "id": 1,
      "content": "<s>",
      "single_word": false,
      "lstrip": false,
      "rstrip": false,
      "normalized": false,
      "special": true
    },
    {
      "id": 2,
      "content": "</s>",
      "single_word": false,
      "lstrip": false,
      "rstrip": false,
      "normalized": false,
      "special": true
    },
    {
      "id": 3,
      "content": "<pad>",
      "single_word": false,
      "lstrip": false,
      "rstrip": false,
      "normalized": false,
      "special": true
    },
    {
      "id": 4,
      "content": "<mask>",
      "single_word": false,
      "lstrip": false,
      "rstrip": false,
      "normalized": false,
      "special": true
    }
  ],
  "normalizer": null,
  "pre_tokenizer": {
    "type": "ByteLevel",
    "add_prefix_space": false,
    "trim_offsets": true,
    "use_regex": true
  },
  "post_processor": {
    "type": "ByteLevel",
    "add_prefix_space": true,
    "trim_offsets": false,
    "use_regex": true
  },
  "decoder": {
    "type": "ByteLevel",
    "add_prefix_space": true,
    "trim_offsets": true,
    "use_regex": true
  },
  "model": {
    "type": "BPE",
    "dropout": null,
    "unk_token": null,
    "continuing_subword_prefix": null,
    "end_of_word_suffix": null,
    "fuse_unk": false,
    "byte_fallback": false,
    "ignore_merges": false,
    "vocab": {
      "<unk>": 0,
      "<s>": 1,
      "</s>": 2,
      "<pad>": 3,
      "<mask>": 4,
      "!": 5,
      "\"": 6,
      "#": 7,
      "$": 8,
      "%": 9,
      "&": 10,
      "'": 11,
      "(": 12,
      ")": 13,
      "*": 14,
      "+": 15,
      ",": 16,
      "-": 17,
      ".": 18,
      "/": 19,
      "0": 20,
      "1": 21,
      "2": 22,
      "3": 23,
      "4": 24,
      "5": 25,
      "6": 26,
      "7": 27,
      "8": 28,
      "9": 29,
      ":": 30,
      ";": 31,
      "<": 32,
      "=": 33,
      ">": 34,
      "?": 35,
      "@": 36,
      "A": 37,
      "B": 38,
      "C": 39,
      "D": 40,
      "E": 41,
      "F": 42,
      "G": 43,
      "H": 44,
      "I": 45,
      "J": 46,
      "K": 47,
      "L": 48,
      "M": 49,
      "N": 50,
      "O": 51,
      "P": 52,
      "Q": 53,
      "R": 54,
      "S": 55,
      "T": 56,
      "U": 57,
      "V": 58,
      "W": 59,
      "X": 60,
      "Y": 61,
      "Z": 62,
      "[": 63,
      "\\": 64,
      "]": 65,
      "^": 66,
      "_": 67,
      "`": 68,
      "a": 69,
      "b": 70,
      "c": 71,
      "d": 72,
      "e": 73,
      "f": 74,
      "g": 75,
      "h": 76,
      "i": 77,
      "j": 78,
      "k": 79,
      "l": 80,
      "m": 81,
      "n": 82,
      "o": 83,
      "p": 84,
      "q": 85,
      "r": 86,
      "s": 87,
      "t": 88,
      "u": 89,
      "v": 90,
      "w": 91,
      "x": 92,
      "y": 93,
      "z": 94,
      "{": 95,
      "|": 96,
      "}": 97,
      "~": 98,
      "¡": 99,
      "¢": 100,
      "£": 101,
      "¤": 102,
      "¥": 103,
      "¦": 104,
      "§": 105,
      "¨": 106,
      "©": 107,
      "ª": 108,
      "«": 109,
      "¬": 110,
      "®": 111,
      "¯": 112,
      "°": 113,
      "±": 114,
      "²": 115,
      "³": 116,
      "´": 117,
      "µ": 118,
      "¶": 119,
      "·": 120,
      "¸": 121,
      "¹": 122,
      "º": 123,
      "»": 124,
      "¼": 125,
      "½": 126,
      "¾": 127,
      "¿": 128,
      "À": 129,
      "Á": 130,
      "Â": 131,
      "Ã": 132,
      "Ä": 133,
      "Å": 134,
      "Æ": 135,
      "Ç": 136,
      "È": 137,
      "É": 138,
      "Ê": 139,
      "Ë": 140,
      "Ì": 141,
      "Í": 142,
      "Î": 143,
      "Ï": 144,
      "Ð": 145,
      "Ñ": 146,
      "Ò": 147,
      "Ó": 148,
      "Ô": 149,
      "Õ": 150,
      "Ö": 151,
      "×": 152,
      "Ø": 153,
      "Ù": 154,
      "Ú": 155,
      "Û": 156,
      "Ü": 157,
      "Ý": 158,
      "Þ": 159,
      "ß": 160,
      "à": 161,
      "á": 162,
      "â": 163,
      "ã": 164,
      "ä": 165,
      "å": 166,
      "æ": 167,
      "ç": 168,
      "è": 169,
      "é": 170,
      "ê": 171,
      "ë": 172,
      "ì": 173,
      "í": 174,
      "î": 175,
      "ï": 176,
      "ð": 177,
      "ñ": 178,
      "ò": 179,
      "ó": 180,
      "ô": 181,
      "õ": 182,
      "ö": 183,
      "÷": 184,
      "ø": 185,
      "ù": 186,
      "ú": 187,
      "û": 188,
      "ü": 189,
      "ý": 190,
      "þ": 191,
      "ÿ": 192,
      "Ā": 193,
      "ā": 194,
      "Ă": 195,
      "ă": 196,
      "Ą": 197,
      "ą": 198,
      "Ć": 199,
      "ć": 200,
      "Ĉ": 201,
      "ĉ": 202,
      "Ċ": 203,
      "ċ": 204,
      "Č": 205,
      "č": 206,
      "Ď": 207,
      "ď": 208,
      "Đ": 209,
      "đ": 210,
      "Ē": 211,
      "ē": 212,
      "Ĕ": 213,
      "ĕ": 214,
      "Ė": 215,
      "ė": 216,
      "Ę": 217,
      "ę": 218,
      "Ě": 219,
      "ě": 220,
      "Ĝ": 221,
      "ĝ": 222,
      "Ğ": 223,
      "ğ": 224,
      "Ġ": 225,
      "ġ": 226,
      "Ģ": 227,
      "ģ": 228,
      "Ĥ": 229,
      "ĥ": 230,
      "Ħ": 231,
      "ħ": 232,
      "Ĩ": 233,
      "ĩ": 234,
      "Ī": 235,
      "ī": 236,
      "Ĭ": 237,
      "ĭ": 238,
      "Į": 239,
      "į": 240,
      "İ": 241,
      "ı": 242,
      "Ĳ": 243,
      "ĳ": 244,
      "Ĵ": 245,
      "ĵ": 246,
      "Ķ": 247,
      "ķ": 248,
      "ĸ": 249,
      "Ĺ": 250,
      "ĺ": 251,
      "Ļ": 252,
      "ļ": 253,
      "Ľ": 254,
      "ľ": 255,
      "Ŀ": 256,
      "ŀ": 257,
      "Ł": 258,
      "ł": 259,
      "Ń": 260,
      "en": 261,
      "Ġt": 262,
      "er": 263,
      "an": 264,
      "he": 265,
      "in": 266,
      "Ġd": 267,
      "Ġw": 268,
      "at": 269,
      "Ġo": 270,
      "Ġs": 271,
      "Ġa": 272,
      "Ġm": 273,
      "Ġ.": 274,
      "Ġb": 275,
      "ä¸": 276,
      "ou": 277,
      "is": 278,
      "et": 279,
      "ar": 280,
      "Ġh": 281,
      "or": 282,
      "Ġg": 283,
      "el": 284,
      "it": 285,
      "Ġthe": 286,
      "Ġv": 287,
      "Ġn": 288,
      "on": 289,
      "ij": 290,
      "es": 291,
      "ed": 292,
      "Ġhe": 293,
      "ing": 294,
      "and": 295,
      "äº": 296,
      "ch": 297,
      "Ġl": 298,
      "Ġp": 299,
      "Ġz": 300,
      "Ġde": 301,
      "Ġe": 302,
      "çļ": 303,
      "al": 304,
      "Ġf": 305,
      "Ġc": 306,
      "Ġin": 307,
      "çļĦ": 308,
      "Ġth": 309,
      "re": 310,
      "Ġj": 311,
      "as": 312,
      "Ġto": 313,
      "Ġk": 314,
      "om": 315,
      "ä»": 316,
      "æĪ": 317,
      "OT": 318,
      "MOT": 319,
      "ie": 320,
      "Ġis": 321,
      "Ġy": 322,
      "ä½": 323,
      "aar": 324,
      "CH": 325,
      "è¿": 326,
      "æĪĳ": 327,
      "CHI": 328,
      "ll": 329,
      "Ġof": 330,
      "æĺ": 331,
      "Ġand": 332,
      "Ġyou": 333,
      "Ġ,": 334,
      "st": 335,
      "ot": 336,
      "æĺ¯": 337,
      "ig": 338,
      "Ġje": 339,
      "Ġon": 340,
      "le": 341,
      "ĠI": 342,
      "ik": 343,
      "ä½ł": 344,
      "Ġeen": 345,
      "ad": 346,
      "äºĨ": 347,
      "å¤": 348,
      "oo": 349,
      "id": 350,
      "Ġhet": 351,
      "oor": 352,
      "ä¹": 353,
      "æľ": 354,
      "Ġu": 355,
      "ow": 356,
      "ere": 357,
      "åı": 358,
      "åĲ": 359,
      "'s": 360,
      "å°": 361,
      "Ġbe": 362,
      "Ġ?": 363,
      "..": 364,
      "ä¸į": 365,
      "Ġr": 366,
      "iet": 367,
      "am": 368,
      "ä¸Ģ": 369,
      "Ġst": 370,
      "ut": 371,
      "Ġen": 372,
      "ve": 373,
      "Ġme": 374,
      "ur": 375,
      "ak": 376,
      "Ġwe": 377,
      "Ġvan": 378,
      "Ġit": 379,
      "il": 380,
      "ay": 381,
      "Ġge": 382,
      "ent": 383,
      "è¯": 384,
      "ic": 385,
      "Ġwas": 386,
      "ver": 387,
      "è¿Ļ": 388,
      "å®": 389,
      "åľ": 390,
      "ijn": 391,
      "åĪ": 392,
      "Ġthat": 393,
      "Ġwh": 394,
      "ag": 395,
      "ro": 396,
      "im": 397,
      "Ġop": 398,
      "Ġdat": 399,
      "Ġniet": 400,
      "ee": 401,
      "cht": 402,
      "å¥": 403,
      "Ġver": 404,
      "Ġdo": 405,
      "ĠS": 406,
      "se": 407,
      "åħ": 408,
      "un": 409,
      "æĿ": 410,
      "Ik": 411,
      "ĠM": 412,
      "Ġte": 413,
      "ä¸ª": 414,
      "th": 415,
      "de": 416,
      "Ġik": 417,
      "ol": 418,
      "ra": 419,
      "ĠT": 420,
      "ĠA": 421,
      "æľī": 422,
      "ĠD": 423,
      "den": 424,
      "est": 425,
      "ir": 426,
      "Ġal": 427,
      "å°±": 428,
      "ĠH": 429,
      "Ġ'": 430,
      "ãĢ": 431,
      "gen": 432,
      "oe": 433,
      "der": 434,
      "'t": 435,
      "ĠB": 436,
      "ion": 437,
      "ijk": 438,
      "Ġer": 439,
      "ly": 440,
      "åĳ": 441,
      "ĥ½": 442,
      "Ġfor": 443,
      "ter": 444,
      "åľ¨": 445,
      "ac": 446,
      "ä»¬": 447,
      "ant": 448,
      "åŃ": 449,
      "å¾": 450,
      "ç»": 451,
      "ãĢĤ": 452,
      "Ġre": 453,
      "æī": 454,
      "ä»ĸ": 455,
      "Ġgo": 456,
      "ap": 457,
      "ht": 458,
      "op": 459,
      "ven": 460,
      "åķ": 461,
      "us": 462,
      "ĠC": 463,
      "ä¹Ī": 464,
      "äºº": 465,
      "Ġze": 466,
      "æĿ¥": 467,
      "ell": 468,
      "ĠæĪĳ": 469,
      "ld": 470,
      "Ġvoor": 471,
      "Ġå": 472,
      "Ġmo": 473,
      "ill": 474,
      "çĶ": 475,
      "ith": 476,
      "çľ": 477,
      "æĹ": 478,
      "Ġzijn": 479,
      "Ġheb": 480,
      "è¯´": 481,
      "ers": 482,
      "ken": 483,
      "Ġall": 484,
      "Ġmet": 485,
      "Ġha": 486,
      "éĤ": 487,
      "Ġ...": 488,
      "ä¼": 489,
      "ct": 490,
      "åķĬ": 491,
      "ft": 492,
      "Ġ1": 493,
      "Ġno": 494,
      "éĤ£": 495,
      "åĽ": 496,
      "ier": 497,
      "ĠW": 498,
      "å¥½": 499,
      "ight": 500,
      "Ġan": 501,
      "Ġwith": 502,
      "ge": 503,
      "ome": 504,
      "ok": 505,
      "aat": 506,
      "æĢ": 507,
      "Ġas": 508,
      "um": 509,
      "ri": 510,
      "åİ": 511,
      "ĠP": 512,
      "æ²": 513,
      "Ġ\"": 514,
      "Ġä½ł": 515,
      "Ġwor": 516,
      "æĥ": 517,
      "em": 518,
      "all": 519,
      "Ġdie": 520,
      "¦ģ": 521,
      "èµ": 522,
      "è¦ģ": 523,
      "hat": 524,
      "Ġle": 525,
      "ĠG": 526,
      "ĠE": 527,
      "ust": 528,
      "éĩ": 529,
      "è®": 530,
      "Ġat": 531,
      "nd": 532,
      "Ġhad": 533,
      "ĠN": 534,
      "ĠJ": 535,
      "åĬ": 536,
      "å¿": 537,
      "aan": 538,
      "å¤§": 539,
      "ce": 540,
      "Ġaan": 541,
      "Ġnot": 542,
      "if": 543,
      "åį": 544,
      "Ġover": 545,
      "ul": 546,
      "èĢ": 547,
      "åĩ": 548,
      "Ġsp": 549,
      "è§": 550,
      "åĪ°": 551,
      "ist": 552,
      "ind": 553,
      "ould": 554,
      "ah": 555,
      "Ġwat": 556,
      "xx": 557,
      "je": 558,
      "Ġkn": 559,
      "IN": 560,
      "Ġhave": 561,
      "Ġthis": 562,
      "ä¸Ĭ": 563,
      "åŃĲ": 564,
      "ĠL": 565,
      "ook": 566,
      "Ġom": 567,
      "æĬ": 568,
      "å·": 569,
      "ĠR": 570,
      "ze": 571,
      "çİ": 572,
      "AT": 573,
      "å¹": 574,
      "å¸": 575,
      "Ġsh": 576,
      "ast": 577,
      "å¼": 578,
      "æ²¡": 579,
      "Ġals": 580,
      "åĨ": 581,
      "...": 582,
      "Ġpl": 583,
      "Ġare": 584,
      "ä¹Ł": 585,
      "art": 586,
      "Ġuit": 587,
      "Ġne": 588,
      "éĥ½": 589,
      "AR": 590,
      "INV": 591,
      "ood": 592,
      "å¯": 593,
      "ab": 594,
      "Ġ2": 595,
      "ess": 596,
      "ug": 597,
      "Ġhis": 598,
      "Ġher": 599,
      "ien": 600,
      "åİ»": 601,
      "è¿ĺ": 602,
      "çľĭ": 603,
      "å¾Ĺ": 604,
      "ĠF": 605,
      "ĠO": 606,
      "eld": 607,
      "rou": 608,
      "Ġzo": 609,
      "å°ı": 610,
      "eer": 611,
      "åĵ": 612,
      "æł": 613,
      "os": 614,
      "Ġone": 615,
      "ä¼ļ": 616,
      "ang": 617,
      "Ġthey": 618,
      "åı¯": 619,
      "éĹ": 620,
      "æĸ": 621,
      "èĥ½": 622,
      "ink": 623,
      "Ġcan": 624,
      "We": 625,
      "è·": 626,
      "Ġmaar": 627,
      "ain": 628,
      "Ħ¿": 629,
      "Ġ(": 630,
      "ä¸º": 631,
      "Ġup": 632,
      "ard": 633,
      "æŃ": 634,
      "Ġfr": 635,
      "æĹ¶": 636,
      "we": 637,
      "ĠK": 638,
      "çĿ": 639,
      "out": 640,
      "Ġknow": 641,
      "nen": 642,
      "Ġyour": 643,
      "Ġnaar": 644,
      "Ġthere": 645,
      "her": 646,
      "ond": 647,
      "Ġ!": 648,
      "ry": 649,
      "end": 650,
      "Ġdon": 651,
      "ä»¥": 652,
      "ck": 653,
      "ike": 654,
      "ich": 655,
      "eah": 656,
      "ä»Ģ": 657,
      "ä»Ģä¹Ī": 658,
      "å¦": 659,
      "Het": 660,
      "rij": 661,
      "Ġdan": 662,
      "Ġman": 663,
      "ru": 664,
      "Ġmoet": 665,
      "å¤©": 666,
      "Ġaf": 667,
      "åĦ¿": 668,
      "oh": 669,
      "Ġsch": 670,
      "åĴ": 671,
      "ens": 672,
      "Ġshe": 673,
      "Ġwhat": 674,
      "Ġso": 675,
      "ET": 676,
      "aal": 677,
      "ä¸ĭ": 678,
      "ore": 679,
      "Ġch": 680,
      "Ġor": 681,
      "å®¶": 682,
      "éĿ": 683,
      "itt": 684,
      "LD": 685,
      "è¿ĩ": 686,
      "Je": 687,
      "be": 688,
      "ack": 689,
      "Ġmy": 690,
      "Ġhij": 691,
      "éģ": 692,
      "åĲİ": 693,
      "ation": 694,
      "CHILD": 695,
      "åº": 696,
      "ull": 697,
      "Ġpro": 698,
      "Ġsa": 699,
      "ake": 700,
      "èĩ": 701,
      "elijk": 702,
      "éĢ": 703,
      "è¡": 704,
      "çĪ": 705,
      "æĥ³": 706,
      "Ġ-": 707,
      "te": 708,
      "TAR": 709,
      "GET": 710,
      "Ġbl": 711,
      "ĠV": 712,
      "TARGET": 713,
      "ong": 714,
      "You": 715,
      "Ġwer": 716,
      "Ġget": 717,
      "Ġben": 718,
      "äºĭ": 719,
      "çĽ": 720,
      "ies": 721,
      "Ġout": 722,
      "çĿĢ": 723,
      "Ġhim": 724,
      "Ġab": 725,
      "ank": 726,
      "åĳ¢": 727,
      "eel": 728,
      "ä¸Ģä¸ª": 729,
      "Ã©": 730,
      "ĠThe": 731,
      "å¯¹": 732,
      "æķ": 733,
      "Ġfrom": 734,
      "Ġpr": 735,
      "Ġwel": 736,
      "Ġlike": 737,
      "Ġse": 738,
      "qu": 739,
      "ip": 740,
      "ine": 741,
      "The": 742,
      "æ¯": 743,
      "éĩĮ": 744,
      "è°": 745,
      "Ġook": 746,
      "Ġtw": 747,
      "'re": 748,
      "ame": 749,
      "Ġwil": 750,
      "æĭ": 751,
      "è¿Ļä¸ª": 752,
      "Ġcom": 753,
      "Ġkan": 754,
      "Wat": 755,
      "ber": 756,
      "Ġbij": 757,
      "æĦ": 758,
      "acht": 759,
      "Ġbut": 760,
      "åĩº": 761,
      "elf": 762,
      "ĠDe": 763,
      "pen": 764,
      "one": 765,
      "De": 766,
      "åĲĹ": 767,
      "na": 768,
      "åĲ§": 769,
      "Ġsu": 770,
      "Ġnog": 771,
      "çī": 772,
      "Ġbo": 773,
      "å¤ļ": 774,
      "Ġby": 775,
      "eft": 776,
      "å½": 777,
      "Ġcon": 778,
      "aak": 779,
      "çŁ": 780,
      "no": 781,
      "you": 782,
      "æ°": 783,
      "Ġhier": 784,
      "åľ°": 785,
      "ort": 786,
      "FAT": 787,
      "ER": 788,
      "çĶŁ": 789,
      "æĪĳä»¬": 790,
      "Ġwere": 791,
      "Ġwaar": 792,
      "Ġdoor": 793,
      "00": 794,
      "Ġex": 795,
      "ç§": 796,
      "au": 797,
      "ç»Ļ": 798,
      "ide": 799,
      "å°±æĺ¯": 800,
      "Ze": 801,
      "sch": 802,
      "æŀ": 803,
      "éģĵ": 804,
      "Ġsee": 805,
      "ive": 806,
      "og": 807,
      "Ġthem": 808,
      "çİ°": 809,
      "what": 810,
      "Dat": 811,
      "Ġkun": 812,
      "çĤ": 813,
      "own": 814,
      "een": 815,
      "che": 816,
      "ben": 817,
      "èĩª": 818,
      "here": 819,
      "'m": 820,
      "çĦ": 821,
      "Ġdid": 822,
      "ep": 823,
      "our": 824,
      "od": 825,
      ".\"": 826,
      "è¾": 827,
      "Ġwant": 828,
      "En": 829,
      "çĦ¶": 830,
      "ä¸Ń": 831,
      "Ġkom": 832,
      "æĶ": 833,
      "xxx": 834,
      "åģ": 835,
      "Ġheeft": 836,
      "å¿ĥ": 837,
      "æ¬": 838,
      "æł·": 839,
      "åĢ": 840,
      "iv": 841,
      "Ġmijn": 842,
      "ek": 843,
      "Ġgoed": 844,
      "Ġbr": 845,
      "Ġgot": 846,
      "Ġsome": 847,
      "Ġè¿Ļ": 848,
      "Ġun": 849,
      "åĴĮ": 850,
      "Ġhebben": 851,
      "è·Ł": 852,
      "Ġabout": 853,
      "Ġ19": 854,
      "ls": 855,
      "Ġdit": 856,
      "Ġwill": 857,
      "Ġel": 858,
      "å¾Ī": 859,
      "ally": 860,
      "Ġbet": 861,
      "eren": 862,
      "ste": 863,
      "ite": 864,
      "ick": 865,
      "èĢģ": 866,
      "å¥¹": 867,
      "ä¿": 868,
      "ijd": 869,
      "'ll": 870,
      "Ġhem": 871,
      "çĤ¹": 872,
      "è´": 873,
      "Ġthink": 874,
      "Ġgr": 875,
      "å§": 876,
      "ff": 877,
      "æİ": 878,
      "æĬĬ": 879,
      "oug": 880,
      "Ġhere": 881,
      "Ġlook": 882,
      "çŁ¥": 883,
      "].": 884,
      "pp": 885,
      "ate": 886,
      "ke": 887,
      "ice": 888,
      "æĢİ": 889,
      "uur": 890,
      "Ġsaid": 891,
      "yeah": 892,
      "åĮ": 893,
      "æ²¡æľī": 894,
      "Ġgeen": 895,
      "ied": 896,
      "å±": 897,
      "Ġword": 898,
      "ä¸įæĺ¯": 899,
      ",\"": 900,
      "Ġjust": 901,
      "åī": 902,
      "ingen": 903,
      "æĢİä¹Ī": 904,
      "Ġwould": 905,
      "to": 906,
      "aten": 907,
      "He": 908,
      "sen": 909,
      "uit": 910,
      "ia": 911,
      "éĻ": 912,
      "ime": 913,
      "èµ·": 914,
      "HER": 915,
      "la": 916,
      "mer": 917,
      "ten": 918,
      "æ³": 919,
      "æĮ": 920,
      "åĳĢ": 921,
      "Ġwho": 922,
      "ĠéĤ£": 923,
      "ĠIn": 924,
      "oon": 925,
      "çľŁ": 926,
      "ect": 927,
      "åĪ«": 928,
      "hing": 929,
      "Ġif": 930,
      "uis": 931,
      "éķ": 932,
      "Ġdr": 933,
      "eg": 934,
      "uk": 935,
      "Ġus": 936,
      "Hij": 937,
      "Ġhaar": 938,
      "pl": 939,
      "Ġmeer": 940,
      "Ġar": 941,
      "per": 942,
      "Ġthen": 943,
      "aken": 944,
      "orm": 945,
      "å¹´": 946,
      "ĠHe": 947,
      "ings": 948,
      "çŃ": 949,
      "Ġwhen": 950,
      "land": 951,
      "Ġter": 952,
      "bl": 953,
      "åĽŀ": 954,
      "éĺ": 955,
      "Ġany": 956,
      "Ġdaar": 957,
      "Ġgaan": 958,
      "éĿ¢": 959,
      "è¯Ŀ": 960,
      "Ġnow": 961,
      "å¼Ģ": 962,
      "--": 963,
      "oord": 964,
      "Ġdeze": 965,
      "oed": 966,
      "Ġsay": 967,
      "ost": 968,
      "are": 969,
      "Ġright": 970,
      "ous": 971,
      "Ġag": 972,
      "è¡Į": 973,
      "Ġjij": 974,
      "ound": 975,
      "that": 976,
      "av": 977,
      "Ġnu": 978,
      "other": 979,
      "ther": 980,
      "pt": 981,
      "elen": 982,
      "åĽ½": 983,
      "ud": 984,
      "ittle": 985,
      "é¢": 986,
      "è½": 987,
      "ä¹ĭ": 988,
      "çº": 989,
      "Ġbeg": 990,
      "æĤ": 991,
      "åıĳ": 992,
      "çŁ¥éģĵ": 993,
      "æĥħ": 994,
      "ose": 995,
      "Ġhand": 996,
      "Ġdoen": 997,
      "MOTHER": 998,
      "æ´": 999,
      "icht": 1000,
      "oll": 1001,
      "Ġbeen": 1002,
      "lijk": 1003,
      "è®©": 1004,
      "Ġdown": 1005,
      "way": 1006,
      "åĸ": 1007,
      "Ġoff": 1008,
      "éķ¿": 1009,
      "ear": 1010,
      "Ġonder": 1011,
      "èµ°": 1012,
      "It": 1013,
      "Ġweet": 1014,
      "ĠCh": 1015,
      "çĻ": 1016,
      "åıª": 1017,
      "Ġcl": 1018,
      "'ve": 1019,
      "Ġback": 1020,
      "ity": 1021,
      "Ġzou": 1022,
      "çĲ": 1023,
      "Ġhou": 1024,
      "æĪĲ": 1025,
      "oun": 1026,
      "å®ļ": 1027,
      "å·±": 1028,
      "Ġ20": 1029,
      "ç»ı": 1030,
      "ĠIt": 1031,
      "æīĢ": 1032,
      "æĦı": 1033,
      "ige": 1034,
      "Ġbed": 1035,
      "ause": 1036,
      "Ġgeb": 1037,
      "Ġsl": 1038,
      "Ġkl": 1039,
      "èĩªå·±": 1040,
      "è§ī": 1041,
      "ker": 1042,
      "eten": 1043,
      "æµ": 1044,
      "Ġbel": 1045,
      "Ġhas": 1046,
      "Ġlittle": 1047,
      "ach": 1048,
      "å®ŀ": 1049,
      "ĠSt": 1050,
      "ew": 1051,
      "ass": 1052,
      "Ġgoing": 1053,
      "ĠU": 1054,
      "Ġga": 1055,
      "ans": 1056,
      "Ġtheir": 1057,
      "ree": 1058,
      "Ġput": 1059,
      "çĶ¨": 1060,
      "Ġtime": 1061,
      "ool": 1062,
      "iets": 1063,
      "ace": 1064,
      "ish": 1065,
      "Ġwhich": 1066,
      "Ġcould": 1067,
      "ele": 1068,
      "ullie": 1069,
      "Ġzeg": 1070,
      "Ġgaat": 1071,
      "Waar": 1072,
      "Ġä»ĸ": 1073,
      "ble": 1074,
      "åĢĻ": 1075,
      "ure": 1076,
      "age": 1077,
      "Ġmore": 1078,
      "my": 1079,
      "åģļ": 1080,
      "zen": 1081,
      "çİ°åľ¨": 1082,
      "als": 1083,
      "Ġbent": 1084,
      "ne": 1085,
      "the": 1086,
      "ä½Ĩ": 1087,
      "æľĢ": 1088,
      "old": 1089,
      "Ġgew": 1090,
      "Ġeven": 1091,
      "Ġ[": 1092,
      "Ġbest": 1093,
      "ire": 1094,
      "äºĽ": 1095,
      "Ġgood": 1096,
      "ç¬": 1097,
      "iss": 1098,
      "æĹ¶åĢĻ": 1099,
      "rouw": 1100,
      "Ġworden": 1101,
      "jes": 1102,
      "Ġwordt": 1103,
      "In": 1104,
      "ade": 1105,
      "ES": 1106,
      "åįģ": 1107,
      "ç®": 1108,
      "Ġvery": 1109,
      "å¦Ī": 1110,
      "Ġhoe": 1111,
      "agen": 1112,
      "eder": 1113,
      "Ġqu": 1114,
      "uw": 1115,
      "åīį": 1116,
      "æīĵ": 1117,
      "yes": 1118,
      "ĠZ": 1119,
      "OR": 1120,
      "æĸ¹": 1121,
      "å½ĵ": 1122,
      "dat": 1123,
      "cause": 1124,
      "Ġmij": 1125,
      "ob": 1126,
      "els": 1127,
      "åĿ": 1128,
      "Ġpe": 1129,
      "èĬ": 1130,
      "Ġhel": 1131,
      "Maar": 1132,
      "oc": 1133,
      "enk": 1134,
      "Ġtwo": 1135,
      "alk": 1136,
      "oek": 1137,
      "æ¸": 1138,
      "Ġons": 1139,
      "men": 1140,
      "Ġjou": 1141,
      "int": 1142,
      "éĴ": 1143,
      "å¤ª": 1144,
      "ä¸ī": 1145,
      "reat": 1146,
      "Ġvol": 1147,
      "orn": 1148,
      "ment": 1149,
      "Th": 1150,
      "Als": 1151,
      "Ġplay": 1152,
      "Ġsom": 1153,
      "Ġkunnen": 1154,
      "mand": 1155,
      "éĽ": 1156,
      "Oh": 1157,
      "Ġgel": 1158,
      "è§ģ": 1159,
      "What": 1160,
      "ark": 1161,
      "ç«": 1162,
      "And": 1163,
      "ian": 1164,
      "wh": 1165,
      "åŃ¦": 1166,
      "åĬ¨": 1167,
      "æĻ": 1168,
      "Nee": 1169,
      "Ġfl": 1170,
      "ert": 1171,
      "Ja": 1172,
      "Ġxxx": 1173,
      "Ġmin": 1174,
      "ä¸¤": 1175,
      "urn": 1176,
      "åĲĥ": 1177,
      "Ġmens": 1178,
      "onder": 1179,
      "æīĭ": 1180,
      "uh": 1181,
      "Ġhebt": 1182,
      "åĪĨ": 1183,
      "Ġ3": 1184,
      "èĤ": 1185,
      "ief": 1186,
      "éĹ®": 1187,
      "Ġhun": 1188,
      "Ġont": 1189,
      "Ġgen": 1190,
      "?\"": 1191,
      "æĤ¨": 1192,
      "Ġever": 1193,
      "ç§į": 1194,
      "oot": 1195,
      "æĺİ": 1196,
      "heid": 1197,
      "IG": 1198,
      "wer": 1199,
      "aren": 1200,
      "äºĮ": 1201,
      "äºİ": 1202,
      "ĠFr": 1203,
      "Ġother": 1204,
      "Ġzal": 1205,
      "pr": 1206,
      "Ġveel": 1207,
      "Ġsn": 1208,
      "Ġiets": 1209,
      "éļ": 1210,
      "ty": 1211,
      "èĢĮ": 1212,
      "åĲ¬": 1213,
      "ord": 1214,
      "åı¯ä»¥": 1215,
      "æĽ": 1216,
      "èº": 1217,
      "riend": 1218,
      "æ±": 1219,
      "é¡": 1220,
      "oof": 1221,
      "ock": 1222,
      "sh": 1223,
      "Ġinto": 1224,
      "me": 1225,
      "racht": 1226,
      "Ġweg": 1227,
      "éĹ´": 1228,
      "Ġgev": 1229,
      "æŀľ": 1230,
      "oel": 1231,
      "ĠTh": 1232,
      "Ġjullie": 1233,
      "Ġper": 1234,
      "è¢": 1235,
      "Een": 1236,
      "ary": 1237,
      "atie": 1238,
      "ople": 1239,
      "ough": 1240,
      "ase": 1241,
      "Ġcar": 1242,
      "è¶": 1243,
      "irst": 1244,
      "åĨį": 1245,
      "ng": 1246,
      "EST": 1247,
      "Ġcome": 1248,
      "Ġeer": 1249,
      "raag": 1250,
      "Ġtr": 1251,
      "omen": 1252,
      "igen": 1253,
      "å¥³": 1254,
      "Ġpart": 1255,
      "eden": 1256,
      "é£": 1257,
      "æŃ£": 1258,
      "æģ": 1259,
      "ä»İ": 1260,
      "!\"": 1261,
      "åıĪ": 1262,
      "Ġtot": 1263,
      "Ġna": 1264,
      "ä½ľ": 1265,
      "Ġmu": 1266,
      "man": 1267,
      "ATOR": 1268,
      "ild": 1269,
      "ESTIG": 1270,
      "INVESTIG": 1271,
      "INVESTIGATOR": 1272,
      "ä»ĸä»¬": 1273,
      "Ġä¸į": 1274,
      "ater": 1275,
      "Ġagain": 1276,
      "Ġzien": 1277,
      "ely": 1278,
      "Ġged": 1279,
      "æ¯Ķ": 1280,
      "åħ¬": 1281,
      "onna": 1282,
      "ç¾": 1283,
      "å®ĥ": 1284,
      "å¤´": 1285,
      "iz": 1286,
      "ĠHet": 1287,
      "åĲĮ": 1288,
      "Ġam": 1289,
      "Ġway": 1290,
      "Ġgro": 1291,
      "Ġsc": 1292,
      "Hoe": 1293,
      "innen": 1294,
      "åħ¶": 1295,
      "aakt": 1296,
      "ys": 1297,
      "æī¾": 1298,
      "Ã«": 1299,
      "ile": 1300,
      "è¿Ľ": 1301,
      "Ġlet": 1302,
      "ä¸»": 1303,
      "åħ³": 1304,
      "Ġweer": 1305,
      "æľ¬": 1306,
      "Ġpeople": 1307,
      "éĶ": 1308,
      "Ġmake": 1309,
      "Ġhow": 1310,
      "åĺ": 1311,
      "ance": 1312,
      "Ġad": 1313,
      "Ġwhere": 1314,
      "amen": 1315,
      "Er": 1316,
      "af": 1317,
      "æ¬¡": 1318,
      "Ġgonna": 1319,
      "Ġterug": 1320,
      "æīį": 1321,
      "Ġmoeten": 1322,
      "Ġcall": 1323,
      "Ġwork": 1324,
      "do": 1325,
      "app": 1326,
      "Ġstr": 1327,
      "æ³ķ": 1328,
      "åħĪ": 1329,
      "Ġmensen": 1330,
      "Ġsm": 1331,
      "è§īå¾Ĺ": 1332,
      "air": 1333,
      "ä¾": 1334,
      "act": 1335,
      "ue": 1336,
      "Ġtegen": 1337,
      "cc": 1338,
      "Ġnie": 1339,
      "Ġwell": 1340,
      "èº«": 1341,
      "amp": 1342,
      "Ġdoes": 1343,
      "çĭ": 1344,
      "esp": 1345,
      "èĦ": 1346,
      "Ġfirst": 1347,
      "Ġecht": 1348,
      "è°¢": 1349,
      "Ġday": 1350,
      "No": 1351,
      "é«": 1352,
      "Ġeens": 1353,
      "ä»Ĭ": 1354,
      "ise": 1355,
      "å¹²": 1356,
      "Ġvert": 1357,
      "Kom": 1358,
      "esch": 1359,
      "é«ĺ": 1360,
      "cl": 1361,
      "Ġmee": 1362,
      "åĬĽ": 1363,
      "iek": 1364,
      "Ġtoo": 1365,
      "åĽł": 1366,
      "ä½łä»¬": 1367,
      "æĦŁ": 1368,
      "å¦Ĥ": 1369,
      "ath": 1370,
      "sp": 1371,
      "Wh": 1372,
      "Ġwerk": 1373,
      "Ġro": 1374,
      "ger": 1375,
      "Ġtell": 1376,
      "ult": 1377,
      "Ġtake": 1378,
      "ann": 1379,
      "oen": 1380,
      "éĤ£ä¸ª": 1381,
      "hm": 1382,
      "Ġsomet": 1383,
      "çŃī": 1384,
      "ci": 1385,
      "Ġmaken": 1386,
      "è¿Ļä¹Ī": 1387,
      "Ġwater": 1388,
      "Yeah": 1389,
      "ĠMr": 1390,
      "ale": 1391,
      "Ġmen": 1392,
      "è¢«": 1393,
      "gens": 1394,
      "æĶ¾": 1395,
      "å£": 1396,
      "Ġafter": 1397,
      "Ġcont": 1398,
      "Ġneed": 1399,
      "¥¿": 1400,
      "èĥ": 1401,
      "Dit": 1402,
      "å·²": 1403,
      "Ġtijd": 1404,
      "å¿«": 1405,
      "Ġkon": 1406,
      "wn": 1407,
      "Ġland": 1408,
      "ruik": 1409,
      "è¾¹": 1410,
      "Ġgez": 1411,
      "ote": 1412,
      "over": 1413,
      "hed": 1414,
      "Ġtwee": 1415,
      "æ°Ķ": 1416,
      "chter": 1417,
      "ç½": 1418,
      "çģ": 1419,
      "ugh": 1420,
      "okay": 1421,
      "Ġalleen": 1422,
      "fore": 1423,
      "ather": 1424,
      "èĭ": 1425,
      "Ġonly": 1426,
      "åħ¨": 1427,
      "ub": 1428,
      "ĠæĪĳä»¬": 1429,
      "åŃ©": 1430,
      "roug": 1431,
      "çĦ¶åĲİ": 1432,
      "oop": 1433,
      "dig": 1434,
      "éĥ": 1435,
      "uck": 1436,
      "æį": 1437,
      "ict": 1438,
      "Ġlaat": 1439,
      "Ġtra": 1440,
      "ount": 1441,
      "ren": 1442,
      "Ġple": 1443,
      "ĥı": 1444,
      "çĥ": 1445,
      "Ġleven": 1446,
      "Ġkomt": 1447,
      "Ġalso": 1448,
      "ave": 1449,
      "è¿Ļæł·": 1450,
      "é©": 1451,
      "Ġkw": 1452,
      "çĪ¸": 1453,
      "Ġact": 1454,
      "dy": 1455,
      "Ġtoch": 1456,
      "æ¡": 1457,
      "ç©": 1458,
      "Ġzich": 1459,
      "æĪĳçļĦ": 1460,
      "St": 1461,
      "èģ": 1462,
      "able": 1463,
      "Ġour": 1464,
      "çķ": 1465,
      "Ġim": 1466,
      "Ġlang": 1467,
      "Ġie": 1468,
      "çĶµ": 1469,
      "Ġwerd": 1470,
      "Ġsec": 1471,
      "ç¥": 1472,
      "oren": 1473,
      "Ġjaar": 1474,
      "é¢ĺ": 1475,
      "éĩį": 1476,
      "ove": 1477,
      "round": 1478,
      "erd": 1479,
      "çļĦæĹ¶åĢĻ": 1480,
      "ory": 1481,
      "æŁ": 1482,
      "çĲĨ": 1483,
      "åºĶ": 1484,
      "where": 1485,
      "ady": 1486,
      "Ġkrij": 1487,
      "elt": 1488,
      "è¥¿": 1489,
      "ooit": 1490,
      "That": 1491,
      "yl": 1492,
      "Is": 1493,
      "æĹł": 1494,
      "å¸¸": 1495,
      "æ°´": 1496,
      "inn": 1497,
      "But": 1498,
      "ated": 1499,
      "çĽ¸": 1500,
      "Ġapp": 1501,
      "Ġ4": 1502,
      "Ġmade": 1503,
      "ja": 1504,
      "åĵª": 1505,
      "åĥı": 1506,
      "ĠY": 1507,
      "Ġdis": 1508,
      "è¯¥": 1509,
      "ons": 1510,
      "Ġkomen": 1511,
      "alen": 1512,
      "Ġhele": 1513,
      "ç´": 1514,
      "å¨": 1515,
      "Ġ201": 1516,
      "ä¸ľ": 1517,
      "Ġmuch": 1518,
      "ought": 1519,
      "ä½Ĩæĺ¯": 1520,
      "ä½ĵ": 1521,
      "çĻ½": 1522,
      "Ġthese": 1523,
      "ellen": 1524,
      "ting": 1525,
      "du": 1526,
      "ĠÂ": 1527,
      "Ġevery": 1528,
      "ov": 1529,
      "èĪ": 1530,
      "çī©": 1531,
      "there": 1532,
      "åŁ": 1533,
      "ĠBr": 1534,
      "gt": 1535,
      "çĽ´": 1536,
      "æĹ¥": 1537,
      "Ĺ¯": 1538,
      "Ġdenk": 1539,
      "Ġwr": 1540,
      "Ġlong": 1541,
      "Ġsle": 1542,
      "èī": 1543,
      "Ġyear": 1544,
      "Ġthan": 1545,
      "ont": 1546,
      "Ġdidn": 1547,
      "ader": 1548,
      "iver": 1549,
      "è¿ĺæĺ¯": 1550,
      "ç³": 1551,
      "éĴ±": 1552,
      "Ġla": 1553,
      "inder": 1554,
      "up": 1555,
      "çĪ±": 1556,
      "Ġmag": 1557,
      "Ġcomp": 1558,
      "Ġblij": 1559,
      "Ġopen": 1560,
      "Ġgek": 1561,
      "çī¹": 1562,
      "Ġæĺ¯": 1563,
      "ĠJe": 1564,
      "Ġshould": 1565,
      "get": 1566,
      "æ´»": 1567,
      "kay": 1568,
      "ix": 1569,
      "Ġkle": 1570,
      "ef": 1571,
      "å¤ĸ": 1572,
      "æ¬¢": 1573,
      "oud": 1574,
      "ç¦": 1575,
      "Well": 1576,
      "Ġbig": 1577,
      "è§£": 1578,
      "ife": 1579,
      "ions": 1580,
      "çĮ": 1581,
      "æŃ»": 1582,
      "arl": 1583,
      "åĸľ": 1584,
      "Ġinter": 1585,
      "Ġnooit": 1586,
      "Ġandere": 1587,
      "åı«": 1588,
      "Ġheel": 1589,
      "æĸ°": 1590,
      "Ġsomething": 1591,
      "æľº": 1592,
      "thing": 1593,
      "Ġaway": 1594,
      "æīĢä»¥": 1595,
      "iff": 1596,
      "æı": 1597,
      "èĻ": 1598,
      "Ġspe": 1599,
      "All": 1600,
      "ä½į": 1601,
      "ward": 1602,
      "self": 1603,
      "è°ģ": 1604,
      "Ġfe": 1605,
      "åĵ¥": 1606,
      "çļĦäºº": 1607,
      "ving": 1608,
      "Ġwon": 1609,
      "Ġ5": 1610,
      "Ã©n": 1611,
      "Ġunder": 1612,
      "'d": 1613,
      "oorden": 1614,
      "aby": 1615,
      "å·¥": 1616,
      "appen": 1617,
      "Ġbefore": 1618,
      "çİĭ": 1619,
      "ische": 1620,
      "Ġzelf": 1621,
      "uid": 1622,
      "Ġå°±": 1623,
      "zelf": 1624,
      "èĬ±": 1625,
      "ä¿¡": 1626,
      "right": 1627,
      "Ġste": 1628,
      "èį": 1629,
      "Ġalles": 1630,
      "åıĭ": 1631,
      "ä½łçļĦ": 1632,
      "å¸Ī": 1633,
      "åĩł": 1634,
      "çľŁçļĦ": 1635,
      "ins": 1636,
      "ail": 1637,
      "Ġwent": 1638,
      "oog": 1639,
      "å©": 1640,
      "itten": 1641,
      "ouw": 1642,
      "ph": 1643,
      "Ġrem": 1644,
      "Ġpol": 1645,
      "oet": 1646,
      "day": 1647,
      "Ġelk": 1648,
      "orry": 1649,
      "Ġmom": 1650,
      "Ġvl": 1651,
      "anna": 1652,
      "Ġbecause": 1653,
      "å®Į": 1654,
      "open": 1655,
      "å·²ç»ı": 1656,
      "Ġtalk": 1657,
      "Ġcr": 1658,
      "ember": 1659,
      "Ġkijk": 1660,
      "Ġvind": 1661,
      "æİ¥": 1662,
      "Ġgl": 1663,
      "éľ": 1664,
      "ors": 1665,
      "Ġgir": 1666,
      "å°ĳ": 1667,
      "åĪļ": 1668,
      "Ġschool": 1669,
      "æĿ¥äºĨ": 1670,
      "ĠMar": 1671,
      "Ġgu": 1672,
      "voor": 1673,
      "Ġverd": 1674,
      "ç¡": 1675,
      "å®ī": 1676,
      "tijd": 1677,
      "å¸¦": 1678,
      "onden": 1679,
      ").": 1680,
      "Ġgebruik": 1681,
      "arm": 1682,
      "é»": 1683,
      "issch": 1684,
      "ãĢĤ\"": 1685,
      "Ġreally": 1686,
      "ç¬¬": 1687,
      "Ġreg": 1688,
      "Ġzei": 1689,
      "of": 1690,
      "ãĢģ": 1691,
      "Ġlast": 1692,
      "aking": 1693,
      "ign": 1694,
      "Ġser": 1695,
      "å§Ĳ": 1696,
      "åĳĬ": 1697,
      "è¿ĺæľī": 1698,
      "ä¸Ģä¸ĭ": 1699,
      "åŃ©åŃĲ": 1700,
      "Ġpers": 1701,
      "Ġstaat": 1702,
      "ä½ı": 1703,
      "Waarom": 1704,
      "åı¯èĥ½": 1705,
      "urt": 1706,
      "eep": 1707,
      "form": 1708,
      "Ġmean": 1709,
      "ä¸įèĥ½": 1710,
      "Ġkind": 1711,
      "æ¶": 1712,
      "çĹ": 1713,
      "orgen": 1714,
      "ijf": 1715,
      "look": 1716,
      "rough": 1717,
      "é©¬": 1718,
      "Ġcame": 1719,
      "ange": 1720,
      "Ġpre": 1721,
      "åĲĪ": 1722,
      "ç¾İ": 1723,
      "æ¼": 1724,
      "ried": 1725,
      "rek": 1726,
      "red": 1727,
      "Ġzw": 1728,
      "Ġnodig": 1729,
      "åĨĽ": 1730,
      "oss": 1731,
      "sl": 1732,
      "but": 1733,
      "ĠUn": 1734,
      "isschien": 1735,
      "éħ": 1736,
      "Ġ200": 1737,
      "Ġhead": 1738,
      "akes": 1739,
      "Ġhelp": 1740,
      "ä»Ĭå¤©": 1741,
      "io": 1742,
      "enn": 1743,
      "ĠÂ·": 1744,
      "ĠAmer": 1745,
      "ful": 1746,
      "Ġmay": 1747,
      "igh": 1748,
      ":\"": 1749,
      "ets": 1750,
      "Ġstart": 1751,
      "ister": 1752,
      "ç»ĵ": 1753,
      "Ġask": 1754,
      "ederland": 1755,
      "éĥ½æĺ¯": 1756,
      "oy": 1757,
      "éĥ¨": 1758,
      "Ġthree": 1759,
      "vol": 1760,
      "Ġdoing": 1761,
      "Ġnever": 1762,
      "oint": 1763,
      "æĽ´": 1764,
      "éª": 1765,
      "Ġâ": 1766,
      "æĢĿ": 1767,
      "woord": 1768,
      "åĪ°äºĨ": 1769,
      "åıĺ": 1770,
      "Ġbu": 1771,
      "ait": 1772,
      "rijk": 1773,
      "amil": 1774,
      "Ġold": 1775,
      "è½¦": 1776,
      "Ġthought": 1777,
      "Ġgem": 1778,
      "é¦": 1779,
      "çĸ": 1780,
      "çĻ¾": 1781,
      "éļ¾": 1782,
      "åľº": 1783,
      "Ġbeh": 1784,
      "ĠAn": 1785,
      "idd": 1786,
      "Ġthrough": 1787,
      "Yes": 1788,
      "äºĶ": 1789,
      "Ġjon": 1790,
      "well": 1791,
      "Ġthose": 1792,
      "iÃ«": 1793,
      "Ġgreat": 1794,
      "Ġåĵ": 1795,
      "Ġnew": 1796,
      "ss": 1797,
      "Ġgebe": 1798,
      "æľĪ": 1799,
      "Ġturn": 1800,
      "å±±": 1801,
      "Ġhome": 1802,
      "éĿŀ": 1803,
      "ma": 1804,
      "äº²": 1805,
      "Ġmany": 1806,
      "Ġma": 1807,
      "Ġstop": 1808,
      "port": 1809,
      "ious": 1810,
      "åĽłä¸º": 1811,
      "oth": 1812,
      "åĹ¯": 1813,
      "br": 1814,
      "Ġvrouw": 1815,
      "Ġverl": 1816,
      "So": 1817,
      "Ġhouse": 1818,
      "Ġhuis": 1819,
      "Ġnet": 1820,
      "xt": 1821,
      "allen": 1822,
      "ussen": 1823,
      "é¥": 1824,
      "éĹ¨": 1825,
      "Ġkunt": 1826,
      "$$": 1827,
      "ragen": 1828,
      "Ġzit": 1829,
      "ç¤": 1830,
      "éĶĻ": 1831,
      "ĠNederland": 1832,
      "Ġmil": 1833,
      "gr": 1834,
      "è¯·": 1835,
      "stand": 1836,
      "can": 1837,
      "unt": 1838,
      "ĠShe": 1839,
      "AN": 1840,
      "Ġmust": 1841,
      "æ»": 1842,
      "ident": 1843,
      "Jij": 1844,
      "ever": 1845,
      "Ga": 1846,
      "Ġbook": 1847,
      "PAR": 1848,
      "Ġbro": 1849,
      "bij": 1850,
      "Ġaltijd": 1851,
      "ars": 1852,
      "ĠAl": 1853,
      "ved": 1854,
      "ina": 1855,
      "ĠÃ©": 1856,
      "ĠZe": 1857,
      "van": 1858,
      "eef": 1859,
      "èĲ": 1860,
      "ces": 1861,
      "Ġbaby": 1862,
      "åĬŀ": 1863,
      "Ġeigen": 1864,
      "åı£": 1865,
      "Ġonze": 1866,
      "ĠIk": 1867,
      "è·¯": 1868,
      "Ġfind": 1869,
      "Ġcalled": 1870,
      "Ġthings": 1871,
      "Ġwanna": 1872,
      "æŃ¤": 1873,
      "erk": 1874,
      "Ġthing": 1875,
      "beeld": 1876,
      "oort": 1877,
      "oem": 1878,
      "kÃ©": 1879,
      "vel": 1880,
      "Ġstill": 1881,
      "Ġkeer": 1882,
      "les": 1883,
      "Ġanother": 1884,
      "åĵĪ": 1885,
      "ders": 1886,
      "ĠYou": 1887,
      "Ġshow": 1888,
      "uren": 1889,
      "åıĹ": 1890,
      "éĢļ": 1891,
      "ç²": 1892,
      "Ġdag": 1893,
      "æľĭ": 1894,
      "äºĭåĦ¿": 1895,
      "row": 1896,
      "æ·": 1897,
      "ç¨": 1898,
      "Ġche": 1899,
      "Ġzeggen": 1900,
      "oofd": 1901,
      "åĽĽ": 1902,
      "ĠÃ©Ã©n": 1903,
      "emaal": 1904,
      "çľ¼": 1905,
      "gel": 1906,
      "Ġaut": 1907,
      "Ġdoe": 1908,
      "Ġä¸Ģ": 1909,
      "Ġeat": 1910,
      "Ġbit": 1911,
      "æĢ»": 1912,
      "å¤§å®¶": 1913,
      "Ġæľī": 1914,
      "æľĭåıĭ": 1915,
      "æ¯ı": 1916,
      "Ġwaren": 1917,
      "Ġachter": 1918,
      "åĲį": 1919,
      "atuur": 1920,
      "Ġiemand": 1921,
      "Ġnum": 1922,
      "Daar": 1923,
      "ieren": 1924,
      "Ġalle": 1925,
      "Ġgive": 1926,
      "åĲĳ": 1927,
      "å°Ĩ": 1928,
      "ates": 1929,
      "Ġverk": 1930,
      "unn": 1931,
      "Ġits": 1932,
      "Ġgra": 1933,
      "Ġå¥½": 1934,
      "Ġå¦": 1935,
      "éĺŁ": 1936,
      "åĴ±": 1937,
      "Ġtoen": 1938,
      "Ġpres": 1939,
      "etje": 1940,
      "æħ": 1941,
      "åĸľæ¬¢": 1942,
      "ĠåĽ": 1943,
      "eerd": 1944,
      "åĬł": 1945,
      "èĢħ": 1946,
      "Goed": 1947,
      "EN": 1948,
      "ullen": 1949,
      "Ġrec": 1950,
      "Ġfound": 1951,
      "ms": 1952,
      "off": 1953,
      "ä¹Łä¸į": 1954,
      "Ġkinder": 1955,
      "esl": 1956,
      "ubl": 1957,
      "Ġminut": 1958,
      "Ġelkaar": 1959,
      "æĭ¿": 1960,
      "å¹³": 1961,
      "amer": 1962,
      "eds": 1963,
      "åĺĽ": 1964,
      "Ġbre": 1965,
      "eter": 1966,
      "ical": 1967,
      "ä¸ļ": 1968,
      "Ġ18": 1969,
      "come": 1970,
      "let": 1971,
      "Ġdus": 1972,
      "inden": 1973,
      "æĹ¶éĹ´": 1974,
      "è®¤": 1975,
      "Ġdood": 1976,
      "ijden": 1977,
      "å¸®": 1978,
      "ope": 1979,
      "Ġgewoon": 1980,
      "Heb": 1981,
      "ody": 1982,
      "ç¡®": 1983,
      "Ġfamil": 1984,
      "è®°": 1985,
      "Ġdone": 1986,
      "Ġchild": 1987,
      "ä¸ĩ": 1988,
      "åº¦": 1989,
      "Ġlaten": 1990,
      "Ġzegt": 1991,
      "Ġniets": 1992,
      "éĢī": 1993,
      "ç®Ĺ": 1994,
      "Ġboy": 1995,
      "ude": 1996,
      "org": 1997,
      "wij": 1998,
      "Ġlot": 1999,
      "çł": 2000,
      "è¡¨": 2001,
      "Ġname": 2002,
      "ä»»": 2003,
      "Ġzie": 2004,
      "ib": 2005,
      "iden": 2006,
      "ĠHij": 2007,
      "ĠBe": 2008,
      "On": 2009,
      "Ġmight": 2010,
      "æĸĩ": 2011,
      "ä¹Łæĺ¯": 2012,
      "æµ·": 2013,
      "ä»¶": 2014,
      "ĠSp": 2015,
      "å£°": 2016,
      "aam": 2017,
      "Die": 2018,
      "Ġgeh": 2019,
      "Ġtoe": 2020,
      "isch": 2021,
      "é¸": 2022,
      "Ġ6": 2023,
      "ç³»": 2024,
      "Ġant": 2025,
      "äºĨä¸Ģ": 2026,
      "Ġred": 2027,
      "Ġnou": 2028,
      "Ġbinnen": 2029,
      "by": 2030,
      "ä¿Ŀ": 2031,
      "Ġweten": 2032,
      "åı¯æĺ¯": 2033,
      "ĠAnd": 2034,
      "Ġdiff": 2035,
      "Ġversch": 2036,
      "apt": 2037,
      "Ġvo": 2038,
      "bo": 2039,
      "ents": 2040,
      "ually": 2041,
      "çļĦè¯Ŀ": 2042,
      "elijke": 2043,
      "äºĭæĥħ": 2044,
      "è±": 2045,
      "Ġnight": 2046,
      "Ġnee": 2047,
      "åħ¶å®ŀ": 2048,
      "Ġres": 2049,
      "uiten": 2050,
      "çĶ·": 2051,
      "Ġhard": 2052,
      "Ġfil": 2053,
      "oeg": 2054,
      "Ġerg": 2055,
      "å¤Ħ": 2056,
      "Ġsamen": 2057,
      "Ġmost": 2058,
      "Ġvast": 2059,
      "ummy": 2060,
      "çĲĥ": 2061,
      "Ġfriend": 2062,
      "å²": 2063,
      "ughs": 2064,
      "uwe": 2065,
      "çĪ·": 2066,
      "Ġgrote": 2067,
      "They": 2068,
      "Ġtry": 2069,
      "Ġpap": 2070,
      "veel": 2071,
      "æĢ§": 2072,
      "AD": 2073,
      "æĴ": 2074,
      "æĹ©": 2075,
      "Ġerm": 2076,
      "dracht": 2077,
      "ww": 2078,
      "ç®¡": 2079,
      "Ġown": 2080,
      "Ġmon": 2081,
      "ster": 2082,
      "åĳ½": 2083,
      "Ġgirl": 2084,
      "oney": 2085,
      "ooi": 2086,
      "Ġeerste": 2087,
      "Ġproble": 2088,
      "Ġallemaal": 2089,
      "éĵ": 2090,
      "ĠEng": 2091,
      "Ġdoet": 2092,
      "arn": 2093,
      "ĠSch": 2094,
      "Ġåľ¨": 2095,
      "æ¸ħ": 2096,
      "),": 2097,
      "ĠThey": 2098,
      "gende": 2099,
      "imes": 2100,
      "Ġatt": 2101,
      "æľĽ": 2102,
      "å¼ł": 2103,
      "This": 2104,
      "Ġfin": 2105,
      "éĩı": 2106,
      "Mijn": 2107,
      "æ®": 2108,
      "åĶ": 2109,
      "åħī": 2110,
      "Ġvader": 2111,
      "Ġaround": 2112,
      "ereen": 2113,
      "ĠGod": 2114,
      "ĠWe": 2115,
      "è¯ī": 2116,
      "Ġzitten": 2117,
      "cent": 2118,
      "Ġlater": 2119,
      "ited": 2120,
      "çĽ®": 2121,
      "ç»ĻæĪĳ": 2122,
      "Ġgroot": 2123,
      "alf": 2124,
      "oos": 2125,
      "æĬ¥": 2126,
      "isten": 2127,
      "Ġwij": 2128,
      "atter": 2129,
      "She": 2130,
      "Ġcomm": 2131,
      "Ġisn": 2132,
      "Ġbus": 2133,
      ".'": 2134,
      "Ġdes": 2135,
      "ĠAr": 2136,
      "æĻļ": 2137,
      "åĮĸ": 2138,
      "éĤ£ä¹Ī": 2139,
      "ende": 2140,
      "ä¸Ģå®ļ": 2141,
      "åĩºæĿ¥": 2142,
      "ç¦»": 2143,
      "ama": 2144,
      "Ġsuch": 2145,
      "Ġused": 2146,
      "Ġfeel": 2147,
      "ä¸įä¼ļ": 2148,
      "Ġrest": 2149,
      "Ġkinderen": 2150,
      "ä¸İ": 2151,
      "ä»ĸçļĦ": 2152,
      "ä¸Ģèµ·": 2153,
      "ä½ķ": 2154,
      "ple": 2155,
      "mhm": 2156,
      "ĠEn": 2157,
      "Ġyears": 2158,
      "æĳ": 2159,
      "æıĲ": 2160,
      "ition": 2161,
      "Ġplace": 2162,
      "There": 2163,
      "ĠWh": 2164,
      ",'": 2165,
      "ced": 2166,
      "çŃĶ": 2167,
      "kend": 2168,
      "ucht": 2169,
      "Ġbeing": 2170,
      "çļĦæĺ¯": 2171,
      "è¶Ĭ": 2172,
      "Ġbetter": 2173,
      "Ġend": 2174,
      "ijt": 2175,
      "ift": 2176,
      "aw": 2177,
      "åİŁ": 2178,
      "ä¸ľè¥¿": 2179,
      "ĠPr": 2180,
      "åħ«": 2181,
      "Ġgeld": 2182,
      "éĩĳ": 2183,
      "Ġwereld": 2184,
      "Niet": 2185,
      "Ġplaat": 2186,
      "Ġied": 2187,
      "åıį": 2188,
      "20": 2189,
      "æ¢": 2190,
      "æ¡Ī": 2191,
      "çħ": 2192,
      "Ġdra": 2193,
      "side": 2194,
      "ç¼": 2195,
      "Ġweek": 2196,
      "outh": 2197,
      "Ġä½Ĩæĺ¯": 2198,
      "ince": 2199,
      "æĪĺ": 2200,
      "Laat": 2201,
      "å¦Īå¦Ī": 2202,
      "Ġmoment": 2203,
      "æĢķ": 2204,
      "Ġsit": 2205,
      "erg": 2206,
      "Zo": 2207,
      "body": 2208,
      "ç±": 2209,
      "ĠEen": 2210,
      "çı": 2211,
      "ä¸ĸ": 2212,
      "sel": 2213,
      "ames": 2214,
      "æ°ĳ": 2215,
      "ä¸ºä»Ģä¹Ī": 2216,
      "éĹ®é¢ĺ": 2217,
      "å§ĭ": 2218,
      "ott": 2219,
      "000": 2220,
      "Ġrel": 2221,
      "Ġzoals": 2222,
      "med": 2223,
      ".]": 2224,
      "IS": 2225,
      "Ġgedaan": 2226,
      "æķħ": 2227,
      "ĠGr": 2228,
      "Ġå°ı": 2229,
      "åĳĺ": 2230,
      "EX": 2231,
      "pe": 2232,
      "ial": 2233,
      "ĠLe": 2234,
      "Ġplan": 2235,
      "å¥½çļĦ": 2236,
      "so": 2237,
      "ĠçĦ¶åĲİ": 2238,
      "iel": 2239,
      "hes": 2240,
      "aard": 2241,
      "geven": 2242,
      "ieve": 2243,
      "alt": 2244,
      "Ġvragen": 2245,
      "emen": 2246,
      "æ£": 2247,
      "èµ·æĿ¥": 2248,
      "Ġcour": 2249,
      "Ġwhile": 2250,
      "ations": 2251,
      "å¢": 2252,
      "omm": 2253,
      "ohn": 2254,
      "Ġvinden": 2255,
      "Ġ7": 2256,
      "ways": 2257,
      "ä»£": 2258,
      "åºĶè¯¥": 2259,
      "pro": 2260,
      "oeken": 2261,
      "çª": 2262,
      "Ġlife": 2263,
      "Ġdrie": 2264,
      "rijf": 2265,
      "Ġhappen": 2266,
      "uister": 2267,
      "Ġsupp": 2268,
      "ps": 2269,
      "Ġå¯": 2270,
      "Ġbez": 2271,
      "Ġru": 2272,
      "é£İ": 2273,
      "Ġvraag": 2274,
      "ves": 2275,
      "æĪĳå°±": 2276,
      "Ġging": 2277,
      "Ġvriend": 2278,
      "åĳĬè¯ī": 2279,
      "this": 2280,
      "Ġcount": 2281,
      "åħ¥": 2282,
      "Ġå°±æĺ¯": 2283,
      "Ġsame": 2284,
      "æĲ": 2285,
      "\".": 2286,
      "ä½łè¯´": 2287,
      "å¨ĺ": 2288,
      "EXP": 2289,
      "ett": 2290,
      "äº¤": 2291,
      "æĿ¡": 2292,
      "ork": 2293,
      "Ġprob": 2294,
      "vent": 2295,
      "rist": 2296,
      "Ġfour": 2297,
      "ters": 2298,
      "aart": 2299,
      "maal": 2300,
      "å¤Ł": 2301,
      "ican": 2302,
      "Ġsteeds": 2303,
      "æ¥": 2304,
      "åĨħ": 2305,
      "Ġstaan": 2306,
      "Ġmoeder": 2307,
      "Ġwillen": 2308,
      "éŁ": 2309,
      "Ġä½łä»¬": 2310,
      "è£": 2311,
      "Ġkeep": 2312,
      "Wie": 2313,
      "oten": 2314,
      "Ġelse": 2315,
      "æĪ¿": 2316,
      "irect": 2317,
      "Ġhoofd": 2318,
      "Ġuw": 2319,
      "cy": 2320,
      "Ġpolit": 2321,
      "Ġå¦Ĥ": 2322,
      "ä»¥åĲİ": 2323,
      "Ġmeest": 2324,
      "å½±": 2325,
      "laughs": 2326,
      "Ġwhy": 2327,
      "ower": 2328,
      "ĠBut": 2329,
      "addy": 2330,
      "éĢģ": 2331,
      "Ġlig": 2332,
      "Ġè¿Ļä¸ª": 2333,
      "Ġju": 2334,
      "ern": 2335,
      "ird": 2336,
      "çİ©": 2337,
      "mm": 2338,
      "Voor": 2339,
      "Ġcol": 2340,
      "è¿ĳ": 2341,
      "Op": 2342,
      "Ġsur": 2343,
      "ä¹Ĳ": 2344,
      "Ġwie": 2345,
      "ä¸ŃåĽ½": 2346,
      "Ġstand": 2347,
      "kom": 2348,
      "Ġpop": 2349,
      "ruk": 2350,
      "èī²": 2351,
      "uss": 2352,
      "Ġsnel": 2353,
      "ĠEr": 2354,
      "aag": 2355,
      "æľį": 2356,
      "Ġwilde": 2357,
      "bs": 2358,
      "Ġsaw": 2359,
      "ä¹°": 2360,
      "Ġball": 2361,
      "Ġmar": 2362,
      "è°¢è°¢": 2363,
      "they": 2364,
      "Ġanders": 2365,
      "å¼Ł": 2366,
      "Ġmother": 2367,
      "How": 2368,
      "Ġ8": 2369,
      "Ġverh": 2370,
      "Ġtussen": 2371,
      "ĠæīĢä»¥": 2372,
      "ç»Ļä½ł": 2373,
      "Ġnext": 2374,
      "aut": 2375,
      "Kijk": 2376,
      "Ġroom": 2377,
      "ĠSh": 2378,
      "mp": 2379,
      "ä¸Ķ": 2380,
      "Ġnieuwe": 2381,
      "Ġdoesn": 2382,
      "çī¹åĪ«": 2383,
      "ä¸Ģæł·": 2384,
      "Ġlove": 2385,
      "ash": 2386,
      "å»": 2387,
      "çĪ¶": 2388,
      "Dan": 2389,
      "OkÃ©": 2390,
      "è¿ŀ": 2391,
      "è¿ĻäºĽ": 2392,
      "she": 2393,
      "ç¥ŀ": 2394,
      "Ġokay": 2395,
      "ject": 2396,
      "èĩªå·±çļĦ": 2397,
      "å®³": 2398,
      "æĮº": 2399,
      "äººçļĦ": 2400,
      "æķĻ": 2401,
      "now": 2402,
      "Ġanything": 2403,
      "Ġliv": 2404,
      "Ġomdat": 2405,
      "å¾Īå¤ļ": 2406,
      "arly": 2407,
      "è®²": 2408,
      "Ġå¯¹": 2409,
      "Ġten": 2410,
      "Ġleft": 2411,
      "Ġve": 2412,
      "äº§": 2413,
      "Ġtold": 2414,
      "Ġacc": 2415,
      "ä¸ĢçĤ¹": 2416,
      "anden": 2417,
      "Ġlie": 2418,
      "æľŁ": 2419,
      "att": 2420,
      "Ġnice": 2421,
      "Ġsure": 2422,
      "iteit": 2423,
      "ä¹Ŀ": 2424,
      "room": 2425,
      "ĠåĴ": 2426,
      "Ġac": 2427,
      "oes": 2428,
      "put": 2429,
      "Ġbeter": 2430,
      "åºķ": 2431,
      "If": 2432,
      "eek": 2433,
      "Ġbelang": 2434,
      "è¿ľ": 2435,
      "Ġco": 2436,
      "An": 2437,
      "Ġzij": 2438,
      "èĢĥ": 2439,
      "Ġsy": 2440,
      "Ġid": 2441,
      "ĠDat": 2442,
      "è·ĳ": 2443,
      "ese": 2444,
      "æ±Ĥ": 2445,
      "åĪ©": 2446,
      "åı¸": 2447,
      "ton": 2448,
      "az": 2449,
      "Ġdog": 2450,
      "ped": 2451,
      "ä¸¤ä¸ª": 2452,
      "led": 2453,
      "gelijk": 2454,
      "çĨ": 2455,
      "til": 2456,
      "ä¿©": 2457,
      "æĶ¶": 2458,
      "èİ": 2459,
      "vo": 2460,
      "Ġvolgende": 2461,
      "æķ°": 2462,
      "Al": 2463,
      "Ġalways": 2464,
      "Ġret": 2465,
      "Weet": 2466,
      "å¾Ģ": 2467,
      "Ġinform": 2468,
      "ĠNew": 2469,
      "Ġjouw": 2470,
      "éĿŀå¸¸": 2471,
      "Ġ10": 2472,
      "aad": 2473,
      "Ġsw": 2474,
      "ĠIs": 2475,
      "Ġmed": 2476,
      "Ġleuk": 2477,
      "ä¹¦": 2478,
      "é¼": 2479,
      "Ġlooks": 2480,
      "gest": 2481,
      "çĬ": 2482,
      "Ġuse": 2483,
      "Ġhalf": 2484,
      "¿½": 2485,
      "arr": 2486,
      "å©ļ": 2487,
      "Ġph": 2488,
      "not": 2489,
      "å¼Ģå§ĭ": 2490,
      "Ġcent": 2491,
      "Ġdacht": 2492,
      "Ġcle": 2493,
      "å¤«": 2494,
      "Ġcons": 2495,
      "è¿Ļæĺ¯": 2496,
      "åħŃ": 2497,
      "iks": 2498,
      "Ġwind": 2499,
      "Ġperson": 2500,
      "Ġstra": 2501,
      "çĹħ": 2502,
      "RO": 2503,
      "éľĢ": 2504,
      "åŁİ": 2505,
      "ç¬ĳ": 2506,
      "Ġmoest": 2507,
      "Ġstad": 2508,
      "Ġja": 2509,
      "å¥½äºĨ": 2510,
      "ĠAls": 2511,
      "Ġbesch": 2512,
      "Ġnaam": 2513,
      "Ġmaak": 2514,
      "Ġsk": 2515,
      "ï¿½": 2516,
      "\",": 2517,
      "ream": 2518,
      "its": 2519,
      "å¼º": 2520,
      "ç©º": 2521,
      "çº¢": 2522,
      "Ġpoint": 2523,
      "Ġsche": 2524,
      "Ġhoor": 2525,
      "Ġleg": 2526,
      "Ġfather": 2527,
      "Ġtook": 2528,
      "oman": 2529,
      "ots": 2530,
      "ence": 2531,
      "ĠâĢ": 2532,
      "atch": 2533,
      "çħ§": 2534,
      "Ġtek": 2535,
      "ield": 2536,
      "Ġå¦Ĥæŀľ": 2537,
      "åĳĥ": 2538,
      "part": 2539,
      "æł¹": 2540,
      "é¥Ń": 2541,
      "Ġtru": 2542,
      "é£ŀ": 2543,
      "è·ŁæĪĳ": 2544,
      "Ġke": 2545,
      "Ġreal": 2546,
      "ged": 2547,
      "æ¼Ķ": 2548,
      "ational": 2549,
      "any": 2550,
      "vis": 2551,
      "Ġpar": 2552,
      "ç´§": 2553,
      "åĩĨ": 2554,
      "Ġuur": 2555,
      "Ġvrij": 2556,
      "æŀĹ": 2557,
      "Ġkijken": 2558,
      "åľ¨è¿Ļ": 2559,
      "erent": 2560,
      "æģ¯": 2561,
      "Ġind": 2562,
      "ä¸įçŁ¥éģĵ": 2563,
      "Ġdirect": 2564,
      "ä¸ºäºĨ": 2565,
      "roeg": 2566,
      "ĠèĢĮ": 2567,
      "Ġåĵİ": 2568,
      "çģ«": 2569,
      "Ġziet": 2570,
      "Ġgone": 2571,
      "Ġem": 2572,
      "Hier": 2573,
      "è®¡": 2574,
      "eng": 2575,
      "Ġkrijgen": 2576,
      "Ġdist": 2577,
      "Ġbas": 2578,
      "Ch": 2579,
      "Ġ199": 2580,
      "åİ»äºĨ": 2581,
      "Dus": 2582,
      "ä¾¿": 2583,
      "ween": 2584,
      "Ġprodu": 2585,
      "åĴ±ä»¬": 2586,
      "ieft": 2587,
      "Ġread": 2588,
      "Ġwacht": 2589,
      "uff": 2590,
      "Wil": 2591,
      "Ġint": 2592,
      "ole": 2593,
      "éĻ¢": 2594,
      "rew": 2595,
      "é¾": 2596,
      "Ġpass": 2597,
      "Ġzeker": 2598,
      "Ġthough": 2599,
      "Ġgeven": 2600,
      "erm": 2601,
      "èĽ": 2602,
      "ness": 2603,
      "akken": 2604,
      "Ġbad": 2605,
      "eth": 2606,
      "Ġmis": 2607,
      "Ġbelangrijk": 2608,
      "çļĦä¸Ģ": 2609,
      "how": 2610,
      "Ġmaakt": 2611,
      "olog": 2612,
      "Ġvis": 2613,
      "reen": 2614,
      "Ġhold": 2615,
      "çľĭçľĭ": 2616,
      "reek": 2617,
      "åĲĦ": 2618,
      "ĠWat": 2619,
      "Ġkwam": 2620,
      "æľīä¸Ģ": 2621,
      "Ġmoney": 2622,
      "èħ": 2623,
      "Ġå¥¹": 2624,
      "ä¼ł": 2625,
      "Why": 2626,
      "åĸĿ": 2627,
      "Be": 2628,
      "ollow": 2629,
      "val": 2630,
      "èĬĤ": 2631,
      "Ġart": 2632,
      "eb": 2633,
      "æĦıæĢĿ": 2634,
      "ished": 2635,
      "ush": 2636,
      "Ġcare": 2637,
      "ouden": 2638,
      "19": 2639,
      "Ġeyes": 2640,
      "ling": 2641,
      "çĶ±": 2642,
      "orning": 2643,
      "Ġeten": 2644,
      "Ġenough": 2645,
      "Ġsays": 2646,
      "Ġtre": 2647,
      "ä¸įè¦ģ": 2648,
      "ä¸ĥ": 2649,
      "Ġyeah": 2650,
      "æŁ¥": 2651,
      "ract": 2652,
      "ijkt": 2653,
      "Ġ9": 2654,
      "ĠOp": 2655,
      "Ġwait": 2656,
      "Ben": 2657,
      "Ġpret": 2658,
      "komen": 2659,
      "Ġgemaakt": 2660,
      "cle": 2661,
      "åĪ¶": 2662,
      "æļ": 2663,
      "Ã¨": 2664,
      "ĠThis": 2665,
      "Ġgezien": 2666,
      "Ġcoming": 2667,
      "atuurlijk": 2668,
      "Ġgoede": 2669,
      "Ġside": 2670,
      "Ġdec": 2671,
      "ai": 2672,
      "åŃĹ": 2673,
      "uring": 2674,
      "èĮ": 2675,
      "eling": 2676,
      "Ġstud": 2677,
      "aur": 2678,
      "Ġpaar": 2679,
      "Ġè¦ģ": 2680,
      "ellow": 2681,
      "åıĳçİ°": 2682,
      "Ġopdracht": 2683,
      "Ġwalk": 2684,
      "Wel": 2685,
      "ĠMaar": 2686,
      "Ġsing": 2687,
      "iding": 2688,
      "çķĻ": 2689,
      "ax": 2690,
      "ats": 2691,
      "Ġverm": 2692,
      "Don": 2693,
      "æ¯į": 2694,
      "æķ´": 2695,
      "ross": 2696,
      "ä¼¤": 2697,
      "ids": 2698,
      "ç«ĭ": 2699,
      "Ġface": 2700,
      "ĠAf": 2701,
      "å¤ĩ": 2702,
      "åĨ³": 2703,
      "Ġbedoel": 2704,
      "Ġä¹Ł": 2705,
      "who": 2706,
      "Ġuntil": 2707,
      "å¸Ĥ": 2708,
      "aps": 2709,
      "Ġmeis": 2710,
      "èµ¶": 2711,
      "ĠåĽł": 2712,
      "å·¥ä½ľ": 2713,
      "Ġkill": 2714,
      "cies": 2715,
      "Ġgest": 2716,
      "log": 2717,
      "Ġexc": 2718,
      "Ġtele": 2719,
      "Ġhear": 2720,
      "Ġå½": 2721,
      "chten": 2722,
      "fect": 2723,
      "cept": 2724,
      "ĠæĢİä¹Ī": 2725,
      "åķ¦": 2726,
      "å¿ħ": 2727,
      "åĮ»": 2728,
      "Ġwilt": 2729,
      "ta": 2730,
      "è¿Ļç§į": 2731,
      "é¡¹": 2732,
      "Ġå¤§": 2733,
      "ĠOn": 2734,
      "orth": 2735,
      "Nu": 2736,
      "Ġtekst": 2737,
      "baar": 2738,
      "Ġfar": 2739,
      "ries": 2740,
      "Ġhelemaal": 2741,
      "çĶŁæ´»": 2742,
      "æµģ": 2743,
      "åĿĲ": 2744,
      "æĿĢ": 2745,
      "Ġvand": 2746,
      "Ġdingen": 2747,
      "åĿĹ": 2748,
      "Ġnam": 2749,
      "ĠJohn": 2750,
      "ible": 2751,
      "Ġass": 2752,
      "Ġquite": 2753,
      "Ġyoung": 2754,
      "ç¢": 2755,
      "Ġverb": 2756,
      "ĠEur": 2757,
      "å®Ŀ": 2758,
      "nee": 2759,
      "èĢģå¸Ī": 2760,
      "èı": 2761,
      "Ġteam": 2762,
      "Ġasked": 2763,
      "å¤§çļĦ": 2764,
      "ider": 2765,
      "Ġbox": 2766,
      "Ġpie": 2767,
      "Ġknown": 2768,
      "Ġsmall": 2769,
      "è®¸": 2770,
      "Ġgoes": 2771,
      "å®¹": 2772,
      "ron": 2773,
      "æĿ¥çļĦ": 2774,
      "Ġworld": 2775,
      "è¿Ĳ": 2776,
      "ä¸ĢçĽ´": 2777,
      "åįĥ": 2778,
      "Now": 2779,
      "une": 2780,
      "å¤±": 2781,
      "åı¥": 2782,
      "assen": 2783,
      "Ġsecond": 2784,
      "ily": 2785,
      "Ġzullen": 2786,
      "ĠAll": 2787,
      "Ġdoll": 2788,
      "ĠâĢ¢": 2789,
      "Ġfive": 2790,
      "ane": 2791,
      "çķĮ": 2792,
      "huh": 2793,
      "Ġhouden": 2794,
      "Ġseen": 2795,
      "go": 2796,
      "Ġden": 2797,
      "ä¹ĭåĲİ": 2798,
      "è¯Ĩ": 2799,
      "aster": 2800,
      "ures": 2801,
      "ants": 2802,
      "æĮĩ": 2803,
      "vie": 2804,
      "etten": 2805,
      "eeft": 2806,
      "åįķ": 2807,
      "Ġbuiten": 2808,
      "Ġdifferent": 2809,
      "Ġcourse": 2810,
      "Ġmorning": 2811,
      "ium": 2812,
      "Ġfew": 2813,
      "çľĭåĪ°": 2814,
      "Ġhapp": 2815,
      "MA": 2816,
      "çĿ¡": 2817,
      "æĪĸ": 2818,
      "åı·": 2819,
      "Ġtop": 2820,
      "Ġsleep": 2821,
      "Ġbetween": 2822,
      "Ġwaarom": 2823,
      "uc": 2824,
      "die": 2825,
      "ball": 2826,
      "Sorry": 2827,
      "Om": 2828,
      "geb": 2829,
      "è¾ĥ": 2830,
      "ics": 2831,
      "ĠåĽłä¸º": 2832,
      "Ġtrain": 2833,
      "res": 2834,
      "çīĩ": 2835,
      "ired": 2836,
      "ä¸įå¥½": 2837,
      "Ġåį": 2838,
      "Ġext": 2839,
      "èµ°äºĨ": 2840,
      "Ġklaar": 2841,
      "Ġplease": 2842,
      "don": 2843,
      "Ġform": 2844,
      "Ġlight": 2845,
      "Ġ15": 2846,
      "Ġniks": 2847,
      "è¯ģ": 2848,
      "ĠInd": 2849,
      "æħ¢": 2850,
      "gaan": 2851,
      "åķ¥": 2852,
      "Let": 2853,
      "éľĢè¦ģ": 2854,
      "Ġeerst": 2855,
      "èĤ¯": 2856,
      "Ġhelpen": 2857,
      "æĮģ": 2858,
      "åĮĹ": 2859,
      "ung": 2860,
      "ankt": 2861,
      "Ġblijven": 2862,
      "Misschien": 2863,
      "Ġnothing": 2864,
      "Ġeach": 2865,
      "ĠBl": 2866,
      "æĺ¯ä¸įæĺ¯": 2867,
      "ĠåĨ": 2868,
      "è½»": 2869,
      "åĮħ": 2870,
      "èµĦ": 2871,
      "ĠRe": 2872,
      "Ġremember": 2873,
      "uld": 2874,
      "æłĳ": 2875,
      "gether": 2876,
      "----": 2877,
      "Ġster": 2878,
      "æĺŁ": 2879,
      "Ġlooking": 2880,
      "Ġboth": 2881,
      "Ġverschill": 2882,
      "åħ´": 2883,
      "Ġtogether": 2884,
      "æĿİ": 2885,
      "å¹¶": 2886,
      "Ġnieuw": 2887,
      "Ver": 2888,
      "ustr": 2889,
      "Ġlief": 2890,
      "Ġgenoeg": 2891,
      "æ»¡": 2892,
      "Ġhor": 2893,
      "Ġupon": 2894,
      "Ġè¿ĺ": 2895,
      "vl": 2896,
      "Ġyes": 2897,
      "æĦ¿": 2898,
      "éŁ³": 2899,
      "why": 2900,
      "allo": 2901,
      "Ġsound": 2902,
      "åĳ¨": 2903,
      "Ġiedereen": 2904,
      "ught": 2905,
      "Ġdisc": 2906,
      "ump": 2907,
      "angen": 2908,
      "zo": 2909,
      "ä½¿": 2910,
      "Ġverand": 2911,
      "ivers": 2912,
      "äº®": 2913,
      "Ġround": 2914,
      "æĭľ": 2915,
      "Ġkant": 2916,
      "Ġbeetje": 2917,
      "Ġfun": 2918,
      "ä¸Ģæ¬¡": 2919,
      "Ġæ²¡": 2920,
      "åħ³ç³»": 2921,
      "Ġspr": 2922,
      "anneer": 2923,
      "åĵİ": 2924,
      "door": 2925,
      "Ġinst": 2926,
      "Do": 2927,
      "Ġauto": 2928,
      "å¥¶": 2929,
      "Ġlar": 2930,
      "Ġfollow": 2931,
      "Ġhands": 2932,
      "ĠæĤ¨": 2933,
      "Ġzonder": 2934,
      "æĭī": 2935,
      "Ġshall": 2936,
      "éħĴ": 2937,
      "cial": 2938,
      "Ġlaatste": 2939,
      "Ġjongen": 2940,
      "æį®": 2941,
      "Ġnumber": 2942,
      "Ġvoel": 2943,
      "åħ±": 2944,
      "ye": 2945,
      "Ġmoe": 2946,
      "Ġeind": 2947,
      "å¦Ĥæŀľ": 2948,
      "Ġonce": 2949,
      "ips": 2950,
      "Ġgewe": 2951,
      "Ġpick": 2952,
      "è½¬": 2953,
      "ason": 2954,
      "è®©æĪĳ": 2955,
      "Ġsix": 2956,
      "Ġgesch": 2957,
      "ement": 2958,
      "Ġplaats": 2959,
      "Mr": 2960,
      "ley": 2961,
      "Ġbang": 2962,
      "ica": 2963,
      "ating": 2964,
      "ctor": 2965,
      "çĪ¸çĪ¸": 2966,
      "åĬ¡": 2967,
      "Ġken": 2968,
      "åĵģ": 2969,
      "Ġstay": 2970,
      "Ġpraten": 2971,
      "Ġyet": 2972,
      "Ġsoon": 2973,
      "ines": 2974,
      "ç¨ĭ": 2975,
      "Ġgebeur": 2976,
      "Ġ_": 2977,
      "waar": 2978,
      "Ġheard": 2979,
      "ape": 2980,
      "ikk": 2981,
      "Ġbec": 2982,
      "Ġspijt": 2983,
      "Ġhimself": 2984,
      "åĽŀæĿ¥": 2985,
      "ches": 2986,
      "ede": 2987,
      "ĠDit": 2988,
      "çº¿": 2989,
      "Ġslecht": 2990,
      "Ġfire": 2991,
      "Nou": 2992,
      "anks": 2993,
      "Ġoor": 2994,
      "Ġhaven": 2995,
      "ared": 2996,
      "wo": 2997,
      "åľ°æĸ¹": 2998,
      "åįĹ": 2999,
      "aden": 3000,
      "Ġverg": 3001,
      "äºĨæĪĳ": 3002,
      "æ¶Ī": 3003,
      "Ġå½ĵ": 3004,
      "è°ĥ": 3005,
      "Ġmiss": 3006,
      "Ġçİ°åľ¨": 3007,
      "èĩ³": 3008,
      "Ġåıª": 3009,
      "use": 3010,
      "rijven": 3011,
      "éĺ¿": 3012,
      "Ġaant": 3013,
      "ĠChrist": 3014,
      "Ġide": 3015,
      "nie": 3016,
      "Ġrun": 3017,
      "zelfde": 3018,
      "apen": 3019,
      "ĠWhat": 3020,
      "Ġset": 3021,
      "ĠDaar": 3022,
      "è¦ģæĺ¯": 3023,
      "Ġsla": 3024,
      "ä½łå¥½": 3025,
      "Ġwonder": 3026,
      "Ġbev": 3027,
      "ex": 3028,
      "Ġwithout": 3029,
      "ual": 3030,
      "æº": 3031,
      "åįĬ": 3032,
      "å»º": 3033,
      "Ġsorry": 3034,
      "TE": 3035,
      "æĦŁè§ī": 3036,
      "æĶ¹": 3037,
      "Ġä½Ĩ": 3038,
      "ĮæľĽ": 3039,
      "HE": 3040,
      "Ġair": 3041,
      "Doe": 3042,
      "Bl": 3043,
      "Come": 3044,
      "åı°": 3045,
      "Ġdri": 3046,
      "å¦¹": 3047,
      "æ®µ": 3048,
      "Ġdrink": 3049,
      "éĽ¶": 3050,
      "Hey": 3051,
      "Ġmem": 3052,
      "éĩĮéĿ¢": 3053,
      "è±¡": 3054,
      "illy": 3055,
      "tje": 3056,
      "Ġfoot": 3057,
      "æķĳ": 3058,
      "æĢ¥": 3059,
      "ennis": 3060,
      "aring": 3061,
      "ç¿": 3062,
      "elde": 3063,
      "Ġrecht": 3064,
      "Ġmind": 3065,
      "Ġhot": 3066,
      "Ġgetting": 3067,
      "æĪĳæĺ¯": 3068,
      "ress": 3069,
      "ept": 3070,
      "Ġgeweest": 3071,
      "æ¸¸": 3072,
      "Ġanim": 3073,
      "fta": 3074,
      "ably": 3075,
      "Ġstuk": 3076,
      "oit": 3077,
      "Ġtoday": 3078,
      "Ġchildren": 3079,
      "did": 3080,
      "Ġboven": 3081,
      "Ġum": 3082,
      "Ġmisschien": 3083,
      "äºĨåĲĹ": 3084,
      "ĠThere": 3085,
      "èµĽ": 3086,
      "inc": 3087,
      "æķ¢": 3088,
      "Ġexp": 3089,
      "åĨĻ": 3090,
      "aas": 3091,
      "Ġhadden": 3092,
      "æŃ¥": 3093,
      "Ġgener": 3094,
      "Ġverder": 3095,
      "Ġ198": 3096,
      "åĨµ": 3097,
      "Dank": 3098,
      "urg": 3099,
      "Ġidee": 3100,
      "Ġmus": 3101,
      "Ġvroeg": 3102,
      "Ġwist": 3103,
      "wel": 3104,
      "?'": 3105,
      "ç«Ļ": 3106,
      "ony": 3107,
      "Ġbeste": 3108,
      "Ġlooked": 3109,
      "ĠJack": 3110,
      "Geen": 3111,
      "Ġger": 3112,
      "ijna": 3113,
      "Met": 3114,
      "Ġhigh": 3115,
      "è§Ĥ": 3116,
      "æĺĵ": 3117,
      "Ġwatch": 3118,
      "é»ĳ": 3119,
      "ched": 3120,
      "ĠUnited": 3121,
      "uz": 3122,
      "å¿Ļ": 3123,
      "fl": 3124,
      "anger": 3125,
      "ĠQ": 3126,
      "Ġvier": 3127,
      "Ġè¿Ļæĺ¯": 3128,
      "Ġè¯´": 3129,
      "inner": 3130,
      "Ġvaak": 3131,
      "elling": 3132,
      "æ³¨": 3133,
      "ĠAmerican": 3134,
      "ĠåĴ±": 3135,
      "SIS": 3136,
      "iam": 3137,
      "ased": 3138,
      "ç²¾": 3139,
      "éĺ³": 3140,
      "ks": 3141,
      "éĿĴ": 3142,
      "Okay": 3143,
      "Ġgraag": 3144,
      "Ġhafta": 3145,
      "osed": 3146,
      "Ġleave": 3147,
      "ows": 3148,
      "Ġcity": 3149,
      "å¯¼": 3150,
      "Ġdro": 3151,
      "oven": 3152,
      "çŀ": 3153,
      "çĥŃ": 3154,
      "Ġagainst": 3155,
      "Ġä»ĸä»¬": 3156,
      "ä¹ī": 3157,
      "ently": 3158,
      "Ġans": 3159,
      "åĢĴ": 3160,
      "Ġsign": 3161,
      "auw": 3162,
      "most": 3163,
      "werk": 3164,
      "Ġdeel": 3165,
      "Ġwanted": 3166,
      "avond": 3167,
      "æĪĳè§īå¾Ĺ": 3168,
      "Bed": 3169,
      "Wacht": 3170,
      "Ġhoud": 3171,
      "con": 3172,
      "Ġnear": 3173,
      "reken": 3174,
      "Ġkleine": 3175,
      "bed": 3176,
      "æīĢæľī": 3177,
      "Ġsort": 3178,
      "åħĦ": 3179,
      "Ġincl": 3180,
      "Of": 3181,
      "Ġwoorden": 3182,
      "omme": 3183,
      "åĬŁ": 3184,
      "ĠèĢģ": 3185,
      "ä¸ĭæĿ¥": 3186,
      "omas": 3187,
      "aald": 3188,
      "Ġdear": 3189,
      "Ġvlie": 3190,
      "Ġhaving": 3191,
      "Ġwar": 3192,
      "Ġpict": 3193,
      "ĨĴ": 3194,
      "å«": 3195,
      "oke": 3196,
      "Ġgave": 3197,
      "Ġmove": 3198,
      "Ġhappened": 3199,
      "Ġtri": 3200,
      "ages": 3201,
      "Ġä½łè¯´": 3202,
      "æĢª": 3203,
      "Ġå¿": 3204,
      "Ġfig": 3205,
      "åĮº": 3206,
      "Sch": 3207,
      "åĵĪåĵĪ": 3208,
      "å¼ı": 3209,
      "My": 3210,
      "ĠWill": 3211,
      "åĭ": 3212,
      "Ġber": 3213,
      "ĠGe": 3214,
      "æĩ": 3215,
      "Ġcut": 3216,
      "oto": 3217,
      "éļı": 3218,
      "å¾ħ": 3219,
      "å±ķ": 3220,
      "ready": 3221,
      "itch": 3222,
      "Ġcoll": 3223,
      "å®ĺ": 3224,
      "ities": 3225,
      "é»Ħ": 3226,
      "é±": 3227,
      "Ġstory": 3228,
      "åł": 3229,
      "Ġheen": 3230,
      "Ġknew": 3231,
      "Ġsir": 3232,
      "Ġmatter": 3233,
      "ĠAs": 3234,
      "urs": 3235,
      "ulp": 3236,
      "è§Ĩ": 3237,
      "èĤ¯å®ļ": 3238,
      "Ġalong": 3239,
      "Ġoffic": 3240,
      "GMA": 3241,
      "é±¼": 3242,
      "å¥½å¥½": 3243,
      "Geef": 3244,
      "éº": 3245,
      "è´¨": 3246,
      "Ġgeluk": 3247,
      "ĠSc": 3248,
      "Ã¯": 3249,
      "æĶ¿": 3250,
      "erde": 3251,
      "åĤ": 3252,
      "è¿ĩæĿ¥": 3253,
      "ction": 3254,
      "è¯ķ": 3255,
      "çıŃ": 3256,
      "æİī": 3257,
      "ĠMrs": 3258,
      "Ġneem": 3259,
      "ç½ĳ": 3260,
      "èĭ¦": 3261,
      "enen": 3262,
      "Ġrond": 3263,
      "çļĩ": 3264,
      "Ġchar": 3265,
      "Ġthuis": 3266,
      "Ġnat": 3267,
      "Ġref": 3268,
      "Hou": 3269,
      "åķĨ": 3270,
      "Ġob": 3271,
      "äººå®¶": 3272,
      "è¾¾": 3273,
      "æİĴ": 3274,
      "weet": 3275,
      "ĠMiss": 3276,
      "ĠHoe": 3277,
      "aint": 3278,
      "Ġzorgen": 3279,
      "Ġing": 3280,
      "ç»Ī": 3281,
      "æ·±": 3282,
      "ument": 3283,
      "ular": 3284,
      "Ġsub": 3285,
      "è¨": 3286,
      "Hallo": 3287,
      "Ġdays": 3288,
      "Ġfilm": 3289,
      "Ġ12": 3290,
      "kken": 3291,
      "Ġmooi": 3292,
      "Ġheet": 3293,
      "ä¹ħ": 3294,
      "âĳ": 3295,
      "Ġlive": 3296,
      "Not": 3297,
      "è¨Ģ": 3298,
      "zeg": 3299,
      "åĽ¢": 3300,
      "unny": 3301,
      "å½¢": 3302,
      "Ġsim": 3303,
      "èģĶ": 3304,
      "son": 3305,
      "éĥ½ä¸į": 3306,
      "Ġverschillende": 3307,
      "gan": 3308,
      "Ġ17": 3309,
      "Ġantwoord": 3310,
      "Ġboek": 3311,
      "Ġheart": 3312,
      "akk": 3313,
      "èĲ½": 3314,
      "ijs": 3315,
      "Ġinformatie": 3316,
      "Ġdel": 3317,
      "ä¸ĬçļĦ": 3318,
      "Le": 3319,
      "Ġdied": 3320,
      "very": 3321,
      "Ġvertellen": 3322,
      "Ġoh": 3323,
      "Ġadd": 3324,
      "Ġwerken": 3325,
      "jebl": 3326,
      "uil": 3327,
      "ijken": 3328,
      "Ġready": 3329,
      "ara": 3330,
      "èģĬ": 3331,
      "Ġtalking": 3332,
      "å¿Ĺ": 3333,
      "Ġdicht": 3334,
      "ui": 3335,
      "onnen": 3336,
      "ommy": 3337,
      "ined": 3338,
      "zoek": 3339,
      "Ġrust": 3340,
      "ret": 3341,
      "ific": 3342,
      "ison": 3343,
      "è¡£": 3344,
      "Ġboys": 3345,
      "äºĨä½ł": 3346,
      "Ġwerden": 3347,
      "æĪĳä»¬çļĦ": 3348,
      "é¦ĸ": 3349,
      "Ġgeweld": 3350,
      "ones": 3351,
      "jeblieft": 3352,
      "Ġdeed": 3353,
      "æľīä»Ģä¹Ī": 3354,
      "erst": 3355,
      "Ġresp": 3356,
      "Ġhour": 3357,
      "Ġfall": 3358,
      "åıĸ": 3359,
      "Ġanswer": 3360,
      "fe": 3361,
      "Ġligt": 3362,
      "Ġlijkt": 3363,
      "Ġuh": 3364,
      "ient": 3365,
      "ç§ĳ": 3366,
      "ha": 3367,
      "Ġbew": 3368,
      "ijdens": 3369,
      "Ġnemen": 3370,
      "Ġooit": 3371,
      "åħ»": 3372,
      "ä¸Ģä¸ªäºº": 3373,
      "Ġbreak": 3374,
      "Ġå¹": 3375,
      "ä¹ĭåīį": 3376,
      "ouse": 3377,
      "iness": 3378,
      "weg": 3379,
      "ĠCl": 3380,
      "Ġgeeft": 3381,
      "ither": 3382,
      "Mm": 3383,
      "Ġmeet": 3384,
      "åĻ": 3385,
      "Ġ197": 3386,
      "Af": 3387,
      "ĠPh": 3388,
      "ator": 3389,
      "eert": 3390,
      "ä¼ļåĦ¿": 3391,
      "ä¸ĢäºĽ": 3392,
      "å¤į": 3393,
      "less": 3394,
      "Ġmaking": 3395,
      "åħ¬åı¸": 3396,
      "Ġkrijgt": 3397,
      "å¸ĮæľĽ": 3398,
      "anc": 3399,
      "Ġhen": 3400,
      "çļĦå°ı": 3401,
      "net": 3402,
      "Ġåı¯æĺ¯": 3403,
      "Ġ202": 3404,
      "Jullie": 3405,
      "Ġwin": 3406,
      "ĠæĪĳæĺ¯": 3407,
      "het": 3408,
      "Ġpubl": 3409,
      "woorden": 3410,
      "äºĮåįģ": 3411,
      "æł¼": 3412,
      "Ġbloed": 3413,
      "ĠåĪ«": 3414,
      "anten": 3415,
      "æľĢåĲİ": 3416,
      "Ġfamily": 3417,
      "å²ģ": 3418,
      "ĠVoor": 3419,
      "bert": 3420,
      "æ¯Ķè¾ĥ": 3421,
      "å¥ĩ": 3422,
      "ĠFrank": 3423,
      "æľ¯": 3424,
      "Ġcountry": 3425,
      "Ġwoord": 3426,
      "ully": 3427,
      "Ġda": 3428,
      "ĠNo": 3429,
      "ertain": 3430,
      "é¹": 3431,
      "ON": 3432,
      "rit": 3433,
      "ç»Ŀ": 3434,
      "é¢Ĩ": 3435,
      "Ġklein": 3436,
      "und": 3437,
      "read": 3438,
      "leg": 3439,
      "ĠOok": 3440,
      "Ġkoning": 3441,
      "å®¢": 3442,
      "è¶³": 3443,
      "gy": 3444,
      "Ġtable": 3445,
      "è·Łä½ł": 3446,
      "çŁ³": 3447,
      "wards": 3448,
      "unch": 3449,
      "å§ĳ": 3450,
      "enty": 3451,
      "Ġmeisje": 3452,
      "ĠæĪĳå°±": 3453,
      "ä¸ĸçķĮ": 3454,
      "ĠåķĬ": 3455,
      "éĩįè¦ģ": 3456,
      "Ġwhe": 3457,
      "ury": 3458,
      "çĶ»": 3459,
      "Sh": 3460,
      "vers": 3461,
      "å·®": 3462,
      "è£ħ": 3463,
      "Ġmanier": 3464,
      "é¾Ļ": 3465,
      "Ġbijna": 3466,
      "www": 3467,
      "ĠæĿ¥": 3468,
      "Ġelke": 3469,
      "Ġzag": 3470,
      "èĦ¸": 3471,
      "Ġgi": 3472,
      "Ġou": 3473,
      "Ġpresent": 3474,
      "ä¹ł": 3475,
      "ĠKing": 3476,
      "Ġbegrij": 3477,
      "ĠEl": 3478,
      "èį¯": 3479,
      "åıĬ": 3480,
      "Ġtown": 3481,
      "ĠBij": 3482,
      "Ġfact": 3483,
      "æĬ¤": 3484,
      "Ġborn": 3485,
      "Ġreturn": 3486,
      "ney": 3487,
      "ĠAmerik": 3488,
      "èŃ": 3489,
      "igd": 3490,
      "è®º": 3491,
      "Ġpos": 3492,
      "Ġfood": 3493,
      "ieden": 3494,
      "Ġjuist": 3495,
      "æŃĮ": 3496,
      "HÃ©": 3497,
      "Ġeff": 3498,
      "ideo": 3499,
      "Ġquest": 3500,
      "åħĪçĶŁ": 3501,
      "èŃ¦": 3502,
      "Ġhart": 3503,
      "å¤ľ": 3504,
      "OU": 3505,
      "Ġbere": 3506,
      "Ġgebruikt": 3507,
      "Ġkre": 3508,
      "eerde": 3509,
      "Ġstarted": 3510,
      "Ġgod": 3511,
      "ives": 3512,
      "½çĦ¶": 3513,
      "ession": 3514,
      "Ġwelke": 3515,
      "Ġsince": 3516,
      "æ¥ļ": 3517,
      "Âł": 3518,
      "Ġ16": 3519,
      "kker": 3520,
      "çľŁæĺ¯": 3521,
      "ĠSte": 3522,
      "çªģ": 3523,
      "Ġty": 3524,
      "Ġbelieve": 3525,
      "ä¸įäºĨ": 3526,
      "Ġpast": 3527,
      "æĺİçĻ½": 3528,
      "Ġhum": 3529,
      "åĵªåĦ¿": 3530,
      "Ġwhole": 3531,
      "aanse": 3532,
      "opt": 3533,
      "Ġgame": 3534,
      "ocal": 3535,
      "ĠGer": 3536,
      "Ġpretty": 3537,
      "Ġbecame": 3538,
      "When": 3539,
      "åį´": 3540,
      "ec": 3541,
      "akt": 3542,
      "ç»Ń": 3543,
      "oopt": 3544,
      "Ġmidd": 3545,
      "Ġnoise": 3546,
      "ital": 3547,
      "æĸŃ": 3548,
      "Ġhoog": 3549,
      "oemen": 3550,
      "Ġsold": 3551,
      "è¿Ļä¸Ģ": 3552,
      "Ġexpl": 3553,
      "Ġvindt": 3554,
      "ï¿½ï¿½": 3555,
      "Ġeverything": 3556,
      "Ġwasn": 3557,
      "voorbeeld": 3558,
      "uurt": 3559,
      "Ġbring": 3560,
      "Ġsaying": 3561,
      "Ġcir": 3562,
      "æĢģ": 3563,
      "é£Ł": 3564,
      "èĥ½å¤Ł": 3565,
      "è¯¯": 3566,
      "ilig": 3567,
      "åŁº": 3568,
      "æ¯Ľ": 3569,
      "Ġav": 3570,
      "éŃ": 3571,
      "Ġca": 3572,
      "æĥħåĨµ": 3573,
      "Ġhers": 3574,
      "ĠYork": 3575,
      "Ġmeneer": 3576,
      "Ġniemand": 3577,
      "ĠAt": 3578,
      "ĠStates": 3579,
      "Ġhoren": 3580,
      "Ġwhite": 3581,
      "Ġgelijk": 3582,
      "ä»½": 3583,
      "éĢł": 3584,
      "werp": 3585,
      "åıĶ": 3586,
      "weede": 3587,
      "ç±»": 3588,
      "uin": 3589,
      "Ġlos": 3590,
      "ocht": 3591,
      "Ġarm": 3592,
      "Ġbren": 3593,
      "ç»Ħ": 3594,
      "ĠBob": 3595,
      "ised": 3596,
      "åĪĩ": 3597,
      "inds": 3598,
      "ieten": 3599,
      "Ġsent": 3600,
      "Deze": 3601,
      "ikt": 3602,
      "Ġkop": 3603,
      "Ġcontro": 3604,
      "arry": 3605,
      "Ġsong": 3606,
      "Ġcra": 3607,
      "Ġfeet": 3608,
      "Ġblack": 3609,
      "II": 3610,
      "Ġverz": 3611,
      "æ²»": 3612,
      "ected": 3613,
      "æľª": 3614,
      "raat": 3615,
      "Ġgesp": 3616,
      "EL": 3617,
      "æĪı": 3618,
      "Ġåİ": 3619,
      "åŀ": 3620,
      "Ġspeel": 3621,
      "æĪĳä¹Ł": 3622,
      "åħĥ": 3623,
      "FATHER": 3624,
      "Ġinv": 3625,
      "è®¾": 3626,
      "Ġmannen": 3627,
      "åįĸ": 3628,
      "å°½": 3629,
      "åĬŀæ³ķ": 3630,
      "Ġenige": 3631,
      "erv": 3632,
      "Ġposs": 3633,
      "Ġbesl": 3634,
      "Van": 3635,
      "gram": 3636,
      "Ġsil": 3637,
      "Ġlov": 3638,
      "enden": 3639,
      "Ġä¸įæĺ¯": 3640,
      "aptain": 3641,
      "bers": 3642,
      "Ġbegan": 3643,
      "rijd": 3644,
      "Bedankt": 3645,
      "éĻ¤": 3646,
      "Ġzin": 3647,
      "lo": 3648,
      "ĠDeze": 3649,
      "ize": 3650,
      "Ġlik": 3651,
      "maar": 3652,
      "Ġverhaal": 3653,
      "ĠDan": 3654,
      "ç»Ĩ": 3655,
      "ĠHier": 3656,
      "ĠDuit": 3657,
      "ev": 3658,
      "Ġpri": 3659,
      "Ġmoo": 3660,
      "roken": 3661,
      "æĬĵ": 3662,
      "Ġvers": 3663,
      "Ġmogelijk": 3664,
      "ĠPar": 3665,
      "Ġson": 3666,
      "Ġcontin": 3667,
      "ä¸įè¿ĩ": 3668,
      "Ġed": 3669,
      "Ġaard": 3670,
      "åħµ": 3671,
      "Ġaantal": 3672,
      "Ġstem": 3673,
      "zicht": 3674,
      "Ġinterest": 3675,
      "Ġcur": 3676,
      "Ġonge": 3677,
      "wat": 3678,
      "Ġsoort": 3679,
      "ĠMummy": 3680,
      "Ġunderstand": 3681,
      "æĿ¿": 3682,
      "æĻļä¸Ĭ": 3683,
      "ä½łå°±": 3684,
      "ald": 3685,
      "Then": 3686,
      "Ġdenken": 3687,
      "Ġ196": 3688,
      "å¸ĥ": 3689,
      "ä»¤": 3690,
      "é¦Ļ": 3691,
      "ĠJan": 3692,
      "åĩºåİ»": 3693,
      "Ġjob": 3694,
      "Ġwet": 3695,
      "åĵį": 3696,
      "Ġjongens": 3697,
      "Ġalmost": 3698,
      "Ġorgan": 3699,
      "Ġhair": 3700,
      "rie": 3701,
      "min": 3702,
      "orrow": 3703,
      "Ġsqu": 3704,
      "è·³": 3705,
      "Ġhalen": 3706,
      "airs": 3707,
      "Ġvandaag": 3708,
      "èĳ": 3709,
      "aces": 3710,
      "å¾·": 3711,
      "åĪĺ": 3712,
      "Just": 3713,
      "Ġcomes": 3714,
      "æ¹": 3715,
      "Ġverw": 3716,
      "æĭħ": 3717,
      "Ġåħ¶å®ŀ": 3718,
      "Ġå¸": 3719,
      "Ġhoop": 3720,
      "Ġjaren": 3721,
      "Ġconf": 3722,
      "Ġactually": 3723,
      "åĪļæīį": 3724,
      "Ġfloor": 3725,
      "äºĨåĲ§": 3726,
      "Ġi": 3727,
      "Ġwoman": 3728,
      "ĠRo": 3729,
      "lex": 3730,
      "ç¦ı": 3731,
      "çŃĶæ¡Ī": 3732,
      "èįī": 3733,
      "Ġsat": 3734,
      "Ġgebruiken": 3735,
      "Ġtimes": 3736,
      "ester": 3737,
      "rag": 3738,
      "çĵ": 3739,
      "ç«Ł": 3740,
      "ey": 3741,
      "Ġzelfs": 3742,
      "Ġalready": 3743,
      "Ġband": 3744,
      "Ġlucht": 3745,
      "æ²³": 3746,
      "ner": 3747,
      "Ġ:": 3748,
      "å¿ĥéĩĮ": 3749,
      "çĶµè¯Ŀ": 3750,
      "Ġwrong": 3751,
      "lish": 3752,
      "Ġgrou": 3753,
      "åĪ°åºķ": 3754,
      "Ġä»Ģä¹Ī": 3755,
      "rought": 3756,
      "Ġeng": 3757,
      "ensch": 3758,
      "Ġcompl": 3759,
      "Ġtrying": 3760,
      "iger": 3761,
      "é¼ł": 3762,
      "èľ": 3763,
      "Ġzoek": 3764,
      "åĪ»": 3765,
      "Ġlost": 3766,
      "æĴŃ": 3767,
      "ying": 3768,
      "Ġgar": 3769,
      "Wij": 3770,
      "ards": 3771,
      "Ġcat": 3772,
      "æĺ¯æĪĳ": 3773,
      "olen": 3774,
      "Ġmot": 3775,
      "Ġleer": 3776,
      "ç©¿": 3777,
      "ari": 3778,
      "è°Ī": 3779,
      "Ġgrond": 3780,
      "rom": 3781,
      "å±Ģ": 3782,
      "see": 3783,
      "Ġåı¯": 3784,
      "Ġzouden": 3785,
      "Ġwouldn": 3786,
      "Ġbuild": 3787,
      "Ġgehe": 3788,
      "ĠHow": 3789,
      "èĦĳ": 3790,
      "ç»Ł": 3791,
      "Who": 3792,
      "æį¢": 3793,
      "Ġprof": 3794,
      "dag": 3795,
      "Ġogen": 3796,
      "ouch": 3797,
      "vern": 3798,
      "å¾®": 3799,
      "Ġsucc": 3800,
      "Ġless": 3801,
      "Where": 3802,
      "Ġorder": 3803,
      "rekken": 3804,
      "ipp": 3805,
      "Ġcolor": 3806,
      "Zeg": 3807,
      "è´¹": 3808,
      "Ġbeaut": 3809,
      "Ġtrans": 3810,
      "ĠAm": 3811,
      "Ġmark": 3812,
      "è¸": 3813,
      "Ġéĥ½": 3814,
      "Ġspelen": 3815,
      "Ġvorm": 3816,
      "ĠThen": 3817,
      "Ġprov": 3818,
      "Ġduring": 3819,
      "æĶ¯": 3820,
      "ĠSam": 3821,
      "iter": 3822,
      "å£«": 3823,
      "æľīçĤ¹": 3824,
      "Ġoude": 3825,
      "ĠBen": 3826,
      "itie": 3827,
      "ĠFl": 3828,
      "Ġdu": 3829,
      "Ġfriends": 3830,
      "Ġdagen": 3831,
      "Ġpat": 3832,
      "Ġvijf": 3833,
      "Ġev": 3834,
      "Ġoud": 3835,
      "Ġgezeg": 3836,
      "ĠEd": 3837,
      "åĵ¦": 3838,
      "mon": 3839,
      "Ġplayed": 3840,
      "elden": 3841,
      "å©Ĩ": 3842,
      "sc": 3843,
      "æĪĳä¸į": 3844,
      "è¿Ļæł·çļĦ": 3845,
      "ĠPro": 3846,
      "æĸĻ": 3847,
      "10": 3848,
      "Ġpolitie": 3849,
      "Ġimport": 3850,
      "Ġopge": 3851,
      "ĠVan": 3852,
      "Ġval": 3853,
      "ç±³": 3854,
      "åħļ": 3855,
      "mee": 3856,
      "Ġprom": 3857,
      "Ġletter": 3858,
      "ING": 3859,
      "Ġpost": 3860,
      "ĠOr": 3861,
      "Ġdef": 3862,
      "è®©ä½ł": 3863,
      "Ġidea": 3864,
      "åĩĨå¤ĩ": 3865,
      "Ġfull": 3866,
      "Ġfamilie": 3867,
      "Ġtaken": 3868,
      "bel": 3869,
      "!'": 3870,
      "ĠBrit": 3871,
      "Ġminute": 3872,
      "good": 3873,
      "ä¸įèµ·": 3874,
      "äºĳ": 3875,
      "arde": 3876,
      "ĠFor": 3877,
      "esten": 3878,
      "Ġplaying": 3879,
      "just": 3880,
      "Ġfront": 3881,
      "rienden": 3882,
      "ummer": 3883,
      "Ġprot": 3884,
      "ĠMa": 3885,
      "è¯´äºĨ": 3886,
      "ilijk": 3887,
      "æĺ¯ä¸Ģ": 3888,
      "par": 3889,
      "çł´": 3890,
      "Ġeas": 3891,
      "Ġzoon": 3892,
      "ekent": 3893,
      "ering": 3894,
      "Ġhoudt": 3895,
      "Ġcertain": 3896,
      "Ġgebeurt": 3897,
      "Ġklas": 3898,
      "Look": 3899,
      "ming": 3900,
      "éģĩ": 3901,
      "ĠWik": 3902,
      "è¿ĻåĦ¿": 3903,
      "é¡¾": 3904,
      "Ġinc": 3905,
      "åįİ": 3906,
      "ä¸ĵ": 3907,
      "Ġpay": 3908,
      "ĠæĬĬ": 3909,
      "Ġgeleden": 3910,
      "è´Ł": 3911,
      "æ¨": 3912,
      "idden": 3913,
      "ises": 3914,
      "ç¤¾": 3915,
      "BRO": 3916,
      "Ġbrought": 3917,
      "æĿĳ": 3918,
      "æĩĤ": 3919,
      "Ġappear": 3920,
      "aybe": 3921,
      "Alles": 3922,
      "Ġclose": 3923,
      "king": 3924,
      "çīĽ": 3925,
      "Ġdead": 3926,
      "çĨĬ": 3927,
      "Ġoorlog": 3928,
      "Laten": 3929,
      "éĤ£äºĽ": 3930,
      "ĠTom": 3931,
      "Ġton": 3932,
      "Ġminder": 3933,
      "åıĤ": 3934,
      "æķħäºĭ": 3935,
      "Ġmeans": 3936,
      "Ġ194": 3937,
      "è¯´çļĦ": 3938,
      "got": 3939,
      "ĠThomas": 3940,
      "ager": 3941,
      "å·´": 3942,
      "Ġturned": 3943,
      "èĻ½çĦ¶": 3944,
      "Ġbep": 3945,
      "Ġteken": 3946,
      "ç¤¼": 3947,
      "ounty": 3948,
      "ham": 3949,
      "reet": 3950,
      "itting": 3951,
      "æ±Ł": 3952,
      "ists": 3953,
      "ship": 3954,
      "ç¤º": 3955,
      "ric": 3956,
      "é¸¡": 3957,
      "Ġpull": 3958,
      "heden": 3959,
      "ĠJap": 3960,
      "Ġtro": 3961,
      "çĭĹ": 3962,
      "Ġpot": 3963,
      "yn": 3964,
      "Ġvond": 3965,
      "oep": 3966,
      "irt": 3967,
      "lijke": 3968,
      "çļ®": 3969,
      "Ġeight": 3970,
      "more": 3971,
      "Ġquick": 3972,
      "é¬": 3973,
      "ä»·": 3974,
      "éĿĻ": 3975,
      "Ġè¿ĺæľī": 3976,
      "åħ·": 3977,
      "Ġhund": 3978,
      "å¯Ĩ": 3979,
      "Ġbar": 3980,
      "Ġblue": 3981,
      "rouwen": 3982,
      "ijnen": 3983,
      "Ġlearn": 3984,
      "Ġoften": 3985,
      "oemd": 3986,
      "As": 3987,
      "åıĳçĶŁ": 3988,
      "Ġwarm": 3989,
      "Ġhundred": 3990,
      "Ġander": 3991,
      "å½ĵæĹ¶": 3992,
      "Ġgreen": 3993,
      "Ġmilj": 3994,
      "Ġgebeurd": 3995,
      "Ġheld": 3996,
      "æĢİä¹Īæł·": 3997,
      "hel": 3998,
      "Ġcup": 3999,
      "åĽŀåİ»": 4000,
      "Ġkans": 4001,
      "éĻĪ": 4002,
      "å®¶éĩĮ": 4003,
      "ained": 4004,
      "ä¸ªäºº": 4005,
      "Ġnacht": 4006,
      "ä¼Ĺ": 4007,
      "ues": 4008,
      "DAD": 4009,
      "è¯´ä½ł": 4010,
      "ides": 4011,
      "Ġ11": 4012,
      "Ġvideo": 4013,
      "èĭ±": 4014,
      "Ġkrijg": 4015,
      "ĠåĨį": 4016,
      "aul": 4017,
      "Ġçľĭ": 4018,
      "Ġtrou": 4019,
      "sten": 4020,
      "Ġmoeilijk": 4021,
      "Ġbehind": 4022,
      "Maak": 4023,
      "haps": 4024,
      "ler": 4025,
      "Ġbetekent": 4026,
      "åĬ©": 4027,
      "ĠVer": 4028,
      "Ġparty": 4029,
      "Ġgezegd": 4030,
      "Ġzon": 4031,
      "æŀģ": 4032,
      "åİĨ": 4033,
      "Ġeigenlijk": 4034,
      "ĠPl": 4035,
      "'.": 4036,
      "ĠX": 4037,
      "arth": 4038,
      "æľīä¸Ģä¸ª": 4039,
      "åī§": 4040,
      "Ġ14": 4041,
      "Ġvoice": 4042,
      "Ġfight": 4043,
      "Ġbur": 4044,
      "Ġmorgen": 4045,
      "Ġsyst": 4046,
      "çĽ¸ä¿¡": 4047,
      "è§Ħ": 4048,
      "ized": 4049,
      "moet": 4050,
      "ided": 4051,
      "Ġwed": 4052,
      "inde": 4053,
      "Ġpaper": 4054,
      "ç»§": 4055,
      "Ġgotta": 4056,
      "é¡»": 4057,
      "ĠAd": 4058,
      "ĠCon": 4059,
      "Are": 4060,
      "Ġdeath": 4061,
      "Ġrock": 4062,
      "ç¬¬ä¸Ģ": 4063,
      "Ġpoor": 4064,
      "Ġpa": 4065,
      "oul": 4066,
      "RA": 4067,
      "Ġbegin": 4068,
      "Ġdenkt": 4069,
      "Ġseemed": 4070,
      "ains": 4071,
      "æİ¨": 4072,
      "å¯Ł": 4073,
      "Ġchair": 4074,
      "èĥĮ": 4075,
      "imed": 4076,
      "Ġfav": 4077,
      "abel": 4078,
      "åľŁ": 4079,
      "åĺ´": 4080,
      "ana": 4081,
      "co": 4082,
      "oms": 4083,
      "Ġä»Ĭå¤©": 4084,
      "Ġlekker": 4085,
      "çĮ«": 4086,
      "åı¶": 4087,
      "æĭį": 4088,
      "Ġcor": 4089,
      "ative": 4090,
      "omet": 4091,
      "Ġmonth": 4092,
      "é¬¼": 4093,
      "åıªæĺ¯": 4094,
      "Ġmusic": 4095,
      "åħĶ": 4096,
      "Ġshort": 4097,
      "Mag": 4098,
      "ĠHer": 4099,
      "èĦļ": 4100,
      "iful": 4101,
      "éĻª": 4102,
      "æ¢¦": 4103,
      "Ġmakes": 4104,
      "LO": 4105,
      "Ġmouth": 4106,
      "kl": 4107,
      "Ġzat": 4108,
      "aks": 4109,
      "olly": 4110,
      "Right": 4111,
      "Ġhappy": 4112,
      "Ġstick": 4113,
      "é²": 4114,
      "æł¡": 4115,
      "Ġsuper": 4116,
      "äº¬": 4117,
      "Ġfine": 4118,
      "éªĮ": 4119,
      "Stop": 4120,
      "Ġenk": 4121,
      "æ¸ħæ¥ļ": 4122,
      "50": 4123,
      "bank": 4124,
      "DS": 4125,
      "åĳ³": 4126,
      "Ġprobably": 4127,
      "Ġpower": 4128,
      "æĬĢ": 4129,
      "eken": 4130,
      "To": 4131,
      "like": 4132,
      "Ġpun": 4133,
      "Ġvrienden": 4134,
      "Ġ13": 4135,
      "Ġä»İ": 4136,
      "éĢĤ": 4137,
      "Ġhorse": 4138,
      "Ġgirls": 4139,
      "mat": 4140,
      "è¿ĩåİ»": 4141,
      "Ġdou": 4142,
      "ured": 4143,
      "ĠCHI": 4144,
      "æľĢè¿ĳ": 4145,
      "Ġdraw": 4146,
      "Ġcover": 4147,
      "âĮ": 4148,
      "Ġable": 4149,
      "Ġcamp": 4150,
      "ĠHis": 4151,
      "Ġmovie": 4152,
      "äºĨä¸Ģä¸ª": 4153,
      "Ġjo": 4154,
      "essed": 4155,
      "head": 4156,
      "for": 4157,
      "Ġadv": 4158,
      "Ġnatuurlijk": 4159,
      "äºī": 4160,
      "aker": 4161,
      "ene": 4162,
      "èĴ": 4163,
      "urch": 4164,
      "Ġpersoon": 4165,
      "åħĭ": 4166,
      "Ġwords": 4167,
      "Ġplek": 4168,
      "Ġjong": 4169,
      "ĠCar": 4170,
      "ç®Ģ": 4171,
      "str": 4172,
      "å¤ļå°ĳ": 4173,
      "Ġaw": 4174,
      "éĨĴ": 4175,
      "åĪ«äºº": 4176,
      "Ġpicture": 4177,
      "Ġgeloof": 4178,
      "éĽ¨": 4179,
      "olf": 4180,
      "Ġå¼": 4181,
      "ĠMet": 4182,
      "reven": 4183,
      "ience": 4184,
      "Ġwants": 4185,
      "è¯Ń": 4186,
      "æľĿ": 4187,
      "Ġhurt": 4188,
      "è¿½": 4189,
      "because": 4190,
      "Ġhuh": 4191,
      "Ġkr": 4192,
      "æĥ³åĪ°": 4193,
      "Ġoutside": 4194,
      "Ġcook": 4195,
      "Ġontst": 4196,
      "Ġaren": 4197,
      "ĠDaddy": 4198,
      "Ġprobleem": 4199,
      "ç»ĥ": 4200,
      "ilt": 4201,
      "euw": 4202,
      "ADU": 4203,
      "raak": 4204,
      "Ġgevonden": 4205,
      "è¿ĻéĩĮ": 4206,
      "ĠGerman": 4207,
      "éĤ£ç§į": 4208,
      "Ġrepl": 4209,
      "åĿı": 4210,
      "Ġæ²¡æľī": 4211,
      "ging": 4212,
      "Ġsoms": 4213,
      "orge": 4214,
      "Ġlicht": 4215,
      "çº¦": 4216,
      "ga": 4217,
      "Ġgroep": 4218,
      "Ġgeef": 4219,
      "Ġbijvoorbeeld": 4220,
      "æŃ¦": 4221,
      "Ġdruk": 4222,
      "Ġpas": 4223,
      "ĠEnglish": 4224,
      "å¥½åĥı": 4225,
      "Ġdieren": 4226,
      "MCH": 4227,
      "ä½łæĺ¯": 4228,
      "è´£": 4229,
      "çĸĳ": 4230,
      "Ex": 4231,
      "Ġble": 4232,
      "èĹ": 4233,
      "æĽ¾": 4234,
      "åģĩ": 4235,
      "Ġfell": 4236,
      "Ġfoto": 4237,
      "Ġ0": 4238,
      "ä»¥åīį": 4239,
      "è·Łä½łè¯´": 4240,
      "gro": 4241,
      "éĽĨ": 4242,
      "Ġbott": 4243,
      "åĪĻ": 4244,
      "èıľ": 4245,
      "Ġnorm": 4246,
      "irth": 4247,
      "cess": 4248,
      "Ġåĩ": 4249,
      "used": 4250,
      "ima": 4251,
      "æĪĸèĢħ": 4252,
      "Hel": 4253,
      "Ġpresident": 4254,
      "selves": 4255,
      "Luister": 4256,
      "ç¬¬äºĮ": 4257,
      "ĠWest": 4258,
      "Ã«n": 4259,
      "omp": 4260,
      "zer": 4261,
      "Ġyourself": 4262,
      "æŃ£ç¡®": 4263,
      "Ġserv": 4264,
      "ĠhÃ¨": 4265,
      "åĦ¿åŃĲ": 4266,
      "Ġcreat": 4267,
      "ĠDon": 4268,
      "çİ¯": 4269,
      "Ġlisten": 4270,
      "æĺ¥": 4271,
      "ĠJapan": 4272,
      "ruct": 4273,
      "Ġsun": 4274,
      "Ġline": 4275,
      "Ġleren": 4276,
      "çĬ¶": 4277,
      "ogra": 4278,
      "ĠCan": 4279,
      "Ġaange": 4280,
      "ĠZo": 4281,
      "ĠåĹ¯": 4282,
      "Ġ)": 4283,
      "åŃĺ": 4284,
      "ä¸½": 4285,
      "Ġwerkt": 4286,
      "ĠDie": 4287,
      "çļĦäºĭæĥħ": 4288,
      "Ġ30": 4289,
      "åĻ¨": 4290,
      "è§Ĵ": 4291,
      "ĠThat": 4292,
      "TEA": 4293,
      "Ġlich": 4294,
      "Ġrele": 4295,
      "ĠMay": 4296,
      "Thank": 4297,
      "Ġschat": 4298,
      "houd": 4299,
      "æĵ": 4300,
      "Ġhope": 4301,
      "Ġrad": 4302,
      "Tot": 4303,
      "æĬķ": 4304,
      "Ġzet": 4305,
      "Ġbrand": 4306,
      "ä¸įåĪ°": 4307,
      "å¡": 4308,
      "ately": 4309,
      "esc": 4310,
      "Ġlarge": 4311,
      "åĢ¼": 4312,
      "omb": 4313,
      "éĹ»": 4314,
      "è¶ħ": 4315,
      "æĸ¯": 4316,
      "rying": 4317,
      "veral": 4318,
      "Ġwife": 4319,
      "Did": 4320,
      "Ġ=": 4321,
      "ench": 4322,
      "æĹ¢": 4323,
      "ments": 4324,
      "sn": 4325,
      "Ġbusiness": 4326,
      "veer": 4327,
      "Good": 4328,
      "Ġminuten": 4329,
      "Ġstuff": 4330,
      "thers": 4331,
      "iers": 4332,
      "inger": 4333,
      "ĠWhen": 4334,
      "Toen": 4335,
      "åĩ»": 4336,
      "Ġhond": 4337,
      "ox": 4338,
      "hey": 4339,
      "ä¸¥": 4340,
      "éĻ©": 4341,
      "Ġruim": 4342,
      "Ġblijft": 4343,
      "å¿µ": 4344,
      "Ġlad": 4345,
      "Ġrecord": 4346,
      "Ġding": 4347,
      "å¿ĺ": 4348,
      "åĲİæĿ¥": 4349,
      "éĽª": 4350,
      "ç£": 4351,
      "Ġexper": 4352,
      "uig": 4353,
      "ande": 4354,
      "ĠæĪĳè§īå¾Ĺ": 4355,
      "Ġcouldn": 4356,
      "Ġpiece": 4357,
      "éĢŁ": 4358,
      "åıĮ": 4359,
      "ä¼Ļ": 4360,
      "Ġbrother": 4361,
      "Nog": 4362,
      "Ġkap": 4363,
      "deel": 4364,
      "Ġgroe": 4365,
      "ism": 4366,
      "é©¬ä¸Ĭ": 4367,
      "Ġgegeven": 4368,
      "Denk": 4369,
      "Ġhon": 4370,
      "Ġelect": 4371,
      "æĶ¾å¿ĥ": 4372,
      "rik": 4373,
      "ä»¥ä¸º": 4374,
      "Ġbra": 4375,
      "åĪĿ": 4376,
      "Ġones": 4377,
      "èĽĭ": 4378,
      "ention": 4379,
      "Ġbestaat": 4380,
      "Ġlink": 4381,
      "akker": 4382,
      "Ġpopul": 4383,
      "ĠWaar": 4384,
      "è¡Ģ": 4385,
      "çľĭè§ģ": 4386,
      "åģľ": 4387,
      "Kan": 4388,
      "Ġtijdens": 4389,
      "æĢĢ": 4390,
      "Ġstep": 4391,
      "å¹¸": 4392,
      "rog": 4393,
      "ĠQu": 4394,
      "Zijn": 4395,
      "Ġbag": 4396,
      "rab": 4397,
      "hand": 4398,
      "æĺ¯ä»Ģä¹Ī": 4399,
      "Ġduid": 4400,
      "pril": 4401,
      "unning": 4402,
      "Re": 4403,
      "schap": 4404,
      "heen": 4405,
      "Ġroad": 4406,
      "slag": 4407,
      "Ġgiven": 4408,
      "Ġbird": 4409,
      "Ġluister": 4410,
      "ille": 4411,
      "å§ĳå¨ĺ": 4412,
      "åħĦå¼Ł": 4413,
      "æľ¨": 4414,
      "åľ¨ä¸Ģèµ·": 4415,
      "uth": 4416,
      "åĽŀå®¶": 4417,
      "ĠåĴ±ä»¬": 4418,
      "inken": 4419,
      "iving": 4420,
      "Ġhist": 4421,
      "verd": 4422,
      "plaat": 4423,
      "Ġrather": 4424,
      "åĽ½å®¶": 4425,
      "kig": 4426,
      "Ġgun": 4427,
      "huis": 4428,
      "ĠBel": 4429,
      "Ġwachten": 4430,
      "Cl": 4431,
      "Ġbody": 4432,
      "ĠOh": 4433,
      "Ġlate": 4434,
      "Ġfelt": 4435,
      "Ġstrong": 4436,
      "Ġminutes": 4437,
      "ç©¶": 4438,
      "æ²¹": 4439,
      "èµ¶ç´§": 4440,
      "Ġè®©": 4441,
      "Ġtaking": 4442,
      "Ġguess": 4443,
      "Ġgovern": 4444,
      "æłĩ": 4445,
      "Ġè°¢è°¢": 4446,
      "å¢ĥ": 4447,
      "Ġimportant": 4448,
      "è®®": 4449,
      "Ġproduct": 4450,
      "Ġra": 4451,
      "Ġperfect": 4452,
      "wijl": 4453,
      "åı¤": 4454,
      "conom": 4455,
      "Ġtree": 4456,
      "Ġwoon": 4457,
      "Ġcommun": 4458,
      "rip": 4459,
      "çļĦå¤§": 4460,
      "Ġkamer": 4461,
      "Ġlanden": 4462,
      "å°±ä¸į": 4463,
      "Ġinside": 4464,
      "ians": 4465,
      "Ġinclud": 4466,
      "Vol": 4467,
      "kt": 4468,
      "ugust": 4469,
      "idge": 4470,
      "Ġocc": 4471,
      "å±ŀ": 4472,
      "Ġdeal": 4473,
      "enten": 4474,
      "upp": 4475,
      "Mummy": 4476,
      "çº§": 4477,
      "reg": 4478,
      "Ġsister": 4479,
      "wee": 4480,
      "Ġbear": 4481,
      "Ġstate": 4482,
      "Ġbes": 4483,
      "Ġpijn": 4484,
      "åĶ±": 4485,
      "Ġzoeken": 4486,
      "éĢļè¿ĩ": 4487,
      "band": 4488,
      "ĠSo": 4489,
      "Ġlopen": 4490,
      "æ´¾": 4491,
      "çİī": 4492,
      "åĵŃ": 4493,
      "Ġlaw": 4494,
      "thank": 4495,
      "ĠJim": 4496,
      "çªģçĦ¶": 4497,
      "æŀĲ": 4498,
      "bit": 4499,
      "Echt": 4500,
      "åºĹ": 4501,
      "æĦ¿æĦı": 4502,
      "Ġcap": 4503,
      "Ġles": 4504,
      "Ġchang": 4505,
      "Can": 4506,
      "Ġvre": 4507,
      "ä½łçľĭ": 4508,
      "dem": 4509,
      "éĿł": 4510,
      "stof": 4511,
      "æ¸©": 4512,
      "burg": 4513,
      "ached": 4514,
      "Ġ..": 4515,
      "Ġmyself": 4516,
      "ĠTo": 4517,
      "Ġground": 4518,
      "éĴŁ": 4519,
      "Ġeeuw": 4520,
      "è¯´æĪĳ": 4521,
      "éº»": 4522,
      "midd": 4523,
      "zien": 4524,
      "Ġbekend": 4525,
      "Ġlady": 4526,
      "Ġage": 4527,
      "çļĦä¸Ģä¸ª": 4528,
      "orld": 4529,
      "ĠItal": 4530,
      "shall": 4531,
      "ĠSchrijf": 4532,
      "Ġhang": 4533,
      "ĠFrance": 4534,
      "aged": 4535,
      "Ġgrand": 4536,
      "18": 4537,
      "Br": 4538,
      "pos": 4539,
      "sk": 4540,
      "æ¥¼": 4541,
      "For": 4542,
      "Ġhoeveel": 4543,
      "isk": 4544,
      "Ġprogram": 4545,
      "ä¹±": 4546,
      "ution": 4547,
      "Ġbor": 4548,
      "iezen": 4549,
      "Ġmaybe": 4550,
      "çĶµå½±": 4551,
      "met": 4552,
      "jor": 4553,
      "æĿ¾": 4554,
      "que": 4555,
      "ä¸Ģå¤©": 4556,
      "æĿĥ": 4557,
      "äºĨåķĬ": 4558,
      "||": 4559,
      "Ġfair": 4560,
      "ardon": 4561,
      "Ġthank": 4562,
      "chn": 4563,
      "Ġchange": 4564,
      "mber": 4565,
      "ĠMan": 4566,
      "Ġmine": 4567,
      "è®¤è¯Ĩ": 4568,
      "Ġcase": 4569,
      "born": 4570,
      "fully": 4571,
      "Ġothers": 4572,
      "ĠEurop": 4573,
      "å®«": 4574,
      "Ġdark": 4575,
      "å°Ķ": 4576,
      "Ġbrengen": 4577,
      "Ġtem": 4578,
      "Ġclass": 4579,
      "åĩłä¸ª": 4580,
      "åİĭ": 4581,
      "Ġuitge": 4582,
      "ughter": 4583,
      "Ġreden": 4584,
      "Ġenerg": 4585,
      "ĠIf": 4586,
      "Ġveilig": 4587,
      "Ġkreeg": 4588,
      "Pro": 4589,
      "Ġtill": 4590,
      "Ġcold": 4591,
      "å¹¿": 4592,
      "ada": 4593,
      "At": 4594,
      "Kun": 4595,
      "ä¸įè¡Į": 4596,
      "é¡º": 4597,
      "Go": 4598,
      "èĥ¡": 4599,
      "akkelijk": 4600,
      "Ġbeginnen": 4601,
      "è¿Ľè¡Į": 4602,
      "ziek": 4603,
      "æ±ī": 4604,
      "ç»ĵæŀľ": 4605,
      "æĺ¯ä¸Ģä¸ª": 4606,
      "Ġzee": 4607,
      "Ġgehad": 4608,
      "Ġent": 4609,
      "foon": 4610,
      "Ġfree": 4611,
      "Ġgeweldig": 4612,
      "Ġconc": 4613,
      "ourn": 4614,
      "Ġbeautiful": 4615,
      "åı¦": 4616,
      "æĭ©": 4617,
      "èĢĮä¸Ķ": 4618,
      "Ġsweet": 4619,
      "bye": 4620,
      "ending": 4621,
      "bum": 4622,
      "zij": 4623,
      "Ġhulp": 4624,
      "mo": 4625,
      "Ġago": 4626,
      "Ġlead": 4627,
      "ouwen": 4628,
      "æ¯ıå¤©": 4629,
      "ĠCharl": 4630,
      "Ġmess": 4631,
      "Ġsug": 4632,
      "line": 4633,
      "Ġbirth": 4634,
      "osten": 4635,
      "inning": 4636,
      "esh": 4637,
      "è¯´è¯Ŀ": 4638,
      "uizen": 4639,
      "Ġbek": 4640,
      "Kl": 4641,
      "ijst": 4642,
      "è´µ": 4643,
      "eland": 4644,
      "Ġoper": 4645,
      "ĠWel": 4646,
      "ule": 4647,
      "ĠOm": 4648,
      "llo": 4649,
      "orp": 4650,
      "igin": 4651,
      "ç»Ļä»ĸ": 4652,
      "çģµ": 4653,
      "Ġpark": 4654,
      "Ġonderzoek": 4655,
      "ĠæĪĳä¸į": 4656,
      "Ġziek": 4657,
      "ente": 4658,
      "ĠéĤ£ä½ł": 4659,
      "Ġbal": 4660,
      "Ġeruit": 4661,
      "Ġbank": 4662,
      "Ġmain": 4663,
      "Ġprecies": 4664,
      "Ġpen": 4665,
      "Ġearly": 4666,
      "åĪĽ": 4667,
      "ä¸ŃçļĦ": 4668,
      "beren": 4669,
      "ĠèĢĮä¸Ķ": 4670,
      "å±ħ": 4671,
      "Ġrece": 4672,
      "Ġeither": 4673,
      "irty": 4674,
      "éħį": 4675,
      "fort": 4676,
      "aties": 4677,
      "çĭ¬": 4678,
      "reed": 4679,
      "osp": 4680,
      "åĳĬè¯īä½ł": 4681,
      "Ġvoet": 4682,
      "åıĳå±ķ": 4683,
      "Sp": 4684,
      "Ġlichaam": 4685,
      "Ġinde": 4686,
      "Ġill": 4687,
      "Ġcomput": 4688,
      "Ġring": 4689,
      "åŃĲçļĦ": 4690,
      "Ġroll": 4691,
      "Ġteach": 4692,
      "Ġseveral": 4693,
      "Ġvrouwen": 4694,
      "Ġvar": 4695,
      "Ġalone": 4696,
      "Blijf": 4697,
      "èļ": 4698,
      "iep": 4699,
      "åĽ´": 4700,
      "ĠDr": 4701,
      "Ġthrow": 4702,
      "ico": 4703,
      "Ġnieuws": 4704,
      "å¥³äºº": 4705,
      "Ġ2020": 4706,
      "erry": 4707,
      "Ġouders": 4708,
      "Ġlay": 4709,
      "Ġmill": 4710,
      "zet": 4711,
      "åģ·": 4712,
      "Ġhoort": 4713,
      "Ġshop": 4714,
      "ĠIr": 4715,
      "Ġjezelf": 4716,
      "å®¤": 4717,
      "ĠFrench": 4718,
      "Ġleav": 4719,
      "IT": 4720,
      "zy": 4721,
      "ç¡®å®ŀ": 4722,
      "ĠTHE": 4723,
      "Ġ193": 4724,
      "omin": 4725,
      "è·Łä»ĸ": 4726,
      "æī¿": 4727,
      "Ġho": 4728,
      "then": 4729,
      "Ġmiljoen": 4730,
      "Ġanimals": 4731,
      "Ġguy": 4732,
      "rict": 4733,
      "ĠokÃ©": 4734,
      "Ġglad": 4735,
      "Ġè°ģ": 4736,
      "Ġtelevis": 4737,
      "å¼Ħ": 4738,
      "Ã¼": 4739,
      "Ġpur": 4740,
      "ĠComm": 4741,
      "éĵģ": 4742,
      "Ġpartic": 4743,
      "AL": 4744,
      "Ġang": 4745,
      "ä¾Ŀ": 4746,
      "Ġacross": 4747,
      "Ah": 4748,
      "çĥ¦": 4749,
      "iously": 4750,
      "Ġran": 4751,
      "Neem": 4752,
      "åĨ²": 4753,
      "Ġfast": 4754,
      "Ġpage": 4755,
      "Ġduidelijk": 4756,
      "Ġquestion": 4757,
      "å®¹æĺĵ": 4758,
      "Ġvoed": 4759,
      "æ¯ĶèµĽ": 4760,
      "åľ¨è¿ĻåĦ¿": 4761,
      "Ġdeur": 4762,
      "è¿İ": 4763,
      "Ġmod": 4764,
      "åĩºäºĨ": 4765,
      "anen": 4766,
      "Ġgroup": 4767,
      "UR": 4768,
      "å°±ä¼ļ": 4769,
      "Ġboat": 4770,
      "ander": 4771,
      "Ġgrow": 4772,
      "ĠMe": 4773,
      "èĤī": 4774,
      "æ¯ķ": 4775,
      "Ġresult": 4776,
      "Ġzom": 4777,
      "æľºä¼ļ": 4778,
      "åª": 4779,
      "ask": 4780,
      "Ġbrief": 4781,
      "Ġverst": 4782,
      "Fr": 4783,
      "å¿ħé¡»": 4784,
      "Ġsitu": 4785,
      "åº§": 4786,
      "ç½ª": 4787,
      "ç½®": 4788,
      "Ġspel": 4789,
      "ĠJu": 4790,
      "sy": 4791,
      "Ġleast": 4792,
      "Ġ195": 4793,
      "eem": 4794,
      "have": 4795,
      "Ġwomen": 4796,
      "æĥĬ": 4797,
      "Ġtoys": 4798,
      "rijs": 4799,
      "é«ĺåħ´": 4800,
      "Ġgrot": 4801,
      "Ġsometimes": 4802,
      "ĠWar": 4803,
      "Ġtwenty": 4804,
      "gg": 4805,
      "ä½İ": 4806,
      "cri": 4807,
      "Ġpak": 4808,
      "ä¼¼": 4809,
      "alm": 4810,
      "Ġliggen": 4811,
      "Ã¡": 4812,
      "ford": 4813,
      "æŀª": 4814,
      "ĠDuits": 4815,
      "éĢīæĭ©": 4816,
      "Omdat": 4817,
      "gl": 4818,
      "ĠTr": 4819,
      "Ġlezen": 4820,
      "Ġwee": 4821,
      "Ġarr": 4822,
      "God": 4823,
      "Ġ100": 4824,
      "Ġarea": 4825,
      "æī¾åĪ°": 4826,
      "ode": 4827,
      "æĪĳæĥ³": 4828,
      "å®Ī": 4829,
      "èĻİ": 4830,
      "Ġgesl": 4831,
      "å¦ĩ": 4832,
      "æ´Ĺ": 4833,
      "Ġol": 4834,
      "12": 4835,
      "Ġtien": 4836,
      "isme": 4837,
      "Ġonderwerp": 4838,
      "æĹ¥æľ¬": 4839,
      "bal": 4840,
      "åıªæľī": 4841,
      "èº«ä½ĵ": 4842,
      "Ġwanneer": 4843,
      "ural": 4844,
      "åĽŃ": 4845,
      "èĲ¥": 4846,
      "Ġzoveel": 4847,
      "éĹ¹": 4848,
      "å¼ķ": 4849,
      "Ġlangs": 4850,
      "èĵ": 4851,
      "æ¦": 4852,
      "Ġextra": 4853,
      "Ġfout": 4854,
      "ä¸¾": 4855,
      "tern": 4856,
      "Get": 4857,
      "Ġvill": 4858,
      "Ġontw": 4859,
      "Ġmilk": 4860,
      "Ġconsider": 4861,
      "ram": 4862,
      "ĠæĪĳæĥ³": 4863,
      "Ġtrue": 4864,
      "å¥¹çļĦ": 4865,
      "Ġechte": 4866,
      "Ġstond": 4867,
      "Ġcried": 4868,
      "AP": 4869,
      "æĮī": 4870,
      "æĪĲäºĨ": 4871,
      "oops": 4872,
      "ä¼ĳ": 4873,
      "Nie": 4874,
      "edereen": 4875,
      "zaam": 4876,
      "éĩĮçļĦ": 4877,
      "ĠAb": 4878,
      "NAN": 4879,
      "ĠDav": 4880,
      "çĪ¹": 4881,
      "Ġgezicht": 4882,
      "Ġä½łçľĭ": 4883,
      "ĠRuss": 4884,
      "achten": 4885,
      "Ġalsof": 4886,
      "does": 4887,
      "å¹²ä»Ģä¹Ī": 4888,
      "ĠPhil": 4889,
      "Ġæĥ³": 4890,
      "Ġwish": 4891,
      "ense": 4892,
      "antwoord": 4893,
      "eur": 4894,
      "åºľ": 4895,
      "ç¾¤": 4896,
      "Ġenter": 4897,
      "æ°¸": 4898,
      "è®°å¾Ĺ": 4899,
      "ello": 4900,
      "key": 4901,
      "Ġhat": 4902,
      "arling": 4903,
      "iversity": 4904,
      "Ġhanden": 4905,
      "ç¦»å¼Ģ": 4906,
      "ales": 4907,
      "éĢīé¡¹": 4908,
      "Ġä½łæĺ¯": 4909,
      "umm": 4910,
      "ices": 4911,
      "ĠWorld": 4912,
      "åĳ¼": 4913,
      "ç´¯": 4914,
      "TER": 4915,
      "ĠRome": 4916,
      "Ġmach": 4917,
      "ĠCol": 4918,
      "Ġworking": 4919,
      "Ġconst": 4920,
      "was": 4921,
      "Ġfuck": 4922,
      "ä»»ä½ķ": 4923,
      "acter": 4924,
      "Ġ*": 4925,
      "Ġgere": 4926,
      "æĿ¨": 4927,
      "å¹´çļĦ": 4928,
      "Ġfunny": 4929,
      "Ã³": 4930,
      "æ¤": 4931,
      "ius": 4932,
      "Ġsomeone": 4933,
      "Ġ25": 4934,
      "Mar": 4935,
      "ĠMc": 4936,
      "Ġeffect": 4937,
      "çĭ¼": 4938,
      "Ġimp": 4939,
      "yy": 4940,
      "ete": 4941,
      "ç»§ç»Ń": 4942,
      "when": 4943,
      "aced": 4944,
      "orden": 4945,
      "Ġobject": 4946,
      "å¥³åĦ¿": 4947,
      "bt": 4948,
      "èĹı": 4949,
      "Ġå¿«": 4950,
      "Ġgevaar": 4951,
      "Ġkilled": 4952,
      "Ġtweede": 4953,
      "ĠJoe": 4954,
      "Ġtruck": 4955,
      "è¯¾": 4956,
      "ĠEurope": 4957,
      "å·ŀ": 4958,
      "èģĮ": 4959,
      "Ġtom": 4960,
      "schijn": 4961,
      "uary": 4962,
      "æĺ¾": 4963,
      "Ġgets": 4964,
      "bare": 4965,
      "ĠSe": 4966,
      "ĠéĤ£ä¹Ī": 4967,
      "Ġwall": 4968,
      "Ġdet": 4969,
      "eph": 4970,
      "Ġfavor": 4971,
      "Was": 4972,
      "Ġgele": 4973,
      "èĤ¡": 4974,
      "Ġhit": 4975,
      "è¿Ļæ¬¡": 4976,
      "velop": 4977,
      "Ġfish": 4978,
      "Ġtried": 4979,
      "igde": 4980,
      "è¯»": 4981,
      "ç¯": 4982,
      "houden": 4983,
      "Ġtest": 4984,
      "æĪĳæĪĳ": 4985,
      "rat": 4986,
      "Ġkaart": 4987,
      "éĥ½æ²¡æľī": 4988,
      "èĩ´": 4989,
      "zie": 4990,
      "CDS": 4991,
      "ery": 4992,
      "æ¯Ĵ": 4993,
      "iting": 4994,
      "pers": 4995,
      "Ġmeteen": 4996,
      "alth": 4997,
      "ĠSpan": 4998,
      "ä¸īåįģ": 4999,
      "Ġ&": 5000,
      "zak": 5001,
      "ĠDo": 5002,
      "ä¹İ": 5003,
      "ived": 5004,
      "ekt": 5005,
      "ä¸ĬäºĨ": 5006,
      "æĹı": 5007,
      "ĠMaak": 5008,
      "Ġongeveer": 5009,
      "Ġyellow": 5010,
      "åĬ¿": 5011,
      "Ġmooie": 5012,
      "ances": 5013,
      "Ġclot": 5014,
      "partment": 5015,
      "com": 5016,
      "Ġvooral": 5017,
      "Vert": 5018,
      "è¡£æľį": 5019,
      "Ġclub": 5020,
      "ç»ĵå©ļ": 5021,
      "vert": 5022,
      "é¸Ł": 5023,
      "ä¹ĭéĹ´": 5024,
      "ĠNa": 5025,
      "Ġhop": 5026,
      "ante": 5027,
      "æĺİå¤©": 5028,
      "çĬ¯": 5029,
      "vallen": 5030,
      "å¸Ŀ": 5031,
      "ĠMOT": 5032,
      "Ġneer": 5033,
      "Ġallow": 5034,
      "Ġbuy": 5035,
      "Ġamong": 5036,
      "ĠCal": 5037,
      "æĪĳè¦ģ": 5038,
      "Ġsystem": 5039,
      "åĪĴ": 5040,
      "ĠBar": 5041,
      "Ġspecial": 5042,
      "Ġseven": 5043,
      "ĠPeter": 5044,
      "å¢ŀ": 5045,
      "éĻħ": 5046,
      "ä»ħ": 5047,
      "15": 5048,
      "Ġspeak": 5049,
      "çłĶ": 5050,
      "ĠéĤ£ä¸ª": 5051,
      "æĲŀ": 5052,
      "Ġclean": 5053,
      "ä¸įåĲĮ": 5054,
      "Ġvallen": 5055,
      "æĸ¹éĿ¢": 5056,
      "ousand": 5057,
      "ended": 5058,
      "å§Ķ": 5059,
      "ç¤¾ä¼ļ": 5060,
      "]?": 5061,
      "Ar": 5062,
      "Zie": 5063,
      "Ġcond": 5064,
      "Your": 5065,
      "Over": 5066,
      "Ġbecome": 5067,
      "Ġcompany": 5068,
      "æľīäºº": 5069,
      "è®¤ä¸º": 5070,
      "deren": 5071,
      "åĲĮå¿Ĺ": 5072,
      "Ġkracht": 5073,
      "èĤ²": 5074,
      "isc": 5075,
      "æİ§": 5076,
      "Ġguys": 5077,
      "æ½": 5078,
      "cil": 5079,
      "niet": 5080,
      "ued": 5081,
      "Ġalbum": 5082,
      "åĿļ": 5083,
      "Ġè¡Į": 5084,
      "æŃ¢": 5085,
      "gie": 5086,
      "ĠçŃī": 5087,
      "Ġoef": 5088,
      "Ġfur": 5089,
      "çľ¼çĿ": 5090,
      "attle": 5091,
      "Ġä½łæĢİä¹Ī": 5092,
      "Ġmogen": 5093,
      "ĠRep": 5094,
      "Ġfeest": 5095,
      "å±ĭ": 5096,
      "Ġblood": 5097,
      "One": 5098,
      "Ġmist": 5099,
      "åĲĽ": 5100,
      "Ġrep": 5101,
      "Ġdaarna": 5102,
      "èĭı": 5103,
      "åĲĥé¥Ń": 5104,
      "èĪŀ": 5105,
      "çĹĽ": 5106,
      "æ¼Ĥ": 5107,
      "å°ıå§Ĳ": 5108,
      "ç½Ĺ": 5109,
      "Ġreact": 5110,
      "bles": 5111,
      "è¾Ī": 5112,
      "åĨ·": 5113,
      "Ġlangu": 5114,
      "ä¿®": 5115,
      "friend": 5116,
      "çĮª": 5117,
      "Ġå®ĥ": 5118,
      "Ġdiv": 5119,
      "åŃĻ": 5120,
      "åı¥è¯Ŀ": 5121,
      "æºĲ": 5122,
      "ĠAng": 5123,
      "Ġrol": 5124,
      "Ġwrite": 5125,
      "çļĦäºĭ": 5126,
      "icks": 5127,
      "Here": 5128,
      "ä¸ĭåİ»": 5129,
      "åĩºçİ°": 5130,
      "æĺ¯åĲ§": 5131,
      "eeuw": 5132,
      "Ġfellow": 5133,
      "Ġnoemen": 5134,
      "Ġlo": 5135,
      "Ġå·": 5136,
      "Ġhy": 5137,
      "Ġlaug": 5138,
      "rop": 5139,
      "èĪ¬": 5140,
      "Ġhol": 5141,
      "ä¸įå¾Ĺ": 5142,
      "åĪĹ": 5143,
      "Ġhetzelfde": 5144,
      "Ġvi": 5145,
      "æĭĽ": 5146,
      "ounds": 5147,
      "Ġproberen": 5148,
      "Me": 5149,
      "Ġsport": 5150,
      "Zij": 5151,
      "Ge": 5152,
      "çľĭçĿĢ": 5153,
      "å½±åĵį": 5154,
      "éĩİ": 5155,
      "hi": 5156,
      "cul": 5157,
      "Natuurlijk": 5158,
      "Ġpakken": 5159,
      "inet": 5160,
      "two": 5161,
      "çĶ°": 5162,
      "Ġcommand": 5163,
      "Ġä¸įè¿ĩ": 5164,
      "çĶ·äºº": 5165,
      "ino": 5166,
      "Ġnoem": 5167,
      "é¢ĺå¹²": 5168,
      "Ġleeft": 5169,
      "éĺ²": 5170,
      "æ¿": 5171,
      "ĠMarch": 5172,
      "Ġice": 5173,
      "Ġreason": 5174,
      "--------": 5175,
      "Ġgevoel": 5176,
      "Ġalsjeblieft": 5177,
      "Pr": 5178,
      "ĠKennis": 5179,
      "ael": 5180,
      "æĬ±": 5181,
      "åĽ¾": 5182,
      "Ġder": 5183,
      "æĺ¨": 5184,
      "omst": 5185,
      "åİī": 5186,
      "Ġmuziek": 5187,
      "uke": 5188,
      "Ġplant": 5189,
      "Ġlived": 5190,
      "Ġbegint": 5191,
      "æ¨¡": 5192,
      "ically": 5193,
      "Ġåĳĥ": 5194,
      "kk": 5195,
      "Ġgehoord": 5196,
      "Ġmount": 5197,
      "indelijk": 5198,
      "Ġproblemen": 5199,
      "ĠVol": 5200,
      "Ġgrootste": 5201,
      "cer": 5202,
      "ensen": 5203,
      "Ġorde": 5204,
      "aien": 5205,
      "Ġsoft": 5206,
      "under": 5207,
      "Ġeconom": 5208,
      "èĪ¹": 5209,
      "Ġthinking": 5210,
      "å¤ı": 5211,
      "inig": 5212,
      "Ġervan": 5213,
      "Ġnummer": 5214,
      "Ġavond": 5215,
      "éĢĢ": 5216,
      "Ġfinished": 5217,
      "uhhuh": 5218,
      "ĠTe": 5219,
      "æĢİä¹ĪåĬŀ": 5220,
      "åĨ³å®ļ": 5221,
      "Ġthousand": 5222,
      "Ġattack": 5223,
      "Ġmeeste": 5224,
      "Ġäºº": 5225,
      "Ġkept": 5226,
      "ĠNederlandse": 5227,
      "Ġbooks": 5228,
      "Ġaand": 5229,
      "Ġmama": 5230,
      "ÉĻ": 5231,
      "iÃ«n": 5232,
      "Ġsea": 5233,
      "æĪ·": 5234,
      "Ġergens": 5235,
      "çļĦè¿Ļä¸ª": 5236,
      "åı²": 5237,
      "Ġfootball": 5238,
      "Ġmacht": 5239,
      "åį«": 5240,
      "Ġgevangen": 5241,
      "avy": 5242,
      "ç§°": 5243,
      "Ġgeloven": 5244,
      "Ġstation": 5245,
      "Ġusually": 5246,
      "Ġvolgens": 5247,
      "ä½łä¸į": 5248,
      "Ġtea": 5249,
      "Ġeinde": 5250,
      "Ġrunning": 5251,
      "PAT": 5252,
      "Ġliving": 5253,
      "çľ¼çĿĽ": 5254,
      "Ġtelefoon": 5255,
      "arch": 5256,
      "amb": 5257,
      "sche": 5258,
      "urk": 5259,
      "unk": 5260,
      "aff": 5261,
      "Ġtel": 5262,
      "ute": 5263,
      "ç´ł": 5264,
      "aling": 5265,
      "pres": 5266,
      "Bij": 5267,
      "Ġvanavond": 5268,
      "æł¹æľ¬": 5269,
      "ring": 5270,
      "è¹": 5271,
      "éĵ¶": 5272,
      "Ġcou": 5273,
      "Ġvij": 5274,
      "ĠSouth": 5275,
      "Ġzodat": 5276,
      "æĪĳè¿ĺ": 5277,
      "æĿ¥è¯´": 5278,
      "èĬĤçĽ®": 5279,
      "Ġcross": 5280,
      "å¤ļäºĨ": 5281,
      "Ġtoy": 5282,
      "rem": 5283,
      "Ġbi": 5284,
      "Ġfly": 5285,
      "iken": 5286,
      "aars": 5287,
      "raid": 5288,
      "Ġliefde": 5289,
      "pped": 5290,
      "Ġslapen": 5291,
      "nieuw": 5292,
      "æĽ¿": 5293,
      "Ġsol": 5294,
      "Ġcult": 5295,
      "Ġwood": 5296,
      "å§¨": 5297,
      "iest": 5298,
      "Ġtakes": 5299,
      "å¾ĭ": 5300,
      "ĠæĪĳä¹Ł": 5301,
      "ĠSchool": 5302,
      "åłĤ": 5303,
      "Ġstood": 5304,
      "èİ·": 5305,
      "åĹ": 5306,
      "Ġdinner": 5307,
      "oken": 5308,
      "Ġaarde": 5309,
      "ED": 5310,
      "hor": 5311,
      "ories": 5312,
      "Ġdarling": 5313,
      "æİĮ": 5314,
      "ĠNorth": 5315,
      "ĠPer": 5316,
      "å¤ļçļĦ": 5317,
      "æµİ": 5318,
      "Ġgas": 5319,
      "Ġorigin": 5320,
      "äºĨè§£": 5321,
      "ior": 5322,
      "Ġä¸ºä»Ģä¹Ī": 5323,
      "Ġwou": 5324,
      "æĺ¯ä¸ª": 5325,
      "å®īåħ¨": 5326,
      "ĠJanuary": 5327,
      "Ġbezig": 5328,
      "ĠMin": 5329,
      "Ġloc": 5330,
      "Ġherself": 5331,
      "Ġstap": 5332,
      "play": 5333,
      "è¿ĲåĬ¨": 5334,
      "Ġmond": 5335,
      "inkt": 5336,
      "æĪĳè¯´": 5337,
      "äºİæĺ¯": 5338,
      "ping": 5339,
      "Ġuitleg": 5340,
      "AS": 5341,
      "ener": 5342,
      "Ġ50": 5343,
      "Ġnorth": 5344,
      "Ġabs": 5345,
      "owers": 5346,
      "æ¿Ģ": 5347,
      "éªĹ": 5348,
      "æĺ¯åķĬ": 5349,
      "ä¸įéĶĻ": 5350,
      "ä¼ĺ": 5351,
      "Ġeerder": 5352,
      "even": 5353,
      "æĪĳéĥ½": 5354,
      "çĽ´æİ¥": 5355,
      "Ġsurpr": 5356,
      "Ġvalt": 5357,
      "Ġspreken": 5358,
      "wijs": 5359,
      "Ġgenoemd": 5360,
      "Ġ24": 5361,
      "orie": 5362,
      "Verd": 5363,
      "Ġtit": 5364,
      "Ġmer": 5365,
      "ĠJune": 5366,
      "Ġvergeten": 5367,
      "Ġzetten": 5368,
      "mas": 5369,
      "17": 5370,
      "ä¸Ģå®ļè¦ģ": 5371,
      "ç§Ģ": 5372,
      "æĿĲ": 5373,
      "Ġegg": 5374,
      "Ġcow": 5375,
      "è¿ĩäºĨ": 5376,
      "Erm": 5377,
      "Ġafbeeld": 5378,
      "æīĭæľº": 5379,
      "Ġvoorbij": 5380,
      "ĠOf": 5381,
      "Beg": 5382,
      "åŀĭ": 5383,
      "ror": 5384,
      "ĠPres": 5385,
      "äºĴ": 5386,
      "Ġmarried": 5387,
      "ral": 5388,
      "stuk": 5389,
      "Ġvle": 5390,
      "èīº": 5391,
      "uzz": 5392,
      "Ġnamed": 5393,
      "ding": 5394,
      "Ġstat": 5395,
      "ĠKl": 5396,
      "Ġschuld": 5397,
      "Ġloopt": 5398,
      "Ġseries": 5399,
      "13": 5400,
      "boek": 5401,
      "Ġvak": 5402,
      "ogel": 5403,
      "icken": 5404,
      "å½ĵçĦ¶": 5405,
      "ustral": 5406,
      "èµµ": 5407,
      "vrouw": 5408,
      "annen": 5409,
      "æĻ¯": 5410,
      "Ġbeneden": 5411,
      "Ġtouch": 5412,
      "Ġacht": 5413,
      "za": 5414,
      "çºª": 5415,
      "Ġquiet": 5416,
      "Ġmam": 5417,
      "lease": 5418,
      "14": 5419,
      "Ġriv": 5420,
      "ĠYes": 5421,
      "åĨľ": 5422,
      "æŃ»äºĨ": 5423,
      "Ġdoel": 5424,
      "alright": 5425,
      "Ġchance": 5426,
      "ogen": 5427,
      "Ġgaf": 5428,
      "ä¸īä¸ª": 5429,
      "Ġcorn": 5430,
      "Ġdoctor": 5431,
      "åĲ¸": 5432,
      "ague": 5433,
      "çļĦåľ°æĸ¹": 5434,
      "Ġvraagt": 5435,
      "Ġmaat": 5436,
      "Ġli": 5437,
      "Ġking": 5438,
      "Ġhung": 5439,
      "gas": 5440,
      "Ġanswered": 5441,
      "ĠPaul": 5442,
      "Ġhur": 5443,
      "$$\\": 5444,
      "Ġdezelfde": 5445,
      "Ġcheck": 5446,
      "won": 5447,
      "Ġwithin": 5448,
      "ĠMart": 5449,
      "Ġä½łå°±": 5450,
      "èī¯": 5451,
      "å¦»": 5452,
      "though": 5453,
      "oose": 5454,
      "æľīä¸ª": 5455,
      "æł·çļĦ": 5456,
      "ĠGrand": 5457,
      "Ġnose": 5458,
      "gend": 5459,
      "ris": 5460,
      "åıįæŃ£": 5461,
      "Ġdien": 5462,
      "Ġsingle": 5463,
      "Ġthemselves": 5464,
      "ĠSw": 5465,
      "Ġbroer": 5466,
      "Te": 5467,
      "Ġsitting": 5468,
      "Ġschrijven": 5469,
      "Ġreport": 5470,
      "Ġkil": 5471,
      "Ã¶": 5472,
      "ĠStap": 5473,
      "ility": 5474,
      "ĠWas": 5475,
      "æ²¡äºĭ": 5476,
      "Ġafraid": 5477,
      "Ġrug": 5478,
      "çĳ": 5479,
      "Ġphone": 5480,
      "Ġclos": 5481,
      "å¥¶å¥¶": 5482,
      "Ġship": 5483,
      "ç¾İåĽ½": 5484,
      "ĠMary": 5485,
      "stead": 5486,
      "Ġzes": 5487,
      "æ¯Ķå¦Ĥ": 5488,
      "Ġvie": 5489,
      "ĠEm": 5490,
      "iment": 5491,
      "cuse": 5492,
      "dden": 5493,
      "}$$": 5494,
      "umb": 5495,
      "ĠMon": 5496,
      "Ġfear": 5497,
      "æīįèĥ½": 5498,
      "oi": 5499,
      "Ġrijk": 5500,
      "uut": 5501,
      "Ġgovernment": 5502,
      "uze": 5503,
      "ege": 5504,
      "Ġfix": 5505,
      "å§ĵ": 5506,
      "æĪĲä¸º": 5507,
      "Ġkijkt": 5508,
      "Ġkent": 5509,
      "thern": 5510,
      "Ġregion": 5511,
      "ĠBeeld": 5512,
      "éĢĥ": 5513,
      "Ġdier": 5514,
      "ĠAugust": 5515,
      "Ġgekomen": 5516,
      "Ġterwijl": 5517,
      "èĻĳ": 5518,
      "é½": 5519,
      "æľµ": 5520,
      "Ġtrouble": 5521,
      "Ġcatch": 5522,
      "é¡¶": 5523,
      "Ġbirthday": 5524,
      "Ġhar": 5525,
      "Ġwindow": 5526,
      "Ġins": 5527,
      "ĠOne": 5528,
      "Ġhours": 5529,
      "åĲĮåŃ¦": 5530,
      "Iedereen": 5531,
      "çĨŁ": 5532,
      "point": 5533,
      "ality": 5534,
      "Ġdollar": 5535,
      "FCH": 5536,
      "Ġsand": 5537,
      "èĥľ": 5538,
      "å¤§äºº": 5539,
      "åĪĨä¹ĭ": 5540,
      "æķĪ": 5541,
      "derd": 5542,
      "Ġmaakte": 5543,
      "ĠEx": 5544,
      "å®¶çļĦ": 5545,
      "amera": 5546,
      "Ġdi": 5547,
      "æĪ¿åŃĲ": 5548,
      "Or": 5549,
      "åĲ¦": 5550,
      "Ġport": 5551,
      "ä¸įå¯¹": 5552,
      "æĺ¯ä½ł": 5553,
      "Ġpublic": 5554,
      "komt": 5555,
      "Ġfield": 5556,
      "ä¹¡": 5557,
      "ĠBritish": 5558,
      "Ġvliegt": 5559,
      "entle": 5560,
      "åĬ¨çī©": 5561,
      "ges": 5562,
      "æµĭ": 5563,
      "Ġweinig": 5564,
      "ä»ĭ": 5565,
      "Ġnational": 5566,
      "ooh": 5567,
      "ä»ĺ": 5568,
      "Ġcre": 5569,
      "Ġir": 5570,
      "imin": 5571,
      "åĲ¬è¯´": 5572,
      "ĠII": 5573,
      "åºŃ": 5574,
      "å£°éŁ³": 5575,
      "Ġpunten": 5576,
      "genomen": 5577,
      "water": 5578,
      "æŃ£åľ¨": 5579,
      "ĠMag": 5580,
      "Ġstoppen": 5581,
      "çĮ´": 5582,
      "è®©ä»ĸ": 5583,
      "ĠOct": 5584,
      "ĠEngland": 5585,
      "å½©": 5586,
      "Moet": 5587,
      "çļĦä¸ľè¥¿": 5588,
      "çĪ¶äº²": 5589,
      "ita": 5590,
      "æĬĹ": 5591,
      "Ġsudden": 5592,
      "Ġcool": 5593,
      "ober": 5594,
      "press": 5595,
      "åį±": 5596,
      "éľ²": 5597,
      "erence": 5598,
      "Ġmeter": 5599,
      "goed": 5600,
      "Ġgeworden": 5601,
      "èĿ": 5602,
      "èº«ä¸Ĭ": 5603,
      "Ġroe": 5604,
      "éĶĻè¯¯": 5605,
      "Ġvreem": 5606,
      "åĨįè§ģ": 5607,
      "Ġpig": 5608,
      "çľģ": 5609,
      "èº«è¾¹": 5610,
      "Ġvia": 5611,
      "oph": 5612,
      "Ġhoeft": 5613,
      "Ġdrinken": 5614,
      "Ġontde": 5615,
      "Ġåİ»": 5616,
      "makes": 5617,
      "ĠÃ": 5618,
      "inging": 5619,
      "Ġclim": 5620,
      "ocol": 5621,
      "Ġzorg": 5622,
      "Ġ/": 5623,
      "Ġdochter": 5624,
      "rokken": 5625,
      "Ġwonen": 5626,
      "Na": 5627,
      "Ġzwart": 5628,
      "El": 5629,
      "çĪ¶æ¯į": 5630,
      "åİīå®³": 5631,
      "Ġervoor": 5632,
      "Ġwink": 5633,
      "ä½łä¹Ł": 5634,
      "itte": 5635,
      "leven": 5636,
      "æŁĲ": 5637,
      "duct": 5638,
      "Ġgebouw": 5639,
      "ä¸įçĶ¨": 5640,
      "Ġopl": 5641,
      "emy": 5642,
      "ĠGeorge": 5643,
      "å¼Ģå¿ĥ": 5644,
      "Ġdaughter": 5645,
      "åħ°": 5646,
      "ining": 5647,
      "ä¸Ģç§į": 5648,
      "åįĪ": 5649,
      "æł·åŃĲ": 5650,
      "æ¼Ĥäº®": 5651,
      "åį³": 5652,
      "Heel": 5653,
      "16": 5654,
      "ç»´": 5655,
      "Ġstar": 5656,
      "ĠAustral": 5657,
      "Niemand": 5658,
      "Ġdoden": 5659,
      "å¯Į": 5660,
      "Ġsomebody": 5661,
      "MAR": 5662,
      "uch": 5663,
      "Ġevent": 5664,
      "Ġtrad": 5665,
      "Ġongel": 5666,
      "æĭħå¿ĥ": 5667,
      "èĮ¶": 5668,
      "Ġlives": 5669,
      "è´¢": 5670,
      "Ġå¤§å®¶": 5671,
      "ĠFran": 5672,
      "Ġreleased": 5673,
      "pel": 5674,
      "hello": 5675,
      "Ġpracht": 5676,
      "Ġpartij": 5677,
      "Ġlift": 5678,
      "Ġkiss": 5679,
      "ä½łè¦ģ": 5680,
      "åĢŁ": 5681,
      "æľīæ²¡æľī": 5682,
      "å¤§åĵ¥": 5683,
      "ĠGu": 5684,
      "Ġperhaps": 5685,
      "Ġwhether": 5686,
      "Ġpapa": 5687,
      "Ġanderen": 5688,
      "Ġproblem": 5689,
      "æĹ¢çĦ¶": 5690,
      "strijd": 5691,
      "dom": 5692,
      "ube": 5693,
      "Ġproper": 5694,
      "æ²Ļ": 5695,
      "Heeft": 5696,
      "Ġwaarin": 5697,
      "IJ": 5698,
      "åĮ»éĻ¢": 5699,
      "ä½ľä¸º": 5700,
      "alve": 5701,
      "ĠCity": 5702,
      "ĠRob": 5703,
      "Will": 5704,
      "schijnlijk": 5705,
      "Ġwild": 5706,
      "Ġdank": 5707,
      "æĸĹ": 5708,
      "éĩĩ": 5709,
      "Ġfrog": 5710,
      "Ġtired": 5711,
      "ç»¿": 5712,
      "è´Ŀ": 5713,
      "mb": 5714,
      "ichael": 5715,
      "Ġcomputer": 5716,
      "Ġlog": 5717,
      "cember": 5718,
      "Ġdevelop": 5719,
      "èĭ¥": 5720,
      "Ġdress": 5721,
      "ula": 5722,
      "ĠåıĪ": 5723,
      "Ġpossible": 5724,
      "Ġmass": 5725,
      "çĭĲ": 5726,
      "åħ¬ä¸»": 5727,
      "ç»Īäºİ": 5728,
      "ä¼´": 5729,
      "ç¾Ĭ": 5730,
      "Ġè¿ĺæĺ¯": 5731,
      "èĢ³": 5732,
      "ijl": 5733,
      "aalde": 5734,
      "Gaat": 5735,
      "eller": 5736,
      "äºĮéĽ¶": 5737,
      "ĠApril": 5738,
      "ĠPat": 5739,
      "Ġå§": 5740,
      "UN": 5741,
      "Ġåģ": 5742,
      "åĪĢ": 5743,
      "å½ĵä¸Ń": 5744,
      "Ġpoints": 5745,
      "ĠæĪĳçļĦ": 5746,
      "Ġreplied": 5747,
      "Ġschoon": 5748,
      "ä¸ĢåĿĹ": 5749,
      "Ġdam": 5750,
      "Ġfa": 5751,
      "Ġshot": 5752,
      "å¥Ĺ": 5753,
      "ĠæĪĳçŁ¥éģĵ": 5754,
      "èĸ": 5755,
      "Ġcannot": 5756,
      "æĹ¥åŃĲ": 5757,
      "å®Įåħ¨": 5758,
      "Ġhowever": 5759,
      "ĠGl": 5760,
      "Ġet": 5761,
      "Ġvanaf": 5762,
      "Ġslag": 5763,
      "Gew": 5764,
      "andy": 5765,
      "Aan": 5766,
      "Ġzult": 5767,
      "å¼¹": 5768,
      "æķĮ": 5769,
      "reden": 5770,
      "Ġactiv": 5771,
      "Ġvermoord": 5772,
      "Ġclear": 5773,
      "Ġbegon": 5774,
      "Ġkwamen": 5775,
      "which": 5776,
      "Meer": 5777,
      "ĠNor": 5778,
      "æ³¢": 5779,
      "Ġfift": 5780,
      "Ġexact": 5781,
      "ection": 5782,
      "Ġmoved": 5783,
      "Ġnine": 5784,
      "Ġgebied": 5785,
      "ĠGra": 5786,
      "Ġriver": 5787,
      "ĠLord": 5788,
      "Ġverteld": 5789,
      "Ġfit": 5790,
      "åıªèĥ½": 5791,
      "aser": 5792,
      "ample": 5793,
      "Ġclothes": 5794,
      "Ġequ": 5795,
      "Ġhors": 5796,
      "Ġges": 5797,
      "Ġspeci": 5798,
      "inyl": 5799,
      "Ġdest": 5800,
      "Ġappro": 5801,
      "fer": 5802,
      "å®ĮäºĨ": 5803,
      "Ġbegrijp": 5804,
      "Ġalright": 5805,
      "Ġmaanden": 5806,
      "maken": 5807,
      "Ġrespect": 5808,
      "Ġsuppose": 5809,
      "Ġverkl": 5810,
      "onde": 5811,
      "Ġsinds": 5812,
      "kende": 5813,
      "Ġgarden": 5814,
      "Ġtechn": 5815,
      "eding": 5816,
      "Ġpain": 5817,
      "Ġkru": 5818,
      "æģĭ": 5819,
      "ç´¢": 5820,
      "bor": 5821,
      "åħ³æ³¨": 5822,
      "å¯¹å¯¹": 5823,
      "Ġhuman": 5824,
      "eens": 5825,
      "oger": 5826,
      "Ġsend": 5827,
      "åį¡": 5828,
      "Ġtoek": 5829,
      "è¿ĺæ²¡": 5830,
      "Ġkonden": 5831,
      "nou": 5832,
      "hold": 5833,
      "æĿ¥æĿ¥": 5834,
      "aven": 5835,
      "eptember": 5836,
      "Ġpunt": 5837,
      "Ġmonths": 5838,
      "æĺ¯åľ¨": 5839,
      "ç§ĺ": 5840,
      "æĮĳ": 5841,
      "åħ¶ä»ĸ": 5842,
      "offen": 5843,
      "Ġtrouw": 5844,
      "Ġrij": 5845,
      "çİĩ": 5846,
      "è¿ĩç¨ĭ": 5847,
      "çĸ¼": 5848,
      "Ġsnap": 5849,
      "ĠCounty": 5850,
      "æ¶Īæģ¯": 5851,
      "rey": 5852,
      "Ġest": 5853,
      "ãĢĭ": 5854,
      "Ġverdw": 5855,
      "Ġdad": 5856,
      "ãĢĬ": 5857,
      "Ġcommon": 5858,
      "ondon": 5859,
      "ä¸Ŀ": 5860,
      "Ġpriv": 5861,
      "ĠMy": 5862,
      "åŃ¦ä¹ł": 5863,
      "Ġgeval": 5864,
      "oorten": 5865,
      "Ġabove": 5866,
      "ekijk": 5867,
      "åĲĵ": 5868,
      "Ġwest": 5869,
      "repen": 5870,
      "ç¥¨": 5871,
      "æŀ¶": 5872,
      "åºĬ": 5873,
      "å®ĥä»¬": 5874,
      "æķ£": 5875,
      "Ġschrij": 5876,
      "Some": 5877,
      "æĺ¨å¤©": 5878,
      "want": 5879,
      "Ġkopen": 5880,
      "ç¿»": 5881,
      "Ġya": 5882,
      "æ´ŀ": 5883,
      "Ġenkele": 5884,
      "ĠWil": 5885,
      "Ġdiffic": 5886,
      "Ġpassed": 5887,
      "Ġsett": 5888,
      "çĥ§": 5889,
      "åĴĭ": 5890,
      "IC": 5891,
      "Ġworked": 5892,
      "Ġpraat": 5893,
      "Ġstil": 5894,
      "Ġrain": 5895,
      "Ġè¯·": 5896,
      "æĸ¹å¼ı": 5897,
      "åĪļåĪļ": 5898,
      "Ġsuccess": 5899,
      "Ġgebeuren": 5900,
      "ays": 5901,
      "berg": 5902,
      "ukt": 5903,
      "Ġknows": 5904,
      "æĥ³è¦ģ": 5905,
      "èĨ": 5906,
      "Ġmat": 5907,
      "Ġvor": 5908,
      "åįĩ": 5909,
      "iging": 5910,
      "dra": 5911,
      "rum": 5912,
      "Ġstraight": 5913,
      "LT": 5914,
      "igheid": 5915,
      "view": 5916,
      "Ġdanger": 5917,
      "Ġbetalen": 5918,
      "LOI": 5919,
      "åĪ¤": 5920,
      "è±Ĩ": 5921,
      "ĠLees": 5922,
      "Ġmember": 5923,
      "æĭľæĭľ": 5924,
      "ä¸Ģåıª": 5925,
      "Because": 5926,
      "asure": 5927,
      "çŁŃ": 5928,
      "Ġner": 5929,
      "Ġslow": 5930,
      "çĽĳ": 5931,
      "ä¹Łæ²¡": 5932,
      "ebru": 5933,
      "çĶļ": 5934,
      "ä¼¯": 5935,
      "Ġfort": 5936,
      "Ġdream": 5937,
      "Ġlots": 5938,
      "oer": 5939,
      "Ġtomorrow": 5940,
      "Alleen": 5941,
      "laimed": 5942,
      "Ġesc": 5943,
      "åº·": 5944,
      "weer": 5945,
      "äº«": 5946,
      "ĠBra": 5947,
      "Ġsal": 5948,
      "Ġkoff": 5949,
      "Ġblock": 5950,
      "åĸĦ": 5951,
      "Ġontwikk": 5952,
      "Ġliet": 5953,
      "éŀ": 5954,
      "ĠPart": 5955,
      "åĹ¯åĹ¯": 5956,
      "Ġeraan": 5957,
      "Ġrot": 5958,
      "ered": 5959,
      "ĠAlex": 5960,
      "Ġlunch": 5961,
      "ĠIN": 5962,
      "zz": 5963,
      "lingen": 5964,
      "ĠOctober": 5965,
      "stellen": 5966,
      "Ġtemper": 5967,
      "ira": 5968,
      "Ġvoordat": 5969,
      "Ġbru": 5970,
      "å§Ĳå§Ĳ": 5971,
      "åľĪ": 5972,
      "Ġgevol": 5973,
      "oenen": 5974,
      "æīĢæľīçļĦ": 5975,
      "Ġfiguur": 5976,
      "åıªè¦ģ": 5977,
      "ç§¯": 5978,
      "Ġshoes": 5979,
      "ĠAfter": 5980,
      "Ġgep": 5981,
      "Ġä½łè¦ģ": 5982,
      "ĠNove": 5983,
      "iny": 5984,
      "Ġlange": 5985,
      "éĥ½ä¼ļ": 5986,
      "ĠNovember": 5987,
      "espe": 5988,
      "æĪĳåİ»": 5989,
      "Ġneemt": 5990,
      "Ġijs": 5991,
      "ision": 5992,
      "Ġleger": 5993,
      "ĠCaptain": 5994,
      "Ġhus": 5995,
      "Ġmaand": 5996,
      "Ġarms": 5997,
      "kn": 5998,
      "Please": 5999,
      "Ġvoll": 6000,
      "è¯Ħ": 6001,
      "Ġforward": 6002,
      "Ġreached": 6003,
      "Ġopt": 6004,
      "ills": 6005,
      "Ġsuff": 6006,
      "çĩ": 6007,
      "gem": 6008,
      "Men": 6009,
      "è¿·": 6010,
      "å°ģ": 6011,
      "Ġseems": 6012,
      "ella": 6013,
      "ç¬Ķ": 6014,
      "ĠSm": 6015,
      "Ġlach": 6016,
      "ebruary": 6017,
      "ograph": 6018,
      "Ġpract": 6019,
      "åĽłæŃ¤": 6020,
      "Ġmater": 6021,
      "å¹²åĲĹ": 6022,
      "ä½łäºĨ": 6023,
      "Ġbreat": 6024,
      "éĤ£åĦ¿": 6025,
      "Ġletters": 6026,
      "Ġä¸Ģä¸ª": 6027,
      "icro": 6028,
      "åĪº": 6029,
      "Ġä¸Ĭ": 6030,
      "Ġlow": 6031,
      "ĠåĮ": 6032,
      "Ġoog": 6033,
      "ĠDecember": 6034,
      "Ġontmoet": 6035,
      "ases": 6036,
      "Ġverr": 6037,
      "ä»Ļ": 6038,
      "Ġlonger": 6039,
      "ä¸´": 6040,
      "Ġyours": 6041,
      "Ġtreat": 6042,
      "ket": 6043,
      "Ġbuurt": 6044,
      "å¹´è½»": 6045,
      "cing": 6046,
      "åŃ¦çĶŁ": 6047,
      "itter": 6048,
      "lle": 6049,
      "éĻį": 6050,
      "Ġcirc": 6051,
      "Ġnor": 6052,
      "Ġarri": 6053,
      "çĻ¾åĪĨä¹ĭ": 6054,
      "Ġthr": 6055,
      "æĬĬæĪĳ": 6056,
      "with": 6057,
      "æ¬¾": 6058,
      "ĠJuly": 6059,
      "nam": 6060,
      "çº¸": 6061,
      "Ġsterven": 6062,
      "recht": 6063,
      "å´": 6064,
      "issen": 6065,
      "Ġdeep": 6066,
      "Ġbath": 6067,
      "ä¸Ģä¼ļåĦ¿": 6068,
      "Ġeye": 6069,
      "åģļçļĦ": 6070,
      "Every": 6071,
      "Ġsuggest": 6072,
      "Ġren": 6073,
      "elk": 6074,
      "ĠHarry": 6075,
      "Ġsight": 6076,
      "ĠUniversity": 6077,
      "lands": 6078,
      "èĥ½ä¸įèĥ½": 6079,
      "è®¨": 6080,
      "Sn": 6081,
      "OM": 6082,
      "Ġjuiste": 6083,
      "Help": 6084,
      "Ġmoder": 6085,
      "ç»ıæµİ": 6086,
      "è¢ĭ": 6087,
      "Ġdiscover": 6088,
      "ĠLondon": 6089,
      "Ġeating": 6090,
      "inter": 6091,
      "eddy": 6092,
      "è¿Ļä¹Īå¤ļ": 6093,
      "onk": 6094,
      "åĲ´": 6095,
      "Ġann": 6096,
      "antie": 6097,
      "ology": 6098,
      "stubl": 6099,
      "rift": 6100,
      "ç§ĭ": 6101,
      "æ¬¢è¿İ": 6102,
      "Wanneer": 6103,
      "ĠVeren": 6104,
      "ĠHen": 6105,
      "Gr": 6106,
      "Pl": 6107,
      "è¶ĬæĿ¥": 6108,
      "åŃ¦æł¡": 6109,
      "Ġwinter": 6110,
      "fast": 6111,
      "åĬª": 6112,
      "Ġwaiting": 6113,
      "Ġ21": 6114,
      "ength": 6115,
      "ľçļĦ": 6116,
      "Ġkennen": 6117,
      "Ġeasy": 6118,
      "å±Ĥ": 6119,
      "Ġgingen": 6120,
      "Ġcontrol": 6121,
      "Ġlid": 6122,
      "anny": 6123,
      "vorm": 6124,
      "isper": 6125,
      "Ġtoward": 6126,
      "iod": 6127,
      "Ġobs": 6128,
      "stublieft": 6129,
      "æİ¢": 6130,
      "Ġthird": 6131,
      "Ġmedic": 6132,
      "Ġdok": 6133,
      "will": 6134,
      "esse": 6135,
      "Ġkat": 6136,
      "Ġ192": 6137,
      "Ġled": 6138,
      "Ġdaddy": 6139,
      "oom": 6140,
      "Ġwear": 6141,
      "Ġbow": 6142,
      "Ġsounds": 6143,
      "LE": 6144,
      "Ġenorm": 6145,
      "ä¿ĿæĬ¤": 6146,
      "æĹģ": 6147,
      "Ġbab": 6148,
      "ĠéĤ£æĪĳ": 6149,
      "dan": 6150,
      "work": 6151,
      "æģĲ": 6152,
      "èŀ": 6153,
      "Ġå¤ª": 6154,
      "Ġgang": 6155,
      "Ġ22": 6156,
      "æĭ¬": 6157,
      "Ġvlucht": 6158,
      "Ġgentle": 6159,
      "åħħ": 6160,
      "Ġsterk": 6161,
      "æģ©": 6162,
      "ĠRepubl": 6163,
      "night": 6164,
      "è´§": 6165,
      "Ġredden": 6166,
      "è¶ĬæĿ¥è¶Ĭ": 6167,
      "Alsjeblieft": 6168,
      "Ġarg": 6169,
      "æĹħ": 6170,
      "éĥ¨åĪĨ": 6171,
      "æĿ¯": 6172,
      "Ġ23": 6173,
      "Ġgeme": 6174,
      "Ġcop": 6175,
      "Ġdaarom": 6176,
      "ĠCent": 6177,
      "Ġverwacht": 6178,
      "Ġquickly": 6179,
      "è´¥": 6180,
      "Ġzeer": 6181,
      "olon": 6182,
      "å¼ĥ": 6183,
      "è§£æŀĲ": 6184,
      "è¿ĺä¸į": 6185,
      "ç²ī": 6186,
      "æ£Ģ": 6187,
      "ĠSeptember": 6188,
      "èĢģæĿ¿": 6189,
      "Ġforgot": 6190,
      "æĦŁæĥħ": 6191,
      "iled": 6192,
      "ĠDoor": 6193,
      "Ġnoises": 6194,
      "çŃĶåºĶ": 6195,
      "Ġruimte": 6196,
      "æ´ĭ": 6197,
      "éª¨": 6198,
      "ä½łè¿Ļ": 6199,
      "Ġbroken": 6200,
      "Ġcry": 6201,
      "çļĦéĤ£": 6202,
      "inea": 6203,
      "Ġfant": 6204,
      "Ġtype": 6205,
      "æĪĳåľ¨": 6206,
      "Ġspl": 6207,
      "Ġå¦Ī": 6208,
      "vin": 6209,
      "gelopen": 6210,
      "Ġvoelt": 6211,
      "ĠæĪĳè¦ģ": 6212,
      "your": 6213,
      "iland": 6214,
      "Ġvoort": 6215,
      "Ġrace": 6216,
      "Ġèµ°": 6217,
      "Ġmillion": 6218,
      "Ġsnow": 6219,
      "Ġshut": 6220,
      "åĽŀæĿ¥äºĨ": 6221,
      "ya": 6222,
      "Ġforget": 6223,
      "Ġantwoorden": 6224,
      "wood": 6225,
      "Ġcamera": 6226,
      "Ġvent": 6227,
      "zonder": 6228,
      "gar": 6229,
      "Ġburn": 6230,
      "æ¹ĸ": 6231,
      "Bel": 6232,
      "ĠNot": 6233,
      "Ġvillage": 6234,
      "Ġerop": 6235,
      "apa": 6236,
      "ening": 6237,
      "ĠMark": 6238,
      "äºļ": 6239,
      "å¸¦çĿĢ": 6240,
      "ç¢°": 6241,
      "è¿ĺè¦ģ": 6242,
      "bab": 6243,
      "Ġadm": 6244,
      "è¾Ľ": 6245,
      "ĠGel": 6246,
      "Ġluck": 6247,
      "Ġneeds": 6248,
      "Un": 6249,
      "Ġsex": 6250,
      "æ³¨æĦı": 6251,
      "Ġgast": 6252,
      "çľŁçļĦæĺ¯": 6253,
      "æĪĳçľĭ": 6254,
      "ä»ĸä»¬çļĦ": 6255,
      "ĠMad": 6256,
      "Ġkids": 6257,
      "Ġfarm": 6258,
      "ä¾Ľ": 6259,
      "ä¹Łæ²¡æľī": 6260,
      "Ġlist": 6261,
      "Ġsupport": 6262,
      "Ġbaan": 6263,
      "Ġspreek": 6264,
      "åıĺæĪĲ": 6265,
      "ebruik": 6266,
      "ingers": 6267,
      "alan": 6268,
      "Ġreis": 6269,
      "ĠLou": 6270,
      "Ġboot": 6271,
      "åĲįåŃĹ": 6272,
      "Ġfeeling": 6273,
      "ising": 6274,
      "AND": 6275,
      "ĠæĪĳè¯´": 6276,
      "Zoals": 6277,
      "Ġtrek": 6278,
      "ature": 6279,
      "éĥ½æľī": 6280,
      "åĩłå¤©": 6281,
      "éŃĶ": 6282,
      "ĠYeah": 6283,
      "uist": 6284,
      "Ġåĸ": 6285,
      "Ġåº": 6286,
      "è¿Ľåİ»": 6287,
      "sta": 6288,
      "kening": 6289,
      "ç§ģ": 6290,
      "astic": 6291,
      "nemen": 6292,
      "è¯į": 6293,
      "ustig": 6294,
      "ĠBy": 6295,
      "ieke": 6296,
      "Ġrijden": 6297,
      "å°±è¦ģ": 6298,
      "Ġmakkelijk": 6299,
      "ette": 6300,
      "Ġhaal": 6301,
      "ĠChina": 6302,
      "stairs": 6303,
      "Ġsick": 6304,
      "ä¸įæĥ³": 6305,
      "è¡¥": 6306,
      "Ġ$": 6307,
      "Ġkost": 6308,
      "SI": 6309,
      "iedenis": 6310,
      "Ġreturned": 6311,
      "Ġlovely": 6312,
      "Ġwakker": 6313,
      "Ġschip": 6314,
      "Ġä½łçļĦ": 6315,
      "Ġhusband": 6316,
      "ĠPol": 6317,
      "çīĮ": 6318,
      "çĪ·çĪ·": 6319,
      "Ġvisit": 6320,
      "oning": 6321,
      "essor": 6322,
      "ĠHar": 6323,
      "ä¸¢": 6324,
      "Ġview": 6325,
      "dam": 6326,
      "Ġformer": 6327,
      "æķ´ä¸ª": 6328,
      "aa": 6329,
      "ĠFebruary": 6330,
      "Ġè¿Ļæł·": 6331,
      "åĵ¥åĵ¥": 6332,
      "åĨ°": 6333,
      "Ġtowards": 6334,
      "Ġveranderen": 6335,
      "æĿ¥åĪ°": 6336,
      "hoog": 6337,
      "Ġnatuur": 6338,
      "Ġminister": 6339,
      "Ġblijf": 6340,
      "åįļ": 6341,
      "Ġain": 6342,
      "Ġ40": 6343,
      "Ġlied": 6344,
      "geet": 6345,
      "Ġboom": 6346,
      "Ġbuilding": 6347,
      "éĺµ": 6348,
      "Ġreger": 6349,
      "åĬªåĬĽ": 6350,
      "ĠAfr": 6351,
      "ĠDavid": 6352,
      "Gel": 6353,
      "Ġtoekomst": 6354,
      "Dr": 6355,
      "Ġbuilt": 6356,
      "toe": 6357,
      "æĸĩåĮĸ": 6358,
      "uigen": 6359,
      "Ġcos": 6360,
      "Ġpan": 6361,
      "Ġcaught": 6362,
      "Ġbaas": 6363,
      "Ġcoun": 6364,
      "Ġplaces": 6365,
      "Ġtelevision": 6366,
      "ç»ıå¸¸": 6367,
      "itty": 6368,
      "éģį": 6369,
      "eh": 6370,
      "Ġdig": 6371,
      "oft": 6372,
      "Ġcontact": 6373,
      "æĸ°éĹ»": 6374,
      "éĥ½æ²¡": 6375,
      "ĠZijn": 6376,
      "Ġbos": 6377,
      "Ġtrees": 6378,
      "è®Ń": 6379,
      "èĥ½åĬĽ": 6380,
      "Ġgrap": 6381,
      "aste": 6382,
      "æħ¢æħ¢": 6383,
      "vocal": 6384,
      "è¿Ļä»¶": 6385,
      "enny": 6386,
      "Ġoffice": 6387,
      "genoot": 6388,
      "Ġvuur": 6389,
      "ĠAmerikaanse": 6390,
      "lymp": 6391,
      "Ġputting": 6392,
      "Ġzwaar": 6393,
      "å¾ĹåĪ°": 6394,
      "gang": 6395,
      "Ġperform": 6396,
      "ĠåĽŀ": 6397,
      "åģ¥": 6398,
      "Ġzak": 6399,
      "30": 6400,
      "å®ĭ": 6401,
      "Have": 6402,
      "å¦Ĥä½ķ": 6403,
      "æĻ®": 6404,
      "Ġgister": 6405,
      "After": 6406,
      "iety": 6407,
      "èī²çļĦ": 6408,
      "bouw": 6409,
      "Ġjuice": 6410,
      "entie": 6411,
      "ä½łæĢİä¹Ī": 6412,
      "Ġnad": 6413,
      "Ġker": 6414,
      "èĪĴ": 6415,
      "Ġfollowing": 6416,
      "Ġweken": 6417,
      "Ġshoot": 6418,
      "With": 6419,
      "llustr": 6420,
      "å·¦": 6421,
      "Ġwritten": 6422,
      "ĠIndian": 6423,
      "æĻº": 6424,
      "RE": 6425,
      "Ġtrein": 6426,
      "Ġverdien": 6427,
      "dien": 6428,
      "Ġprobeer": 6429,
      "ÃŃ": 6430,
      "cks": 6431,
      "vangen": 6432,
      "Ġdepartment": 6433,
      "vloed": 6434,
      "Ġpolice": 6435,
      "ipe": 6436,
      "ĠSome": 6437,
      "ç¼º": 6438,
      "æĬĺ": 6439,
      "Ġkwijt": 6440,
      "æ¸¸æĪı": 6441,
      "Dag": 6442,
      "Ġseem": 6443,
      "Ġdoubt": 6444,
      "ammer": 6445,
      "ä¸ĭçļĦ": 6446,
      "zin": 6447,
      "æĬ¢": 6448,
      "èĵĿ": 6449,
      "çľŁæŃ£": 6450,
      "ĠNow": 6451,
      "Ġcost": 6452,
      "éĥ½åľ¨": 6453,
      "gev": 6454,
      "å¹¸ç¦ı": 6455,
      "eeg": 6456,
      "ds": 6457,
      "Ġfijn": 6458,
      "Ġexample": 6459,
      "Ġfollowed": 6460,
      "Ġeh": 6461,
      "Ġè¿Ļä¹Ī": 6462,
      "Ã¯n": 6463,
      "ĠåĪ°": 6464,
      "ä¼ļæľī": 6465,
      "Ġgelukkig": 6466,
      "ADULT": 6467,
      "wegen": 6468,
      "ae": 6469,
      "æĻĵ": 6470,
      "raagd": 6471,
      "Ġafg": 6472,
      "¤Ĳ": 6473,
      "Ġprison": 6474,
      "Ġheer": 6475,
      "Hello": 6476,
      "ä½łçŁ¥éģĵ": 6477,
      "Ġcast": 6478,
      "æµª": 6479,
      "ä¸»è¦ģ": 6480,
      "Ġknock": 6481,
      "Her": 6482,
      "Ġgeneral": 6483,
      "çīĻ": 6484,
      "Ġmeisjes": 6485,
      "éĩĬ": 6486,
      "åľ°è¯´": 6487,
      "ĠLet": 6488,
      "iot": 6489,
      "é¢Ħ": 6490,
      "èĮĥ": 6491,
      "ny": 6492,
      "Ġrelig": 6493,
      "Ġnearly": 6494,
      "æĸ½": 6495,
      "Ġplayer": 6496,
      "ĠTer": 6497,
      "é¦Ĩ": 6498,
      "Vertel": 6499,
      "sm": 6500,
      "çĲĨè§£": 6501,
      "Ġdistrict": 6502,
      "å¼Ĥ": 6503,
      "Ġcake": 6504,
      "å½ķ": 6505,
      "Ġmur": 6506,
      "Ġcouple": 6507,
      "Ġplane": 6508,
      "IE": 6509,
      "ĠPresident": 6510,
      "æ£®": 6511,
      "oci": 6512,
      "Ġspeelt": 6513,
      "ST": 6514,
      "çļĦéĤ£ä¸ª": 6515,
      "ç»ĩ": 6516,
      "Ġmembers": 6517,
      "éļ¾éģĵ": 6518,
      "åĸĬ": 6519,
      "ä¸ģ": 6520,
      "çĶļèĩ³": 6521,
      "å³": 6522,
      "åĽ°": 6523,
      "èĩ£": 6524,
      "Ġdrive": 6525,
      "reng": 6526,
      "edia": 6527,
      "Ġrob": 6528,
      "ĠWilliam": 6529,
      "ume": 6530,
      "å¥³åŃ©": 6531,
      "Ġslim": 6532,
      "Ġtick": 6533,
      "stad": 6534,
      "Ġeverybody": 6535,
      "Ġterri": 6536,
      "Ġhell": 6537,
      "Uh": 6538,
      "Ġahead": 6539,
      "Ġsecret": 6540,
      "Want": 6541,
      "åĬ²": 6542,
      "Ġboos": 6543,
      "ĠNe": 6544,
      "Ġvechten": 6545,
      "kant": 6546,
      "å¾Īå¥½": 6547,
      "igg": 6548,
      "iling": 6549,
      "ogn": 6550,
      "è¯Ĺ": 6551,
      "John": 6552,
      "Ġseat": 6553,
      "åĲµ": 6554,
      "Ġorganis": 6555,
      "Ġintern": 6556,
      "è¦ģæ±Ĥ": 6557,
      "Ġkort": 6558,
      "Ġrode": 6559,
      "å¿į": 6560,
      "Ġ2018": 6561,
      "åĨ¬": 6562,
      "ĠSun": 6563,
      "ts": 6564,
      "åĲ¬åĪ°": 6565,
      "è¾ĵ": 6566,
      "åī¯": 6567,
      "åŃĲéĩĮ": 6568,
      "Ġbedrijf": 6569,
      "',": 6570,
      "empt": 6571,
      "æł¹æį®": 6572,
      "å½Ĵ": 6573,
      "Ġnaast": 6574,
      "åľĨ": 6575,
      "æŀĦ": 6576,
      "çĭ¸": 6577,
      "æļĹ": 6578,
      "uel": 6579,
      "å¸ħ": 6580,
      "ä¸įä½ı": 6581,
      "osaur": 6582,
      "ä¼ĳæģ¯": 6583,
      "Ġputs": 6584,
      "Ġæĺ¯ä¸įæĺ¯": 6585,
      "Ġzaken": 6586,
      "éĻĨ": 6587,
      "Ġposition": 6588,
      "some": 6589,
      "Ġjump": 6590,
      "æ¦Ĥ": 6591,
      "Ġhosp": 6592,
      "iez": 6593,
      "è·ŁçĿĢ": 6594,
      "ichting": 6595,
      "nem": 6596,
      "åı³": 6597,
      "Ġzus": 6598,
      "ells": 6599,
      "Ġamb": 6600,
      "ĠSy": 6601,
      "druk": 6602,
      "Door": 6603,
      "joy": 6604,
      "ç®Ģåįķ": 6605,
      "æĪĲåĬŁ": 6606,
      "eltje": 6607,
      "Ġrequ": 6608,
      "Ġmajor": 6609,
      "Ġbot": 6610,
      "Ġpupp": 6611,
      "ĠAan": 6612,
      "Ġchurch": 6613,
      "stelling": 6614,
      "Ġafbeelding": 6615,
      "Ġmommy": 6616,
      "Ġterm": 6617,
      "Any": 6618,
      "GRA": 6619,
      "Ġspir": 6620,
      "Ġbroke": 6621,
      "ĠChristmas": 6622,
      "ĠEll": 6623,
      "Ġschree": 6624,
      "Ġnamelijk": 6625,
      "ĠMil": 6626,
      "é¡¿": 6627,
      "Naar": 6628,
      "afel": 6629,
      "çİ¯å¢ĥ": 6630,
      "blad": 6631,
      "11": 6632,
      "Ġcarry": 6633,
      "å°±æĺ¯è¯´": 6634,
      "esterd": 6635,
      "æľ¬æĿ¥": 6636,
      "Ġdik": 6637,
      "çłĶç©¶": 6638,
      "Ġoveral": 6639,
      "ĠEuropa": 6640,
      "åĲĮæĹ¶": 6641,
      "Ġnews": 6642,
      "Ġinsp": 6643,
      "Ġchanged": 6644,
      "Ġmid": 6645,
      "Ġwinnen": 6646,
      "Ġkid": 6647,
      "Maybe": 6648,
      "Ġlanguage": 6649,
      "éĤ£è¾¹": 6650,
      "dr": 6651,
      "æī¹": 6652,
      "Ġwhom": 6653,
      "ĠNational": 6654,
      "Ġboard": 6655,
      "ends": 6656,
      "çļĦäºĭåĦ¿": 6657,
      "åħį": 6658,
      "otte": 6659,
      "ĠMommy": 6660,
      "Ġincluding": 6661,
      "Per": 6662,
      "uper": 6663,
      "è§£åĨ³": 6664,
      "ä»»åĬ¡": 6665,
      "Ġåıªè¦ģ": 6666,
      "ugd": 6667,
      "åį°": 6668,
      "Ġfill": 6669,
      "Ġreach": 6670,
      "çħ§é¡¾": 6671,
      "³å¦ĩ": 6672,
      "See": 6673,
      "uwen": 6674,
      "å°Ħ": 6675,
      "Ġhotel": 6676,
      "Ġtelling": 6677,
      "Ġopened": 6678,
      "uken": 6679,
      "Ġduur": 6680,
      "é½Ĳ": 6681,
      "Ġdelen": 6682,
      "å¤§äºĨ": 6683,
      "Ġbellen": 6684,
      "ston": 6685,
      "ĠBer": 6686,
      "Ġearth": 6687,
      "æĸ°çļĦ": 6688,
      "é¤Ĳ": 6689,
      "å®ŀåľ¨": 6690,
      "Ġzichzelf": 6691,
      "ozen": 6692,
      "beer": 6693,
      "Ġinstead": 6694,
      "Ġmiles": 6695,
      "Ġtonight": 6696,
      "Ġstanding": 6697,
      "Ġdokter": 6698,
      "Ġopnieuw": 6699,
      "Ġlim": 6700,
      "èĦ±": 6701,
      "Ġpassen": 6702,
      "ilder": 6703,
      "éĿ©": 6704,
      "æľīäºĽ": 6705,
      "naam": 6706,
      "Ġsad": 6707,
      "Ġwaardoor": 6708,
      "eech": 6709,
      "Ġstorm": 6710,
      "Ġaccept": 6711,
      "Welke": 6712,
      "Even": 6713,
      "Ġmiddel": 6714,
      "Ġeet": 6715,
      "Ġdw": 6716,
      "uro": 6717,
      "æģ¶": 6718,
      "esterday": 6719,
      "lijn": 6720,
      "Ġmachine": 6721,
      "åĳĹ": 6722,
      "ĠBlack": 6723,
      "regen": 6724,
      "Ġcareful": 6725,
      "enschap": 6726,
      "Ġmevrouw": 6727,
      "åĮ»çĶŁ": 6728,
      "ĠDE": 6729,
      "Ġdisapp": 6730,
      "ĠSan": 6731,
      "Ġusing": 6732,
      "æ¢ħ": 6733,
      "ĠJames": 6734,
      "Ġhistory": 6735,
      "ĠæľĢ": 6736,
      "åľ¨æĪĳ": 6737,
      "æĽ¾ç»ı": 6738,
      "Ġstopped": 6739,
      "unic": 6740,
      "å°ıå¿ĥ": 6741,
      "åĬ³": 6742,
      "Ġshout": 6743,
      "Ġkennis": 6744,
      "ĠCom": 6745,
      "achte": 6746,
      "Ġfir": 6747,
      "Ġevening": 6748,
      "ils": 6749,
      "Ġperiod": 6750,
      "uurd": 6751,
      "åĩı": 6752,
      "Ġfre": 6753,
      "idence": 6754,
      "Ġhungry": 6755,
      "Ġsouth": 6756,
      "éĻ¤äºĨ": 6757,
      "ĠThese": 6758,
      "say": 6759,
      "ĠPe": 6760,
      "ampion": 6761,
      "alanyl": 6762,
      "çļĩä¸Ĭ": 6763,
      "æĺ¯è°ģ": 6764,
      "æĳĨ": 6765,
      "çĥŁ": 6766,
      "Ġheavy": 6767,
      "leep": 6768,
      "ĠWelke": 6769,
      "Ġdescri": 6770,
      "Ġadded": 6771,
      "Ġboeken": 6772,
      "èĥĸ": 6773,
      "èħ¿": 6774,
      "cel": 6775,
      "ĠGro": 6776,
      "Ġvandaan": 6777,
      "Ġdep": 6778,
      "Ġkor": 6779,
      "aches": 6780,
      "Ġworks": 6781,
      "ĠBelg": 6782,
      "Ġservice": 6783,
      "ĠHelen": 6784,
      "ĠSl": 6785,
      "Ġcomb": 6786,
      "ĠOnder": 6787,
      "Ġovert": 6788,
      "Ġhom": 6789,
      "ID": 6790,
      "Ġmeant": 6791,
      "ĠDuitsland": 6792,
      "çĭĲçĭ¸": 6793,
      "å°ĨåĨĽ": 6794,
      "åİŁæĿ¥": 6795,
      "Ġdin": 6796,
      "Ġradio": 6797,
      "æĶ¹åıĺ": 6798,
      "Ġwaarheid": 6799,
      "itein": 6800,
      "æ°¸è¿ľ": 6801,
      "izen": 6802,
      "ä½Ļ": 6803,
      "iday": 6804,
      "leiding": 6805,
      "box": 6806,
      "kel": 6807,
      "onen": 6808,
      "Ġ2021": 6809,
      "Ġkunst": 6810,
      "LA": 6811,
      "usp": 6812,
      "Ġhuid": 6813,
      "Ġseason": 6814,
      "Ġaardig": 6815,
      "Ġbreakfast": 6816,
      "anning": 6817,
      "å®Ĺ": 6818,
      "Ġprijs": 6819,
      "Ġdecl": 6820,
      "è¶£": 6821,
      "Rustig": 6822,
      "çģ¯": 6823,
      "ux": 6824,
      "zus": 6825,
      "æĪĳè¿Ļ": 6826,
      "Ġride": 6827,
      "Ġdecided": 6828,
      "ĠHeb": 6829,
      "ä¾ĭ": 6830,
      "çĺ": 6831,
      "éĽ·": 6832,
      "Ġvoedsel": 6833,
      "arp": 6834,
      "åĵªéĩĮ": 6835,
      "åİ»æī¾": 6836,
      "lin": 6837,
      "Ġpieces": 6838,
      "Ġsta": 6839,
      "Ġhig": 6840,
      "åķĬä½ł": 6841,
      "åĶĲ": 6842,
      "å¯»": 6843,
      "Ġä¸ī": 6844,
      "ees": 6845,
      "Ġelekt": 6846,
      "elingen": 6847,
      "kijk": 6848,
      "spraak": 6849,
      "Ġdroom": 6850,
      "ç¨³": 6851,
      "å®ģ": 6852,
      "ugs": 6853,
      "Ġmoesten": 6854,
      "Ġpolitic": 6855,
      "Ġbeteken": 6856,
      "Pak": 6857,
      "å®ĥçļĦ": 6858,
      "rap": 6859,
      "amm": 6860,
      "ĠæĪĳçİ°åľ¨": 6861,
      "would": 6862,
      "éº»çĥ¦": 6863,
      "ala": 6864,
      "çģ°": 6865,
      "Ġban": 6866,
      "Ġcentury": 6867,
      "åŃ£": 6868,
      "Twee": 6869,
      "oogle": 6870,
      "Ġsupposed": 6871,
      "Ġgeboren": 6872,
      "Ġduck": 6873,
      "uses": 6874,
      "èĩªçĦ¶": 6875,
      "maybe": 6876,
      "ording": 6877,
      "èĢĥèĻĳ": 6878,
      "zichtig": 6879,
      "Ġcray": 6880,
      "ĠSim": 6881,
      "Ġhield": 6882,
      "ĠOlymp": 6883,
      "Ġzwem": 6884,
      "æīĺ": 6885,
      "Ġgeluid": 6886,
      "å¿«ä¹Ĳ": 6887,
      "ĠBill": 6888,
      "ĠJul": 6889,
      "Ġthee": 6890,
      "Ġglass": 6891,
      "itchen": 6892,
      "emand": 6893,
      "ĠCarl": 6894,
      "ola": 6895,
      "Ġmidden": 6896,
      "å¯¹åķĬ": 6897,
      "Ġintro": 6898,
      "arah": 6899,
      "å°Ŀ": 6900,
      "Ġcompet": 6901,
      "Ġblow": 6902,
      "ĠRich": 6903,
      "æ¤į": 6904,
      "Ġpuzz": 6905,
      "Ġanyway": 6906,
      "Ġrid": 6907,
      "Ġwrote": 6908,
      "ushed": 6909,
      "iller": 6910,
      "Ġexcept": 6911,
      "ĠMex": 6912,
      "åĭĩ": 6913,
      "Ġgold": 6914,
      "rian": 6915,
      "ĠWith": 6916,
      "Ġfruit": 6917,
      "ribut": 6918,
      "uts": 6919,
      "ĠLeg": 6920,
      "ĠOl": 6921,
      "board": 6922,
      "Hoi": 6923,
      "Ġpress": 6924,
      "Ġworry": 6925,
      "çĶŁæ°Ķ": 6926,
      "xim": 6927,
      "Ġwhatever": 6928,
      "oppen": 6929,
      "çĽĺ": 6930,
      "æĽ²": 6931,
      "Ġenergie": 6932,
      "çĤ¹åĦ¿": 6933,
      "å¸®æĪĳ": 6934,
      "ĠåĬ": 6935,
      "åıĤåĬł": 6936,
      "Ġopg": 6937,
      "é¢ĳ": 6938,
      "åĳĬè¯īæĪĳ": 6939,
      "ĠGeef": 6940,
      "Ġvolk": 6941,
      "ĠåĴĮ": 6942,
      "Ġkast": 6943,
      "Ġcareer": 6944,
      "Ġweeks": 6945,
      "æļĸ": 6946,
      "æ²ī": 6947,
      "Ġindeed": 6948,
      "æĿŁ": 6949,
      "elijkheid": 6950,
      "Ġmotor": 6951,
      "æĪĳçŁ¥éģĵ": 6952,
      "hij": 6953,
      "Ġregering": 6954,
      "å¯¹äºİ": 6955,
      "Ste": 6956,
      "Ġmad": 6957,
      "clus": 6958,
      "èģª": 6959,
      "Ġhoorde": 6960,
      "ä½ľçĶ¨": 6961,
      "Ġpopulation": 6962,
      "åª³å¦ĩ": 6963,
      "ç¥ĸ": 6964,
      "Ġmeestal": 6965,
      "èĢģé¼ł": 6966,
      "Ġmiddle": 6967,
      "arts": 6968,
      "Daarom": 6969,
      "å¯¹æĪĳ": 6970,
      "Ġerin": 6971,
      "ä»Ģä¹ĪåĳĢ": 6972,
      "Ġbread": 6973,
      "ened": 6974,
      "Ġanyone": 6975,
      "uf": 6976,
      "ubb": 6977,
      "mark": 6978,
      "laas": 6979,
      "Ġkeek": 6980,
      "Ġswim": 6981,
      "è½®": 6982,
      "ĠRobert": 6983,
      "ified": 6984,
      "iforn": 6985,
      "zoeken": 6986,
      "Ġspace": 6987,
      "Ġ(\"": 6988,
      "Ġwand": 6989,
      "æĮ¥": 6990,
      "Ġauthor": 6991,
      "Ġä¸ĭ": 6992,
      "Ġproject": 6993,
      "ersch": 6994,
      "Ġ2019": 6995,
      "Ġstraat": 6996,
      "äººä»¬": 6997,
      "Ġklim": 6998,
      "agina": 6999,
      "ĠAN": 7000,
      "éķ¿çļĦ": 7001,
      "ĠStaten": 7002,
      "Ġrustig": 7003,
      "äºĨä»ĸ": 7004,
      "Volgens": 7005,
      "Ġgiving": 7006,
      "Ġ26": 7007,
      "laag": 7008,
      "rect": 7009,
      "ä¸ĬéĿ¢": 7010,
      "åĲ¹": 7011,
      "Ġtaal": 7012,
      "ĠYOU": 7013,
      "cially": 7014,
      "æ¯ķç«Ł": 7015,
      "Ġexpect": 7016,
      "éĹ®ä½ł": 7017,
      "bled": 7018,
      "Ġreceived": 7019,
      "zier": 7020,
      "åİ¿": 7021,
      "æĬĬä½ł": 7022,
      "ground": 7023,
      "estig": 7024,
      "å¤ªéĺ³": 7025,
      "ichten": 7026,
      "æĳĩ": 7027,
      "Ġstrange": 7028,
      "Ġomge": 7029,
      "æİ¥åıĹ": 7030,
      "ĠAmerica": 7031,
      "oorlog": 7032,
      "Ġliever": 7033,
      "Ġslaap": 7034,
      "Ġprinc": 7035,
      "å¦ĤæŃ¤": 7036,
      "Ġpack": 7037,
      "çļĦåķĬ": 7038,
      "Ġbeeld": 7039,
      "Ġsilly": 7040,
      "Ġhappens": 7041,
      "Ġdev": 7042,
      "Ġleid": 7043,
      "Ġdesign": 7044,
      "Ġchocol": 7045,
      "este": 7046,
      "200": 7047,
      "ç¥Ŀ": 7048,
      "Ġkleur": 7049,
      "Ġlegs": 7050,
      "èº²": 7051,
      "æĿ¡ä»¶": 7052,
      "Ġbelong": 7053,
      "din": 7054,
      "Daddy": 7055,
      "halen": 7056,
      "ekst": 7057,
      "å®¶äºº": 7058,
      "Ġè¿ĻäºĽ": 7059,
      "Ġjonge": 7060,
      "Ġcarried": 7061,
      "çļĦåĲĹ": 7062,
      "ĠZij": 7063,
      "Ġcurr": 7064,
      "ä¸Ģå®ļä¼ļ": 7065,
      "Ġexamen": 7066,
      "Ġcertainly": 7067,
      "Ġ+": 7068,
      "Ġsave": 7069,
      "yle": 7070,
      "Ġæ¯ı": 7071,
      "Ġsafe": 7072,
      "ĠIndia": 7073,
      "present": 7074,
      "åħ³äºİ": 7075,
      "Ġmeester": 7076,
      "Ġ27": 7077,
      "Ġstemmen": 7078,
      "Ġenjoy": 7079,
      "é¢ľ": 7080,
      "Excuse": 7081,
      "aalt": 7082,
      "å°¾": 7083,
      "Ġcharacter": 7084,
      "Ġsomm": 7085,
      "bei": 7086,
      "ç«¯": 7087,
      "gene": 7088,
      "Ġverloren": 7089,
      "ä¸ĢèĪ¬": 7090,
      "ache": 7091,
      "è·¯ä¸Ĭ": 7092,
      "æĪ´": 7093,
      "Ġbottom": 7094,
      "Ġzinnen": 7095,
      "Ġbasis": 7096,
      "agon": 7097,
      "Onze": 7098,
      "Net": 7099,
      "è¾ĪåŃĲ": 7100,
      "rijden": 7101,
      "ĠTO": 7102,
      "Ġneg": 7103,
      "ites": 7104,
      "å°±åľ¨": 7105,
      "egd": 7106,
      "PO": 7107,
      "Ġgeheim": 7108,
      "Ġexclaimed": 7109,
      "ä¹Į": 7110,
      "æĬĢæľ¯": 7111,
      "itions": 7112,
      "Ġkitchen": 7113,
      "Ġlab": 7114,
      "Ġtail": 7115,
      "Ġgevraagd": 7116,
      "ĠZuid": 7117,
      "ĠTim": 7118,
      "Ne": 7119,
      "ä»Ģä¹ĪæĹ¶åĢĻ": 7120,
      "Ġwhose": 7121,
      "Ġleerlingen": 7122,
      "Ġmix": 7123,
      "äººæ°ĳ": 7124,
      "Ġcab": 7125,
      "stel": 7126,
      "Ġdiscuss": 7127,
      "Ġå¤©": 7128,
      "éķľ": 7129,
      "veren": 7130,
      "ĠToen": 7131,
      "Ġtape": 7132,
      "è¡Ĺ": 7133,
      "Ġappar": 7134,
      "Vooruit": 7135,
      "zijn": 7136,
      "reep": 7137,
      "ĠFrankrijk": 7138,
      "time": 7139,
      "Ġlanger": 7140,
      "Ġabsol": 7141,
      "iefd": 7142,
      "åİĤ": 7143,
      "å¤ĸéĿ¢": 7144,
      "ugg": 7145,
      "æĿ°": 7146,
      "ä¸¤å¤©": 7147,
      "åİŁåĽł": 7148,
      "Ġtyp": 7149,
      "ĠçľŁçļĦ": 7150,
      "æĶ»": 7151,
      "cient": 7152,
      "è¿Ľåħ¥": 7153,
      "æ¯įäº²": 7154,
      "...\"": 7155,
      "Ġä½łè¿Ļ": 7156,
      "ored": 7157,
      "amous": 7158,
      "å±ŀäºİ": 7159,
      "Ġmezelf": 7160,
      "noon": 7161,
      "Peter": 7162,
      "Ġfail": 7163,
      "æī§": 7164,
      "Ġsou": 7165,
      "ä»İæĿ¥": 7166,
      "è¡ĮäºĨ": 7167,
      "çŀ§": 7168,
      "Ġbelangrijke": 7169,
      "å¸®åĬ©": 7170,
      "uwelijk": 7171,
      "lean": 7172,
      "Ġswe": 7173,
      "CHAP": 7174,
      "Ġåī": 7175,
      "icle": 7176,
      "éģĹ": 7177,
      "æĵį": 7178,
      "Ġ#": 7179,
      "ĠEgy": 7180,
      "éĢı": 7181,
      "Ġbright": 7182,
      "ival": 7183,
      "Ġfinish": 7184,
      "æĢ»æĺ¯": 7185,
      "ĠLa": 7186,
      "Ġhuil": 7187,
      "æ¸Ĳ": 7188,
      "ä¸Ģçľĭ": 7189,
      "å·§": 7190,
      "ç³ĸ": 7191,
      "çłģ": 7192,
      "Ġfigure": 7193,
      "Ġhole": 7194,
      "ĠJust": 7195,
      "Ġdifficult": 7196,
      "ikel": 7197,
      "Ġmoving": 7198,
      "Ġ2017": 7199,
      "ests": 7200,
      "Mooi": 7201,
      "Ġè·Ł": 7202,
      "çĶŁåĳ½": 7203,
      "Ġ2010": 7204,
      "Ġsucces": 7205,
      "çĿĢæĢ¥": 7206,
      "Ġpaard": 7207,
      "Ġcaptain": 7208,
      "heb": 7209,
      "ĠNoord": 7210,
      "Ġtruth": 7211,
      "Ġstom": 7212,
      "illa": 7213,
      "Uit": 7214,
      "Ġbrown": 7215,
      "Ġcoff": 7216,
      "Ġah": 7217,
      "noise": 7218,
      "Ġstroom": 7219,
      "çĪ±çļĦ": 7220,
      "Ġwaarschijnlijk": 7221,
      "Ġcomfort": 7222,
      "Ġcompan": 7223,
      "roy": 7224,
      "teren": 7225,
      "kw": 7226,
      "mother": 7227,
      "ç«ł": 7228,
      "lement": 7229,
      "Ġtv": 7230,
      "ä¼ģ": 7231,
      "ĠRoman": 7232,
      "Ġwaard": 7233,
      "sterd": 7234,
      "èĶ": 7235,
      "ishing": 7236,
      "ĠWaarom": 7237,
      "è·ŁæĪĳè¯´": 7238,
      "ago": 7239,
      "lect": 7240,
      "Ġta": 7241,
      "ä»ĸæĺ¯": 7242,
      "asc": 7243,
      "Ġdocent": 7244,
      "ĠWhy": 7245,
      "ĠDen": 7246,
      "Ġè¦ģä¸į": 7247,
      "ä¸¤ä¸ªäºº": 7248,
      "èİ«": 7249,
      "ba": 7250,
      "Ġinfl": 7251,
      "ĠMer": 7252,
      "Ġbesp": 7253,
      "Ġieder": 7254,
      "gaat": 7255,
      "Ġregen": 7256,
      "Ġplat": 7257,
      "é»ĺ": 7258,
      "Ġdoc": 7259,
      "Ġgraf": 7260,
      "ĠOF": 7261,
      "ora": 7262,
      "Ġmilit": 7263,
      "oeien": 7264,
      "Ġanimal": 7265,
      "ĠCaliforn": 7266,
      "Ġgames": 7267,
      "Ġpopular": 7268,
      "Ġliter": 7269,
      "Ġbestaan": 7270,
      "åľ¨è¿ĻéĩĮ": 7271,
      "Ġstreet": 7272,
      "åķĬæĪĳ": 7273,
      "å°ıæĹ¶": 7274,
      "Ġinf": 7275,
      "Ġrul": 7276,
      "Ġhasn": 7277,
      "Ġexactly": 7278,
      "æĹłæ³ķ": 7279,
      "å®ĮæĪĲ": 7280,
      "ç²¾ç¥ŀ": 7281,
      "Ġfurther": 7282,
      "Ġworth": 7283,
      "åĤ»": 7284,
      "å¨ĥ": 7285,
      "è®¾è®¡": 7286,
      "Ġverdomme": 7287,
      "Ġmeen": 7288,
      "ç»ıè¿ĩ": 7289,
      "Ġpil": 7290,
      "æĬĬä»ĸ": 7291,
      "Amer": 7292,
      "Ġbase": 7293,
      "Ġneck": 7294,
      "teen": 7295,
      "æ¬§": 7296,
      "Ġpet": 7297,
      "å¸Ĥåľº": 7298,
      "éĺ¿å§¨": 7299,
      "Ġvergelijk": 7300,
      "ĠäºĮ": 7301,
      "æĹ©å°±": 7302,
      "Ġapart": 7303,
      "ä¸ĢæĿ¡": 7304,
      "Ġblank": 7305,
      "ä¸Ĭæµ·": 7306,
      "edig": 7307,
      "Ġwedstrijd": 7308,
      "Ġfilmp": 7309,
      "itted": 7310,
      "Ġaller": 7311,
      "Ġsense": 7312,
      "Ġbron": 7313,
      "okken": 7314,
      "æĿ¥çľĭ": 7315,
      "beelden": 7316,
      "Ġerbij": 7317,
      "ieved": 7318,
      "Ġbought": 7319,
      "wezen": 7320,
      "ä¿¡æģ¯": 7321,
      "Ġwit": 7322,
      "Ġaccount": 7323,
      "Ġgrapp": 7324,
      "Ġyesterday": 7325,
      "Zet": 7326,
      "ĠJo": 7327,
      "âĢ": 7328,
      "back": 7329,
      "å¥ĸ": 7330,
      "Ġprofession": 7331,
      "Ġ28": 7332,
      "Ġvriendin": 7333,
      "ĠChin": 7334,
      "Ġvoorbeeld": 7335,
      "elly": 7336,
      "ĠWer": 7337,
      "Ġåĵª": 7338,
      "åĮĹäº¬": 7339,
      "Ġeerlijk": 7340,
      "Ġzeven": 7341,
      "çĿ¡è§ī": 7342,
      "Ġzaak": 7343,
      "Ġprins": 7344,
      "ĠGoogle": 7345,
      "çŃĸ": 7346,
      "ivid": 7347,
      "çĶµè§Ĩ": 7348,
      "ams": 7349,
      "aper": 7350,
      "ĠZw": 7351,
      "è§ģè¿ĩ": 7352,
      "Ġä½łä¸į": 7353,
      "Ġä¸įè¦ģ": 7354,
      "ĠBrown": 7355,
      "Ġrevol": 7356,
      "Illustr": 7357,
      "Ġchicken": 7358,
      "Ġappeared": 7359,
      "delen": 7360,
      "Ġeuro": 7361,
      "å®£": 7362,
      "sit": 7363,
      "åĽŀåĪ°": 7364,
      "å¨ģ": 7365,
      "erecht": 7366,
      "kamer": 7367,
      "Ġcause": 7368,
      "Ġstellen": 7369,
      "ä»ĸå°±": 7370,
      "å«Į": 7371,
      "house": 7372,
      "èĤļ": 7373,
      "Ġregels": 7374,
      "Ġconvers": 7375,
      "Ġlag": 7376,
      "Ġomhoog": 7377,
      "åĲĦä½į": 7378,
      "æĥľ": 7379,
      "Ġholding": 7380,
      "Ġafternoon": 7381,
      "åĽŀäºĭ": 7382,
      "Ġklinkt": 7383,
      "Ġèĥ½": 7384,
      "Ġsomewhere": 7385,
      "ym": 7386,
      "wege": 7387,
      "atten": 7388,
      "ooien": 7389,
      "çĽĬ": 7390,
      "etjes": 7391,
      "Ġdorp": 7392,
      "Ġbeide": 7393,
      "ĠWell": 7394,
      "AM": 7395,
      "æĥ¯": 7396,
      "åĲĥçļĦ": 7397,
      "å°Ĭ": 7398,
      "ä½łåľ¨": 7399,
      "Ġtent": 7400,
      "Ġlocal": 7401,
      "illen": 7402,
      "æķ¬": 7403,
      "child": 7404,
      "Ġteeth": 7405,
      "moeten": 7406,
      "CHAPTER": 7407,
      "çĪ¬": 7408,
      "ization": 7409,
      "ĠVerenigde": 7410,
      "ä¸Ĭåİ»": 7411,
      "Ġpad": 7412,
      "Ġgroter": 7413,
      "singing": 7414,
      "èĻ«": 7415,
      "çļĦæĹ¶éĹ´": 7416,
      "staan": 7417,
      "ĠOver": 7418,
      "ermen": 7419,
      "Ġbutter": 7420,
      "opdracht": 7421,
      "è¿ĺåľ¨": 7422,
      "èĪį": 7423,
      "Ġallowed": 7424,
      "name": 7425,
      "ç§¦": 7426,
      "Ġkiezen": 7427,
      "ĠPort": 7428,
      "çıł": 7429,
      "å·¨": 7430,
      "ä¸įè§ģ": 7431,
      "Mama": 7432,
      "Ġturns": 7433,
      "Ġveroor": 7434,
      "åıĺåĮĸ": 7435,
      "bie": 7436,
      "wow": 7437,
      "æ¾": 7438,
      "Ġfol": 7439,
      "sings": 7440,
      "èµ¢": 7441,
      "éĢ¼": 7442,
      "æĿĤ": 7443,
      "EÃ©n": 7444,
      "ucyl": 7445,
      "ç»Ŀå¯¹": 7446,
      "å¥½å¤ļ": 7447,
      "Ġwaarde": 7448,
      "Ġserie": 7449,
      "Ġhaat": 7450,
      "Wees": 7451,
      "Ġvroeger": 7452,
      "ĠSir": 7453,
      "Ġbased": 7454,
      "Ġåı¯ä»¥": 7455,
      "è¡¨çİ°": 7456,
      "Ġcreated": 7457,
      "Ġdur": 7458,
      "Ġçİĭ": 7459,
      "äº¿": 7460,
      "Ġblad": 7461,
      "Ġdem": 7462,
      "ĠBilly": 7463,
      "å¦¹å¦¹": 7464,
      "ippen": 7465,
      "Ġwatching": 7466,
      "Ġut": 7467,
      "è¿Ļä¸ªäºº": 7468,
      "åºĨ": 7469,
      "Ġkwaad": 7470,
      "len": 7471,
      "LY": 7472,
      "æĪĳçİ°åľ¨": 7473,
      "çľĭäºĨ": 7474,
      "ĠVal": 7475,
      "da": 7476,
      "Ġorange": 7477,
      "ä¸ĭäºĨ": 7478,
      "åĤħ": 7479,
      "Ġspring": 7480,
      "æĺ¯æľī": 7481,
      "ereken": 7482,
      "ĠæĪĳè¿Ļ": 7483,
      "æŁĵ": 7484,
      "éĩĮè¾¹": 7485,
      "Ġkerk": 7486,
      "slagen": 7487,
      "Ġincre": 7488,
      "Ġident": 7489,
      "ĠChe": 7490,
      "iteiten": 7491,
      "eless": 7492,
      "Ġlijn": 7493,
      "Ġgeleerd": 7494,
      "Ġtrap": 7495,
      "Ġleaving": 7496,
      "Ġrecogn": 7497,
      "ä¹Łæľī": 7498,
      "ç¬¬ä¸Ģæ¬¡": 7499,
      "Ġzul": 7500,
      "éŁ©": 7501,
      "Ġfat": 7502,
      "åŁİå¸Ĥ": 7503,
      "Ġontstaan": 7504,
      "éŀĭ": 7505,
      "Ġhospital": 7506,
      "éº¦": 7507,
      "éĿ¢åīį": 7508,
      "æĦŁè°¢": 7509,
      "ikken": 7510,
      "ilar": 7511,
      "ĠGa": 7512,
      "Ġherinner": 7513,
      "ivil": 7514,
      "Ġhoef": 7515,
      "ĠRoy": 7516,
      "sych": 7517,
      "Ġermee": 7518,
      "ĠAir": 7519,
      "OK": 7520,
      "å¥½åķĬ": 7521,
      "åĽŀçŃĶ": 7522,
      "Ġcommune": 7523,
      "ç«¥": 7524,
      "åĪ«çļĦ": 7525,
      "åħ¨éĥ¨": 7526,
      "Ġdiep": 7527,
      "Ġur": 7528,
      "Ġstraks": 7529,
      "Ġrap": 7530,
      "Ġvervol": 7531,
      "éķĩ": 7532,
      "éļĲ": 7533,
      "Ġstuck": 7534,
      "nis": 7535,
      "Ġä½łåĪ«": 7536,
      "ä½³": 7537,
      "åĩĢ": 7538,
      "ä¸Ģè¾¹": 7539,
      "åĲİéĿ¢": 7540,
      "utam": 7541,
      "Ġregel": 7542,
      "å®¶åºŃ": 7543,
      "ugen": 7544,
      "Ġwilden": 7545,
      "woordig": 7546,
      "Ġzoiets": 7547,
      "äºĶåįģ": 7548,
      "Ġmicro": 7549,
      "apens": 7550,
      "Zelf": 7551,
      "Ġgrass": 7552,
      "Ġvolg": 7553,
      "Hoeveel": 7554,
      "oost": 7555,
      "ky": 7556,
      "Ġwinkel": 7557,
      "ĠHenry": 7558,
      "essie": 7559,
      "Ġcal": 7560,
      "Ġconn": 7561,
      "çĥĪ": 7562,
      "ictor": 7563,
      "nes": 7564,
      "Ġongeluk": 7565,
      "Ġuite": 7566,
      "éŁ³ä¹Ĳ": 7567,
      "ims": 7568,
      "ĠTH": 7569,
      "å¤§åŃ¦": 7570,
      "Ġarch": 7571,
      "Ġinformation": 7572,
      "Ġplezier": 7573,
      "Ġcomplet": 7574,
      "Ġheren": 7575,
      "vere": 7576,
      "çĶŁçļĦ": 7577,
      "æĢĿèĢĥ": 7578,
      "Ġbouw": 7579,
      "é¢Ĺ": 7580,
      "æĻ¨": 7581,
      "ç£¨": 7582,
      "ĠDaarna": 7583,
      "å¾ĹäºĨ": 7584,
      "åĪĨéĴŁ": 7585,
      "æĶ¯æĮģ": 7586,
      "æ¡Į": 7587,
      "ç»į": 7588,
      "Ġought": 7589,
      "ida": 7590,
      "ĠYouT": 7591,
      "tjes": 7592,
      "è®¡åĪĴ": 7593,
      "Ġspoke": 7594,
      "Ġneigh": 7595,
      "Ġafge": 7596,
      "çĵľ": 7597,
      "Ġplanten": 7598,
      "Veel": 7599,
      "Ġdom": 7600,
      "ĠPark": 7601,
      "_,": 7602,
      "give": 7603,
      "Ġninet": 7604,
      "Ġpictures": 7605,
      "éĤ£ä½ł": 7606,
      "Ġsusp": 7607,
      "kan": 7608,
      "æ··": 7609,
      "ĠAngel": 7610,
      "Ġforce": 7611,
      "éĽħ": 7612,
      "çĸĹ": 7613,
      "ona": 7614,
      "anda": 7615,
      "Ġimm": 7616,
      "æĳ¸": 7617,
      "æĸ¹åĲĳ": 7618,
      "field": 7619,
      "å°±åı¯ä»¥": 7620,
      "Ġprop": 7621,
      "å¥½ä¸įå¥½": 7622,
      "Ġ2011": 7623,
      "æĮĤ": 7624,
      "Ġgeschreven": 7625,
      "ĠMichael": 7626,
      "è¿ĺèĥ½": 7627,
      "æĬĬå®ĥ": 7628,
      "Ġcounty": 7629,
      "Ġspot": 7630,
      "Ġspell": 7631,
      "æĺ¯åĽłä¸º": 7632,
      "Ġgekregen": 7633,
      "Meneer": 7634,
      "Ġpaint": 7635,
      "Ġtrots": 7636,
      "Ġcontinued": 7637,
      "åĨĴ": 7638,
      "ban": 7639,
      "icit": 7640,
      "rad": 7641,
      "éĽĦ": 7642,
      "ffen": 7643,
      "Ġbasket": 7644,
      "æĪĳäºĨ": 7645,
      "Ġsuddenly": 7646,
      "é¥¿": 7647,
      "tv": 7648,
      "Ġshit": 7649,
      "éĻĲ": 7650,
      "Ġarmy": 7651,
      "ĠJa": 7652,
      "Ġtrouwen": 7653,
      "werken": 7654,
      "Ġklopt": 7655,
      "Ġeiland": 7656,
      "ologie": 7657,
      "ĠUS": 7658,
      "æ²Ī": 7659,
      "æł¸": 7660,
      "Ġbelangrijkste": 7661,
      "ä¸ĢçĻ¾": 7662,
      "è¡¨ç¤º": 7663,
      "Ġflowers": 7664,
      "Ġtrust": 7665,
      "iste": 7666,
      "Ġexam": 7667,
      "Ġprep": 7668,
      "zel": 7669,
      "oeder": 7670,
      "Ġanybody": 7671,
      "Ġep": 7672,
      "ancy": 7673,
      "Ġinternet": 7674,
      "èħ¾": 7675,
      "ĠåĲ¬": 7676,
      "Ġcapital": 7677,
      "ç¯®": 7678,
      "Ġrab": 7679,
      "werpen": 7680,
      "ively": 7681,
      "Ġstuur": 7682,
      "product": 7683,
      "iced": 7684,
      "Ġbusy": 7685,
      "Ġuitleggen": 7686,
      "ĠLaur": 7687,
      "æļ´": 7688,
      "ĠMax": 7689,
      "Ġ29": 7690,
      "Ġpush": 7691,
      "ilm": 7692,
      "æ»ļ": 7693,
      "Ma": 7694,
      "Ġbedankt": 7695,
      "lei": 7696,
      "Ġsoorten": 7697,
      "Ġvoelen": 7698,
      "derdaad": 7699,
      "Ġbull": 7700,
      "çĤ¸": 7701,
      "éģĩåĪ°": 7702,
      "tell": 7703,
      "ä»£è¡¨": 7704,
      "Ġnon": 7705,
      "ores": 7706,
      "Ġplate": 7707,
      "Ġsummer": 7708,
      "Ġkm": 7709,
      "Ġmeth": 7710,
      "Ġlaughs": 7711,
      "Ġalthough": 7712,
      "Ġsocial": 7713,
      "Ġzieken": 7714,
      "ĠKar": 7715,
      "Man": 7716,
      "Niets": 7717,
      "Ġprima": 7718,
      "icy": 7719,
      "ä½įç½®": 7720,
      "Ġlevel": 7721,
      "é¼ĵ": 7722,
      "glutam": 7723,
      "Ġä¸Ģå®ļ": 7724,
      "Ġrechts": 7725,
      "Ġwapen": 7726,
      "å¹³æĹ¶": 7727,
      "Ġtuin": 7728,
      "rupt": 7729,
      "ission": 7730,
      "ĠåİŁ": 7731,
      "ĠRiver": 7732,
      "Thanks": 7733,
      "Ġmm": 7734,
      "å®īæİĴ": 7735,
      "hoe": 7736,
      "ĠAct": 7737,
      "æ®µæĹ¶éĹ´": 7738,
      "æĶ¾åľ¨": 7739,
      "ads": 7740,
      "èģĶç³»": 7741,
      "gasps": 7742,
      "izes": 7743,
      "ä½łæĥ³": 7744,
      "Ġä¼ļ": 7745,
      "ĠRed": 7746,
      "Ġbegonnen": 7747,
      "ä»Ĭå¹´": 7748,
      "éĤ£ä¹Īå¤ļ": 7749,
      "Ġbeginning": 7750,
      "light": 7751,
      "çĮľ": 7752,
      "æīĵå¼Ģ": 7753,
      "Ġdistance": 7754,
      "ĠNet": 7755,
      "Ġwalked": 7756,
      "Ġ2016": 7757,
      "Ġä¸º": 7758,
      "izer": 7759,
      "plaats": 7760,
      "ĠYouTube": 7761,
      "ĠhÃ©": 7762,
      "è¿°": 7763,
      "Ġvliegtuig": 7764,
      "Ġvliegen": 7765,
      "Ġagent": 7766,
      "Ġquar": 7767,
      "ĠAmerika": 7768,
      "CAR": 7769,
      "wassen": 7770,
      "åŁºæľ¬": 7771,
      "Ġquestions": 7772,
      "organ": 7773,
      "ä¸įå¤ª": 7774,
      "hington": 7775,
      "æľīçļĦ": 7776,
      "Ġleef": 7777,
      "èį£": 7778,
      "bling": 7779,
      "Ġå¹²": 7780,
      "Ġtax": 7781,
      "Ġfamous": 7782,
      "Ġcard": 7783,
      "è¡ĮåĬ¨": 7784,
      "Verdomme": 7785,
      "uture": 7786,
      "Ġwriting": 7787,
      "Ġåı¯èĥ½": 7788,
      "etty": 7789,
      "Ġassist": 7790,
      "å«ģ": 7791,
      "ini": 7792,
      "sterdam": 7793,
      "ĠMac": 7794,
      "åĿĹéĴ±": 7795,
      "Ġhorses": 7796,
      "Ġeveryone": 7797,
      "Illustration": 7798,
      "Ġlinks": 7799,
      "Ġå±": 7800,
      "ounced": 7801,
      "åĩºæĿ¥äºĨ": 7802,
      "Ġdance": 7803,
      "Ġå¾Ī": 7804,
      "çļĦåĳĢ": 7805,
      "Ġafgelopen": 7806,
      "Ġschrijf": 7807,
      "Ġspullen": 7808,
      "æĭ¼": 7809,
      "Ġparents": 7810,
      "Ġtafel": 7811,
      "stit": 7812,
      "å¥½åĲ§": 7813,
      "Ġplays": 7814,
      "Ġ2014": 7815,
      "ĠVeel": 7816,
      "åħ±äº§": 7817,
      "å¤ĦçĲĨ": 7818,
      "ä½ıäºĨ": 7819,
      "lor": 7820,
      "å¾ģ": 7821,
      "Ġsubject": 7822,
      "urr": 7823,
      "Ġvanuit": 7824,
      "è´Łè´£": 7825,
      "ĠGener": 7826,
      "zil": 7827,
      "cont": 7828,
      "Ġbepaalde": 7829,
      "Ter": 7830,
      "Ġstof": 7831,
      "Ġä½łçŁ¥éģĵ": 7832,
      "éĺŁéķ¿": 7833,
      "uge": 7834,
      "voer": 7835,
      "Wait": 7836,
      "Ġmaster": 7837,
      "Ġ2012": 7838,
      "Ġrivier": 7839,
      "looks": 7840,
      "Ġmoon": 7841,
      "inen": 7842,
      "éĴĪ": 7843,
      "çļĦå°±æĺ¯": 7844,
      "Ġshoul": 7845,
      "Ġkerst": 7846,
      "bre": 7847,
      "Ġisland": 7848,
      "Ġwaarbij": 7849,
      "Ġremark": 7850,
      "Ġimag": 7851,
      "å¾Ĺå¾Ī": 7852,
      "ä½łåİ»": 7853,
      "Ġthirty": 7854,
      "erson": 7855,
      "rel": 7856,
      "Ġene": 7857,
      "rouwd": 7858,
      "Ġspecies": 7859,
      "Ġkoffie": 7860,
      "Ġä»¥": 7861,
      "æĲ¬": 7862,
      "Hi": 7863,
      "Ġkamp": 7864,
      "åģļäºĨ": 7865,
      "Ġ2022": 7866,
      "Ġviel": 7867,
      "ĠNu": 7868,
      "ĠTekst": 7869,
      "ĠBekijk": 7870,
      "å°±åĥı": 7871,
      "Ġ2000": 7872,
      "Take": 7873,
      "Ġverschil": 7874,
      "ĠSat": 7875,
      "ä¸ĢæŃ¥": 7876,
      "ĠSer": 7877,
      "Ġï¿½": 7878,
      "Ġitself": 7879,
      "zeker": 7880,
      "å¤®": 7881,
      "Ġfle": 7882,
      "Ġmeeting": 7883,
      "æĸ¹æ³ķ": 7884,
      "æīĵçĶµè¯Ŀ": 7885,
      "\")": 7886,
      "ĠTweede": 7887,
      "ç§»": 7888,
      "asant": 7889,
      "Ġanymore": 7890,
      "æĪĳæĿ¥": 7891,
      "åįĥä¸ĩ": 7892,
      "oeld": 7893,
      "Ġroept": 7894,
      "Ġbegrijpen": 7895,
      "Ġverniet": 7896,
      "Ġdropped": 7897,
      "otter": 7898,
      "IL": 7899,
      "å¾Ĳ": 7900,
      "Ġerv": 7901,
      "Ġtall": 7902,
      "ĠCr": 7903,
      "Ġzuid": 7904,
      "Ġnecess": 7905,
      "Ġweren": 7906,
      "Ġhoney": 7907,
      "ç¡¬": 7908,
      "Ġä½łè¿ĺ": 7909,
      "è¿ĽæĿ¥": 7910,
      "çıį": 7911,
      "æĢİä¹ĪäºĨ": 7912,
      "çĽĸ": 7913,
      "Ġgegaan": 7914,
      "é²ľ": 7915,
      "ĠMot": 7916,
      "å°ıçļĦ": 7917,
      "ois": 7918,
      "ĠæĿİ": 7919,
      "Ġfinger": 7920,
      "ka": 7921,
      "é¹¿": 7922,
      "zing": 7923,
      "åľ°ä¸Ĭ": 7924,
      "onger": 7925,
      "æĬ½": 7926,
      "leanor": 7927,
      "Ġwelk": 7928,
      "çĬ¶æĢģ": 7929,
      "æľīäºĨ": 7930,
      "riage": 7931,
      "iode": 7932,
      "Vind": 7933,
      "Ġvres": 7934,
      "Ġonderdeel": 7935,
      "æ±¤": 7936,
      "Ġgezond": 7937,
      "Ġchem": 7938,
      "Ġeleph": 7939,
      "Ġself": 7940,
      "eloos": 7941,
      "Ġlaugh": 7942,
      "å¥½åĲĹ": 7943,
      "Ġcars": 7944,
      "Ġoverheid": 7945,
      "Ġoma": 7946,
      "sey": 7947,
      "Ġbehand": 7948,
      "Ġsilence": 7949,
      "ĠTV": 7950,
      "åı¦å¤ĸ": 7951,
      "Ġcoffee": 7952,
      "Ġpounds": 7953,
      "cious": 7954,
      "æŃ£å¸¸": 7955,
      "ĠSal": 7956,
      "ä»Ģä¹Īåĳ¢": 7957,
      "ĠHowever": 7958,
      "Ġparts": 7959,
      "Ġleaves": 7960,
      "Ġsommige": 7961,
      "Ġstukje": 7962,
      "Ġloud": 7963,
      "unicip": 7964,
      "ĠSov": 7965,
      "æ´»åĬ¨": 7966,
      "hier": 7967,
      "Haal": 7968,
      "ĠMal": 7969,
      "Ġå¤ļ": 7970,
      "Ġlock": 7971,
      "ä¸ĢåĪĩ": 7972,
      "ï¿½ï¿½ï¿½ï¿½": 7973,
      "ĠGermany": 7974,
      "ĠHouse": 7975,
      "Ġjack": 7976,
      "ruck": 7977,
      "aft": 7978,
      "åģı": 7979,
      "Ġlikes": 7980,
      "ĠHall": 7981,
      "hee": 7982,
      "ä¸įç®¡": 7983,
      "ĠColl": 7984,
      "Ġéĥ½æĺ¯": 7985,
      "è°·": 7986,
      "ipedia": 7987,
      "åĲĦç§į": 7988,
      "Ġå¹¶": 7989,
      "Ġbottle": 7990,
      "ĠæĪĳçľĭ": 7991,
      "Ġvermoorden": 7992,
      "æ£Ĵ": 7993,
      "Ġaanb": 7994,
      "staande": 7995,
      "Jack": 7996,
      "éħ¸": 7997,
      "achter": 7998,
      "Ġderde": 7999,
      "His": 8000,
      "va": 8001,
      "ĠReg": 8002,
      "Jon": 8003,
      "éģĵçĲĨ": 8004,
      "aving": 8005,
      "aardig": 8006,
      "çĿĢæĪĳ": 8007,
      "ä½łåķĬ": 8008,
      "ails": 8009,
      "ç¾İä¸½": 8010,
      "ĠChi": 8011,
      "çŃ¾": 8012,
      "ĠGreat": 8013,
      "asting": 8014,
      "Ġshirt": 8015,
      "Ġfucking": 8016,
      "çİ°åľº": 8017,
      "standig": 8018,
      "Ġhous": 8019,
      "ouder": 8020,
      "please": 8021,
      "Alle": 8022,
      "jo": 8023,
      "è§¦": 8024,
      "Ġtrack": 8025,
      "Ġvict": 8026,
      "ä¸įåı¯": 8027,
      "æģ¨": 8028,
      "åį±éĻ©": 8029,
      "åĨł": 8030,
      "roe": 8031,
      "Ġverv": 8032,
      "ucy": 8033,
      "çģŃ": 8034,
      "hank": 8035,
      "Ġcla": 8036,
      "ĠPal": 8037,
      "Ġnormaal": 8038,
      "Ġtoest": 8039,
      "å¯¹ä¸įèµ·": 8040,
      "æĪ¿éĹ´": 8041,
      "itive": 8042,
      "Ġvertrouwen": 8043,
      "è¯ļ": 8044,
      "erkt": 8045,
      "umenten": 8046,
      "Iemand": 8047,
      "Ġadem": 8048,
      "Ġwebs": 8049,
      "å®³æĢķ": 8050,
      "Ġ\\": 8051,
      "Ġcountries": 8052,
      "Zou": 8053,
      "Ġmention": 8054,
      "Ġstore": 8055,
      "Ġalinea": 8056,
      "è½¯": 8057,
      "ç»Ħç»ĩ": 8058,
      "orgt": 8059,
      "komst": 8060,
      "Leg": 8061,
      "ĠéĤ£å°±": 8062,
      "Ġallebei": 8063,
      "ĠDick": 8064,
      "medi": 8065,
      "Ġnames": 8066,
      "THE": 8067,
      "ç¬¨": 8068,
      "ateg": 8069,
      "Sl": 8070,
      "Ġsleut": 8071,
      "ĠKijk": 8072,
      "Ġraak": 8073,
      "aining": 8074,
      "Ġzomaar": 8075,
      "Ġseeing": 8076,
      "Ġç»Ļ": 8077,
      "Ġvertel": 8078,
      "Ġveranderd": 8079,
      "Ġbevol": 8080,
      "ä¹Łä¸įçŁ¥éģĵ": 8081,
      "Ġdrop": 8082,
      "Ġjud": 8083,
      ".,": 8084,
      "anta": 8085,
      "Ġhealth": 8086,
      "Ġtong": 8087,
      "Ġshape": 8088,
      "mond": 8089,
      "ogels": 8090,
      "ä¸įä¸Ģæł·": 8091,
      "achtig": 8092,
      "Ġbeschermen": 8093,
      "points": 8094,
      "æĲľ": 8095,
      "Ġä»¥åĲİ": 8096,
      "ĠMother": 8097,
      "Ġfifty": 8098,
      "Ġsky": 8099,
      "ĠçľŁ": 8100,
      "Ġwalking": 8101,
      "iber": 8102,
      "ç®Ĺæĺ¯": 8103,
      "èĢģå©Ĩ": 8104,
      "Qu": 8105,
      "æĬ¥åĳĬ": 8106,
      "Ġinvol": 8107,
      "èĳ£": 8108,
      "bout": 8109,
      "ĠWereld": 8110,
      "èµ·äºĨ": 8111,
      "igr": 8112,
      "å¤ªå¤ª": 8113,
      "Ġwash": 8114,
      "ä»ĸè¯´": 8115,
      "åįģäºĮ": 8116,
      "Ġvolgen": 8117,
      "æ¡¥": 8118,
      "Ġweekend": 8119,
      "Schiet": 8120,
      "éĹŃ": 8121,
      "çªĹ": 8122,
      "Ġdansen": 8123,
      "åħ¶ä¸Ń": 8124,
      "å®¡": 8125,
      "ç»ª": 8126,
      "Ġrestaur": 8127,
      "Ġiss": 8128,
      "Ġ2013": 8129,
      "appy": 8130,
      "unde": 8131,
      "Ġmonster": 8132,
      "Ġnamen": 8133,
      "åŃĺåľ¨": 8134,
      "sw": 8135,
      "Ġdut": 8136,
      "Ġstel": 8137,
      "å¼±": 8138,
      "ĠIsra": 8139,
      "Ġvertelt": 8140,
      ",--": 8141,
      "especially": 8142,
      "Ĥ¬": 8143,
      "å¥¹ä»¬": 8144,
      "NA": 8145,
      "å¿ĺäºĨ": 8146,
      "geld": 8147,
      "Ġx": 8148,
      "çļĦå¿ĥ": 8149,
      "Ġsheep": 8150,
      "gin": 8151,
      "ĠAmsterdam": 8152,
      "ĠèĻ½çĦ¶": 8153,
      "ä½łè¿ĺ": 8154,
      "Ġund": 8155,
      "ĠåĵİåĳĢ": 8156,
      "Ph": 8157,
      "ä¸Ģå¹´": 8158,
      "ceed": 8159,
      "å¥½çľĭ": 8160,
      "Ġoverl": 8161,
      "Ġgeschiedenis": 8162,
      "Ġattempt": 8163,
      "Ġlaughed": 8164,
      "centr": 8165,
      "æĶ¿åºľ": 8166,
      "Ġdol": 8167,
      "äº¡": 8168,
      "Mom": 8169,
      "Ġinclude": 8170,
      "éĶ®": 8171,
      "Ġechter": 8172,
      "40": 8173,
      "Ġlose": 8174,
      "Ġlevens": 8175,
      "bro": 8176,
      "èĥĨ": 8177,
      "é¬¼åŃĲ": 8178,
      "punt": 8179,
      "Ġverliefd": 8180,
      "Ġdue": 8181,
      "erve": 8182,
      "GR": 8183,
      "igs": 8184,
      "Ġmatch": 8185,
      "Ġmodel": 8186,
      "Ġspoon": 8187,
      "Ġattention": 8188,
      "Ġkoningin": 8189,
      "ĠEast": 8190,
      "onderd": 8191,
      "25": 8192,
      "ĠWikipedia": 8193,
      "èµ°åĲ§": 8194,
      "uten": 8195,
      "athol": 8196,
      "Ġbleef": 8197,
      "Ġnaartoe": 8198,
      "è°ĵ": 8199,
      "ĠMinister": 8200,
      "bra": 8201,
      "Ġgrew": 8202,
      "ville": 8203,
      "å¸®ä½ł": 8204,
      "ĠFranc": 8205,
      "Ġkloot": 8206,
      "åįł": 8207,
      "Ġeduc": 8208,
      "åħ±äº§åħļ": 8209,
      "åľ¨è¿Ļä¸ª": 8210,
      "Ġate": 8211,
      "tered": 8212,
      "Ġåģļ": 8213,
      "acing": 8214,
      "Ġengine": 8215,
      "è§£éĩĬ": 8216,
      "ipped": 8217,
      "Ġcere": 8218,
      "Ġcontract": 8219,
      "Ġslechts": 8220,
      "åĩ¶": 8221,
      "Ġchief": 8222,
      "ioen": 8223,
      "Ġcontrole": 8224,
      "Ġdry": 8225,
      "èŃ¦å¯Ł": 8226,
      "ĠWashington": 8227,
      "çĪĨ": 8228,
      "å¯¹ä½ł": 8229,
      "Ken": 8230,
      "brand": 8231,
      "Ġhost": 8232,
      "Ġfab": 8233,
      "ĠDem": 8234,
      "ĠBo": 8235,
      "baby": 8236,
      "ä¸įä¸Ĭ": 8237,
      "èĻļ": 8238,
      "ATT": 8239,
      "Ġloop": 8240,
      "ĠGebruik": 8241,
      "Ġvred": 8242,
      "å¤©å¤©": 8243,
      "Ġtrekken": 8244,
      "overn": 8245,
      "åĲĪä½ľ": 8246,
      "è®¸å¤ļ": 8247,
      "Ġwoont": 8248,
      "Con": 8249,
      "åĽ½çİĭ": 8250,
      "Ġconcern": 8251,
      "ĠBest": 8252,
      "Ġarrest": 8253,
      "éĥ½è¦ģ": 8254,
      "wijk": 8255,
      "uhoh": 8256,
      "Ġdefin": 8257,
      "Ġcrying": 8258,
      "Ġä½łæĥ³": 8259,
      "Ġhemel": 8260,
      "æ¯Ķå¦Ĥè¯´": 8261,
      "åĲĥäºĨ": 8262,
      "dad": 8263,
      "Ġrepresent": 8264,
      "Welkom": 8265,
      "pression": 8266,
      "roll": 8267,
      "ĠMartin": 8268,
      "Ġvreemd": 8269,
      "Ã¤": 8270,
      "Ġneeded": 8271,
      "ĠåºĶ": 8272,
      "Ġ2015": 8273,
      "Ġslechte": 8274,
      "Ġverwij": 8275,
      "viously": 8276,
      "Ġhuwelijk": 8277,
      "ometer": 8278,
      "å¿ĥçļĦ": 8279,
      "ç¼ĺ": 8280,
      "Ġfunct": 8281,
      "Ġtal": 8282,
      "Ġhistor": 8283,
      "Ġmurder": 8284,
      "Ġwol": 8285,
      "Ġnood": 8286,
      "bon": 8287,
      "oeie": 8288,
      "Ġearn": 8289,
      "Ġcorner": 8290,
      "Miss": 8291,
      "order": 8292,
      "ä¸¹": 8293,
      "Ġdaarmee": 8294,
      "åŃ¤": 8295,
      "US": 8296,
      "æ¸¯": 8297,
      "çĻ»": 8298,
      "Ġunivers": 8299,
      "çĶ²": 8300,
      "ĠDuitse": 8301,
      "ĠAg": 8302,
      "Ġafstand": 8303,
      "é¸Ń": 8304,
      "Ġstars": 8305,
      "By": 8306,
      "æ³¡": 8307,
      "Ġcapt": 8308,
      "Ġontmoeten": 8309,
      "Ġcorrect": 8310,
      "erste": 8311,
      "Ġgepro": 8312,
      "Ġears": 8313,
      "aire": 8314,
      "Ġbezoek": 8315,
      "çĵ¶": 8316,
      "ä¸įåľ¨": 8317,
      "antly": 8318,
      "ĠWal": 8319,
      "Ġfuture": 8320,
      "Ġprachtig": 8321,
      "ä»ĩ": 8322,
      "Ġpsych": 8323,
      "loos": 8324,
      "kens": 8325,
      "ĠMor": 8326,
      "ĠAc": 8327,
      "Ġviol": 8328,
      "asion": 8329,
      "éªĤ": 8330,
      "Ġdraag": 8331,
      "woners": 8332,
      "è¯´æĺİ": 8333,
      "zetten": 8334,
      "ĠLeague": 8335,
      "Ġlachen": 8336,
      "aans": 8337,
      "Ġdragen": 8338,
      "æĮºå¥½çļĦ": 8339,
      "Ġaud": 8340,
      "ĠAnt": 8341,
      "Ġfem": 8342,
      "ä½łåĪ«": 8343,
      "Ġshowed": 8344,
      "ĠChinese": 8345,
      "Ġkwal": 8346,
      "gers": 8347,
      "raft": 8348,
      "Ġok": 8349,
      "ocket": 8350,
      "ometimes": 8351,
      "ĠGood": 8352,
      "Ġlaag": 8353,
      "Ġalive": 8354,
      "çĶľ": 8355,
      "å¥ĩæĢª": 8356,
      "ĠæĹł": 8357,
      "Ġgevaarlijk": 8358,
      "éĤ£éĩĮ": 8359,
      "ools": 8360,
      "ums": 8361,
      "åįı": 8362,
      "Ġkoud": 8363,
      "è¾Ľèĭ¦": 8364,
      "gesteld": 8365,
      "æ¬º": 8366,
      "ureau": 8367,
      "ĠParty": 8368,
      "Ġbood": 8369,
      "çĽĽ": 8370,
      "ĠåĲİæĿ¥": 8371,
      "Ġcheese": 8372,
      "turn": 8373,
      "bes": 8374,
      "Ġuiteindelijk": 8375,
      "Ġhall": 8376,
      "Ġgift": 8377,
      "ieken": 8378,
      "Ġteacher": 8379,
      "Ġwaarop": 8380,
      "anch": 8381,
      "Ġgoud": 8382,
      "Ook": 8383,
      "ellig": 8384,
      "Ġpaid": 8385,
      "Ġinterested": 8386,
      "60": 8387,
      "ato": 8388,
      "Ġå½ĵçĦ¶": 8389,
      "ommige": 8390,
      "çļĦéĹ®é¢ĺ": 8391,
      "ikker": 8392,
      "Ġbelow": 8393,
      "Ġvormen": 8394,
      "èĴĻ": 8395,
      "åİĨåı²": 8396,
      "Ġcrow": 8397,
      "isf": 8398,
      "Ġmaxim": 8399,
      "Ġofficer": 8400,
      "æ´²": 8401,
      "Ġkapot": 8402,
      "pty": 8403,
      "Ġlijst": 8404,
      "å¤«äºº": 8405,
      "ours": 8406,
      "Ġgrappig": 8407,
      "Ġpink": 8408,
      "ĠFraser": 8409,
      "Ġfinally": 8410,
      "æķĻèĤ²": 8411,
      "Pardon": 8412,
      "oming": 8413,
      "clock": 8414,
      "è¿¹": 8415,
      "stra": 8416,
      "Ġenkel": 8417,
      "ĠMus": 8418,
      "ä½¿çĶ¨": 8419,
      "æĤ¨çļĦ": 8420,
      "Uw": 8421,
      "ä¸»ä»»": 8422,
      "æı¡": 8423,
      "Ġvertelde": 8424,
      "ä»ĭç»į": 8425,
      "èº«ä»½": 8426,
      "Ġversp": 8427,
      "bing": 8428,
      "arc": 8429,
      "åĿļæĮģ": 8430,
      "æ³ª": 8431,
      "çŁ¥éģĵäºĨ": 8432,
      "DE": 8433,
      "pot": 8434,
      "lem": 8435,
      "é¦ĸåħĪ": 8436,
      "èľľ": 8437,
      "han": 8438,
      "åºĦ": 8439,
      "Ġidi": 8440,
      "Ġgives": 8441,
      "äººéĥ½": 8442,
      "Ġgemidd": 8443,
      "éĶĻäºĨ": 8444,
      "æ®¿": 8445,
      "Ġsymb": 8446,
      "Ġpray": 8447,
      "astisch": 8448,
      "æľīä¸Ģå¤©": 8449,
      "åİ»åĲ§": 8450,
      "Ġserious": 8451,
      "ç»ıåİĨ": 8452,
      "wez": 8453,
      "Ġformule": 8454,
      "ĠMel": 8455,
      "opp": 8456,
      "æĭ¥": 8457,
      "ĠFred": 8458,
      "Ġvlak": 8459,
      "åĽĽåįģ": 8460,
      "ummie": 8461,
      "Ġzwarte": 8462,
      "Ġontsn": 8463,
      "Ġgesproken": 8464,
      "Ġ2008": 8465,
      "leur": 8466,
      "Ġhoge": 8467,
      "å°¤": 8468,
      "çĪ±æĥħ": 8469,
      "Ġattract": 8470,
      "Ġgeg": 8471,
      "Ġvoorkomen": 8472,
      "Ġliep": 8473,
      "ĠMos": 8474,
      "ika": 8475,
      "ination": 8476,
      "ç¬¦": 8477,
      "Ġkick": 8478,
      "owel": 8479,
      "down": 8480,
      "leed": 8481,
      "æŃ£å¥½": 8482,
      "istan": 8483,
      "è¯´æĺ¯": 8484,
      "ä¸Ģä½į": 8485,
      "åĩŃ": 8486,
      "these": 8487,
      "RY": 8488,
      "ĠBro": 8489,
      "è°ĭ": 8490,
      "bet": 8491,
      "ĠWiki": 8492,
      "Ġrout": 8493,
      "isen": 8494,
      "Ġå¸Ī": 8495,
      "åī©": 8496,
      "ĠâĮ": 8497,
      "ĠBrazil": 8498,
      "Ġhout": 8499,
      "wet": 8500,
      "iles": 8501,
      "èŀį": 8502,
      "Ġsens": 8503,
      "ĠUit": 8504,
      "éĿ¢å¯¹": 8505,
      "ĠRos": 8506,
      "Ġfresh": 8507,
      "rol": 8508,
      "è¿ĽäºĨ": 8509,
      "éĨ": 8510,
      "Ġzen": 8511,
      "åĲī": 8512,
      "Ġbeat": 8513,
      "Ġå½ĵæĹ¶": 8514,
      "Ġcharge": 8515,
      "Ġspec": 8516,
      "å³°": 8517,
      "igt": 8518,
      "Kids": 8519,
      "ĠCommons": 8520,
      "Ġlying": 8521,
      "åİħ": 8522,
      "ossing": 8523,
      "Ġboer": 8524,
      "ffic": 8525,
      "å®ŀéĻħ": 8526,
      "Ġbescherm": 8527,
      "iaal": 8528,
      "west": 8529,
      "Ġbom": 8530,
      "çĽ®åīį": 8531,
      "Ġholds": 8532,
      "aid": 8533,
      "Ġliked": 8534,
      "Car": 8535,
      "ä¸įå¤ļ": 8536,
      "ĠNederlands": 8537,
      "Ġnergens": 8538,
      "Ġstub": 8539,
      "Ġshouldn": 8540,
      "ç»ĵæĿŁ": 8541,
      "laugh": 8542,
      "Ġearl": 8543,
      "ä¸įæķ¢": 8544,
      "ä¼°": 8545,
      "åĲĮæĦı": 8546,
      "æ£®æŀĹ": 8547,
      "Ġfiets": 8548,
      "åĬĿ": 8549,
      "è°ĥæŁ¥": 8550,
      "Ġprocess": 8551,
      "pardon": 8552,
      "èĥŀ": 8553,
      "ä½łä½ł": 8554,
      "Ġgevolg": 8555,
      "Ġhide": 8556,
      "Pas": 8557,
      "coun": 8558,
      "Ġdirection": 8559,
      "edy": 8560,
      "ĠâĤ¬": 8561,
      "Ġhast": 8562,
      "Ġindivid": 8563,
      "jar": 8564,
      "Ġ2009": 8565,
      "Ġåĵ¦": 8566,
      "SIB": 8567,
      "Ġanx": 8568,
      "Ġiedere": 8569,
      "Ġdate": 8570,
      "gegeven": 8571,
      "æĹ§": 8572,
      "ä¸Ģä»¶": 8573,
      "Ġbridge": 8574,
      "Ġsilver": 8575,
      "ĠæĪĳè¿ĺ": 8576,
      "åħĪèµ°äºĨ": 8577,
      "earch": 8578,
      "Ġbrengt": 8579,
      "ä¼ģä¸ļ": 8580,
      "ih": 8581,
      "Ġluisteren": 8582,
      "ĠSec": 8583,
      "éģ¿": 8584,
      "æ¤įçī©": 8585,
      "oris": 8586,
      "gly": 8587,
      "æ¶²": 8588,
      ".)": 8589,
      "vat": 8590,
      "Ġdrank": 8591,
      "Ġshows": 8592,
      "Ġvogel": 8593,
      "å¸Ń": 8594,
      "ç®±": 8595,
      "yr": 8596,
      "Ġrose": 8597,
      "aped": 8598,
      "Ġmuur": 8599,
      "éĹª": 8600,
      "Ġmodern": 8601,
      "Ġ60": 8602,
      "Ġtoeg": 8603,
      "Ġdogs": 8604,
      "Ġä¸ºäºĨ": 8605,
      "Ġintrodu": 8606,
      "Ġkey": 8607,
      "éĢŁåº¦": 8608,
      "ĠLat": 8609,
      "Ġsituatie": 8610,
      "ĠDad": 8611,
      "Ġsepar": 8612,
      "istory": 8613,
      "ä½Ľ": 8614,
      "Ġsharp": 8615,
      "ĠNie": 8616,
      "Ġneus": 8617,
      "Ġtab": 8618,
      "äºı": 8619,
      "Ġbirds": 8620,
      "Ġkeuze": 8621,
      "car": 8622,
      "Ġgebracht": 8623,
      "Zelfs": 8624,
      "ĠAunt": 8625,
      "Ġdelight": 8626,
      "éĤ£æĺ¯": 8627,
      "Ġaff": 8628,
      "ploy": 8629,
      "Ġindust": 8630,
      "ijdt": 8631,
      "Ġcru": 8632,
      "Ġstage": 8633,
      "oldoen": 8634,
      "Ġreading": 8635,
      "æĤĦ": 8636,
      "çħ§çīĩ": 8637,
      "Ġsel": 8638,
      "ĠNPO": 8639,
      "å¯¹æĸ¹": 8640,
      "stop": 8641,
      "ĠMat": 8642,
      "èĢģåħ¬": 8643,
      "Ġstruct": 8644,
      "Ġmountain": 8645,
      "æĪĳæľī": 8646,
      "isy": 8647,
      "Ġgisteren": 8648,
      "ationale": 8649,
      "éĶĢ": 8650,
      "Ġsimilar": 8651,
      "._": 8652,
      "Ġåĩº": 8653,
      "spr": 8654,
      "æ²¡æĥ³åĪ°": 8655,
      "åıĺå¾Ĺ": 8656,
      "etch": 8657,
      "Ġconversation": 8658,
      "wanna": 8659,
      "ĠBobby": 8660,
      "raad": 8661,
      "æĪĳä¼ļ": 8662,
      "Ġsurprise": 8663,
      "Ġbouwen": 8664,
      "é¢Ĩå¯¼": 8665,
      "Ġgebeurde": 8666,
      "ĠKennisbank": 8667,
      "ashed": 8668,
      "å°±èĥ½": 8669,
      "Ġschilder": 8670,
      "Ġverzam": 8671,
      "Ġgeve": 8672,
      "oest": 8673,
      "å¼ĢäºĨ": 8674,
      "ĠCharles": 8675,
      "slaan": 8676,
      "ocrat": 8677,
      "olden": 8678,
      "Ġschiet": 8679,
      "Like": 8680,
      "OL": 8681,
      "elijks": 8682,
      "Ġclosed": 8683,
      "Ġmening": 8684,
      "Ġlaughing": 8685,
      "Ġalstublieft": 8686,
      "æĿĲæĸĻ": 8687,
      "Ġgetrouwd": 8688,
      "Ġfilms": 8689,
      "ament": 8690,
      "osh": 8691,
      "grond": 8692,
      "Ġå¼Ģ": 8693,
      "ply": 8694,
      "Ġthema": 8695,
      "ç¦»å©ļ": 8696,
      "Ġgeest": 8697,
      "å«Ĥ": 8698,
      "Ġcream": 8699,
      "Ġlargest": 8700,
      "rok": 8701,
      "ĠSen": 8702,
      "ĠCalifornia": 8703,
      "éĺ¶": 8704,
      "Ġsuit": 8705,
      "Ġverkopen": 8706,
      "--\"": 8707,
      "lang": 8708,
      "others": 8709,
      "å°ļ": 8710,
      "ĠCanada": 8711,
      "pose": 8712,
      "veld": 8713,
      "ĠUnion": 8714,
      "Ġsoldiers": 8715,
      "ĠWie": 8716,
      "åıĶåıĶ": 8717,
      "Ġwide": 8718,
      "Ġespecially": 8719,
      "ĠTra": 8720,
      "udd": 8721,
      "å¿Ĩ": 8722,
      "æİ¥ä¸ĭæĿ¥": 8723,
      "å®ŀè¯Ŀ": 8724,
      "Ġprobeert": 8725,
      "ĠStan": 8726,
      "ĠæĹ¢çĦ¶": 8727,
      "Ġsail": 8728,
      "Ġbattle": 8729,
      "iat": 8730,
      "groe": 8731,
      "Ġfavorite": 8732,
      "çĻ¾å§ĵ": 8733,
      "andid": 8734,
      "Ġgehouden": 8735,
      "æĢĢçĸĳ": 8736,
      "Ġtoets": 8737,
      "è¯º": 8738,
      "Ġconsidered": 8739,
      "Ġnone": 8740,
      "åĵĩ": 8741,
      "Ġseconden": 8742,
      "Ġgesprek": 8743,
      "Ġkolon": 8744,
      "è®©äºº": 8745,
      "Ġinvloed": 8746,
      "Ġblind": 8747,
      "riek": 8748,
      "Ġsmile": 8749,
      "TUR": 8750,
      "Ġmunicip": 8751,
      "Ġbreath": 8752,
      "assing": 8753,
      "Ġflat": 8754,
      "Ġcourt": 8755,
      "Ġhate": 8756,
      "ç¼ĸ": 8757,
      "Ġvarious": 8758,
      "âĳł": 8759,
      "ç§ĳåŃ¦": 8760,
      "uct": 8761,
      "Ġduurt": 8762,
      "æ¢ģ": 8763,
      "äºĮéĽ¶ä¸Ģ": 8764,
      "dd": 8765,
      "èģļ": 8766,
      "okk": 8767,
      "åĲĪéĢĤ": 8768,
      "Tell": 8769,
      "æ¼«": 8770,
      "Ġvakantie": 8771,
      "Ġsurf": 8772,
      "take": 8773,
      "ĠåıįæŃ£": 8774,
      "ä¸Ī": 8775,
      "Ġstone": 8776,
      "æīįæĺ¯": 8777,
      "set": 8778,
      "åŁŁ": 8779,
      "Ġrich": 8780,
      "ĠJane": 8781,
      "çī©ä½ĵ": 8782,
      "jaar": 8783,
      "Ġrood": 8784,
      "ä¿Ŀè¯ģ": 8785,
      "ĠæĽ´": 8786,
      "ĠRichard": 8787,
      "ĠEuropese": 8788,
      "Mommy": 8789,
      "æīĵç®Ĺ": 8790,
      "phen": 8791,
      "Ġnatural": 8792,
      "åĩºçļĦ": 8793,
      "åĩºæĿ¥çļĦ": 8794,
      "Ġverlaten": 8795,
      "Weg": 8796,
      "ĠæĪĸèĢħ": 8797,
      "Ġbehulp": 8798,
      "äººç±»": 8799,
      "Ġdienst": 8800,
      "Ġenemy": 8801,
      "çĶŁæĦı": 8802,
      "daar": 8803,
      "hah": 8804,
      "inderen": 8805,
      "Ġsteden": 8806,
      "ĠåºĶè¯¥": 8807,
      "è¯´æ³ķ": 8808,
      "isted": 8809,
      "Ġmuse": 8810,
      "çļĦæķħäºĭ": 8811,
      "ilige": 8812,
      "izza": 8813,
      "astern": 8814,
      "ique": 8815,
      "Ġziel": 8816,
      "Ġdollars": 8817,
      "Ġstarts": 8818,
      "Ġmocht": 8819,
      "ĠBed": 8820,
      "ĠChristian": 8821,
      "æĮ£": 8822,
      "Ġways": 8823,
      "çĸ«": 8824,
      "Ġåįģ": 8825,
      "ĠCarol": 8826,
      "ä¸įçĿĢ": 8827,
      "Ġsoci": 8828,
      "Ġstudy": 8829,
      "Ġadult": 8830,
      "boy": 8831,
      "Ġcrayon": 8832,
      "Ġmarket": 8833,
      "Ġwonderful": 8834,
      "è·Ŀ": 8835,
      "weging": 8836,
      "æľªæĿ¥": 8837,
      "ç³Ĭ": 8838,
      "Ġ190": 8839,
      "Ġinteresting": 8840,
      "elled": 8841,
      "åĮħæĭ¬": 8842,
      "ĠScott": 8843,
      "Ġscared": 8844,
      "Ġeggs": 8845,
      "wise": 8846,
      "ipper": 8847,
      "åĴĮä½ł": 8848,
      "Ġgekozen": 8849,
      "Ġå¼ł": 8850,
      "hol": 8851,
      "Ġspeed": 8852,
      "Pre": 8853,
      "beeldingen": 8854,
      "åĪ©çĶ¨": 8855,
      "Ġwapens": 8856,
      "elve": 8857,
      "Ġrechter": 8858,
      "ĠæĪĳåľ¨": 8859,
      "Ġpeace": 8860,
      "Ġsturen": 8861,
      "Ġrepe": 8862,
      "åĽº": 8863,
      "nog": 8864,
      "ä½łä»¬çļĦ": 8865,
      "Ġfingers": 8866,
      "Ġopa": 8867,
      "åŃĶ": 8868,
      "å¦ĸ": 8869,
      "imedia": 8870,
      "yond": 8871,
      "alo": 8872,
      "rm": 8873,
      "iders": 8874,
      "ĠRock": 8875,
      "ylalanyl": 8876,
      "ĠArt": 8877,
      "Ġgather": 8878,
      "ä¼Ł": 8879,
      "Ġserved": 8880,
      "Ġpicks": 8881,
      "Zal": 8882,
      "inct": 8883,
      "ipjes": 8884,
      "Ġcust": 8885,
      "æĨ": 8886,
      "æľ±": 8887,
      "Ġjun": 8888,
      "ĠRus": 8889,
      "Ġjoined": 8890,
      "Ġverkeerd": 8891,
      "ĠæĪĳä¼ļ": 8892,
      "Ġcrazy": 8893,
      "Ġarbe": 8894,
      "æĭ¿çĿĢ": 8895,
      "las": 8896,
      "esloten": 8897,
      "oegen": 8898,
      "åıĹåĪ°": 8899,
      "ĠGeluid": 8900,
      "Ġspirit": 8901,
      "has": 8902,
      "voerd": 8903,
      "éĩįè¦ģçļĦ": 8904,
      "Ġcel": 8905,
      "asing": 8906,
      "Ġcovered": 8907,
      "Ġprocent": 8908,
      "Ġå·²": 8909,
      "ĠWikiKids": 8910,
      "OW": 8911,
      "Ġwheel": 8912,
      "Ġfilmpje": 8913,
      "ĠKe": 8914,
      "auwe": 8915,
      "gemaakt": 8916,
      "èģªæĺİ": 8917,
      "Ġterecht": 8918,
      "Ġoce": 8919,
      "Ġjum": 8920,
      "lopen": 8921,
      "Ġshare": 8922,
      "Ġprogramma": 8923,
      "Ġpal": 8924,
      "Ġtravel": 8925,
      "Ġprobeerde": 8926,
      "utch": 8927,
      "Ġsaf": 8928,
      "Mrs": 8929,
      "å¢Ļ": 8930,
      "ĠKon": 8931,
      "hood": 8932,
      "é¼»": 8933,
      "ĠæĪĳå°±æĺ¯": 8934,
      "æĥħç»ª": 8935,
      "Ġhonger": 8936,
      "XX": 8937,
      "Ġslowly": 8938,
      "gew": 8939,
      "âĮĭ": 8940,
      "Ġkleren": 8941,
      "bren": 8942,
      "Ġtraining": 8943,
      "äººåĳĺ": 8944,
      "Ġfeit": 8945,
      "ĠæĢ»": 8946,
      "omething": 8947,
      "ä¸¥éĩį": 8948,
      "ĠSchooltv": 8949,
      "ĠMom": 8950,
      "æĥ³æ³ķ": 8951,
      "Ġeentje": 8952,
      "ero": 8953,
      "Ġzuur": 8954,
      "ĠMen": 8955,
      "èµļ": 8956,
      "Ġbatter": 8957,
      "Ġlearned": 8958,
      "ĠåĶ": 8959,
      "inding": 8960,
      "Ġschieten": 8961,
      "Ġopening": 8962,
      "åĪ·": 8963,
      "Ġloved": 8964,
      "å¼Łå¼Ł": 8965,
      "Ġlijken": 8966,
      "è§ģåĪ°": 8967,
      "kennen": 8968,
      "Ġsleeping": 8969,
      "antic": 8970,
      "ĠLee": 8971,
      "book": 8972,
      "æī¬": 8973,
      "Ġtotaal": 8974,
      "Ġtwelve": 8975,
      "åĽ½çļĦ": 8976,
      "Ġpagina": 8977,
      "èºº": 8978,
      "uddy": 8979,
      "Ġleeftijd": 8980,
      "Ġaccident": 8981,
      "ruim": 8982,
      "è¡Įä¸º": 8983,
      "Ġpapier": 8984,
      "Ġbegrip": 8985,
      "åĺī": 8986,
      "entje": 8987,
      "åħĶåŃĲ": 8988,
      "wing": 8989,
      "åı¸ä»¤": 8990,
      "Ġklasgenoot": 8991,
      "è¦ģä¸į": 8992,
      "Ġzorgt": 8993,
      "Ġbrood": 8994,
      "âĳ¡": 8995,
      "Ġcommunic": 8996,
      "Ġamount": 8997,
      "Ġrefer": 8998,
      "Ġnogal": 8999,
      "ĠVolgens": 9000,
      "ially": 9001,
      "Ġwhisper": 9002,
      "Ġfeed": 9003,
      "yep": 9004,
      "æĴĴ": 9005,
      "âĮī": 9006,
      "arrow": 9007,
      "åĨįè¯´": 9008,
      "æĹ¥æľ¬äºº": 9009,
      "Ġzingen": 9010,
      "AK": 9011,
      "ĠWikimedia": 9012,
      "Ġgewonnen": 9013,
      "Ġtabel": 9014,
      "aarten": 9015,
      "ä¸įåı¯èĥ½": 9016,
      "åºŁ": 9017,
      "Ġziens": 9018,
      "Ġcaused": 9019,
      "æĺ¯åĲĹ": 9020,
      "ĠJer": 9021,
      "three": 9022,
      "ĠTijd": 9023,
      "rijp": 9024,
      "éļĶ": 9025,
      "Ġphys": 9026,
      "ios": 9027,
      "abeth": 9028,
      "Ġbijzonder": 9029,
      "schapp": 9030,
      "çĭł": 9031,
      "iction": 9032,
      "Ġslight": 9033,
      "ĠSarah": 9034,
      "ç»©": 9035,
      "å¾Īå¿«": 9036,
      "ä¹Łä¸įä¼ļ": 9037,
      "Ġzomer": 9038,
      "åīĳ": 9039,
      "Bob": 9040,
      "Breng": 9041,
      "èĪª": 9042,
      "Ġspoor": 9043,
      "åħ³éĶ®": 9044,
      "deeld": 9045,
      "çķ¥": 9046,
      "ijen": 9047,
      "Ġ2006": 9048,
      "éĥ¨éĺŁ": 9049,
      "ç¤¼çī©": 9050,
      "otion": 9051,
      "åĩ¡": 9052,
      "Ġåīį": 9053,
      "ç»ľ": 9054,
      "Ġkrant": 9055,
      "uster": 9056,
      "çĶ±äºİ": 9057,
      "Ġproblems": 9058,
      "Ġraad": 9059,
      "éĤ£æł·": 9060,
      "Ġhelped": 9061,
      "Ġinflu": 9062,
      "ĠTony": 9063,
      "Ġimmedi": 9064,
      "ç§Ł": 9065,
      "----------------": 9066,
      "Ġterrible": 9067,
      "èµı": 9068,
      "ä¸°": 9069,
      "Ġcit": 9070,
      "å¥³æľĭåıĭ": 9071,
      "Ġern": 9072,
      "ĠBig": 9073,
      "ä¸ĭéĿ¢": 9074,
      "éĻĦ": 9075,
      "åĲ«": 9076,
      "ĠDaarom": 9077,
      "æĪĳèĩªå·±": 9078,
      "åĵĪåĵĪåĵĪ": 9079,
      "Ġ2007": 9080,
      "ç«ŁçĦ¶": 9081,
      "Ġdinosaur": 9082,
      "ning": 9083,
      "Ġbreng": 9084,
      "Ġreag": 9085,
      "sters": 9086,
      "aded": 9087,
      "Ġgenomen": 9088,
      "ä¸»ä¹ī": 9089,
      "æ»ĳ": 9090,
      "Afbeeldingen": 9091,
      "å¥Ķ": 9092,
      "èı²": 9093,
      "Mum": 9094,
      "Ġmoed": 9095,
      "Ġspread": 9096,
      "ĠGo": 9097,
      "æįķ": 9098,
      "Ġfinal": 9099,
      "Ġä»ĸè¯´": 9100,
      "Ġaandacht": 9101,
      "éķ¿å¾Ĺ": 9102,
      "å¾Īæľī": 9103,
      "æĦıæĢĿåķĬ": 9104,
      "inks": 9105,
      "Ġseks": 9106,
      "å²Ľ": 9107,
      "Ġslaan": 9108,
      "Geweld": 9109,
      "vang": 9110,
      "ĠGeneral": 9111,
      "gave": 9112,
      "Ġmult": 9113,
      "rika": 9114,
      "æĭ¾": 9115,
      "Ġperiode": 9116,
      "Ġziekenhuis": 9117,
      "Ġnut": 9118,
      "ipl": 9119,
      "Ġverliezen": 9120,
      "Ġinwoners": 9121,
      "ĠStreet": 9122,
      "dere": 9123,
      "watch": 9124,
      "åĩī": 9125,
      "åķĨéĩı": 9126,
      "Ġmor": 9127,
      "Ġhelft": 9128,
      "ä¸Ģå£°": 9129,
      "Ġhoogte": 9130,
      "ä¹Łä¼ļ": 9131,
      "ĠÂ©": 9132,
      "utie": 9133,
      "aud": 9134,
      "Ġvolwassen": 9135,
      "Ġlower": 9136,
      "Ġmonkey": 9137,
      "Ġmob": 9138,
      "ä»Ģä¹Īäºĭ": 9139,
      "Mhm": 9140,
      "Ġthanks": 9141,
      "Ġasleep": 9142,
      "Ġgevallen": 9143,
      "'?": 9144,
      "Ġä½łçİ°åľ¨": 9145,
      "rick": 9146,
      "Ġwitte": 9147,
      "Ġleggen": 9148,
      "æĴŀ": 9149,
      "æİ§åĪ¶": 9150,
      "Had": 9151,
      "åħ¸": 9152,
      "Ġvoelde": 9153,
      "Sc": 9154,
      "Ġplaced": 9155,
      "Ġfighting": 9156,
      "ĠAmy": 9157,
      "Ġrisk": 9158,
      "ĠBeeldbank": 9159,
      "Ġverantwoord": 9160,
      "RI": 9161,
      "éĶħ": 9162,
      "Gen": 9163,
      "Ġæīĵ": 9164,
      "keken": 9165,
      "ĠFranse": 9166,
      "wait": 9167,
      "ç¡®å®ļ": 9168,
      "Ġnest": 9169,
      "ç«Ļåľ¨": 9170,
      "çŃīçŃī": 9171,
      "èĭ¹": 9172,
      "Ġlees": 9173,
      "è¾ŀ": 9174,
      "kijken": 9175,
      "phone": 9176,
      "Thomas": 9177,
      "æįŁ": 9178,
      "Ġsevent": 9179,
      "Clipjes": 9180,
      "BC": 9181,
      "å¯¹åĲ§": 9182,
      "å¯Ĵ": 9183,
      "vies": 9184,
      "å¥ĭ": 9185,
      "fin": 9186,
      "Ġbeoord": 9187,
      "ĠLouis": 9188,
      "Ãł": 9189,
      "istr": 9190,
      "Onder": 9191,
      "Ġplaatsen": 9192,
      "Ġonbe": 9193,
      "Ġprem": 9194,
      "Ġgedrag": 9195,
      "Ġleiden": 9196,
      "è¦ģåİ»": 9197,
      "esus": 9198,
      "Ġentered": 9199,
      "ĠHoll": 9200,
      "Ġprotect": 9201,
      "Ġbekijken": 9202,
      "sect": 9203,
      "Ġsite": 9204,
      "ä¸ĭåĪĹ": 9205,
      "Ġturning": 9206,
      "ç²®": 9207,
      "âĳ¢": 9208,
      "iant": 9209,
      "çº³": 9210,
      "Ġlikely": 9211,
      "Ġfright": 9212,
      "outs": 9213,
      "Ġnumbers": 9214,
      "Ġpicked": 9215,
      "æĲŃ": 9216,
      "å¹´åīį": 9217,
      "Ġasking": 9218,
      "roud": 9219,
      "Ġeindelijk": 9220,
      "kort": 9221,
      "ĠNed": 9222,
      "These": 9223,
      "ternational": 9224,
      "ĠEngeland": 9225,
      "Ġpolitician": 9226,
      "æ±½": 9227,
      "è¯ģæĺİ": 9228,
      "Ġmeat": 9229,
      "Ġlines": 9230,
      "Ġouder": 9231,
      "enschapp": 9232,
      "rans": 9233,
      "æİĪ": 9234,
      "ĠArab": 9235,
      "Ġrub": 9236,
      "Ġcircle": 9237,
      "Ġä¸įç®¡": 9238,
      "Ġautom": 9239,
      "]!": 9240,
      "Ġberg": 9241,
      "Ġpercent": 9242,
      "ĠMaria": 9243,
      "åºĶè¯¥æĺ¯": 9244,
      "Ġsteek": 9245,
      "æİ¥çĿĢ": 9246,
      "Ġstier": 9247,
      "è¿Ļè¾¹": 9248,
      "Ġvijand": 9249,
      "æŃī": 9250,
      "Ġmagic": 9251,
      "isse": 9252,
      "gesch": 9253,
      "Ġdeter": 9254,
      "Ġgras": 9255,
      "èĭ¹æŀľ": 9256,
      "aly": 9257,
      "upid": 9258,
      "gebied": 9259,
      "çļĦæĪĳ": 9260,
      "acy": 9261,
      "Ġparticular": 9262,
      "kenen": 9263,
      "æīĢè°ĵ": 9264,
      "Am": 9265,
      "Ġast": 9266,
      "ĠCharlie": 9267,
      "Ġcrit": 9268,
      "Ġåħ¨": 9269,
      "ĠGovern": 9270,
      "ä¸įçŁ¥": 9271,
      "ĠTex": 9272,
      "ĠIII": 9273,
      "Ok": 9274,
      "åľ£": 9275,
      "æĹģè¾¹": 9276,
      "éĥİ": 9277,
      "è´¦": 9278,
      "Ġ$$\\": 9279,
      "Ġsize": 9280,
      "åĵªä¸ª": 9281,
      "æĭĸ": 9282,
      "Ġvertrekken": 9283,
      "dro": 9284,
      "è§Ĥå¯Ł": 9285,
      "Ġbigger": 9286,
      "rust": 9287,
      "è´£ä»»": 9288,
      "æ¡ĥ": 9289,
      "hy": 9290,
      "Ġmaan": 9291,
      "Ġsearch": 9292,
      "ares": 9293,
      "Bereken": 9294,
      "kracht": 9295,
      "ournal": 9296,
      "ä»Ĺ": 9297,
      "çĮİ": 9298,
      "Ġdestroy": 9299,
      "Ġhill": 9300,
      "Ġspent": 9301,
      "Ġbeloof": 9302,
      "ĠIS": 9303,
      "Ġherinn": 9304,
      "éĺ»": 9305,
      "Lees": 9306,
      "Ġtalked": 9307,
      "ä¸įå®¹æĺĵ": 9308,
      "izend": 9309,
      "Hebben": 9310,
      "ĠSpanish": 9311,
      "ç¢Ĺ": 9312,
      "Ġrom": 9313,
      "èĪĴæľį": 9314,
      "Ġprotest": 9315,
      "ĠåħĪ": 9316,
      "bere": 9317,
      "Ġvlees": 9318,
      "Ã¨re": 9319,
      "ĠJones": 9320,
      "Ġcho": 9321,
      "Ġgods": 9322,
      "Soms": 9323,
      "Ġbeer": 9324,
      "Ġfool": 9325,
      "ĠCoun": 9326,
      "Ġsimple": 9327,
      "å¾Ĵ": 9328,
      "Ġrole": 9329,
      "äº§çĶŁ": 9330,
      "ĠWillem": 9331,
      "Ġdiscovered": 9332,
      "Ġforth": 9333,
      "ä»į": 9334,
      "Ġeast": 9335,
      "åİļ": 9336,
      "ĠKun": 9337,
      "æĪĳä»¬å°±": 9338,
      "Ġsinging": 9339,
      "ä¼¸": 9340,
      "ä¼¼çļĦ": 9341,
      "æĮīçħ§": 9342,
      "çĴ": 9343,
      "ĠLittle": 9344,
      "çŃīçĿĢ": 9345,
      "ĠParijs": 9346,
      "è¯´ä»Ģä¹Ī": 9347,
      "Toe": 9348,
      "Ġprim": 9349,
      "Ġhelpt": 9350,
      "Ġéļ¾éģĵ": 9351,
      "Ġmann": 9352,
      "çĶŁçī©": 9353,
      "è¶³çĲĥ": 9354,
      "ä»Ķ": 9355,
      "æĵ¦": 9356,
      "VE": 9357,
      "Ġapple": 9358,
      "Klaar": 9359,
      "eget": 9360,
      "Ġgered": 9361,
      "Ġkilometer": 9362,
      "ucc": 9363,
      "vragen": 9364,
      "Ġgebouwd": 9365,
      "å®ŀéªĮ": 9366,
      "åĶ¯": 9367,
      "ĠMexico": 9368,
      "å¹²åĺĽ": 9369,
      "è¯´ä¸į": 9370,
      "é¢Ŀ": 9371,
      "Ed": 9372,
      "rs": 9373,
      "äºĨä¸ª": 9374,
      "åħ¬åŃĲ": 9375,
      "Ġsmart": 9376,
      "çĸ¯": 9377,
      "é¾Ħ": 9378,
      "Ġstrijd": 9379,
      "ç»ĻæĪĳä»¬": 9380,
      "oede": 9381,
      "Ġlaid": 9382,
      "å°ĳçĪ·": 9383,
      "æĹ©ä¸Ĭ": 9384,
      "æĶ¾å¿ĥåĲ§": 9385,
      "ĠMama": 9386,
      "å§»": 9387,
      "ray": 9388,
      "Ġtap": 9389,
      "arg": 9390,
      "BA": 9391,
      "Ġnature": 9392,
      "aus": 9393,
      "ijnt": 9394,
      "Ġbegra": 9395,
      "Ġleader": 9396,
      "ensus": 9397,
      "æ¼Ķåĳĺ": 9398,
      "ĠVictor": 9399,
      "åįģåĪĨ": 9400,
      "ĠDis": 9401,
      "çļĦæĥħåĨµ": 9402,
      "è¸¢": 9403,
      "è®©æĪĳä»¬": 9404,
      "itude": 9405,
      "ĠCo": 9406,
      "ĠWho": 9407,
      "éļıä¾¿": 9408,
      "ĠNiet": 9409,
      "Ġforty": 9410,
      "ä¹łæĥ¯": 9411,
      "è´´": 9412,
      "Ġopdrachten": 9413,
      "wed": 9414,
      "Ġdeden": 9415,
      "Ġhonden": 9416,
      "shire": 9417,
      "Ġä¹Łæĺ¯": 9418,
      "Ġsatisf": 9419,
      "Ġpale": 9420,
      "ushing": 9421,
      "ĠRay": 9422,
      "Ġcell": 9423,
      "åļ": 9424,
      "Ġstories": 9425,
      "è¿ĺæ²¡æľī": 9426,
      "å¯¹äºĨ": 9427,
      "erie": 9428,
      "Ġvorige": 9429,
      "Papa": 9430,
      "éĢĴ": 9431,
      "Ġelephant": 9432,
      "æīĶ": 9433,
      "ĠState": 9434,
      "22": 9435,
      "Ġdun": 9436,
      "Hoor": 9437,
      "Ġpoet": 9438,
      "roat": 9439,
      "è¿Ļä¹Īè¯´": 9440,
      "Kunnen": 9441,
      "å°ıåŃĲ": 9442,
      "zaak": 9443,
      "Give": 9444,
      "æī¾æĪĳ": 9445,
      "Ġsituation": 9446,
      "è§Ĥä¼Ĺ": 9447,
      "çº·": 9448,
      "ĠWhere": 9449,
      "Ġaction": 9450,
      "Ġmut": 9451,
      "Ġleek": 9452,
      "ĠåĿ": 9453,
      "loop": 9454,
      "via": 9455,
      "Ġdonker": 9456,
      "anken": 9457,
      "elsel": 9458,
      "Ġopp": 9459,
      "éªĳ": 9460,
      "æī«": 9461,
      "Ġwan": 9462,
      "Ġtradition": 9463,
      "ĠHere": 9464,
      "ukkig": 9465,
      "counter": 9466,
      "ĠFin": 9467,
      "ä½łèĩªå·±": 9468,
      "iche": 9469,
      "lad": 9470,
      "é£Łçī©": 9471,
      "ĠParis": 9472,
      "ĠSunday": 9473,
      "Ġaffect": 9474,
      "schuld": 9475,
      "itz": 9476,
      "Mensen": 9477,
      "ä»ĸåľ¨": 9478,
      "Ġpartner": 9479,
      "Ġcollect": 9480,
      "é²ģ": 9481,
      "schuw": 9482,
      "rees": 9483,
      "éĢĶ": 9484,
      "å®ŀçİ°": 9485,
      "æĪĳä¸Ģ": 9486,
      "Ġspeciale": 9487,
      "Ġdemand": 9488,
      "ĠEarth": 9489,
      "Ġleeg": 9490,
      "iar": 9491,
      "ç³»ç»Ł": 9492,
      "boden": 9493,
      "istische": 9494,
      "å¯¹ä¸įå¯¹": 9495,
      "Ġdisappear": 9496,
      "Ġguard": 9497,
      "aked": 9498,
      "è¾Ĩ": 9499,
      "Ġsneller": 9500,
      "Ġorders": 9501,
      "åįģäºĶ": 9502,
      "ughty": 9503,
      "inkrijk": 9504,
      "éĺ´": 9505,
      "Ġ2005": 9506,
      "bour": 9507,
      "Ġsen": 9508,
      "Ġoverw": 9509,
      "ias": 9510,
      "Ġcivil": 9511,
      "Ġtoil": 9512,
      "Ġinterview": 9513,
      "ĠPet": 9514,
      "åģ¥åº·": 9515,
      "Ġdeclared": 9516,
      "issing": 9517,
      "æī°": 9518,
      "Ġbeyond": 9519,
      "Ġap": 9520,
      "Ġmelk": 9521,
      "çļĦå¥½": 9522,
      "Ġformed": 9523,
      "æĹ¶ä»£": 9524,
      "wich": 9525,
      "åĪĨäº«": 9526,
      "å¨ľ": 9527,
      "Ġolder": 9528,
      "Haar": 9529,
      "ĠÉĻ": 9530,
      "ç¬¬ä¸ī": 9531,
      "Ġpretend": 9532,
      "dit": 9533,
      "enken": 9534,
      "Ġdirty": 9535,
      "å±ģ": 9536,
      "åĨħå®¹": 9537,
      "Ġéĺ¿": 9538,
      "Ġraken": 9539,
      "æĬĬè¿Ļä¸ª": 9540,
      "fen": 9541,
      "Sam": 9542,
      "Ġdirected": 9543,
      "Ġoppos": 9544,
      "Ġphot": 9545,
      "Ġalarm": 9546,
      "Ġrabbit": 9547,
      "ops": 9548,
      "Ġbye": 9549,
      "aris": 9550,
      "ĠâĨĴ": 9551,
      "ĠAustralia": 9552,
      "vlak": 9553,
      "Ġcoach": 9554,
      "Ġworse": 9555,
      "umber": 9556,
      "ç¬¬ä¸Ģä¸ª": 9557,
      "éĹ²": 9558,
      "æ±ł": 9559,
      "Drie": 9560,
      "Ġafspraak": 9561,
      "asons": 9562,
      "Ġnobody": 9563,
      "Ġkregen": 9564,
      "ielen": 9565,
      "Ġcrack": 9566,
      "Ġpolitical": 9567,
      "ĠKies": 9568,
      "aves": 9569,
      "éĩįæĸ°": 9570,
      "éĤ£æĪĳ": 9571,
      "Ġrail": 9572,
      "IR": 9573,
      "ĠEngels": 9574,
      "Ġpromise": 9575,
      "eman": 9576,
      "Ġtour": 9577,
      "è¿Ł": 9578,
      "ĠCome": 9579,
      "ĠEgypt": 9580,
      "dog": 9581,
      "Ġdak": 9582,
      "å¦Ļ": 9583,
      "70": 9584,
      "GE": 9585,
      "Mam": 9586,
      "ughing": 9587,
      "åĲ¬è§ģ": 9588,
      "unten": 9589,
      "ĠPri": 9590,
      "Ġplastic": 9591,
      "Ġvir": 9592,
      "Ġagreed": 9593,
      "æĬĬè¿Ļ": 9594,
      "è²": 9595,
      "Ġkorte": 9596,
      "hem": 9597,
      "ĠAz": 9598,
      "Ġcloud": 9599,
      "Ġcalling": 9600,
      "Ġsteps": 9601,
      "Ġdaarvan": 9602,
      "éĥĳ": 9603,
      "æĶ¾å¼ĥ": 9604,
      "æĥ³æĥ³": 9605,
      "æīİ": 9606,
      "erved": 9607,
      "ano": 9608,
      "å®¾": 9609,
      "æĤĶ": 9610,
      "OO": 9611,
      "stein": 9612,
      "Ġmyster": 9613,
      "Ġenergy": 9614,
      "Ġsquare": 9615,
      "ography": 9616,
      "âĳ£": 9617,
      "å¿ł": 9618,
      "Ġdeliver": 9619,
      "Act": 9620,
      "Ġtrip": 9621,
      "Ġmilitary": 9622,
      "Ġziekte": 9623,
      "Ġä½łä¹Ł": 9624,
      "Ġgezin": 9625,
      "Ġeffort": 9626,
      "ĠAust": 9627,
      "Ġåį´": 9628,
      "AAR": 9629,
      "Zorg": 9630,
      "ript": 9631,
      "plant": 9632,
      "Ġvoetbal": 9633,
      "Ġå·²ç»ı": 9634,
      "ĠåĪĺ": 9635,
      "pect": 9636,
      "ĠGreen": 9637,
      "Ġgesloten": 9638,
      "ibly": 9639,
      "ç©ºéĹ´": 9640,
      "ĠMed": 9641,
      "Ġraised": 9642,
      "Ġklootzak": 9643,
      "å·Ŀ": 9644,
      "Ġhardly": 9645,
      "ĠWhite": 9646,
      "éĤ£å¤©": 9647,
      "Ġ189": 9648,
      "ĠçĶ¨": 9649,
      "Ġbelieved": 9650,
      "80": 9651,
      "iker": 9652,
      "å®½": 9653,
      "Goedem": 9654,
      "Ġallerlei": 9655,
      "è®¿": 9656,
      "Ġwid": 9657,
      "Leuk": 9658,
      "ĠJapanese": 9659,
      "è¶Ł": 9660,
      "åıįåºĶ": 9661,
      "ĠæĪĳéĥ½": 9662,
      "abl": 9663,
      "å¥¥": 9664,
      "iano": 9665,
      "Ġcoat": 9666,
      "atic": 9667,
      "Ġgrad": 9668,
      "bad": 9669,
      "Ġpath": 9670,
      "çŀİ": 9671,
      "ĠHierdoor": 9672,
      "Ġharm": 9673,
      "æĦŁåĪ°": 9674,
      "Ġaddress": 9675,
      "Ġbepaald": 9676,
      "Ġiron": 9677,
      "Ġjoin": 9678,
      "Ġrespons": 9679,
      "Ġbill": 9680,
      "Ġå¿ĥ": 9681,
      "æĺł": 9682,
      "ros": 9683,
      "Ġpocket": 9684,
      "Ġsneeuw": 9685,
      "Nothing": 9686,
      "Ġappl": 9687,
      "pa": 9688,
      "meester": 9689,
      "vall": 9690,
      "Ġlength": 9691,
      "èĤ¥": 9692,
      "ledge": 9693,
      "åĳĲ": 9694,
      "åºĵ": 9695,
      "Ġbroad": 9696,
      "chan": 9697,
      "Ġoffer": 9698,
      "Ġangry": 9699,
      "Ġwound": 9700,
      "æ²¡ä»Ģä¹Ī": 9701,
      "iem": 9702,
[...]
