{
  "version": "1.0",
  "truncation": null,
  "padding": null,
  "added_tokens": [
    {
      "id": 0,
      "content": "<unk>",
      "single_word": false,
      "lstrip": false,
      "rstrip": false,
      "normalized": false,
      "special": true
    },
    {
      "id": 1,
      "content": "<s>",
      "single_word": false,
      "lstrip": false,
      "rstrip": false,
      "normalized": false,
      "special": true
    },
    {
      "id": 2,
      "content": "</s>",
      "single_word": false,
      "lstrip": false,
      "rstrip": false,
      "normalized": false,
      "special": true
    },
    {
      "id": 3,
      "content": "<pad>",
      "single_word": false,
      "lstrip": false,
      "rstrip": false,
      "normalized": false,
      "special": true
    },
    {
      "id": 4,
      "content": "<mask>",
      "single_word": false,
      "lstrip": false,
      "rstrip": false,
      "normalized": false,
      "special": true
    },
    {
      "id": 5,
      "content": "，",
      "single_word": false,
      "lstrip": false,
      "rstrip": false,
      "normalized": false,
      "special": true
    },
    {
      "id": 6,
      "content": "。",
      "single_word": false,
      "lstrip": false,
      "rstrip": false,
      "normalized": false,
      "special": true
    },
    {
      "id": 7,
      "content": "、",
      "single_word": false,
      "lstrip": false,
      "rstrip": false,
      "normalized": false,
      "special": true
    },
    {
      "id": 8,
      "content": "！",
      "single_word": false,
      "lstrip": false,
      "rstrip": false,
      "normalized": false,
      "special": true
    },
    {
      "id": 9,
      "content": "？",
      "single_word": false,
      "lstrip": false,
      "rstrip": false,
      "normalized": false,
      "special": true
    },
    {
      "id": 10,
      "content": "：",
      "single_word": false,
      "lstrip": false,
      "rstrip": false,
      "normalized": false,
      "special": true
    },
    {
      "id": 11,
      "content": "；",
      "single_word": false,
      "lstrip": false,
      "rstrip": false,
      "normalized": false,
      "special": true
    },
    {
      "id": 12,
      "content": "「",
      "single_word": false,
      "lstrip": false,
      "rstrip": false,
      "normalized": false,
      "special": true
    },
    {
      "id": 13,
      "content": "」",
      "single_word": false,
      "lstrip": false,
      "rstrip": false,
      "normalized": false,
      "special": true
    },
    {
      "id": 14,
      "content": "（",
      "single_word": false,
      "lstrip": false,
      "rstrip": false,
      "normalized": false,
      "special": true
    },
    {
      "id": 15,
      "content": "）",
      "single_word": false,
      "lstrip": false,
      "rstrip": false,
      "normalized": false,
      "special": true
    },
    {
      "id": 16,
      "content": "《",
      "single_word": false,
      "lstrip": false,
      "rstrip": false,
      "normalized": false,
      "special": true
    },
    {
      "id": 17,
      "content": "》",
      "single_word": false,
      "lstrip": false,
      "rstrip": false,
      "normalized": false,
      "special": true
    },
    {
      "id": 18,
      "content": "【",
      "single_word": false,
      "lstrip": false,
      "rstrip": false,
      "normalized": false,
      "special": true
    },
    {
      "id": 19,
      "content": "】",
      "single_word": false,
      "lstrip": false,
      "rstrip": false,
      "normalized": false,
      "special": true
    }
  ],
  "normalizer": null,
  "pre_tokenizer": {
    "type": "ByteLevel",
    "add_prefix_space": false,
    "trim_offsets": true,
    "use_regex": true
  },
  "post_processor": {
    "type": "ByteLevel",
    "add_prefix_space": true,
    "trim_offsets": false,
    "use_regex": true
  },
  "decoder": {
    "type": "ByteLevel",
    "add_prefix_space": true,
    "trim_offsets": true,
    "use_regex": true
  },
  "model": {
    "type": "BPE",
    "dropout": null,
    "unk_token": null,
    "continuing_subword_prefix": null,
    "end_of_word_suffix": null,
    "fuse_unk": false,
    "byte_fallback": false,
    "ignore_merges": false,
    "vocab": {
      "<unk>": 0,
      "<s>": 1,
      "</s>": 2,
      "<pad>": 3,
      "<mask>": 4,
      "，": 5,
      "。": 6,
      "、": 7,
      "！": 8,
      "？": 9,
      "：": 10,
      "；": 11,
      "「": 12,
      "」": 13,
      "（": 14,
      "）": 15,
      "《": 16,
      "》": 17,
      "【": 18,
      "】": 19,
      "!": 20,
      "\"": 21,
      "#": 22,
      "$": 23,
      "%": 24,
      "&": 25,
      "'": 26,
      "(": 27,
      ")": 28,
      "*": 29,
      "+": 30,
      ",": 31,
      "-": 32,
      ".": 33,
      "/": 34,
      "0": 35,
      "1": 36,
      "2": 37,
      "3": 38,
      "4": 39,
      "5": 40,
      "6": 41,
      "7": 42,
      "8": 43,
      "9": 44,
      ":": 45,
      ";": 46,
      "<": 47,
      "=": 48,
      ">": 49,
      "?": 50,
      "@": 51,
      "A": 52,
      "B": 53,
      "C": 54,
      "D": 55,
      "E": 56,
      "F": 57,
      "G": 58,
      "H": 59,
      "I": 60,
      "J": 61,
      "K": 62,
      "L": 63,
      "M": 64,
      "N": 65,
      "O": 66,
      "P": 67,
      "Q": 68,
      "R": 69,
      "S": 70,
      "T": 71,
      "U": 72,
      "V": 73,
      "W": 74,
      "X": 75,
      "Y": 76,
      "Z": 77,
      "[": 78,
      "\\": 79,
      "]": 80,
      "^": 81,
      "_": 82,
      "`": 83,
      "a": 84,
      "b": 85,
      "c": 86,
      "d": 87,
      "e": 88,
      "f": 89,
      "g": 90,
      "h": 91,
      "i": 92,
      "j": 93,
      "k": 94,
      "l": 95,
      "m": 96,
      "n": 97,
      "o": 98,
      "p": 99,
      "q": 100,
      "r": 101,
      "s": 102,
      "t": 103,
      "u": 104,
      "v": 105,
      "w": 106,
      "x": 107,
      "y": 108,
      "z": 109,
      "{": 110,
      "|": 111,
      "}": 112,
      "~": 113,
      "¡": 114,
      "¢": 115,
      "£": 116,
      "¤": 117,
      "¥": 118,
      "¦": 119,
      "§": 120,
      "¨": 121,
      "©": 122,
      "ª": 123,
      "«": 124,
      "¬": 125,
      "®": 126,
      "¯": 127,
      "°": 128,
      "±": 129,
      "²": 130,
      "³": 131,
      "´": 132,
      "µ": 133,
      "¶": 134,
      "·": 135,
      "¸": 136,
      "¹": 137,
      "º": 138,
      "»": 139,
      "¼": 140,
      "½": 141,
      "¾": 142,
      "¿": 143,
      "À": 144,
      "Á": 145,
      "Â": 146,
      "Ã": 147,
      "Ä": 148,
      "Å": 149,
      "Æ": 150,
      "Ç": 151,
      "È": 152,
      "É": 153,
      "Ê": 154,
      "Ë": 155,
      "Ì": 156,
      "Í": 157,
      "Î": 158,
      "Ï": 159,
      "Ð": 160,
      "Ñ": 161,
      "Ò": 162,
      "Ó": 163,
      "Ô": 164,
      "Õ": 165,
      "Ö": 166,
      "×": 167,
      "Ø": 168,
      "Ù": 169,
      "Ú": 170,
      "Û": 171,
      "Ü": 172,
      "Ý": 173,
      "Þ": 174,
      "ß": 175,
      "à": 176,
      "á": 177,
      "â": 178,
      "ã": 179,
      "ä": 180,
      "å": 181,
      "æ": 182,
      "ç": 183,
      "è": 184,
      "é": 185,
      "ê": 186,
      "ë": 187,
      "ì": 188,
      "í": 189,
      "î": 190,
      "ï": 191,
      "ð": 192,
      "ñ": 193,
      "ò": 194,
      "ó": 195,
      "ô": 196,
      "õ": 197,
      "ö": 198,
      "÷": 199,
      "ø": 200,
      "ù": 201,
      "ú": 202,
      "û": 203,
      "ü": 204,
      "ý": 205,
      "þ": 206,
      "ÿ": 207,
      "Ā": 208,
      "ā": 209,
      "Ă": 210,
      "ă": 211,
      "Ą": 212,
      "ą": 213,
      "Ć": 214,
      "ć": 215,
      "Ĉ": 216,
      "ĉ": 217,
      "Ċ": 218,
      "ċ": 219,
      "Č": 220,
      "č": 221,
      "Ď": 222,
      "ď": 223,
      "Đ": 224,
      "đ": 225,
      "Ē": 226,
      "ē": 227,
      "Ĕ": 228,
      "ĕ": 229,
      "Ė": 230,
      "ė": 231,
      "Ę": 232,
      "ę": 233,
      "Ě": 234,
      "ě": 235,
      "Ĝ": 236,
      "ĝ": 237,
      "Ğ": 238,
      "ğ": 239,
      "Ġ": 240,
      "ġ": 241,
      "Ģ": 242,
      "ģ": 243,
      "Ĥ": 244,
      "ĥ": 245,
      "Ħ": 246,
      "ħ": 247,
      "Ĩ": 248,
      "ĩ": 249,
      "Ī": 250,
      "ī": 251,
      "Ĭ": 252,
      "ĭ": 253,
      "Į": 254,
      "į": 255,
      "İ": 256,
      "ı": 257,
      "Ĳ": 258,
      "ĳ": 259,
      "Ĵ": 260,
      "ĵ": 261,
      "Ķ": 262,
      "ķ": 263,
      "ĸ": 264,
      "Ĺ": 265,
      "ĺ": 266,
      "Ļ": 267,
      "ļ": 268,
      "Ľ": 269,
      "ľ": 270,
      "Ŀ": 271,
      "ŀ": 272,
      "Ł": 273,
      "ł": 274,
      "Ń": 275,
      "en": 276,
      "ä¸": 277,
      "er": 278,
      "Ġt": 279,
      "an": 280,
      "he": 281,
      "Ġd": 282,
      "in": 283,
      "äº": 284,
      "Ġw": 285,
      "at": 286,
      "çļ": 287,
      "çļĦ": 288,
      "Ġo": 289,
      "Ġ.": 290,
      "Ġm": 291,
      "ä»": 292,
      "Ġs": 293,
      "æĪ": 294,
      "Ġa": 295,
      "Ġb": 296,
      "ä½": 297,
      "et": 298,
      "è¿": 299,
      "æĪĳ": 300,
      "ar": 301,
      "is": 302,
      "or": 303,
      "ou": 304,
      "æĺ": 305,
      "Ġg": 306,
      "Ġv": 307,
      "el": 308,
      "Ġh": 309,
      "ij": 310,
      "it": 311,
      "æĺ¯": 312,
      "Ġn": 313,
      "ä½ł": 314,
      "on": 315,
      "äºĨ": 316,
      "Ġhe": 317,
      "å¤": 318,
      "Ġthe": 319,
      "es": 320,
      "ä¹": 321,
      "æľ": 322,
      "ed": 323,
      "åı": 324,
      "åĲ": 325,
      "å°": 326,
      "ä¸į": 327,
      "ä¸Ģ": 328,
      "Ġz": 329,
      "Ġde": 330,
      "ch": 331,
      "ing": 332,
      "Ġe": 333,
      "and": 334,
      "Ġl": 335,
      "è¯": 336,
      "Ġj": 337,
      "Ġp": 338,
      "è¿Ļ": 339,
      "Ġk": 340,
      "å®": 341,
      "al": 342,
      "Ġin": 343,
      "åľ": 344,
      "åĪ": 345,
      "ie": 346,
      "re": 347,
      "Ġf": 348,
      "as": 349,
      "Ġc": 350,
      "om": 351,
      "Ġth": 352,
      "aar": 353,
      "å¥": 354,
      "Ġto": 355,
      "åħ": 356,
      "Ġis": 357,
      "æĿ": 358,
      "ä¸ª": 359,
      "OT": 360,
      "MOT": 361,
      "æľī": 362,
      "Ġ,": 363,
      "å°±": 364,
      "Ġy": 365,
      "CH": 366,
      "ll": 367,
      "CHI": 368,
      "ãĢ": 369,
      "Ġje": 370,
      "st": 371,
      "åĳ": 372,
      "ĥ½": 373,
      "åľ¨": 374,
      "Ġof": 375,
      "Ġeen": 376,
      "ä»¬": 377,
      "åŃ": 378,
      "Ġyou": 379,
      "å¾": 380,
      "ç»": 381,
      "ig": 382,
      "Ġhet": 383,
      "oo": 384,
      "ãĢĤ": 385,
      "ä»ĸ": 386,
      "ik": 387,
      "æī": 388,
      "Ġand": 389,
      "oor": 390,
      "åķ": 391,
      "ä¹Ī": 392,
      "Ġon": 393,
      "äºº": 394,
      "æĿ¥": 395,
      "ĠæĪĳ": 396,
      "le": 397,
      "Ġå": 398,
      "çĶ": 399,
      "ĠI": 400,
      "æĹ": 401,
      "çľ": 402,
      "ot": 403,
      "è¯´": 404,
      "id": 405,
      "ad": 406,
      "Ġ?": 407,
      "Ġu": 408,
      "iet": 409,
      "éĤ": 410,
      "Ġvan": 411,
      "åķĬ": 412,
      "ä¼": 413,
      "Ġen": 414,
      "åĽ": 415,
      "éĤ£": 416,
      "ere": 417,
      "å¥½": 418,
      "Ġge": 419,
      "Ġbe": 420,
      "..": 421,
      "Ġst": 422,
      "'s": 423,
      "am": 424,
      "ow": 425,
      "Ġr": 426,
      "æĢ": 427,
      "Ġme": 428,
      "åİ": 429,
      "Ġwe": 430,
      "ak": 431,
      "ur": 432,
      "Ġä½ł": 433,
      "æ²": 434,
      "æĥ": 435,
      "¦ģ": 436,
      "èµ": 437,
      "ut": 438,
      "è¦ģ": 439,
      "il": 440,
      "ijn": 441,
      "ve": 442,
      "è®": 443,
      "éĩ": 444,
      "åĬ": 445,
      "å¿": 446,
      "ent": 447,
      "å¤§": 448,
      "Ġit": 449,
      "ver": 450,
      "åį": 451,
      "åĩ": 452,
      "Ġop": 453,
      "èĢ": 454,
      "Ġdat": 455,
      "ay": 456,
      "è§": 457,
      "oe": 458,
      "ag": 459,
      "åĪ°": 460,
      "cht": 461,
      "Ġniet": 462,
      "Ġver": 463,
      "ic": 464,
      "Ġwas": 465,
      "ä¸Ĭ": 466,
      "åŃĲ": 467,
      "æĬ": 468,
      "ee": 469,
      "å·": 470,
      "çİ": 471,
      "å¹": 472,
      "å¸": 473,
      "å¼": 474,
      "æ²¡": 475,
      "ä¹Ł": 476,
      "åĨ": 477,
      "Ik": 478,
      "Ġte": 479,
      "de": 480,
      "éĥ½": 481,
      "å¯": 482,
      "un": 483,
      "Ġik": 484,
      "Ġthat": 485,
      "den": 486,
      "åİ»": 487,
      "im": 488,
      "è¿ĺ": 489,
      "çľĭ": 490,
      "ol": 491,
      "å¾Ĺ": 492,
      "Ġwh": 493,
      "ĠS": 494,
      "æł": 495,
      "ĠD": 496,
      "ra": 497,
      "åĵ": 498,
      "å°ı": 499,
      "ä¼ļ": 500,
      "éĹ": 501,
      "gen": 502,
      "æĸ": 503,
      "åı¯": 504,
      "èĥ½": 505,
      "se": 506,
      "ĠM": 507,
      "Ġ'": 508,
      "è·": 509,
      "Ġdo": 510,
      "ä¸º": 511,
      "Ħ¿": 512,
      "ijk": 513,
      "est": 514,
      "æŃ": 515,
      "Ġal": 516,
      "æĹ¶": 517,
      "çĿ": 518,
      "der": 519,
      "ĠA": 520,
      "Ġer": 521,
      "ro": 522,
      "ĠH": 523,
      "ä»¥": 524,
      "th": 525,
      "ä»Ģ": 526,
      "ä»Ģä¹Ī": 527,
      "ĠT": 528,
      "å¦": 529,
      "å¤©": 530,
      "åĦ¿": 531,
      "åĴ": 532,
      "ä¸ĭ": 533,
      "å®¶": 534,
      "éĿ": 535,
      "è¿ĩ": 536,
      "éģ": 537,
      "ĠB": 538,
      "åĲİ": 539,
      "ven": 540,
      "åº": 541,
      "Ġze": 542,
      "ant": 543,
      "ir": 544,
      "è¡": 545,
      "Ġvoor": 546,
      "'t": 547,
      "èĩ": 548,
      "æĥ³": 549,
      "éĢ": 550,
      "äºĭ": 551,
      "çĪ": 552,
      "çĽ": 553,
      "ft": 554,
      "çĿĢ": 555,
      "ap": 556,
      "åĳ¢": 557,
      "ac": 558,
      "ion": 559,
      "ä¸Ģä¸ª": 560,
      "Ġzijn": 561,
      "us": 562,
      "å¯¹": 563,
      "æķ": 564,
      "op": 565,
      "Ġmet": 566,
      "Ġgo": 567,
      "ken": 568,
      "ly": 569,
      "Ġheb": 570,
      "Ġmo": 571,
      "Ġre": 572,
      "æ¯": 573,
      "è°": 574,
      "è¿Ļä¸ª": 575,
      "éĩĮ": 576,
      "ier": 577,
      "Ġfor": 578,
      "æĭ": 579,
      "æĦ": 580,
      "ht": 581,
      "åĩº": 582,
      "åĲĹ": 583,
      "ell": 584,
      "åĲ§": 585,
      "ers": 586,
      "å¤ļ": 587,
      "çī": 588,
      "aat": 589,
      "ĠC": 590,
      "å½": 591,
      "æ°": 592,
      "çŁ": 593,
      "çĶŁ": 594,
      "æĪĳä»¬": 595,
      "åľ°": 596,
      "Ġ...": 597,
      "ç§": 598,
      "æŀ": 599,
      "ge": 600,
      "å°±æĺ¯": 601,
      "ç»Ļ": 602,
      "Ġall": 603,
      "éģĵ": 604,
      "ill": 605,
      "çİ°": 606,
      "çĤ": 607,
      "ld": 608,
      "Ġno": 609,
      "çĦ": 610,
      "èĩª": 611,
      "Ġ1": 612,
      "Ġdie": 613,
      "ĠW": 614,
      "Ġwor": 615,
      "ok": 616,
      "è¾": 617,
      "ä¸Ń": 618,
      "çĦ¶": 619,
      "æĶ": 620,
      "ct": 621,
      "åģ": 622,
      "ith": 623,
      "ien": 624,
      "æ¬": 625,
      "å¿ĥ": 626,
      "åĢ": 627,
      "æł·": 628,
      "ter": 629,
      "Ġha": 630,
      "Ġè¿Ļ": 631,
      "åĴĮ": 632,
      "è·Ł": 633,
      "Ġaan": 634,
      "aan": 635,
      "å¾Ī": 636,
      "ight": 637,
      "Ġan": 638,
      "çĤ¹": 639,
      "em": 640,
      "è´": 641,
      "èĢģ": 642,
      "æİ": 643,
      "å¥¹": 644,
      "ä¿": 645,
      "å§": 646,
      "æĬĬ": 647,
      "Ġle": 648,
      "çŁ¥": 649,
      "ĠP": 650,
      "je": 651,
      "æĢİ": 652,
      "ĠE": 653,
      "um": 654,
      "åĮ": 655,
      "ome": 656,
      "Ġ\"": 657,
      "æ²¡æľī": 658,
      "ä¸įæĺ¯": 659,
      "å±": 660,
      "Ġwith": 661,
      "æĢİä¹Ī": 662,
      "Ġwat": 663,
      "åī": 664,
      "ĠN": 665,
      "ze": 666,
      "ĠG": 667,
      "Ġom": 668,
      "éĻ": 669,
      "èµ·": 670,
      "Ġover": 671,
      "all": 672,
      "Ġuit": 673,
      "ĠJ": 674,
      "æ³": 675,
      "æĮ": 676,
      "ĠéĤ£": 677,
      "Ġsp": 678,
      "åĳĢ": 679,
      "hat": 680,
      "xx": 681,
      "Ġas": 682,
      "ust": 683,
      "ul": 684,
      "çľŁ": 685,
      "åĪ«": 686,
      "ind": 687,
      "AR": 688,
      "ist": 689,
      "éķ": 690,
      "å¹´": 691,
      "Ġhad": 692,
      "eer": 693,
      "if": 694,
      "Ġals": 695,
      "nd": 696,
      "çŃ": 697,
      "åĽŀ": 698,
      "ĠL": 699,
      "éĿ¢": 700,
      "è¯Ŀ": 701,
      "å¼Ģ": 702,
      "ah": 703,
      "éĺ": 704,
      "è¡Į": 705,
      "Ġat": 706,
      "åĽ½": 707,
      "eld": 708,
      "AT": 709,
      "Ġzo": 710,
      "è½": 711,
      "ĠR": 712,
      "Ġkn": 713,
      "ast": 714,
      "Ġnot": 715,
      "çº": 716,
      "IN": 717,
      "é¢": 718,
      "ä¹ĭ": 719,
      "æĤ": 720,
      "ce": 721,
      "æĥħ": 722,
      "åıĳ": 723,
      "çŁ¥éģĵ": 724,
      "æ´": 725,
      "ET": 726,
      "Ġpl": 727,
      "è®©": 728,
      "åĸ": 729,
      "ould": 730,
      "ĠO": 731,
      "Ġhave": 732,
      "LD": 733,
      "...": 734,
      "Ġmaar": 735,
      "èµ°": 736,
      "çĲ": 737,
      "åıª": 738,
      "Ġ2": 739,
      "çĻ": 740,
      "éķ¿": 741,
      "å®ļ": 742,
      "æĪĲ": 743,
      "art": 744,
      "ç»ı": 745,
      "æīĢ": 746,
      "Ġthis": 747,
      "ug": 748,
      "CHILD": 749,
      "ang": 750,
      "æĦı": 751,
      "ood": 752,
      "å·±": 753,
      "nen": 754,
      "Ġnaar": 755,
      "å®ŀ": 756,
      "è§ī": 757,
      "TAR": 758,
      "GET": 759,
      "INV": 760,
      "æµ": 761,
      "TARGET": 762,
      "èĩªå·±": 763,
      "os": 764,
      "çĶ¨": 765,
      "ook": 766,
      "ab": 767,
      "sen": 768,
      "Ġ!": 769,
      "åģļ": 770,
      "Ġä»ĸ": 771,
      "We": 772,
      "Ġsh": 773,
      "åĢĻ": 774,
      "Ġare": 775,
      "Ġdan": 776,
      "rou": 777,
      "ä½Ĩ": 778,
      "een": 779,
      "ond": 780,
      "Ġ(": 781,
      "aal": 782,
      "ĠF": 783,
      "Ġ-": 784,
      "ru": 785,
      "çİ°åľ¨": 786,
      "æľĢ": 787,
      "rij": 788,
      "äºĽ": 789,
      "Ġmoet": 790,
      "Het": 791,
      "ç¬": 792,
      "æĹ¶åĢĻ": 793,
      "ink": 794,
      "Ġne": 795,
      "ri": 796,
      "ç®": 797,
      "Ġsch": 798,
      "åįģ": 799,
      "Ġfr": 800,
      "æīĵ": 801,
      "te": 802,
      "Ġher": 803,
      "åīį": 804,
      "æĸ¹": 805,
      "å¦Ī": 806,
      "å½ĵ": 807,
      "ĠK": 808,
      "elijk": 809,
      "ess": 810,
      "åĿ": 811,
      "Ġthey": 812,
      "èĬ": 813,
      "ten": 814,
      "Je": 815,
      "Ġhij": 816,
      "Ġbl": 817,
      "Ġcan": 818,
      "Ġhis": 819,
      "be": 820,
      "we": 821,
      "Ġone": 822,
      "éĴ": 823,
      "Ġben": 824,
      "Ġwer": 825,
      "ard": 826,
      "æ¸": 827,
      "ich": 828,
      "ä¸ī": 829,
      "ĠV": 830,
      "Ġknow": 831,
      "Ġman": 832,
      "ER": 833,
      "å¤ª": 834,
      "ç«": 835,
      "è§ģ": 836,
      "out": 837,
      "ain": 838,
      "éĽ": 839,
      "Ġgr": 840,
      "Ġbij": 841,
      "åŃ¦": 842,
      "Ġyour": 843,
      "ull": 844,
      "pen": 845,
      "Ã©": 846,
      "åĪĨ": 847,
      "åĬ¨": 848,
      "Ġup": 849,
      "æĻ": 850,
      "ä¸¤": 851,
      "Ġwel": 852,
      "æīĭ": 853,
      "Ġdon": 854,
      "Ġook": 855,
      "åĲĥ": 856,
      "èĤ": 857,
      "Ġthere": 858,
      "éĹ®": 859,
      "Ġkan": 860,
      "æĤ¨": 861,
      "eah": 862,
      "ry": 863,
      "eel": 864,
      "ck": 865,
      "äºĮ": 866,
      "æĺİ": 867,
      "ike": 868,
      "èĢĮ": 869,
      "oh": 870,
      "ç§į": 871,
      "äºİ": 872,
      "ĠDe": 873,
      "Ġpro": 874,
      "sch": 875,
      "æĽ": 876,
      "æ±": 877,
      "é¡": 878,
      "éļ": 879,
      "æŀľ": 880,
      "acht": 881,
      "éĹ´": 882,
      "åı¯ä»¥": 883,
      "èº": 884,
      "åĲ¬": 885,
      "Ġwil": 886,
      "eft": 887,
      "Ġwaar": 888,
      "Ġshe": 889,
      "Wat": 890,
      "her": 891,
      "è¢": 892,
      "Ġor": 893,
      "aak": 894,
      "Ġwhat": 895,
      "åĨį": 896,
      "è¶": 897,
      "Ġnog": 898,
      "Ġhier": 899,
      "ank": 900,
      "Ġdoor": 901,
      "å¥³": 902,
      "é£": 903,
      "De": 904,
      "æŃ£": 905,
      "Ġget": 906,
      "ä»İ": 907,
      "ies": 908,
      "ä½ľ": 909,
      "åıĪ": 910,
      "ä»ĸä»¬": 911,
      "æģ": 912,
      "Ġch": 913,
      "Ġä¸į": 914,
      "Ġso": 915,
      "åħ¬": 916,
      "ation": 917,
      "ç¾": 918,
      "æ¯Ķ": 919,
      "ack": 920,
      "Ġmy": 921,
      "You": 922,
      "ore": 923,
      "Ġtw": 924,
      "å®ĥ": 925,
      "ip": 926,
      "Ġkun": 927,
      "åĲĮ": 928,
      "Ġpr": 929,
      "å¤´": 930,
      "ake": 931,
      "Ġab": 932,
      "ong": 933,
      "Ze": 934,
      "åħ¶": 935,
      "ine": 936,
      "è¿Ľ": 937,
      "og": 938,
      "Ġsa": 939,
      "æī¾": 940,
      "åħ³": 941,
      "elf": 942,
      "Ġout": 943,
      "åĺ": 944,
      "Ġaf": 945,
      "ä¸»": 946,
      "éĶ": 947,
      "æľ¬": 948,
      "æ¬¡": 949,
      "ben": 950,
      "åħĪ": 951,
      "Dat": 952,
      "æīį": 953,
      "'re": 954,
      "æ³ķ": 955,
      "ä¾": 956,
      "HER": 957,
      "Ġheeft": 958,
      "è§īå¾Ĺ": 959,
      "Ġkom": 960,
      "eren": 961,
      "Ġlike": 962,
      "00": 963,
      "èĦ": 964,
      "èº«": 965,
      "çĭ": 966,
      "uit": 967,
      "na": 968,
      "uur": 969,
      "è°¢": 970,
      "od": 971,
      "che": 972,
      "łä¸º": 973,
      "ä»Ĭ": 974,
      "ĠThe": 975,
      "å¹²": 976,
      "En": 977,
      "å¦Ĥ": 978,
      "é«": 979,
      "Ġmijn": 980,
      "Ġdit": 981,
      "æĦŁ": 982,
      "Ġcom": 983,
      "Ġfrom": 984,
      "Ġhim": 985,
      "ide": 986,
      "çŃī": 987,
      "ä½łä»¬": 988,
      "é«ĺ": 989,
      "åĬĽ": 990,
      "è¿Ļä¹Ī": 991,
      "ste": 992,
      "Ġgoed": 993,
      "ort": 994,
      "éĤ£ä¸ª": 995,
      "Ġbut": 996,
      "one": 997,
      "è¢«": 998,
      "Ġex": 999,
      "The": 1000,
      "èĥ": 1001,
      "Ġhebben": 1002,
      "æĶ¾": 1003,
      "au": 1004,
      "Ġmen": 1005,
      "ber": 1006,
      "å£": 1007,
      "Ġcon": 1008,
      "ele": 1009,
      "ame": 1010,
      "ç½": 1011,
      "¥¿": 1012,
      "å·²": 1013,
      "Ġword": 1014,
      "è¾¹": 1015,
      "ls": 1016,
      "xxx": 1017,
      "æ°Ķ": 1018,
      "Ġse": 1019,
      "ijd": 1020,
      "å¿«": 1021,
      "åħ¨": 1022,
      "åŃ©": 1023,
      "æį": 1024,
      "èĭ": 1025,
      "ke": 1026,
      "çĦ¶åĲİ": 1027,
      "çģ": 1028,
      "ĠæĪĳä»¬": 1029,
      "Ġhem": 1030,
      "you": 1031,
      "è¿Ļæł·": 1032,
      "ĥı": 1033,
      "Ġsu": 1034,
      "éĥ": 1035,
      "çĥ": 1036,
      "èģ": 1037,
      "é©": 1038,
      "æ¡": 1039,
      "ç©": 1040,
      "æĪĳçļĦ": 1041,
      "çķ": 1042,
      "ive": 1043,
      "FAT": 1044,
      "MOTHER": 1045,
      "no": 1046,
      "aten": 1047,
      "çĲĨ": 1048,
      "Ġwere": 1049,
      "çĶµ": 1050,
      "éĩį": 1051,
      "ingen": 1052,
      "é¢ĺ": 1053,
      "åºĶ": 1054,
      "Ġbr": 1055,
      "çļĦæĹ¶åĢĻ": 1056,
      "æŁ": 1057,
      "Ġgeen": 1058,
      "Ġby": 1059,
      "çĪ¸": 1060,
      "Ġbo": 1061,
      "'m": 1062,
      "what": 1063,
      "Ġbet": 1064,
      "Ġthem": 1065,
      "å¸¸": 1066,
      "Ġsee": 1067,
      "ree": 1068,
      "ç¥": 1069,
      "Ġwant": 1070,
      "è¥¿": 1071,
      "æĹł": 1072,
      "own": 1073,
      "Ġgot": 1074,
      "è¯¥": 1075,
      "åĥı": 1076,
      "æ°´": 1077,
      "çĽ¸": 1078,
      "here": 1079,
      "ä½Ĩæĺ¯": 1080,
      "ä¸ľ": 1081,
      "åĵª": 1082,
      "our": 1083,
      "ç´": 1084,
      "qu": 1085,
      "ä½ĵ": 1086,
      "æĹ¥": 1087,
      "åŁ": 1088,
      "oed": 1089,
      "èĪ": 1090,
      "Ġdid": 1091,
      "ff": 1092,
      "Ĺ¯": 1093,
      "å¨": 1094,
      "çĽ´": 1095,
      "èī": 1096,
      "éĴ±": 1097,
      "ç³": 1098,
      "Ġdeze": 1099,
      "çĻ½": 1100,
      "çī©": 1101,
      "è¿ĺæĺ¯": 1102,
      "oon": 1103,
      "iv": 1104,
      "Ġabout": 1105,
      "'ll": 1106,
      "çĪ±": 1107,
      "itt": 1108,
      "Ġhaar": 1109,
      "å¤ĸ": 1110,
      "Ġæĺ¯": 1111,
      "çī¹": 1112,
      ",\"": 1113,
      "Ġ19": 1114,
      "Ġmeer": 1115,
      "Ġsome": 1116,
      "ally": 1117,
      "uis": 1118,
      "ç¦": 1119,
      "è§£": 1120,
      "æ´»": 1121,
      "orm": 1122,
      "uk": 1123,
      "æ¬¢": 1124,
      "æīĢä»¥": 1125,
      "oot": 1126,
      "çĮ": 1127,
      "ĠIn": 1128,
      "åĸľ": 1129,
      "ied": 1130,
      "oord": 1131,
      "pp": 1132,
      "æĸ°": 1133,
      "Ġdaar": 1134,
      "æŃ»": 1135,
      "åı«": 1136,
      "æľº": 1137,
      "æı": 1138,
      "Ġsl": 1139,
      "Hij": 1140,
      "eten": 1141,
      "Ġwill": 1142,
      "Ġun": 1143,
      "Ġdr": 1144,
      "pt": 1145,
      "èĻ": 1146,
      "aken": 1147,
      "Ġthink": 1148,
      "ä½į": 1149,
      "çļĦäºº": 1150,
      "è°ģ": 1151,
      "Ġter": 1152,
      "elen": 1153,
      "å·¥": 1154,
      ".\"": 1155,
      "Ġgaan": 1156,
      "ia": 1157,
      "åĵ¥": 1158,
      "èĬ±": 1159,
      "çİĭ": 1160,
      "Ġå°±": 1161,
      "ice": 1162,
      "åıĭ": 1163,
      "ä¿¡": 1164,
      "Ġjij": 1165,
      "å©": 1166,
      "He": 1167,
      "Ġonder": 1168,
      "ä½łçļĦ": 1169,
      "åĩł": 1170,
      "èį": 1171,
      "çľŁçļĦ": 1172,
      "å¸Ī": 1173,
      "éľ": 1174,
      "å®Į": 1175,
      "ick": 1176,
      "zen": 1177,
      "Ġhere": 1178,
      "Ġgeb": 1179,
      "Ġvr": 1180,
      "æİ¥": 1181,
      "å·²ç»ı": 1182,
      "åĪļ": 1183,
      "Ġnu": 1184,
      "Ġwordt": 1185,
      "å®ī": 1186,
      "å°ĳ": 1187,
      "Ġel": 1188,
      "ç¡": 1189,
      "Ġsaid": 1190,
      "Ġdoen": 1191,
      "oug": 1192,
      "ES": 1193,
      "per": 1194,
      "é»": 1195,
      "mer": 1196,
      "æĿ¥äºĨ": 1197,
      "pl": 1198,
      "Ġjust": 1199,
      "ç¬¬": 1200,
      "OR": 1201,
      "å¸¦": 1202,
      "icht": 1203,
      "oek": 1204,
      "Ġlook": 1205,
      "to": 1206,
      "ate": 1207,
      "Ġworden": 1208,
      "ä¸Ģä¸ĭ": 1209,
      "ãĢĤ\"": 1210,
      "è¿ĺæľī": 1211,
      "æ¶": 1212,
      "åŃ©åŃĲ": 1213,
      "ings": 1214,
      "ige": 1215,
      "åı¯èĥ½": 1216,
      "ä½ı": 1217,
      "bl": 1218,
      "åĲĪ": 1219,
      "åĳĬ": 1220,
      "ç¾İ": 1221,
      "ä¸įèĥ½": 1222,
      "å§Ĳ": 1223,
      "çĹ": 1224,
      "é©¬": 1225,
      "Ġweet": 1226,
      "éħ": 1227,
      "lijk": 1228,
      "Ġzou": 1229,
      "æ¼": 1230,
      "av": 1231,
      "land": 1232,
      "ime": 1233,
      "è½¦": 1234,
      "Ġkl": 1235,
      "ãĢģ": 1236,
      "ç»ĵ": 1237,
      "Ġbeg": 1238,
      "ker": 1239,
      "yeah": 1240,
      "ä»Ĭå¤©": 1241,
      "çĸ": 1242,
      ":\"": 1243,
      "Ġwould": 1244,
      "æĢĿ": 1245,
      "åĪ°äºĨ": 1246,
      "åıĺ": 1247,
      "æĽ´": 1248,
      "éĥ½æĺ¯": 1249,
      "Ġsay": 1250,
      "!\"": 1251,
      "åľº": 1252,
      "Ġgaat": 1253,
      "çĻ¾": 1254,
      "éª": 1255,
      "ite": 1256,
      "Ġzeg": 1257,
      "æľĪ": 1258,
      "éĥ¨": 1259,
      "Ġthen": 1260,
      "åĨĽ": 1261,
      "é¦": 1262,
      "Ġif": 1263,
      "IG": 1264,
      "jes": 1265,
      "Ġhou": 1266,
      "äºĶ": 1267,
      "].": 1268,
      "hing": 1269,
      "ullie": 1270,
      "Waar": 1271,
      "åĽłä¸º": 1272,
      "'ve": 1273,
      "éļ¾": 1274,
      "ĠHe": 1275,
      "Ġbed": 1276,
      "éĹ¨": 1277,
      "agen": 1278,
      "Ġåĵ": 1279,
      "ool": 1280,
      "iets": 1281,
      "EST": 1282,
      "åĹ¯": 1283,
      "Ġwho": 1284,
      "men": 1285,
      "äº²": 1286,
      "éĿŀ": 1287,
      "ost": 1288,
      "å±±": 1289,
      "are": 1290,
      "ek": 1291,
      "éĶĻ": 1292,
      "$$": 1293,
      "ç¤": 1294,
      "é¥": 1295,
      "Ġus": 1296,
      "Ġgew": 1297,
      "Ġga": 1298,
      "rouw": 1299,
      "Ġar": 1300,
      "Ġany": 1301,
      "ATOR": 1302,
      "ESTIG": 1303,
      "INVESTIG": 1304,
      "INVESTIGATOR": 1305,
      "è¯·": 1306,
      "æ»": 1307,
      "èĲ": 1308,
      "Ġnow": 1309,
      "Ġvol": 1310,
      "æŃ¤": 1311,
      "Ġhand": 1312,
      "oll": 1313,
      "Ġbent": 1314,
      "ĠZ": 1315,
      "åı£": 1316,
      "Ġright": 1317,
      "uw": 1318,
      "ound": 1319,
      "ud": 1320,
      "åĬŀ": 1321,
      "Ġcl": 1322,
      "Ġhoe": 1323,
      "that": 1324,
      "æĢ»": 1325,
      "äºĭåĦ¿": 1326,
      "éĢļ": 1327,
      "ach": 1328,
      "ç¨": 1329,
      "åĵĪ": 1330,
      "è·¯": 1331,
      "Ġwhen": 1332,
      "Ġbest": 1333,
      "ne": 1334,
      "dat": 1335,
      "åıĹ": 1336,
      "Ġbel": 1337,
      "æľĭ": 1338,
      "åĽĽ": 1339,
      "æ·": 1340,
      "ĠCh": 1341,
      "Ġmij": 1342,
      "æ¯ı": 1343,
      "eder": 1344,
      "Ġä¸Ģ": 1345,
      "çľ¼": 1346,
      "ç²": 1347,
      "å°Ĩ": 1348,
      "Ġag": 1349,
      "æľĭåıĭ": 1350,
      "å¤§å®¶": 1351,
      "ose": 1352,
      "Ġæľī": 1353,
      "Ġeven": 1354,
      "It": 1355,
      "ĠåĽ": 1356,
      "als": 1357,
      "èĢħ": 1358,
      "Ġdown": 1359,
      "éĺŁ": 1360,
      "åĲį": 1361,
      "ĠSt": 1362,
      "Ġå¦": 1363,
      "æħ": 1364,
      "Ġå¥½": 1365,
      "åĸľæ¬¢": 1366,
      "ä¹Łä¸į": 1367,
      "åĬł": 1368,
      "Ġont": 1369,
      "ä¸ļ": 1370,
      "å¹³": 1371,
      "åĲĳ": 1372,
      "è®¤": 1373,
      "åĺĽ": 1374,
      "ous": 1375,
      "åĴ±": 1376,
      "Ġ20": 1377,
      "els": 1378,
      "In": 1379,
      "ass": 1380,
      "atie": 1381,
      "ther": 1382,
      "æĭ¿": 1383,
      "ittle": 1384,
      "way": 1385,
      "Ġkunnen": 1386,
      "æĹ¶éĹ´": 1387,
      "?\"": 1388,
      "Maar": 1389,
      "ĠU": 1390,
      "Ġoff": 1391,
      "ç¡®": 1392,
      "ble": 1393,
      "å¸®": 1394,
      "Ġjou": 1395,
      "ä»»": 1396,
      "è®°": 1397,
      "Ġbeen": 1398,
      "Als": 1399,
      "Ġons": 1400,
      "ä¸ĩ": 1401,
      "nt": 1402,
      "ç®Ĺ": 1403,
      "çł": 1404,
      "enk": 1405,
      "åº¦": 1406,
      "ä¹Łæĺ¯": 1407,
      "è¡¨": 1408,
      "éĢī": 1409,
      "ç³»": 1410,
      "æĸĩ": 1411,
      "Ġback": 1412,
      "Ġgoing": 1413,
      "ew": 1414,
      "other": 1415,
      "ĠIt": 1416,
      "äºĨä¸Ģ": 1417,
      "Ġgel": 1418,
      "ä»¶": 1419,
      "å£°": 1420,
      "ans": 1421,
      "ä¿Ŀ": 1422,
      "heid": 1423,
      "ear": 1424,
      "age": 1425,
      "åı¯æĺ¯": 1426,
      "ause": 1427,
      "ity": 1428,
      "igen": 1429,
      "äºĭæĥħ": 1430,
      "Ġhebt": 1431,
      "iss": 1432,
      "çļĦè¯Ŀ": 1433,
      "Ja": 1434,
      "çĶ·": 1435,
      "Ġhas": 1436,
      "é¸": 1437,
      "åħ¶å®ŀ": 1438,
      "çĲĥ": 1439,
      "mand": 1440,
      "Nee": 1441,
      "Ġgev": 1442,
      "æµ·": 1443,
      "Ġvery": 1444,
      "ç®¡": 1445,
      "raag": 1446,
      "å¤Ħ": 1447,
      "Ġcould": 1448,
      "Ġzal": 1449,
      "Ġput": 1450,
      "Ġtime": 1451,
      "aren": 1452,
      "ect": 1453,
      "racht": 1454,
      "Ġlittle": 1455,
      "æĹ©": 1456,
      "æĢ§": 1457,
      "è±": 1458,
      "onder": 1459,
      "omen": 1460,
      "ace": 1461,
      "Een": 1462,
      "å²": 1463,
      "Ġeer": 1464,
      "Ġveel": 1465,
      "Ġgen": 1466,
      "Ġsn": 1467,
      "çĪ·": 1468,
      "Ġweg": 1469,
      "ure": 1470,
      "å¼ł": 1471,
      "æĴ": 1472,
      "Ġåľ¨": 1473,
      "Ġhel": 1474,
      "Ġwhich": 1475,
      "åĳ½": 1476,
      "éĵ": 1477,
      "Ġjullie": 1478,
      "éĩı": 1479,
      "Ġna": 1480,
      "oof": 1481,
      "Ġtot": 1482,
      "åĮĸ": 1483,
      "eden": 1484,
      "Ġiets": 1485,
      "Ġ3": 1486,
      "ire": 1487,
      "Ġmin": 1488,
      "æ¸ħ": 1489,
      "åĶ": 1490,
      "æľĽ": 1491,
      "ish": 1492,
      "éĤ£ä¹Ī": 1493,
      "ç¦»": 1494,
      "Ġtheir": 1495,
      "çĽ®": 1496,
      "Ġhun": 1497,
      "ĠHet": 1498,
      "ert": 1499,
      "Ġmore": 1500,
      "ç»ĻæĪĳ": 1501,
      "æĬ¥": 1502,
      "è¯ī": 1503,
      "wer": 1504,
      "æ®": 1505,
      "æĻļ": 1506,
      "ä¸Ģå®ļ": 1507,
      "æıĲ": 1508,
      "åħī": 1509,
      "ade": 1510,
      "yes": 1511,
      "åĩºæĿ¥": 1512,
      "Ġxxx": 1513,
      "Ġzit": 1514,
      "Oh": 1515,
      "alk": 1516,
      "ä¸Ģèµ·": 1517,
      "ä»ĸçļĦ": 1518,
      "Ġged": 1519,
      "ä¸įä¼ļ": 1520,
      "æĳ": 1521,
      "ä¸İ": 1522,
      "Ã«": 1523,
      "Ġgood": 1524,
      "Ġfl": 1525,
      "ä½ķ": 1526,
      "int": 1527,
      "æ¡Ī": 1528,
      "oel": 1529,
      "amen": 1530,
      "Ġweer": 1531,
      "åıį": 1532,
      "iend": 1533,
      "Ġsom": 1534,
      "çļĦæĺ¯": 1535,
      "éĩĳ": 1536,
      "Ġä½Ĩæĺ¯": 1537,
      "Ġpe": 1538,
      "my": 1539,
      "aakt": 1540,
      "oc": 1541,
      "åİŁ": 1542,
      "Ġzien": 1543,
      "ä¸ľè¥¿": 1544,
      "è¶Ĭ": 1545,
      "æĪĺ": 1546,
      "pr": 1547,
      "æ°ĳ": 1548,
      "åħ«": 1549,
      "çħ": 1550,
      "çŃĶ": 1551,
      "æĢķ": 1552,
      "éĹ®é¢ĺ": 1553,
      "æ¢": 1554,
      "la": 1555,
      "me": 1556,
      "ief": 1557,
      "cause": 1558,
      "åĳĺ": 1559,
      "ç±": 1560,
      "ob": 1561,
      "å§ĭ": 1562,
      "ĠFr": 1563,
      "çı": 1564,
      "ä¸ºä»Ģä¹Ī": 1565,
      "ger": 1566,
      "ment": 1567,
      "ç¼": 1568,
      "æķħ": 1569,
      "å¥½çļĦ": 1570,
      "act": 1571,
      "å¦Īå¦Ī": 1572,
      "yl": 1573,
      "åºĶè¯¥": 1574,
      "ä¸ĸ": 1575,
      "æ£": 1576,
      "æĪĳå°±": 1577,
      "ater": 1578,
      "Ġå°ı": 1579,
      "ĠçĦ¶åĲİ": 1580,
      "iek": 1581,
      "å¢": 1582,
      "çª": 1583,
      "åħ¥": 1584,
      "end": 1585,
      "innen": 1586,
      "Ġå¯": 1587,
      "ä»£": 1588,
      "ark": 1589,
      "Ġper": 1590,
      "æĲ": 1591,
      "Ġtwo": 1592,
      "the": 1593,
      "What": 1594,
      "èµ·æĿ¥": 1595,
      "And": 1596,
      "ian": 1597,
      "Ġtr": 1598,
      "ä½łè¯´": 1599,
      "éŁ": 1600,
      "Ġå°±æĺ¯": 1601,
      "Ġ[": 1602,
      "Ġmee": 1603,
      "é£İ": 1604,
      "Ġtegen": 1605,
      "of": 1606,
      "äº¤": 1607,
      "Hoe": 1608,
      "oen": 1609,
      "Ġmensen": 1610,
      "old": 1611,
      "åĳĬè¯ī": 1612,
      "ep": 1613,
      "Th": 1614,
      "ä¸ŃåĽ½": 1615,
      "åĨħ": 1616,
      "å¨ĺ": 1617,
      "esch": 1618,
      "Ġterug": 1619,
      "éĢģ": 1620,
      "æĿ¡": 1621,
      "æ¥": 1622,
      "Ġä½łä»¬": 1623,
      "å¤Ł": 1624,
      "ord": 1625,
      "æĪ¿": 1626,
      "Ġå¦Ĥ": 1627,
      "chter": 1628,
      "orn": 1629,
      "Ġtwee": 1630,
      "å½±": 1631,
      "ä»¥åĲİ": 1632,
      "ock": 1633,
      "ä¹Ĳ": 1634,
      "Ġmoeten": 1635,
      "çİ©": 1636,
      "è¿ĳ": 1637,
      "Ġè¿Ļä¸ª": 1638,
      "è£": 1639,
      "ja": 1640,
      "--": 1641,
      "Ġwater": 1642,
      "Ġvert": 1643,
      "ruik": 1644,
      "Er": 1645,
      "ĠæīĢä»¥": 1646,
      "èī²": 1647,
      "æľį": 1648,
      "Ġmaken": 1649,
      "å¼Ł": 1650,
      "iemand": 1651,
      "è°¢è°¢": 1652,
      "Ġeens": 1653,
      "è¿ĻäºĽ": 1654,
      "ä¸Ķ": 1655,
      "wh": 1656,
      "af": 1657,
      "äº§": 1658,
      "Kom": 1659,
      "å®³": 1660,
      "uh": 1661,
      "ç»Ļä½ł": 1662,
      "ase": 1663,
      "æķĻ": 1664,
      "Ġinto": 1665,
      "çĪ¶": 1666,
      "å¾Īå¤ļ": 1667,
      "man": 1668,
      "æĮº": 1669,
      "ä¹°": 1670,
      "Ġmu": 1671,
      "Ġplay": 1672,
      "gel": 1673,
      "äººçļĦ": 1674,
      "Ġå¯¹": 1675,
      "ä¸Ģæł·": 1676,
      "çī¹åĪ«": 1677,
      "å»": 1678,
      "Ġalleen": 1679,
      "è®²": 1680,
      "ä¹Ŀ": 1681,
      "ä¸ĢçĤ¹": 1682,
      "æľŁ": 1683,
      "Ġpart": 1684,
      "sh": 1685,
      "çĨ": 1686,
      "gens": 1687,
      "èĩªå·±çļĦ": 1688,
      "ĠåĴ": 1689,
      "ĠTh": 1690,
      "Ġwerk": 1691,
      "åı¸": 1692,
      "è¿ŀ": 1693,
      "Ġever": 1694,
      "Ġcome": 1695,
      "ĠEn": 1696,
      "ç¥ŀ": 1697,
      "ople": 1698,
      "è¿ľ": 1699,
      "Ġkon": 1700,
      "åºķ": 1701,
      "urn": 1702,
      "Ġother": 1703,
      "ä¸¤ä¸ª": 1704,
      "èİ": 1705,
      "Ġcar": 1706,
      "åĪ©": 1707,
      "Ġtijd": 1708,
      "æ±Ĥ": 1709,
      "eg": 1710,
      "Ġkomt": 1711,
      "æĶ¶": 1712,
      "ä¿©": 1713,
      "ellen": 1714,
      "Ġgez": 1715,
      "èĢĥ": 1716,
      "onna": 1717,
      "Ġzich": 1718,
      "fter": 1719,
      "Ġway": 1720,
      "æķ°": 1721,
      "Yeah": 1722,
      "oren": 1723,
      "sp": 1724,
      "ale": 1725,
      "éĿŀå¸¸": 1726,
      "è·ĳ": 1727,
      "å¾Ģ": 1728,
      "å¼Ģå§ĭ": 1729,
      "ä¹¦": 1730,
      "å©ļ": 1731,
      "ary": 1732,
      "å¼º": 1733,
      "irst": 1734,
      "Ġleven": 1735,
      "ren": 1736,
      "è¿Ļæĺ¯": 1737,
      "çĬ": 1738,
      "ĠÂ": 1739,
      "åĳĥ": 1740,
      "ys": 1741,
      "Ġecht": 1742,
      "çĹħ": 1743,
      "åŁİ": 1744,
      "åħŃ": 1745,
      "Ġlet": 1746,
      "éľĢ": 1747,
      "Ġland": 1748,
      "é¼": 1749,
      "Ġlaat": 1750,
      "Ġkw": 1751,
      "ough": 1752,
      "æł¹": 1753,
      "reat": 1754,
      "Ġtoch": 1755,
      "Dit": 1756,
      "çº¢": 1757,
      "ç©º": 1758,
      "é£ŀ": 1759,
      "æŀĹ": 1760,
      "å¤«": 1761,
      "å¥½äºĨ": 1762,
      "Ġsm": 1763,
      "No": 1764,
      "dig": 1765,
      "çħ§": 1766,
      "ç¬ĳ": 1767,
      "ely": 1768,
      "ote": 1769,
      "æ¼Ķ": 1770,
      "Ġå¦Ĥæŀľ": 1771,
      "é¥Ń": 1772,
      "Ġwerd": 1773,
      "è®¡": 1774,
      "ĠèĢĮ": 1775,
      "è·ŁæĪĳ": 1776,
      "ult": 1777,
      "ild": 1778,
      "åĩĨ": 1779,
      "esp": 1780,
      "ä¸įçŁ¥éģĵ": 1781,
      "ä¾¿": 1782,
      "alen": 1783,
      "erd": 1784,
      "åľ¨è¿Ļ": 1785,
      "Ġsc": 1786,
      "Ġkrij": 1787,
      "ann": 1788,
      "æģ¯": 1789,
      "Ġåĵİ": 1790,
      "åİ»äºĨ": 1791,
      "éĻ¢": 1792,
      "Ġlang": 1793,
      "ç´§": 1794,
      "Ġkomen": 1795,
      "ount": 1796,
      "ä¸ºäºĨ": 1797,
      "Ġagain": 1798,
      "çģ«": 1799,
      "Ġgonna": 1800,
      "ĠJe": 1801,
      "Ġam": 1802,
      "Ġjaar": 1803,
      "åĪ¶": 1804,
      "ooit": 1805,
      "Ġpeople": 1806,
      "åĴ±ä»¬": 1807,
      "èĽ": 1808,
      "åĲĦ": 1809,
      "çľĭçľĭ": 1810,
      "Ġkle": 1811,
      "æľīä¸Ģ": 1812,
      "gt": 1813,
      "Ġhele": 1814,
      "Ġwork": 1815,
      "Ġhow": 1816,
      "ä¸įè¦ģ": 1817,
      "amp": 1818,
      "oop": 1819,
      "çĶ±": 1820,
      "ä¼ł": 1821,
      "Ġwell": 1822,
      "æĦıæĢĿ": 1823,
      "app": 1824,
      "Ġandere": 1825,
      "å¸Ĥ": 1826,
      "Ġå¥¹": 1827,
      "çļĦä¸Ģ": 1828,
      "Ġmake": 1829,
      "èĬĤ": 1830,
      "èħ": 1831,
      "åĸĿ": 1832,
      "æŁ¥": 1833,
      "çķĻ": 1834,
      "Ġdoes": 1835,
      "ci": 1836,
      "ä¸ĥ": 1837,
      "Is": 1838,
      "Ġad": 1839,
      "æļ": 1840,
      "Ġè¦ģ": 1841,
      "air": 1842,
      "do": 1843,
      "åıĳçİ°": 1844,
      "é¾": 1845,
      "åĨ³": 1846,
      "Ġstr": 1847,
      "å¤ĩ": 1848,
      "ç«ĭ": 1849,
      "St": 1850,
      "æķ´": 1851,
      "ance": 1852,
      "å·¥ä½ľ": 1853,
      "Ġä¹Ł": 1854,
      "ä¼¤": 1855,
      "ue": 1856,
      "Ġgek": 1857,
      "æ¯į": 1858,
      "Ġro": 1859,
      "èµ¶": 1860,
      "Ġå¤§": 1861,
      "è¿Ļç§į": 1862,
      "åĿĹ": 1863,
      "elt": 1864,
      "iz": 1865,
      "å¿ħ": 1866,
      "ĠæĢİä¹Ī": 1867,
      "èĮ": 1868,
      "Ġblij": 1869,
      "cc": 1870,
      "Ġwhere": 1871,
      "åĮ»": 1872,
      "ave": 1873,
      "Ġå½": 1874,
      "Ã©n": 1875,
      "é¡¹": 1876,
      "èı": 1877,
      "åŃĹ": 1878,
      "Wh": 1879,
      "Ġcont": 1880,
      "oeg": 1881,
      "gr": 1882,
      "æµģ": 1883,
      "Ġqu": 1884,
      "Ġple": 1885,
      "æĿĢ": 1886,
      "over": 1887,
      "oorden": 1888,
      "å®Ŀ": 1889,
      "ile": 1890,
      "Ġcall": 1891,
      "Ġsomet": 1892,
      "åĿĲ": 1893,
      "å¤§çļĦ": 1894,
      "è®¸": 1895,
      "ä¸ĢçĽ´": 1896,
      "çĶŁæ´»": 1897,
      "å¤±": 1898,
      "Ġdenk": 1899,
      "Ġsec": 1900,
      "åķ¦": 1901,
      "du": 1902,
      "å®¹": 1903,
      "cl": 1904,
      "æĿ¥çļĦ": 1905,
      "ader": 1906,
      "Ġfirst": 1907,
      "ty": 1908,
      "Ġtoo": 1909,
      "Ġact": 1910,
      "oud": 1911,
      "åįĥ": 1912,
      "ĠMr": 1913,
      "è¯Ĩ": 1914,
      "çķĮ": 1915,
      "åı¥": 1916,
      "Ġ4": 1917,
      "ä¹ĭåĲİ": 1918,
      "ç¢": 1919,
      "Ġtra": 1920,
      "Ġmag": 1921,
      "åĽł": 1922,
      "èĢģå¸Ī": 1923,
      "oog": 1924,
      "Ġtake": 1925,
      "iver": 1926,
      "ĠåĽłä¸º": 1927,
      "Ġday": 1928,
      "voor": 1929,
      "ische": 1930,
      "Ġnooit": 1931,
      "Ġgebruik": 1932,
      "Ġheel": 1933,
      "è¿Ĳ": 1934,
      "Ġtell": 1935,
      "hm": 1936,
      "åįķ": 1937,
      "ens": 1938,
      "uid": 1939,
      "ise": 1940,
      "èµĦ": 1941,
      "èµ°äºĨ": 1942,
      "ef": 1943,
      "çľĭåĪ°": 1944,
      "è¯ģ": 1945,
      "çīĩ": 1946,
      "æĪĸ": 1947,
      "è¾ĥ": 1948,
      "æĮĩ": 1949,
      "åı·": 1950,
      "çĿ¡": 1951,
      "æĮģ": 1952,
      "Ġneed": 1953,
      "ä¸įå¥½": 1954,
      "åĮħ": 1955,
      "æħ¢": 1956,
      "èĤ¯": 1957,
      "inder": 1958,
      "ub": 1959,
      "éŁ³": 1960,
      "Ġåį": 1961,
      "åĮĹ": 1962,
      "éľĢè¦ģ": 1963,
      "Ġelk": 1964,
      "æĺ¯ä¸įæĺ¯": 1965,
      "è½»": 1966,
      "ph": 1967,
      "å¹¶": 1968,
      "åħ´": 1969,
      "Ġonly": 1970,
      "ĠåĨ": 1971,
      "Ġim": 1972,
      "Ġvl": 1973,
      "Ġzelf": 1974,
      "åħ³ç³»": 1975,
      "äº®": 1976,
      "æĦ¿": 1977,
      "That": 1978,
      "ä¸Ģæ¬¡": 1979,
      "inn": 1980,
      "æĺŁ": 1981,
      "æ»¡": 1982,
      "ouw": 1983,
      "zelf": 1984,
      "ä½¿": 1985,
      "Ġkijk": 1986,
      "oet": 1987,
      "kt": 1988,
      "ĠæĤ¨": 1989,
      "æį®": 1990,
      "Ġverd": 1991,
      "Ġstaat": 1992,
      "åķ¥": 1993,
      "Ġnie": 1994,
      "unt": 1995,
      "onden": 1996,
      "æĭľ": 1997,
      "wn": 1998,
      "åĳ¨": 1999,
      "éħĴ": 2000,
      "ict": 2001,
      "æłĳ": 2002,
      "åĵİ": 2003,
      "ather": 2004,
      "ove": 2005,
      "Ġè¿ĺ": 2006,
      "åħ±": 2007,
      "Ġsle": 2008,
      "æĭī": 2009,
      "roug": 2010,
      "Ġalles": 2011,
      "Ġæ²¡": 2012,
      "å¦Ĥæŀľ": 2013,
      "uck": 2014,
      "ath": 2015,
      "æĿİ": 2016,
      "ons": 2017,
      "woord": 2018,
      "Ġgem": 2019,
      "appen": 2020,
      "åĬ¡": 2021,
      "åĵģ": 2022,
      "è°ĥ": 2023,
      "æ¶Ī": 2024,
      "Ġ5": 2025,
      "è®©æĪĳ": 2026,
      "è½¬": 2027,
      "ont": 2028,
      "ç¨ĭ": 2029,
      "Ġvind": 2030,
      "å¥¶": 2031,
      "Ġste": 2032,
      "Ġzw": 2033,
      "Ġafter": 2034,
      "tijd": 2035,
      "Ġapp": 2036,
      "äºĨæĪĳ": 2037,
      "èĩ³": 2038,
      "iÃ«": 2039,
      "åĽŀæĿ¥": 2040,
      "Ġåıª": 2041,
      "open": 2042,
      "ov": 2043,
      "ĠY": 2044,
      "Ġour": 2045,
      "sl": 2046,
      "form": 2047,
      "åľ°æĸ¹": 2048,
      "Ok": 2049,
      "hed": 2050,
      "Ġå½ĵ": 2051,
      "åįĬ": 2052,
      "è¦ģæĺ¯": 2053,
      "All": 2054,
      "Ġopen": 2055,
      "eef": 2056,
      "æĶ¹": 2057,
      "Ġä½Ĩ": 2058,
      "issch": 2059,
      "åįĹ": 2060,
      "çº¿": 2061,
      "Ġzei": 2062,
      "Waarom": 2063,
      "ä½łå¥½": 2064,
      "ting": 2065,
      "ĠBr": 2066,
      "éĽ¶": 2067,
      "æº": 2068,
      "Well": 2069,
      "åı°": 2070,
      "ijf": 2071,
      "éĩĮéĿ¢": 2072,
      "Ġ201": 2073,
      "å»º": 2074,
      "æĢ¥": 2075,
      "æĪĳæĺ¯": 2076,
      "Ġçİ°åľ¨": 2077,
      "Ġmuch": 2078,
      "Ġdis": 2079,
      "æĦŁè§ī": 2080,
      "get": 2081,
      "çĪ¸çĪ¸": 2082,
      "æ®µ": 2083,
      "okay": 2084,
      ").": 2085,
      "ady": 2086,
      "Ġla": 2087,
      "è±¡": 2088,
      "where": 2089,
      "æ¸¸": 2090,
      "beur": 2091,
      "ussen": 2092,
      "èµĽ": 2093,
      "bij": 2094,
      "iff": 2095,
      "æķĳ": 2096,
      "ĠÂ·": 2097,
      "ç¿": 2098,
      "åĨµ": 2099,
      "Ġinter": 2100,
      "ĮæľĽ": 2101,
      "there": 2102,
      "äºĨåĲĹ": 2103,
      "æĺĵ": 2104,
      "ç«Ļ": 2105,
      "Ġthese": 2106,
      "arl": 2107,
      "éĺ¿": 2108,
      "up": 2109,
      "orgen": 2110,
      "Ġschool": 2111,
      "able": 2112,
      "Ġpol": 2113,
      "æķ¢": 2114,
      "beeld": 2115,
      "éĿĴ": 2116,
      "'d": 2117,
      "Ġnodig": 2118,
      "Ġcomp": 2119,
      "å¦¹": 2120,
      "ought": 2121,
      "Ġlong": 2122,
      "But": 2123,
      "Ġdidn": 2124,
      "round": 2125,
      "Ġkunt": 2126,
      "åĨĻ": 2127,
      "ma": 2128,
      "Ġfe": 2129,
      "ix": 2130,
      "isschien": 2131,
      "Ġè¿Ļæĺ¯": 2132,
      "oem": 2133,
      "å¿Ļ": 2134,
      "å¯¼": 2135,
      "ĠÃ©": 2136,
      "æŃ¥": 2137,
      "ving": 2138,
      "idd": 2139,
      "Ġma": 2140,
      "orry": 2141,
      "è§Ĥ": 2142,
      "Ġvrouw": 2143,
      "æīĢæľī": 2144,
      "fore": 2145,
      "åħĦ": 2146,
      "ä¹ī": 2147,
      "é»ĳ": 2148,
      "Ġè¯´": 2149,
      "æ³¨": 2150,
      "Ġeigen": 2151,
      "ĠåĴ±": 2152,
      "Ġâ": 2153,
      "æĪĳè§īå¾Ĺ": 2154,
      "Ġå¿": 2155,
      "åĢĴ": 2156,
      "ory": 2157,
      "Ġevery": 2158,
      "vol": 2159,
      "Ġthan": 2160,
      "å±ķ": 2161,
      "Ġä»ĸä»¬": 2162,
      "Ġgebeur": 2163,
      "Ġwr": 2164,
      "æĶ¿": 2165,
      "Ġä½łè¯´": 2166,
      "Ġmade": 2167,
      "åĬŁ": 2168,
      "é»Ħ": 2169,
      "åĵĪåĵĪ": 2170,
      "çŀ": 2171,
      "éļı": 2172,
      "ĠèĢģ": 2173,
      "ç²¾": 2174,
      "rijk": 2175,
      "right": 2176,
      "çĥŃ": 2177,
      "Ġpers": 2178,
      "Ġjon": 2179,
      "Ġsomething": 2180,
      "åĭ": 2181,
      "ç½ĳ": 2182,
      "å®ĺ": 2183,
      "å¥½å¥½": 2184,
      "ions": 2185,
      "ä¸ĭæĿ¥": 2186,
      "ĠZe": 2187,
      "å«": 2188,
      "allen": 2189,
      "èĤ¯å®ļ": 2190,
      "Ġgl": 2191,
      "ĠÃ©Ã©n": 2192,
      "Ġmom": 2193,
      "ated": 2194,
      "å¾ħ": 2195,
      "åĮº": 2196,
      "Ġdag": 2197,
      "æĩ": 2198,
      "æĢª": 2199,
      "å¼ı": 2200,
      "éĺ³": 2201,
      "ĠIk": 2202,
      "æ·±": 2203,
      "Ġbig": 2204,
      "Ġspe": 2205,
      "ĠMar": 2206,
      "aby": 2207,
      "Ġyear": 2208,
      "è§Ĩ": 2209,
      "Ġbeh": 2210,
      "åķĨ": 2211,
      "è¨": 2212,
      "æİĴ": 2213,
      "Ġtalk": 2214,
      "ederland": 2215,
      "Ġverl": 2216,
      "è¯ķ": 2217,
      "Ġhuis": 2218,
      "è¨Ģ": 2219,
      "æİī": 2220,
      "è¿ĩæĿ¥": 2221,
      "AN": 2222,
      "èĭ¦": 2223,
      "èĲ½": 2224,
      "Ġwon": 2225,
      "ife": 2226,
      "Ġaway": 2227,
      "Ġnet": 2228,
      "thing": 2229,
      "äººå®¶": 2230,
      "br": 2231,
      "Ġshould": 2232,
      "ç»Ī": 2233,
      "enn": 2234,
      "day": 2235,
      "ĠAn": 2236,
      "ç§ĳ": 2237,
      "è´¨": 2238,
      "çıŃ": 2239,
      "èģĶ": 2240,
      "é±": 2241,
      "ieren": 2242,
      "Ga": 2243,
      "Ġonze": 2244,
      "Ġmean": 2245,
      "Ġbecause": 2246,
      "åł": 2247,
      "éº": 2248,
      "é±¼": 2249,
      "åĤ": 2250,
      "ä¹ħ": 2251,
      "Ġkeer": 2252,
      "Ġaltijd": 2253,
      "ody": 2254,
      "arm": 2255,
      "eerd": 2256,
      "oofd": 2257,
      "çļĩ": 2258,
      "éĥ½ä¸į": 2259,
      "Ġtoe": 2260,
      "off": 2261,
      "è¾¾": 2262,
      "æľīä»Ģä¹Ī": 2263,
      "oort": 2264,
      "oss": 2265,
      "èģĬ": 2266,
      "Ġunder": 2267,
      "ange": 2268,
      "Ġachter": 2269,
      "io": 2270,
      "Ġalle": 2271,
      "é¦ĸ": 2272,
      "ä¸ĬçļĦ": 2273,
      "åıĸ": 2274,
      "å¤į": 2275,
      "å¿Ĺ": 2276,
      "atuur": 2277,
      "æł¼": 2278,
      "å½¢": 2279,
      "åĽ¢": 2280,
      "ä¸Ģä¸ªäºº": 2281,
      "Ġgra": 2282,
      "äºĨä½ł": 2283,
      "geven": 2284,
      "etje": 2285,
      "åħ¬åı¸": 2286,
      "ins": 2287,
      "van": 2288,
      "æĪĳä»¬çļĦ": 2289,
      "Ġreally": 2290,
      "ward": 2291,
      "ä¹ĭåīį": 2292,
      "Ġweten": 2293,
      "emaal": 2294,
      "Ġzeggen": 2295,
      "ember": 2296,
      "è¡£": 2297,
      "aam": 2298,
      "æľ¯": 2299,
      "Jij": 2300,
      "Ġiemand": 2301,
      "Ġå¹": 2302,
      "Ġant": 2303,
      "åħ»": 2304,
      "Ġkind": 2305,
      "ĠNederland": 2306,
      "Ġdoe": 2307,
      "ijden": 2308,
      "âĳ": 2309,
      "self": 2310,
      "ä¸ĢäºĽ": 2311,
      "èŃ": 2312,
      "Ġlast": 2313,
      "Ġverk": 2314,
      "Ġpre": 2315,
      "ĠåķĬ": 2316,
      "åĻ": 2317,
      "æľĢåĲİ": 2318,
      "Ġåı¯æĺ¯": 2319,
      "ĠæĪĳæĺ¯": 2320,
      "éĨ": 2321,
      "å²ģ": 2322,
      "èŃ¦": 2323,
      "åħĪçĶŁ": 2324,
      "veel": 2325,
      "æ¯Ķè¾ĥ": 2326,
      "Ġwaren": 2327,
      "æŃĮ": 2328,
      "å®¢": 2329,
      "ĠåĪ«": 2330,
      "stand": 2331,
      "å§ĳ": 2332,
      "Ġbefore": 2333,
      "Ġrem": 2334,
      "ç»Ŀ": 2335,
      "oep": 2336,
      "è·Łä½ł": 2337,
      "äºĮåįģ": 2338,
      "ugh": 2339,
      "ĠæĪĳå°±": 2340,
      "Ġelkaar": 2341,
      "eep": 2342,
      "Daar": 2343,
      "½çĦ¶": 2344,
      "é¢Ĩ": 2345,
      "ä¼ļåĦ¿": 2346,
      "ders": 2347,
      "çļĦå°ı": 2348,
      "Ġnou": 2349,
      "Ġdood": 2350,
      "esl": 2351,
      "kken": 2352,
      "Ġprob": 2353,
      "å·®": 2354,
      "å¸ĮæľĽ": 2355,
      "ä¸ĸçķĮ": 2356,
      "è¶³": 2357,
      "è®º": 2358,
      "éĩįè¦ģ": 2359,
      "èĦ¸": 2360,
      "Ġtoen": 2361,
      "ende": 2362,
      "Yes": 2363,
      "Ġwent": 2364,
      "wij": 2365,
      "Ġzie": 2366,
      "inden": 2367,
      "aking": 2368,
      "å¥ĩ": 2369,
      "é¹": 2370,
      "eds": 2371,
      "ets": 2372,
      "è£ħ": 2373,
      "Ġversch": 2374,
      "Ġalso": 2375,
      "Goed": 2376,
      "åıĬ": 2377,
      "èį¯": 2378,
      "anna": 2379,
      "Ġniets": 2380,
      "Ġgu": 2381,
      "Ġlaten": 2382,
      "Ġdus": 2383,
      "Ġmil": 2384,
      "ĠæĿ¥": 2385,
      "Ġser": 2386,
      "ä¸įäºĨ": 2387,
      "çŁ³": 2388,
      "æ¯Ľ": 2389,
      "æĬ¤": 2390,
      "çĶ»": 2391,
      "çªģ": 2392,
      "ullen": 2393,
      "ä¹ł": 2394,
      "Ġok": 2395,
      "åŁº": 2396,
      "rough": 2397,
      "ç»Ń": 2398,
      "ign": 2399,
      "Ġzegt": 2400,
      "å¤ľ": 2401,
      "æĥħåĨµ": 2402,
      "åį´": 2403,
      "amil": 2404,
      "Ġgeh": 2405,
      "æ¥ļ": 2406,
      "ä»½": 2407,
      "åħĥ": 2408,
      "åĵªåĦ¿": 2409,
      "Ġkinder": 2410,
      "Ġbu": 2411,
      "è¯¯": 2412,
      "ĠAmer": 2413,
      "è¿Ļä¸Ģ": 2414,
      "Ġgewoon": 2415,
      "Ġ200": 2416,
      "æĺİçĻ½": 2417,
      "ĠHij": 2418,
      "çľŁæĺ¯": 2419,
      "ors": 2420,
      "éŃ": 2421,
      "elijke": 2422,
      "é¾Ļ": 2423,
      "dy": 2424,
      "æĸŃ": 2425,
      "So": 2426,
      "èĥ½å¤Ł": 2427,
      "Ġdoing": 2428,
      "bo": 2429,
      "Ġcr": 2430,
      "ç»Ħ": 2431,
      "æĢģ": 2432,
      "éĢł": 2433,
      "iden": 2434,
      "dracht": 2435,
      "ces": 2436,
      "è®¾": 2437,
      "Ġvast": 2438,
      "é£Ł": 2439,
      "ĠShe": 2440,
      "Ġstart": 2441,
      "Ġask": 2442,
      "Ġstop": 2443,
      "æ²»": 2444,
      "æĪĳä¹Ł": 2445,
      "Ġeerste": 2446,
      "look": 2447,
      "ç»Ĩ": 2448,
      "ç±»": 2449,
      "Ġplaat": 2450,
      "gende": 2451,
      "Die": 2452,
      "Ġnee": 2453,
      "Ġä¸įæĺ¯": 2454,
      "åĪĩ": 2455,
      "ĠYou": 2456,
      "åŀ": 2457,
      "uiten": 2458,
      "Heb": 2459,
      "Ġmay": 2460,
      "Ġaut": 2461,
      "ss": 2462,
      "Ġgrote": 2463,
      "isch": 2464,
      "Ġnever": 2465,
      "åĪĺ": 2466,
      "Ġerm": 2467,
      "Ġgir": 2468,
      "æľª": 2469,
      "åįĸ": 2470,
      "éĻ¤": 2471,
      "Ġthought": 2472,
      "Ġåİ": 2473,
      "ina": 2474,
      "ä¸įè¿ĩ": 2475,
      "Ġthree": 2476,
      "Ġold": 2477,
      "cent": 2478,
      "Ġbinnen": 2479,
      "but": 2480,
      "åıĶ": 2481,
      "Ġthrough": 2482,
      "åħµ": 2483,
      "Ġhead": 2484,
      "å°½": 2485,
      "ait": 2486,
      "èľ": 2487,
      "æĪı": 2488,
      "æĬĵ": 2489,
      "Ġbaby": 2490,
      "port": 2491,
      "Ġhelp": 2492,
      "well": 2493,
      "æĿ¿": 2494,
      "ä½łå°±": 2495,
      "Ġwij": 2496,
      "æĻļä¸Ĭ": 2497,
      "EX": 2498,
      "åĬŀæ³ķ": 2499,
      "Ġ6": 2500,
      "å¸ĥ": 2501,
      "Ġtre": 2502,
      "åĩºåİ»": 2503,
      "Ġminut": 2504,
      "Ġå¸": 2505,
      "çĶµè¯Ŀ": 2506,
      "vel": 2507,
      "Ġallemaal": 2508,
      "ilm": 2509,
      "Ġsamen": 2510,
      "Ġbot": 2511,
      "äºĨåĲ§": 2512,
      "åĵį": 2513,
      "Ġche": 2514,
      "amer": 2515,
      "Ġåħ¶å®ŀ": 2516,
      "xt": 2517,
      "ude": 2518,
      "ĠSch": 2519,
      "erk": 2520,
      "èįī": 2521,
      "èĳ": 2522,
      "Ġvo": 2523,
      "ç«Ł": 2524,
      "è°Ī": 2525,
      "é¦Ļ": 2526,
      "Ġgroot": 2527,
      "ĠEen": 2528,
      "Ġbit": 2529,
      "ucht": 2530,
      "org": 2531,
      "ail": 2532,
      "ever": 2533,
      "ç»Ł": 2534,
      "åĪļæīį": 2535,
      "EXP": 2536,
      "åĪ°åºķ": 2537,
      "æĭħ": 2538,
      "Ġcame": 2539,
      "å¿ĥéĩĮ": 2540,
      "Ġthings": 2541,
      "ereen": 2542,
      "uwe": 2543,
      "Ġdoet": 2544,
      "ious": 2545,
      "Ġthing": 2546,
      "Ġthose": 2547,
      "å©Ĩ": 2548,
      "Ġpres": 2549,
      "è¸": 2550,
      "ful": 2551,
      "Ġä»Ģä¹Ī": 2552,
      "Ġzitten": 2553,
      "ä»¤": 2554,
      "ister": 2555,
      "Ġnew": 2556,
      "åĪ»": 2557,
      "Ġerg": 2558,
      "è·³": 2559,
      "æĪĳä¸į": 2560,
      "ooi": 2561,
      "EN": 2562,
      "ç¦ı": 2563,
      "è´¹": 2564,
      "æį¢": 2565,
      "èĦĳ": 2566,
      "å¾·": 2567,
      "å±Ģ": 2568,
      "ars": 2569,
      "æ¹": 2570,
      "ident": 2571,
      "Ġmust": 2572,
      "çŃĶæ¡Ī": 2573,
      "ç©¿": 2574,
      "Ġreg": 2575,
      "ried": 2576,
      "Ġnum": 2577,
      "æĶ¯": 2578,
      "sel": 2579,
      "kend": 2580,
      "by": 2581,
      "Ġvader": 2582,
      "Ġmany": 2583,
      "Ġgeld": 2584,
      "Mijn": 2585,
      "ä¸įèµ·": 2586,
      "çĵ": 2587,
      "Ġéĥ½": 2588,
      "å¾®": 2589,
      "ĠUn": 2590,
      "Ġfind": 2591,
      "Ġåı¯": 2592,
      "æĺ¯æĪĳ": 2593,
      "Ġvragen": 2594,
      "çĨĬ": 2595,
      "æĸĻ": 2596,
      "æĴŃ": 2597,
      "Ġanother": 2598,
      "Ġproble": 2599,
      "æĿĳ": 2600,
      "Ġzoals": 2601,
      "Ġhome": 2602,
      "Ġ18": 2603,
      "row": 2604,
      "æ²³": 2605,
      "gelijk": 2606,
      "On": 2607,
      "ĠWe": 2608,
      "ç±³": 2609,
      "oint": 2610,
      "ubl": 2611,
      "Ġmoeder": 2612,
      "ĠBe": 2613,
      "ĠSp": 2614,
      "äºĳ": 2615,
      "æľīçĤ¹": 2616,
      "åħļ": 2617,
      "ved": 2618,
      "igh": 2619,
      "Ġgive": 2620,
      "Ġbro": 2621,
      "è¯´äºĨ": 2622,
      "å£«": 2623,
      "è¿Ļæł·çļĦ": 2624,
      "åĩĨå¤ĩ": 2625,
      "åĵ¦": 2626,
      "can": 2627,
      "Ġfamil": 2628,
      "akes": 2629,
      "aard": 2630,
      "è®©ä½ł": 2631,
      "æ¨": 2632,
      "les": 2633,
      "red": 2634,
      "ç¤¾": 2635,
      ".'": 2636,
      "Ġstill": 2637,
      "oos": 2638,
      "æĺ¯ä¸Ģ": 2639,
      "è´Ł": 2640,
      "éģĩ": 2641,
      "Ġhouse": 2642,
      "Ġied": 2643,
      "åįİ": 2644,
      "é¡¾": 2645,
      "Ġturn": 2646,
      "çł´": 2647,
      ",'": 2648,
      "ĠæĬĬ": 2649,
      "eter": 2650,
      "é¼ł": 2651,
      "Ġkinderen": 2652,
      "Ġlot": 2653,
      "Ġwanna": 2654,
      "Ġvraag": 2655,
      "Ġlig": 2656,
      "Ġred": 2657,
      "è¿ĻåĦ¿": 2658,
      "å½ĵæĹ¶": 2659,
      "20": 2660,
      "èĻ½çĦ¶": 2661,
      "æĩĤ": 2662,
      "ijt": 2663,
      "oy": 2664,
      "ĠGod": 2665,
      "Laat": 2666,
      "ster": 2667,
      "é¸¡": 2668,
      "Ġdrie": 2669,
      "emen": 2670,
      "è¯´çļĦ": 2671,
      "oeken": 2672,
      "ĠAl": 2673,
      "Ġeat": 2674,
      "ib": 2675,
      "å®¶éĩĮ": 2676,
      "Ġwereld": 2677,
      "Ġmeest": 2678,
      "Ġres": 2679,
      "è¯´ä½ł": 2680,
      "ä¸ĵ": 2681,
      "ç¤º": 2682,
      "Ġgedaan": 2683,
      "éĤ£äºĽ": 2684,
      "Niet": 2685,
      "uren": 2686,
      "æķħäºĭ": 2687,
      "let": 2688,
      "åıĤ": 2689,
      "å¯Ĩ": 2690,
      "ama": 2691,
      "çīĽ": 2692,
      "Ġja": 2693,
      "çĭĹ": 2694,
      "oten": 2695,
      "åıĳçĶŁ": 2696,
      "ĠåĨį": 2697,
      "aart": 2698,
      "Ġdone": 2699,
      "éĻĪ": 2700,
      "ä¼Ĺ": 2701,
      "rijf": 2702,
      "Ġhal": 2703,
      "æĢİä¹Īæł·": 2704,
      "Ġè¿ĺæľī": 2705,
      "Ġstaan": 2706,
      "maal": 2707,
      "Ġpap": 2708,
      "ä¸ªäºº": 2709,
      "è§Ħ": 2710,
      "å·´": 2711,
      "åĽŀåİ»": 2712,
      "ä»·": 2713,
      "Ġmoment": 2714,
      "ç¤¼": 2715,
      "æľīä¸Ģä¸ª": 2716,
      "æ±Ł": 2717,
      "åħ·": 2718,
      "éĿĻ": 2719,
      "çļ®": 2720,
      "Ġçľĭ": 2721,
      "Ġboy": 2722,
      "Ġuw": 2723,
      "Ġtussen": 2724,
      "Ġits": 2725,
      "é¡»": 2726,
      "åİĨ": 2727,
      "èĭ±": 2728,
      "Ġbre": 2729,
      "æĬĢ": 2730,
      "Ġke": 2731,
      "é¬": 2732,
      "æŀģ": 2733,
      "Ġhoofd": 2734,
      "æİ¨": 2735,
      "itie": 2736,
      "Ġfound": 2737,
      "ç¬¬ä¸Ģ": 2738,
      "Zo": 2739,
      "Ġgreat": 2740,
      "Ġcalled": 2741,
      "uc": 2742,
      "èĴ": 2743,
      "äº¬": 2744,
      "åĺ´": 2745,
      "Ġdiff": 2746,
      "She": 2747,
      "åĬ©": 2748,
      "uister": 2749,
      "Ġbez": 2750,
      "IS": 2751,
      "Ġweek": 2752,
      "åıªæĺ¯": 2753,
      "come": 2754,
      "unn": 2755,
      "ç»§": 2756,
      "ĠEr": 2757,
      "Ġmight": 2758,
      "Ġshow": 2759,
      "fr": 2760,
      "ical": 2761,
      "çĽ¸ä¿¡": 2762,
      "åľŁ": 2763,
      "åı¶": 2764,
      "æ¢¦": 2765,
      "Ġchild": 2766,
      "They": 2767,
      "åĳ³": 2768,
      "Ġmon": 2769,
      "Ġvinden": 2770,
      "Op": 2771,
      "Ġhard": 2772,
      "000": 2773,
      "ĠGr": 2774,
      "Ġrest": 2775,
      "Ġvriend": 2776,
      "Ġä»Ĭå¤©": 2777,
      "åĪ«äºº": 2778,
      "ually": 2779,
      "çº¦": 2780,
      "Ġä»İ": 2781,
      "Ġbook": 2782,
      "Wie": 2783,
      "åī§": 2784,
      "éĢĤ": 2785,
      "Ġging": 2786,
      "Voor": 2787,
      "è¿ĩåİ»": 2788,
      "èĦļ": 2789,
      "èĥĮ": 2790,
      "ope": 2791,
      "ates": 2792,
      "ç®Ģ": 2793,
      "éªĮ": 2794,
      "Ġwillen": 2795,
      "äºī": 2796,
      "æľĢè¿ĳ": 2797,
      "å¯Ł": 2798,
      "æ¸ħæ¥ļ": 2799,
      "Ġå¼": 2800,
      "é¬¼": 2801,
      "äºĨä¸Ģä¸ª": 2802,
      "è´£": 2803,
      "Ġru": 2804,
      "ĠåĹ¯": 2805,
      "isten": 2806,
      "éĻª": 2807,
      "Ġlater": 2808,
      "iel": 2809,
      "ç»ĥ": 2810,
      "é²": 2811,
      "apt": 2812,
      "éĨĴ": 2813,
      "ummy": 2814,
      "Ġzij": 2815,
      "Ġwie": 2816,
      "aag": 2817,
      "å¤ļå°ĳ": 2818,
      "æł¡": 2819,
      "çĸĳ": 2820,
      "Ġsnel": 2821,
      "kom": 2822,
      "imes": 2823,
      "åħĭ": 2824,
      "åħĶ": 2825,
      "ĠAls": 2826,
      "æĭį": 2827,
      "åĿı": 2828,
      "pe": 2829,
      "Ġnight": 2830,
      "Ġsteeds": 2831,
      "è¯Ń": 2832,
      "Ġvolgende": 2833,
      "è·Łä½łè¯´": 2834,
      "Ġlie": 2835,
      "æĥ³åĪ°": 2836,
      "nee": 2837,
      "Ġju": 2838,
      "éĽ¨": 2839,
      "anden": 2840,
      "Ġanders": 2841,
      "ç¬¬äºĮ": 2842,
      "ple": 2843,
      "å¥½åĥı": 2844,
      "åĦ¿åŃĲ": 2845,
      "åģĩ": 2846,
      "æŃ¦": 2847,
      "Ġ7": 2848,
      "è¿ĻéĩĮ": 2849,
      "Ġdes": 2850,
      "éĽĨ": 2851,
      "ä»¥åīį": 2852,
      "æĬķ": 2853,
      "Ġæ²¡æľī": 2854,
      "Ġplan": 2855,
      "Ġhappen": 2856,
      "Ġverh": 2857,
      "è¿½": 2858,
      "Ġfeel": 2859,
      "alt": 2860,
      "çļĦäºĭæĥħ": 2861,
      "çİ¯": 2862,
      "ä½łæĺ¯": 2863,
      "æĺ¥": 2864,
      "æľĿ": 2865,
      "èıľ": 2866,
      "åŃĺ": 2867,
      "Ġnaam": 2868,
      "MA": 2869,
      "æĪĸèĢħ": 2870,
      "Ġbesch": 2871,
      "æĽ¾": 2872,
      "Ġdra": 2873,
      "å¿µ": 2874,
      "èĹ": 2875,
      "çĬ¶": 2876,
      "æŃ£ç¡®": 2877,
      "è¶ħ": 2878,
      "åĪĻ": 2879,
      "Ġown": 2880,
      "Ġåĩ": 2881,
      "Ġomdat": 2882,
      "éĻ©": 2883,
      "ä¸¥": 2884,
      "æĵ": 2885,
      "Ġele": 2886,
      "æĸ¯": 2887,
      "è§Ĵ": 2888,
      "çĮ«": 2889,
      "åĲİæĿ¥": 2890,
      "Kijk": 2891,
      "å¡": 2892,
      "Ġbus": 2893,
      "ç£": 2894,
      "ä¸įåĪ°": 2895,
      "Ġsche": 2896,
      "åĻ¨": 2897,
      "Ġwilde": 2898,
      "æĹ¢": 2899,
      "erg": 2900,
      "ĠæĪĳè§īå¾Ĺ": 2901,
      "aad": 2902,
      "Ġinform": 2903,
      "urt": 2904,
      "Ġfriend": 2905,
      "éĹ»": 2906,
      "ww": 2907,
      "ĠDat": 2908,
      "ĠLe": 2909,
      "æĶ¾å¿ĥ": 2910,
      "oney": 2911,
      "Dan": 2912,
      "ift": 2913,
      "åģľ": 2914,
      "å¿ĺ": 2915,
      "room": 2916,
      "Ġnieuwe": 2917,
      "Ġve": 2918,
      "åĢ¼": 2919,
      "Ġname": 2920,
      "éĤ£ç§į": 2921,
      "æĢĢ": 2922,
      "èĽĭ": 2923,
      "æľ¨": 2924,
      "ä»¥ä¸º": 2925,
      "gl": 2926,
      "Ġjouw": 2927,
      "è®®": 2928,
      "Ġrec": 2929,
      "ä¼Ļ": 2930,
      "arn": 2931,
      "Ġhoor": 2932,
      "Ġfilm": 2933,
      "çľĭè§ģ": 2934,
      "åĪĿ": 2935,
      "vent": 2936,
      "éĽª": 2937,
      "å§ĳå¨ĺ": 2938,
      "é©¬ä¸Ĭ": 2939,
      "åħĦå¼Ł": 2940,
      "åľ¨ä¸Ģèµ·": 2941,
      "Ġisn": 2942,
      "Ġbetter": 2943,
      "åĽ½å®¶": 2944,
      "åĩ»": 2945,
      "æĺ¯ä»Ģä¹Ī": 2946,
      "åĽŀå®¶": 2947,
      "body": 2948,
      "æ´¾": 2949,
      "Ġplace": 2950,
      "åıĮ": 2951,
      "erm": 2952,
      "ä¸½": 2953,
      "Ġform": 2954,
      "ĠThey": 2955,
      "Ġtry": 2956,
      "Ġbelang": 2957,
      "mhm": 2958,
      "There": 2959,
      "ught": 2960,
      "ughs": 2961,
      "éĢŁ": 2962,
      "èµ¶ç´§": 2963,
      "Ġbeing": 2964,
      "OkÃ©": 2965,
      "Ġmost": 2966,
      "æłĩ": 2967,
      "çļĦå¤§": 2968,
      "ç©¶": 2969,
      "åĶ±": 2970,
      "å°±ä¸į": 2971,
      "Ġbeter": 2972,
      "è¯´æĪĳ": 2973,
      "å¢ĥ": 2974,
      "ĠåĴ±ä»¬": 2975,
      "çº§": 2976,
      "è¡Ģ": 2977,
      "Ġè°¢è°¢": 2978,
      "Ġfin": 2979,
      "Ġ8": 2980,
      "å¹¸": 2981,
      "Ġcomm": 2982,
      "æĦ¿æĦı": 2983,
      "\",": 2984,
      "åºĹ": 2985,
      "komen": 2986,
      "Ġè®©": 2987,
      "This": 2988,
      "çªģçĦ¶": 2989,
      "ĠAnd": 2990,
      "Ġmat": 2991,
      "æ¸©": 2992,
      "outh": 2993,
      "å±ŀ": 2994,
      "æ±ī": 2995,
      "Ġcount": 2996,
      "Ġmoest": 2997,
      "Ġdacht": 2998,
      "vo": 2999,
      "ĠWh": 3000,
      "æ²¹": 3001,
      "ĠâĢ": 3002,
      "Ġgirl": 3003,
      "omm": 3004,
      "å°Ķ": 3005,
      "éĢļè¿ĩ": 3006,
      "çļĦä¸Ģä¸ª": 3007,
      "éĿł": 3008,
      "ede": 3009,
      "è®¤è¯Ĩ": 3010,
      "éĴŁ": 3011,
      "ä¸Ģå¤©": 3012,
      "kel": 3013,
      "æŀĲ": 3014,
      "åı¤": 3015,
      "åıĳå±ķ": 3016,
      "çİī": 3017,
      "Ġmaak": 3018,
      "Ġleuk": 3019,
      "ç»ĵæŀľ": 3020,
      "zo": 3021,
      "èĥ¡": 3022,
      "ĠOp": 3023,
      "äºĨåķĬ": 3024,
      "Ġstad": 3025,
      "rist": 3026,
      "Weet": 3027,
      "),": 3028,
      "Ġsit": 3029,
      "éº»": 3030,
      "Ġcour": 3031,
      "åı¦": 3032,
      "ames": 3033,
      "Ġgemaakt": 3034,
      "Ġid": 3035,
      "oes": 3036,
      "ä¹±": 3037,
      "iteit": 3038,
      "Ġpar": 3039,
      "Ġbloed": 3040,
      "åĵŃ": 3041,
      "so": 3042,
      "é¡º": 3043,
      "Ġtele": 3044,
      "ä½łçľĭ": 3045,
      "æĺ¯ä¸Ģä¸ª": 3046,
      "Ġkrijgen": 3047,
      "ĠWat": 3048,
      "åĪĽ": 3049,
      "åĩłä¸ª": 3050,
      "Ġkijken": 3051,
      "Ġrel": 3052,
      "iks": 3053,
      "akken": 3054,
      "etten": 3055,
      "Ġvrij": 3056,
      "æĿĥ": 3057,
      "Ġyears": 3058,
      "è¿Ľè¡Į": 3059,
      "pro": 3060,
      "ä¸įè¡Į": 3061,
      "éħį": 3062,
      "ouden": 3063,
      "èĢĮä¸Ķ": 3064,
      "ern": 3065,
      "æĿ¾": 3066,
      "Ġ10": 3067,
      "Ġten": 3068,
      "å±ħ": 3069,
      "Ġaround": 3070,
      "æ¥¼": 3071,
      "ition": 3072,
      "log": 3073,
      "Ġbev": 3074,
      "æ¯ıå¤©": 3075,
      "Ġsupp": 3076,
      "ps": 3077,
      "è¯´è¯Ŀ": 3078,
      "aw": 3079,
      "Ġuur": 3080,
      "ial": 3081,
      "ç»Ļä»ĸ": 3082,
      "gest": 3083,
      "side": 3084,
      "Ġused": 3085,
      "çĶµå½±": 3086,
      "ĠæĪĳä¸į": 3087,
      "æĭ©": 3088,
      "Ġkwam": 3089,
      "Ġsuch": 3090,
      "åŃĲçļĦ": 3091,
      "vl": 3092,
      "ĠéĤ£ä½ł": 3093,
      "åİĭ": 3094,
      "Ġend": 3095,
      "å®«": 3096,
      "ways": 3097,
      "Ġsy": 3098,
      "å¹¿": 3099,
      "Ġeten": 3100,
      "ç½ª": 3101,
      "å®¤": 3102,
      "Ġziet": 3103,
      "AD": 3104,
      "Ġverb": 3105,
      "ĠèĢĮä¸Ķ": 3106,
      "Wil": 3107,
      "chten": 3108,
      "è·Łä»ĸ": 3109,
      "Ġwacht": 3110,
      "Mm": 3111,
      "ms": 3112,
      "Ġkeep": 3113,
      "assen": 3114,
      "die": 3115,
      "ents": 3116,
      "ĠIs": 3117,
      "Ġzeker": 3118,
      "Hier": 3119,
      "ä¾Ŀ": 3120,
      "çĥ¦": 3121,
      "Ġopdracht": 3122,
      "Ġè°ģ": 3123,
      "Ġfig": 3124,
      "ijkt": 3125,
      "Ġverm": 3126,
      "ĠAr": 3127,
      "Ġlove": 3128,
      "Ġnice": 3129,
      "å®¹æĺĵ": 3130,
      "çĭ¬": 3131,
      "åĳĬè¯īä½ł": 3132,
      "èļ": 3133,
      "Ġmaakt": 3134,
      "ited": 3135,
      "ieft": 3136,
      "ä¸ŃçļĦ": 3137,
      "ç¡®å®ŀ": 3138,
      "æī¿": 3139,
      "åľ¨è¿ĻåĦ¿": 3140,
      "hes": 3141,
      "eek": 3142,
      "Ġmed": 3143,
      "ations": 3144,
      "åģ·": 3145,
      "ohn": 3146,
      "door": 3147,
      "Ġgeven": 3148,
      "æ¯ĶèµĽ": 3149,
      "å¼Ħ": 3150,
      "åĩºäºĨ": 3151,
      "åª": 3152,
      "åĽ´": 3153,
      "æĪĳæĥ³": 3154,
      "æ¯ķ": 3155,
      "Ġbelangrijk": 3156,
      "Ġpaar": 3157,
      "å¿ħé¡»": 3158,
      "atuurlijk": 3159,
      "Ġsame": 3160,
      "Ġlife": 3161,
      "å¥³äºº": 3162,
      "æľºä¼ļ": 3163,
      "ä½İ": 3164,
      "Ġpop": 3165,
      "Ġwhy": 3166,
      "Ġgezien": 3167,
      "Ġhalf": 3168,
      "æ°¸": 3169,
      "val": 3170,
      "åĨ²": 3171,
      "this": 3172,
      "Al": 3173,
      "åºľ": 3174,
      "ä¼¼": 3175,
      "æ´Ĺ": 3176,
      "ett": 3177,
      "ese": 3178,
      "\".": 3179,
      "gaan": 3180,
      "ç½®": 3181,
      "GMA": 3182,
      "éĹ¹": 3183,
      "èģĮ": 3184,
      "æĥĬ": 3185,
      "æ¦": 3186,
      "Ġfour": 3187,
      "éĵģ": 3188,
      "ject": 3189,
      "gd": 3190,
      "bs": 3191,
      "é«ĺåħ´": 3192,
      "vis": 3193,
      "ç¦»å¼Ģ": 3194,
      "èĤ¡": 3195,
      "addy": 3196,
      "Ġatt": 3197,
      "åıªæľī": 3198,
      "æī¾åĪ°": 3199,
      "Ġcol": 3200,
      "èº«ä½ĵ": 3201,
      "è´µ": 3202,
      "Ġhelemaal": 3203,
      "ash": 3204,
      "çģµ": 3205,
      "ä¸¾": 3206,
      "æĹ¥æľ¬": 3207,
      "Ġgest": 3208,
      "Ġcent": 3209,
      "If": 3210,
      "æĿ¨": 3211,
      "éĢīæĭ©": 3212,
      "Ġgoede": 3213,
      "uss": 3214,
      "Ġplaats": 3215,
      "ĠæĪĳæĥ³": 3216,
      "è¿İ": 3217,
      "Ġco": 3218,
      "åĽŃ": 3219,
      "å°±ä¼ļ": 3220,
      "æĪĲäºĨ": 3221,
      "å¦ĩ": 3222,
      "Ġsays": 3223,
      "aur": 3224,
      "èĲ¥": 3225,
      "ced": 3226,
      "Ġmis": 3227,
      "Ġelse": 3228,
      "ç¾¤": 3229,
      "quit": 3230,
      "ai": 3231,
      "Ġstra": 3232,
      "An": 3233,
      "geb": 3234,
      "Dus": 3235,
      "ield": 3236,
      "How": 3237,
      "å®Ī": 3238,
      "å¼ķ": 3239,
      "å¥¹çļĦ": 3240,
      "èĤī": 3241,
      "Ġbedoel": 3242,
      "Ġæĥ³": 3243,
      "Ġleg": 3244,
      "PAR": 3245,
      "çĭ¼": 3246,
      "ctor": 3247,
      "åĳ¼": 3248,
      "Ġä½łçľĭ": 3249,
      "Ġwilt": 3250,
      "aas": 3251,
      "æĺ¾": 3252,
      "éĻħ": 3253,
      "ç´¯": 3254,
      "åº§": 3255,
      "ork": 3256,
      "Ã¨": 3257,
      "å¹´çļĦ": 3258,
      "èĻİ": 3259,
      ".]": 3260,
      "19": 3261,
      "æĪĳæĪĳ": 3262,
      "ĠâĢ¢": 3263,
      "Ġmeis": 3264,
      "ĠSh": 3265,
      "ç¯": 3266,
      "ä¼ĳ": 3267,
      "baar": 3268,
      "çĪ¹": 3269,
      "Ġprodu": 3270,
      "Ġverschill": 3271,
      "ĠMaar": 3272,
      "arly": 3273,
      "Ben": 3274,
      "Ġmar": 3275,
      "æĮī": 3276,
      "ĠéĤ£ä¹Ī": 3277,
      "Ġdoesn": 3278,
      "Ġstand": 3279,
      "Nu": 3280,
      "æŀª": 3281,
      "Ġä½łæĺ¯": 3282,
      "part": 3283,
      "è¿Ļæ¬¡": 3284,
      "ince": 3285,
      "Ġwind": 3286,
      "Ġac": 3287,
      "æĲŀ": 3288,
      "ç»§ç»Ń": 3289,
      "ĠPr": 3290,
      "è®¤ä¸º": 3291,
      "ä»»ä½ķ": 3292,
      "è®°å¾Ĺ": 3293,
      "å§Ķ": 3294,
      "èĵ": 3295,
      "ĠDit": 3296,
      "å¥³åĦ¿": 3297,
      "Ġeerst": 3298,
      "å¹²ä»Ģä¹Ī": 3299,
      "Ġster": 3300,
      "Ġhouden": 3301,
      "mm": 3302,
      "ä¹ĭéĹ´": 3303,
      "ream": 3304,
      "oman": 3305,
      "éĢīé¡¹": 3306,
      "eeft": 3307,
      "put": 3308,
      "å¸Ŀ": 3309,
      "ç¤¾ä¼ļ": 3310,
      "Ġbuiten": 3311,
      "Ġvand": 3312,
      "ower": 3313,
      "Ġnext": 3314,
      "ä¸īåįģ": 3315,
      "å·ŀ": 3316,
      "Ġperson": 3317,
      "ged": 3318,
      "Ġsur": 3319,
      "its": 3320,
      "ction": 3321,
      "åŃĻ": 3322,
      "Ġoor": 3323,
      "ĠéĤ£ä¸ª": 3324,
      "æ½": 3325,
      "Ġdingen": 3326,
      "éĥ½æ²¡æľī": 3327,
      "anneer": 3328,
      "è¡£æľį": 3329,
      "è¯»": 3330,
      "åĲĽ": 3331,
      "çłĶ": 3332,
      "ä¹İ": 3333,
      "Ġroom": 3334,
      "çĬ¯": 3335,
      "è¯¾": 3336,
      "ç»ĵå©ļ": 3337,
      "now": 3338,
      "oun": 3339,
      "izen": 3340,
      "èĹı": 3341,
      "ieve": 3342,
      "uld": 3343,
      "ruk": 3344,
      "Ġuse": 3345,
      "å¢ŀ": 3346,
      "æ¤": 3347,
      "ä¸ĬäºĨ": 3348,
      "ium": 3349,
      "éĩĮçļĦ": 3350,
      "åĪĴ": 3351,
      "çĮª": 3352,
      "åĲĮå¿Ĺ": 3353,
      "èĩ´": 3354,
      "åĬ¿": 3355,
      "Ġzullen": 3356,
      "æĪĳè¦ģ": 3357,
      "åĨ·": 3358,
      "Ġph": 3359,
      "ĠGe": 3360,
      "Ġè¡Į": 3361,
      "æĺİå¤©": 3362,
      "æĸ¹éĿ¢": 3363,
      "Ġaant": 3364,
      "aut": 3365,
      "æĹı": 3366,
      "Ġgre": 3367,
      "æİ§": 3368,
      "å°ıå§Ĳ": 3369,
      "Ġanything": 3370,
      "Ġå¿«": 3371,
      "Ġokay": 3372,
      "Ġwhile": 3373,
      "ä»ħ": 3374,
      "ves": 3375,
      "ird": 3376,
      "æŃ¢": 3377,
      "Ġä½łæĢİä¹Ī": 3378,
      "Ch": 3379,
      "ole": 3380,
      "Ġyeah": 3381,
      "Ġleft": 3382,
      "æ¯Ĵ": 3383,
      "Ġvis": 3384,
      "Wel": 3385,
      "Ġrecht": 3386,
      "eling": 3387,
      "not": 3388,
      "cies": 3389,
      "Ġblijven": 3390,
      "ĠDaar": 3391,
      "ä¸įåĲĮ": 3392,
      "åĩºçİ°": 3393,
      "åĲĥé¥Ń": 3394,
      "æ¨¡": 3395,
      "Ġind": 3396,
      "Ġwaarom": 3397,
      "Om": 3398,
      "Ġalways": 3399,
      "Ġbad": 3400,
      "Ġacc": 3401,
      "Ġgone": 3402,
      "Ġlief": 3403,
      "çľ¼çĿ": 3404,
      "laughs": 3405,
      "waar": 3406,
      "Ġbeetje": 3407,
      "ä¸įå¾Ĺ": 3408,
      "Ġklaar": 3409,
      "ç½Ĺ": 3410,
      "angen": 3411,
      "Ġhelpen": 3412,
      "iding": 3413,
      "åĿļ": 3414,
      "æĭĽ": 3415,
      "ĠBut": 3416,
      "Ġgewe": 3417,
      "Ġball": 3418,
      "ankt": 3419,
      "å½±åĵį": 3420,
      "æ¼Ĥ": 3421,
      "wat": 3422,
      "èĭı": 3423,
      "Ġniks": 3424,
      "çļĦäºĭ": 3425,
      "ta": 3426,
      "ron": 3427,
      "they": 3428,
      "Ġeind": 3429,
      "çĹĽ": 3430,
      "Ġquit": 3431,
      "åı¥è¯Ŀ": 3432,
      "stof": 3433,
      "Ġå·": 3434,
      "Ġ9": 3435,
      "she": 3436,
      "Ġsure": 3437,
      "èĪŀ": 3438,
      "æĪ·": 3439,
      "è¾Ī": 3440,
      "ĠçŃī": 3441,
      "olog": 3442,
      "Ġgesch": 3443,
      "led": 3444,
      "æĺ¨": 3445,
      "åİī": 3446,
      "Ġmoe": 3447,
      "fect": 3448,
      "Ġliv": 3449,
      "Ġcle": 3450,
      "Ġtru": 3451,
      "Ġä¸įè¿ĩ": 3452,
      "Ġzonder": 3453,
      "æľīäºº": 3454,
      "å±ĭ": 3455,
      "çľĭçĿĢ": 3456,
      "ä¿®": 3457,
      "Ã¯": 3458,
      "Geef": 3459,
      "èĪ¬": 3460,
      "ican": 3461,
      "èĤ²": 3462,
      "Ġem": 3463,
      "tje": 3464,
      "aps": 3465,
      "erent": 3466,
      "uff": 3467,
      "æĺ¯åĲ§": 3468,
      "éĺ²": 3469,
      "Ġsaw": 3470,
      "æºĲ": 3471,
      "Ġcons": 3472,
      "aden": 3473,
      "ç¾İåĽ½": 3474,
      "Misschien": 3475,
      "Ġå®ĥ": 3476,
      "aring": 3477,
      "Ġåĳĥ": 3478,
      "åĨ³å®ļ": 3479,
      "Ġauto": 3480,
      "æµİ": 3481,
      "æ¿": 3482,
      "åĽ¾": 3483,
      "Ġgenoeg": 3484,
      "Ġjongen": 3485,
      "ĠNew": 3486,
      "æł¹æľ¬": 3487,
      "æĬ±": 3488,
      "Ġlaatste": 3489,
      "Ġdeel": 3490,
      "åı²": 3491,
      "Ġiedereen": 3492,
      "Ġäºº": 3493,
      "éĩİ": 3494,
      "åĪĹ": 3495,
      "Ġden": 3496,
      "çĶ°": 3497,
      "apen": 3498,
      "æĢİä¹ĪåĬŀ": 3499,
      "ä¸ĭåİ»": 3500,
      "èİ·": 3501,
      "med": 3502,
      "Ġkant": 3503,
      "Ġfather": 3504,
      "é¢ĺå¹²": 3505,
      "eth": 3506,
      "Ġdog": 3507,
      "çĶ·äºº": 3508,
      "Ġie": 3509,
      "att": 3510,
      "äºĨè§£": 3511,
      "çļĦè¿Ļä¸ª": 3512,
      "Ġtold": 3513,
      "ĠæĪĳä¹Ł": 3514,
      "Ġdec": 3515,
      "Ver": 3516,
      "ä½łä¸į": 3517,
      "allo": 3518,
      "Ġtek": 3519,
      "Ġverand": 3520,
      "ween": 3521,
      "Ġvier": 3522,
      "Ġstuk": 3523,
      "æĪĳè¿ĺ": 3524,
      "çľ¼çĿĽ": 3525,
      "zelfde": 3526,
      "ulp": 3527,
      "æĽ¿": 3528,
      "éĵ¶": 3529,
      "éªĹ": 3530,
      "èµµ": 3531,
      "å¤ļçļĦ": 3532,
      "Ġsk": 3533,
      "cy": 3534,
      "ence": 3535,
      "zoek": 3536,
      "è¹": 3537,
      "ids": 3538,
      "ä¸įéĶĻ": 3539,
      "åį«": 3540,
      "Ġ15": 3541,
      "Ġboven": 3542,
      "å®īåħ¨": 3543,
      "Ġspr": 3544,
      "ä¼ĺ": 3545,
      "Sorry": 3546,
      "æĿ¥è¯´": 3547,
      "Ġantwoord": 3548,
      "ows": 3549,
      "éĢĢ": 3550,
      "çĽ´æİ¥": 3551,
      "Ġgeweest": 3552,
      "SIS": 3553,
      "äºĴ": 3554,
      "ç§°": 3555,
      "Ġnieuw": 3556,
      "åŀĭ": 3557,
      "ĠRe": 3558,
      "é¸Ł": 3559,
      "Ġverg": 3560,
      "any": 3561,
      "Ġvoel": 3562,
      "arr": 3563,
      "èĬĤçĽ®": 3564,
      "èĪ¹": 3565,
      "Ġverder": 3566,
      "åĨľ": 3567,
      "ĠOn": 3568,
      "æĺ¯ä¸ª": 3569,
      "æīĭæľº": 3570,
      "æĪĳè¯´": 3571,
      "Ġä¸ºä»Ģä¹Ī": 3572,
      "Ġpass": 3573,
      "ton": 3574,
      "Ġstud": 3575,
      "eng": 3576,
      "az": 3577,
      "ĠAll": 3578,
      "Ġinformatie": 3579,
      "Ġ199": 3580,
      "å¤ļäºĨ": 3581,
      "Ġreal": 3582,
      "Ġken": 3583,
      "äºİæĺ¯": 3584,
      "å¾ĭ": 3585,
      "Ġcoming": 3586,
      "èī¯": 3587,
      "ĠEur": 3588,
      "ush": 3589,
      "ä¸Ģå®ļè¦ģ": 3590,
      "Ġä½łå°±": 3591,
      "åĹ": 3592,
      "æİĮ": 3593,
      "ĠBl": 3594,
      "æĿĲ": 3595,
      "æ¿Ģ": 3596,
      "ç´ł": 3597,
      "Ġslecht": 3598,
      "}$$": 3599,
      "æĪĳéĥ½": 3600,
      "çºª": 3601,
      "çļĦåľ°æĸ¹": 3602,
      "Ġbas": 3603,
      "è¿ĩäºĨ": 3604,
      "æĬĹ": 3605,
      "orth": 3606,
      "aald": 3607,
      "ĠHoe": 3608,
      "auw": 3609,
      "Ġpraten": 3610,
      "Ġquite": 3611,
      "å§¨": 3612,
      "ivers": 3613,
      "åłĤ": 3614,
      "ross": 3615,
      "å½ĵçĦ¶": 3616,
      "Why": 3617,
      "åıįæŃ£": 3618,
      "è¿ĲåĬ¨": 3619,
      "å¦»": 3620,
      "Ġret": 3621,
      "æĻ¯": 3622,
      "åĲ¸": 3623,
      "åºŃ": 3624,
      "Ġkleine": 3625,
      "ational": 3626,
      "Ġtrain": 3627,
      "king": 3628,
      "rijven": 3629,
      "æĺ¯åķĬ": 3630,
      "Ġbang": 3631,
      "nie": 3632,
      "ä¸īä¸ª": 3633,
      "ĠBij": 3634,
      "çĮ´": 3635,
      "ider": 3636,
      "Ġdire": 3637,
      "åĪĨä¹ĭ": 3638,
      "$$\\": 3639,
      "Ġmother": 3640,
      "æ¯Ķå¦Ĥ": 3641,
      "ĠInd": 3642,
      "èīº": 3643,
      "èĻĳ": 3644,
      "Ġmisschien": 3645,
      "Ġyes": 3646,
      "Âł": 3647,
      "Be": 3648,
      "ç§Ģ": 3649,
      "æľµ": 3650,
      "æľīä¸ª": 3651,
      "å¤ı": 3652,
      "Ġspijt": 3653,
      "ness": 3654,
      "omme": 3655,
      "cept": 3656,
      "æł·çļĦ": 3657,
      "æ²¡äºĭ": 3658,
      "don": 3659,
      "æŃ»äºĨ": 3660,
      "çĨŁ": 3661,
      "Ġing": 3662,
      "Ġnam": 3663,
      "èº«ä¸Ĭ": 3664,
      "Ġverschillende": 3665,
      "é½": 3666,
      "ump": 3667,
      "ane": 3668,
      "Ġenough": 3669,
      "Ġfar": 3670,
      "Ġtop": 3671,
      "è®©ä»ĸ": 3672,
      "èĥľ": 3673,
      "ĠVoor": 3674,
      "Ġgebruikt": 3675,
      "æĪĲä¸º": 3676,
      "Doe": 3677,
      "Ġlight": 3678,
      "éĢĥ": 3679,
      "å®¶çļĦ": 3680,
      "Geen": 3681,
      "åĲ¦": 3682,
      "çĳ": 3683,
      "éľ²": 3684,
      "å£°éŁ³": 3685,
      "æĪ¿åŃĲ": 3686,
      "æīįèĥ½": 3687,
      "?'": 3688,
      "Ġround": 3689,
      "å§ĵ": 3690,
      "Ġcat": 3691,
      "oit": 3692,
      "æķĪ": 3693,
      "Ġfun": 3694,
      "orning": 3695,
      "Ġsw": 3696,
      "æŃ£åľ¨": 3697,
      "ennis": 3698,
      "reken": 3699,
      "ä½łä¹Ł": 3700,
      "Don": 3701,
      "Mr": 3702,
      "enen": 3703,
      "Ġheet": 3704,
      "Ġwist": 3705,
      "Ġhaven": 3706,
      "Ġhadden": 3707,
      "Ġdist": 3708,
      "ä»ĭ": 3709,
      "é¡¶": 3710,
      "ijs": 3711,
      "uring": 3712,
      "Ġ)": 3713,
      "ots": 3714,
      "Nou": 3715,
      "Ġvaak": 3716,
      "çļĦä¸ľè¥¿": 3717,
      "Ġcourse": 3718,
      "ks": 3719,
      "how": 3720,
      "æµĭ": 3721,
      "Ġmoney": 3722,
      "Ġkill": 3723,
      "åİīå®³": 3724,
      "éĶĻè¯¯": 3725,
      "Now": 3726,
      "åį±": 3727,
      "åĨįè§ģ": 3728,
      "go": 3729,
      "Ġåİ»": 3730,
      "å¥¶å¥¶": 3731,
      "ony": 3732,
      "til": 3733,
      "Ġwoorden": 3734,
      "çĪ¶æ¯į": 3735,
      "enten": 3736,
      "çĭĲ": 3737,
      "å¯Į": 3738,
      "åĮ»éĻ¢": 3739,
      "Ġread": 3740,
      "ijdens": 3741,
      "Ġeyes": 3742,
      "Ġcare": 3743,
      "wel": 3744,
      "Ġheen": 3745,
      "çľģ": 3746,
      "æĺ¯ä½ł": 3747,
      "ĠQ": 3748,
      "æŁĲ": 3749,
      "Ġface": 3750,
      "Dank": 3751,
      "ä¸Ģç§į": 3752,
      "Bl": 3753,
      "Ġfew": 3754,
      "åĬ¨çī©": 3755,
      "ä¸įçĶ¨": 3756,
      "who": 3757,
      "ijna": 3758,
      "Ġwalk": 3759,
      "è´¢": 3760,
      "ĠThis": 3761,
      "avond": 3762,
      "ä¸įå¯¹": 3763,
      "å¼¹": 3764,
      "Ġè¿ĺæĺ¯": 3765,
      "Ġseen": 3766,
      "Ġexc": 3767,
      "Ġligt": 3768,
      "elde": 3769,
      "Ġbere": 3770,
      "Ġpoint": 3771,
      "å½©": 3772,
      "Hou": 3773,
      "çĪ¶äº²": 3774,
      "Ġfive": 3775,
      "ract": 3776,
      "èº«è¾¹": 3777,
      "æ¼Ĥäº®": 3778,
      "ä»ĺ": 3779,
      "åĲ¬è¯´": 3780,
      "Ġtook": 3781,
      "å¤§åĵ¥": 3782,
      "Do": 3783,
      "schap": 3784,
      "Ġwait": 3785,
      "ĠFrank": 3786,
      "woorden": 3787,
      "Ġinst": 3788,
      "åįĪ": 3789,
      "åĢŁ": 3790,
      "ustr": 3791,
      "æĹ¢çĦ¶": 3792,
      "oven": 3793,
      "Bed": 3794,
      "Ġbeste": 3795,
      "ä¹¡": 3796,
      "Ġdoll": 3797,
      "Met": 3798,
      "å¼Ģå¿ĥ": 3799,
      "ä½ľä¸º": 3800,
      "Ġplease": 3801,
      "éĩĩ": 3802,
      "Ġidee": 3803,
      "åĲĮåŃ¦": 3804,
      "ç¾Ĭ": 3805,
      "Ġdifferent": 3806,
      "Ġart": 3807,
      "Wacht": 3808,
      "kker": 3809,
      "Ġgraag": 3810,
      "å½ĵä¸Ń": 3811,
      "äºĮéĽ¶": 3812,
      "FATHER": 3813,
      "æł·åŃĲ": 3814,
      "Ġhoud": 3815,
      "ĠæĪĳçļĦ": 3816,
      "ç´¢": 3817,
      "ye": 3818,
      "å¤§äºº": 3819,
      "ĠDeze": 3820,
      "ä½łè¦ģ": 3821,
      "Ġthough": 3822,
      "Ġåģ": 3823,
      "Ġtekst": 3824,
      "ç»´": 3825,
      "ĠåıĪ": 3826,
      "Ġsort": 3827,
      "ling": 3828,
      "ä¸ĢåĿĹ": 3829,
      "ĠJohn": 3830,
      "ica": 3831,
      "å¥Ĺ": 3832,
      "ĠSe": 3833,
      "Ġsmall": 3834,
      "æľīæ²¡æľī": 3835,
      "ley": 3836,
      "Le": 3837,
      "Ġger": 3838,
      "ç»¿": 3839,
      "ç»Īäºİ": 3840,
      "æĭħå¿ĥ": 3841,
      "èĸ": 3842,
      "Ġplant": 3843,
      "æŀ¶": 3844,
      "ax": 3845,
      "åį³": 3846,
      "ips": 3847,
      "Ġhot": 3848,
      "Ġbew": 3849,
      "åį¡": 3850,
      "çº¸": 3851,
      "èĭ¥": 3852,
      "Ġside": 3853,
      "ĠHier": 3854,
      "Ġwerden": 3855,
      "èĢ³": 3856,
      "è¿ĩç¨ĭ": 3857,
      "ĠWill": 3858,
      "Ġå¤§å®¶": 3859,
      "çĥ§": 3860,
      "åıªèĥ½": 3861,
      "Ġrond": 3862,
      "æĹ¥åŃĲ": 3863,
      "æĺ¨å¤©": 3864,
      "use": 3865,
      "ĠæĪĳçŁ¥éģĵ": 3866,
      "oto": 3867,
      "æķĮ": 3868,
      "eert": 3869,
      "æĿ¥æĿ¥": 3870,
      "Ġber": 3871,
      "Ġneem": 3872,
      "åħ³æ³¨": 3873,
      "omas": 3874,
      "Ġsleep": 3875,
      "èĨ": 3876,
      "ished": 3877,
      "Ġass": 3878,
      "ible": 3879,
      "Ġasked": 3880,
      "æĺ¯åľ¨": 3881,
      "åħ°": 3882,
      "Ġmorning": 3883,
      "å®ĥä»¬": 3884,
      "Ġsix": 3885,
      "æĮĳ": 3886,
      "Ġkoning": 3887,
      "çİĩ": 3888,
      "ç§ĺ": 3889,
      "è¿ĺæ²¡": 3890,
      "Ġint": 3891,
      "å®Įåħ¨": 3892,
      "åĪļåĪļ": 3893,
      "æĸ¹å¼ı": 3894,
      "ä¼´": 3895,
      "Let": 3896,
      "Ġgeeft": 3897,
      "Ġboek": 3898,
      "Ġbetween": 3899,
      "Ġdisc": 3900,
      "cial": 3901,
      "åħ¶ä»ĸ": 3902,
      "æĸĹ": 3903,
      "Ġeach": 3904,
      "Ġsecond": 3905,
      "è´Ŀ": 3906,
      "æ¶Īæģ¯": 3907,
      "å®ĮäºĨ": 3908,
      "çĸ¼": 3909,
      "çĽĳ": 3910,
      "æ´ŀ": 3911,
      "Ġpie": 3912,
      "åĲĵ": 3913,
      "weg": 3914,
      "Ġsing": 3915,
      "Ġmiss": 3916,
      "ä¹Łæ²¡": 3917,
      "ĠOok": 3918,
      "æķ£": 3919,
      "æīĢæľīçļĦ": 3920,
      "ç¥¨": 3921,
      "ijken": 3922,
      "æģĭ": 3923,
      "åº·": 3924,
      "Ġdu": 3925,
      "ics": 3926,
      "ries": 3927,
      "une": 3928,
      "åĪĢ": 3929,
      "aster": 3930,
      "Ġuntil": 3931,
      "Ġide": 3932,
      "ä¸Ŀ": 3933,
      "Ġelke": 3934,
      "ieden": 3935,
      "Sch": 3936,
      "uil": 3937,
      "ç»ıæµİ": 3938,
      "ollow": 3939,
      "Ġgeluk": 3940,
      "Ġsorry": 3941,
      "åºĬ": 3942,
      "å¯¹å¯¹": 3943,
      "oemen": 3944,
      "gether": 3945,
      "åĪ¤": 3946,
      "éŀ": 3947,
      "Ġè¯·": 3948,
      "onnen": 3949,
      "ĠWhat": 3950,
      "Ġwelke": 3951,
      "Ġsound": 3952,
      "Ġtogether": 3953,
      "èĿ": 3954,
      "åıªè¦ģ": 3955,
      "cle": 3956,
      "ung": 3957,
      "leg": 3958,
      "Ġlooks": 3959,
      "Ġdicht": 3960,
      "åŃ¦ä¹ł": 3961,
      "Ġå§": 3962,
      "æ³¢": 3963,
      "ç¬Ķ": 3964,
      "ily": 3965,
      "æĥ³è¦ģ": 3966,
      "æĭľæĭľ": 3967,
      "wo": 3968,
      "Ġworld": 3969,
      "ãĢĭ": 3970,
      "erde": 3971,
      "äº«": 3972,
      "ãĢĬ": 3973,
      "Ġnemen": 3974,
      "ç¿»": 3975,
      "ably": 3976,
      "Ġdrink": 3977,
      "èĮ¶": 3978,
      "çĻ¾åĪĨä¹ĭ": 3979,
      "Ġlooking": 3980,
      "Ġzorgen": 3981,
      "ç§ĭ": 3982,
      "Ġaantal": 3983,
      "è¿·": 3984,
      "åĪº": 3985,
      "mp": 3986,
      "voorbeeld": 3987,
      "å¹´è½»": 3988,
      "Ġext": 3989,
      "elling": 3990,
      "rek": 3991,
      "ä½łäºĨ": 3992,
      "Ġä½łè¦ģ": 3993,
      "Ġklein": 3994,
      "ĠéĤ£æĪĳ": 3995,
      "åĹ¯åĹ¯": 3996,
      "åĲ´": 3997,
      "ĠMe": 3998,
      "Ġvertellen": 3999,
      "Ġkrijgt": 4000,
      "åĴĭ": 4001,
      "ape": 4002,
      "Ġä¸Ģä¸ª": 4003,
      "çĶļ": 4004,
      "Ġgoes": 4005,
      "vie": 4006,
      "ç²ī": 4007,
      "Ġnothing": 4008,
      "Ġthuis": 4009,
      "çŁŃ": 4010,
      "éĤ£åĦ¿": 4011,
      "Ġlar": 4012,
      "kelijk": 4013,
      "uz": 4014,
      "åįĩ": 4015,
      "å¹²åĲĹ": 4016,
      "å±Ĥ": 4017,
      "è®¨": 4018,
      "åĸĦ": 4019,
      "Ġknown": 4020,
      "eerde": 4021,
      "Ġremember": 4022,
      "ç§¯": 4023,
      "EA": 4024,
      "åĽłæŃ¤": 4025,
      "Of": 4026,
      "gan": 4027,
      "Ġmeneer": 4028,
      "reek": 4029,
      "Ġontst": 4030,
      "Ġwoord": 4031,
      "æ²Ļ": 4032,
      "Ġair": 4033,
      "ures": 4034,
      "jebl": 4035,
      "Ġteam": 4036,
      "æ¬¾": 4037,
      "het": 4038,
      "åľĪ": 4039,
      "Ġzag": 4040,
      "ball": 4041,
      "è¿Ļä¹Īå¤ļ": 4042,
      "Ġdeed": 4043,
      "aanse": 4044,
      "ä¸´": 4045,
      "Ġmooi": 4046,
      "è±Ĩ": 4047,
      "Ġbur": 4048,
      "Hallo": 4049,
      "æ´ĭ": 4050,
      "Ġlijkt": 4051,
      "ng": 4052,
      "ĠAmerik": 4053,
      "Ġwerken": 4054,
      "Ġhoog": 4055,
      "Ġboth": 4056,
      "ĠåĮ": 4057,
      "Ġä¸Ĭ": 4058,
      "éĥ½ä¼ļ": 4059,
      "ific": 4060,
      "èĥ½ä¸įèĥ½": 4061,
      "æĬĬæĪĳ": 4062,
      "Ġgeweld": 4063,
      "ä¸Ģåıª": 4064,
      "jeblieft": 4065,
      "æĭ¬": 4066,
      "Ġstay": 4067,
      "Ġjuist": 4068,
      "Ġgelijk": 4069,
      "åĬª": 4070,
      "Ġvlie": 4071,
      "èŀ": 4072,
      "è¶ĬæĿ¥": 4073,
      "è¯Ħ": 4074,
      "Ġhold": 4075,
      "å°ģ": 4076,
      "Ġhen": 4077,
      "åŃ¦çĶŁ": 4078,
      "äºļ": 4079,
      "ä¼¯": 4080,
      "ating": 4081,
      "çļĦéĤ£": 4082,
      "åħħ": 4083,
      "Ġhart": 4084,
      "ä»Ļ": 4085,
      "igd": 4086,
      "Ġrust": 4087,
      "æĦŁæĥħ": 4088,
      "Ġyet": 4089,
      "aught": 4090,
      "åŃ¦æł¡": 4091,
      "inner": 4092,
      "å´": 4093,
      "ient": 4094,
      "Ġhor": 4095,
      "è¿ĺä¸į": 4096,
      "è´¥": 4097,
      "è¶ĬæĿ¥è¶Ĭ": 4098,
      "éĥ¨åĪĨ": 4099,
      "å¼ĥ": 4100,
      "è¾Ľ": 4101,
      "Jullie": 4102,
      "ĠChrist": 4103,
      "ä½łè¿Ļ": 4104,
      "åħ¬ä¸»": 4105,
      "æĿ¯": 4106,
      "åģļçļĦ": 4107,
      "CD": 4108,
      "Ġåº": 4109,
      "ellow": 4110,
      "Ġrun": 4111,
      "éĻį": 4112,
      "ä¸Ģä¼ļåĦ¿": 4113,
      "çĩ": 4114,
      "Ġhear": 4115,
      "ideo": 4116,
      "æĪĳåľ¨": 4117,
      "æĹģ": 4118,
      "Ġooit": 4119,
      "Ġmeisje": 4120,
      "æĪĳåİ»": 4121,
      "æĪĳçľĭ": 4122,
      "Ġpresent": 4123,
      "Ġmanier": 4124,
      "Ġans": 4125,
      "å§Ĳå§Ĳ": 4126,
      "Come": 4127,
      "èĢģæĿ¿": 4128,
      "Ġwonder": 4129,
      "Ġå¦Ī": 4130,
      "oopt": 4131,
      "Ġdri": 4132,
      "æĸĩåĮĸ": 4133,
      "è¯į": 4134,
      "ä¾Ľ": 4135,
      "Ġgetting": 4136,
      "Ġbep": 4137,
      "RO": 4138,
      "huh": 4139,
      "Ġnumber": 4140,
      "10": 4141,
      "åģ¥": 4142,
      "Ġverz": 4143,
      "ĠæĪĳè¯´": 4144,
      "mber": 4145,
      "ä¿ĿæĬ¤": 4146,
      "why": 4147,
      "æİ¢": 4148,
      "ç¢°": 4149,
      "Ġnat": 4150,
      "æ£Ģ": 4151,
      "Ġbegrij": 4152,
      "rijd": 4153,
      "rew": 4154,
      "ator": 4155,
      "ual": 4156,
      "Ġbijna": 4157,
      "Ġfoot": 4158,
      "Ġfire": 4159,
      "Ġgener": 4160,
      "ç§ģ": 4161,
      "HÃ©": 4162,
      "ä¹Łæ²¡æľī": 4163,
      "ä¸ģ": 4164,
      "Ġkop": 4165,
      "dr": 4166,
      "ľçļĦ": 4167,
      "æģĲ": 4168,
      "Ġgeze": 4169,
      "è´§": 4170,
      "è¢ĭ": 4171,
      "éª¨": 4172,
      "Hey": 4173,
      "åĽŀæĿ¥äºĨ": 4174,
      "è§£æŀĲ": 4175,
      "æ¬¢è¿İ": 4176,
      "Ġgod": 4177,
      "con": 4178,
      "Ġbox": 4179,
      "ĠThere": 4180,
      "è¿ĺè¦ģ": 4181,
      "å®ĭ": 4182,
      "ä¸¢": 4183,
      "Ġset": 4184,
      "Ġtoday": 4185,
      "Ġoh": 4186,
      "æ³¨æĦı": 4187,
      "Van": 4188,
      "net": 4189,
      "Ġlucht": 4190,
      "éģį": 4191,
      "åıĺæĪĲ": 4192,
      "ä»ĸä»¬çļĦ": 4193,
      "è®Ń": 4194,
      "ages": 4195,
      "å¸¦çĿĢ": 4196,
      "éŃĶ": 4197,
      "raat": 4198,
      "anger": 4199,
      "æĿ¥åĪ°": 4200,
      "gram": 4201,
      "Ġkr": 4202,
      "par": 4203,
      "Ġè¿Ļæł·": 4204,
      "son": 4205,
      "ä¸įæĥ³": 4206,
      "Ġcir": 4207,
      "Ġ198": 4208,
      "Ġbec": 4209,
      "æħ¢æħ¢": 4210,
      "æķ´ä¸ª": 4211,
      "æĹħ": 4212,
      "åĨ°": 4213,
      "æģ©": 4214,
      "åĩłå¤©": 4215,
      "è¡¥": 4216,
      "¤Ĳ": 4217,
      "ĠæĪĳè¦ģ": 4218,
      "æĬĺ": 4219,
      "æĻ®": 4220,
      "Ġä½łçļĦ": 4221,
      "uurt": 4222,
      "çŃĶåºĶ": 4223,
      "Ġ12": 4224,
      "Ġenige": 4225,
      "éĥ½æľī": 4226,
      "ç»ıå¸¸": 4227,
      "akt": 4228,
      "Ġbren": 4229,
      "mon": 4230,
      "åĬªåĬĽ": 4231,
      "Ġèµ°": 4232,
      "éĩĬ": 4233,
      "ĠåĽŀ": 4234,
      "vin": 4235,
      "ats": 4236,
      "åĲµ": 4237,
      "Ġsla": 4238,
      "æ¸¸æĪı": 4239,
      "æ¹ĸ": 4240,
      "åĲįåŃĹ": 4241,
      "è¿Ļä»¶": 4242,
      "è¿Ľåİ»": 4243,
      "Ġåĸ": 4244,
      "Ġou": 4245,
      "Ġonge": 4246,
      "ç»ĩ": 4247,
      "ipp": 4248,
      "ason": 4249,
      "çľŁæŃ£": 4250,
      "åįļ": 4251,
      "Deze": 4252,
      "Ġhoren": 4253,
      "ĠNo": 4254,
      "çľŁçļĦæĺ¯": 4255,
      "çīĮ": 4256,
      "éĥ½æ²¡": 4257,
      "Ġmidd": 4258,
      "fl": 4259,
      "Ġspeel": 4260,
      "inds": 4261,
      "åĵ¥åĵ¥": 4262,
      "æĸ½": 4263,
      "å¦Ĥä½ķ": 4264,
      "uin": 4265,
      "Okay": 4266,
      "Ġzin": 4267,
      "opt": 4268,
      "Ġaard": 4269,
      "Ġgebruiken": 4270,
      "éĥ½åľ¨": 4271,
      "Ġfiguur": 4272,
      "ä½łæĢİä¹Ī": 4273,
      "Ġ0": 4274,
      "bed": 4275,
      "éĺµ": 4276,
      "Ġvindt": 4277,
      "Ġbesl": 4278,
      "åľ°è¯´": 4279,
      "Ġonce": 4280,
      "Ġgrond": 4281,
      "etty": 4282,
      "å¾ĹåĪ°": 4283,
      "èĮĥ": 4284,
      "anks": 4285,
      "ĠåĪ°": 4286,
      "Ġcoll": 4287,
      "ä¸»è¦ģ": 4288,
      "Ġmogelijk": 4289,
      "Ġmannen": 4290,
      "ĠMiss": 4291,
      "ocht": 4292,
      "æŀĦ": 4293,
      "èī²çļĦ": 4294,
      "å½ķ": 4295,
      "æ£®": 4296,
      "roken": 4297,
      "Ġå¤ª": 4298,
      "maar": 4299,
      "Ġsign": 4300,
      "å°±æĺ¯è¯´": 4301,
      "ä½łçŁ¥éģĵ": 4302,
      "Ġè¿Ļä¹Ī": 4303,
      "é¦Ĩ": 4304,
      "Ġhigh": 4305,
      "iam": 4306,
      "ä¸ĭçļĦ": 4307,
      "èĩ£": 4308,
      "Ġoorlog": 4309,
      "Ġcut": 4310,
      "Ġniemand": 4311,
      "åĸĬ": 4312,
      "èĪĴ": 4313,
      "èĥ½åĬĽ": 4314,
      "å°±è¦ģ": 4315,
      "æĻº": 4316,
      "oemd": 4317,
      "Ġsoort": 4318,
      "Ġstem": 4319,
      "éĿ©": 4320,
      "ä¼ļæľī": 4321,
      "æĬ¢": 4322,
      "ĠPh": 4323,
      "çĪ·çĪ·": 4324,
      "ines": 4325,
      "Ġleave": 4326,
      "æĸ°éĹ»": 4327,
      "æµª": 4328,
      "osed": 4329,
      "çĲĨè§£": 4330,
      "co": 4331,
      "Ġverhaal": 4332,
      "é¤Ĳ": 4333,
      "Ġmove": 4334,
      "æ¦Ĥ": 4335,
      "ikt": 4336,
      "Ġwithout": 4337,
      "weede": 4338,
      "Ġexp": 4339,
      "Ġ17": 4340,
      "çĭ¸": 4341,
      "Ġlos": 4342,
      "Ġhaving": 4343,
      "My": 4344,
      "å·¦": 4345,
      "Ġheard": 4346,
      "ĠAs": 4347,
      "Ġpat": 4348,
      "è·ŁçĿĢ": 4349,
      "Ġvorm": 4350,
      "å¾Īå¥½": 4351,
      "Ġtri": 4352,
      "ieten": 4353,
      "å½Ĵ": 4354,
      "çĶļèĩ³": 4355,
      "åĨ¬": 4356,
      "ç¼º": 4357,
      "åħį": 4358,
      "bur": 4359,
      "ĠDuit": 4360,
      "ä¸įä½ı": 4361,
      "ired": 4362,
      "éĻĨ": 4363,
      "é¢Ħ": 4364,
      "min": 4365,
      "Ġpick": 4366,
      "æĻĵ": 4367,
      "æľ¬æĿ¥": 4368,
      "ement": 4369,
      "å¿į": 4370,
      "æł¹æį®": 4371,
      "Ġmus": 4372,
      "Ġdear": 4373,
      "unten": 4374,
      "éĤ£è¾¹": 4375,
      "Ġtalking": 4376,
      "mee": 4377,
      "Ġgehe": 4378,
      "Ġhands": 4379,
      "ober": 4380,
      "ç®Ģåįķ": 4381,
      "æĪĲåĬŁ": 4382,
      "å¼Ĥ": 4383,
      "Ġwanted": 4384,
      "olen": 4385,
      "illy": 4386,
      "çļĦéĤ£ä¸ª": 4387,
      "çļĦäºĭåĦ¿": 4388,
      "Ġgegeven": 4389,
      "fta": 4390,
      "æļĹ": 4391,
      "è¦ģæ±Ĥ": 4392,
      "Ġchildren": 4393,
      "zicht": 4394,
      "Ġletter": 4395,
      "did": 4396,
      "çīĻ": 4397,
      "Ġæĺ¯ä¸įæĺ¯": 4398,
      "é½Ĳ": 4399,
      "Ġuh": 4400,
      "åĲ¬åĪ°": 4401,
      "ha": 4402,
      "çħ§é¡¾": 4403,
      "Ġanswer": 4404,
      "Ġopge": 4405,
      "æĪĳè¿Ļ": 4406,
      "ilig": 4407,
      "Ġfollow": 4408,
      "åĬ²": 4409,
      "é¡¿": 4410,
      "åŃĲéĩĮ": 4411,
      "Ġlooked": 4412,
      "åĽ°": 4413,
      "å®ŀåľ¨": 4414,
      "åĲĮæĹ¶": 4415,
      "Ġsoon": 4416,
      "Ġfact": 4417,
      "æľīäºĽ": 4418,
      "Ġboys": 4419,
      "Ġ:": 4420,
      "Ġorgan": 4421,
      "Bedankt": 4422,
      "æĸ°çļĦ": 4423,
      "Ġnear": 4424,
      "ches": 4425,
      "å¹¸ç¦ı": 4426,
      "ester": 4427,
      "Wij": 4428,
      "çłĶç©¶": 4429,
      "Ġspelen": 4430,
      "werp": 4431,
      "ä¼ĳæģ¯": 4432,
      "åª³": 4433,
      "èĦ±": 4434,
      "è§£åĨ³": 4435,
      "çİ¯å¢ĥ": 4436,
      "Ġshall": 4437,
      "å³": 4438,
      "lex": 4439,
      "Ġgesp": 4440,
      "ĠVer": 4441,
      "éļ¾éģĵ": 4442,
      "Ġwatch": 4443,
      "è¯Ĺ": 4444,
      "çĥŁ": 4445,
      "OU": 4446,
      "Ġav": 4447,
      "å°Ħ": 4448,
      "æĺ¯è°ģ": 4449,
      "Ġhalen": 4450,
      "èĵĿ": 4451,
      "åľĨ": 4452,
      "ones": 4453,
      "ĠVan": 4454,
      "åĳĹ": 4455,
      "urs": 4456,
      "most": 4457,
      "aul": 4458,
      "oke": 4459,
      "Ġhoeveel": 4460,
      "Ġoffic": 4461,
      "Ġhoop": 4462,
      "iter": 4463,
      "Ġty": 4464,
      "ijnen": 4465,
      "ĠæľĢ": 4466,
      "Ġverw": 4467,
      "Ġmoo": 4468,
      "itch": 4469,
      "åĩı": 4470,
      "Ġincl": 4471,
      "åį°": 4472,
      "Ġzouden": 4473,
      "åĮ»çĶŁ": 4474,
      "çĭĲçĭ¸": 4475,
      "åľ¨æĪĳ": 4476,
      "Ġsim": 4477,
      "bel": 4478,
      "Ġdenken": 4479,
      "éĻ¤äºĨ": 4480,
      "ched": 4481,
      "Ġanim": 4482,
      "ä»»åĬ¡": 4483,
      "çļĩä¸Ĭ": 4484,
      "Ġdagen": 4485,
      "Ġmind": 4486,
      "Ġvandaag": 4487,
      "mb": 4488,
      "heden": 4489,
      "Ġogen": 4490,
      "å¸ħ": 4491,
      "å¤§äºĨ": 4492,
      "Ġåıªè¦ģ": 4493,
      "ä½Ļ": 4494,
      "Ġpast": 4495,
      "æĽ¾ç»ı": 4496,
      "Ġjaren": 4497,
      "è¾ĵ": 4498,
      "æī¹": 4499,
      "çĶŁæ°Ķ": 4500,
      "è¶£": 4501,
      "æ°¸è¿ľ": 4502,
      "åı³": 4503,
      "èĥĸ": 4504,
      "çģ°": 4505,
      "ities": 4506,
      "ants": 4507,
      "ĠWik": 4508,
      "ular": 4509,
      "und": 4510,
      "å°ıå¿ĥ": 4511,
      "æĶ¹åıĺ": 4512,
      "Ġreact": 4513,
      "åī¯": 4514,
      "HE": 4515,
      "å¥³åŃ©": 4516,
      "åķĬä½ł": 4517,
      "weet": 4518,
      "¿½": 4519,
      "ï¿½": 4520,
      "ç¨³": 4521,
      "æĳĨ": 4522,
      "ĠJack": 4523,
      "Ġpolitie": 4524,
      "Ġgebeurt": 4525,
      "Ġmeet": 4526,
      "Not": 4527,
      "Ġhers": 4528,
      "èĢĥèĻĳ": 4529,
      "åİ»æī¾": 4530,
      "ienden": 4531,
      "ule": 4532,
      "ased": 4533,
      "å¯¹æĪĳ": 4534,
      "arry": 4535,
      "Ġzelfs": 4536,
      "å°ĨåĨĽ": 4537,
      "ertain": 4538,
      "Ġzoek": 4539,
      "rop": 4540,
      "Sh": 4541,
      "å®Ĺ": 4542,
      "ga": 4543,
      "Ġknew": 4544,
      "abel": 4545,
      "Ġob": 4546,
      "ready": 4547,
      "Ġjongens": 4548,
      "Ġlive": 4549,
      "Ġpos": 4550,
      "ĠæĪĳçİ°åľ¨": 4551,
      "çĺ": 4552,
      "Ġhafta": 4553,
      "elden": 4554,
      "éº»çĥ¦": 4555,
      "Ġwar": 4556,
      "Ġsir": 4557,
      "Ġ16": 4558,
      "Ġalong": 4559,
      "Ġbreak": 4560,
      "åİŁæĿ¥": 4561,
      "Ġlich": 4562,
      "æīĺ": 4563,
      "å¯»": 4564,
      "Ġdays": 4565,
      "ĠåĴĮ": 4566,
      "ĠMrs": 4567,
      "æĬĢæľ¯": 4568,
      "ilijk": 4569,
      "Ġ202": 4570,
      "Ġgeleden": 4571,
      "Zeg": 4572,
      "çĽĺ": 4573,
      "Ġaange": 4574,
      "åŃ£": 4575,
      "ä¾ĭ": 4576,
      "moet": 4577,
      "Ġwoman": 4578,
      "éĹ®ä½ł": 4579,
      "Ġhimself": 4580,
      "åķĬæĪĳ": 4581,
      "ctie": 4582,
      "II": 4583,
      "æ¢ħ": 4584,
      "é¢ĳ": 4585,
      "æģ¶": 4586,
      "åĳĬè¯īæĪĳ": 4587,
      "ison": 4588,
      "åıĤåĬł": 4589,
      "å®ģ": 4590,
      "åĬ³": 4591,
      "Ġ197": 4592,
      "èĩªçĦ¶": 4593,
      "lo": 4594,
      "å¦ĤæŃ¤": 4595,
      "èģª": 4596,
      "enty": 4597,
      "very": 4598,
      "Ġklas": 4599,
      "åĵªéĩĮ": 4600,
      "æİ¥åıĹ": 4601,
      "æĿŁ": 4602,
      "appy": 4603,
      "Ġteken": 4604,
      "æĽ²": 4605,
      "å°Ŀ": 4606,
      "Ġsaying": 4607,
      "éĽ·": 4608,
      "çģ¯": 4609,
      "åĭĩ": 4610,
      "Ġä¸ī": 4611,
      "åª³å¦ĩ": 4612,
      "ä»Ģä¹ĪåĳĢ": 4613,
      "æļĸ": 4614,
      "idden": 4615,
      "Ġzoon": 4616,
      "èħ¿": 4617,
      "å¸®æĪĳ": 4618,
      "Ġready": 4619,
      "Ġkans": 4620,
      "å®ĥçļĦ": 4621,
      "æ¤į": 4622,
      "Ġagainst": 4623,
      "åĶĲ": 4624,
      "dag": 4625,
      "ari": 4626,
      "å¸Ĥåľº": 4627,
      "Alles": 4628,
      "å¯¹åķĬ": 4629,
      "äººä»¬": 4630,
      "Ġgezegd": 4631,
      "Ġhour": 4632,
      "erst": 4633,
      "Ġvijf": 4634,
      "kl": 4635,
      "çĤ¹åĦ¿": 4636,
      "Ġfamilie": 4637,
      "eb": 4638,
      "rie": 4639,
      "æĬĬä½ł": 4640,
      "Ġè¿ĻäºĽ": 4641,
      "å¤ĸéĿ¢": 4642,
      "Ġquest": 4643,
      "ä¸ĬéĿ¢": 4644,
      "arde": 4645,
      "NAN": 4646,
      "Ġbestaat": 4647,
      "Ġoude": 4648,
      "è½®": 4649,
      "å¿«ä¹Ĳ": 4650,
      "Ġander": 4651,
      "Ġum": 4652,
      "æ²ī": 4653,
      "è¡Ĺ": 4654,
      "æĳĩ": 4655,
      "ç³ĸ": 4656,
      "ç¥Ŀ": 4657,
      "gy": 4658,
      "äºĨä»ĸ": 4659,
      "ekent": 4660,
      "ĠUnited": 4661,
      "aint": 4662,
      "ä½ľçĶ¨": 4663,
      "è¿Ľåħ¥": 4664,
      "Ġeff": 4665,
      "rol": 4666,
      "çļĦåĲĹ": 4667,
      "æ¯ķç«Ł": 4668,
      "å¯¹äºİ": 4669,
      "åħ³äºİ": 4670,
      "Ġæ¯ı": 4671,
      "ĠDan": 4672,
      "Ġton": 4673,
      "Ġ..": 4674,
      "itten": 4675,
      "éķ¿çļĦ": 4676,
      "Ġmoeilijk": 4677,
      "Ġnacht": 4678,
      "æĪĳçŁ¥éģĵ": 4679,
      "è®¾è®¡": 4680,
      "Ġresp": 4681,
      "Ġlekker": 4682,
      "Ġexpl": 4683,
      "Ġed": 4684,
      "Ġfall": 4685,
      "Ġhappened": 4686,
      "ON": 4687,
      "str": 4688,
      "ital": 4689,
      "ald": 4690,
      "çļĦåķĬ": 4691,
      "oms": 4692,
      "Ġblack": 4693,
      "Ġstory": 4694,
      "ä¸Ģå®ļä¼ļ": 4695,
      "ĠåĬ": 4696,
      "å®¶äºº": 4697,
      "æĮ¥": 4698,
      "esten": 4699,
      "ĠSc": 4700,
      "reven": 4701,
      "Ġles": 4702,
      "Ġpict": 4703,
      "è¾ĪåŃĲ": 4704,
      "Laten": 4705,
      "çĿĢæĢ¥": 4706,
      "Ġoud": 4707,
      "Ġleer": 4708,
      "ç«¯": 4709,
      "fe": 4710,
      "Ġmens": 4711,
      "Ġgave": 4712,
      "Ġheart": 4713,
      "ä¸¤ä¸ªäºº": 4714,
      "ander": 4715,
      "oepen": 4716,
      "Ġmilj": 4717,
      "æĪ´": 4718,
      "å¥ĸ": 4719,
      "ä»Ģä¹ĪæĹ¶åĢĻ": 4720,
      "Ġminder": 4721,
      "ä¸ĢèĪ¬": 4722,
      "Ġzon": 4723,
      "Ġkrijg": 4724,
      "åİĤ": 4725,
      "æ¸Ĳ": 4726,
      "Ġvoed": 4727,
      "æī§": 4728,
      "Ġpubl": 4729,
      "ĠAmerican": 4730,
      "äººæ°ĳ": 4731,
      "è·¯ä¸Ĭ": 4732,
      "line": 4733,
      "æĢ»æĺ¯": 4734,
      "é»ĺ": 4735,
      "Ġhoudt": 4736,
      "Ġvideo": 4737,
      "Ġä¸ĭ": 4738,
      "åĲ¹": 4739,
      "Ġè·Ł": 4740,
      "iger": 4741,
      "Ġbijvoorbeeld": 4742,
      "Ġdirect": 4743,
      "å°±åľ¨": 4744,
      "ĠPar": 4745,
      "éģĹ": 4746,
      "rag": 4747,
      "å¤ªéĺ³": 4748,
      "Ġchar": 4749,
      "oth": 4750,
      "èº²": 4751,
      "mat": 4752,
      "Ġgroep": 4753,
      "Ġupon": 4754,
      "ä»İæĿ¥": 4755,
      "ully": 4756,
      "Maak": 4757,
      "å±ŀäºİ": 4758,
      "Ġfood": 4759,
      "æĿ¡ä»¶": 4760,
      "èİ«": 4761,
      "èĶ": 4762,
      "ĠCl": 4763,
      "åİŁåĽł": 4764,
      "ä¸Ĭæµ·": 4765,
      "æĹłæ³ķ": 4766,
      "éķľ": 4767,
      "è¡ĮäºĨ": 4768,
      "æĿ°": 4769,
      "Ġvond": 4770,
      "Ġlov": 4771,
      "Ġå¤©": 4772,
      "Ġgi": 4773,
      "Ġsub": 4774,
      "å·§": 4775,
      "ither": 4776,
      "Ġbetekent": 4777,
      "Ġgebeurd": 4778,
      "éĢı": 4779,
      "Ġactually": 4780,
      "ä»ĸæĺ¯": 4781,
      "ox": 4782,
      "Ġvroeg": 4783,
      "æ¯įäº²": 4784,
      "Ġ=": 4785,
      "è·ŁæĪĳè¯´": 4786,
      "Ġåī": 4787,
      "çŀ§": 4788,
      "ä¸¤å¤©": 4789,
      "æĬĬä»ĸ": 4790,
      "çĪ±çļĦ": 4791,
      "olf": 4792,
      "airs": 4793,
      "æĵį": 4794,
      "ä¼ģ": 4795,
      "less": 4796,
      "Ġyoung": 4797,
      "orie": 4798,
      "å®ĮæĪĲ": 4799,
      "Ġvers": 4800,
      "è§ģè¿ĩ": 4801,
      "å°ıæĹ¶": 4802,
      "ĠMummy": 4803,
      "Ġmaking": 4804,
      "éŁ³ä¹Ĳ": 4805,
      "å«Į": 4806,
      "ession": 4807,
      "åİ¿": 4808,
      "rouwen": 4809,
      "Ġä½łè¿Ļ": 4810,
      "æĿ¥çľĭ": 4811,
      "æ¾": 4812,
      "ä¿¡æģ¯": 4813,
      "ding": 4814,
      "çŃĸ": 4815,
      "ĠäºĮ": 4816,
      "å°¾": 4817,
      "www": 4818,
      "Ġdel": 4819,
      "ĠGer": 4820,
      "Ġdenkt": 4821,
      "ĠSte": 4822,
      "Ġfamily": 4823,
      "Ġdied": 4824,
      "ä¹Į": 4825,
      "æĶ»": 4826,
      "Ġwhite": 4827,
      "Fr": 4828,
      "irt": 4829,
      "Ġpersoon": 4830,
      "Ġè¦ģä¸į": 4831,
      "ĠZo": 4832,
      "çĽĬ": 4833,
      "Ġeigenlijk": 4834,
      "CDS": 4835,
      "Ġpri": 4836,
      "å°Ĭ": 4837,
      "Ġä¸įè¦ģ": 4838,
      "Ġeverything": 4839,
      "Ġwin": 4840,
      "ying": 4841,
      "Ġwasn": 4842,
      "ĠThomas": 4843,
      "Ġmorgen": 4844,
      "!'": 4845,
      "ä¸Ģçľĭ": 4846,
      "Ġbelieve": 4847,
      "Ġpolit": 4848,
      "ç»ıè¿ĩ": 4849,
      "åĽŀäºĭ": 4850,
      "Ġonderzoek": 4851,
      "åľ¨è¿ĻéĩĮ": 4852,
      "åºĨ": 4853,
      "ĠEl": 4854,
      "çĿ¡è§ī": 4855,
      "æ¬§": 4856,
      "ĠDon": 4857,
      "çĸĹ": 4858,
      "When": 4859,
      "ters": 4860,
      "Ġinterest": 4861,
      "åĩĢ": 4862,
      "åŁİå¸Ĥ": 4863,
      "çłģ": 4864,
      "Ġhum": 4865,
      "å®£": 4866,
      "ĠçľŁçļĦ": 4867,
      "ded": 4868,
      "Ġunderstand": 4869,
      "çıł": 4870,
      "Ġarm": 4871,
      "é¢ľ": 4872,
      "ç¥ĸ": 4873,
      "wards": 4874,
      "èĪį": 4875,
      "æĹ©å°±": 4876,
      "Ġtijdens": 4877,
      "æĪĳçİ°åľ¨": 4878,
      "Ġborn": 4879,
      "åĤ»": 4880,
      "Ġzet": 4881,
      "åĮĹäº¬": 4882,
      "ara": 4883,
      "ç»Ŀå¯¹": 4884,
      "Ġnatuurlijk": 4885,
      "èĻ«": 4886,
      "æĥľ": 4887,
      "Ġlicht": 4888,
      "å¸®åĬ©": 4889,
      "Ġä½łä¸į": 4890,
      "å·¨": 4891,
      "orrow": 4892,
      "unch": 4893,
      "çļĦæĹ¶éĹ´": 4894,
      "Ġcountry": 4895,
      "Ġèĥ½": 4896,
      "å¥½å¤ļ": 4897,
      "Ġä½łè¿ĺ": 4898,
      "çĶŁåĳ½": 4899,
      "bank": 4900,
      "midd": 4901,
      "å®¶åºŃ": 4902,
      "Ġwed": 4903,
      "Ġçİĭ": 4904,
      "æĿĤ": 4905,
      "ç«ł": 4906,
      "vers": 4907,
      "Ġbring": 4908,
      "anc": 4909,
      "ĠSam": 4910,
      "Ġ196": 4911,
      "ĠJan": 4912,
      "Ġinv": 4913,
      "erv": 4914,
      "Ġposs": 4915,
      "Ġcur": 4916,
      "euw": 4917,
      "åĽŀåĪ°": 4918,
      "iness": 4919,
      "ä»ĸå°±": 4920,
      "Ġref": 4921,
      "ä½łåľ¨": 4922,
      "Ġåĵª": 4923,
      "Ġjob": 4924,
      "Ġlichaam": 4925,
      "å¨ģ": 4926,
      "æł¸": 4927,
      "éŁ©": 4928,
      "èµ¢": 4929,
      "Ġmatter": 4930,
      "inde": 4931,
      "çĶµè§Ĩ": 4932,
      "Ġbrand": 4933,
      "äº¿": 4934,
      "ĠæĪĳè¿Ļ": 4935,
      "lijke": 4936,
      "ä¸įè§ģ": 4937,
      "åĲĦä½į": 4938,
      "sc": 4939,
      "è¡¨çİ°": 4940,
      "éĺ¿å§¨": 4941,
      "Ġfeet": 4942,
      "Ġwhe": 4943,
      "houd": 4944,
      "ä¸Ģè¾¹": 4945,
      "deel": 4946,
      "åıĺåĮĸ": 4947,
      "ç«¥": 4948,
      "ä¸ĢæĿ¡": 4949,
      "Mag": 4950,
      "éŀĭ": 4951,
      "è¿Ļä¸ªäºº": 4952,
      "æĦŁè°¢": 4953,
      "æĳ¸": 4954,
      "å¾ĹäºĨ": 4955,
      "ä¸Ĭåİ»": 4956,
      "sten": 4957,
      "Ġsold": 4958,
      "Ġziek": 4959,
      "Ġbegin": 4960,
      "ä¸ĭäºĨ": 4961,
      "èĤļ": 4962,
      "veer": 4963,
      "æŁĵ": 4964,
      "Ġwhole": 4965,
      "ner": 4966,
      "åĽŀçŃĶ": 4967,
      "éĢ¼": 4968,
      "æĺ¯æľī": 4969,
      "slag": 4970,
      "res": 4971,
      "åĲİéĿ¢": 4972,
      "äºĶåįģ": 4973,
      "çľĭäºĨ": 4974,
      "æĶ¯æĮģ": 4975,
      "åĲĥçļĦ": 4976,
      "Ġgeloof": 4977,
      "åħ¨éĥ¨": 4978,
      "Ġåı¯ä»¥": 4979,
      "Ġsoms": 4980,
      "è®¡åĪĴ": 4981,
      "ç¯®": 4982,
      "æĥ¯": 4983,
      "Ġzat": 4984,
      "cess": 4985,
      "ä¹Łæľī": 4986,
      "éĤ£ä½ł": 4987,
      "ç²¾ç¥ŀ": 4988,
      "ared": 4989,
      "ĠTe": 4990,
      "çĶŁçļĦ": 4991,
      "æĬĬå®ĥ": 4992,
      "Ġhond": 4993,
      "Ġkap": 4994,
      "Ġpas": 4995,
      "Ġgevonden": 4996,
      "Ġä½łåĪ«": 4997,
      "Ġmot": 4998,
      "ommy": 4999,
      "Ġgar": 5000,
      "aks": 5001,
      "åĪ«çļĦ": 5002,
      "ç»į": 5003,
      "æķ¬": 5004,
      "Ġcomes": 5005,
      "vrouw": 5006,
      "ĠAt": 5007,
      "ç¬¬ä¸Ģæ¬¡": 5008,
      "å¥½åķĬ": 5009,
      "ives": 5010,
      "Ġcity": 5011,
      "åĪĨéĴŁ": 5012,
      "Ġruim": 5013,
      "ä¸ĢçĻ¾": 5014,
      "ĠOr": 5015,
      "Ġplek": 5016,
      "çĪ¬": 5017,
      "å¨ĥ": 5018,
      "Ġvrienden": 5019,
      "ised": 5020,
      "raak": 5021,
      "æĪĳäºĨ": 5022,
      "plaat": 5023,
      "zer": 5024,
      "Ġband": 5025,
      "å°±åı¯ä»¥": 5026,
      "ç£¨": 5027,
      "Where": 5028,
      "offen": 5029,
      "werk": 5030,
      "ç¬¨": 5031,
      "Ġble": 5032,
      "Ġfoto": 5033,
      "ham": 5034,
      "éĿ¢åīį": 5035,
      "è¡¨ç¤º": 5036,
      "Ġsil": 5037,
      "ç§¦": 5038,
      "Re": 5039,
      "èĢģé¼ł": 5040,
      "éļĲ": 5041,
      "æĺ¯åĽłä¸º": 5042,
      "Me": 5043,
      "Ġpost": 5044,
      "æĢĿèĢĥ": 5045,
      "é¢Ĺ": 5046,
      "Ġgeef": 5047,
      "Ġidea": 5048,
      "met": 5049,
      "EL": 5050,
      "è¡ĮåĬ¨": 5051,
      "æīĵå¼Ģ": 5052,
      "Ġä¸Ģå®ļ": 5053,
      "Ġpot": 5054,
      "å¤§åŃ¦": 5055,
      "dem": 5056,
      "Ġ11": 5057,
      "æ¡Į": 5058,
      "Ġreturn": 5059,
      "å®īæİĴ": 5060,
      "Ġval": 5061,
      "å¤ĦçĲĨ": 5062,
      "éģĩåĪ°": 5063,
      "Ġneer": 5064,
      "Ġsince": 5065,
      "Ġprobleem": 5066,
      "heen": 5067,
      "éĺŁéķ¿": 5068,
      "Ġgro": 5069,
      "ä½³": 5070,
      "Ġvak": 5071,
      "å¾Ĳ": 5072,
      "Ġbekend": 5073,
      "ande": 5074,
      "ĠPl": 5075,
      "å¥½ä¸įå¥½": 5076,
      "æļ´": 5077,
      "ä½łè¿ĺ": 5078,
      "ĠåĲ¬": 5079,
      "çĤ¸": 5080,
      "ager": 5081,
      "ĠSchrijf": 5082,
      "Ġcra": 5083,
      "åħ±äº§": 5084,
      "éĽħ": 5085,
      "åĿĹéĴ±": 5086,
      "Ġcontin": 5087,
      "åĤħ": 5088,
      "Ġcompl": 5089,
      "ouse": 5090,
      "çĥĪ": 5091,
      "50": 5092,
      "ä»£è¡¨": 5093,
      "Ġlanden": 5094,
      "Ġlink": 5095,
      "åŁºæľ¬": 5096,
      "é¼ĵ": 5097,
      "èģĶç³»": 5098,
      "Ġimport": 5099,
      "Ġwarm": 5100,
      "éħ¸": 5101,
      "unny": 5102,
      "ä¸įå¤ª": 5103,
      "æĬ½": 5104,
      "Ġdieren": 5105,
      "ney": 5106,
      "Ġminuten": 5107,
      "Ġä¼ļ": 5108,
      "Ġwouldn": 5109,
      "ikk": 5110,
      "å¸®ä½ł": 5111,
      "ä½įç½®": 5112,
      "ĠWaar": 5113,
      "éĻĲ": 5114,
      "aces": 5115,
      "åı¦å¤ĸ": 5116,
      "è¿ĽæĿ¥": 5117,
      "ene": 5118,
      "TEA": 5119,
      "Ġ194": 5120,
      "Ġtown": 5121,
      "Ġschat": 5122,
      "zet": 5123,
      "Ġlost": 5124,
      "æĻ¨": 5125,
      "ĠFl": 5126,
      "Ġblijft": 5127,
      "ä»Ĭå¹´": 5128,
      "èħ¾": 5129,
      "Ġwrong": 5130,
      "iezen": 5131,
      "Ġstarted": 5132,
      "read": 5133,
      "æĸ¹åĲĳ": 5134,
      "å¥½åĲ§": 5135,
      "Ġgame": 5136,
      "ĠBob": 5137,
      "æĶ¾åľ¨": 5138,
      "akker": 5139,
      "å¦¹å¦¹": 5140,
      "Hel": 5141,
      "orp": 5142,
      "Just": 5143,
      "Ġtimes": 5144,
      "æ»ļ": 5145,
      "å¹³æĹ¶": 5146,
      "haps": 5147,
      "Ġzee": 5148,
      "é¥¿": 5149,
      "å®¡": 5150,
      "Ġprot": 5151,
      "æĮĤ": 5152,
      "Ġnorm": 5153,
      "èį£": 5154,
      "Ġä¸º": 5155,
      "å¾ģ": 5156,
      "ç§»": 5157,
      "Ġwerkt": 5158,
      "Ġlik": 5159,
      "æ®µæĹ¶éĹ´": 5160,
      "æĶ¿åºľ": 5161,
      "çļĦå°±æĺ¯": 5162,
      "Ġtrou": 5163,
      "'.": 5164,
      "ize": 5165,
      "hel": 5166,
      "å«ģ": 5167,
      "çĵľ": 5168,
      "zij": 5169,
      "ming": 5170,
      "ima": 5171,
      "Who": 5172,
      "Ġprof": 5173,
      "Luister": 5174,
      "æĲ¬": 5175,
      "éĤ£ä¹Īå¤ļ": 5176,
      "Ġå¾Ī": 5177,
      "Ġ14": 5178,
      "åįĥä¸ĩ": 5179,
      "Ġgele": 5180,
      "åĨĴ": 5181,
      "Ġgrou": 5182,
      "èĳ£": 5183,
      "Ġprobably": 5184,
      "çļĦåĳĢ": 5185,
      "Ġsyst": 5186,
      "ĠMet": 5187,
      "åģļäºĨ": 5188,
      "éĩĮè¾¹": 5189,
      "è´Łè´£": 5190,
      "Ġcertain": 5191,
      "æ²Ī": 5192,
      "éĽĦ": 5193,
      "Ġå¹¶": 5194,
      "wee": 5195,
      "Men": 5196,
      "Ġrock": 5197,
      "æĸ¹æ³ķ": 5198,
      "è½¯": 5199,
      "och": 5200,
      "è¿ĺåľ¨": 5201,
      "å¾Ĺå¾Ī": 5202,
      "ĠJim": 5203,
      "Ġbecame": 5204,
      "ĠYork": 5205,
      "ä½ıäºĨ": 5206,
      "æ··": 5207,
      "ç»Ħç»ĩ": 5208,
      "æŃ£å¸¸": 5209,
      "çĮľ": 5210,
      "æĪĳæĿ¥": 5211,
      "sn": 5212,
      "æĭ¼": 5213,
      "Ġmark": 5214,
      "Ġtable": 5215,
      "Ġbek": 5216,
      "Ġalmost": 5217,
      "ummer": 5218,
      "å¯¹ä¸įèµ·": 5219,
      "éģĵçĲĨ": 5220,
      "æīĵçĶµè¯Ŀ": 5221,
      "rip": 5222,
      "Zijn": 5223,
      "Ġvre": 5224,
      "ards": 5225,
      "Ġå¹²": 5226,
      "ience": 5227,
      "under": 5228,
      "éķĩ": 5229,
      "Nog": 5230,
      "ler": 5231,
      "Ġåı¯èĥ½": 5232,
      "åģı": 5233,
      "ç¡¬": 5234,
      "è¿°": 5235,
      "åĩºæĿ¥äºĨ": 5236,
      "ĠåİŁ": 5237,
      "Ġä½łçŁ¥éģĵ": 5238,
      "çİ°åľº": 5239,
      "Ġminute": 5240,
      "ĠhÃ¨": 5241,
      "18": 5242,
      "Look": 5243,
      "éº¦": 5244,
      "è°·": 5245,
      "Ġsucc": 5246,
      "å°ıçļĦ": 5247,
      "ĠHow": 5248,
      "å°±åĥı": 5249,
      "å®³æĢķ": 5250,
      "Ġä»¥": 5251,
      "æľīçļĦ": 5252,
      "ret": 5253,
      "Cl": 5254,
      "ĠPro": 5255,
      "ä¸ĢåĪĩ": 5256,
      "Ġduid": 5257,
      "Tot": 5258,
      "æĢİä¹ĪäºĨ": 5259,
      "Ġtrans": 5260,
      "ä¸įåı¯": 5261,
      "ĠEng": 5262,
      "del": 5263,
      "Ġfell": 5264,
      "åľ°ä¸Ĭ": 5265,
      "Ġpa": 5266,
      "å¼±": 5267,
      "æ±¤": 5268,
      "Ġi": 5269,
      "Stop": 5270,
      "Ġnoise": 5271,
      "çĬ¶æĢģ": 5272,
      "æ´»åĬ¨": 5273,
      "Ġtem": 5274,
      "çģŃ": 5275,
      "ING": 5276,
      "Ġbegan": 5277,
      "Ġkamer": 5278,
      "Ġloc": 5279,
      "ä¸įç®¡": 5280,
      "Ã«n": 5281,
      "ä½łæĥ³": 5282,
      "Ġluister": 5283,
      "wijl": 5284,
      "Ġå¤ļ": 5285,
      "Ġeng": 5286,
      "Ġpay": 5287,
      "Ġå±": 5288,
      "Ġpretty": 5289,
      "Ġlopen": 5290,
      "ä½łåİ»": 5291,
      "Ġzoeken": 5292,
      "olly": 5293,
      "inken": 5294,
      "ä»Ģä¹Īåĳ¢": 5295,
      "ä¸ĢæŃ¥": 5296,
      "ĠDie": 5297,
      "Ġding": 5298,
      "Ġbeaut": 5299,
      "ĠæĪĳçľĭ": 5300,
      "Vol": 5301,
      "çıį": 5302,
      "è§¦": 5303,
      "èĢģå©Ĩ": 5304,
      "æľīäºĨ": 5305,
      "Denk": 5306,
      "Ġpijn": 5307,
      "sk": 5308,
      "Ġreden": 5309,
      "Ġalready": 5310,
      "Ġgrot": 5311,
      "vr": 5312,
      "ship": 5313,
      "ruct": 5314,
      "Ġeeuw": 5315,
      "æĪ¿éĹ´": 5316,
      "é¹¿": 5317,
      "è¯ļ": 5318,
      "Ġéĥ½æĺ¯": 5319,
      "çŃ¾": 5320,
      "Ġprogram": 5321,
      "just": 5322,
      "UR": 5323,
      "ziek": 5324,
      "åį±éĻ©": 5325,
      "Ġeas": 5326,
      "Ġeight": 5327,
      "Ġpunt": 5328,
      "kig": 5329,
      "ç»ª": 5330,
      "è§£éĩĬ": 5331,
      "rat": 5332,
      "Ġsqu": 5333,
      "ury": 5334,
      "ĠæĿİ": 5335,
      "Ġhair": 5336,
      "ĠOm": 5337,
      "ä½łåķĬ": 5338,
      "å¥½åĲĹ": 5339,
      "ä¹Łä¸įçŁ¥éģĵ": 5340,
      "Ġsuper": 5341,
      "reeg": 5342,
      "çĽĸ": 5343,
      "åĲĦç§į": 5344,
      "Ġgreen": 5345,
      "åŃĺåľ¨": 5346,
      "ĠéĤ£å°±": 5347,
      "æģ¨": 5348,
      "çªĹ": 5349,
      "ä¸Ģå¹´": 5350,
      "ogra": 5351,
      "uig": 5352,
      "Ġwoon": 5353,
      "æ¬º": 5354,
      "anten": 5355,
      "ging": 5356,
      "hand": 5357,
      "ĠCar": 5358,
      "éĴĪ": 5359,
      "Ġcup": 5360,
      "ined": 5361,
      "Ġson": 5362,
      "Ġspel": 5363,
      "Ġblue": 5364,
      "å¿ĥçļĦ": 5365,
      "é²ľ": 5366,
      "Ġç»Ļ": 5367,
      "ouch": 5368,
      "éĹŃ": 5369,
      "Ġexper": 5370,
      "ç¼ĺ": 5371,
      "åħ¶ä¸Ń": 5372,
      "Ġbal": 5373,
      "åĨł": 5374,
      "åįģäºĮ": 5375,
      "Ġuitge": 5376,
      "æ£Ĵ": 5377,
      "good": 5378,
      "åħ±äº§åħļ": 5379,
      "çĿĢæĪĳ": 5380,
      "Ex": 5381,
      "ĠæĪĳè¿ĺ": 5382,
      "essed": 5383,
      "omin": 5384,
      "Toen": 5385,
      "Ġbar": 5386,
      "ĠèĻ½çĦ¶": 5387,
      "Ġbrengen": 5388,
      "Ġä½łæĥ³": 5389,
      "akkelijk": 5390,
      "å¤®": 5391,
      "Then": 5392,
      "zie": 5393,
      "Are": 5394,
      "reng": 5395,
      "æĲľ": 5396,
      "bare": 5397,
      "åĲī": 5398,
      "omp": 5399,
      "Ġdead": 5400,
      "huis": 5401,
      "Ġteach": 5402,
      "åĩ¶": 5403,
      "ç¾İä¸½": 5404,
      "éĶ®": 5405,
      "å¤ªå¤ª": 5406,
      "Ġsat": 5407,
      "Ġ30": 5408,
      "Ġhulp": 5409,
      "iep": 5410,
      "ä½łä½ł": 5411,
      "ains": 5412,
      "ott": 5413,
      "Ġgotta": 5414,
      "orge": 5415,
      "zien": 5416,
      "atter": 5417,
      "Ġjong": 5418,
      "åľ¨è¿Ļä¸ª": 5419,
      "Ġgehad": 5420,
      "Ġliggen": 5421,
      "Ġhoort": 5422,
      "ĠçľŁ": 5423,
      "çļĦå¿ĥ": 5424,
      "èµ·äºĨ": 5425,
      "èĻļ": 5426,
      "Ġzom": 5427,
      "ĠStates": 5428,
      "ĠåºĶ": 5429,
      "èĥŀ": 5430,
      "Ġafbeeld": 5431,
      "ĠWel": 5432,
      "Ġåģļ": 5433,
      "å°¤": 5434,
      "å¥¹ä»¬": 5435,
      "Ġvrouwen": 5436,
      "Ġwachten": 5437,
      "Ġfloor": 5438,
      "Ġä»¥åĲİ": 5439,
      "Ġbes": 5440,
      "Ġenerg": 5441,
      "rought": 5442,
      "å¥½çľĭ": 5443,
      "Kan": 5444,
      "ç®Ĺæĺ¯": 5445,
      "Ġleren": 5446,
      "èŃ¦å¯Ł": 5447,
      "ĠEurop": 5448,
      "Ġho": 5449,
      "é¬¼åŃĲ": 5450,
      "Ġwants": 5451,
      "å¤©å¤©": 5452,
      "Ġfriends": 5453,
      "itting": 5454,
      "Right": 5455,
      "Ġplaying": 5456,
      "æĮºå¥½çļĦ": 5457,
      "Ġbeginnen": 5458,
      "èŀį": 5459,
      "ode": 5460,
      "vern": 5461,
      "Ġå¸Ī": 5462,
      "Ġtaken": 5463,
      "iers": 5464,
      "Ġvoet": 5465,
      "ä¸įä¸Ģæł·": 5466,
      "è®¸å¤ļ": 5467,
      "Echt": 5468,
      "Ġduring": 5469,
      "ä»ĸè¯´": 5470,
      "çĪĨ": 5471,
      "è°ĵ": 5472,
      "Ġ13": 5473,
      "ric": 5474,
      "ä¸įåľ¨": 5475,
      "ĠåĵİåĳĢ": 5476,
      "è¾Ľèĭ¦": 5477,
      "aybe": 5478,
      "èľľ": 5479,
      "ÉĻ": 5480,
      "Ġappear": 5481,
      "åįı": 5482,
      "èĥĨ": 5483,
      "èµ°åĲ§": 5484,
      "æ¯Ķå¦Ĥè¯´": 5485,
      "Ġparty": 5486,
      "ijst": 5487,
      "ĠCon": 5488,
      "Ġaren": 5489,
      "Ġkreeg": 5490,
      "eem": 5491,
      "çĽĽ": 5492,
      "ä¸įä¸Ĭ": 5493,
      "äººéĥ½": 5494,
      "ente": 5495,
      "åºĦ": 5496,
      "çĻ»": 5497,
      "å¥ĩæĢª": 5498,
      "ĠX": 5499,
      "imed": 5500,
      "ĠMaak": 5501,
      "äº¡": 5502,
      "ĠBrit": 5503,
      "ĠAd": 5504,
      "Ġclose": 5505,
      "ues": 5506,
      "Ġmeans": 5507,
      "ĠCan": 5508,
      "éªĤ": 5509,
      "Ġvoice": 5510,
      "acter": 5511,
      "foon": 5512,
      "omet": 5513,
      "anen": 5514,
      "å®ŀéĻħ": 5515,
      "èĢģåħ¬": 5516,
      "çļĦéĹ®é¢ĺ": 5517,
      "Ġpresident": 5518,
      "ä¸¹": 5519,
      "Ġcolor": 5520,
      "æĬ¥åĳĬ": 5521,
      "Ġheld": 5522,
      "åĲĪä½ľ": 5523,
      "Ġtree": 5524,
      "Ġmiljoen": 5525,
      "å¯¹ä½ł": 5526,
      "Ġfight": 5527,
      "Ġplayed": 5528,
      "Ġtrying": 5529,
      "ument": 5530,
      "ä»ĩ": 5531,
      "ä½Ľ": 5532,
      "Ġopl": 5533,
      "è¿¹": 5534,
      "Ġshop": 5535,
      "åįł": 5536,
      "more": 5537,
      "Ġrad": 5538,
      "Ġgraf": 5539,
      "åŃ¤": 5540,
      "ises": 5541,
      "ä½¿çĶ¨": 5542,
      "Ġrather": 5543,
      "aties": 5544,
      "Ġturned": 5545,
      "Ġgesl": 5546,
      "ĠFor": 5547,
      "ĠAm": 5548,
      "å¿ĺäºĨ": 5549,
      "ouwen": 5550,
      "Ġveilig": 5551,
      "ilt": 5552,
      "glish": 5553,
      "é¸Ń": 5554,
      "Ġontw": 5555,
      "è¯´æĺİ": 5556,
      "æ¸¯": 5557,
      "Ġprecies": 5558,
      "Ġorder": 5559,
      "éĤ£éĩĮ": 5560,
      "Ġseemed": 5561,
      "got": 5562,
      "arth": 5563,
      "Ġfav": 5564,
      "Ġwanneer": 5565,
      "ä¸»ä»»": 5566,
      "Ġcouldn": 5567,
      "ada": 5568,
      "Ġconf": 5569,
      "æ£®æŀĹ": 5570,
      "Ġpull": 5571,
      "regen": 5572,
      "é¦ĸåħĪ": 5573,
      "Ġadv": 5574,
      "Ġgere": 5575,
      "ä»ĭç»į": 5576,
      "åĲĥäºĨ": 5577,
      "åĽ½çİĭ": 5578,
      "çĶľ": 5579,
      "ĠEd": 5580,
      "igde": 5581,
      "æĭ¥": 5582,
      "Br": 5583,
      "12": 5584,
      "mo": 5585,
      "Ġinc": 5586,
      "ç¬¦": 5587,
      "Ġdef": 5588,
      "æı¡": 5589,
      "å¸Ń": 5590,
      "æ¡¥": 5591,
      "Ġminutes": 5592,
      "åİĨåı²": 5593,
      "éĥ½è¦ģ": 5594,
      "ĠThat": 5595,
      "ĠOh": 5596,
      "Ġsong": 5597,
      "Ġbuild": 5598,
      "uizen": 5599,
      "ika": 5600,
      "é¼»": 5601,
      "èº«ä»½": 5602,
      "ylal": 5603,
      "ĠAfr": 5604,
      "æŃ£å¥½": 5605,
      "Ġgeweldig": 5606,
      "Ġoften": 5607,
      "åĩŃ": 5608,
      "Ġdeur": 5609,
      "ĠåĲİæĿ¥": 5610,
      "Ġpak": 5611,
      "åĽĽåįģ": 5612,
      "ĠNa": 5613,
      "Ġhanden": 5614,
      "ided": 5615,
      "ĠæĹł": 5616,
      "æ³ª": 5617,
      "ä¼ģä¸ļ": 5618,
      "ä¼Ł": 5619,
      "éģ¿": 5620,
      "Ġå½ĵæĹ¶": 5621,
      "Ġmonth": 5622,
      "çĪ±æĥħ": 5623,
      "ç»ĵæĿŁ": 5624,
      "Ġfront": 5625,
      "Ġoef": 5626,
      "ĠJap": 5627,
      "Ġsun": 5628,
      "Sp": 5629,
      "Ġpunten": 5630,
      "åıĺå¾Ĺ": 5631,
      "Neem": 5632,
      "zaam": 5633,
      "ä¼°": 5634,
      "æľīä¸Ģå¤©": 5635,
      "çħ§çīĩ": 5636,
      "Blijf": 5637,
      "éĶĻäºĨ": 5638,
      "æĪĳæľī": 5639,
      "ç»ıåİĨ": 5640,
      "åī©": 5641,
      "Kun": 5642,
      "ç§ĳåŃ¦": 5643,
      "inger": 5644,
      "çŁ¥éģĵäºĨ": 5645,
      "ius": 5646,
      "Ġdou": 5647,
      "Ġdruk": 5648,
      "ä¸įå¤ļ": 5649,
      "verd": 5650,
      "Ġouders": 5651,
      "isk": 5652,
      "Ġlezen": 5653,
      "åĿļæĮģ": 5654,
      "because": 5655,
      "ourn": 5656,
      "ĠHer": 5657,
      "Ġå½ĵçĦ¶": 5658,
      "aj": 5659,
      "Ġsent": 5660,
      "conom": 5661,
      "çĽ®åīį": 5662,
      "Ġcamp": 5663,
      "Ġpopul": 5664,
      "ists": 5665,
      "Ġtom": 5666,
      "ä¸Ģä½į": 5667,
      "Ġresult": 5668,
      "åİ»åĲ§": 5669,
      "Ġfull": 5670,
      "æĤĦ": 5671,
      "Ġaw": 5672,
      "schijn": 5673,
      "antwoord": 5674,
      "éĺ¶": 5675,
      "ĠMan": 5676,
      "rab": 5677,
      "Ġzoveel": 5678,
      "æĹ§": 5679,
      "ĠQu": 5680,
      "Ġable": 5681,
      "Ġjezelf": 5682,
      "Ġcomput": 5683,
      "ç®±": 5684,
      "åħĪèµ°äºĨ": 5685,
      "ï¿½ï¿½": 5686,
      "Ġkaart": 5687,
      "Ġcook": 5688,
      "Ġsitu": 5689,
      "Ġongeveer": 5690,
      "çĶŁæĦı": 5691,
      "æĤ¨çļĦ": 5692,
      "æ´²": 5693,
      "ä¸įæķ¢": 5694,
      "éĿ¢å¯¹": 5695,
      "uth": 5696,
      "è¿ĽäºĨ": 5697,
      "ä½łåĪ«": 5698,
      "ained": 5699,
      "Ġquick": 5700,
      "Ġdraw": 5701,
      "Ġyourself": 5702,
      "Ġbra": 5703,
      "âĢ": 5704,
      "äºı": 5705,
      "Ah": 5706,
      "osten": 5707,
      "Ġå¼Ģ": 5708,
      "è¿ĺèĥ½": 5709,
      "Ġprom": 5710,
      "see": 5711,
      "vallen": 5712,
      "Ġvar": 5713,
      "Ġåĵ¦": 5714,
      "éĶĢ": 5715,
      "æĢĢçĸĳ": 5716,
      "è°ĥæŁ¥": 5717,
      "åĽº": 5718,
      "å¯¹æĸ¹": 5719,
      "å®ŀè¯Ŀ": 5720,
      "æĿĲæĸĻ": 5721,
      "Ge": 5722,
      "Ġbrought": 5723,
      "Ġlisten": 5724,
      "æīĵç®Ĺ": 5725,
      "ĠæĪĳåľ¨": 5726,
      "...\"": 5727,
      "çĸ«": 5728,
      "é¢Ĩå¯¼": 5729,
      "Ġclass": 5730,
      "ress": 5731,
      "ently": 5732,
      "ana": 5733,
      "è¯´æĺ¯": 5734,
      "ĠDuits": 5735,
      "åĮħæĭ¬": 5736,
      "Ġbag": 5737,
      "Ġuitleg": 5738,
      "Ġ_": 5739,
      "Ġdro": 5740,
      "åİħ": 5741,
      "å¼ĢäºĨ": 5742,
      "Omdat": 5743,
      "Ġoutside": 5744,
      "Ġgenoemd": 5745,
      "15": 5746,
      "Ġstond": 5747,
      "åĬĿ": 5748,
      "Ġä¸ºäºĨ": 5749,
      "Ġpower": 5750,
      "ĠEnglish": 5751,
      "äººç±»": 5752,
      "Ġduidelijk": 5753,
      "irth": 5754,
      "èĴĻ": 5755,
      "æ¤įçī©": 5756,
      "niet": 5757,
      "Ġ100": 5758,
      "Ġimportant": 5759,
      "Ġgun": 5760,
      "ides": 5761,
      "zy": 5762,
      "like": 5763,
      "ĠokÃ©": 5764,
      "æ¢ģ": 5765,
      "Ġhope": 5766,
      "icks": 5767,
      "Ġpartic": 5768,
      "Ġhund": 5769,
      "kele": 5770,
      "Kl": 5771,
      "Can": 5772,
      "||": 5773,
      "Ġstuff": 5774,
      "æİ¥ä¸ĭæĿ¥": 5775,
      "æķĻèĤ²": 5776,
      "Ġhundred": 5777,
      "aptain": 5778,
      "å¿Ĩ": 5779,
      "å°±èĥ½": 5780,
      "hal": 5781,
      "ĠDr": 5782,
      "edereen": 5783,
      "Ġlangs": 5784,
      "ante": 5785,
      "Good": 5786,
      "oeien": 5787,
      "çĶ²": 5788,
      "è®©äºº": 5789,
      "æ¶²": 5790,
      "Ġextra": 5791,
      "orden": 5792,
      "ĠHis": 5793,
      "åĲĮæĦı": 5794,
      "éĩįè¦ģçļĦ": 5795,
      "Ġwit": 5796,
      "å³°": 5797,
      "æĪĳä¼ļ": 5798,
      "Ġperfect": 5799,
      "ĠIf": 5800,
      "ereken": 5801,
      "ĠåıįæŃ£": 5802,
      "äºĮéĽ¶ä¸Ģ": 5803,
      "Ġdaarna": 5804,
      "Ġvooral": 5805,
      "achten": 5806,
      "èµļ": 5807,
      "åĩºçļĦ": 5808,
      "ĠæĹ¢çĦ¶": 5809,
      "çĵ¶": 5810,
      "Ġvog": 5811,
      "ä¸»ä¹ī": 5812,
      "æ±½": 5813,
      "çĻ¾å§ĵ": 5814,
      "Ġechte": 5815,
      "çļĦæķħäºĭ": 5816,
      "oul": 5817,
      "èĪª": 5818,
      "Te": 5819,
      "è¯´æ³ķ": 5820,
      "Ġcommun": 5821,
      "ä¸Ģä»¶": 5822,
      "Did": 5823,
      "iful": 5824,
      "Ġwords": 5825,
      "Ġåĩº": 5826,
      "æ²¡æĥ³åĪ°": 5827,
      "deren": 5828,
      "ä¸Ī": 5829,
      "RA": 5830,
      "èı²": 5831,
      "yy": 5832,
      "å¤«äºº": 5833,
      "ĠåºĶè¯¥": 5834,
      "houden": 5835,
      "éĤ£æĺ¯": 5836,
      "ç»ľ": 5837,
      "æĥħç»ª": 5838,
      "Thank": 5839,
      "selves": 5840,
      "åĴĮä½ł": 5841,
      "ç¼ĸ": 5842,
      "èĭ¹": 5843,
      "rm": 5844,
      "ä¿Ŀè¯ģ": 5845,
      "head": 5846,
      "ä¸įçĿĢ": 5847,
      "ĠDaddy": 5848,
      "åĺī": 5849,
      "Vert": 5850,
      "å°ļ": 5851,
      "Ġeruit": 5852,
      "æīįæĺ¯": 5853,
      "åĲĪéĢĤ": 5854,
      "Ġnieuws": 5855,
      "æ¼«": 5856,
      "band": 5857,
      "åĩºæĿ¥çļĦ": 5858,
      "ĠæĽ´": 5859,
      "æĥ³æ³ķ": 5860,
      "Ġhappy": 5861,
      "ç§Ł": 5862,
      "Ġwife": 5863,
      "å¦ĸ": 5864,
      "æ³¡": 5865,
      "Ġå¼ł": 5866,
      "å«Ĥ": 5867,
      "ä¸¥éĩį": 5868,
      "Ġlearn": 5869,
      "Ġonderwerp": 5870,
      "Ġhang": 5871,
      "Ġbehind": 5872,
      "Ġpen": 5873,
      "mie": 5874,
      "Pr": 5875,
      "ĠæĢ»": 5876,
      "Ġpur": 5877,
      "æĮ£": 5878,
      "eens": 5879,
      "Ġcover": 5880,
      "Ġverst": 5881,
      "èĭ¹æŀľ": 5882,
      "God": 5883,
      "Ġgezicht": 5884,
      "lle": 5885,
      "yn": 5886,
      "ardon": 5887,
      "åĪ©çĶ¨": 5888,
      "Ġmusic": 5889,
      "Ġtweede": 5890,
      "éĹª": 5891,
      "ĠWest": 5892,
      "Ġgevaar": 5893,
      "åĩ¡": 5894,
      "As": 5895,
      "è·Ŀ": 5896,
      "æįķ": 5897,
      "bal": 5898,
      "nou": 5899,
      "Ġmacht": 5900,
      "åĵĩ": 5901,
      "ba": 5902,
      "è°ĭ": 5903,
      "Ġalsof": 5904,
      "Ġpoor": 5905,
      "Ġlarge": 5906,
      "äººåĳĺ": 5907,
      "ĠBen": 5908,
      "Was": 5909,
      "åĽ½çļĦ": 5910,
      "åŁŁ": 5911,
      "ç¦»å©ļ": 5912,
      "Ġtien": 5913,
      "Ġfine": 5914,
      "æįŁ": 5915,
      "ĠNor": 5916,
      "çķ¥": 5917,
      "çī©ä½ĵ": 5918,
      "è´£ä»»": 5919,
      "è¯º": 5920,
      "Ġbrief": 5921,
      "çŃīçŃī": 5922,
      "osp": 5923,
      "Ġåįģ": 5924,
      "æľªæĿ¥": 5925,
      "Zie": 5926,
      "Ġbott": 5927,
      "ately": 5928,
      "Ġhon": 5929,
      "ä¸įåı¯èĥ½": 5930,
      "ured": 5931,
      "è¾ŀ": 5932,
      "Ġang": 5933,
      "idge": 5934,
      "åĵĪåĵĪåĵĪ": 5935,
      "è§ģåĪ°": 5936,
      "Ġoper": 5937,
      "è¡Įä¸º": 5938,
      "å¯¹åĲ§": 5939,
      "ĠKing": 5940,
      "Ġnoemen": 5941,
      "æī¬": 5942,
      "èģļ": 5943,
      "æİĪ": 5944,
      "Ġvallen": 5945,
      "åŃĶ": 5946,
      "è¦ģä¸į": 5947,
      "olon": 5948,
      "reg": 5949,
      "ĠæĪĳä¼ļ": 5950,
      "Ġå·²": 5951,
      "unning": 5952,
      "rekken": 5953,
      "å¯Ĵ": 5954,
      "ç«ŁçĦ¶": 5955,
      "ĠæĪĳå°±æĺ¯": 5956,
      "aien": 5957,
      "esh": 5958,
      "Ġchange": 5959,
      "Pro": 5960,
      "Ġmogen": 5961,
      "Ġbank": 5962,
      "åıĶåıĶ": 5963,
      "Ġshort": 5964,
      "Ġzetten": 5965,
      "Ġmeteen": 5966,
      "ĠBel": 5967,
      "å¢Ļ": 5968,
      "ĠItal": 5969,
      "å¾Īå¿«": 5970,
      "éļĶ": 5971,
      "åħ³éĶ®": 5972,
      "Ġpark": 5973,
      "åīĳ": 5974,
      "çĭł": 5975,
      "æĹ¥æľ¬äºº": 5976,
      "DAD": 5977,
      "ford": 5978,
      "Ġones": 5979,
      "stuk": 5980,
      "æĪĳèĩªå·±": 5981,
      "oom": 5982,
      "åĨįè¯´": 5983,
      "ĠæĪĸèĢħ": 5984,
      "Ġdeath": 5985,
      "Ġrecord": 5986,
      "Ġhurt": 5987,
      "ç³Ĭ": 5988,
      "åķĨéĩı": 5989,
      "æĨ": 5990,
      "Ġpakken": 5991,
      "ä½łä»¬çļĦ": 5992,
      "Ġline": 5993,
      "Ġmine": 5994,
      "èģªæĺİ": 5995,
      "æŃī": 5996,
      "tern": 5997,
      "Ġice": 5998,
      "éĢŁåº¦": 5999,
      "ADU": 6000,
      "æĺ¯åĲĹ": 6001,
      "é¢Ŀ": 6002,
      "åıĹåĪ°": 6003,
      "Ġmooie": 6004,
      "inig": 6005,
      "Ġless": 6006,
      "rijs": 6007,
      "æĭ¿çĿĢ": 6008,
      "åħĶåŃĲ": 6009,
      "ram": 6010,
      "Ġmeeste": 6011,
      "Ġmyself": 6012,
      "ä¹Łä¸įä¼ļ": 6013,
      "æĴĴ": 6014,
      "Ġfelt": 6015,
      "åºĶè¯¥æĺ¯": 6016,
      "å¼Łå¼Ł": 6017,
      "ments": 6018,
      "è¸¢": 6019,
      "è´¦": 6020,
      "Ġhuh": 6021,
      "Ġåīį": 6022,
      "åĲ«": 6023,
      "Ġra": 6024,
      "æľ±": 6025,
      "çĶ±äºİ": 6026,
      "ĠGerman": 6027,
      "Ġhy": 6028,
      "Ġdeal": 6029,
      "âĳł": 6030,
      "æĪĳä¸Ģ": 6031,
      "Ġæīĵ": 6032,
      "Ġproberen": 6033,
      "Ġes": 6034,
      "kende": 6035,
      "zak": 6036,
      "ä»Ģä¹Īäºĭ": 6037,
      "éĻĦ": 6038,
      "ä¹Łä¼ļ": 6039,
      "thers": 6040,
      "ç«Ļåľ¨": 6041,
      "Ġgrootste": 6042,
      "å¥Ķ": 6043,
      "çĸ¯": 6044,
      "ized": 6045,
      "Over": 6046,
      "è´´": 6047,
      "pje": 6048,
      "chn": 6049,
      "åľ£": 6050,
      "Ã¶": 6051,
      "ä¸°": 6052,
      "ç»©": 6053,
      "Ġleeft": 6054,
      "ç¤¼çī©": 6055,
      "Ġground": 6056,
      "Ġ25": 6057,
      "èµı": 6058,
      "Ġkracht": 6059,
      "Ġmouth": 6060,
      "bye": 6061,
      "Ġlady": 6062,
      "Ġlate": 6063,
      "å¥³æľĭåıĭ": 6064,
      "äº§çĶŁ": 6065,
      "sche": 6066,
      "key": 6067,
      "ering": 6068,
      "Ġhist": 6069,
      "Ġago": 6070,
      "water": 6071,
      "Ġvij": 6072,
      "Ġpaper": 6073,
      "åħ¸": 6074,
      "boek": 6075,
      "nieuw": 6076,
      "è¿Ļè¾¹": 6077,
      "reet": 6078,
      "Ġä½łçİ°åľ¨": 6079,
      "æİ§åĪ¶": 6080,
      "Ġpicture": 6081,
      "Ġocc": 6082,
      "æĭ¾": 6083,
      "Ġbody": 6084,
      "rying": 6085,
      "æĵ¦": 6086,
      "ä¸įçŁ¥": 6087,
      "ç¡®å®ļ": 6088,
      "æ®¿": 6089,
      "å²Ľ": 6090,
      "æī«": 6091,
      "æĴŀ": 6092,
      "Zij": 6093,
      "Ġrol": 6094,
      "ico": 6095,
      "Ġ&": 6096,
      "Ġtaking": 6097,
      "èºº": 6098,
      "Ġmakes": 6099,
      "å¥ĭ": 6100,
      "è¯´ä»Ģä¹Ī": 6101,
      "reen": 6102,
      "Ġmama": 6103,
      "Ġä¸įç®¡": 6104,
      "sy": 6105,
      "éķ¿å¾Ĺ": 6106,
      "åĪ·": 6107,
      "ekend": 6108,
      "ĠThen": 6109,
      "Ġmill": 6110,
      "Ġverkl": 6111,
      "Ġring": 6112,
      "irty": 6113,
      "æİ¥çĿĢ": 6114,
      "inyl": 6115,
      "Ġmond": 6116,
      "Ġmovie": 6117,
      "æĲŃ": 6118,
      "Ġlad": 6119,
      "Ġgiven": 6120,
      "æ»ĳ": 6121,
      "Natuurlijk": 6122,
      "Ġx": 6123,
      "Ġbegint": 6124,
      "aged": 6125,
      "åĩī": 6126,
      "ä¸ĭåĪĹ": 6127,
      "iving": 6128,
      "åºŁ": 6129,
      "oef": 6130,
      "Ġfeest": 6131,
      "åģ¥åº·": 6132,
      "å¾Ĵ": 6133,
      "éĤ£æł·": 6134,
      "åįģåĪĨ": 6135,
      "ĠåĶ": 6136,
      "burg": 6137,
      "rit": 6138,
      "ution": 6139,
      "å¾Īæľī": 6140,
      "eeuw": 6141,
      "Mar": 6142,
      "com": 6143,
      "ç³»ç»Ł": 6144,
      "æĦıæĢĿåķĬ": 6145,
      "Ġtelevis": 6146,
      "çļĦæĪĳ": 6147,
      "Ġsug": 6148,
      "è¾Ĩ": 6149,
      "arling": 6150,
      "Mummy": 6151,
      "äºĨä¸ª": 6152,
      "ä¼¸": 6153,
      "Ġroll": 6154,
      "çŃīçĿĢ": 6155,
      "komt": 6156,
      "Ġdezelfde": 6157,
      "Ġ+": 6158,
      "iken": 6159,
      "è¯´ä¸į": 6160,
      "è¶³çĲĥ": 6161,
      "Ġbi": 6162,
      "Ġavond": 6163,
      "ĠOl": 6164,
      "iÃ«n": 6165,
      "Bij": 6166,
      "Ġcold": 6167,
      "Ġchang": 6168,
      "âĳ¡": 6169,
      "for": 6170,
      "æĮīçħ§": 6171,
      "å¹´åīį": 6172,
      "ugust": 6173,
      "è¯ģæĺİ": 6174,
      "ense": 6175,
      "Go": 6176,
      "éļıä¾¿": 6177,
      "ĠKl": 6178,
      "åħ¬åŃĲ": 6179,
      "Ġvanavond": 6180,
      "ris": 6181,
      "Ġåħ¨": 6182,
      "iversity": 6183,
      "ĠDo": 6184,
      "ĠRome": 6185,
      "rokken": 6186,
      "ä¸Ģå£°": 6187,
      "Ġev": 6188,
      "ä½łèĩªå·±": 6189,
      "ĠPaul": 6190,
      "aalde": 6191,
      "cul": 6192,
      "Ġder": 6193,
      "ä»Ĺ": 6194,
      "æĺł": 6195,
      "å®¾": 6196,
      "ĠMay": 6197,
      "ĠKennis": 6198,
      "ĠPhil": 6199,
      "ä»ĸåľ¨": 6200,
      "åĩ¤": 6201,
      "Ġgeloven": 6202,
      "gele": 6203,
      "åİļ": 6204,
      "Ġmaybe": 6205,
      "é²ģ": 6206,
      "çº·": 6207,
      "que": 6208,
      "å¹²åĺĽ": 6209,
      "æī¾æĪĳ": 6210,
      "å®ŀçİ°": 6211,
      "åı¸ä»¤": 6212,
      "Ġjo": 6213,
      "Ġvia": 6214,
      "ä¸įå®¹æĺĵ": 6215,
      "ĠåħĪ": 6216,
      "ä¸ĭéĿ¢": 6217,
      "éªĳ": 6218,
      "åĶ¯": 6219,
      "alm": 6220,
      "è¦ģåİ»": 6221,
      "Ġvle": 6222,
      "Ġvraagt": 6223,
      "vert": 6224,
      "Ġhit": 6225,
      "çĮİ": 6226,
      "Ġserv": 6227,
      "ç©ºéĹ´": 6228,
      "Ġnummer": 6229,
      "æĶ¾å¿ĥåĲ§": 6230,
      "Ġcap": 6231,
      "ĠJapan": 6232,
      "æĪĳä»¬å°±": 6233,
      "pos": 6234,
      "derd": 6235,
      "Ġage": 6236,
      "æĹģè¾¹": 6237,
      "è¿ĺæ²¡æľī": 6238,
      "æ¡ĥ": 6239,
      "Ġeinde": 6240,
      "å¥¥": 6241,
      "ç»Ĩèĥŀ": 6242,
      "Ġbirth": 6243,
      "æī°": 6244,
      "æīĢè°ĵ": 6245,
      "ç»ĻæĪĳä»¬": 6246,
      "éĶħ": 6247,
      "Ġslapen": 6248,
      "Ġrele": 6249,
      "thank": 6250,
      "Ġtwenty": 6251,
      "then": 6252,
      "ĠComm": 6253,
      "ä¼¼çļĦ": 6254,
      "hey": 6255,
      "Ġinside": 6256,
      "çº³": 6257,
      "pril": 6258,
      "Ġthank": 6259,
      "Ġkru": 6260,
      "Ġfur": 6261,
      "Ġzodat": 6262,
      "ĠMart": 6263,
      "å®ĩ": 6264,
      "ĠWhen": 6265,
      "åĵªä¸ª": 6266,
      "Ġstrong": 6267,
      "Ġenkele": 6268,
      "Ġvolgens": 6269,
      "indelijk": 6270,
      "Ġguess": 6271,
      "Ġliefde": 6272,
      "Ġmach": 6273,
      "æ¼Ķåĳĺ": 6274,
      "Ġvill": 6275,
      "èĪĴæľį": 6276,
      "Ġgas": 6277,
      "genomen": 6278,
      "Ġchair": 6279,
      "Ġafbeelding": 6280,
      "Ġevent": 6281,
      "æĭĸ": 6282,
      "used": 6283,
      "ention": 6284,
      "é¾Ħ": 6285,
      "Ġhetzelfde": 6286,
      "çĶŁçī©": 6287,
      "éĥİ": 6288,
      "Ġwou": 6289,
      "æĹ¶ä»£": 6290,
      "ĠFrance": 6291,
      "è¯ģæį®": 6292,
      "å§»": 6293,
      "Ġgehoord": 6294,
      "shall": 6295,
      "Ġproblemen": 6296,
      "ED": 6297,
      "ä»į": 6298,
      "Ġervan": 6299,
      "çļĦæĥħåĨµ": 6300,
      "è®¯": 6301,
      "åĪĨäº«": 6302,
      "èĤ¥": 6303,
      "Ġgekomen": 6304,
      "Ġrepl": 6305,
      "Ġschuld": 6306,
      "Ġ$$\\": 6307,
      "âĳ¢": 6308,
      "Ġvergeten": 6309,
      "éĩįæĸ°": 6310,
      "gegeven": 6311,
      "gend": 6312,
      "Ġä¹Łæĺ¯": 6313,
      "inc": 6314,
      "æĹ©ä¸Ĭ": 6315,
      "æĬĬè¿Ļ": 6316,
      "Ġbuy": 6317,
      "Ġtest": 6318,
      "Ġåį´": 6319,
      "igin": 6320,
      "olle": 6321,
      "Ġstap": 6322,
      "isme": 6323,
      "atten": 6324,
      "inning": 6325,
      "Ġconc": 6326,
      "Ġlaw": 6327,
      "Ġgirls": 6328,
      "Ġ193": 6329,
      "Ġå¿ĥ": 6330,
      "Ġorde": 6331,
      "ĠåĿ": 6332,
      "è¿Ļä¹Īè¯´": 6333,
      "ete": 6334,
      "At": 6335,
      "17": 6336,
      "Ġges": 6337,
      "è®©æĪĳä»¬": 6338,
      "Ġéļ¾éģĵ": 6339,
      "orst": 6340,
      "å¯¹äºĨ": 6341,
      "Ã³": 6342,
      "Ġleast": 6343,
      "Ġstate": 6344,
      "Ġgevangen": 6345,
      "LO": 6346,
      "have": 6347,
      "Ġmuziek": 6348,
      "å°ıåŃĲ": 6349,
      "åļ": 6350,
      "Ġalsjeblieft": 6351,
      "æ¬ł": 6352,
      "aving": 6353,
      "Ġroad": 6354,
      "åįģäºĶ": 6355,
      "Ġwaarin": 6356,
      "Ġmam": 6357,
      "ĠPat": 6358,
      "è²": 6359,
      "Ġvalt": 6360,
      "Ġä»ĸè¯´": 6361,
      "Ġpiece": 6362,
      "TER": 6363,
      "Ġtelefoon": 6364,
      "iously": 6365,
      "çĴ": 6366,
      "ç¬¬ä¸ī": 6367,
      "å±ģ": 6368,
      "éĺ»": 6369,
      "æĶ¾å¼ĥ": 6370,
      "Ġboot": 6371,
      "Ġacross": 6372,
      "Ġnoem": 6373,
      "eur": 6374,
      "Ã¼": 6375,
      "Ġothers": 6376,
      "Verd": 6377,
      "æ±ł": 6378,
      "åıįåºĶ": 6379,
      "æīĶ": 6380,
      "éĤ£æĪĳ": 6381,
      "Ġergens": 6382,
      "è§Ĥå¯Ł": 6383,
      "Ġmount": 6384,
      "ç¢Ĺ": 6385,
      "å¦Ļ": 6386,
      "éĥ¨éĺŁ": 6387,
      "Ġhorse": 6388,
      "èĦ¾": 6389,
      "aced": 6390,
      "åĨħå®¹": 6391,
      "For": 6392,
      "æĤĶ": 6393,
      "AP": 6394,
      "éĹ²": 6395,
      "Ġwet": 6396,
      "Ġbird": 6397,
      "ism": 6398,
      "Ġrijk": 6399,
      "ello": 6400,
      "é¡¹çĽ®": 6401,
      "oorten": 6402,
      "Ġlangu": 6403,
      "Ġol": 6404,
      "æĬĬè¿Ļä¸ª": 6405,
      "Ġdi": 6406,
      "Ġå¯¹ä¸įèµ·": 6407,
      "å®½": 6408,
      "çĲ´": 6409,
      "åĵİåĳĢ": 6410,
      "Ġmer": 6411,
      "Ġstick": 6412,
      "è®¿": 6413,
      "IT": 6414,
      "éĢĴ": 6415,
      "Ġinclud": 6416,
      "Ġtemper": 6417,
      "Ġcor": 6418,
      "inkt": 6419,
      "ä¹łæĥ¯": 6420,
      "orld": 6421,
      "éĢĶ": 6422,
      "ptember": 6423,
      "æľĪäº®": 6424,
      "ĠçĶ¨": 6425,
      "Ġå·²ç»ı": 6426,
      "æ²¡ä»Ģä¹Ī": 6427,
      "ille": 6428,
      "annen": 6429,
      "å·Ŀ": 6430,
      "Ġthrow": 6431,
      "Ġblood": 6432,
      "Ġ195": 6433,
      "Ġeither": 6434,
      "Ġbrother": 6435,
      "gie": 6436,
      "Ġdochter": 6437,
      "çļĦå¥½": 6438,
      "ç¬¬ä¸Ģä¸ª": 6439,
      "fully": 6440,
      "Ġsta": 6441,
      "çŀİ": 6442,
      "æĬķèµĦ": 6443,
      "æĹ¦": 6444,
      "ians": 6445,
      "goed": 6446,
      "Ġvergelijk": 6447,
      "å®ŀéªĮ": 6448,
      "Ġbusiness": 6449,
      "Ġsever": 6450,
      "born": 6451,
      "Ġaarde": 6452,
      "Ġä½łä¹Ł": 6453,
      "ĠSo": 6454,
      "æīİ": 6455,
      "ĠBeeld": 6456,
      "ç²®": 6457,
      "å¯¹ä¸įå¯¹": 6458,
      "éĺ´": 6459,
      "å°ĳçĪ·": 6460,
      "ĠCharl": 6461,
      "Ġontde": 6462,
      "è§Ĥä¼Ĺ": 6463,
      "velop": 6464,
      "Ġmedic": 6465,
      "Ġdier": 6466,
      "ĠåĪĺ": 6467,
      "Ġlijn": 6468,
      "urk": 6469,
      "æĸ¹ä¾¿": 6470,
      "ä½łæľī": 6471,
      "Ġimp": 6472,
      "Ġmeter": 6473,
      "Ġweinig": 6474,
      "Ġconst": 6475,
      "å¨ľ": 6476,
      "åĲ¬è§ģ": 6477,
      "Ġzes": 6478,
      "Ġloopt": 6479,
      "Ġcase": 6480,
      "åĿĩ": 6481,
      "Ġtrue": 6482,
      "æľķ": 6483,
      "æıĲä¾Ľ": 6484,
      "æľįåĬ¡": 6485,
      "âĳ£": 6486,
      "ĠEngel": 6487,
      "ĠæĪĳéĥ½": 6488,
      "Get": 6489,
      "Ġbezig": 6490,
      "ped": 6491,
      "éĤ£å¤©": 6492,
      "ç§ĺå¯Ĩ": 6493,
      "pres": 6494,
      "ylalan": 6495,
      "ĠAlex": 6496,
      "rog": 6497,
      "é£Łçī©": 6498,
      "ĠSchool": 6499,
      "åĳĲ": 6500,
      "æľĢå¥½çļĦ": 6501,
      "è¿Ł": 6502,
      "èĩªçĶ±": 6503,
      "Ġspreken": 6504,
      "Na": 6505,
      "Ġill": 6506,
      "ä¸ºä»Ģä¹Īè¦ģ": 6507,
      "MCH": 6508,
      "Ġcos": 6509,
      "Ġbeneden": 6510,
      "Ġquestion": 6511,
      "ä¸įä»ħ": 6512,
      "Ġsystem": 6513,
      "Ġdien": 6514,
      "Niemand": 6515,
      "æĺ¯çļĦ": 6516,
      "won": 6517,
      "å¿ł": 6518,
      "Ġworking": 6519,
      "llo": 6520,
      "å¾Īéļ¾": 6521,
      "å¾®ä¿¡": 6522,
      "ola": 6523,
      "æĤ£": 6524,
      "ĠNederlandse": 6525,
      "Af": 6526,
      "oer": 6527,
      "æŀĿ": 6528,
      "Ġclub": 6529,
      "pped": 6530,
      "çĶ·æľĭåıĭ": 6531,
      "ä»Ķ": 6532,
      "Ġstation": 6533,
      "Ġlead": 6534,
      "uut": 6535,
      "aars": 6536,
      "ä¼į": 6537,
      "ĠæĪĳæĪĳ": 6538,
      "Ġarr": 6539,
      "äºĨåĳ¢": 6540,
      "æĦıä¹ī": 6541,
      "æĢ¨": 6542,
      "avy": 6543,
      "Ġgaf": 6544,
      "ä½łèĥ½": 6545,
      "Ġearly": 6546,
      "Ġlay": 6547,
      "Ġhat": 6548,
      "ä¹Ķ": 6549,
      "Ġarea": 6550,
      "æħ§": 6551,
      "ĠEx": 6552,
      "éģŃ": 6553,
      "æ·¡": 6554,
      "ç¦ģ": 6555,
      "Ġéĺ¿": 6556,
      "elk": 6557,
      "when": 6558,
      "èª": 6559,
      "Ġwomen": 6560,
      "Ġ50": 6561,
      "ç½ļ": 6562,
      "ç©·": 6563,
      "Ġsometimes": 6564,
      "è¶Ł": 6565,
      "æĥ³æĥ³": 6566,
      "ĠKe": 6567,
      "åĿĲåľ¨": 6568,
      "ĠYes": 6569,
      "ä¸Ńå¤®": 6570,
      "è¸ª": 6571,
      "ç»Ļå¥¹": 6572,
      "Ġbeautiful": 6573,
      "æĦŁåĪ°": 6574,
      "ĠDoor": 6575,
      "Ġvoorbij": 6576,
      "Ġaand": 6577,
      "åĪĨæŀĲ": 6578,
      "Ġacht": 6579,
      "ä¸įæĩĤ": 6580,
      "Ġzult": 6581,
      "Ġfree": 6582,
      "èµ°èµ°": 6583,
      "Ġkijkt": 6584,
      "åŁ¹": 6585,
      "Ġtill": 6586,
      "ĠMc": 6587,
      "ĠTr": 6588,
      "Ġhoeft": 6589,
      "Iedereen": 6590,
      "è¯´å¾Ĺ": 6591,
      "ĠRuss": 6592,
      "Ġ2020": 6593,
      "schijnlijk": 6594,
      "reed": 6595,
      "strijd": 6596,
      "role": 6597,
      "Ġvreem": 6598,
      "Ġdoden": 6599,
      "ä»¥åıĬ": 6600,
      "Ġdollar": 6601,
      "ative": 6602,
      "è¸ı": 6603,
      "ä¸ĬçıŃ": 6604,
      "16": 6605,
      "å²¸": 6606,
      "Ġeerder": 6607,
      "Ġschrijven": 6608,
      "åİĭåĬĽ": 6609,
      "tr": 6610,
      "Ġalone": 6611,
      "ĠStap": 6612,
      "Ġeffect": 6613,
      "æĺ¯æĢİä¹Ī": 6614,
      "çŁ¥è¯Ĩ": 6615,
      "Ġ/": 6616,
      "æĬ¬": 6617,
      "Ġconsider": 6618,
      "Ġvanaf": 6619,
      "åºĵ": 6620,
      "Ġä½Ĩæĺ¯æĪĳ": 6621,
      "ä¼¤å®³": 6622,
      "ä¸įåİ»": 6623,
      "è´Ń": 6624,
      "ery": 6625,
      "Ġslag": 6626,
      "Ġrug": 6627,
      "ç¾½": 6628,
      "ä¸ĢçĽ´åľ¨": 6629,
      "Ġsport": 6630,
      "Ġkilled": 6631,
      "Ġabs": 6632,
      "bit": 6633,
      "ä¸įæĸŃ": 6634,
      "æ²¡éĶĻ": 6635,
      "Ġterwijl": 6636,
      "Ġbroer": 6637,
      "Ġmist": 6638,
      "Ġinde": 6639,
      "ĠJu": 6640,
      "äº§åĵģ": 6641,
      "çĮ´åŃĲ": 6642,
      "does": 6643,
      "ĠéĻĪ": 6644,
      "å¥´": 6645,
      "unk": 6646,
      "ä¸ĵä¸ļ": 6647,
      "Ġglad": 6648,
      "cri": 6649,
      "æĽ´åĬł": 6650,
      "Ġelect": 6651,
      "ĠFran": 6652,
      "Ġdarling": 6653,
      "ĠåİŁæĿ¥": 6654,
      "Ġgovern": 6655,
      "éĢĤåĲĪ": 6656,
      "æľ«": 6657,
      "çļĦä¸ĢäºĽ": 6658,
      "Gaat": 6659,
      "schapp": 6660,
      "Ġbear": 6661,
      "æĴ¤": 6662,
      "æĺİçĻ½äºĨ": 6663,
      "produ": 6664,
      "Ġreactie": 6665,
      "Ġmain": 6666,
      "fort": 6667,
      "Ġyellow": 6668,
      "Ġäººå®¶": 6669,
      "çº¯": 6670,
      "ç©ºæ°Ķ": 6671,
      "Ġguy": 6672,
      "Ġvermoord": 6673,
      "\"ãĢĤ": 6674,
      "Ġkent": 6675,
      "Aan": 6676,
      "çĶ¨çļĦ": 6677,
      "åĬĽéĩı": 6678,
      "æľīåħ³": 6679,
      "Ġexamen": 6680,
      "ĠæĢİä¹ĪäºĨ": 6681,
      "ĠSpan": 6682,
      "Ġervoor": 6683,
      "çĶŁäº§": 6684,
      "ench": 6685,
      "Ġgrow": 6686,
      "éĹ¨åı£": 6687,
      "Ġvi": 6688,
      "Gr": 6689,
      "ĠæŃ¤": 6690,
      "Ġzwart": 6691,
      "ural": 6692,
      "Meer": 6693,
      "Ġgeval": 6694,
      "çĮ®": 6695,
      "Ġdoel": 6696,
      "Ġsweet": 6697,
      "æľīå¤ļ": 6698,
      "å¹´äºĨ": 6699,
      "çĽ´æĴŃ": 6700,
      "Ġsomeone": 6701,
      "Ġfair": 6702,
      "å°±æ²¡æľī": 6703,
      "Ġspeak": 6704,
      "ĠVol": 6705,
      "æķı": 6706,
      "ĠGeef": 6707,
      "åīįéĿ¢": 6708,
      "Ġfavor": 6709,
      "Ġrece": 6710,
      "Moet": 6711,
      "çļĦçĶŁæ´»": 6712,
      "ijl": 6713,
      "âĢķ": 6714,
      "Ġdrinken": 6715,
      "ä¸ĩä¸Ģ": 6716,
      "ĠTom": 6717,
      "æĦıè§ģ": 6718,
      "omst": 6719,
      "ĠæĪĳæĢİä¹Ī": 6720,
      "è·Łå¥¹": 6721,
      "ached": 6722,
      "gers": 6723,
      "uze": 6724,
      "inet": 6725,
      "igheid": 6726,
      "Ġgebied": 6727,
      "bt": 6728,
      "ute": 6729,
      "ä¹Łä¸įæĺ¯": 6730,
      "ĠNe": 6731,
      "ä¸»äºº": 6732,
      "ĠåĪļæīį": 6733,
      "Ġpapa": 6734,
      "æ¶Ĥ": 6735,
      "oeger": 6736,
      "gev": 6737,
      "Beg": 6738,
      "Ġwish": 6739,
      "bum": 6740,
      "pers": 6741,
      "Ġwink": 6742,
      "èĦı": 6743,
      "åĴ¬": 6744,
      "ino": 6745,
      "å°¼": 6746,
      "aves": 6747,
      "kk": 6748,
      "Ġcult": 6749,
      "æ£µ": 6750,
      "éĻ·": 6751,
      "Ġproduct": 6752,
      "issen": 6753,
      "éĵ¶è¡Į": 6754,
      "Ġcond": 6755,
      "åľ°çĲĥ": 6756,
      "Ġspecial": 6757,
      "åĲ¯": 6758,
      "Ġwaarde": 6759,
      "ç®¡çĲĨ": 6760,
      "åİ»çľĭ": 6761,
      "Ġelekt": 6762,
      "åª³å¦ĩåĦ¿": 6763,
      "Ġfast": 6764,
      "14": 6765,
      "Ġcreat": 6766,
      "Ġä¸¤": 6767,
      "Ġfuck": 6768,
      "Ġseven": 6769,
      "Ġstof": 6770,
      "Ġtruck": 6771,
      "obert": 6772,
      "Ġpound": 6773,
      "è½½": 6774,
      "cuse": 6775,
      "è¿ĩçļĦ": 6776,
      "Ġdark": 6777,
      "æŁ³": 6778,
      "èµĶ": 6779,
      "ior": 6780,
      "Ġmass": 6781,
      "Ġdank": 6782,
      "Ġmaat": 6783,
      "kening": 6784,
      "Ġgroup": 6785,
      "ousand": 6786,
      "æ²Ł": 6787,
      "Ġkwamen": 6788,
      "Ġgebouw": 6789,
      "Ġfish": 6790,
      "çĹĩ": 6791,
      "çĩķ": 6792,
      "uke": 6793,
      "Ã¡": 6794,
      "å£ģ": 6795,
      "Ġbetalen": 6796,
      "æ¯ıæ¬¡": 6797,
      "ä¿ĿæĮģ": 6798,
      "Ġgeworden": 6799,
      "gas": 6800,
      "was": 6801,
      "Ġrij": 6802,
      "Ġ24": 6803,
      "Ġship": 6804,
      "çĭĤ": 6805,
      "Ġvoort": 6806,
      "æ¶¨": 6807,
      "çķĻä¸ĭ": 6808,
      "æĺ¯æĪĳä»¬": 6809,
      "ikkel": 6810,
      "æĢģåº¦": 6811,
      "Ġsend": 6812,
      "Ġanimals": 6813,
      "Ġmaakte": 6814,
      "æ»´": 6815,
      "åľ¨åĵªåĦ¿": 6816,
      "13": 6817,
      "IJ": 6818,
      "Ġanderen": 6819,
      "Ġverdw": 6820,
      "Ġbecome": 6821,
      "ĠMag": 6822,
      "èµ·æĿ¥äºĨ": 6823,
      "ä½łçİ°åľ¨": 6824,
      "æľīå¾Īå¤ļ": 6825,
      "oi": 6826,
      "Ġeconom": 6827,
      "Ġneemt": 6828,
      "æ¯«": 6829,
      "Ġleger": 6830,
      "å®Ŀå®Ŀ": 6831,
      "Ġkil": 6832,
      "å®¢æ°Ķ": 6833,
      "Ġongel": 6834,
      "æļĤ": 6835,
      "rict": 6836,
      "Ġoog": 6837,
      "å°±æ²¡": 6838,
      "Ġsterven": 6839,
      "èĽĻ": 6840,
      "æ±½è½¦": 6841,
      "ogen": 6842,
      "Ġlog": 6843,
      "Ġvoedsel": 6844,
      "Ġdiv": 6845,
      "zel": 6846,
      "Ġamong": 6847,
      "å±ħçĦ¶": 6848,
      "æģĭçĪ±": 6849,
      "weer": 6850,
      "éĥ½èĥ½": 6851,
      "äºĨè¿Ļ": 6852,
      "åľ°åĮº": 6853,
      "Heeft": 6854,
      "sta": 6855,
      "ĠLeg": 6856,
      "dom": 6857,
      "gg": 6858,
      "æĪĲçļĦ": 6859,
      "ä»İå°ı": 6860,
      "èĤļåŃĲ": 6861,
      "ket": 6862,
      "çĶŁæĹ¥": 6863,
      "mas": 6864,
      "Ġsol": 6865,
      "æĿľ": 6866,
      "æĶ¶æĭ¾": 6867,
      "ç´§å¼ł": 6868,
      "Ġriv": 6869,
      "raagd": 6870,
      "Ġstoppen": 6871,
      "è®©å¥¹": 6872,
      "å¹ħ": 6873,
      "èĢģäºº": 6874,
      "æĤ²": 6875,
      "Ġfunny": 6876,
      "Ġè¢«": 6877,
      "å°±è¯´": 6878,
      "èµŀ": 6879,
      "gem": 6880,
      "Ġpracht": 6881,
      "Ġtea": 6882,
      "Ġzeer": 6883,
      "å°±æĺ¯æĪĳ": 6884,
      "LA": 6885,
      "icult": 6886,
      "ĠåĢ": 6887,
      "è¿ª": 6888,
      "Your": 6889,
      "è§Ĩé¢ĳ": 6890,
      "Ġbru": 6891,
      "æľĢå¤§çļĦ": 6892,
      "æīĭéĩĮ": 6893,
      "Ġcompany": 6894,
      "åĸ½": 6895,
      "éĶģ": 6896,
      "åłĨ": 6897,
      "æ³¥": 6898,
      "Ġspeci": 6899,
      "wijs": 6900,
      "Ġcomputer": 6901,
      "éĥĳ": 6902,
      "ĠWar": 6903,
      "éļĨ": 6904,
      "lijn": 6905,
      "Ġpartij": 6906,
      "Ġbegon": 6907,
      "Ġnorth": 6908,
      "ĠBra": 6909,
      "Ġruimte": 6910,
      "cil": 6911,
      "upp": 6912,
      "ĠMon": 6913,
      "Ġè¿Ļæ¬¡": 6914,
      "æĳ©": 6915,
      "å¯¼èĩ´": 6916,
      "cel": 6917,
      "çľĭæĿ¥": 6918,
      "æķ°æį®": 6919,
      "Here": 6920,
      "ĠWorld": 6921,
      "æĢĿæĥ³": 6922,
      "å®ľ": 6923,
      "å½ĵå¹´": 6924,
      "Ġlaug": 6925,
      "ral": 6926,
      "oken": 6927,
      "åħ±åĲĮ": 6928,
      "èĴĭ": 6929,
      "åİĮ": 6930,
      "ST": 6931,
      "è²Į": 6932,
      "Ġwonen": 6933,
      "vorm": 6934,
      "Ġantwoorden": 6935,
      "èİ·å¾Ĺ": 6936,
      "One": 6937,
      "ä¹ĸ": 6938,
      "Ġontstaan": 6939,
      "ges": 6940,
      "andy": 6941,
      "Ġran": 6942,
      "Ġåĥı": 6943,
      "ĠHarry": 6944,
      "èĢģèĻİ": 6945,
      "æĻ®éĢļ": 6946,
      "Ġanswered": 6947,
      "åĽ½éĻħ": 6948,
      "èĩ³äºİ": 6949,
      "åĲĲ": 6950,
      "å±Ī": 6951,
      "Ġet": 6952,
      "Ġexpect": 6953,
      "åı¯èĥ½æĺ¯": 6954,
      "ç¨į": 6955,
      "Ġseveral": 6956,
      "åģļä»Ģä¹Ī": 6957,
      "Ġschoon": 6958,
      "è®Ńç»ĥ": 6959,
      "aire": 6960,
      "åĳĨ": 6961,
      "Ġperhaps": 6962,
      "Ġhol": 6963,
      "Ġmess": 6964,
      "æŁĶ": 6965,
      "æĢ§çļĦ": 6966,
      "Heel": 6967,
      "Ġè¿ŀ": 6968,
      "Ġdet": 6969,
      "Ġsinds": 6970,
      "Ġpage": 6971,
      "ĠPeter": 6972,
      "Ġæ²¡äºĭ": 6973,
      "Ġvoordat": 6974,
      "ĠVeren": 6975,
      "Ġthousand": 6976,
      "Ġoverle": 6977,
      "ruit": 6978,
      "Ġmilk": 6979,
      "iment": 6980,
      "Ġsister": 6981,
      "Ġalright": 6982,
      "Ġgebeuren": 6983,
      "Ġkleur": 6984,
      "Will": 6985,
      "çļĦè¿Ļ": 6986,
      "å°ĸ": 6987,
      "oenen": 6988,
      "Ġwaardoor": 6989,
      "Ġverteld": 6990,
      "ä¼ļä¸įä¼ļ": 6991,
      "Ġåıªæĺ¯": 6992,
      "ä¸įå°ĳ": 6993,
      "ically": 6994,
      "ç£ģ": 6995,
      "âĮ": 6996,
      "åĸĿéħĴ": 6997,
      "ç«ĭåĪ»": 6998,
      "Bereken": 6999,
      "Ġå¥½äºĨ": 7000,
      "Ġclot": 7001,
      "ä¸ĢåĿĹåĦ¿": 7002,
      "ä¹Łå¾Ī": 7003,
      "Ġgets": 7004,
      "Ġlach": 7005,
      "Ġä½łä¸įæĺ¯": 7006,
      "ĠPer": 7007,
      "ĠæĪĳåĳĬè¯īä½ł": 7008,
      "Ġallow": 7009,
      "äººäºĨ": 7010,
      "å¯¹åĳĢ": 7011,
      "two": 7012,
      "kant": 7013,
      "ä¸Ģåı¥": 7014,
      "å¨¶": 7015,
      "partment": 7016,
      "åĴĮæĪĳ": 7017,
      "Ġèĩª": 7018,
      "Ġobject": 7019,
      "å°¤åħ¶": 7020,
      "å¸ģ": 7021,
      "å¤©ä¸ĭ": 7022,
      "ĠOf": 7023,
      "å¤§å®¶éĥ½": 7024,
      "oops": 7025,
      "Ġwall": 7026,
      "å°¸": 7027,
      "Ġtrouw": 7028,
      "å¥³çļĦ": 7029,
      "å¦»åŃĲ": 7030,
      "éĿ©åĳ½": 7031,
      "Ġliet": 7032,
      "ä¸ĬæĿ¥": 7033,
      "éĴ¢": 7034,
      "maken": 7035,
      "å¹¶ä¸į": 7036,
      "Ġè¿Ļç§į": 7037,
      "ä¸Ģçīĩ": 7038,
      "Ġrot": 7039,
      "Ġexact": 7040,
      "Ġcou": 7041,
      "Ġboat": 7042,
      "ä¸Ģå®¶": 7043,
      "åºı": 7044,
      "åĳ½ä»¤": 7045,
      "11": 7046,
      "æĪĳæ²¡": 7047,
      "Ġner": 7048,
      "Ġclean": 7049,
      "Ġåıªæľī": 7050,
      "Ġguys": 7051,
      "iting": 7052,
      "ĠDav": 7053,
      "ĠBar": 7054,
      "Ġhop": 7055,
      "iging": 7056,
      "hi": 7057,
      "Ġstil": 7058,
      "sing": 7059,
      "ĠçľĭæĿ¥": 7060,
      "æ¶ī": 7061,
      "Ġrunning": 7062,
      "åħ´è¶£": 7063,
      "Ġins": 7064,
      "iest": 7065,
      "æķ²": 7066,
      "ç¬¬äºĮå¤©": 7067,
      "ube": 7068,
      "åŃ¦ä¼ļ": 7069,
      "ç¬¦åĲĪ": 7070,
      "reekt": 7071,
      "ĠæĢİä¹Īæł·": 7072,
      "åģ¶": 7073,
      "çļĦæł·åŃĲ": 7074,
      "éĢĲ": 7075,
      "Ġrep": 7076,
      "è¡¨è¾¾": 7077,
      "rem": 7078,
      "åĦ¿åķĬ": 7079,
      "Ġæĺİå¤©": 7080,
      "recht": 7081,
      "æĳĶ": 7082,
      "çĶĺ": 7083,
      "ĠTHE": 7084,
      "uary": 7085,
      "BRO": 7086,
      "ä¸ŃéĹ´": 7087,
      "æĦŁåıĹ": 7088,
      "Ġheer": 7089,
      "æ®ĭ": 7090,
      "å©ļå§»": 7091,
      "za": 7092,
      "å»¶": 7093,
      "ustral": 7094,
      "èĩŃ": 7095,
      "æľĭåıĭä»¬": 7096,
      "å»ºè®®": 7097,
      "æģ¢": 7098,
      "Ġmaanden": 7099,
      "æĶ¿æ²»": 7100,
      "æ°§": 7101,
      "æīĭæľ¯": 7102,
      "XX": 7103,
      "ĠII": 7104,
      "Ġsea": 7105,
      "æİīäºĨ": 7106,
      "FCH": 7107,
      "ĠæĪĳè·Łä½łè¯´": 7108,
      "å¤º": 7109,
      "ds": 7110,
      "åĬ±": 7111,
      "ĠAb": 7112,
      "rift": 7113,
      "çĶ·åŃ©": 7114,
      "Ġprov": 7115,
      "åĴĮå°ı": 7116,
      "Ġæľ¬": 7117,
      "çĿĢä½ł": 7118,
      "æºľ": 7119,
      "$${": 7120,
      "æĭĶ": 7121,
      "åĽĽä¸ª": 7122,
      "åį·": 7123,
      "çķª": 7124,
      "ç§ĳæĬĢ": 7125,
      "Ġjuiste": 7126,
      "Ġtoys": 7127,
      "è§ģéĿ¢": 7128,
      "Ġä¸įèĥ½": 7129,
      "åħ³å¿ĥ": 7130,
      "ç³ķ": 7131,
      "æ´ª": 7132,
      "ä¼°è®¡": 7133,
      "Ġlange": 7134,
      "Ġtried": 7135,
      "åİ¨": 7136,
      "å£®": 7137,
      "æ¹¿": 7138,
      "Ġgevol": 7139,
      "Alleen": 7140,
      "æĪĳä»¬å®¶": 7141,
      "ĠCal": 7142,
      "ekijk": 7143,
      "Ġä»Ĭ": 7144,
      "rik": 7145,
      "Ġpraat": 7146,
      "Ġsnap": 7147,
      "ĠÃ": 7148,
      "æ¯ģ": 7149,
      "Ġkennen": 7150,
      "åĢĴæĺ¯": 7151,
      "ç½ĳç»ľ": 7152,
      "èĢ³æľµ": 7153,
      "è¿ĻäºĭåĦ¿": 7154,
      "Ġå°±ç®Ĺ": 7155,
      "Ġkonden": 7156,
      "Ġtrouble": 7157,
      "ä»Ģä¹ĪçļĦ": 7158,
      "æ³½": 7159,
      "Ġsoft": 7160,
      "æĢĴ": 7161,
      "rok": 7162,
      "Ġenter": 7163,
      "äº²èĩª": 7164,
      "Ġåĵ¥": 7165,
      "Ġusually": 7166,
      "Ġbegrijp": 7167,
      "berg": 7168,
      "éŃı": 7169,
      "æĮĳæĪĺ": 7170,
      "rum": 7171,
      "è¿Ŀ": 7172,
      "ĠPe": 7173,
      "friend": 7174,
      "ä¸Ģåľº": 7175,
      "Ġeraan": 7176,
      "ĠLees": 7177,
      "Ġtit": 7178,
      "onde": 7179,
      "ukt": 7180,
      "ç®ĢçĽ´": 7181,
      "Ġzorg": 7182,
      "Ġgep": 7183,
      "kens": 7184,
      "è±ª": 7185,
      "Ġkopen": 7186,
      "Ġorigin": 7187,
      "æī¾åĪ°äºĨ": 7188,
      "Ġæīį": 7189,
      "Ġè¿ĻéĩĮ": 7190,
      "Ġæĺ¯åķĬ": 7191,
      "å¹¶æ²¡æľī": 7192,
      "ä»·åĢ¼": 7193,
      "Ġijs": 7194,
      "repen": 7195,
      "çĥĤ": 7196,
      "å®Ŀè´Ŀ": 7197,
      "Ġvlucht": 7198,
      "Ġomge": 7199,
      "alth": 7200,
      "Ġä¸įçĶ¨": 7201,
      "é©¾": 7202,
      "ä¸ŃåĽ½çļĦ": 7203,
      "dra": 7204,
      "kn": 7205,
      "Ġzuur": 7206,
      "utam": 7207,
      "è¿ĩåİ»äºĨ": 7208,
      "ĠOnder": 7209,
      "åĪ°çİ°åľ¨": 7210,
      "Ġthinking": 7211,
      "çĿĢåĳ¢": 7212,
      "Ġdaarom": 7213,
      "Ġæľīä»Ģä¹Ī": 7214,
      "nemen": 7215,
      "ĠæĶ¾": 7216,
      "ĠæĪĳè·Ł": 7217,
      "æĽ¹": 7218,
      "Ġfootball": 7219,
      "èŁ": 7220,
      "Ġschip": 7221,
      "uigen": 7222,
      "çīµ": 7223,
      "èģĬå¤©": 7224,
      "Ġrespect": 7225,
      "ĠMin": 7226,
      "åĪĳ": 7227,
      "Ġverr": 7228,
      "æ£ĢæŁ¥": 7229,
      "Ġhuid": 7230,
      "Ġzak": 7231,
      "stellen": 7232,
      "lease": 7233,
      "æĮĸ": 7234,
      "çªĿ": 7235,
      "ping": 7236,
      "icro": 7237,
      "æ±ĩ": 7238,
      "Gew": 7239,
      "El": 7240,
      "æ°ĳæĹı": 7241,
      "Ġè®©æĪĳ": 7242,
      "åŃĿ": 7243,
      "åĪ¤æĸŃ": 7244,
      "åĲ¬äºĨ": 7245,
      "æĽ´å¤ļ": 7246,
      "lingen": 7247,
      "åĽ°éļ¾": 7248,
      "Ġå°Ĩ": 7249,
      "ror": 7250,
      "Ġkoff": 7251,
      "Ġä¸įçŁ¥éģĵ": 7252,
      "Ar": 7253,
      "wegen": 7254,
      "ĠåĮħ": 7255,
      "Ġåı«": 7256,
      "Ġreason": 7257,
      "Ġorganis": 7258,
      "Ġlo": 7259,
      "ales": 7260,
      "Ġgingen": 7261,
      "Ġport": 7262,
      "ç»ķ": 7263,
      "ility": 7264,
      "uist": 7265,
      "Ġcool": 7266,
      "Ġstep": 7267,
      "Ġnad": 7268,
      "éĴ»": 7269,
      "dan": 7270,
      "Ġmiddel": 7271,
      "Ġdelen": 7272,
      "Ġli": 7273,
      "zonder": 7274,
      "ĠAnt": 7275,
      "ossing": 7276,
      "æĭĴ": 7277,
      "ring": 7278,
      "ices": 7279,
      "åĪĨæīĭ": 7280,
      "ublieft": 7281,
      "dien": 7282,
      "alle": 7283,
      "ç¯ĩ": 7284,
      "gesch": 7285,
      "iviteit": 7286,
      "Ġproblem": 7287,
      "',": 7288,
      "æĴĳ": 7289,
      "ĠEurope": 7290,
      "Ġtrein": 7291,
      "ç¡Ģ": 7292,
      "Ġreger": 7293,
      "ĠåĲĥ": 7294,
      "kijk": 7295,
      "Ġfly": 7296,
      "Ġä½łè¦ģæĺ¯": 7297,
      "èĢĲ": 7298,
      "é«ĺçļĦ": 7299,
      "ç¢İ": 7300,
      "éŃĤ": 7301,
      "åħ·æľī": 7302,
      "½åŃĲ": 7303,
      "ĠGel": 7304,
      "éľĩ": 7305,
      "bers": 7306,
      "Ġwood": 7307,
      "oger": 7308,
      "Ġcommand": 7309,
      "Ġcheck": 7310,
      "Ġgrafiek": 7311,
      "ĠAustral": 7312,
      "Ġbuurt": 7313,
      "stublieft": 7314,
      "æ¢¦æĥ³": 7315,
      "Ġregel": 7316,
      "Ġmaj": 7317,
      "ĠWas": 7318,
      "Ġvechten": 7319,
      "éĩıçļĦ": 7320,
      "Ġdinner": 7321,
      "Ġnaast": 7322,
      "æĺ¯åĲ¦": 7323,
      "äºĨä¸Ģä¸ĭ": 7324,
      "Ġlift": 7325,
      "åĽłä¸ºæĪĳ": 7326,
      "Ġain": 7327,
      "Ġweken": 7328,
      "ived": 7329,
      "èľĤ": 7330,
      "ç»ĻäºĨ": 7331,
      "éĢļçŁ¥": 7332,
      "èħ°": 7333,
      "30": 7334,
      "ĠAan": 7335,
      "Ġreis": 7336,
      "Ġæĺ¯æĪĳ": 7337,
      "Ġboom": 7338,
      "çī©è´¨": 7339,
      "çĽ¯": 7340,
      "è¿ĻæĹ¶": 7341,
      "Ġsterk": 7342,
      "åĢį": 7343,
      "Ġstar": 7344,
      "want": 7345,
      "èĤ¯å®ļæĺ¯": 7346,
      "ç«ŀ": 7347,
      "éĽĢ": 7348,
      "Ġvliegt": 7349,
      "åįģåħ«": 7350,
      "Wanneer": 7351,
      "hoog": 7352,
      "ague": 7353,
      "ĠCount": 7354,
      "iedenis": 7355,
      "å¿ħè¦ģ": 7356,
      "ä¸»åĬ¨": 7357,
      "itter": 7358,
      "Ġdevelop": 7359,
      "Ġwrite": 7360,
      "To": 7361,
      "ĠAmerikaanse": 7362,
      "Ġerop": 7363,
      "kenen": 7364,
      "Ġå¤§åĵ¥": 7365,
      "Ġblijf": 7366,
      "ç¯®çĲĥ": 7367,
      "Ġé«ĺ": 7368,
      "ĠæľĢåĲİ": 7369,
      "çľĭåĪ°äºĨ": 7370,
      "ĠRep": 7371,
      "è¿«": 7372,
      "åľ¨ä½ł": 7373,
      "è¯´è¿ĩ": 7374,
      "åĿıäºĨ": 7375,
      "ays": 7376,
      "ç´«": 7377,
      "vangen": 7378,
      "Ġliving": 7379,
      "ĠæŃ£": 7380,
      "Ġontmoet": 7381,
      "raid": 7382,
      "è°ħ": 7383,
      "Ġtouch": 7384,
      "Sn": 7385,
      "ooh": 7386,
      "oph": 7387,
      "æĪĲç»©": 7388,
      "æģ¢å¤į": 7389,
      "zin": 7390,
      "oning": 7391,
      "pel": 7392,
      "å¼¯": 7393,
      "ãĢĤ\"\"": 7394,
      "Help": 7395,
      "çļĦåĳ¢": 7396,
      "å§Ĩ": 7397,
      "å¸®å¿Ļ": 7398,
      "åĳ¦": 7399,
      "aughter": 7400,
      "ances": 7401,
      "çĽ®æłĩ": 7402,
      "glutam": 7403,
      "Door": 7404,
      "ä¸«": 7405,
      "éķ¿æĹ¶éĹ´": 7406,
      "è¡¨æ¼Ķ": 7407,
      "Ġrode": 7408,
      "Ġæ¬¢è¿İ": 7409,
      "æĮ¯": 7410,
      "AL": 7411,
      "ä¸įå°±": 7412,
      "Alsjeblieft": 7413,
      "Ġsomebody": 7414,
      "æ¯ıä¸ª": 7415,
      "bouw": 7416,
      "åŁºç¡Ģ": 7417,
      "este": 7418,
      "Ġalbum": 7419,
      "owers": 7420,
      "æ½ľ": 7421,
      "äººåķĬ": 7422,
      "æĥħæĦŁ": 7423,
      "çĽ¸åħ³": 7424,
      "æķĻæİĪ": 7425,
      "åĲİçļĦ": 7426,
      "Ġwild": 7427,
      "æĪĴ": 7428,
      "ä»Ģä¹Īéĥ½": 7429,
      "Ġè¿Ļå°±æĺ¯": 7430,
      "ĠæĪĳåİ»": 7431,
      "urch": 7432,
      "äºĭåķĬ": 7433,
      "çĤ®": 7434,
      "gelopen": 7435,
      "Ġcre": 7436,
      "ĠEm": 7437,
      "Ġgevraagd": 7438,
      "çľŁæŃ£çļĦ": 7439,
      "Ġmakkelijk": 7440,
      "é¥±": 7441,
      "çĮĽ": 7442,
      "ĠçľŁæĺ¯": 7443,
      "ucyl": 7444,
      "eller": 7445,
      "å½¼": 7446,
      "å¿«çĤ¹": 7447,
      "è·ĳäºĨ": 7448,
      "Ġmaand": 7449,
      "ä¸Īå¤«": 7450,
      "Ġvuur": 7451,
      "Ġgeboren": 7452,
      "ustig": 7453,
      "Ġvolk": 7454,
      "ĠæĪĳæ²¡": 7455,
      "geet": 7456,
      "åĩłå¹´": 7457,
      "Ġmarried": 7458,
      "Ġå§Ĳ": 7459,
      "æĪĳè·Ł": 7460,
      "è¯´ä»ĸ": 7461,
      "Ġmeestal": 7462,
      "tjes": 7463,
      "Ġgang": 7464,
      "Ġredden": 7465,
      "press": 7466,
      "å¿ĥæĥħ": 7467,
      "åŃ©åŃĲä»¬": 7468,
      "éĤ£å°±": 7469,
      "çİĭåŃĲ": 7470,
      "Ġverwacht": 7471,
      "èĦ¾æ°Ķ": 7472,
      "æĪĳå°±æĺ¯": 7473,
      "Vertel": 7474,
      "Ġbaas": 7475,
      "Ġhar": 7476,
      "ĠPort": 7477,
      "Ġtype": 7478,
      "nam": 7479,
      "Ġkost": 7480,
      "ĠæĪĳå·²ç»ı": 7481,
      "ç»Ļä½łä»¬": 7482,
      "ĠæŀĹ": 7483,
      "Ġtoek": 7484,
      "stead": 7485,
      "çļĦåľ°": 7486,
      "ä¸įå¦Ĥ": 7487,
      "å°ıçĨĬ": 7488,
      "Ġå¦Ĥæŀľä½ł": 7489,
      "æľīä¸ĢäºĽ": 7490,
      "Ġ*": 7491,
      "å¤¸": 7492,
      "zus": 7493,
      "åĸĤ": 7494,
      "æ¢¯": 7495,
      "agina": 7496,
      "ĠåĽĽ": 7497,
      "Ġveroor": 7498,
      "Ġcontrol": 7499,
      "çŁ³å¤´": 7500,
      "Ġnine": 7501,
      "Ġfout": 7502,
      "è®°ä½ı": 7503,
      "å½»": 7504,
      "ĠZijn": 7505,
      "Ġtomorrow": 7506,
      "Ġclim": 7507,
      "Ġbirthday": 7508,
      "Ġeil": 7509,
      "ining": 7510,
      "antie": 7511,
      "ĠGra": 7512,
      "Ġsitting": 7513,
      "Ġä½łæĺ¯ä¸įæĺ¯": 7514,
      "Ġtrad": 7515,
      "Ġletters": 7516,
      "å¢ŀåĬł": 7517,
      "eeg": 7518,
      "Ġphone": 7519,
      "itein": 7520,
      "toe": 7521,
      "Ġprobeer": 7522,
      "Ġvillage": 7523,
      "Ġç»ĵæŀľ": 7524,
      "Ġfijn": 7525,
      "Ġleng": 7526,
      "ĠTer": 7527,
      "åĬĽçļĦ": 7528,
      "Ġéķ¿": 7529,
      "ĠMarch": 7530,
      "Or": 7531,
      "ä¸ĸçķĮä¸Ĭ": 7532,
      "Ġdifficult": 7533,
      "Ġvent": 7534,
      "æĺŁæĺŁ": 7535,
      "ĠJune": 7536,
      "è¶ģ": 7537,
      "æıĲéĨĴ": 7538,
      "Ġseries": 7539,
      "Ġlived": 7540,
      "ĠFrench": 7541,
      "Ġgast": 7542,
      "eltje": 7543,
      "Ġkor": 7544,
      "è®©ä»ĸä»¬": 7545,
      "Ġvoelt": 7546,
      "æĪĳæĢİä¹Ī": 7547,
      "èĬ¬": 7548,
      "é£ŀæľº": 7549,
      "ä¼ĺç§Ģ": 7550,
      "èīºæľ¯": 7551,
      "Ġopnieuw": 7552,
      "æ¬²": 7553,
      "çļĦä½ł": 7554,
      "Ġclear": 7555,
      "Ġrain": 7556,
      "Ġhaal": 7557,
      "åħ¨åĽ½": 7558,
      "ä¸Ģä¸ªå°ı": 7559,
      "ĠWil": 7560,
      "onen": 7561,
      "æ´»çĿĢ": 7562,
      "ylalanyl": 7563,
      "Ġreport": 7564,
      "èĢģçĪ·": 7565,
      "hij": 7566,
      "genoot": 7567,
      "Ġkept": 7568,
      "éĻĦè¿ĳ": 7569,
      "ä¹ĭéĹ´çļĦ": 7570,
      "uwen": 7571,
      "çİ°å®ŀ": 7572,
      "Ġbos": 7573,
      "Ġgister": 7574,
      "Ġya": 7575,
      "IE": 7576,
      "Ġir": 7577,
      "Ġdoctor": 7578,
      "Ġthemselves": 7579,
      "Ġformule": 7580,
      "Ġmm": 7581,
      "å°±ç®Ĺ": 7582,
      "æĤī": 7583,
      "éĥŃ": 7584,
      "Ġä½łå¥½": 7585,
      "Ġspeelt": 7586,
      "gang": 7587,
      "ä¸įå¤Ł": 7588,
      "Ġmidden": 7589,
      "ä½łå¥½åķĬ": 7590,
      "Zoals": 7591,
      "è·Ŀç¦»": 7592,
      "åĪ°çļĦ": 7593,
      "Ġker": 7594,
      "å¤§æ¦Ĥ": 7595,
      "æĥ³çĿĢ": 7596,
      "Gel": 7597,
      "èļģ": 7598,
      "ä¼¦": 7599,
      "Ġren": 7600,
      "çī¢": 7601,
      "ĠDec": 7602,
      "amera": 7603,
      "Ġdik": 7604,
      "Ġå¨": 7605,
      "Ġrijden": 7606,
      "ĠLaur": 7607,
      "çĭ®": 7608,
      "ĠSm": 7609,
      "bert": 7610,
      "Ġfield": 7611,
      "å¤§å¤«": 7612,
      "Ġkwijt": 7613,
      "Ġhowever": 7614,
      "Ġkool": 7615,
      "é£ĺ": 7616,
      "è¿Ļä»¶äºĭæĥħ": 7617,
      "Ġmater": 7618,
      "beer": 7619,
      "è½¨": 7620,
      "Ġcirc": 7621,
      "Ġjump": 7622,
      "]?": 7623,
      "æī¾ä½ł": 7624,
      "Ġsex": 7625,
      "aa": 7626,
      "arch": 7627,
      "å¯¹ä»ĸ": 7628,
      "è¾£": 7629,
      "ocal": 7630,
      "aker": 7631,
      "dern": 7632,
      "å¿ĥçĲĨ": 7633,
      "ä¸»æĦı": 7634,
      "eding": 7635,
      "ä¸įåĩº": 7636,
      "Ġgarden": 7637,
      "èĭ±éĽĦ": 7638,
      "Ġä»ĸçļĦ": 7639,
      "Ġbooks": 7640,
      "æĺ¯æĪĳçļĦ": 7641,
      "åħ¶ä»ĸçļĦ": 7642,
      "isc": 7643,
      "éĺŁçļĦ": 7644,
      "æĺ¯è¿Ļæł·": 7645,
      "è¿Ļä½į": 7646,
      "ĠOne": 7647,
      "èµ°åĪ°": 7648,
      "Ġenorm": 7649,
      "Ġå¥½å¥½": 7650,
      "ĠNot": 7651,
      "è¯·ä½ł": 7652,
      "Ġsuppose": 7653,
      "ç¹": 7654,
      "æ°ı": 7655,
      "Bel": 7656,
      "Ġnamen": 7657,
      "aser": 7658,
      "ĠMil": 7659,
      "èµ°åķĬ": 7660,
      "Ġquiet": 7661,
      "å¥¸": 7662,
      "ĠåĽ½": 7663,
      "éļıçĿĢ": 7664,
      "Ġcross": 7665,
      "ills": 7666,
      "åŃ©åŃĲçļĦ": 7667,
      "ocol": 7668,
      "Dr": 7669,
      "Ġåĳ¨": 7670,
      "Erm": 7671,
      "æĺ¯ä¸Ģç§į": 7672,
      "æĿ¾é¼ł": 7673,
      "Ġbab": 7674,
      "Ġeet": 7675,
      "ä¸īå¹´": 7676,
      "èĦĳè¢ĭ": 7677,
      "å¹ķ": 7678,
      "ĠMen": 7679,
      "ĠOct": 7680,
      "ç¹ģ": 7681,
      "æķĮäºº": 7682,
      "Ġschree": 7683,
      "è£ģ": 7684,
      "å¥³çĶŁ": 7685,
      "ozen": 7686,
      "Ġafraid": 7687,
      "æķħéĢī": 7688,
      "Ġwakker": 7689,
      "è®¢": 7690,
      "å¹²åķ¥": 7691,
      "Dag": 7692,
      "Ġtakes": 7693,
      "æ´ģ": 7694,
      "Ġzwaar": 7695,
      "ĠJanuary": 7696,
      "vloed": 7697,
      "naam": 7698,
      "åŁĭ": 7699,
      "Ġå¸ĮæľĽ": 7700,
      "Ġweergegeven": 7701,
      "éĿĴèĽĻ": 7702,
      "èļĤ": 7703,
      "ae": 7704,
      "ä»ģ": 7705,
      "æĿ¥èĩª": 7706,
      "åĬ¨äºĨ": 7707,
      "ĠGeorge": 7708,
      "ĠLa": 7709,
      "å¤«å¦»": 7710,
      "Ġricht": 7711,
      "æıĴ": 7712,
      "çİ°è±¡": 7713,
      "Ġfinished": 7714,
      "ued": 7715,
      "Ġhus": 7716,
      "cer": 7717,
      "çļĦå£°éŁ³": 7718,
      "æįī": 7719,
      "å¡ŀ": 7720,
      "æ§": 7721,
      "å¸ĪçĪ¶": 7722,
      "Ġhours": 7723,
      "Ġæĺİ": 7724,
      "æ¬ºè´Ł": 7725,
      "Ġproper": 7726,
      "åĴ±ä¿©": 7727,
      "çĽ¾": 7728,
      "ç»ıéªĮ": 7729,
      "æħĮ": 7730,
      "ening": 7731,
      "Ġnamelijk": 7732,
      "Ġenergie": 7733,
      "Ġlied": 7734,
      "Ġwest": 7735,
      "ä¸Ģæł·çļĦ": 7736,
      "èī¾": 7737,
      "xim": 7738,
      "Ġabove": 7739,
      "ç¥¸": 7740,
      "æĺ¯ä»ĸ": 7741,
      "åı¯èĥ½ä¼ļ": 7742,
      "ograph": 7743,
      "Ġdam": 7744,
      "Ġbellen": 7745,
      "ä¸Ģå¼ł": 7746,
      "æĥ¹": 7747,
      "oppen": 7748,
      "astic": 7749,
      "Ġgelukkig": 7750,
      "ä¾¦": 7751,
      "äºĨå¾Īå¤ļ": 7752,
      "Ġent": 7753,
      "æ°´å¹³": 7754,
      "Ġgevoel": 7755,
      "æīĳ": 7756,
      "çİ©ç¬ĳ": 7757,
      "Ġsingle": 7758,
      "OM": 7759,
      "oelen": 7760,
      "Ġfant": 7761,
      "Ġsnow": 7762,
      "è¿ĩç¨ĭä¸Ń": 7763,
      "ersch": 7764,
      "Ġschrij": 7765,
      "din": 7766,
      "ĠLet": 7767,
      "ality": 7768,
      "dden": 7769,
      "Ġvie": 7770,
      "æĺ¯è¦ģ": 7771,
      "Ġfix": 7772,
      "è¯´åķĬ": 7773,
      "åĵ¼": 7774,
      "ĠGu": 7775,
      "é¥¼": 7776,
      "éĺŁä¼į": 7777,
      "Ġpriv": 7778,
      "æĪĳä¹Łæĺ¯": 7779,
      "Ġvor": 7780,
      "æľŁå¾ħ": 7781,
      "Ġpublic": 7782,
      "èķ": 7783,
      "Ġoveral": 7784,
      "ä¸»æĴŃ": 7785,
      "Ġfift": 7786,
      "Ġmoved": 7787,
      "åĹ¨": 7788,
      "Ġgrand": 7789,
      "æĽ´å¤ļçļĦ": 7790,
      "Ġcontact": 7791,
      "åħ·ä½ĵ": 7792,
      "å¹¼": 7793,
      "èĽ®": 7794,
      "æ¬£": 7795,
      "Ġblad": 7796,
      "Ġèĩªå·±": 7797,
      "Ġnose": 7798,
      "afel": 7799,
      "å¯»æī¾": 7800,
      "éĥ½å¾Ī": 7801,
      "ĠBer": 7802,
      "Ġfit": 7803,
      "éĵº": 7804,
      "éħįåĲĪ": 7805,
      "ĠEuropa": 7806,
      "ĠLord": 7807,
      "éĵ¾": 7808,
      "Ġveranderen": 7809,
      "è´¼": 7810,
      "Ġmilit": 7811,
      "Ġegg": 7812,
      "Ġherself": 7813,
      "Pl": 7814,
      "Ġbaan": 7815,
      "èĳĹ": 7816,
      "èµĸ": 7817,
      "Ġtechn": 7818,
      "Ġregion": 7819,
      "ĠWelke": 7820,
      "ä¸įä¸į": 7821,
      "æģĲæĢķ": 7822,
      "Naar": 7823,
      "æĪĺäºī": 7824,
      "attle": 7825,
      "Ġduur": 7826,
      "Ġtoy": 7827,
      "æŀľçĦ¶": 7828,
      "Ġsurpr": 7829,
      "å°¾å·´": 7830,
      "åĶ¯ä¸Ģ": 7831,
      "asure": 7832,
      "Ġcow": 7833,
      "åľ¨å®¶": 7834,
      "Ġmeth": 7835,
      "çĽ´åĪ°": 7836,
      "thern": 7837,
      "gesl": 7838,
      "ĠSw": 7839,
      "hor": 7840,
      "Ġequ": 7841,
      "èĢĮå·²": 7842,
      "blad": 7843,
      "ĠSouth": 7844,
      "éĹº": 7845,
      "Ġbehulp": 7846,
      "Ġmeester": 7847,
      "ĠGa": 7848,
      "é¥®": 7849,
      "ç¨³å®ļ": 7850,
      "Ġslim": 7851,
      "Pap": 7852,
      "ä»ĵ": 7853,
      "ĠIr": 7854,
      "ĠSu": 7855,
      "ample": 7856,
      "Ġwaarbij": 7857,
      "oft": 7858,
      "äºĨèµ·æĿ¥": 7859,
      "Ġstood": 7860,
      "Ġwinnen": 7861,
      "Ġhur": 7862,
      "Ġnational": 7863,
      "kan": 7864,
      "oose": 7865,
      "ç«¹": 7866,
      "ĠæĿ¨": 7867,
      "Ġshot": 7868,
      "erecht": 7869,
      "Ġwaarheid": 7870,
      "ä½łä¼ļ": 7871,
      "Ġregen": 7872,
      "Ġboos": 7873,
      "åľ°çļĦ": 7874,
      "èĨĢ": 7875,
      "ĠStan": 7876,
      "gaat": 7877,
      "Ġcannot": 7878,
      "Ġlovely": 7879,
      "ä¹Łä¸įèĥ½": 7880,
      "çľŁå®ŀ": 7881,
      "stairs": 7882,
      "é¾Ł": 7883,
      "å°ıçĮª": 7884,
      "ippen": 7885,
      "bles": 7886,
      "Ġbepaalde": 7887,
      "è¡ĮåĲĹ": 7888,
      "Ġregering": 7889,
      "zoeken": 7890,
      "Ġkast": 7891,
      "ĠPart": 7892,
      "æĹ¶æľŁ": 7893,
      "è®°èĢħ": 7894,
      "æ¯ķä¸ļ": 7895,
      "Ġlunch": 7896,
      "ä»ª": 7897,
      "erence": 7898,
      "ĠZuid": 7899,
      "ä¿º": 7900,
      "Ġsudden": 7901,
      "çŀĴ": 7902,
      "Ġfa": 7903,
      "å°ıåŃ©": 7904,
      "Ġmevrouw": 7905,
      "imin": 7906,
      "Ġ40": 7907,
      "Ġkennis": 7908,
      "Ġchance": 7909,
      "ym": 7910,
      "ĠDE": 7911,
      "éĺ³åħī": 7912,
      "IC": 7913,
      "å·®ä¸įå¤ļ": 7914,
      "ĠçĶļèĩ³": 7915,
      "veren": 7916,
      "è¡Įä¸ļ": 7917,
      "èĪħ": 7918,
      "çļĩå¸Ŀ": 7919,
      "Please": 7920,
      "Ġé©¬": 7921,
      "play": 7922,
      "æĦıè¯Ĩ": 7923,
      "æı´": 7924,
      "ĠStaten": 7925,
      "ĠæīĢä»¥æĪĳ": 7926,
      "ä¹Łå¥½": 7927,
      "çĩĥ": 7928,
      "cellen": 7929,
      "Ġca": 7930,
      "åİ»åĵªåĦ¿": 7931,
      "çĿĢäºĨ": 7932,
      "å¤ļä¹ħ": 7933,
      "Ġä¹Łè®¸": 7934,
      "è¯¯ä¼ļ": 7935,
      "ĠçĪ¸çĪ¸": 7936,
      "æĺ¯ä¸į": 7937,
      "èį¡": 7938,
      "Ġzus": 7939,
      "æĥ¨": 7940,
      "adem": 7941,
      "Ġstat": 7942,
      "though": 7943,
      "umb": 7944,
      "Ġwindow": 7945,
      "zijn": 7946,
      "ondon": 7947,
      "æķħæĦı": 7948,
      "Ġhield": 7949,
      "Ġlives": 7950,
      "ä»Ķç»Ĩ": 7951,
      "Want": 7952,
      "åıĳçĶŁäºĨ": 7953,
      "ä¸įè¯´": 7954,
      "åĭĴ": 7955,
      "å®ŀéĻħä¸Ĭ": 7956,
      "uurd": 7957,
      "åıĳçİ°äºĨ": 7958,
      "Ġwhether": 7959,
      "æİ¥è§¦": 7960,
      "ĠDecember": 7961,
      "Ġä¸Ń": 7962,
      "Ġbor": 7963,
      "ä¼ı": 7964,
      "çİ°åľ¨çļĦ": 7965,
      "åĬŀåħ¬": 7966,
      "Ġmonths": 7967,
      "å¾Īä¹ħ": 7968,
      "å¿«å¿«": 7969,
      "èį·": 7970,
      "äºĭåĦ¿åķĬ": 7971,
      "æī¿è®¤": 7972,
      "ex": 7973,
      "Ġest": 7974,
      "Ġ22": 7975,
      "è·ĳåĪ°": 7976,
      "dam": 7977,
      "Ġdad": 7978,
      "beelden": 7979,
      "èµ¶å¿«": 7980,
      "ä½łåı¯ä»¥": 7981,
      "ç¼ĵ": 7982,
      "hello": 7983,
      "ä¹Łè¦ģ": 7984,
      "Ġpossible": 7985,
      "fer": 7986,
      "Ã¯n": 7987,
      "Ġå¦Īå¦Ī": 7988,
      "Ġbeide": 7989,
      "è§ģäºĨ": 7990,
      "çĹĽèĭ¦": 7991,
      "ener": 7992,
      "ä¸ĢæĬĬ": 7993,
      "å®¿": 7994,
      "éĶ¦": 7995,
      "Ġstraat": 7996,
      "ĠRepubl": 7997,
      "ä¸įåıĬ": 7998,
      "å¥ī": 7999,
      "ä½ľåĵģ": 8000,
      "æıı": 8001,
      "å·¦åı³": 8002,
      "Ġverv": 8003,
      "èİī": 8004,
      "Ġspir": 8005,
      "Ġknows": 8006,
      "æ¶Īè´¹": 8007,
      "Ġplanten": 8008,
      "edia": 8009,
      "Ġlid": 8010,
      "Ġclos": 8011,
      "ä¾ĿçĦ¶": 8012,
      "view": 8013,
      "Ġmeisjes": 8014,
      "oogle": 8015,
      "æĩĴ": 8016,
      "ael": 8017,
      "ä¸Ģåı¥è¯Ŀ": 8018,
      "è¿ĺå¾Ĺ": 8019,
      "Ġdig": 8020,
      "aling": 8021,
      "ĠAugust": 8022,
      "Ġä»ĸæĺ¯": 8023,
      "Ġä¸įä¼ļ": 8024,
      "Ġcatch": 8025,
      "Ġæĺ¨å¤©": 8026,
      "Ġkat": 8027,
      "äººçĶŁ": 8028,
      "æĳĦ": 8029,
      "æıĲé«ĺ": 8030,
      "Ġworked": 8031,
      "Ġcried": 8032,
      "ĠæĪĳä¸įæĺ¯": 8033,
      "Ġplane": 8034,
      "æĪĳæ²¡æľī": 8035,
      "stad": 8036,
      "ĠDuitsland": 8037,
      "çļĦåĲ§": 8038,
      "Ġhusband": 8039,
      "bruik": 8040,
      "çļĦæīĭ": 8041,
      "ask": 8042,
      "Ġ21": 8043,
      "ĠFred": 8044,
      "åĳ³éģĵ": 8045,
      "Ġluck": 8046,
      "lymp": 8047,
      "å¹²åĩĢ": 8048,
      "halen": 8049,
      "ä¸ĳ": 8050,
      "emand": 8051,
      "ä¸»è¦ģæĺ¯": 8052,
      "Ġå°±åĥı": 8053,
      "Ġvandaan": 8054,
      "Ġbath": 8055,
      "ç¼Ŀ": 8056,
      "Ġmoesten": 8057,
      "åįģä¸Ģ": 8058,
      "Ġhung": 8059,
      "UN": 8060,
      "ieke": 8061,
      "ĠCity": 8062,
      "æ³ķå¾ĭ": 8063,
      "iod": 8064,
      "Ġhuil": 8065,
      "èµĮ": 8066,
      "ils": 8067,
      "brand": 8068,
      "ui": 8069,
      "å¸ĪåĤħ": 8070,
      "æĿĢäºĨ": 8071,
      "Ġjonge": 8072,
      "ä½łè¿Ļä¸ª": 8073,
      "æģŃ": 8074,
      "uken": 8075,
      "ĠSl": 8076,
      "éĤ£ä¸ªæĹ¶åĢĻ": 8077,
      "ĠYeah": 8078,
      "çĶµèĦĳ": 8079,
      "reep": 8080,
      "æ½®": 8081,
      "å¯¹è±¡": 8082,
      "Ġnamed": 8083,
      "alright": 8084,
      "æĬĬå¥¹": 8085,
      "Ġsuggest": 8086,
      "Ġhell": 8087,
      "ĠBobby": 8088,
      "æĹĹ": 8089,
      "ĠRobert": 8090,
      "aalt": 8091,
      "ĠçĻ½": 8092,
      "Ġç»ĻæĪĳ": 8093,
      "Ġkort": 8094,
      "åľ¨äºĨ": 8095,
      "Ġdok": 8096,
      "åĮª": 8097,
      "æ·»": 8098,
      "å°ıçĻ½": 8099,
      "èĥ¸": 8100,
      "èĲ¨": 8101,
      "aven": 8102,
      "äººåĳ¢": 8103,
      "stelling": 8104,
      "æħ°": 8105,
      "leiding": 8106,
      "ĠAf": 8107,
      "TUR": 8108,
      "doen": 8109,
      "ĠçĪ¸": 8110,
      "Ġlist": 8111,
      "Ġkeek": 8112,
      "çģ¾": 8113,
      "æĶ¿çŃĸ": 8114,
      "ebru": 8115,
      "å°±è¿Ļæł·": 8116,
      "ffen": 8117,
      "Ġtoekomst": 8118,
      "Ġzaken": 8119,
      "Ġsight": 8120,
      "Ġkunst": 8121,
      "æĮĩæĮ¥": 8122,
      "oegen": 8123,
      "æłĩåĩĨ": 8124,
      "ç¼©": 8125,
      "Ġkids": 8126,
      "Ġroe": 8127,
      "å¦®": 8128,
      "ĠCarl": 8129,
      "Ġ192": 8130,
      "Her": 8131,
      "ĠçŁ¥éģĵ": 8132,
      "ĠPol": 8133,
      "Volgens": 8134,
      "è¯´å®Į": 8135,
      "çİ©åĦ¿": 8136,
      "é¼»åŃĲ": 8137,
      "ä½©": 8138,
      "Ġerin": 8139,
      "rijden": 8140,
      "enny": 8141,
      "Ġattack": 8142,
      "ĠBlack": 8143,
      "oorlog": 8144,
      "ĠGl": 8145,
      "Ġdroom": 8146,
      "Ġzichzelf": 8147,
      "ĠBritish": 8148,
      "icken": 8149,
      "Ġå¥½åĥı": 8150,
      "Ġsomm": 8151,
      "Ġè¦ģæĺ¯": 8152,
      "Ġeasy": 8153,
      "ette": 8154,
      "å¤©çļĦ": 8155,
      "cted": 8156,
      "èĬ³": 8157,
      "å¥ı": 8158,
      "sterd": 8159,
      "Ġhoorde": 8160,
      "Ġè¯¥": 8161,
      "Ġwithin": 8162,
      "æľĢç»Ī": 8163,
      "å»·": 8164,
      "ä¹ĺ": 8165,
      "æĽ¼": 8166,
      "æī§è¡Į": 8167,
      "Rustig": 8168,
      "okken": 8169,
      "etjes": 8170,
      "å½¢æĪĲ": 8171,
      "ĠUniversity": 8172,
      "å«Įçĸĳ": 8173,
      "Ġspl": 8174,
      "ç®Ń": 8175,
      "åĢ¼å¾Ĺ": 8176,
      "will": 8177,
      "åı¬": 8178,
      "Ġcal": 8179,
      "éĺħ": 8180,
      "å½ĵåĪĿ": 8181,
      "åıĹä¼¤": 8182,
      "Ġclothes": 8183,
      "èļĤèļģ": 8184,
      "Ġaller": 8185,
      "Ġneg": 8186,
      "ipe": 8187,
      "å¸¦æĿ¥": 8188,
      "Ġpassen": 8189,
      "çŁĽ": 8190,
      "éĨī": 8191,
      "Ġyours": 8192,
      "ĠZij": 8193,
      "çŃĶæ¡Īæĺ¯": 8194,
      "åĽŀå¤´": 8195,
      "ĠLondon": 8196,
      "Ġä¸ŃåĽ½": 8197,
      "Ġè¿Ļä¸Ģ": 8198,
      "zetten": 8199,
      "Ġdream": 8200,
      "entle": 8201,
      "ç»ĵæŀĦ": 8202,
      "éĤ»": 8203,
      "ules": 8204,
      "ĠHeb": 8205,
      "ĠMartin": 8206,
      "Ġlow": 8207,
      "Because": 8208,
      "Ġobs": 8209,
      "Onze": 8210,
      "ç»ĻæĤ¨": 8211,
      "èĤĸ": 8212,
      "ä½ıåľ¨": 8213,
      "ĠZw": 8214,
      "Ġsounds": 8215,
      "Ġhuman": 8216,
      "Ġfear": 8217,
      "è¡¡": 8218,
      "æĢİä¹Īè¯´": 8219,
      "è®¤çľŁ": 8220,
      "eh": 8221,
      "ey": 8222,
      "point": 8223,
      "æĪĳå·²ç»ı": 8224,
      "ingers": 8225,
      "ĠSun": 8226,
      "Â·": 8227,
      "Ġshoes": 8228,
      "punt": 8229,
      "bei": 8230,
      "åĸľæ¬¢çļĦ": 8231,
      "Ġverloren": 8232,
      "ology": 8233,
      "ä¼łç»Ł": 8234,
      "Ġappro": 8235,
      "åªĴ": 8236,
      "PO": 8237,
      "Ġreag": 8238,
      "è§Ħå®ļ": 8239,
      "ĠPres": 8240,
      "zichtig": 8241,
      "Ġbom": 8242,
      "Ġlonger": 8243,
      "SO": 8244,
      "ĠRob": 8245,
      "ĠæĪĳä»¬çļĦ": 8246,
      "ĠEll": 8247,
      "å¥³åŃ©åŃĲ": 8248,
      "èĸĩ": 8249,
      "nem": 8250,
      "çĤ¼": 8251,
      "heb": 8252,
      "åĸ·": 8253,
      "æĶ¹éĿ©": 8254,
      "ĠDaarna": 8255,
      "Ġdest": 8256,
      "ases": 8257,
      "ĠNove": 8258,
      "ĠIndian": 8259,
      "ebruary": 8260,
      "ĠNovember": 8261,
      "Ġpract": 8262,
      "Ġbestaan": 8263,
      "iefd": 8264,
      "å¾Īå¤ļäºº": 8265,
      "volgens": 8266,
      "zier": 8267,
      "Ġä½ķ": 8268,
      "ç½¢": 8269,
      "èĩ³å°ĳ": 8270,
      "Uit": 8271,
      "æĪĳä»¬è¦ģ": 8272,
      "ä¸įåĲĮçļĦ": 8273,
      "ĠMad": 8274,
      "Ġè¿Ļä¸įæĺ¯": 8275,
      "Ġdokter": 8276,
      "åģļå¥½": 8277,
      "iety": 8278,
      "Ġforward": 8279,
      "ç²Ĵ": 8280,
      "çĨ¬": 8281,
      "ĠIN": 8282,
      "è¯ķè¯ķ": 8283,
      "Ġwinter": 8284,
      "Ġstroom": 8285,
      "çīĪ": 8286,
      "achte": 8287,
      "Ġverdomme": 8288,
      "Ġpolice": 8289,
      "bab": 8290,
      "Ġcorn": 8291,
      "æŃ»çļĦ": 8292,
      "Welke": 8293,
      "your": 8294,
      "æ¨ª": 8295,
      "Ġmember": 8296,
      "æ²¡åħ³ç³»": 8297,
      "çĦ¦": 8298,
      "ä½łä»¬ä¿©": 8299,
      "wood": 8300,
      "Twee": 8301,
      "æ»¡äºĨ": 8302,
      "Ġbroken": 8303,
      "Meneer": 8304,
      "ira": 8305,
      "Ġhotel": 8306,
      "Ġå¸¦": 8307,
      "ec": 8308,
      "Ġfeeling": 8309,
      "ĠVerenigde": 8310,
      "Ġkiss": 8311,
      "ä»ĸå¦Ī": 8312,
      "Ġverwij": 8313,
      "gene": 8314,
      "çī²": 8315,
      "Ġdress": 8316,
      "Ġregels": 8317,
      "Some": 8318,
      "Ġboeken": 8319,
      "åĶ®": 8320,
      "Ġshut": 8321,
      "gar": 8322,
      "ioen": 8323,
      "ĠOctober": 8324,
      "äºķ": 8325,
      "è¯¸": 8326,
      "Ġwaarschijnlijk": 8327,
      "æ¡£": 8328,
      "zuur": 8329,
      "Ġpaard": 8330,
      "Ġbeeld": 8331,
      "elijkheid": 8332,
      "èĭĹ": 8333,
      "clus": 8334,
      "Ġlots": 8335,
      "ĠMy": 8336,
      "æĪĳåı¯ä»¥": 8337,
      "ä¸įä¸ĭ": 8338,
      "æ²»çĸĹ": 8339,
      "Ġrustig": 8340,
      "Ġnatuur": 8341,
      "Ġabsol": 8342,
      "Ġdaughter": 8343,
      "å¿§": 8344,
      "æ²¿": 8345,
      "åįģå¹´": 8346,
      "Per": 8347,
      "å°±æĬĬ": 8348,
      "ugd": 8349,
      "ç½ĳä¸Ĭ": 8350,
      "é¹°": 8351,
      "Ġsucces": 8352,
      "ĠæĹ©": 8353,
      "ĠæĪĳæľī": 8354,
      "Ġfort": 8355,
      "Ġbedrijf": 8356,
      "wezen": 8357,
      "Daarom": 8358,
      "Ġda": 8359,
      "Ġarms": 8360,
      "Ġpassed": 8361,
      "Ġstemmen": 8362,
      "åı«åģļ": 8363,
      "çĳŀ": 8364,
      "ux": 8365,
      "åŃŁ": 8366,
      "æĤł": 8367,
      "Vooruit": 8368,
      "åľ¾": 8369,
      "å¤±è´¥": 8370,
      "mers": 8371,
      "Ġeye": 8372,
      "åı¯çĪ±": 8373,
      "ĠAfter": 8374,
      "schappen": 8375,
      "Ġlanger": 8376,
      "ä¸Ģå¤§": 8377,
      "ĥåľ¾": 8378,
      "edig": 8379,
      "æī¯": 8380,
      "å¤ļå°ĳéĴ±": 8381,
      "Ġesc": 8382,
      "Ġä¹Łä¸į": 8383,
      "ered": 8384,
      "Ġsal": 8385,
      "æ·ĺ": 8386,
      "Ġkiezen": 8387,
      "å°±è¿Ļä¹Ī": 8388,
      "Ġslow": 8389,
      "ĠHen": 8390,
      "è´º": 8391,
      "Ġvriendin": 8392,
      "çĶ³": 8393,
      "å»ºè®¾": 8394,
      "cks": 8395,
      "ĠMark": 8396,
      "ĠåĬł": 8397,
      "Ġwedstrijd": 8398,
      "Ġdw": 8399,
      "å°±åİ»": 8400,
      "èįĴ": 8401,
      "ĠEngland": 8402,
      "äº¤æµģ": 8403,
      "çŃĳ": 8404,
      "Ġcaught": 8405,
      "å°±æľī": 8406,
      "Ġbelangrijke": 8407,
      "æµ®": 8408,
      "wez": 8409,
      "Ġjuice": 8410,
      "vlak": 8411,
      "Ġwand": 8412,
      "Ġmeen": 8413,
      "æ®Ĭ": 8414,
      "èģĮä¸ļ": 8415,
      "èĿ¶": 8416,
      "ä½łçŁ¥éģĵåĲĹ": 8417,
      "Ġgeheim": 8418,
      "ermen": 8419,
      "è¿ĺæĮº": 8420,
      "ä¹Łå¾Ĺ": 8421,
      "èĤº": 8422,
      "Ġprins": 8423,
      "pect": 8424,
      "sm": 8425,
      "ä¸Ģåı£": 8426,
      "Ġwear": 8427,
      "Ġarg": 8428,
      "ä¸Ģéģį": 8429,
      "åı¯ä¸į": 8430,
      "åıªå¥½": 8431,
      "å¤´ä¸Ĭ": 8432,
      "Ġbete": 8433,
      "æĳĺ": 8434,
      "underline": 8435,
      "Ġmachine": 8436,
      "çĺ¦": 8437,
      "åĩĮ": 8438,
      "Ġsick": 8439,
      "aste": 8440,
      "cing": 8441,
      "å®ŀåĬĽ": 8442,
      "åıĪæĺ¯": 8443,
      "Ġled": 8444,
      "Ġthr": 8445,
      "ç»ĳ": 8446,
      "è®¨åİĮ": 8447,
      "ä¸Ńå¿ĥ": 8448,
      "Ġliever": 8449,
      "Ġä½łåľ¨": 8450,
      "éģĵæŃī": 8451,
      "roll": 8452,
      "Ĥ¬": 8453,
      "esse": 8454,
      "Ġaardig": 8455,
      "Ġdaddy": 8456,
      "ATT": 8457,
      "Ġgeluid": 8458,
      "Every": 8459,
      "hold": 8460,
      "Ġheavy": 8461,
      "Ġliter": 8462,
      "æĢİä¹Īä¼ļ": 8463,
      "æĮ¡": 8464,
      "ĠéĤ£æĺ¯": 8465,
      "Ġtonight": 8466,
      "ision": 8467,
      "ĠæĪĳçľŁçļĦ": 8468,
      "åĽ½æ°ĳ": 8469,
      "åıĳå¸ĥ": 8470,
      "ories": 8471,
      "å²©": 8472,
      "{}$$": 8473,
      "Ġgroter": 8474,
      "çļĦå·¥ä½ľ": 8475,
      "æĪĳèĥ½": 8476,
      "ä¸»å¸Ń": 8477,
      "Ġsupport": 8478,
      "ragen": 8479,
      "å¹´çºª": 8480,
      "ya": 8481,
      "è¯Ĭ": 8482,
      "Ġstorm": 8483,
      "çİ²": 8484,
      "æ©": 8485,
      "Ġeh": 8486,
      "ç²Ĺ": 8487,
      "å¡Ķ": 8488,
      "äºĨå¥½": 8489,
      "åŃĲä¸Ĭ": 8490,
      "ĠNoord": 8491,
      "ella": 8492,
      "Ġsoorten": 8493,
      "Ġhom": 8494,
      "Ġcop": 8495,
      "è¯´è¯´": 8496,
      "Ġriver": 8497,
      "Ġexample": 8498,
      "Ġrelig": 8499,
      "è¿Ļéĥ¨": 8500,
      "è¡Įè¡Į": 8501,
      "ID": 8502,
      "è¿Ļå°±æĺ¯": 8503,
      "æĬµ": 8504,
      "Ġgovernment": 8505,
      "ĠGoogle": 8506,
      "spraak": 8507,
      "Ġzul": 8508,
      "åı¯æĢ": 8509,
      "ç³Ł": 8510,
      "Have": 8511,
      "Net": 8512,
      "Ġmid": 8513,
      "ĠChristmas": 8514,
      "è¯¶": 8515,
      "fast": 8516,
      "æī®": 8517,
      "uro": 8518,
      "å¿½çĦ¶": 8519,
      "gave": 8520,
      "Hoi": 8521,
      "ä¹Łå°±": 8522,
      "æº¶": 8523,
      "Ġontstaat": 8524,
      "zil": 8525,
      "ts": 8526,
      "å°ıæĹ¶åĢĻ": 8527,
      "ĠWer": 8528,
      "çĭ±": 8529,
      "ä¸įå¥½æĦıæĢĿ": 8530,
      "çļĦåŃ©åŃĲ": 8531,
      "åŀĥåľ¾": 8532,
      "åĶī": 8533,
      "Ġcouple": 8534,
      "Ġomhoog": 8535,
      "ä½łåĳ¢": 8536,
      "æ±¡": 8537,
      "ffic": 8538,
      "laag": 8539,
      "æĪĳè¿ĺæĺ¯": 8540,
      "Ġä½łåħĪ": 8541,
      "Pak": 8542,
      "uel": 8543,
      "Ġversl": 8544,
      "rible": 8545,
      "èĽĩ": 8546,
      "Ġuitleggen": 8547,
      "espe": 8548,
      "Ġslaap": 8549,
      "entie": 8550,
      "çĽĴ": 8551,
      "ç©¶ç«Ł": 8552,
      "åĥ": 8553,
      "ature": 8554,
      "iled": 8555,
      "Ġradio": 8556,
      "illen": 8557,
      "ä¹Łå¤ª": 8558,
      "Ġvroeger": 8559,
      "æħķ": 8560,
      "æĦıæĢĿæĺ¯": 8561,
      "iot": 8562,
      "çļĦæľĭåıĭ": 8563,
      "Ġplat": 8564,
      "Ġplaces": 8565,
      "Ġneeds": 8566,
      "Ġrechts": 8567,
      "elingen": 8568,
      "staan": 8569,
      "ĠHar": 8570,
      "åĭ¤": 8571,
      "æŀģäºĨ": 8572,
      "Ġcommon": 8573,
      "ĠDen": 8574,
      "uwelijk": 8575,
      "makes": 8576,
      "Ġsand": 8577,
      "è´¾": 8578,
      "Ġappar": 8579,
      "å¯¼æ¼Ķ": 8580,
      "hier": 8581,
      "ĠToen": 8582,
      "çĲĨçĶ±": 8583,
      "ä»¶äºĭæĥħ": 8584,
      "Ġcamera": 8585,
      "Ġvlak": 8586,
      "ä½łéĥ½": 8587,
      "éĹ®æĪĳ": 8588,
      "Ġamb": 8589,
      "kw": 8590,
      "ĠFebruary": 8591,
      "Ġieder": 8592,
      "ospital": 8593,
      "Ġpan": 8594,
      "iders": 8595,
      "Ġstraks": 8596,
      "ĠWaarom": 8597,
      "Even": 8598,
      "iaal": 8599,
      "ĠäºĶ": 8600,
      "ume": 8601,
      "å¤´åıĳ": 8602,
      "å¹¶ä¸įæĺ¯": 8603,
      "Ġleerlingen": 8604,
      "è·ŁæĪĳä»¬": 8605,
      "onk": 8606,
      "ä¹Łåı¯ä»¥": 8607,
      "ĠApril": 8608,
      "æĥ³çļĦ": 8609,
      "åĢº": 8610,
      "ising": 8611,
      "Ġzaak": 8612,
      "æģ°": 8613,
      "Ġtuin": 8614,
      "Ġsouth": 8615,
      "ç§Ĵ": 8616,
      "æ»¡è¶³": 8617,
      "Hello": 8618,
      "æľ¬é¢ĺ": 8619,
      "Ġanyway": 8620,
      "Ġhors": 8621,
      "æī£": 8622,
      "å®¶ä¼Ļ": 8623,
      "çĤİ": 8624,
      "Ġseems": 8625,
      "çļĦèĢģ": 8626,
      "ä»ĸä¸į": 8627,
      "osaur": 8628,
      "sterdam": 8629,
      "ĠCHI": 8630,
      "Ġlanguage": 8631,
      "esterd": 8632,
      "å¤ļå¹´": 8633,
      "Ġproject": 8634,
      "ĠOlymp": 8635,
      "Ġklim": 8636,
      "Ġdiscover": 8637,
      "ĠNorth": 8638,
      "Ġzwem": 8639,
      "Ġdepartment": 8640,
      "äºĭå®ŀ": 8641,
      "ä¿Ĺ": 8642,
      "çŁĽçĽ¾": 8643,
      "Ġpain": 8644,
      "ä¸īçĻ¾": 8645,
      "ä¿¡ä»»": 8646,
      "æĭĴç»Ŀ": 8647,
      "é³": 8648,
      "Ġlab": 8649,
      "ikken": 8650,
      "ĠMary": 8651,
      "ĠCent": 8652,
      "çļĦéĤ£ç§į": 8653,
      "Ġmezelf": 8654,
      "èĢį": 8655,
      "åıĤä¸İ": 8656,
      "Ġstukje": 8657,
      "gra": 8658,
      "å¾Ĺå¥½": 8659,
      "æĥ³è¿ĩ": 8660,
      "delen": 8661,
      "ĠéĤ£æĪĳä»¬": 8662,
      "Excuse": 8663,
      "AS": 8664,
      "Ġur": 8665,
      "Ġhaat": 8666,
      "Ġzieken": 8667,
      "Ġdiep": 8668,
      "æĿĢäºº": 8669,
      "ictor": 8670,
      "Ġè¡ĮäºĨ": 8671,
      "hoek": 8672,
      "night": 8673,
      "Ġcel": 8674,
      "åĶ±æŃĮ": 8675,
      "æ¸©åº¦": 8676,
      "ooien": 8677,
      "Ġ23": 8678,
      "ç»ıçĲĨ": 8679,
      "Ġverschil": 8680,
      "Ġtired": 8681,
      "ammer": 8682,
      "ä¿ĥ": 8683,
      "é¹ħ": 8684,
      "Ġongeluk": 8685,
      "Ġèµµ": 8686,
      "Ġforget": 8687,
      "æĪĳå¾Ī": 8688,
      "æ³°": 8689,
      "èĥİ": 8690,
      "ĠSeptember": 8691,
      "çľĭè¿ĩ": 8692,
      "Ġzeven": 8693,
      "ä¸¤ä½į": 8694,
      "ĠFrankrijk": 8695,
      "Ġpig": 8696,
      "éļľ": 8697,
      "ogn": 8698,
      "è¢«äºº": 8699,
      "åĨĽçļĦ": 8700,
      "æĪĳåĴĮ": 8701,
      "Wees": 8702,
      "ĠJo": 8703,
      "çł¸": 8704,
      "----": 8705,
      "Ġmillion": 8706,
      "Ġlim": 8707,
      "Ġraak": 8708,
      "å·«": 8709,
      "æŃĩ": 8710,
      "ä½łåħĪ": 8711,
      "éľ¸": 8712,
      "ä¸Ģå®ļæĺ¯": 8713,
      "Ġkwaad": 8714,
      "ç¿ħ": 8715,
      "Ġarri": 8716,
      "Ġæ²¡æĥ³åĪ°": 8717,
      "Ġgrapp": 8718,
      "Ġeating": 8719,
      "elly": 8720,
      "Ġeerlijk": 8721,
      "ä¼Ļä¼´": 8722,
      "Ġafge": 8723,
      "Ġæį®": 8724,
      "å¤©æ°Ķ": 8725,
      "Ġcollect": 8726,
      "Ġä¸İ": 8727,
      "Ġsett": 8728,
      "ä¾¯": 8729,
      "BL": 8730,
      "See": 8731,
      "uch": 8732,
      "rodu": 8733,
      "Ġputting": 8734,
      "éĵľ": 8735,
      "Ġblock": 8736,
      "è¿Ļä»¶äºĭ": 8737,
      "200": 8738,
      "wassen": 8739,
      "ĠOver": 8740,
      "åĲįçļĦ": 8741,
      "ä¹Łåľ¨": 8742,
      "ĠEgy": 8743,
      "çĨŁæĤī": 8744,
      "Ġzen": 8745,
      "å¹»": 8746,
      "æĺİæĺ¾": 8747,
      "éĽĨåĽ¢": 8748,
      "Ġä½łè§īå¾Ĺ": 8749,
      "é¦ĸæŃĮ": 8750,
      "èŃ¦æĸ¹": 8751,
      "Ġçī¹åĪ«": 8752,
      "æİª": 8753,
      "Hoeveel": 8754,
      "Ġserie": 8755,
      "å¹´è½»äºº": 8756,
      "Ġreleased": 8757,
      "Ġthird": 8758,
      "ichael": 8759,
      "åºķä¸ĭ": 8760,
      "Ġintern": 8761,
      "æĺ¾ç¤º": 8762,
      "çĴĥ": 8763,
      "rom": 8764,
      "work": 8765,
      "ç¨ĭåº¦": 8766,
      "ä¸ºä½ł": 8767,
      "Ġuite": 8768,
      "Ġfollowing": 8769,
      "Ġkerk": 8770,
      "llustr": 8771,
      "çºł": 8772,
      "æĥħæĬ¥": 8773,
      "æĸĩç«ł": 8774,
      "Ġæī¾": 8775,
      "çĽŁ": 8776,
      "Ġshout": 8777,
      "ĠChina": 8778,
      "ounter": 8779,
      "Ġkoningin": 8780,
      "è´ª": 8781,
      "Ġå¾Ĺ": 8782,
      "åİ»åģļ": 8783,
      "éĹ·": 8784,
      "uts": 8785,
      "åĺ¿": 8786,
      "derdaad": 8787,
      "ieken": 8788,
      "å°±å¥½äºĨ": 8789,
      "çľī": 8790,
      "æ´Ľ": 8791,
      "Amer": 8792,
      "è¹¦": 8793,
      "esterday": 8794,
      "åİ»åķĬ": 8795,
      "æĻ¶": 8796,
      "åĩºéĹ¨": 8797,
      "Ġevening": 8798,
      "moeten": 8799,
      "Zelf": 8800,
      "with": 8801,
      "Ġdocent": 8802,
      "çĽĹ": 8803,
      "éļıæĹ¶": 8804,
      "Ġgeschreven": 8805,
      "Ġwaiting": 8806,
      "å¹´é¾Ħ": 8807,
      "èİ²": 8808,
      "staande": 8809,
      "amb": 8810,
      "æĪĳå¦Ī": 8811,
      "Ġcost": 8812,
      "ä¾ł": 8813,
      "itty": 8814,
      "Ġvolg": 8815,
      "åĬłæ²¹": 8816,
      "Ġmur": 8817,
      "Ġbow": 8818,
      "æĢİä¹ĪåĽŀäºĭ": 8819,
      "ĠSim": 8820,
      "Ġadem": 8821,
      "Ġfrog": 8822,
      "äºĴçĽ¸": 8823,
      "ĠCounty": 8824,
      "John": 8825,
      "Mooi": 8826,
      "Ġmix": 8827,
      "Ġstuur": 8828,
      "Ġheren": 8829,
      "ĠJuly": 8830,
      "iny": 8831,
      "æĢİæł·": 8832,
      "plant": 8833,
      "Ġadm": 8834,
      "hank": 8835,
      "éĥ½å·²ç»ı": 8836,
      "ache": 8837,
      "Ġwelk": 8838,
      "è£Ĥ": 8839,
      "Ġæ¯Ķ": 8840,
      "ä¸Ģæ®µ": 8841,
      "å¦ĥ": 8842,
      "apens": 8843,
      "Ġklinkt": 8844,
      "ä½łæĿ¥": 8845,
      "Ġtowards": 8846,
      "Ġbroke": 8847,
      "Ġstellen": 8848,
      "åĲİæĤĶ": 8849,
      "ä¸Ģéĺµ": 8850,
      "Ġå¯¹äºİ": 8851,
      "èµĦæºĲ": 8852,
      "ä¸ĵéĹ¨": 8853,
      "ä»·æł¼": 8854,
      "anken": 8855,
      "Ġvogel": 8856,
      "Ġprijs": 8857,
      "Ġåĺ": 8858,
      "è¶ħè¿ĩ": 8859,
      "Ġtelevision": 8860,
      "åıĽ": 8861,
      "ä¸įå¼Ģ": 8862,
      "Ġinsp": 8863,
      "Ġcry": 8864,
      "ĠJer": 8865,
      "èĲĿ": 8866,
      "Ġdur": 8867,
      "æľīæĹ¶åĢĻ": 8868,
      "æ±ª": 8869,
      "æĬĹæĹ¥": 8870,
      "Ġdanger": 8871,
      "ekst": 8872,
      "ĠUit": 8873,
      "ç¾İä¸½çļĦ": 8874,
      "which": 8875,
      "ä¹¦è®°": 8876,
      "æµĵ": 8877,
      "è¿Ļä¹Īå¤§": 8878,
      "æį¡": 8879,
      "US": 8880,
      "Ġäºİæĺ¯": 8881,
      "agon": 8882,
      "ĠVeel": 8883,
      "Ġerbij": 8884,
      "æ²¡æľīä»Ģä¹Ī": 8885,
      "Ġsupposed": 8886,
      "å®ŀåľ¨æĺ¯": 8887,
      "éĤĢ": 8888,
      "Ġtabel": 8889,
      "inter": 8890,
      "Ġvanuit": 8891,
      "ĠBekijk": 8892,
      "åĪ°æĪĳ": 8893,
      "Ġtaal": 8894,
      "Ġbreat": 8895,
      "Ġzinnen": 8896,
      "ugen": 8897,
      "èµĦæĸĻ": 8898,
      "field": 8899,
      "ä»¿": 8900,
      "å¤©ç©º": 8901,
      "éĻĽ": 8902,
      "Ġchem": 8903,
      "Ġdescri": 8904,
      "åįģåħŃ": 8905,
      "ĠAmerika": 8906,
      "åĵŁ": 8907,
      "EÃ©n": 8908,
      "æ»¡æĦı": 8909,
      "æ¹¾": 8910,
      "Ġçļĩä¸Ĭ": 8911,
      "æīĩ": 8912,
      "Ġstom": 8913,
      "æĸ¤": 8914,
      "éķ¿å¤§": 8915,
      "Ġlinks": 8916,
      "ç¾İçļĦ": 8917,
      "Ġmaxim": 8918,
      "æĪª": 8919,
      "ĠYouT": 8920,
      "åĳµ": 8921,
      "ĠWilliam": 8922,
      "Ġwinkel": 8923,
      "kamer": 8924,
      "some": 8925,
      "ä»¥æĿ¥": 8926,
      "ĠæĪĳä»Ĭå¤©": 8927,
      "otte": 8928,
      "opdracht": 8929,
      "Ġ#": 8930,
      "Ġwapen": 8931,
      "åı«æĪĳ": 8932,
      "åĪĽéĢł": 8933,
      "Ġbevat": 8934,
      "ĠCol": 8935,
      "Ġtrots": 8936,
      "Ġdorp": 8937,
      "åĳ¢æĪĳ": 8938,
      "zeker": 8939,
      "standig": 8940,
      "Ġstraight": 8941,
      "ratie": 8942,
      "å¾Īå¤§çļĦ": 8943,
      "Ġgroe": 8944,
      "é¢ľèī²": 8945,
      "ä¸ĭåįĪ": 8946,
      "rian": 8947,
      "Ġseem": 8948,
      "ĠTo": 8949,
      "ç¨Ģ": 8950,
      "åıįèĢĮ": 8951,
      "Ġglass": 8952,
      "éĥ½åı¯ä»¥": 8953,
      "è·Į": 8954,
      "åĬŁèĥ½": 8955,
      "è´¨éĩı": 8956,
      "çĸ«æĥħ": 8957,
      "å¾Ĺå¤ª": 8958,
      "woordig": 8959,
      "Ġdoc": 8960,
      "èĳ£äºĭ": 8961,
      "åįľ": 8962,
      "ä¸ªæľĪ": 8963,
      "Ġterm": 8964,
      "äº¤ä»£": 8965,
      "Ġcertainly": 8966,
      "Ġzoiets": 8967,
      "æ¶¦": 8968,
      "é¦Ļæ¸¯": 8969,
      "Ġtrees": 8970,
      "è´·": 8971,
      "çĶ¨äºĨ": 8972,
      "Ġtrouwen": 8973,
      "ĠSome": 8974,
      "essor": 8975,
      "Ġdrive": 8976,
      "Ġforgot": 8977,
      "æĺ¯ä¸ºäºĨ": 8978,
      "å¹³åı°": 8979,
      "ä¸ĢçĤ¹åĦ¿": 8980,
      "Ġermee": 8981,
      "Verdomme": 8982,
      "Ġcere": 8983,
      "çĶĦ": 8984,
      "Ġworry": 8985,
      "empt": 8986,
      "Ġbehand": 8987,
      "Ġä½łåı¯ä»¥": 8988,
      "è¿ĺä¼ļ": 8989,
      "ĠRoy": 8990,
      "ikel": 8991,
      "éĹ¯": 8992,
      "ä½łä¸Ģ": 8993,
      "Ġwitte": 8994,
      "çĿĢä¸Ģ": 8995,
      "å¾Īå¤§": 8996,
      "ä¸įæĺ¯æĪĳ": 8997,
      "ĠâĤ¬": 8998,
      "ula": 8999,
      "è½»è½»": 9000,
      "ĠDavid": 9001,
      "Ġlag": 9002,
      "Ġusing": 9003,
      "Ġvisit": 9004,
      "car": 9005,
      "æĪĲéķ¿": 9006,
      "gesteld": 9007,
      "Ġnor": 9008,
      "Ġkolon": 9009,
      "Ġè¿Ļä½į": 9010,
      "ugs": 9011,
      "oeder": 9012,
      "Ġverdien": 9013,
      "Ġ$": 9014,
      "Ġherinner": 9015,
      "Ġperform": 9016,
      "åĪ¶åº¦": 9017,
      "Zet": 9018,
      "lei": 9019,
      "lands": 9020,
      "è¯»ä¹¦": 9021,
      "Veel": 9022,
      "Ġplezier": 9023,
      "Ġbesp": 9024,
      "Ġdeep": 9025,
      "çĿĢä»ĸ": 9026,
      "ĠAmsterdam": 9027,
      "Ġquickly": 9028,
      "ĠSan": 9029,
      "åĿ¦": 9030,
      "éĢģç»Ļ": 9031,
      "è¿ħ": 9032,
      "iste": 9033,
      "Ġknock": 9034,
      "Ġnearly": 9035,
      "joy": 9036,
      "Ġé»Ħ": 9037,
      "ä½ĵçļĦ": 9038,
      "æıĲåĩº": 9039,
      "Ġstruct": 9040,
      "å¥½åĲĥ": 9041,
      "Ġrub": 9042,
      "åĬ«": 9043,
      "åĨįæĿ¥": 9044,
      "æŁľ": 9045,
      "ä¼¤å¿ĥ": 9046,
      "Ġä½łåı¯": 9047,
      "Ġpack": 9048,
      "Ġhoef": 9049,
      "present": 9050,
      "çīº": 9051,
      "wijk": 9052,
      "Ġbegrijpen": 9053,
      "æĹ¶åĪ»": 9054,
      "ified": 9055,
      "Ġgekregen": 9056,
      "ĠLou": 9057,
      "Ġperiod": 9058,
      "åħ¬åı¸çļĦ": 9059,
      "æŃ£ç¡®çŃĶæ¡Īæĺ¯": 9060,
      "Ġann": 9061,
      "å§¥": 9062,
      "å±ı": 9063,
      "essie": 9064,
      "ipedia": 9065,
      "ĠYouTube": 9066,
      "Ġbouw": 9067,
      "æĦıå¤ĸ": 9068,
      "Ġverniet": 9069,
      "Ġreached": 9070,
      "Ġspace": 9071,
      "åĪ«åĪ«": 9072,
      "asting": 9073,
      "æŁ´": 9074,
      "uhhuh": 9075,
      "éĹ®ä»ĸ": 9076,
      "æıĲåīį": 9077,
      "Ġèµ¶ç´§": 9078,
      "æĥ³è±¡": 9079,
      "å¤įæĿĤ": 9080,
      "Ġgentle": 9081,
      "Ġvoorbeeld": 9082,
      "Ġvoorkomen": 9083,
      "åįģä¸ī": 9084,
      "Ġæĸ°": 9085,
      "wege": 9086,
      "Ġpreten": 9087,
      "éĥģ": 9088,
      "ä»Ĭå¤©çļĦ": 9089,
      "Ġmemb": 9090,
      "ä¸Ĭæ¬¡": 9091,
      "Ġseat": 9092,
      "Ġåį³": 9093,
      "Ġzuurstof": 9094,
      "Illustr": 9095,
      "äºĨåĳĢ": 9096,
      "ĠJames": 9097,
      "æģĴ": 9098,
      "å»ºç«ĭ": 9099,
      "å¿½": 9100,
      "èĢĢ": 9101,
      "Ġaccept": 9102,
      "Ter": 9103,
      "Ġearth": 9104,
      "è°İ": 9105,
      "è§Ĵèī²": 9106,
      "Ġcell": 9107,
      "Ġcake": 9108,
      "ĠCaptain": 9109,
      "ĠæĿ¥æĿ¥æĿ¥": 9110,
      "ĠæĪĳæ²¡æľī": 9111,
      "æĭ¦": 9112,
      "geld": 9113,
      "å¤§å£°": 9114,
      "Ġpolitic": 9115,
      "Ġhoge": 9116,
      "Ġsommige": 9117,
      "roy": 9118,
      "åģļåĪ°": 9119,
      "æĹłè®º": 9120,
      "çĽ®çļĦ": 9121,
      "ĨĴ": 9122,
      "åİ»çļĦ": 9123,
      "onger": 9124,
      "ijdt": 9125,
      "çīºçī²": 9126,
      "Maybe": 9127,
      "æĬĬèĩªå·±": 9128,
      "arts": 9129,
      "Ġformer": 9130,
      "å«ĤåŃĲ": 9131,
      "éĿ¢ä¸Ĭ": 9132,
      "Ġ(\"": 9133,
      "Ġè¿ĩ": 9134,
      "Ġsuit": 9135,
      "æīĵäºĨ": 9136,
      "æŁ±": 9137,
      "éĺ¶æ®µ": 9138,
      "è´¸": 9139,
      "Ġleef": 9140,
      "éĤ£æĹ¶åĢĻ": 9141,
      "Ġrob": 9142,
      "Ġroept": 9143,
      "Ġwilden": 9144,
      "Ġdisapp": 9145,
      "å¿ĺè®°": 9146,
      "Ne": 9147,
      "oeld": 9148,
      "ieuw": 9149,
      "åĪ«äººçļĦ": 9150,
      "anning": 9151,
      "éĹ®ä¸Ģä¸ĭ": 9152,
      "Ġ2018": 9153,
      "ä¸ľåĮĹ": 9154,
      "Ġinternet": 9155,
      "Ġtick": 9156,
      "æī¶": 9157,
      "leur": 9158,
      "Ġgegaan": 9159,
      "derij": 9160,
      "çŁ©": 9161,
      "ä¸§": 9162,
      "Ġsad": 9163,
      "Ġsense": 9164,
      "owel": 9165,
      "ĠåŃ©åŃĲ": 9166,
      "çľł": 9167,
      "ĠCom": 9168,
      "zingen": 9169,
      "æħ¢çĤ¹": 9170,
      "ucy": 9171,
      "dit": 9172,
      "ä¸įåĩºæĿ¥": 9173,
      "ĠAunt": 9174,
      "åĲĮäºĭ": 9175,
      "Ġboard": 9176,
      "èħĲ": 9177,
      "Ġhieronder": 9178,
      "ppen": 9179,
      "zing": 9180,
      "inen": 9181,
      "åħ½": 9182,
      "æĬĽ": 9183,
      "åĺŀ": 9184,
      "æ´¥": 9185,
      "Ġveroorz": 9186,
      "Ġapart": 9187,
      "æ±Ĺ": 9188,
      "çĬ¯ç½ª": 9189,
      "MAR": 9190,
      "åĿ¡": 9191,
      "Ġvermoorden": 9192,
      "çĽ¸äºĴ": 9193,
      "ĠåĸĤ": 9194,
      "nes": 9195,
      "æľĹ": 9196,
      "åĽ½åĨħ": 9197,
      "Ġcarry": 9198,
      "phone": 9199,
      "Niets": 9200,
      "gly": 9201,
      "ä¼Ĭ": 9202,
      "ĠBelg": 9203,
      "Ġterecht": 9204,
      "Ġgiving": 9205,
      "ĠNow": 9206,
      "Ġziekte": 9207,
      "ĠåĽłä¸ºæĪĳ": 9208,
      "Ġtoward": 9209,
      "Ġbegonnen": 9210,
      "Ġworks": 9211,
      "plaats": 9212,
      "LT": 9213,
      "ä¹Łè®¸": 9214,
      "Ġgeleerd": 9215,
      "ĠåĮħæĭ¬": 9216,
      "druk": 9217,
      "éĤ£ä¸Ģ": 9218,
      "äº¤éĢļ": 9219,
      "Ġprotect": 9220,
      "Ġmajor": 9221,
      "Ġsilly": 9222,
      "åĢ¾": 9223,
      "ç§įåŃĲ": 9224,
      "After": 9225,
      "Ġrace": 9226,
      "åĨħå¿ĥ": 9227,
      "Ġbelangrijkste": 9228,
      "Ġdiscuss": 9229,
      "Ġdoubt": 9230,
      "ä¸Ľ": 9231,
      "Ġprima": 9232,
      "anny": 9233,
      "Ġä½łèĥ½": 9234,
      "ä¸Ģä¸ªæľĪ": 9235,
      "uses": 9236,
      "æ¶Ľ": 9237,
      "ä¸įåĸľæ¬¢": 9238,
      "èĦĨ": 9239,
      "komst": 9240,
      "woners": 9241,
      "ĠJa": 9242,
      "æľĢå¥½": 9243,
      "Ġsecret": 9244,
      "Ġbuilt": 9245,
      "Ġposition": 9246,
      "40": 9247,
      "With": 9248,
      "Ġinstead": 9249,
      "Ġene": 9250,
      "åĨłåĨĽ": 9251,
      "Ġreplied": 9252,
      "ĠBrazil": 9253,
      "åĬŀåħ¬å®¤": 9254,
      "ä¸įæĦ¿æĦı": 9255,
      "åħģ": 9256,
      "åŃķ": 9257,
      "Ġovert": 9258,
      "ĠReg": 9259,
      "Ġpress": 9260,
      "uzz": 9261,
      "arah": 9262,
      "ongen": 9263,
      "Ġdansen": 9264,
      "è¢Ń": 9265,
      "æ¡Ĥ": 9266,
      "ĠWikipedia": 9267,
      "Ġview": 9268,
      "Ġopper": 9269,
      "Ġchanged": 9270,
      "ĠåĪ°åºķ": 9271,
      "Ġzuid": 9272,
      "æīŃ": 9273,
      "æĢ§æł¼": 9274,
      "Ġweeks": 9275,
      "ĠNu": 9276,
      "éĿ¢çļĦ": 9277,
      "åĪĨåŃĲ": 9278,
      "Ġsheep": 9279,
      "æīįä¼ļ": 9280,
      "ĠèĢĮæĺ¯": 9281,
      "ĠMex": 9282,
      "Ġdom": 9283,
      "Ġberg": 9284,
      "anda": 9285,
      "Ġrequ": 9286,
      "Ġä¸įè¡Į": 9287,
      "èĦĳåŃĲ": 9288,
      "Ġtafel": 9289,
      "ĠæĪĳæĿ¥": 9290,
      "åĩłä¹İ": 9291,
      "tv": 9292,
      "ç»Ļå¤§å®¶": 9293,
      "Ġeverybody": 9294,
      "å°Ĭéĩį": 9295,
      "äººåľ¨": 9296,
      "åĩºåıĳ": 9297,
      "æĤŁ": 9298,
      "æĶ¾ä¸ĭ": 9299,
      "é©¬æĭī": 9300,
      "éļ¾åıĹ": 9301,
      "ĠYOU": 9302,
      "bor": 9303,
      "xide": 9304,
      "Ġæ¯ıå¤©": 9305,
      "è®°å¿Ĩ": 9306,
      "BA": 9307,
      "Ġfarm": 9308,
      "è´«": 9309,
      "ĠRock": 9310,
      "werken": 9311,
      "ny": 9312,
      "ĠVraag": 9313,
      "Ġwhatever": 9314,
      "åĬłåħ¥": 9315,
      "Ġlaag": 9316,
      "ç²¾å½©": 9317,
      "èĩªæĪĳ": 9318,
      "ĠIndia": 9319,
      "Ġgoud": 9320,
      "Ġkid": 9321,
      "åĴĮä»ĸ": 9322,
      "ANK": 9323,
      "Ġspring": 9324,
      "Ġvergelijking": 9325,
      "æķĻç»ĥ": 9326,
      "Ġbeschermen": 9327,
      "Ġfill": 9328,
      "çŁ¥éģĵåĲĹ": 9329,
      "Ġhoogte": 9330,
      "Ġreturned": 9331,
      "éĻĽä¸ĭ": 9332,
      "Mama": 9333,
      "NA": 9334,
      "Ġç¬¬äºĮ": 9335,
      "aans": 9336,
      "åĺŁ": 9337,
      "pes": 9338,
      "çĦ¶èĢĮ": 9339,
      "Ġvoelen": 9340,
      "GRA": 9341,
      "OO": 9342,
      "Ġdin": 9343,
      "æĸ¹æ¡Ī": 9344,
      "çŁ¿": 9345,
      "Ġopt": 9346,
      "Ġå¿ħ": 9347,
      "isper": 9348,
      "ala": 9349,
      "èĢĹ": 9350,
      "å¥³åŃĲ": 9351,
      "Ġslechts": 9352,
      "Ġij": 9353,
      "Ġmicro": 9354,
      "æĹ¶çļĦ": 9355,
      "ä¸ĭæ¬¡": 9356,
      "Ġaanwez": 9357,
      "Ġbedankt": 9358,
      "Ġå¹³": 9359,
      "board": 9360,
      "iday": 9361,
      "Ġbeweg": 9362,
      "ä¸Ģä¸ĭåŃĲ": 9363,
      "Ġcentury": 9364,
      "Ġstel": 9365,
      "ĠJul": 9366,
      "çŃīæĪĳ": 9367,
      "Ġbescherm": 9368,
      "Ġfollowed": 9369,
      "Ġnormaal": 9370,
      "aardig": 9371,
      "ĠRo": 9372,
      "Ġschrijf": 9373,
      "æľīåı¯èĥ½": 9374,
      "Ġ27": 9375,
      "åĬ¨ä½ľ": 9376,
      "æŃ£å¼ı": 9377,
      "éľį": 9378,
      "Ġ2021": 9379,
      "Ġblow": 9380,
      "äºĶå¹´": 9381,
      "Ġafterno": 9382,
      "Alle": 9383,
      "give": 9384,
      "Ġdem": 9385,
      "ä¼ļè®®": 9386,
      "è´¤": 9387,
      "èĥĮåĲİ": 9388,
      "èĪŀåı°": 9389,
      "Ġbacter": 9390,
      "Ġstars": 9391,
      "ĠJust": 9392,
      "ç®ĹäºĨ": 9393,
      "organ": 9394,
      "Iemand": 9395,
      "gin": 9396,
      "çļĦæĦŁè§ī": 9397,
      "igt": 9398,
      "æĺİæĺİ": 9399,
      "é¢ĺçĽ®": 9400,
      "idence": 9401,
      "æ¼Ĥäº®çļĦ": 9402,
      "orgt": 9403,
      "Ġvoll": 9404,
      "Ġklopt": 9405,
      "Ġstrange": 9406,
      "Ġtv": 9407,
      "æĺı": 9408,
      "è¿Ļè¿Ļ": 9409,
      "å°±å¥½": 9410,
      "æĦģ": 9411,
      "Uh": 9412,
      "hy": 9413,
      "Ġfruit": 9414,
      "æĥ³åĬŀæ³ķ": 9415,
      "Ġåĸľ": 9416,
      "çļĦæ°´": 9417,
      "æĬ¼": 9418,
      "åĨ¤": 9419,
      "ĠTony": 9420,
      "æĪĳåĨį": 9421,
      "æī©": 9422,
      "ĠRus": 9423,
      "ĠGrand": 9424,
      "Ġgeneral": 9425,
      "Ġviel": 9426,
      "å·¥èµĦ": 9427,
      "è®°å½ķ": 9428,
      "phen": 9429,
      "Ġpad": 9430,
      "ĠWell": 9431,
      "åįĬå¤©": 9432,
      "Ġbleef": 9433,
      "ĠæĪĳåı¯ä»¥": 9434,
      "Ġ26": 9435,
      "åħ¨çĲĥ": 9436,
      "Ġallebei": 9437,
      "Ġmod": 9438,
      "Ġcontrole": 9439,
      "Ġoplossing": 9440,
      "æ²¡æľīäºº": 9441,
      "çĽ¸åĲĮ": 9442,
      "ĠçĦ¶åĲİåĳ¢": 9443,
      "Ġverliefd": 9444,
      "Ġtrekken": 9445,
      "å°±æĺ¯ä½ł": 9446,
      "bing": 9447,
      "ĠhÃ©": 9448,
      "Ġgedrag": 9449,
      "æĬĵä½ı": 9450,
      "Ġeuro": 9451,
      "itchen": 9452,
      "Ġtoest": 9453,
      "äº¿åħĥ": 9454,
      "ĠCa": 9455,
      "ĠRiver": 9456,
      "Ġwritten": 9457,
      "èĶ¡": 9458,
      "Ġhistory": 9459,
      "ĠNational": 9460,
      "Ġonderdeel": 9461,
      "äºĨä¸ĢäºĽ": 9462,
      "Ġlevens": 9463,
      "Ġmoving": 9464,
      "ologie": 9465,
      "Ġloop": 9466,
      "æĭĨ": 9467,
      "æµĳ": 9468,
      "lor": 9469,
      "è¿Ļä¸įæĺ¯": 9470,
      "Ġking": 9471,
      "ĠJoe": 9472,
      "indt": 9473,
      "bled": 9474,
      "Ġè¦ģä¸įçĦ¶": 9475,
      "Ġä¸Ģå®ļè¦ģ": 9476,
      "lin": 9477,
      "æĺĨ": 9478,
      "çĪ±ä½ł": 9479,
      "åĳ¨åĽ´": 9480,
      "çļĦäºĨ": 9481,
      "çļĦé«ĺ": 9482,
      "unde": 9483,
      "Illustration": 9484,
      "vere": 9485,
      "would": 9486,
      "Ġfab": 9487,
      "Ġsocial": 9488,
      "æ¶Īå¤±": 9489,
      "back": 9490,
      "Ġversp": 9491,
      "æľĪäºĮåįģ": 9492,
      "werpen": 9493,
      "çĽĨ": 9494,
      "å¤ªå¤ļ": 9495,
      "voerd": 9496,
      "uy": 9497,
      "erson": 9498,
      "Ġweren": 9499,
      "bre": 9500,
      "oest": 9501,
      "Ġburn": 9502,
      "è¾ĳ": 9503,
      "Ġbevol": 9504,
      "æ²¡äºĨ": 9505,
      "Ġspot": 9506,
      "åĤ²": 9507,
      "æĪļ": 9508,
      "å·¥ç¨ĭ": 9509,
      "Ġgeschiedenis": 9510,
      "Ġdecided": 9511,
      "Ġbasis": 9512,
      ".)": 9513,
      "Ġéĩĳ": 9514,
      "ĠMot": 9515,
      "ä¸ĭä¸Ģ": 9516,
      "è°¢è°¢ä½ł": 9517,
      "Sl": 9518,
      "dot": 9519,
      "ä¸ĬåŃ¦": 9520,
      "ĠTekst": 9521,
      "Ġtreat": 9522,
      "Ġafgelopen": 9523,
      "?\"\"": 9524,
      "å§Ķå±Ī": 9525,
      "Ġyesterday": 9526,
      "leep": 9527,
      "éĤĵ": 9528,
      "ĠKar": 9529,
      "daar": 9530,
      "è¿ĺåı¯ä»¥": 9531,
      "éĢģåĪ°": 9532,
      "Ġbreakfast": 9533,
      "Ġsituatie": 9534,
      "ston": 9535,
      "oost": 9536,
      "ushed": 9537,
      "å¯¹çļĦ": 9538,
      "Ġ28": 9539,
      "Ġexcept": 9540,
      "ording": 9541,
      "Ġæĭ¿": 9542,
      "Ġtail": 9543,
      "achter": 9544,
      "Any": 9545,
      "äºĭä¸ļ": 9546,
      "äºĶçĻ¾": 9547,
      "Ġprogramma": 9548,
      "Ġhig": 9549,
      "åĲķ": 9550,
      "Ġtelling": 9551,
      "Ġbread": 9552,
      "åĪĨåĪ«": 9553,
      "Leg": 9554,
      "å¨ĺå¨ĺ": 9555,
      "Ġ2019": 9556,
      "Ġpagina": 9557,
      "åĮ¹": 9558,
      "actie": 9559,
      "çļĦä¸Ģç§į": 9560,
      "ĠæĪĳä¸įçŁ¥éģĵ": 9561,
      "Ġåįĥ": 9562,
      "ä¼¼ä¹İ": 9563,
      "Ġmum": 9564,
      "aper": 9565,
      "Ġmommy": 9566,
      "Ġlachen": 9567,
      "ĠMOT": 9568,
      "Ġgebracht": 9569,
      "Ġmembers": 9570,
      "Ġderde": 9571,
      "æ¡ĳ": 9572,
      "Ġvres": 9573,
      "ç»ĵåĲĪ": 9574,
      "æĬ¥éģĵ": 9575,
      "åĪ©çĽĬ": 9576,
      "Ġmotor": 9577,
      "çļĦåħ³ç³»": 9578,
      "Ġahead": 9579,
      "Ġquestions": 9580,
      "Ġä½łæľī": 9581,
      "Mam": 9582,
      "rad": 9583,
      "ses": 9584,
      "Ġdragen": 9585,
      "Ġvliegen": 9586,
      "ĠOliver": 9587,
      "ä¸Ģåįĥ": 9588,
      "Ġstuck": 9589,
      "å·¥åħ·": 9590,
      "Ġstanding": 9591,
[...]
