{
  "version": "1.0",
  "truncation": null,
  "padding": null,
  "added_tokens": [
    {
      "id": 0,
      "content": "<unk>",
      "single_word": false,
      "lstrip": false,
      "rstrip": false,
      "normalized": false,
      "special": true
    },
    {
      "id": 1,
      "content": "<s>",
      "single_word": false,
      "lstrip": false,
      "rstrip": false,
      "normalized": false,
      "special": true
    },
    {
      "id": 2,
      "content": "</s>",
      "single_word": false,
      "lstrip": false,
      "rstrip": false,
      "normalized": false,
      "special": true
    },
    {
      "id": 3,
      "content": "<pad>",
      "single_word": false,
      "lstrip": false,
      "rstrip": false,
      "normalized": false,
      "special": true
    },
    {
      "id": 4,
      "content": "<mask>",
      "single_word": false,
      "lstrip": false,
      "rstrip": false,
      "normalized": false,
      "special": true
    },
    {
      "id": 5,
      "content": "，",
      "single_word": false,
      "lstrip": false,
      "rstrip": false,
      "normalized": false,
      "special": true
    },
    {
      "id": 6,
      "content": "。",
      "single_word": false,
      "lstrip": false,
      "rstrip": false,
      "normalized": false,
      "special": true
    },
    {
      "id": 7,
      "content": "、",
      "single_word": false,
      "lstrip": false,
      "rstrip": false,
      "normalized": false,
      "special": true
    },
    {
      "id": 8,
      "content": "！",
      "single_word": false,
      "lstrip": false,
      "rstrip": false,
      "normalized": false,
      "special": true
    },
    {
      "id": 9,
      "content": "？",
      "single_word": false,
      "lstrip": false,
      "rstrip": false,
      "normalized": false,
      "special": true
    },
    {
      "id": 10,
      "content": "：",
      "single_word": false,
      "lstrip": false,
      "rstrip": false,
      "normalized": false,
      "special": true
    },
    {
      "id": 11,
      "content": "；",
      "single_word": false,
      "lstrip": false,
      "rstrip": false,
      "normalized": false,
      "special": true
    },
    {
      "id": 12,
      "content": "「",
      "single_word": false,
      "lstrip": false,
      "rstrip": false,
      "normalized": false,
      "special": true
    },
    {
      "id": 13,
      "content": "」",
      "single_word": false,
      "lstrip": false,
      "rstrip": false,
      "normalized": false,
      "special": true
    },
    {
      "id": 14,
      "content": "（",
      "single_word": false,
      "lstrip": false,
      "rstrip": false,
      "normalized": false,
      "special": true
    },
    {
      "id": 15,
      "content": "）",
      "single_word": false,
      "lstrip": false,
      "rstrip": false,
      "normalized": false,
      "special": true
    },
    {
      "id": 16,
      "content": "《",
      "single_word": false,
      "lstrip": false,
      "rstrip": false,
      "normalized": false,
      "special": true
    },
    {
      "id": 17,
      "content": "》",
      "single_word": false,
      "lstrip": false,
      "rstrip": false,
      "normalized": false,
      "special": true
    },
    {
      "id": 18,
      "content": "【",
      "single_word": false,
      "lstrip": false,
      "rstrip": false,
      "normalized": false,
      "special": true
    },
    {
      "id": 19,
      "content": "】",
      "single_word": false,
      "lstrip": false,
      "rstrip": false,
      "normalized": false,
      "special": true
    }
  ],
  "normalizer": null,
  "pre_tokenizer": {
    "type": "ByteLevel",
    "add_prefix_space": true,
    "trim_offsets": true,
    "use_regex": true
  },
  "post_processor": {
    "type": "TemplateProcessing",
    "single": [
      {
        "SpecialToken": {
          "id": "<s>",
          "type_id": 0
        }
      },
      {
        "Sequence": {
          "id": "A",
          "type_id": 0
        }
      },
      {
        "SpecialToken": {
          "id": "</s>",
          "type_id": 0
        }
      }
    ],
    "pair": [
      {
        "SpecialToken": {
          "id": "<s>",
          "type_id": 0
        }
      },
      {
        "Sequence": {
          "id": "A",
          "type_id": 0
        }
      },
      {
        "SpecialToken": {
          "id": "</s>",
          "type_id": 0
        }
      },
      {
        "SpecialToken": {
          "id": "<s>",
          "type_id": 0
        }
      },
      {
        "Sequence": {
          "id": "B",
          "type_id": 0
        }
      },
      {
        "SpecialToken": {
          "id": "</s>",
          "type_id": 0
        }
      }
    ],
    "special_tokens": {
      "</s>": {
        "id": "</s>",
        "ids": [
          2
        ],
        "tokens": [
          "</s>"
        ]
      },
      "<s>": {
        "id": "<s>",
        "ids": [
          1
        ],
        "tokens": [
          "<s>"
        ]
      }
    }
  },
  "decoder": {
    "type": "ByteLevel",
    "add_prefix_space": true,
    "trim_offsets": true,
    "use_regex": true
  },
  "model": {
    "type": "BPE",
    "dropout": null,
    "unk_token": null,
    "continuing_subword_prefix": null,
    "end_of_word_suffix": null,
    "fuse_unk": false,
    "byte_fallback": false,
    "ignore_merges": false,
    "vocab": {
      "<unk>": 0,
      "<s>": 1,
      "</s>": 2,
      "<pad>": 3,
      "<mask>": 4,
      "，": 5,
      "。": 6,
      "、": 7,
      "！": 8,
      "？": 9,
      "：": 10,
      "；": 11,
      "「": 12,
      "」": 13,
      "（": 14,
      "）": 15,
      "《": 16,
      "》": 17,
      "【": 18,
      "】": 19,
      "!": 20,
      "\"": 21,
      "#": 22,
      "$": 23,
      "%": 24,
      "&": 25,
      "'": 26,
      "(": 27,
      ")": 28,
      "*": 29,
      "+": 30,
      ",": 31,
      "-": 32,
      ".": 33,
      "/": 34,
      "0": 35,
      "1": 36,
      "2": 37,
      "3": 38,
      "4": 39,
      "5": 40,
      "6": 41,
      "7": 42,
      "8": 43,
      "9": 44,
      ":": 45,
      ";": 46,
      "<": 47,
      "=": 48,
      ">": 49,
      "?": 50,
      "@": 51,
      "A": 52,
      "B": 53,
      "C": 54,
      "D": 55,
      "E": 56,
      "F": 57,
      "G": 58,
      "H": 59,
      "I": 60,
      "J": 61,
      "K": 62,
      "L": 63,
      "M": 64,
      "N": 65,
      "O": 66,
      "P": 67,
      "Q": 68,
      "R": 69,
      "S": 70,
      "T": 71,
      "U": 72,
      "V": 73,
      "W": 74,
      "X": 75,
      "Y": 76,
      "Z": 77,
      "[": 78,
      "\\": 79,
      "]": 80,
      "^": 81,
      "_": 82,
      "`": 83,
      "a": 84,
      "b": 85,
      "c": 86,
      "d": 87,
      "e": 88,
      "f": 89,
      "g": 90,
      "h": 91,
      "i": 92,
      "j": 93,
      "k": 94,
      "l": 95,
      "m": 96,
      "n": 97,
      "o": 98,
      "p": 99,
      "q": 100,
      "r": 101,
      "s": 102,
      "t": 103,
      "u": 104,
      "v": 105,
      "w": 106,
      "x": 107,
      "y": 108,
      "z": 109,
      "{": 110,
      "|": 111,
      "}": 112,
      "~": 113,
      "¡": 114,
      "¢": 115,
      "£": 116,
      "¤": 117,
      "¥": 118,
      "¦": 119,
      "§": 120,
      "¨": 121,
      "©": 122,
      "ª": 123,
      "«": 124,
      "¬": 125,
      "®": 126,
      "¯": 127,
      "°": 128,
      "±": 129,
      "²": 130,
      "³": 131,
      "´": 132,
      "µ": 133,
      "¶": 134,
      "·": 135,
      "¸": 136,
      "¹": 137,
      "º": 138,
      "»": 139,
      "¼": 140,
      "½": 141,
      "¾": 142,
      "¿": 143,
      "À": 144,
      "Á": 145,
      "Â": 146,
      "Ã": 147,
      "Ä": 148,
      "Å": 149,
      "Æ": 150,
      "Ç": 151,
      "È": 152,
      "É": 153,
      "Ê": 154,
      "Ë": 155,
      "Ì": 156,
      "Í": 157,
      "Î": 158,
      "Ï": 159,
      "Ð": 160,
      "Ñ": 161,
      "Ò": 162,
      "Ó": 163,
      "Ô": 164,
      "Õ": 165,
      "Ö": 166,
      "×": 167,
      "Ø": 168,
      "Ù": 169,
      "Ú": 170,
      "Û": 171,
      "Ü": 172,
      "Ý": 173,
      "Þ": 174,
      "ß": 175,
      "à": 176,
      "á": 177,
      "â": 178,
      "ã": 179,
      "ä": 180,
      "å": 181,
      "æ": 182,
      "ç": 183,
      "è": 184,
      "é": 185,
      "ê": 186,
      "ë": 187,
      "ì": 188,
      "í": 189,
      "î": 190,
      "ï": 191,
      "ð": 192,
      "ñ": 193,
      "ò": 194,
      "ó": 195,
      "ô": 196,
      "õ": 197,
      "ö": 198,
      "÷": 199,
      "ø": 200,
      "ù": 201,
      "ú": 202,
      "û": 203,
      "ü": 204,
      "ý": 205,
      "þ": 206,
      "ÿ": 207,
      "Ā": 208,
      "ā": 209,
      "Ă": 210,
      "ă": 211,
      "Ą": 212,
      "ą": 213,
      "Ć": 214,
      "ć": 215,
      "Ĉ": 216,
      "ĉ": 217,
      "Ċ": 218,
      "ċ": 219,
      "Č": 220,
      "č": 221,
      "Ď": 222,
      "ď": 223,
      "Đ": 224,
      "đ": 225,
      "Ē": 226,
      "ē": 227,
      "Ĕ": 228,
      "ĕ": 229,
      "Ė": 230,
      "ė": 231,
      "Ę": 232,
      "ę": 233,
      "Ě": 234,
      "ě": 235,
      "Ĝ": 236,
      "ĝ": 237,
      "Ğ": 238,
      "ğ": 239,
      "Ġ": 240,
      "ġ": 241,
      "Ģ": 242,
      "ģ": 243,
      "Ĥ": 244,
      "ĥ": 245,
      "Ħ": 246,
      "ħ": 247,
      "Ĩ": 248,
      "ĩ": 249,
      "Ī": 250,
      "ī": 251,
      "Ĭ": 252,
      "ĭ": 253,
      "Į": 254,
      "į": 255,
      "İ": 256,
      "ı": 257,
      "Ĳ": 258,
      "ĳ": 259,
      "Ĵ": 260,
      "ĵ": 261,
      "Ķ": 262,
      "ķ": 263,
      "ĸ": 264,
      "Ĺ": 265,
      "ĺ": 266,
      "Ļ": 267,
      "ļ": 268,
      "Ľ": 269,
      "ľ": 270,
      "Ŀ": 271,
      "ŀ": 272,
      "Ł": 273,
      "ł": 274,
      "Ń": 275,
      "Ġt": 276,
      "he": 277,
      "Ġa": 278,
      "in": 279,
      "en": 280,
      "er": 281,
      "Ġw": 282,
      "ou": 283,
      "Ġs": 284,
      "Ġthe": 285,
      "Ġo": 286,
      "at": 287,
      "re": 288,
      "an": 289,
      "Ġd": 290,
      "Ġb": 291,
      "it": 292,
      "is": 293,
      "Ġm": 294,
      "on": 295,
      "Ġh": 296,
      "Ġc": 297,
      "or": 298,
      "ing": 299,
      "Ġg": 300,
      "ll": 301,
      "ar": 302,
      "ed": 303,
      "Ġf": 304,
      "es": 305,
      "nd": 306,
      "Ġto": 307,
      "Ġp": 308,
      "OT": 309,
      "Ġth": 310,
      "MOT": 311,
      "Ġy": 312,
      "Ġn": 313,
      "Ġl": 314,
      "et": 315,
      "CH": 316,
      "Ġhe": 317,
      "as": 318,
      "Ġin": 319,
      "Ġyou": 320,
      "CHI": 321,
      "Ġand": 322,
      "Ġof": 323,
      "om": 324,
      "el": 325,
      "ĠI": 326,
      "ot": 327,
      "'s": 328,
      "ow": 329,
      "Ġv": 330,
      "Ġ.": 331,
      "ic": 332,
      "al": 333,
      "Ġe": 334,
      "Ġon": 335,
      "Ġit": 336,
      "Ġis": 337,
      "le": 338,
      "st": 339,
      "ay": 340,
      "ve": 341,
      "ad": 342,
      "id": 343,
      "ig": 344,
      "Ġk": 345,
      "Ġthat": 346,
      "Ġbe": 347,
      "oo": 348,
      "Ġu": 349,
      "Ġde": 350,
      "ch": 351,
      "ij": 352,
      "hat": 353,
      "ut": 354,
      "Ġwas": 355,
      "ent": 356,
      "ld": 357,
      "am": 358,
      "..": 359,
      "se": 360,
      "Ġj": 361,
      "im": 362,
      "ie": 363,
      "Ġst": 364,
      "'t": 365,
      "Ġre": 366,
      "and": 367,
      "Ġdo": 368,
      "ro": 369,
      "Ġwe": 370,
      "ke": 371,
      "ver": 372,
      "ht": 373,
      "ac": 374,
      "ir": 375,
      "ion": 376,
      "Ġme": 377,
      "Ġz": 378,
      "ĠS": 379,
      "Ġfor": 380,
      "ĠT": 381,
      "Ġha": 382,
      "ur": 383,
      "out": 384,
      "ĠM": 385,
      "Ġr": 386,
      "ĠA": 387,
      "all": 388,
      "ter": 389,
      "ly": 390,
      "ith": 391,
      "Ġan": 392,
      "ight": 393,
      "her": 394,
      "ea": 395,
      "ee": 396,
      "Ġgo": 397,
      "Ġwith": 398,
      "il": 399,
      "ome": 400,
      "ĠB": 401,
      "ĠC": 402,
      "ĠH": 403,
      "ill": 404,
      "Ġas": 405,
      "un": 406,
      "ant": 407,
      "if": 408,
      "aar": 409,
      "ag": 410,
      "Ġwh": 411,
      "Ġat": 412,
      "Ġnot": 413,
      "ĠD": 414,
      "ce": 415,
      "ould": 416,
      "ct": 417,
      "um": 418,
      "Ġ,": 419,
      "Ġhave": 420,
      "Ġen": 421,
      "ell": 422,
      "us": 423,
      "Ġthis": 424,
      "op": 425,
      "here": 426,
      "ust": 427,
      "Ġ\"": 428,
      "ra": 429,
      "ol": 430,
      "Ġkn": 431,
      "Ġmo": 432,
      "ers": 433,
      "xx": 434,
      "Ġare": 435,
      "ook": 436,
      "Ġal": 437,
      "Ġli": 438,
      "ak": 439,
      "Ġall": 440,
      "Ġ1": 441,
      "ri": 442,
      "Ġhet": 443,
      "Ġhis": 444,
      "Ġeen": 445,
      "Ġsh": 446,
      "oor": 447,
      "th": 448,
      "est": 449,
      "Ġje": 450,
      "ĠP": 451,
      "Ġthey": 452,
      "Ġone": 453,
      "Ġvan": 454,
      "ere": 455,
      "...": 456,
      "pp": 457,
      "au": 458,
      "Ġcan": 459,
      "ĠW": 460,
      "Ġne": 461,
      "IN": 462,
      "Ġup": 463,
      "Ġthere": 464,
      "Ġknow": 465,
      "Ġhad": 466,
      "eah": 467,
      "Ġyour": 468,
      "Ġher": 469,
      "em": 470,
      "Ġver": 471,
      "ain": 472,
      "our": 473,
      "Ġdon": 474,
      "Ġno": 475,
      "iet": 476,
      "INV": 477,
      "ind": 478,
      "ĠG": 479,
      "Ġfr": 480,
      "ab": 481,
      "Ġwhat": 482,
      "Ġso": 483,
      "ack": 484,
      "ik": 485,
      "Ġ?": 486,
      "end": 487,
      "Ġshe": 488,
      "Ġpl": 489,
      "ĠN": 490,
      "hen": 491,
      "ood": 492,
      "ul": 493,
      "ard": 494,
      "Ġwor": 495,
      "art": 496,
      "Ġmy": 497,
      "ap": 498,
      "ist": 499,
      "ink": 500,
      "Ġout": 501,
      "ĠL": 502,
      "ry": 503,
      "Ġer": 504,
      "oug": 505,
      "ven": 506,
      "ĠJ": 507,
      "Ġsa": 508,
      "ĠR": 509,
      "ĠF": 510,
      "Ġ'": 511,
      "oh": 512,
      "Ġor": 513,
      "Ġch": 514,
      "ge": 515,
      "ation": 516,
      "Ġop": 517,
      "Ġget": 518,
      "Ġab": 519,
      "Ġlike": 520,
      "Ġge": 521,
      "'re": 522,
      "ck": 523,
      "Ġ2": 524,
      "ĠE": 525,
      "ake": 526,
      "ĠThe": 527,
      "AT": 528,
      "Ġfrom": 529,
      "Ġsp": 530,
      "Ġhim": 531,
      "ast": 532,
      "os": 533,
      "Ġbut": 534,
      "ong": 535,
      "You": 536,
      "ess": 537,
      "no": 538,
      "ijn": 539,
      "Ġsu": 540,
      "ound": 541,
      "The": 542,
      "Ġte": 543,
      "one": 544,
      "qu": 545,
      "Ġdat": 546,
      "Ġwere": 547,
      "ä¸": 548,
      "you": 549,
      "Ġby": 550,
      "Ġsee": 551,
      "what": 552,
      "ame": 553,
      "ok": 554,
      "Ġcom": 555,
      "itt": 556,
      "Ġthem": 557,
      "'m": 558,
      "ich": 559,
      "na": 560,
      "res": 561,
      "ond": 562,
      "Ġse": 563,
      "Ġdid": 564,
      "Ġ(": 565,
      "ĠO": 566,
      "own": 567,
      "Ġgot": 568,
      "'ll": 569,
      "Ġniet": 570,
      "Ġman": 571,
      "Ġover": 572,
      "Ġabout": 573,
      "Ġsome": 574,
      "ft": 575,
      "ally": 576,
      "Ġbo": 577,
      "ort": 578,
      ".\"": 579,
      "Ġle": 580,
      "Ġcon": 581,
      "yeah": 582,
      "FAT": 583,
      "Ġex": 584,
      "ber": 585,
      "Ġthink": 586,
      "Ġwant": 587,
      "Ġhere": 588,
      "ive": 589,
      "ine": 590,
      "ick": 591,
      "xxx": 592,
      "Ġtw": 593,
      "ies": 594,
      "ep": 595,
      "Ġpro": 596,
      "Ġsaid": 597,
      "Ġlook": 598,
      "Ik": 599,
      "ang": 600,
      "ice": 601,
      "].": 602,
      "Ġjust": 603,
      "den": 604,
      "are": 605,
      "Ġik": 606,
      "ect": 607,
      "de": 608,
      "Ġaf": 609,
      "Ġwould": 610,
      "ore": 611,
      "ime": 612,
      "Ġar": 613,
      "Ġwho": 614,
      "ate": 615,
      "we": 616,
      "hing": 617,
      "Ġthen": 618,
      "to": 619,
      "Ġif": 620,
      "ough": 621,
      "ide": 622,
      "Ġbl": 623,
      "ru": 624,
      ",\"": 625,
      "Ġsay": 626,
      "Ġus": 627,
      "Ġwill": 628,
      "Ġnow": 629,
      "Ġany": 630,
      "ank": 631,
      "ĠK": 632,
      "Ġright": 633,
      "ier": 634,
      "nt": 635,
      "other": 636,
      "Ġwhen": 637,
      "cht": 638,
      "that": 639,
      "Ġmet": 640,
      "od": 641,
      "gen": 642,
      "Ġvoor": 643,
      "ous": 644,
      "Ġwat": 645,
      "be": 646,
      "Ġ19": 647,
      "'ve": 648,
      "oe": 649,
      "Ġ20": 650,
      "Ġbr": 651,
      "Ġdown": 652,
      "ther": 653,
      "ip": 654,
      "ijk": 655,
      "Ġag": 656,
      "Ġback": 657,
      "ree": 658,
      "Ġput": 659,
      "ause": 660,
      "Ġgr": 661,
      "Ġcl": 662,
      "ittle": 663,
      "way": 664,
      "It": 665,
      "ĠHe": 666,
      "Ġoff": 667,
      "We": 668,
      "ure": 669,
      "Ġbeen": 670,
      "ite": 671,
      "Ġze": 672,
      "Ġtime": 673,
      "AR": 674,
      "ose": 675,
      "Ġgoing": 676,
      "Ġzijn": 677,
      "Ġro": 678,
      "Ġhas": 679,
      "Ġals": 680,
      "ire": 681,
      "my": 682,
      "ity": 683,
      "Ġtheir": 684,
      "Ġwhich": 685,
      "Ġfe": 686,
      "Ġcould": 687,
      "ff": 688,
      "ish": 689,
      "ĠIt": 690,
      "Ġlittle": 691,
      "äº": 692,
      "ings": 693,
      "iv": 694,
      "ze": 695,
      "ace": 696,
      "cause": 697,
      "Ġmore": 698,
      "the": 699,
      "Ġvery": 700,
      "ens": 701,
      "He": 702,
      "Ġ...": 703,
      "Ġgood": 704,
      "Ġ[": 705,
      "nder": 706,
      "ia": 707,
      "Ġlo": 708,
      "Ġheb": 709,
      "aug": 710,
      "elf": 711,
      "Ġpe": 712,
      "Ġother": 713,
      "Ġtwo": 714,
      "Ġqu": 715,
      "yes": 716,
      "ull": 717,
      "Ġxxx": 718,
      "ild": 719,
      "ĠV": 720,
      "pl": 721,
      "eld": 722,
      "aat": 723,
      "ass": 724,
      "iss": 725,
      "Ġdie": 726,
      "uh": 727,
      "ken": 728,
      "ans": 729,
      "alk": 730,
      "What": 731,
      "Ġtr": 732,
      "Ġplay": 733,
      "ars": 734,
      "age": 735,
      "çļ": 736,
      "--": 737,
      "ĠCh": 738,
      "che": 739,
      "te": 740,
      "And": 741,
      "ĠU": 742,
      "çļĦ": 743,
      "mer": 744,
      "reat": 745,
      "orn": 746,
      "Ġco": 747,
      "urn": 748,
      "Ġcome": 749,
      "omet": 750,
      "Ġinto": 751,
      "Ġpr": 752,
      "Ġbet": 753,
      "Ġel": 754,
      "ople": 755,
      "very": 756,
      "og": 757,
      "ble": 758,
      "ade": 759,
      "ment": 760,
      "irst": 761,
      "onna": 762,
      "ase": 763,
      "wh": 764,
      "ud": 765,
      "ty": 766,
      "Ġway": 767,
      "per": 768,
      "Ġagain": 769,
      "ought": 770,
      "Ġaan": 771,
      "ah": 772,
      "ied": 773,
      "ĠIn": 774,
      "aan": 775,
      "act": 776,
      "bl": 777,
      "ance": 778,
      "ount": 779,
      "Ġsch": 780,
      "Ġgonna": 781,
      "ä»": 782,
      "ĠSt": 783,
      "Ġpeople": 784,
      "ien": 785,
      "Ġwork": 786,
      "ord": 787,
      "av": 788,
      "æĪ": 789,
      "Ġuit": 790,
      "Oh": 791,
      "ary": 792,
      "00": 793,
      "Ġfl": 794,
      "Ġdoes": 795,
      "Ġhow": 796,
      "Ġhand": 797,
      "Ġwhere": 798,
      "Ġcall": 799,
      "No": 800,
      "Ġwell": 801,
      "ne": 802,
      "Ġpart": 803,
      "Ġmake": 804,
      "ian": 805,
      "sh": 806,
      "Ġom": 807,
      "Ġday": 808,
      "ys": 809,
      "Ġsomet": 810,
      "ool": 811,
      "do": 812,
      "Ġfirst": 813,
      "ue": 814,
      "Th": 815,
      "ely": 816,
      "pt": 817,
      "Ġmu": 818,
      "Ġam": 819,
      "Ġtoo": 820,
      "Ġtake": 821,
      "cl": 822,
      "ach": 823,
      "Yeah": 824,
      "okay": 825,
      "Ġtell": 826,
      "Ġsc": 827,
      "ĠDe": 828,
      "Ġdoor": 829,
      "hm": 830,
      "ug": 831,
      "orm": 832,
      "ark": 833,
      "è¿": 834,
      "ng": 835,
      "Ġafter": 836,
      "int": 837,
      "ä½": 838,
      "Ġlet": 839,
      "Ġpre": 840,
      "Ġneed": 841,
      "Ġ-": 842,
      "ile": 843,
      "ob": 844,
      "æĪĳ": 845,
      "ost": 846,
      "?\"": 847,
      "ise": 848,
      "Ġsl": 849,
      "hed": 850,
      "Ġthr": 851,
      "land": 852,
      "Ġour": 853,
      "ouse": 854,
      "ving": 855,
      "fore": 856,
      "where": 857,
      "Ġonly": 858,
      "Ġun": 859,
      "Ġcar": 860,
      "wn": 861,
      "Ġad": 862,
      "ather": 863,
      "self": 864,
      "That": 865,
      "cc": 866,
      "æĺ": 867,
      "ved": 868,
      "je": 869,
      "Ġye": 870,
      "unn": 871,
      "able": 872,
      "oll": 873,
      "eren": 874,
      "air": 875,
      "ress": 876,
      "ting": 877,
      "red": 878,
      "get": 879,
      "iz": 880,
      "uck": 881,
      "ek": 882,
      "ĠTh": 883,
      "But": 884,
      "Ġword": 885,
      "Ġshould": 886,
      "riend": 887,
      "Ġlong": 888,
      "Ġzo": 889,
      "there": 890,
      "Ġmade": 891,
      "Ġsm": 892,
      "Ġmuch": 893,
      "ated": 894,
      "Ġdis": 895,
      "ady": 896,
      "right": 897,
      "Ġevery": 898,
      "ory": 899,
      "Ġthese": 900,
      "inn": 901,
      "Ġper": 902,
      "Ġdidn": 903,
      "ĠFr": 904,
      "day": 905,
      "als": 906,
      "Well": 907,
      "dy": 908,
      "Ġdr": 909,
      "Ġsomething": 910,
      "Ġnaar": 911,
      "Ġhel": 912,
      "man": 913,
      "Ġim": 914,
      "ock": 915,
      "ps": 916,
      "oc": 917,
      "Ġthan": 918,
      "een": 919,
      "Ã©": 920,
      "Ġbig": 921,
      "ave": 922,
      "Ġbu": 923,
      "'d": 924,
      "ert": 925,
      "irl": 926,
      "Ġhapp": 927,
      "ER": 928,
      "old": 929,
      "Ġbel": 930,
      "æĺ¯": 931,
      "ew": 932,
      "ten": 933,
      "thing": 934,
      "Ġaway": 935,
      "ions": 936,
      "Ġmaar": 937,
      "ict": 938,
      "der": 939,
      "Yes": 940,
      "Ġeven": 941,
      "anna": 942,
      "iff": 943,
      "Ġwr": 944,
      "ife": 945,
      "Ġbecause": 946,
      "Ġtalk": 947,
      "Ġdan": 948,
      "Ġalso": 949,
      "Ġact": 950,
      "sp": 951,
      "rij": 952,
      "augh": 953,
      "Ġapp": 954,
      "kay": 955,
      "Ġunder": 956,
      "ix": 957,
      "Ġcont": 958,
      "Ġ!": 959,
      "ial": 960,
      "Ġbefore": 961,
      "Ġ3": 962,
      "Ġmean": 963,
      "ater": 964,
      "Ġsec": 965,
      "ath": 966,
      "Ġter": 967,
      "Ġrem": 968,
      "PAR": 969,
      "Ġwent": 970,
      "Ġbeg": 971,
      "Ġreally": 972,
      "Ġgu": 973,
      "ward": 974,
      "Ġbij": 975,
      "aal": 976,
      "Ġmoet": 977,
      "In": 978,
      "Ġmak": 979,
      "Ġwel": 980,
      "ious": 981,
      "ves": 982,
      "Wh": 983,
      "Ġdoing": 984,
      "Ġben": 985,
      "EX": 986,
      "ons": 987,
      "Het": 988,
      "ec": 989,
      "eg": 990,
      "ĠMr": 991,
      "äºĨ": 992,
      "Ġold": 993,
      "Ġcomp": 994,
      "look": 995,
      "EXP": 996,
      "Ġgirl": 997,
      "Je": 998,
      "æľ": 999,
      "Ġthree": 1000,
      "oot": 1001,
      "IS": 1002,
      "ence": 1003,
      "well": 1004,
      "å¤": 1005,
      "Ġmin": 1006,
      "iver": 1007,
      "omen": 1008,
      "ä½ł": 1009,
      "ET": 1010,
      "Ġeat": 1011,
      "Ġask": 1012,
      "amp": 1013,
      "but": 1014,
      "les": 1015,
      "aw": 1016,
      "Ġwer": 1017,
      "å°": 1018,
      "Ġthose": 1019,
      "Ġwaar": 1020,
      "Ġmay": 1021,
      "Ġhij": 1022,
      "Ġhouse": 1023,
      "So": 1024,
      "ĠShe": 1025,
      "up": 1026,
      "De": 1027,
      "Ġcame": 1028,
      "Ġwater": 1029,
      "Ġhelp": 1030,
      "Ġbed": 1031,
      "Ġhome": 1032,
      "Ġmany": 1033,
      "ä¹": 1034,
      "Ġwon": 1035,
      "Ġthrough": 1036,
      "åĲ": 1037,
      "åı": 1038,
      "ĠZ": 1039,
      "Ġturn": 1040,
      "Ġ201": 1041,
      "Ġhead": 1042,
      "Ġnever": 1043,
      "ub": 1044,
      "Ġthing": 1045,
      "ful": 1046,
      "Ġthought": 1047,
      "Ġnew": 1048,
      "Ġthings": 1049,
      "Ġmust": 1050,
      "ren": 1051,
      "Ġkind": 1052,
      "Ġwanna": 1053,
      "aby": 1054,
      "ail": 1055,
      "LD": 1056,
      "ummy": 1057,
      "Ġcr": 1058,
      "ste": 1059,
      "oint": 1060,
      "Ġstart": 1061,
      "can": 1062,
      "Ġgreat": 1063,
      "Ġbook": 1064,
      "ĠY": 1065,
      "ign": 1066,
      "ouw": 1067,
      "Ġbit": 1068,
      "!\"": 1069,
      "Ġook": 1070,
      "ä¸Ģ": 1071,
      "Ġlast": 1072,
      "ried": 1073,
      "Ġtra": 1074,
      ".]": 1075,
      "Ġanother": 1076,
      "aak": 1077,
      "Ġinter": 1078,
      "oss": 1079,
      "Ġple": 1080,
      "Ġfind": 1081,
      "elijk": 1082,
      "wer": 1083,
      "ä¸į": 1084,
      "Ġcalled": 1085,
      "ait": 1086,
      "Ġgive": 1087,
      "come": 1088,
      "Ġser": 1089,
      "du": 1090,
      "Ġdone": 1091,
      "arl": 1092,
      "Ġkan": 1093,
      "ult": 1094,
      "xt": 1095,
      "Ġbest": 1096,
      "ĠUn": 1097,
      "Wat": 1098,
      "oed": 1099,
      "Ġgen": 1100,
      "Ġmen": 1101,
      "oy": 1102,
      "Ġstill": 1103,
      "ody": 1104,
      "Ġcomm": 1105,
      "Ġmom": 1106,
      "ates": 1107,
      "ily": 1108,
      "eep": 1109,
      "now": 1110,
      "ben": 1111,
      "Ġnog": 1112,
      "eft": 1113,
      "ened": 1114,
      "els": 1115,
      "ents": 1116,
      "ors": 1117,
      "Ġfound": 1118,
      "aughs": 1119,
      "pe": 1120,
      "arm": 1121,
      "CHILD": 1122,
      "oon": 1123,
      "igh": 1124,
      "ually": 1125,
      "Ġdiff": 1126,
      "They": 1127,
      "Ġlea": 1128,
      "Ġrec": 1129,
      "ph": 1130,
      "ĠBr": 1131,
      "TAR": 1132,
      "Ġgl": 1133,
      "ces": 1134,
      "GET": 1135,
      "SIS": 1136,
      "acht": 1137,
      "Ġhier": 1138,
      "Ġheeft": 1139,
      "ical": 1140,
      "TARGET": 1141,
      "eel": 1142,
      "Ġits": 1143,
      "ember": 1144,
      "Ġcount": 1145,
      "AN": 1146,
      "Ġche": 1147,
      "let": 1148,
      "Ġerm": 1149,
      "Ġmight": 1150,
      "ister": 1151,
      "Ġnight": 1152,
      "Ġbot": 1153,
      "oud": 1154,
      "Ġdit": 1155,
      "port": 1156,
      "body": 1157,
      "unt": 1158,
      "TE": 1159,
      "ever": 1160,
      "Ġschool": 1161,
      "Ġchild": 1162,
      "Ġown": 1163,
      "Ġhebben": 1164,
      "Ġshow": 1165,
      "Ġlot": 1166,
      "ss": 1167,
      "ange": 1168,
      "Ġtry": 1169,
      "ont": 1170,
      "elen": 1171,
      "Ġfriend": 1172,
      "Ġtak": 1173,
      "Ġboy": 1174,
      "ms": 1175,
      "Ġname": 1176,
      "uss": 1177,
      "Ġaround": 1178,
      "ende": 1179,
      "ye": 1180,
      "ingen": 1181,
      "è¯": 1182,
      "ls": 1183,
      "Ġend": 1184,
      "ĠThey": 1185,
      "è¿Ļ": 1186,
      "urt": 1187,
      "Ġisn": 1188,
      "Ġmost": 1189,
      "Dat": 1190,
      "ĠAmer": 1191,
      "me": 1192,
      "Ġbaby": 1193,
      "ited": 1194,
      "oney": 1195,
      "orry": 1196,
      "imes": 1197,
      "She": 1198,
      "Ġhu": 1199,
      "This": 1200,
      "onder": 1201,
      "Ġatt": 1202,
      "Ġdeze": 1203,
      "ief": 1204,
      "There": 1205,
      "ĠMar": 1206,
      "Ġstr": 1207,
      "Ġmother": 1208,
      "En": 1209,
      "Ġyears": 1210,
      "Ġplace": 1211,
      "Ġbetter": 1212,
      "Ġfin": 1213,
      "åĪ": 1214,
      "vel": 1215,
      "side": 1216,
      "outh": 1217,
      "ele": 1218,
      "ijd": 1219,
      "Ġused": 1220,
      "Ġsuch": 1221,
      "ãĢ": 1222,
      "ww": 1223,
      "Ġpol": 1224,
      "Ġsupp": 1225,
      "men": 1226,
      "Ġsle": 1227,
      "Ġfour": 1228,
      "Ġpers": 1229,
      "åľ": 1230,
      "Ġdes": 1231,
      "Ġcour": 1232,
      "å®": 1233,
      "Ġreg": 1234,
      "Ġbeing": 1235,
      "ition": 1236,
      "mhm": 1237,
      "Ġ4": 1238,
      "ins": 1239,
      "app": 1240,
      "Ġfeel": 1241,
      "Ġcare": 1242,
      "so": 1243,
      "Ġ200": 1244,
      "Ġbre": 1245,
      "uit": 1246,
      "Ġbus": 1247,
      "aten": 1248,
      "laughs": 1249,
      "Ġhem": 1250,
      "Ġgoed": 1251,
      "atter": 1252,
      "Ġmijn": 1253,
      "ĠYou": 1254,
      "Ġlife": 1255,
      "ike": 1256,
      "ale": 1257,
      "Ġnum": 1258,
      "row": 1259,
      "Ġwhy": 1260,
      "Ġminut": 1261,
      "Ġwil": 1262,
      "ways": 1263,
      "gg": 1264,
      "hes": 1265,
      "Ġonder": 1266,
      "ird": 1267,
      "this": 1268,
      "Ġgeen": 1269,
      ").": 1270,
      "they": 1271,
      "Ġpres": 1272,
      "ican": 1273,
      "she": 1274,
      "med": 1275,
      "Ġdoesn": 1276,
      "uk": 1277,
      "Ġfam": 1278,
      "Ġroom": 1279,
      "Ġnext": 1280,
      "arn": 1281,
      "Ġsame": 1282,
      "Ġmon": 1283,
      "Ġelse": 1284,
      "ote": 1285,
      "ãĢĤ": 1286,
      "Ġnice": 1287,
      "ations": 1288,
      "addy": 1289,
      "gr": 1290,
      "arly": 1291,
      "Ġsit": 1292,
      "ib": 1293,
      "å¥": 1294,
      "ĠAnd": 1295,
      "io": 1296,
      "ced": 1297,
      "åħ": 1298,
      "Ġsure": 1299,
      "MCH": 1300,
      "ger": 1301,
      "ann": 1302,
      "Ġanything": 1303,
      "Ġyes": 1304,
      "Ġres": 1305,
      "Ġopen": 1306,
      "ince": 1307,
      "Ġmeer": 1308,
      "Ġpu": 1309,
      "Ġworden": 1310,
      "Ġwhile": 1311,
      "Ġwordt": 1312,
      "Ġhun": 1313,
      "Ġhard": 1314,
      "ret": 1315,
      "ets": 1316,
      "ove": 1317,
      "led": 1318,
      "pr": 1319,
      "elt": 1320,
      "Ġstop": 1321,
      "If": 1322,
      "Er": 1323,
      "ident": 1324,
      "oord": 1325,
      "St": 1326,
      "Ġsn": 1327,
      "How": 1328,
      "Ġokay": 1329,
      "over": 1330,
      "eer": 1331,
      "Ġvo": 1332,
      "Ġgeb": 1333,
      "Ġsays": 1334,
      "icht": 1335,
      "Ġhal": 1336,
      "Ġkeep": 1337,
      "\".": 1338,
      "Ġleft": 1339,
      "Ġnu": 1340,
      "how": 1341,
      "oun": 1342,
      "Hij": 1343,
      "Ġcat": 1344,
      "Ġcol": 1345,
      "ige": 1346,
      "Ġgone": 1347,
      "Ġalways": 1348,
      "ple": 1349,
      "Ġmil": 1350,
      "enn": 1351,
      "uur": 1352,
      "Ġfather": 1353,
      "All": 1354,
      "æĿ": 1355,
      "Ġ5": 1356,
      "aught": 1357,
      "Ġland": 1358,
      "Ġ18": 1359,
      "Ġcle": 1360,
      "Ġgoes": 1361,
      "eak": 1362,
      "Ġbro": 1363,
      "ower": 1364,
      "ump": 1365,
      "Is": 1366,
      "Ġexp": 1367,
      "ina": 1368,
      "Ġyeah": 1369,
      "vol": 1370,
      "AD": 1371,
      "æľī": 1372,
      "ä¸ª": 1373,
      "ished": 1374,
      "Ġweek": 1375,
      "not": 1376,
      "Ġtold": 1377,
      "Ġlove": 1378,
      "Ġsaw": 1379,
      "Ġph": 1380,
      "Ġrel": 1381,
      "atie": 1382,
      "af": 1383,
      "put": 1384,
      "eder": 1385,
      "tw": 1386,
      "who": 1387,
      "Ġret": 1388,
      "Ġhaar": 1389,
      "mm": 1390,
      "Ġset": 1391,
      "Ġsw": 1392,
      "az": 1393,
      "ĠÂ": 1394,
      "mber": 1395,
      "Ġread": 1396,
      "Ġtook": 1397,
      "vent": 1398,
      "Ġpass": 1399,
      "Ġdaar": 1400,
      "Ġtot": 1401,
      "Ġuse": 1402,
      "ream": 1403,
      "ĠAl": 1404,
      "form": 1405,
      "Ġgaan": 1406,
      "erent": 1407,
      "Ġbeh": 1408,
      "Ġsing": 1409,
      "TEA": 1410,
      "Ġcoming": 1411,
      "Ġunt": 1412,
      "rist": 1413,
      "Ġacc": 1414,
      "ope": 1415,
      "orning": 1416,
      "Ġpoint": 1417,
      "ĠBut": 1418,
      "ash": 1419,
      "Ġmind": 1420,
      "Ġball": 1421,
      "ased": 1422,
      "Do": 1423,
      "br": 1424,
      "Ġsur": 1425,
      "Ġac": 1426,
      "oman": 1427,
      "ĠEng": 1428,
      "Ġhold": 1429,
      "Ġgro": 1430,
      "Ġwar": 1431,
      "stand": 1432,
      "orth": 1433,
      "don": 1434,
      "ta": 1435,
      "Ġenough": 1436,
      "Ġquite": 1437,
      "ker": 1438,
      "ĠAn": 1439,
      "Ġever": 1440,
      "raw": 1441,
      "ĠGr": 1442,
      "Ġstand": 1443,
      "Ġwalk": 1444,
      "Ġfive": 1445,
      "gether": 1446,
      "Why": 1447,
      "Ġkill": 1448,
      "jes": 1449,
      "akes": 1450,
      "Ġmoney": 1451,
      "ĠSp": 1452,
      "Ġplease": 1453,
      "åŃ": 1454,
      "Ġwait": 1455,
      "oof": 1456,
      "Ġlight": 1457,
      "Ġpie": 1458,
      "Ġhear": 1459,
      "Ġround": 1460,
      "ject": 1461,
      "ollow": 1462,
      "Ġrest": 1463,
      "ween": 1464,
      "ness": 1465,
      "Ġvol": 1466,
      "go": 1467,
      "Ġcourse": 1468,
      "Ġpret": 1469,
      "Now": 1470,
      "Ġob": 1471,
      "Ġside": 1472,
      "ational": 1473,
      "Ġdist": 1474,
      "gt": 1475,
      "å°±": 1476,
      "uring": 1477,
      "Ġuntil": 1478,
      "huh": 1479,
      "ible": 1480,
      "Ġdifferent": 1481,
      "Ġsecond": 1482,
      "Ġmorning": 1483,
      "unnen": 1484,
      "irect": 1485,
      "Ġcons": 1486,
      "Ġbox": 1487,
      "Ġfire": 1488,
      "eter": 1489,
      "Ġlooks": 1490,
      "ĠThis": 1491,
      "HE": 1492,
      "Ġsk": 1493,
      "erd": 1494,
      "Mm": 1495,
      "rew": 1496,
      "ush": 1497,
      "apt": 1498,
      "ĠAr": 1499,
      "Ġperson": 1500,
      "Ġent": 1501,
      "Ġ202": 1502,
      "ork": 1503,
      "Ġid": 1504,
      "Ġwind": 1505,
      "any": 1506,
      "Ġasked": 1507,
      "Ġthough": 1508,
      "bab": 1509,
      "ipp": 1510,
      "Don": 1511,
      "fta": 1512,
      "ma": 1513,
      "Ġjij": 1514,
      "Ġvers": 1515,
      "ries": 1516,
      "Ġfew": 1517,
      "ieve": 1518,
      "Ġmar": 1519,
      "Ġeyes": 1520,
      "Ġdoen": 1521,
      "Ġface": 1522,
      "Ġkom": 1523,
      "RO": 1524,
      "why": 1525,
      "Ġpop": 1526,
      "ters": 1527,
      "agen": 1528,
      "Ġhoe": 1529,
      "Ġsmall": 1530,
      "Ġworld": 1531,
      "Ġkunnen": 1532,
      "Ġsix": 1533,
      "åĳ": 1534,
      "Ġtogether": 1535,
      "Ã«": 1536,
      "Ġseen": 1537,
      "Ġzou": 1538,
      "Ġremember": 1539,
      "Waar": 1540,
      "Ġlater": 1541,
      "åľ¨": 1542,
      "Ġyear": 1543,
      "cy": 1544,
      "Ze": 1545,
      "Ġtru": 1546,
      "LO": 1547,
      "Ġsound": 1548,
      "uw": 1549,
      "Ġgra": 1550,
      "Ġhafta": 1551,
      "Ġlooking": 1552,
      "Ġgaat": 1553,
      "bo": 1554,
      "its": 1555,
      "ames": 1556,
      "),": 1557,
      "Ġbetween": 1558,
      "ellow": 1559,
      "sel": 1560,
      "Ġreal": 1561,
      "ered": 1562,
      "ross": 1563,
      "Ġweet": 1564,
      "Ġknown": 1565,
      "Ġass": 1566,
      "Ġind": 1567,
      "ohn": 1568,
      "Ġpick": 1569,
      "Ġhalf": 1570,
      "Ġem": 1571,
      "Ġkl": 1572,
      "Ġeach": 1573,
      "Ġmiss": 1574,
      "Ġbent": 1575,
      "HER": 1576,
      "Ġbad": 1577,
      "Ġspec": 1578,
      "ĠSh": 1579,
      "Ġnumber": 1580,
      "Ġdog": 1581,
      "FCH": 1582,
      "Ġstay": 1583,
      "Ġnothing": 1584,
      "ä»¬": 1585,
      "ĠÂ·": 1586,
      "cle": 1587,
      "mand": 1588,
      "Ġfar": 1589,
      "une": 1590,
      "aps": 1591,
      "Ġboth": 1592,
      "Ġsort": 1593,
      "ics": 1594,
      "ton": 1595,
      "Ġsy": 1596,
      "idd": 1597,
      "¿½": 1598,
      "Ġ199": 1599,
      "ey": 1600,
      "Come": 1601,
      "ape": 1602,
      "Ġlar": 1603,
      "Ġfall": 1604,
      "iets": 1605,
      "Ġgew": 1606,
      "ĠBl": 1607,
      "Ġsleep": 1608,
      "Ġtoday": 1609,
      "aster": 1610,
      "ures": 1611,
      "Ġyet": 1612,
      "Ġden": 1613,
      "Ġyoung": 1614,
      "ĥ½": 1615,
      "ç»": 1616,
      "ĠWe": 1617,
      "isten": 1618,
      "Ġma": 1619,
      "Ġgetting": 1620,
      "Ġdec": 1621,
      "ï¿½": 1622,
      "Ġfollow": 1623,
      "å¾": 1624,
      "ĠGod": 1625,
      "uff": 1626,
      "Ġlang": 1627,
      "reen": 1628,
      "ines": 1629,
      "Ġpap": 1630,
      "æī": 1631,
      "ating": 1632,
      "of": 1633,
      "zen": 1634,
      "Ġupon": 1635,
      "Ġste": 1636,
      "ired": 1637,
      "ts": 1638,
      "ept": 1639,
      "Ġons": 1640,
      "Ġmoment": 1641,
      "Ġum": 1642,
      "dat": 1643,
      "eten": 1644,
      "ball": 1645,
      "æĹ": 1646,
      "Ġbec": 1647,
      "oop": 1648,
      "ĠNew": 1649,
      "Ġonce": 1650,
      "Ġdirect": 1651,
      "rop": 1652,
      "Ġhands": 1653,
      "Ġbreak": 1654,
      "oek": 1655,
      "Ġcut": 1656,
      "Ġred": 1657,
      "ason": 1658,
      "lijk": 1659,
      "Ġpar": 1660,
      "Ġcent": 1661,
      "Ġint": 1662,
      "cept": 1663,
      "Ġdrink": 1664,
      "ĠAmerican": 1665,
      "Ġrun": 1666,
      "ertain": 1667,
      "ĠHet": 1668,
      "ched": 1669,
      "ently": 1670,
      "Ġboys": 1671,
      "ĠUnited": 1672,
      "ĠThere": 1673,
      "ane": 1674,
      "Ġdisc": 1675,
      "did": 1676,
      "ling": 1677,
      "Ġ6": 1678,
      "Ġleave": 1679,
      "rouw": 1680,
      "Ġtrain": 1681,
      "Ġnat": 1682,
      "Ġsoon": 1683,
      "Maar": 1684,
      "heid": 1685,
      "Ġfoot": 1686,
      "ants": 1687,
      "by": 1688,
      "ama": 1689,
      "äºº": 1690,
      "Ġwatch": 1691,
      "Ġhimself": 1692,
      "tle": 1693,
      "Ġtop": 1694,
      "Ġbes": 1695,
      "æĿ¥": 1696,
      "\",": 1697,
      "cent": 1698,
      "ĠBe": 1699,
      "Ġoh": 1700,
      "ullie": 1701,
      "Ġhor": 1702,
      "ared": 1703,
      "Ġtre": 1704,
      "ats": 1705,
      "Ġmag": 1706,
      "Ġhaving": 1707,
      "ual": 1708,
      "Ġhaven": 1709,
      "Ġshall": 1710,
      "Ġveel": 1711,
      "ole": 1712,
      "Ġmens": 1713,
      "Ġtalking": 1714,
      "RA": 1715,
      "ches": 1716,
      "ä»ĸ": 1717,
      "ĠChrist": 1718,
      "pen": 1719,
      "Ġleg": 1720,
      "OR": 1721,
      "Ġwithout": 1722,
      "Ġstud": 1723,
      "OU": 1724,
      "most": 1725,
      "ES": 1726,
      "Ġheard": 1727,
      "Ġchildren": 1728,
      "amen": 1729,
      "iek": 1730,
      "vie": 1731,
      "ctor": 1732,
      "Als": 1733,
      "uth": 1734,
      "Ġdear": 1735,
      "Let": 1736,
      "Ġna": 1737,
      "Ġhappened": 1738,
      "Ġsorry": 1739,
      "Ġdep": 1740,
      "Ġans": 1741,
      "Ġlooked": 1742,
      "ĠInd": 1743,
      "Ġdays": 1744,
      "Ġproble": 1745,
      "åĽ": 1746,
      "Ġagainst": 1747,
      "åķ": 1748,
      "osed": 1749,
      "Ġmus": 1750,
      "vis": 1751,
      "gan": 1752,
      "und": 1753,
      "Ġmatter": 1754,
      "000": 1755,
      "ows": 1756,
      "Ġdri": 1757,
      "Ġfact": 1758,
      "Ġprodu": 1759,
      "Ġmove": 1760,
      "ster": 1761,
      "Ġwanted": 1762,
      "Ġhigh": 1763,
      "Ġstory": 1764,
      "Ġalong": 1765,
      "Ġanim": 1766,
      "ä¹Ī": 1767,
      "Ġchar": 1768,
      "olog": 1769,
      "ular": 1770,
      "Ġincl": 1771,
      "Ġair": 1772,
      "Ch": 1773,
      "ield": 1774,
      "Ġalleen": 1775,
      "kt": 1776,
      "EL": 1777,
      "itten": 1778,
      "Ġtwee": 1779,
      "ots": 1780,
      "ĠAf": 1781,
      "beeld": 1782,
      "ready": 1783,
      "fect": 1784,
      "Nee": 1785,
      "less": 1786,
      "çľ": 1787,
      "ĠMiss": 1788,
      "enty": 1789,
      "ient": 1790,
      "Ġmij": 1791,
      "ung": 1792,
      "Ġcountry": 1793,
      "Ġgev": 1794,
      "è¯´": 1795,
      "ivers": 1796,
      "Ġzal": 1797,
      "Not": 1798,
      "ĠWhat": 1799,
      "çĶ": 1800,
      "ony": 1801,
      "ric": 1802,
      "racht": 1803,
      "My": 1804,
      "oup": 1805,
      "ruik": 1806,
      "aut": 1807,
      "Ġsub": 1808,
      "Ġref": 1809,
      "ither": 1810,
      "ĠJohn": 1811,
      "Ġpict": 1812,
      "Ġeer": 1813,
      "Ġont": 1814,
      "Ġ7": 1815,
      "aakt": 1816,
      "ĠMummy": 1817,
      "MOTHER": 1818,
      "Ġten": 1819,
      "Ġvind": 1820,
      "Ġlive": 1821,
      "Ġnear": 1822,
      "On": 1823,
      "Ġweer": 1824,
      "igen": 1825,
      "Ġdied": 1826,
      "Thank": 1827,
      "Ġknew": 1828,
      "Be": 1829,
      "ĠGer": 1830,
      "Ġmaking": 1831,
      "ĠWh": 1832,
      "ĠNo": 1833,
      "Ġgel": 1834,
      "Ġcity": 1835,
      "Ġheart": 1836,
      "Ġmed": 1837,
      "EN": 1838,
      "Ġanswer": 1839,
      "omm": 1840,
      "Ġged": 1841,
      "Ġteam": 1842,
      "ä¼": 1843,
      "Ġhour": 1844,
      "ific": 1845,
      "Ġ8": 1846,
      "Ġborn": 1847,
      "When": 1848,
      "ober": 1849,
      "Ġreturn": 1850,
      "Een": 1851,
      "ral": 1852,
      "Ġsong": 1853,
      "ction": 1854,
      "Ġsaying": 1855,
      "Ġdel": 1856,
      "Ja": 1857,
      "Ġzien": 1858,
      "ommy": 1859,
      "Ġtable": 1860,
      "ined": 1861,
      "Ġready": 1862,
      "Ġga": 1863,
      "Ġext": 1864,
      "see": 1865,
      "Hey": 1866,
      "off": 1867,
      "room": 1868,
      "19": 1869,
      "aur": 1870,
      "ities": 1871,
      "ĠAs": 1872,
      "ĠIs": 1873,
      "Ġhebt": 1874,
      "aul": 1875,
      "oke": 1876,
      "Ġgave": 1877,
      "Ġcomes": 1878,
      "ully": 1879,
      "An": 1880,
      "ax": 1881,
      "Ġgame": 1882,
      "ader": 1883,
      "pro": 1884,
      "éĤ": 1885,
      "Okay": 1886,
      "ĠStates": 1887,
      "Ġquest": 1888,
      "sch": 1889,
      "åİ": 1890,
      "omas": 1891,
      "Ġeight": 1892,
      "Ġstarted": 1893,
      "unny": 1894,
      "Ġiets": 1895,
      "wards": 1896,
      "Ġnoise": 1897,
      "ages": 1898,
      "Ġspeak": 1899,
      "Ġwhe": 1900,
      "Ġwasn": 1901,
      "Ġwonder": 1902,
      "ese": 1903,
      "Ġbring": 1904,
      "Ġconf": 1905,
      "ern": 1906,
      "bably": 1907,
      "ov": 1908,
      "Ġfloor": 1909,
      "Ġhot": 1910,
      "Ġeverything": 1911,
      "chter": 1912,
      "Ġbuild": 1913,
      "LOI": 1914,
      "Ġsince": 1915,
      "Ġblack": 1916,
      "aring": 1917,
      "Ġwhole": 1918,
      "ital": 1919,
      "ĠMrs": 1920,
      "Hoe": 1921,
      "ha": 1922,
      "ijke": 1923,
      "ĠJe": 1924,
      "Ġmeet": 1925,
      "Ġfamily": 1926,
      "Ġtri": 1927,
      "ying": 1928,
      "Ġfood": 1929,
      "ives": 1930,
      "DS": 1931,
      "éĤ£": 1932,
      "Ġbelieve": 1933,
      "å¥½": 1934,
      "atch": 1935,
      "Ġwoman": 1936,
      "Ġju": 1937,
      "Ġhair": 1938,
      "ring": 1939,
      "iness": 1940,
      "Ġtea": 1941,
      "åķĬ": 1942,
      "eral": 1943,
      "Ġfil": 1944,
      "Ġmoeten": 1945,
      "orrow": 1946,
      "innen": 1947,
      "Ġ198": 1948,
      "NAN": 1949,
      "cess": 1950,
      "Ġactually": 1951,
      "ised": 1952,
      "ĠAll": 1953,
      "ted": 1954,
      "Ġbecame": 1955,
      "Ġthank": 1956,
      "ĠSc": 1957,
      "Ġposs": 1958,
      "use": 1959,
      "Ġwhite": 1960,
      "oes": 1961,
      "Ġdef": 1962,
      "ement": 1963,
      "Ġnie": 1964,
      "ship": 1965,
      "iÃ«": 1966,
      "Ġpretty": 1967,
      "Ġinterest": 1968,
      "ery": 1969,
      "Ġwild": 1970,
      "Ġtegen": 1971,
      "ks": 1972,
      "ected": 1973,
      "Ġtown": 1974,
      "Ġfeet": 1975,
      "www": 1976,
      "mb": 1977,
      "Ġgez": 1978,
      "æ²": 1979,
      "ex": 1980,
      "anc": 1981,
      "ische": 1982,
      "Ġresp": 1983,
      "Ġjullie": 1984,
      "Ġcur": 1985,
      "Ġswe": 1986,
      "Ġweg": 1987,
      "Ġadd": 1988,
      "Ġterug": 1989,
      "Ġ9": 1990,
      "Ġ10": 1991,
      "aid": 1992,
      "Ġcoll": 1993,
      "Ġsil": 1994,
      "ef": 1995,
      "Ġuh": 1996,
      "Ġsign": 1997,
      "ison": 1998,
      "eb": 1999,
      "Ġsim": 2000,
      "Ġdoll": 2001,
      "Ġminute": 2002,
      "good": 2003,
      "Ġeff": 2004,
      "Ġ_": 2005,
      "eef": 2006,
      "Mummy": 2007,
      "Ġsent": 2008,
      "Ġduring": 2009,
      "oen": 2010,
      "tern": 2011,
      "aces": 2012,
      "airs": 2013,
      "ĠCl": 2014,
      "Where": 2015,
      "Ġoffic": 2016,
      "Ġpay": 2017,
      "Ġalready": 2018,
      "Ġplaying": 2019,
      "Ġinst": 2020,
      "Ġbegan": 2021,
      "Ġtimes": 2022,
      "ged": 2023,
      "key": 2024,
      "Ġcontin": 2025,
      "eth": 2026,
      "Ġzich": 2027,
      "ĠQ": 2028,
      "ues": 2029,
      "just": 2030,
      "Ġcertain": 2031,
      "Ġjob": 2032,
      "iding": 2033,
      "Ġart": 2034,
      "Ġtrying": 2035,
      "Ġidea": 2036,
      "Ġunderstand": 2037,
      "Who": 2038,
      "Ġalmost": 2039,
      "ids": 2040,
      "Just": 2041,
      "Ġmensen": 2042,
      "Ġform": 2043,
      "åį": 2044,
      "GRA": 2045,
      "lish": 2046,
      "ises": 2047,
      "Ġvert": 2048,
      "Ġwouldn": 2049,
      "Ġeas": 2050,
      "ĠAt": 2051,
      "Ġwrong": 2052,
      "æĢ": 2053,
      "Ġpur": 2054,
      "Ġpolit": 2055,
      "ĠBob": 2056,
      "Ġexpl": 2057,
      "Then": 2058,
      "||": 2059,
      "Ġvis": 2060,
      "raag": 2061,
      "ĠEu": 2062,
      "Ġeens": 2063,
      "ude": 2064,
      "èµ": 2065,
      "Ġfight": 2066,
      "Ġi": 2067,
      "bed": 2068,
      "ouch": 2069,
      "ury": 2070,
      "Ġbrother": 2071,
      "Ġsqu": 2072,
      "ering": 2073,
      "Ġed": 2074,
      "II": 2075,
      "Ġrep": 2076,
      "Ġkomt": 2077,
      "Ġmee": 2078,
      "Ġ197": 2079,
      "gy": 2080,
      "Ġimport": 2081,
      "ĠSch": 2082,
      "Ġinv": 2083,
      "amer": 2084,
      "Ġplayed": 2085,
      "Ġlik": 2086,
      "æĥ": 2087,
      "éĩ": 2088,
      "read": 2089,
      "Ġlost": 2090,
      "åĩ": 2091,
      "Ġtijd": 2092,
      "¦ģ": 2093,
      "Ġson": 2094,
      "bs": 2095,
      "Ġfriends": 2096,
      "Ġhum": 2097,
      "iam": 2098,
      "Ġdead": 2099,
      "Ġmaken": 2100,
      "ided": 2101,
      "zz": 2102,
      "Ġstick": 2103,
      "Ġandere": 2104,
      "è¦ģ": 2105,
      "illy": 2106,
      "Ġgi": 2107,
      "Ġpubl": 2108,
      "Ġpiece": 2109,
      "Ġorder": 2110,
      "vers": 2111,
      "oog": 2112,
      "ĠPr": 2113,
      "got": 2114,
      "Ġpain": 2115,
      "ards": 2116,
      "Ġrecord": 2117,
      "åĬ": 2118,
      "Ġjaar": 2119,
      "Ġkw": 2120,
      "haps": 2121,
      "è®": 2122,
      "Ġship": 2123,
      "Dit": 2124,
      "Ġfun": 2125,
      "Ġoften": 2126,
      "Ġpaper": 2127,
      "Ġparty": 2128,
      "inner": 2129,
      "eds": 2130,
      "å¸": 2131,
      "ADU": 2132,
      "Ġwerd": 2133,
      "Ġhund": 2134,
      "Ġkle": 2135,
      "Ġclose": 2136,
      "itting": 2137,
      "Ġhundred": 2138,
      "ON": 2139,
      "Ġaren": 2140,
      "Ġstra": 2141,
      "Ġgebruik": 2142,
      "ijf": 2143,
      "Kom": 2144,
      "Ġev": 2145,
      "because": 2146,
      "ize": 2147,
      "mp": 2148,
      "Ġturned": 2149,
      "Ġhope": 2150,
      "Ġges": 2151,
      "BRO": 2152,
      "Look": 2153,
      "like": 2154,
      "Ġprobably": 2155,
      "Ġpresent": 2156,
      "Ġlaat": 2157,
      "ience": 2158,
      "rying": 2159,
      "Al": 2160,
      "aybe": 2161,
      "Ġbear": 2162,
      "Ġloc": 2163,
      "Ġquick": 2164,
      "ieren": 2165,
      "å¯": 2166,
      "Ġaw": 2167,
      "ai": 2168,
      "å¿": 2169,
      "ists": 2170,
      "ĠBrit": 2171,
      "Ġcompl": 2172,
      "Ġvoice": 2173,
      "Ġbehind": 2174,
      "Ġkrij": 2175,
      "ĠDaddy": 2176,
      "Ġcir": 2177,
      "ron": 2178,
      "Ġfull": 2179,
      "ĠHow": 2180,
      "erv": 2181,
      "Ġmeans": 2182,
      "fl": 2183,
      "CDS": 2184,
      "Ġmusic": 2185,
      "Ġgem": 2186,
      "ator": 2187,
      "Ġable": 2188,
      "Ġgotta": 2189,
      "å¼": 2190,
      "è§": 2191,
      "Ġes": 2192,
      "ĠThomas": 2193,
      "ured": 2194,
      "Ġbrought": 2195,
      "open": 2196,
      "Ġchair": 2197,
      "Ġpull": 2198,
      "thank": 2199,
      "Are": 2200,
      "Ġline": 2201,
      "å°ı": 2202,
      "Ġsat": 2203,
      "Ġtree": 2204,
      "ĠPh": 2205,
      "Ġmonth": 2206,
      "Ġgirls": 2207,
      "èĢ": 2208,
      "Ġcolor": 2209,
      "more": 2210,
      "Ġsir": 2211,
      "----": 2212,
      "ĠGe": 2213,
      "Ã©n": 2214,
      "åĪ°": 2215,
      "Ġmouth": 2216,
      "IG": 2217,
      "Ġblue": 2218,
      "vern": 2219,
      "Ġfront": 2220,
      "Ġoutside": 2221,
      "van": 2222,
      "Ġwants": 2223,
      "ized": 2224,
      "ides": 2225,
      "Ġdraw": 2226,
      "uc": 2227,
      "rom": 2228,
      "Ġvl": 2229,
      "Ġjou": 2230,
      "Ġmakes": 2231,
      "åĨ": 2232,
      "for": 2233,
      "Ġyourself": 2234,
      "Ġbas": 2235,
      "ĠGerman": 2236,
      "llo": 2237,
      "Ġinc": 2238,
      "Ġkomen": 2239,
      "son": 2240,
      "eng": 2241,
      "inc": 2242,
      "Ġzeg": 2243,
      "Ġrock": 2244,
      "amed": 2245,
      "Ġless": 2246,
      "Right": 2247,
      "Ġhurt": 2248,
      "ained": 2249,
      "Ġrele": 2250,
      "aim": 2251,
      "Ġwin": 2252,
      "Ġcook": 2253,
      "Ġ196": 2254,
      "lor": 2255,
      "ĠFrank": 2256,
      "å·": 2257,
      "Ġpoor": 2258,
      "ellen": 2259,
      "Ġsever": 2260,
      "ouble": 2261,
      "Ġseemed": 2262,
      "hey": 2263,
      "Sh": 2264,
      "ped": 2265,
      "Ġocc": 2266,
      "dig": 2267,
      "Ġpower": 2268,
      "Ġlady": 2269,
      "Ġshort": 2270,
      "å¤§": 2271,
      "Ġleven": 2272,
      "Ġhappy": 2273,
      "As": 2274,
      "Ġprom": 2275,
      "selves": 2276,
      "Ġeng": 2277,
      "MA": 2278,
      "ately": 2279,
      "ica": 2280,
      "Ġcouldn": 2281,
      "åŃĲ": 2282,
      "reet": 2283,
      "Ġfell": 2284,
      "Ġve": 2285,
      "irth": 2286,
      "Ġminutes": 2287,
      "ones": 2288,
      "olly": 2289,
      "Ġpicture": 2290,
      "Ġpat": 2291,
      "ider": 2292,
      "Ġfore": 2293,
      "Ġnet": 2294,
      "ĠTHE": 2295,
      "anger": 2296,
      "æ²¡": 2297,
      "æĬ": 2298,
      "Ġbloed": 2299,
      "iden": 2300,
      "ara": 2301,
      "eden": 2302,
      "Did": 2303,
      "ï¿½ï¿½": 2304,
      "Ġimp": 2305,
      "å¹": 2306,
      "ooit": 2307,
      "ĠOn": 2308,
      "Ġtaken": 2309,
      "Ġdeath": 2310,
      "onden": 2311,
      "Ġhuh": 2312,
      "aren": 2313,
      "Ġbird": 2314,
      "ussen": 2315,
      "Ġgek": 2316,
      "åĵ": 2317,
      "jor": 2318,
      "ĠHar": 2319,
      "Ġ17": 2320,
      "pped": 2321,
      "ium": 2322,
      "unch": 2323,
      "çİ": 2324,
      "ING": 2325,
      "Ġbag": 2326,
      "Ġlarge": 2327,
      "Ġtoch": 2328,
      "ĠHis": 2329,
      "ative": 2330,
      "Ġmain": 2331,
      "Ġ15": 2332,
      "onn": 2333,
      "vo": 2334,
      "Ġfine": 2335,
      "fully": 2336,
      "Ġorgan": 2337,
      "Ġmine": 2338,
      "voor": 2339,
      "alt": 2340,
      "Ġrather": 2341,
      "ift": 2342,
      "ĠEnglish": 2343,
      "Ġâ": 2344,
      "ĠJack": 2345,
      "ederland": 2346,
      "Ġsold": 2347,
      "ains": 2348,
      "Ġimportant": 2349,
      "Ġcamp": 2350,
      "bit": 2351,
      "Ġty": 2352,
      "used": 2353,
      "head": 2354,
      "Ġgreen": 2355,
      "Ġru": 2356,
      "erk": 2357,
      "Ġcup": 2358,
      "ention": 2359,
      "ĠJan": 2360,
      "Ġstrong": 2361,
      "Ġmark": 2362,
      "Ġones": 2363,
      "Ġecht": 2364,
      "Ġbeaut": 2365,
      "Ġpri": 2366,
      "Ġlearn": 2367,
      "Ġwords": 2368,
      "iter": 2369,
      "oth": 2370,
      "Ġgovern": 2371,
      "Ġstuff": 2372,
      "irty": 2373,
      "Ġtaking": 2374,
      "Ġserv": 2375,
      "acter": 2376,
      "Ġpos": 2377,
      "stem": 2378,
      "Good": 2379,
      "ä¸Ĭ": 2380,
      "æĸ": 2381,
      "Ġexc": 2382,
      "Ġplan": 2383,
      "Ġelk": 2384,
      "Ġversch": 2385,
      "ĠFor": 2386,
      "Ġhappen": 2387,
      "For": 2388,
      "Ġpast": 2389,
      "arch": 2390,
      "Ġmovie": 2391,
      "ilt": 2392,
      "Ġie": 2393,
      "Ġgroup": 2394,
      "Ġopp": 2395,
      "Ġfelt": 2396,
      "Ġsun": 2397,
      "ĠThen": 2398,
      "Ġchang": 2399,
      "Ġinside": 2400,
      "Ġfur": 2401,
      "Ġage": 2402,
      "Ġcold": 2403,
      "Ġelect": 2404,
      "ĠWhen": 2405,
      "ris": 2406,
      "Ġguess": 2407,
      ".'": 2408,
      "ĠEd": 2409,
      "Ġmaybe": 2410,
      "Ġmyself": 2411,
      "Mr": 2412,
      "ä¹Ł": 2413,
      "Ġtwenty": 2414,
      "Ġdro": 2415,
      "have": 2416,
      "llen": 2417,
      "Ġeither": 2418,
      "Ġhele": 2419,
      "Ġbody": 2420,
      "Ġprot": 2421,
      "ments": 2422,
      "Ġdress": 2423,
      "ĠKing": 2424,
      "è¿ĺ": 2425,
      "ĠFrance": 2426,
      "iously": 2427,
      "Ġgiven": 2428,
      "cil": 2429,
      "Ġinclud": 2430,
      "ĠNederland": 2431,
      "Ġbirth": 2432,
      "Ġbusiness": 2433,
      "ism": 2434,
      "Ġlaw": 2435,
      "eph": 2436,
      "ley": 2437,
      "Ġago": 2438,
      "ming": 2439,
      "ense": 2440,
      "oel": 2441,
      "Ġclass": 2442,
      "Ġtrans": 2443,
      "icks": 2444,
      "ution": 2445,
      "ges": 2446,
      "Ġground": 2447,
      "born": 2448,
      "ĠThat": 2449,
      "Ġtoys": 2450,
      "Ġinform": 2451,
      "Ġrepl": 2452,
      "åİ»": 2453,
      "Ġwerk": 2454,
      "Ġ12": 2455,
      "Ġwomen": 2456,
      "iting": 2457,
      "ĠLe": 2458,
      "ians": 2459,
      "Ġtele": 2460,
      "Ġnooit": 2461,
      "Ġlate": 2462,
      "inging": 2463,
      "door": 2464,
      "Ġvrouw": 2465,
      "acher": 2466,
      "Ġothers": 2467,
      "Ġwood": 2468,
      "aptain": 2469,
      "Ġmess": 2470,
      "Ġgets": 2471,
      "bye": 2472,
      "Ġverd": 2473,
      "rest": 2474,
      "Ġexper": 2475,
      "Can": 2476,
      "ĠIf": 2477,
      "Ġtem": 2478,
      "Ġwife": 2479,
      "ja": 2480,
      "Ġprov": 2481,
      "Go": 2482,
      "Ġstate": 2483,
      "arth": 2484,
      "Ġfree": 2485,
      "Ġra": 2486,
      "arling": 2487,
      "çľĭ": 2488,
      "sc": 2489,
      "Ġzw": 2490,
      "éĥ½": 2491,
      "Ġbur": 2492,
      "Ġpartic": 2493,
      "Ġrece": 2494,
      "Ġzelf": 2495,
      "Ġ16": 2496,
      "Ġshop": 2497,
      "Ġquestion": 2498,
      "Ġroad": 2499,
      "oops": 2500,
      "Ġgrand": 2501,
      "aats": 2502,
      "Ġchange": 2503,
      "Ġkilled": 2504,
      "morrow": 2505,
      "ĠMay": 2506,
      "ĠYork": 2507,
      "Ġworking": 2508,
      "Ġsister": 2509,
      "ached": 2510,
      "ear": 2511,
      "ĠAust": 2512,
      "Ġcase": 2513,
      "ĠAd": 2514,
      "Ġgun": 2515,
      "ĠSam": 2516,
      "Ġband": 2517,
      "iful": 2518,
      "ald": 2519,
      "Ġsometimes": 2520,
      "Ġ*": 2521,
      "zelf": 2522,
      "ubl": 2523,
      "ĠDo": 2524,
      "Ġarea": 2525,
      "ĠCan": 2526,
      "when": 2527,
      "Ġcap": 2528,
      "Ġkon": 2529,
      "Ġlead": 2530,
      "ĠWill": 2531,
      "ially": 2532,
      "elijke": 2533,
      "urs": 2534,
      "Ġsea": 2535,
      "ĠRe": 2536,
      "Ġseven": 2537,
      "ney": 2538,
      "ĠHer": 2539,
      "Ġlisten": 2540,
      "Ġheld": 2541,
      "osp": 2542,
      "iving": 2543,
      "Ġcontro": 2544,
      "LT": 2545,
      "ĠEuro": 2546,
      "mo": 2547,
      "Ġhit": 2548,
      "ĠCar": 2549,
      "æł": 2550,
      "Ġearly": 2551,
      "iversity": 2552,
      "Ġfig": 2553,
      "Ġlie": 2554,
      "geven": 2555,
      "ner": 2556,
      "Ġaut": 2557,
      "gry": 2558,
      "Ġleast": 2559,
      "Ġcover": 2560,
      "ĠZe": 2561,
      "Ġfav": 2562,
      "ĠJim": 2563,
      "Ġbar": 2564,
      "Ġsweet": 2565,
      "unning": 2566,
      "Ġdark": 2567,
      "ummer": 2568,
      "ench": 2569,
      "does": 2570,
      "orld": 2571,
      "two": 2572,
      "Ġspecial": 2573,
      "ana": 2574,
      "Ġanimals": 2575,
      "owing": 2576,
      "ousand": 2577,
      "ract": 2578,
      "å¾Ĺ": 2579,
      "Ġfunny": 2580,
      "Ġsomeone": 2581,
      "Ġacross": 2582,
      "cher": 2583,
      "ham": 2584,
      "ĠJap": 2585,
      "Ġmount": 2586,
      "Ġlay": 2587,
      "Ġheel": 2588,
      "Ġfinished": 2589,
      "Ġfro": 2590,
      "Ġstaat": 2591,
      "ĠX": 2592,
      "tijd": 2593,
      "Ġalone": 2594,
      "att": 2595,
      "Ġseveral": 2596,
      "ouden": 2597,
      "Ġcor": 2598,
      "Ġblij": 2599,
      "Ġsucc": 2600,
      "shall": 2601,
      "20": 2602,
      "Ġmot": 2603,
      "Ġprof": 2604,
      "Ġwall": 2605,
      "Ġmill": 2606,
      "Ġjo": 2607,
      "eeft": 2608,
      "reed": 2609,
      "Ã©Ã©n": 2610,
      "ĠDon": 2611,
      "zoek": 2612,
      "Ġalles": 2613,
      "aced": 2614,
      "Ġvill": 2615,
      "Waarom": 2616,
      "idge": 2617,
      "artment": 2618,
      "Ġmilk": 2619,
      "kken": 2620,
      "Ġfing": 2621,
      "Ġhorse": 2622,
      "Ġlu": 2623,
      "At": 2624,
      "aag": 2625,
      "ijden": 2626,
      "Ġdeal": 2627,
      "ford": 2628,
      "Ġletter": 2629,
      "con": 2630,
      "Ġhat": 2631,
      "Ġfif": 2632,
      "velop": 2633,
      "Ġpot": 2634,
      "åı¯": 2635,
      "Ġ2020": 2636,
      "avy": 2637,
      "mas": 2638,
      "Ġwish": 2639,
      "ADULT": 2640,
      "gest": 2641,
      "Ġfish": 2642,
      "Ġtrue": 2643,
      "eed": 2644,
      "Ġdu": 2645,
      "Ġcompany": 2646,
      "Ġfast": 2647,
      "rict": 2648,
      "uary": 2649,
      "Get": 2650,
      "Ġthousand": 2651,
      "Ġzei": 2652,
      "ĠÃ©Ã©n": 2653,
      "Ġtoe": 2654,
      "aken": 2655,
      "Ġ194": 2656,
      "å¦": 2657,
      "amb": 2658,
      "gens": 2659,
      "oorden": 2660,
      "Ġtill": 2661,
      "Ġcreat": 2662,
      "Ġplant": 2663,
      "band": 2664,
      "ä¸º": 2665,
      "Ġboat": 2666,
      "Ġ195": 2667,
      "Ġjump": 2668,
      "Ġarm": 2669,
      "aam": 2670,
      "Ġamong": 2671,
      "Ġguy": 2672,
      "Ġfair": 2673,
      "allen": 2674,
      "Ġhist": 2675,
      "æĪĳä»¬": 2676,
      "cri": 2677,
      "ĠPro": 2678,
      "Ġblood": 2679,
      "Ġhon": 2680,
      "Ġjong": 2681,
      "veel": 2682,
      "vely": 2683,
      "Ġbra": 2684,
      "Ġkijk": 2685,
      "oren": 2686,
      "ices": 2687,
      "Ġclot": 2688,
      "inet": 2689,
      "EST": 2690,
      "uis": 2691,
      "Ġpost": 2692,
      "Ġstru": 2693,
      "To": 2694,
      "iel": 2695,
      "éĹ": 2696,
      "Ħ¿": 2697,
      "Ġnodig": 2698,
      "Your": 2699,
      "fort": 2700,
      "isch": 2701,
      "ĠSo": 2702,
      "inning": 2703,
      "Ġbuy": 2704,
      "net": 2705,
      "Ah": 2706,
      "bum": 2707,
      "orgen": 2708,
      "ration": 2709,
      "ived": 2710,
      "Ġclean": 2711,
      "ically": 2712,
      "ĠJapan": 2713,
      "beelding": 2714,
      "eem": 2715,
      "Ġusually": 2716,
      "ging": 2717,
      "mon": 2718,
      "Ġvar": 2719,
      "aughter": 2720,
      "ural": 2721,
      "ragen": 2722,
      "èĥ½": 2723,
      "Ġsend": 2724,
      "Ġdarling": 2725,
      "ounds": 2726,
      "Ġpopul": 2727,
      "then": 2728,
      "oort": 2729,
      "è·": 2730,
      "teen": 2731,
      "Ġsystem": 2732,
      "vision": 2733,
      "emy": 2734,
      "æĹ¶": 2735,
      "AL": 2736,
      "bij": 2737,
      "Ġlangu": 2738,
      "oos": 2739,
      "ĠJu": 2740,
      "Ġgrote": 2741,
      "'.": 2742,
      "çĿ": 2743,
      "Ġlad": 2744,
      "Ġblock": 2745,
      "Here": 2746,
      "Af": 2747,
      "PAT": 2748,
      "Ġalle": 2749,
      "ĠWorld": 2750,
      "Ġcond": 2751,
      "Ġsaf": 2752,
      "ĠOr": 2753,
      "Ġbecome": 2754,
      "aking": 2755,
      "min": 2756,
      "Ġice": 2757,
      "owed": 2758,
      "ession": 2759,
      "Ġadv": 2760,
      "Ġmer": 2761,
      "Ġnine": 2762,
      "Ġtried": 2763,
      "though": 2764,
      "å¯¹": 2765,
      "åĴ": 2766,
      "oem": 2767,
      "Ġtoen": 2768,
      "hi": 2769,
      "Ġfuck": 2770,
      "ĠEn": 2771,
      "ĠCount": 2772,
      "gram": 2773,
      "zy": 2774,
      "Ġstar": 2775,
      "Ġliving": 2776,
      "org": 2777,
      "Ġpage": 2778,
      "ĠEurope": 2779,
      "Ġyellow": 2780,
      "Ġlaug": 2781,
      "Ġvast": 2782,
      "Ġreason": 2783,
      "eared": 2784,
      "ĠEen": 2785,
      "Ġclim": 2786,
      "ĠMan": 2787,
      "Ġbooks": 2788,
      "Ġvriend": 2789,
      "ĠIk": 2790,
      "Ġgebe": 2791,
      "ogra": 2792,
      "]?": 2793,
      "Ġran": 2794,
      "Ġreport": 2795,
      "ĠOh": 2796,
      "Ġdinner": 2797,
      "æŃ": 2798,
      "friend": 2799,
      "ä¼ļ": 2800,
      "Ġ11": 2801,
      "Ġtruck": 2802,
      "ĠEr": 2803,
      "Ġpen": 2804,
      "ager": 2805,
      "Ġalright": 2806,
      "ued": 2807,
      "Ġsomebody": 2808,
      "UN": 2809,
      "uren": 2810,
      "Ġsoc": 2811,
      "Ġdi": 2812,
      "ories": 2813,
      "Ġconc": 2814,
      "lo": 2815,
      "omp": 2816,
      "Ġsitting": 2817,
      "ument": 2818,
      "Ġwarm": 2819,
      "oms": 2820,
      "ĠBritish": 2821,
      "Of": 2822,
      "Ġattack": 2823,
      "igin": 2824,
      "Ġdag": 2825,
      "eek": 2826,
      "Ġap": 2827,
      "Ġmommy": 2828,
      "åĲİ": 2829,
      "Ġfly": 2830,
      "ays": 2831,
      "IT": 2832,
      "éĿ": 2833,
      "Ġfootball": 2834,
      "ĠPl": 2835,
      "Ġmidd": 2836,
      "Ġins": 2837,
      "Ġachter": 2838,
      "ĠMa": 2839,
      "Ġwrite": 2840,
      "die": 2841,
      "Ġtouch": 2842,
      "ĠBlack": 2843,
      "Ġphone": 2844,
      "Ġeffect": 2845,
      "Ġnorth": 2846,
      "Ġbeautiful": 2847,
      "Ġca": 2848,
      "Ġtakes": 2849,
      "pril": 2850,
      "Ġglad": 2851,
      "ada": 2852,
      "ility": 2853,
      "Ġguys": 2854,
      "Ġlived": 2855,
      "aged": 2856,
      "alright": 2857,
      "Ġherself": 2858,
      "makes": 2859,
      "Ġegg": 2860,
      "Ġaltijd": 2861,
      "Ġobject": 2862,
      "Ġstep": 2863,
      "ĠJanuary": 2864,
      "ended": 2865,
      "AS": 2866,
      "Ga": 2867,
      "Ġfellow": 2868,
      "Ġalbum": 2869,
      "Ġroll": 2870,
      "Ġtussen": 2871,
      "ĠTr": 2872,
      "Ġperhaps": 2873,
      "Ġproblem": 2874,
      "Ġlist": 2875,
      "ott": 2876,
      "Ġbirthday": 2877,
      "Ġkunt": 2878,
      "val": 2879,
      "Ġonze": 2880,
      "ox": 2881,
      "åĦ¿": 2882,
      "arden": 2883,
      "ä»¥": 2884,
      "Ġelkaar": 2885,
      "ius": 2886,
      "Ġrunning": 2887,
      "ality": 2888,
      "Ġreleased": 2889,
      "hello": 2890,
      "Ġzit": 2891,
      "ances": 2892,
      "irt": 2893,
      "Ġthinking": 2894,
      "çĪ": 2895,
      "One": 2896,
      "Ġwaren": 2897,
      "ĠCHI": 2898,
      "ĠSw": 2899,
      "Ġ14": 2900,
      "ping": 2901,
      "ĠNorth": 2902,
      "Ġquiet": 2903,
      "ugust": 2904,
      "ĠEl": 2905,
      "Ġdoctor": 2906,
      "æķ": 2907,
      "Ġdoe": 2908,
      "Jij": 2909,
      "uhhuh": 2910,
      "iger": 2911,
      "Ġgener": 2912,
      "alth": 2913,
      "Wel": 2914,
      "gel": 2915,
      "yl": 2916,
      "Ġda": 2917,
      "lex": 2918,
      "ocal": 2919,
      "Ġwet": 2920,
      "Ġfix": 2921,
      "rijk": 2922,
      "unk": 2923,
      "alen": 2924,
      "Ġdevelop": 2925,
      "Ġsoft": 2926,
      "Ġoper": 2927,
      "Daar": 2928,
      "Ġwindow": 2929,
      "Ġdenk": 2930,
      "Sorry": 2931,
      "urg": 2932,
      "ĠCon": 2933,
      "oose": 2934,
      "wij": 2935,
      "UR": 2936,
      "åº": 2937,
      "raid": 2938,
      "Ġresult": 2939,
      "Ġtoy": 2940,
      "aser": 2941,
      "å½": 2942,
      "orge": 2943,
      "iers": 2944,
      "ĠTom": 2945,
      "Ġconst": 2946,
      "Ġtomorrow": 2947,
      "Ġya": 2948,
      "Ġtrouble": 2949,
      "Ġdrie": 2950,
      "Ġdra": 2951,
      "que": 2952,
      "ĠGrand": 2953,
      "âĮ": 2954,
      "Ġhuis": 2955,
      "Ġanswered": 2956,
      "Ġhur": 2957,
      "hel": 2958,
      "ĠPat": 2959,
      "par": 2960,
      "Ġton": 2961,
      "ander": 2962,
      "ello": 2963,
      "çĽ": 2964,
      "Ġfit": 2965,
      "owers": 2966,
      "omin": 2967,
      "Ġsuppose": 2968,
      "Ġbinnen": 2969,
      "å¤©": 2970,
      "ĠPeter": 2971,
      "Ġwithin": 2972,
      "unic": 2973,
      "ĠJune": 2974,
      "bles": 2975,
      "Ġgroot": 2976,
      "Ġvolg": 2977,
      "Ġthemselves": 2978,
      "Ġzegt": 2979,
      "ä¸ĭ": 2980,
      "ev": 2981,
      "rat": 2982,
      "Ġverl": 2983,
      "ĠFrench": 2984,
      "chen": 2985,
      "Ġkept": 2986,
      "ctober": 2987,
      "oofd": 2988,
      "Ġfamil": 2989,
      "Erm": 2990,
      "Ġcried": 2991,
      "kom": 2992,
      "è¿ĩ": 2993,
      "sl": 2994,
      "Ġill": 2995,
      "Ġeigen": 2996,
      "ĠTo": 2997,
      "emaal": 2998,
      "Ġ193": 2999,
      "Ġseries": 3000,
      "Ġdiffic": 3001,
      "ĠMarch": 3002,
      "Ġsurpr": 3003,
      "Ġgovernment": 3004,
      "ondon": 3005,
      "eptember": 3006,
      "ATOR": 3007,
      "erg": 3008,
      "TER": 3009,
      "Ġcou": 3010,
      "Ġlives": 3011,
      "dden": 3012,
      "elling": 3013,
      "Ġexcl": 3014,
      "Ġzeggen": 3015,
      "Ġhang": 3016,
      "aff": 3017,
      "ba": 3018,
      "Ġiemand": 3019,
      "ining": 3020,
      "ĠPar": 3021,
      "Ġchance": 3022,
      "Re": 3023,
      "ĠDr": 3024,
      "ĠWar": 3025,
      "Ġsamen": 3026,
      "Ġdiv": 3027,
      "co": 3028,
      "Ġpig": 3029,
      "Ġdood": 3030,
      "Ġstood": 3031,
      "cer": 3032,
      "cember": 3033,
      "geb": 3034,
      "ä»Ģ": 3035,
      "Ġclos": 3036,
      "Ġain": 3037,
      "INVEST": 3038,
      "Ġeating": 3039,
      "IGATOR": 3040,
      "INVESTIGATOR": 3041,
      "Ġsnow": 3042,
      "ä»Ģä¹Ī": 3043,
      "AP": 3044,
      "Ġzoals": 3045,
      "ĠSte": 3046,
      "Ġfilm": 3047,
      "Ġafraid": 3048,
      "stead": 3049,
      "chien": 3050,
      "ute": 3051,
      "Ġnose": 3052,
      "hern": 3053,
      "Ġshot": 3054,
      ",'": 3055,
      "å®¶": 3056,
      "ĠAb": 3057,
      "Ġproper": 3058,
      "Ġnamed": 3059,
      "ales": 3060,
      "ĠAng": 3061,
      "ardon": 3062,
      "Ġcatch": 3063,
      "uwe": 3064,
      "Ġdou": 3065,
      "aart": 3066,
      "Ġhowever": 3067,
      "zer": 3068,
      "Ġmis": 3069,
      "Ġkeer": 3070,
      "Ġpossible": 3071,
      "Ġsche": 3072,
      "Ġknows": 3073,
      "Ġsingle": 3074,
      "rit": 3075,
      "Ġcannot": 3076,
      "Because": 3077,
      "éģ": 3078,
      "Ġsudden": 3079,
      "ullen": 3080,
      "Ġcheck": 3081,
      "Ġworked": 3082,
      "éĩĮ": 3083,
      "Ġappro": 3084,
      "Ġrain": 3085,
      "Ġcomplet": 3086,
      "eling": 3087,
      "Ġdeep": 3088,
      "Ġtired": 3089,
      "Ġcal": 3090,
      "çĿĢ": 3091,
      "ĠEngland": 3092,
      "Ġeerste": 3093,
      "Ġcross": 3094,
      "ĠSouth": 3095,
      "point": 3096,
      "Ġlaten": 3097,
      "Ġnational": 3098,
      "king": 3099,
      "Ġgod": 3100,
      "Ġabs": 3101,
      "äºĭ": 3102,
      "Ġclothes": 3103,
      "Ġsuper": 3104,
      "Ġdus": 3105,
      "urch": 3106,
      "Ġgeh": 3107,
      "erence": 3108,
      "Ġabove": 3109,
      "Heb": 3110,
      "ĠLord": 3111,
      "Ġteacher": 3112,
      "Ġir": 3113,
      "Ġsol": 3114,
      "Ġnoises": 3115,
      "ĠSpan": 3116,
      "mat": 3117,
      "Ġpublic": 3118,
      "Ġequ": 3119,
      "Ġverk": 3120,
      "ä¸Ģä¸ª": 3121,
      "åĩº": 3122,
      "oto": 3123,
      "lease": 3124,
      "Ġbath": 3125,
      "Ġla": 3126,
      "ĠApril": 3127,
      "ĠOctober": 3128,
      "Ġprogram": 3129,
      "ample": 3130,
      "ouncil": 3131,
      "Ġpress": 3132,
      "Ġyours": 3133,
      "ending": 3134,
      "æĥ³": 3135,
      "Ġniets": 3136,
      "Ġmoved": 3137,
      "åĳ¢": 3138,
      "itch": 3139,
      "andy": 3140,
      "ler": 3141,
      "icken": 3142,
      "ĠSeptember": 3143,
      "Ġkun": 3144,
      "Ġwhether": 3145,
      "Ġafbeelding": 3146,
      "èĩ": 3147,
      "Ġhours": 3148,
      "Some": 3149,
      "Ġlovely": 3150,
      "gue": 3151,
      "Die": 3152,
      "Ġcorn": 3153,
      "aard": 3154,
      "ĠHij": 3155,
      "com": 3156,
      "singing": 3157,
      "ĠAls": 3158,
      "which": 3159,
      "ene": 3160,
      "Ġfield": 3161,
      "ĠChristmas": 3162,
      "Ġregion": 3163,
      "11": 3164,
      "Ex": 3165,
      "ips": 3166,
      "Ġmarried": 3167,
      "Ġputting": 3168,
      "kÃ©": 3169,
      "uthor": 3170,
      "umb": 3171,
      "fer": 3172,
      "Ġcra": 3173,
      "Goed": 3174,
      "Ġbank": 3175,
      "ebru": 3176,
      "Ġ13": 3177,
      "ĠCounty": 3178,
      "ebruary": 3179,
      "Ġmonths": 3180,
      "Ġvillage": 3181,
      "Miss": 3182,
      "fast": 3183,
      "Ġcommon": 3184,
      "Ġpassed": 3185,
      "igg": 3186,
      "æ¯": 3187,
      "Ġwij": 3188,
      "Ġdet": 3189,
      "ggest": 3190,
      "Ġmember": 3191,
      "ection": 3192,
      "hold": 3193,
      "Ġbang": 3194,
      "Ġzie": 3195,
      "iew": 3196,
      "Ġerg": 3197,
      "å¤ļ": 3198,
      "è¿Ļä¸ª": 3199,
      "Ġplaats": 3200,
      "Ġtape": 3201,
      "Ġcos": 3202,
      "ision": 3203,
      "Ġrad": 3204,
      "ĠYOU": 3205,
      "ĠLondon": 3206,
      "Ġaant": 3207,
      "iten": 3208,
      "Ġkiss": 3209,
      "Ġclear": 3210,
      "Ġsounds": 3211,
      "ĠAfter": 3212,
      "Ġeasy": 3213,
      "ĠJuly": 3214,
      "Ġthird": 3215,
      "Ġforward": 3216,
      "ĠOne": 3217,
      "ĠNove": 3218,
      "Ġsuggest": 3219,
      "Ġseems": 3220,
      "Ġgewoon": 3221,
      "Ġhus": 3222,
      "nie": 3223,
      "Ġboard": 3224,
      "Ġsuccess": 3225,
      "attle": 3226,
      "entle": 3227,
      "aimed": 3228,
      "Ġtest": 3229,
      "Ġknock": 3230,
      "ĠAugust": 3231,
      "Ġlow": 3232,
      "Ġstaan": 3233,
      "çī": 3234,
      "Bl": 3235,
      "erm": 3236,
      "Ġmid": 3237,
      "nam": 3238,
      "Ġbron": 3239,
      "oeg": 3240,
      "ĠNovember": 3241,
      "wo": 3242,
      "erde": 3243,
      "æĦ": 3244,
      "Ġtreat": 3245,
      "Ġorigin": 3246,
      "Ġsupport": 3247,
      "Ġclub": 3248,
      "Have": 3249,
      "æĭ": 3250,
      "Ġdad": 3251,
      "ature": 3252,
      "gas": 3253,
      "è¡": 3254,
      "Ġantw": 3255,
      "éĢ": 3256,
      "Ġstation": 3257,
      "your": 3258,
      "Ġsight": 3259,
      "asure": 3260,
      "bt": 3261,
      "ĠItal": 3262,
      "aint": 3263,
      "play": 3264,
      "SO": 3265,
      "åĲĹ": 3266,
      "Ġverschill": 3267,
      "Ġnorm": 3268,
      "Ġbelang": 3269,
      "Ġ30": 3270,
      "ĠMc": 3271,
      "ĠUniversity": 3272,
      "Ġpolice": 3273,
      "Ġfeeling": 3274,
      "Ġging": 3275,
      "Ġmemb": 3276,
      "Ġperfect": 3277,
      "10": 3278,
      "enny": 3279,
      "Ġstraight": 3280,
      "ĠBar": 3281,
      "ĠAustral": 3282,
      "Ġpoints": 3283,
      "Mijn": 3284,
      "ask": 3285,
      "Ġest": 3286,
      "Ġlots": 3287,
      "Ġdaughter": 3288,
      "çĻ": 3289,
      "etje": 3290,
      "Ġreached": 3291,
      "Ġring": 3292,
      "Ġarms": 3293,
      "ĠMOT": 3294,
      "Ġweten": 3295,
      "Ġluck": 3296,
      "ograph": 3297,
      "Ġmoo": 3298,
      "Ġcow": 3299,
      "ĠDecember": 3300,
      "Ġhuman": 3301,
      "Ġdream": 3302,
      "stairs": 3303,
      "ĠPres": 3304,
      "GMA": 3305,
      "Ġfarm": 3306,
      "Ġuw": 3307,
      "obert": 3308,
      "Ġgarden": 3309,
      "Ġgrow": 3310,
      "Ġtelevision": 3311,
      "Ġverh": 3312,
      "Ġwelke": 3313,
      "RI": 3314,
      "ram": 3315,
      "Ġval": 3316,
      "Ġsuff": 3317,
      "Ġvide": 3318,
      "with": 3319,
      "ising": 3320,
      "Ġhol": 3321,
      "ashing": 3322,
      "Laat": 3323,
      "Ġpo": 3324,
      "ç»Ļ": 3325,
      "dracht": 3326,
      "rijf": 3327,
      "Ġmist": 3328,
      "Ġallemaal": 3329,
      "Ġwaiting": 3330,
      "Ġhop": 3331,
      "Ġvraag": 3332,
      "ĠFebruary": 3333,
      "Ġreturned": 3334,
      "joy": 3335,
      "Ġlonger": 3336,
      "Ġfavor": 3337,
      "Ġhusband": 3338,
      "Ġsick": 3339,
      "Ġking": 3340,
      "ĠPhil": 3341,
      "het": 3342,
      "rey": 3343,
      "Ġbreat": 3344,
      "ases": 3345,
      "ĠMin": 3346,
      "Ġexact": 3347,
      "ills": 3348,
      "umm": 3349,
      "Ġesc": 3350,
      "night": 3351,
      "Ġshoes": 3352,
      "Ġbuilding": 3353,
      "ED": 3354,
      "Ġsand": 3355,
      "Ġshout": 3356,
      "Ġmembers": 3357,
      "Ġarri": 3358,
      "Ġstat": 3359,
      "Ġforget": 3360,
      "ĠYes": 3361,
      "Ġcry": 3362,
      "ĠCol": 3363,
      "ĠRuss": 3364,
      "Ġsteeds": 3365,
      "Ġkit": 3366,
      "Ġsitu": 3367,
      "Ġtel": 3368,
      "Ġninet": 3369,
      "Ġquickly": 3370,
      "Ġfrog": 3371,
      "ified": 3372,
      "Ġcouple": 3373,
      "Every": 3374,
      "Ġhy": 3375,
      "Fr": 3376,
      "çŁ": 3377,
      "Ġwear": 3378,
      "Ġoffice": 3379,
      "Ġcompet": 3380,
      "Ġjuice": 3381,
      "Ġcop": 3382,
      "ooh": 3383,
      "ĠWest": 3384,
      "ĠCal": 3385,
      "Ġsail": 3386,
      "Ġnearly": 3387,
      "Ġmillion": 3388,
      "unity": 3389,
      "Ġant": 3390,
      "Ġ25": 3391,
      "iol": 3392,
      "isper": 3393,
      "ereen": 3394,
      "Ġslow": 3395,
      "Ġthrow": 3396,
      "Ġview": 3397,
      "Ġvinden": 3398,
      "Ġexample": 3399,
      "Ġgedaan": 3400,
      "ospital": 3401,
      "some": 3402,
      "iday": 3403,
      "å°±æĺ¯": 3404,
      "Ġeye": 3405,
      "ijt": 3406,
      "Ġengine": 3407,
      "Ġdaddy": 3408,
      "Ġgeld": 3409,
      "ror": 3410,
      "Ġ#": 3411,
      "Ġpract": 3412,
      "ees": 3413,
      "ior": 3414,
      "Ġwereld": 3415,
      "Ġdanger": 3416,
      "ĠPaul": 3417,
      "Ġanyway": 3418,
      "Ġputs": 3419,
      "Ġreplied": 3420,
      "åĲ§": 3421,
      "was": 3422,
      "ĠAm": 3423,
      "Ġcre": 3424,
      "Please": 3425,
      "Ġdam": 3426,
      "Ġvragen": 3427,
      "Ġstri": 3428,
      "ĠGen": 3429,
      "Ġbroken": 3430,
      "Ġav": 3431,
      "iment": 3432,
      "Ġcaught": 3433,
      "Ġled": 3434,
      "ĠWat": 3435,
      "ĠOl": 3436,
      "ĠOp": 3437,
      "åľ°": 3438,
      "Ġjuist": 3439,
      "Ġnieuwe": 3440,
      "åģ": 3441,
      "Ġied": 3442,
      "ĠPe": 3443,
      "Ġfollowing": 3444,
      "è°": 3445,
      "Ġposition": 3446,
      "Ġgeneral": 3447,
      "Ġmajor": 3448,
      "dom": 3449,
      "Ġcake": 3450,
      "Zo": 3451,
      "Ġanders": 3452,
      "Ġdoet": 3453,
      "Ġwhatever": 3454,
      "Ġtonight": 3455,
      "Ġsouth": 3456,
      "arr": 3457,
      "Ġlig": 3458,
      "çĦ": 3459,
      "Or": 3460,
      "Ġinde": 3461,
      "ology": 3462,
      "Ġcirc": 3463,
      "work": 3464,
      "Ġmach": 3465,
      "Ġzij": 3466,
      "ĠSu": 3467,
      "See": 3468,
      "Ġforgot": 3469,
      "After": 3470,
      "Ġtoward": 3471,
      "Ġstad": 3472,
      "Ġadm": 3473,
      "uel": 3474,
      "Ġevening": 3475,
      "pes": 3476,
      "Ġformer": 3477,
      "Ġwillen": 3478,
      "Ġgentle": 3479,
      "empt": 3480,
      "ĠNor": 3481,
      "ĠRep": 3482,
      "zo": 3483,
      "çĤ": 3484,
      "Ġheavy": 3485,
      "Ġexcept": 3486,
      "Ġeverybody": 3487,
      "Ġvader": 3488,
      "å¥¹": 3489,
      "Ġbev": 3490,
      "Ġrequ": 3491,
      "lands": 3492,
      "ored": 3493,
      "ico": 3494,
      "Ġtrack": 3495,
      "Ġdepartment": 3496,
      "Ġkinderen": 3497,
      "would": 3498,
      "rie": 3499,
      "ç§": 3500,
      "Ġdest": 3501,
      "Ġbroke": 3502,
      "çĦ¶": 3503,
      "bers": 3504,
      "ino": 3505,
      "Ġspir": 3506,
      "Stop": 3507,
      "Ġshut": 3508,
      "say": 3509,
      "Ġseem": 3510,
      "Ġpieces": 3511,
      "Ġkids": 3512,
      "Ġcost": 3513,
      "ades": 3514,
      "sk": 3515,
      "Ġzitten": 3516,
      "Ġann": 3517,
      "Ġdecided": 3518,
      "Ġtrees": 3519,
      "resent": 3520,
      "Ġstanding": 3521,
      "sings": 3522,
      "ya": 3523,
      "Ġeind": 3524,
      "Ġcarry": 3525,
      "Ġcertainly": 3526,
      "ding": 3527,
      "aven": 3528,
      "wel": 3529,
      "Ġplaces": 3530,
      "Ġseat": 3531,
      "Ġah": 3532,
      "Ġomdat": 3533,
      "Ġfollowed": 3534,
      "chn": 3535,
      "æŀ": 3536,
      "Ġtowards": 3537,
      "ID": 3538,
      "Ġneeds": 3539,
      "cing": 3540,
      "rent": 3541,
      "reek": 3542,
      "Ġbuilt": 3543,
      "terday": 3544,
      "iety": 3545,
      "Ġprop": 3546,
      "Ġbreakfast": 3547,
      "Ġauthor": 3548,
      "Ġopened": 3549,
      "Ġperform": 3550,
      "èĢģ": 3551,
      "iles": 3552,
      "Ã¯": 3553,
      "da": 3554,
      "åĢ": 3555,
      "even": 3556,
      "ocol": 3557,
      "Ġmiddle": 3558,
      "reg": 3559,
      "Any": 3560,
      "iny": 3561,
      "ĠSome": 3562,
      "ĠJoe": 3563,
      "ĠFlor": 3564,
      "æ¬": 3565,
      "clock": 3566,
      "Ġweeks": 3567,
      "éģĵ": 3568,
      "Ġpark": 3569,
      "Ġchanged": 3570,
      "Ġbab": 3571,
      "çİ°": 3572,
      "Ġvolgende": 3573,
      "With": 3574,
      "maybe": 3575,
      "æĶ": 3576,
      "water": 3577,
      "Ġvisit": 3578,
      "Ġahead": 3579,
      "icy": 3580,
      "anden": 3581,
      "Ġlanguage": 3582,
      "ancy": 3583,
      "Ã¨": 3584,
      "str": 3585,
      "ĠTO": 3586,
      "itty": 3587,
      "Ġonderzoek": 3588,
      "give": 3589,
      "Ġdru": 3590,
      "Ġmeest": 3591,
      "pers": 3592,
      "Ġworry": 3593,
      "Ġhungry": 3594,
      "Ġshoot": 3595,
      "Ġearth": 3596,
      "Ġwritten": 3597,
      "Dan": 3598,
      "gelijk": 3599,
      "Ġoor": 3600,
      "ĠMy": 3601,
      "Ġwilde": 3602,
      "18": 3603,
      "è¾": 3604,
      "Ġhig": 3605,
      "Ġlaughs": 3606,
      "Ġreach": 3607,
      "emen": 3608,
      "Ġhors": 3609,
      "ĠCity": 3610,
      "Ġ0": 3611,
      "Ġmm": 3612,
      "Ġfill": 3613,
      "ä¿": 3614,
      "ishing": 3615,
      "bre": 3616,
      "Ġduck": 3617,
      "Ġhole": 3618,
      "ushed": 3619,
      "ä¸Ń": 3620,
      "Ġke": 3621,
      "icro": 3622,
      "Ġafterno": 3623,
      "çĶŁ": 3624,
      "Ġnews": 3625,
      "Ġinstead": 3626,
      "ĠMe": 3627,
      "Ġriver": 3628,
      "Ġdisapp": 3629,
      "Ġbott": 3630,
      "ĠGu": 3631,
      "Ġpuzz": 3632,
      "Ġkitchen": 3633,
      "ĠPer": 3634,
      "gro": 3635,
      "Ġmur": 3636,
      "child": 3637,
      "ĠDav": 3638,
      "STE": 3639,
      "gu": 3640,
      "ĠAN": 3641,
      "Ġspl": 3642,
      "isk": 3643,
      "Ġprec": 3644,
      "Ġcomput": 3645,
      "ĠHarry": 3646,
      "Hello": 3647,
      "Ġnou": 3648,
      "ĠComm": 3649,
      "Ġusing": 3650,
      "ĠTH": 3651,
      "èĩª": 3652,
      "baar": 3653,
      "gar": 3654,
      "Ġcareful": 3655,
      "Ġdistrict": 3656,
      "æİ": 3657,
      "Ġhoofd": 3658,
      "Ġmeant": 3659,
      "Ġquar": 3660,
      "Ġworks": 3661,
      "Ġplayer": 3662,
      "Ġfail": 3663,
      "ends": 3664,
      "Ġseason": 3665,
      "ELS": 3666,
      "rel": 3667,
      "Ġbi": 3668,
      "Ġport": 3669,
      "Ġanyone": 3670,
      "Ġsnel": 3671,
      "Ġcareer": 3672,
      "rang": 3673,
      "angen": 3674,
      "Ġcharacter": 3675,
      "ipe": 3676,
      "rab": 3677,
      "Ġlocal": 3678,
      "Ġut": 3679,
      "abel": 3680,
      "Ġhistory": 3681,
      "Ġhell": 3682,
      "Ġactiv": 3683,
      "sy": 3684,
      "ĠYeah": 3685,
      "Ġincluding": 3686,
      "ĠDit": 3687,
      "oten": 3688,
      "Ġsecret": 3689,
      "Ġglass": 3690,
      "æ°": 3691,
      "Ġexpect": 3692,
      "will": 3693,
      "Ġservice": 3694,
      "æł·": 3695,
      "è´": 3696,
      "arty": 3697,
      "Ġreceived": 3698,
      "bing": 3699,
      "Niet": 3700,
      "Ġgold": 3701,
      "rible": 3702,
      "Ġafternoon": 3703,
      "Ġvideo": 3704,
      "ĠBen": 3705,
      "Ġdifficult": 3706,
      "Ġwie": 3707,
      "ĠPol": 3708,
      "board": 3709,
      "Ġlegs": 3710,
      "Ġdrive": 3711,
      "Ġstuck": 3712,
      "ĠBet": 3713,
      "Ġcommand": 3714,
      "Ġcool": 3715,
      "rem": 3716,
      "Ġgiving": 3717,
      "idence": 3718,
      "Ġkrijgen": 3719,
      "cuse": 3720,
      "la": 3721,
      "Ġsupposed": 3722,
      "Ġpresident": 3723,
      "ĠIndian": 3724,
      "ĠPort": 3725,
      "sit": 3726,
      "Ġcast": 3727,
      "Ġpack": 3728,
      "Ġmoeder": 3729,
      "ground": 3730,
      "ĠBij": 3731,
      "Ġextra": 3732,
      "Daddy": 3733,
      "ender": 3734,
      "Maybe": 3735,
      "stof": 3736,
      "Ġverm": 3737,
      "Ġpopulation": 3738,
      "Ġuur": 3739,
      "Ġdiscover": 3740,
      "ket": 3741,
      "ĠMary": 3742,
      "rupt": 3743,
      "Ġstopped": 3744,
      "å§": 3745,
      "lean": 3746,
      "rodu": 3747,
      "Ġrab": 3748,
      "ikk": 3749,
      "iation": 3750,
      "Ġsad": 3751,
      "Ġmass": 3752,
      "ogn": 3753,
      "Ġtelling": 3754,
      "hal": 3755,
      "Âł": 3756,
      "Ġmat": 3757,
      "leep": 3758,
      "Ġprison": 3759,
      "uid": 3760,
      "ĠMommy": 3761,
      "Ġbelong": 3762,
      "Ben": 3763,
      "Ġbought": 3764,
      "Ġfort": 3765,
      "Ġwaarom": 3766,
      "house": 3767,
      "Ġvoed": 3768,
      "Ġfinish": 3769,
      "ray": 3770,
      "ĠDat": 3771,
      "Ġfurther": 3772,
      "Ġmix": 3773,
      "ĠCent": 3774,
      "Ġdescri": 3775,
      "æ²¡æľī": 3776,
      "Ġeten": 3777,
      "Ġtast": 3778,
      "Ġmedic": 3779,
      "cul": 3780,
      "Ġmad": 3781,
      "15": 3782,
      "iod": 3783,
      "anne": 3784,
      "Ġwee": 3785,
      "ĠNational": 3786,
      "Ġwrote": 3787,
      "want": 3788,
      "ĠAmerica": 3789,
      "Ġkid": 3790,
      "name": 3791,
      "Ġenjoy": 3792,
      "usp": 3793,
      "Ġcontrol": 3794,
      "Ġhospital": 3795,
      "Ġpupp": 3796,
      "zet": 3797,
      "agon": 3798,
      "Ġcentury": 3799,
      "Ġexclaimed": 3800,
      "Ġaantal": 3801,
      "ounter": 3802,
      "OM": 3803,
      "Ġbase": 3804,
      "icle": 3805,
      "Ġmod": 3806,
      "Ġdesign": 3807,
      "por": 3808,
      "itions": 3809,
      "Ġzet": 3810,
      "ĠCaptain": 3811,
      "Ġswim": 3812,
      "Ġvlie": 3813,
      "OTH": 3814,
      "conom": 3815,
      "Ġdoubt": 3816,
      "RE": 3817,
      "Ġstreet": 3818,
      "çĤ¹": 3819,
      "yy": 3820,
      "Ġtick": 3821,
      "oph": 3822,
      "olf": 3823,
      "Ġcoff": 3824,
      "view": 3825,
      "ĠGeorge": 3826,
      "Ġvrij": 3827,
      "ĠNow": 3828,
      "ĠOF": 3829,
      "Ġsense": 3830,
      "ĠRobert": 3831,
      "ivil": 3832,
      "è·Ł": 3833,
      "Ġoud": 3834,
      "ĠIN": 3835,
      "Ġparents": 3836,
      "ceed": 3837,
      "Ġpriv": 3838,
      "Ġho": 3839,
      "itted": 3840,
      "oeken": 3841,
      "Ġhasn": 3842,
      "å¿ĥ": 3843,
      "Ġindeed": 3844,
      "acy": 3845,
      "ijkt": 3846,
      "Ġoo": 3847,
      "Ġthirty": 3848,
      "Ġfigure": 3849,
      "12": 3850,
      "CHAP": 3851,
      "Ġbek": 3852,
      "Ġride": 3853,
      "Ġproduct": 3854,
      "ieved": 3855,
      "åĴĮ": 3856,
      "Voor": 3857,
      "arp": 3858,
      "Ġtemper": 3859,
      "Ġbow": 3860,
      "Ġbased": 3861,
      "Ġcause": 3862,
      "Mhm": 3863,
      "Ġworth": 3864,
      "ording": 3865,
      "Ġsomewhere": 3866,
      "Ġrub": 3867,
      "Ġallowed": 3868,
      "Ġord": 3869,
      "Ġber": 3870,
      "llust": 3871,
      "Ġalthough": 3872,
      "Ġ192": 3873,
      "Ġhappens": 3874,
      "eh": 3875,
      "Ġgest": 3876,
      "roy": 3877,
      "Ġconvers": 3878,
      "Ġstrange": 3879,
      "Ġble": 3880,
      "Ġevent": 3881,
      "Ġbeter": 3882,
      "CHAPTER": 3883,
      "Ġbep": 3884,
      "éĻ": 3885,
      "iteit": 3886,
      "Ġexactly": 3887,
      "å±": 3888,
      "isc": 3889,
      "Weet": 3890,
      "Ġcarried": 3891,
      "Wie": 3892,
      "ĠNot": 3893,
      "MAR": 3894,
      "Ġprep": 3895,
      "ampion": 3896,
      "Ġaccept": 3897,
      "Ġyesterday": 3898,
      "ĠSir": 3899,
      "Ġwhose": 3900,
      "aj": 3901,
      "Ġburn": 3902,
      "Ġbell": 3903,
      "light": 3904,
      "laugh": 3905,
      "ourn": 3906,
      "Ġgas": 3907,
      "waar": 3908,
      "Ġdacht": 3909,
      "Ġsheep": 3910,
      "LL": 3911,
      "ae": 3912,
      "pec": 3913,
      "ĠMag": 3914,
      "nen": 3915,
      "ille": 3916,
      "ĠPresident": 3917,
      "Ġmaakt": 3918,
      "chten": 3919,
      "ively": 3920,
      "Ġcompan": 3921,
      "ician": 3922,
      "Ġholding": 3923,
      "çŁ¥": 3924,
      "æĤ": 3925,
      "Ġmoving": 3926,
      "Ġnaam": 3927,
      "ka": 3928,
      "Ġeld": 3929,
      "Ġlunch": 3930,
      "Ġchicken": 3931,
      "Cl": 3932,
      "Ġsave": 3933,
      "elde": 3934,
      "bled": 3935,
      "ST": 3936,
      "Ġing": 3937,
      "Ġinvol": 3938,
      "ribut": 3939,
      "ĠâĢ": 3940,
      "maal": 3941,
      "Ġtrad": 3942,
      "Ġrecogn": 3943,
      "Ġverschillende": 3944,
      "esus": 3945,
      "Ġgeven": 3946,
      "Ġleaving": 3947,
      "Ġobs": 3948,
      "Ġwhom": 3949,
      "iks": 3950,
      "ula": 3951,
      "å¾Ī": 3952,
      "Ġantwoord": 3953,
      "ĠRob": 3954,
      "ume": 3955,
      "Ġ2018": 3956,
      "turn": 3957,
      "Ġtail": 3958,
      "Ġhart": 3959,
      "ression": 3960,
      "auw": 3961,
      "eil": 3962,
      "Ġaard": 3963,
      "Ġremark": 3964,
      "Ġturns": 3965,
      "--------": 3966,
      "ijdens": 3967,
      "oris": 3968,
      "Ġgames": 3969,
      "Ġwatching": 3970,
      "Ġfat": 3971,
      "Ġappear": 3972,
      "Ġtype": 3973,
      "Ġought": 3974,
      "Ġ100": 3975,
      "åī": 3976,
      "Ġhoney": 3977,
      "Ġinfl": 3978,
      "ĠThese": 3979,
      "Ġsport": 3980,
      "ocket": 3981,
      "Ġbusy": 3982,
      "pre": 3983,
      "Ġbull": 3984,
      "ĠGl": 3985,
      "Ġmeat": 3986,
      "æĬĬ": 3987,
      "Ġiss": 3988,
      "Ġanybody": 3989,
      "ĠMaar": 3990,
      "Ġneck": 3991,
      "overn": 3992,
      "enen": 3993,
      "Ġdeel": 3994,
      "Ġwriting": 3995,
      "Ġontst": 3996,
      "oul": 3997,
      "Ġja": 3998,
      "wow": 3999,
      "Ġorange": 4000,
      "ĠVan": 4001,
      "uld": 4002,
      "za": 4003,
      "Ġbegin": 4004,
      "field": 4005,
      "Ġfear": 4006,
      "reng": 4007,
      "Op": 4008,
      "aches": 4009,
      "Ġspace": 4010,
      "Ġvier": 4011,
      "Ġjouw": 4012,
      "ieft": 4013,
      "pper": 4014,
      "Ġ24": 4015,
      "ization": 4016,
      "Ġmeeting": 4017,
      "Ġinformation": 4018,
      "hand": 4019,
      "Ġsilly": 4020,
      "ael": 4021,
      "burg": 4022,
      "gie": 4023,
      "åĮ": 4024,
      "Ġimag": 4025,
      "ighb": 4026,
      "OkÃ©": 4027,
      "ijs": 4028,
      "iled": 4029,
      "ĠHelen": 4030,
      "leanor": 4031,
      "Ġkwam": 4032,
      "ĠDoctor": 4033,
      "vl": 4034,
      "ĠWith": 4035,
      "ĠFraser": 4036,
      "komen": 4037,
      "Ġperiod": 4038,
      "Ġletters": 4039,
      "ode": 4040,
      "Ġbutter": 4041,
      "ĠGermany": 4042,
      "Ġsusp": 4043,
      "Ġlim": 4044,
      "Ġbread": 4045,
      "Ġfinger": 4046,
      "aker": 4047,
      "Kijk": 4048,
      "ĠMon": 4049,
      "Ġtall": 4050,
      "ĠUS": 4051,
      "Ġloud": 4052,
      "Ġtek": 4053,
      "Ġeveryone": 4054,
      "Ġeduc": 4055,
      "Take": 4056,
      "Ġhoor": 4057,
      "Ġterm": 4058,
      "Thanks": 4059,
      "ĠRich": 4060,
      "time": 4061,
      "Ġfut": 4062,
      "14": 4063,
      "spra": 4064,
      "Ã¡": 4065,
      "Ġcere": 4066,
      "mommy": 4067,
      "ilar": 4068,
      "Ġspot": 4069,
      "Ġbuiten": 4070,
      "Ġmiles": 4071,
      "Ar": 4072,
      "medi": 4073,
      "Ġmountain": 4074,
      "uts": 4075,
      "Ġbrown": 4076,
      "Ġanimal": 4077,
      "vocal": 4078,
      "Ġpaar": 4079,
      "Ġnecess": 4080,
      "Ġgemaakt": 4081,
      "ĠCom": 4082,
      "17": 4083,
      "Ġdut": 4084,
      "Ġziet": 4085,
      "akken": 4086,
      "Ġcommune": 4087,
      "Dus": 4088,
      "under": 4089,
      "çŃ": 4090,
      "Ġsubject": 4091,
      "Ġgar": 4092,
      "Ġpush": 4093,
      "ĠSm": 4094,
      "hip": 4095,
      "Ġbez": 4096,
      "æĢİ": 4097,
      "estern": 4098,
      "ĠII": 4099,
      "Ġtruth": 4100,
      "Ġgoede": 4101,
      "Ġears": 4102,
      "acing": 4103,
      "ĠMart": 4104,
      "Ġappeared": 4105,
      "ieden": 4106,
      "Ġbeginning": 4107,
      "Ġwilt": 4108,
      "Ġcamer": 4109,
      "Ġcapt": 4110,
      "Ġsilence": 4111,
      "hah": 4112,
      "Ġself": 4113,
      "å¹´": 4114,
      "ran": 4115,
      "ĠWell": 4116,
      "Ġsafe": 4117,
      "Ġvict": 4118,
      "oom": 4119,
      "anks": 4120,
      "Ġdry": 4121,
      "Ġcomb": 4122,
      "Ġpopular": 4123,
      "Ġcapital": 4124,
      "ege": 4125,
      "ĠEx": 4126,
      "looks": 4127,
      "Ġquestions": 4128,
      "Mar": 4129,
      "ĠDaar": 4130,
      "ipped": 4131,
      "Ġcoffee": 4132,
      "elve": 4133,
      "Ġsal": 4134,
      "Ġhen": 4135,
      "Ġster": 4136,
      "ĠSe": 4137,
      "Ġtrust": 4138,
      "Ġwest": 4139,
      "Ġzeker": 4140,
      "Ġnatuur": 4141,
      "stop": 4142,
      "ĠLea": 4143,
      "åĽŀ": 4144,
      "Will": 4145,
      "aald": 4146,
      "gasps": 4147,
      "Ġcrying": 4148,
      "Ġweren": 4149,
      "Ġforce": 4150,
      "Ġbright": 4151,
      "èµ·": 4152,
      "iest": 4153,
      "line": 4154,
      "Ġtit": 4155,
      "oger": 4156,
      "ressed": 4157,
      "zelfde": 4158,
      "bout": 4159,
      "Ġlos": 4160,
      "ensch": 4161,
      "Ġfre": 4162,
      "Ġmoest": 4163,
      "Ġbottom": 4164,
      "viously": 4165,
      "Ġincre": 4166,
      "kk": 4167,
      "Ġtour": 4168,
      "Ġdev": 4169,
      "inds": 4170,
      "Ġteeth": 4171,
      "Ġattempt": 4172,
      "roeg": 4173,
      "NA": 4174,
      "Ġrul": 4175,
      "ĠDan": 4176,
      "ĠWel": 4177,
      "ĠFred": 4178,
      "Ġmaak": 4179,
      "Ġitself": 4180,
      "Ġpray": 4181,
      "ä¸įæĺ¯": 4182,
      "please": 4183,
      "Wait": 4184,
      "ĠHier": 4185,
      "Ġsuddenly": 4186,
      "æĢİä¹Ī": 4187,
      "THE": 4188,
      "Ġleuk": 4189,
      "Ġarmy": 4190,
      "Ġwalked": 4191,
      "ennis": 4192,
      "Ġcountries": 4193,
      "Ġcreated": 4194,
      "unicip": 4195,
      "LE": 4196,
      "aden": 4197,
      "Ġattention": 4198,
      "Ġcult": 4199,
      "Ġzullen": 4200,
      "Ġwalking": 4201,
      "Ġspecies": 4202,
      "Ġrespect": 4203,
      "Ġkijken": 4204,
      "Ġsocial": 4205,
      "ds": 4206,
      "Ġspoke": 4207,
      "SOA": 4208,
      "Ġwed": 4209,
      "ĠMet": 4210,
      "Ġcomfort": 4211,
      "woord": 4212,
      "Ġcars": 4213,
      "Ġconcern": 4214,
      "ĠDad": 4215,
      "Ġopdracht": 4216,
      "ounded": 4217,
      "æĮ": 4218,
      "Ġblow": 4219,
      "Ġmilit": 4220,
      "Illust": 4221,
      "Mum": 4222,
      "Ġpaid": 4223,
      "iller": 4224,
      "Ġverand": 4225,
      "Ġ21": 4226,
      "ploy": 4227,
      "Me": 4228,
      "Ġpun": 4229,
      "Ġ&": 4230,
      "Ġfruit": 4231,
      "Ġslecht": 4232,
      "Ġdistance": 4233,
      "Ġteach": 4234,
      "OK": 4235,
      "Ġsky": 4236,
      "ĠWhy": 4237,
      "Ġzonder": 4238,
      "Ġ2021": 4239,
      "omes": 4240,
      "Ġshape": 4241,
      "isted": 4242,
      "ĠRoy": 4243,
      "atuur": 4244,
      "ĠSer": 4245,
      "Ġrust": 4246,
      "ĠBy": 4247,
      "Ġwinter": 4248,
      "erl": 4249,
      "aper": 4250,
      "Br": 4251,
      "éķ": 4252,
      "Ġlaugh": 4253,
      "Ġgrass": 4254,
      "Ġparts": 4255,
      "gs": 4256,
      "Ġenemy": 4257,
      "Ġrelig": 4258,
      "å¼Ģ": 4259,
      "ĠHen": 4260,
      "aves": 4261,
      "Ġwerden": 4262,
      "log": 4263,
      "Ġmoder": 4264,
      "Hier": 4265,
      "Ġadded": 4266,
      "Ġhous": 4267,
      "ĠAunt": 4268,
      "osaur": 4269,
      "Ġgezien": 4270,
      "God": 4271,
      "Ġgives": 4272,
      "rect": 4273,
      "Ġvorm": 4274,
      "Ġstars": 4275,
      "Ġbrief": 4276,
      "Ġcounty": 4277,
      "volution": 4278,
      "æ³": 4279,
      "Ġrace": 4280,
      "Ġprocess": 4281,
      "Ġentire": 4282,
      "éĿ¢": 4283,
      "ĠBel": 4284,
      "uses": 4285,
      "Ġshit": 4286,
      "Ġneighb": 4287,
      "Ġchocol": 4288,
      "Ġsex": 4289,
      "ination": 4290,
      "ulp": 4291,
      "Ġ(\"": 4292,
      "CAT": 4293,
      "asion": 4294,
      "ĠSat": 4295,
      "Ġplays": 4296,
      "Ġcontinued": 4297,
      "pardon": 4298,
      "åĸ": 4299,
      "Ġou": 4300,
      "Ġsummer": 4301,
      "Ġdecl": 4302,
      "åĳĢ": 4303,
      "Ġboven": 4304,
      "Ġanymore": 4305,
      "Ġconsider": 4306,
      "back": 4307,
      "ĠMad": 4308,
      "Ġgewe": 4309,
      "Ġlevel": 4310,
      "Ġeleph": 4311,
      "achten": 4312,
      "ĠAmerik": 4313,
      "Ġfifty": 4314,
      "Ġfuture": 4315,
      "ometimes": 4316,
      "bie": 4317,
      "baby": 4318,
      "Ġlab": 4319,
      "Ġbew": 4320,
      "ĠBra": 4321,
      "izen": 4322,
      "offen": 4323,
      "ĠRiver": 4324,
      "ĠFl": 4325,
      "antly": 4326,
      "zie": 4327,
      "çĲ": 4328,
      "ĠAc": 4329,
      "ĠCarl": 4330,
      "ĠPark": 4331,
      "ission": 4332,
      "ĠChina": 4333,
      "Ġfinally": 4334,
      "ĠRepubl": 4335,
      "Ġhate": 4336,
      "Illustration": 4337,
      "ites": 4338,
      "Ġwash": 4339,
      "Ġconn": 4340,
      "Ġdropped": 4341,
      "Ġblijven": 4342,
      "bes": 4343,
      "yn": 4344,
      "Ġpet": 4345,
      "Ġlaatste": 4346,
      "Ġcard": 4347,
      "resh": 4348,
      "bling": 4349,
      "Ġsmell": 4350,
      "Ġleaves": 4351,
      "ĠQu": 4352,
      "Ġlaughed": 4353,
      "ais": 4354,
      "åŃ©": 4355,
      "çĻ½": 4356,
      "iot": 4357,
      "Ġproblems": 4358,
      "Ġmention": 4359,
      "ads": 4360,
      "ĠDeze": 4361,
      "Ġfle": 4362,
      "box": 4363,
      "Ġsoldiers": 4364,
      "ĠOliver": 4365,
      "Sp": 4366,
      "çº": 4367,
      "Ġpounds": 4368,
      "estig": 4369,
      "Ġeerst": 4370,
      "Ġinterested": 4371,
      "Ġlikes": 4372,
      "His": 4373,
      "gegeven": 4374,
      "mother": 4375,
      "anten": 4376,
      "Ġverder": 4377,
      "Ġchurch": 4378,
      "Nu": 4379,
      "tell": 4380,
      "uch": 4381,
      "13": 4382,
      "Ġstore": 4383,
      "ĠGeneral": 4384,
      "Ġlying": 4385,
      "Ã³": 4386,
      "Ġvand": 4387,
      "Ġcand": 4388,
      "Ġalive": 4389,
      "ĠLaur": 4390,
      "Ġ23": 4391,
      "uhoh": 4392,
      "Ġdiscuss": 4393,
      "ĠWilliam": 4394,
      "wait": 4395,
      "ils": 4396,
      "ruct": 4397,
      "ugh": 4398,
      "Ġindust": 4399,
      "ĠSchool": 4400,
      "Ġdue": 4401,
      "cks": 4402,
      "ĠStan": 4403,
      "åĽ½": 4404,
      "Ġeconom": 4405,
      "anny": 4406,
      "Ġconsid": 4407,
      "take": 4408,
      "Ġmater": 4409,
      "Ġgeeft": 4410,
      "urd": 4411,
      "ĠMor": 4412,
      "ĠJust": 4413,
      "Ġhelpen": 4414,
      "appy": 4415,
      "Ġmachine": 4416,
      "Ġ22": 4417,
      "astic": 4418,
      "åĪ«": 4419,
      "Ġbelangrijk": 4420,
      "ĠChar": 4421,
      "Ġgroep": 4422,
      "ault": 4423,
      "ĠMark": 4424,
      "Ġexam": 4425,
      "Ġtwelve": 4426,
      "Ġaccount": 4427,
      "Ġnieuw": 4428,
      "AY": 4429,
      "worth": 4430,
      "Ġdig": 4431,
      "Ġstudy": 4432,
      "ĠIndia": 4433,
      "Ġcomputer": 4434,
      "Ġbal": 4435,
      "Ġcab": 4436,
      "Ġbottle": 4437,
      "aith": 4438,
      "Ġdrop": 4439,
      "ston": 4440,
      "ĠChi": 4441,
      "Ġintern": 4442,
      "Ġbirds": 4443,
      "met": 4444,
      "Ġmem": 4445,
      "ĠTe": 4446,
      "epend": 4447,
      "Ġhealth": 4448,
      "Ġmaster": 4449,
      "Ġhouden": 4450,
      "Ġplate": 4451,
      "Ġprofession": 4452,
      "ĠDavid": 4453,
      "pecially": 4454,
      "Uh": 4455,
      "yep": 4456,
      "Ġpictures": 4457,
      "ĠRoman": 4458,
      "itive": 4459,
      "Ġlose": 4460,
      "Ġcell": 4461,
      "ĠMich": 4462,
      "Ġverb": 4463,
      "isf": 4464,
      "Ġnor": 4465,
      "ĠOf": 4466,
      "Ġserious": 4467,
      "Ġintrodu": 4468,
      "Ġmicro": 4469,
      "Ġlink": 4470,
      "rian": 4471,
      "Ġhelemaal": 4472,
      "Ġauto": 4473,
      "ĠâĢ¢": 4474,
      "Per": 4475,
      "ĠGovern": 4476,
      "Ġneeded": 4477,
      "Ġsilver": 4478,
      "Ġrepresent": 4479,
      "three": 4480,
      "Ġreading": 4481,
      "Ġpicks": 4482,
      "ĠHowever": 4483,
      "Ġrese": 4484,
      "Ġseeing": 4485,
      "Ġways": 4486,
      "Ġ2019": 4487,
      "ĠUnion": 4488,
      "é¢": 4489,
      "Ġnee": 4490,
      "ĠHouse": 4491,
      "ĠReg": 4492,
      "Ġinclude": 4493,
      "Ġgesch": 4494,
      "Ġtekst": 4495,
      "Met": 4496,
      "Ġbom": 4497,
      "Ġisland": 4498,
      "Ġstorm": 4499,
      "oring": 4500,
      "ival": 4501,
      "Ġflat": 4502,
      "Ġgenoeg": 4503,
      "\")": 4504,
      "aughing": 4505,
      "Ġcharge": 4506,
      "Ã¼": 4507,
      "Ġ2010": 4508,
      "Ġinf": 4509,
      "ankt": 4510,
      "cellen": 4511,
      "Ġfeed": 4512,
      "Ġgebruikt": 4513,
      "Ġcamera": 4514,
      "Like": 4515,
      "dr": 4516,
      "Ġhou": 4517,
      "Ġcream": 4518,
      "Ġmoon": 4519,
      "oken": 4520,
      "Ġbelow": 4521,
      "Ġfamous": 4522,
      "Ġbesch": 4523,
      "Ġsimp": 4524,
      "Ġlucht": 4525,
      "points": 4526,
      "eddy": 4527,
      "Ġneem": 4528,
      "Ġfir": 4529,
      "Ġur": 4530,
      "ĠVoor": 4531,
      "Ġparticular": 4532,
      "Was": 4533,
      "yle": 4534,
      "ima": 4535,
      "Ġstub": 4536,
      "isha": 4537,
      "aughty": 4538,
      "onnen": 4539,
      "Ġpuzzle": 4540,
      "Ġstage": 4541,
      "ĠTur": 4542,
      "Ġflowers": 4543,
      "Ġshouldn": 4544,
      "Ġ50": 4545,
      "UNK": 4546,
      "Ġmurder": 4547,
      "Ġjud": 4548,
      "sm": 4549,
      "Ġlif": 4550,
      "alley": 4551,
      "izes": 4552,
      "Ġfucking": 4553,
      "Ġhast": 4554,
      "lymp": 4555,
      "?'": 4556,
      "VE": 4557,
      "ĠQue": 4558,
      "Ġder": 4559,
      "Ġvarious": 4560,
      "ires": 4561,
      "anneer": 4562,
      "Ġconversation": 4563,
      "ashed": 4564,
      "allo": 4565,
      "essor": 4566,
      "16": 4567,
      "50": 4568,
      "ĠParty": 4569,
      "ably": 4570,
      "Ġbedoel": 4571,
      "æĥħ": 4572,
      "Ġfoto": 4573,
      "Ġrepe": 4574,
      "ĠSy": 4575,
      "Ġsinging": 4576,
      "Ġide": 4577,
      "Ġhide": 4578,
      "tered": 4579,
      "Ġanc": 4580,
      "åįģ": 4581,
      "ĠAngel": 4582,
      "ĠHoe": 4583,
      "Ġsuit": 4584,
      "bert": 4585,
      "Wil": 4586,
      "eat": 4587,
      "erve": 4588,
      "olut": 4589,
      "ĠJames": 4590,
      "Ġcheese": 4591,
      "åģļ": 4592,
      "Ġannoun": 4593,
      "laughing": 4594,
      "è½": 4595,
      "Ġpocket": 4596,
      "è¯Ŀ": 4597,
      "Ġnames": 4598,
      "Ġscared": 4599,
      "Ġhorses": 4600,
      "gaan": 4601,
      "Ġdance": 4602,
      "Ġdogs": 4603,
      "IC": 4604,
      "Ġsoort": 4605,
      "Ġgrew": 4606,
      "Ġkey": 4607,
      "ĠGreat": 4608,
      "ĠLet": 4609,
      "Ġiedereen": 4610,
      ",--": 4611,
      "Ġleng": 4612,
      "Ġvaak": 4613,
      "ä¹ĭ": 4614,
      "Ġcray": 4615,
      "Ġdingen": 4616,
      "Ġmunicip": 4617,
      "Ġpink": 4618,
      "aas": 4619,
      "Ġearl": 4620,
      "roll": 4621,
      "Ġemp": 4622,
      "çľŁ": 4623,
      "éķ¿": 4624,
      "Gr": 4625,
      "Om": 4626,
      "Ġsharp": 4627,
      "Ġchief": 4628,
      "Ġspijt": 4629,
      "AND": 4630,
      "Ġfinal": 4631,
      "Ġsimilar": 4632,
      "atic": 4633,
      "Ġate": 4634,
      "Ġbrand": 4635,
      "Ġbasket": 4636,
      "Ġkick": 4637,
      "omething": 4638,
      "åıª": 4639,
      "enk": 4640,
      "aining": 4641,
      "rican": 4642,
      "Ġ=": 4643,
      "ĠSund": 4644,
      "riage": 4645,
      "apen": 4646,
      "Ġlaughing": 4647,
      "å½ĵ": 4648,
      "anch": 4649,
      "Ġserved": 4650,
      "nee": 4651,
      "Ġpit": 4652,
      "Ġclosed": 4653,
      "Ġpraten": 4654,
      "Ġinteresting": 4655,
      "Ġfingers": 4656,
      "Pro": 4657,
      "set": 4658,
      "urday": 4659,
      "Ġrid": 4660,
      "ĠBoris": 4661,
      "Ġtechn": 4662,
      "book": 4663,
      "Ġliked": 4664,
      "Ġcircle": 4665,
      "watch": 4666,
      "leg": 4667,
      "Ġbeat": 4668,
      "amm": 4669,
      "Ġlich": 4670,
      "Ġhall": 4671,
      "ivid": 4672,
      "Ġï¿½": 4673,
      "iced": 4674,
      "Ġproject": 4675,
      "è§ī": 4676,
      "Ġdin": 4677,
      "omer": 4678,
      "elp": 4679,
      "erson": 4680,
      "Ġfavorite": 4681,
      "ĠMinister": 4682,
      "stit": 4683,
      "Ġbigger": 4684,
      "Ġrabbit": 4685,
      "Ġeast": 4686,
      "Ġcrow": 4687,
      "Ġgeweld": 4688,
      "èµ°": 4689,
      "down": 4690,
      "erry": 4691,
      "Ġdem": 4692,
      "Ġstuk": 4693,
      "appen": 4694,
      "Ġban": 4695,
      "istory": 4696,
      "Ġimmedi": 4697,
      "Ġ2022": 4698,
      "Ġet": 4699,
      "iforn": 4700,
      "Ġshare": 4701,
      "ĠLo": 4702,
      "cel": 4703,
      "rec": 4704,
      "ĠMum": 4705,
      "iling": 4706,
      "Ġ26": 4707,
      "berg": 4708,
      "å®ŀ": 4709,
      "Ġmeis": 4710,
      "Ġ27": 4711,
      "Ġminder": 4712,
      "Ġradio": 4713,
      "ĠBobby": 4714,
      "Ġduh": 4715,
      "Ġplann": 4716,
      "æĪĲ": 4717,
      "kker": 4718,
      "Ġklaar": 4719,
      "Ġdirection": 4720,
      "GER": 4721,
      "Ġ$": 4722,
      "Ġrond": 4723,
      "Ġlid": 4724,
      "Ġ2011": 4725,
      "Un": 4726,
      "ĠSec": 4727,
      "Ġ28": 4728,
      "centr": 4729,
      "çĶ¨": 4730,
      "Ġ)": 4731,
      "eech": 4732,
      "Ġgeweest": 4733,
      "Ġearn": 4734,
      "Ġlargest": 4735,
      "æīĢ": 4736,
      "éĺ": 4737,
      "Ġmut": 4738,
      "Ġmatch": 4739,
      "Ġlief": 4740,
      "asant": 4741,
      "upid": 4742,
      "Ġcrack": 4743,
      "å®ļ": 4744,
      "Ġsleeping": 4745,
      "Ġjoined": 4746,
      "Ġsepar": 4747,
      "Ġchem": 4748,
      "Ġofficer": 4749,
      "Ġsevent": 4750,
      "ijken": 4751,
      "Ġwist": 4752,
      "Ġsens": 4753,
      "Ġmarket": 4754,
      "Ġsel": 4755,
      "Ġreden": 4756,
      "Ġenc": 4757,
      "assen": 4758,
      "Ġpurp": 4759,
      "æĤ¨": 4760,
      "Ġlower": 4761,
      "Ġarg": 4762,
      "Ġmeth": 4763,
      "Ġ2017": 4764,
      "Ġiron": 4765,
      "ĠSpanish": 4766,
      "Ġcorner": 4767,
      "Dank": 4768,
      "iction": 4769,
      "åıĳ": 4770,
      "Ġmonkey": 4771,
      "Ġcust": 4772,
      "asing": 4773,
      "uten": 4774,
      "ously": 4775,
      "è¡Į": 4776,
      "OW": 4777,
      "gin": 4778,
      "aded": 4779,
      "Ġkleine": 4780,
      "hood": 4781,
      "pret": 4782,
      "ari": 4783,
      "Ġdogg": 4784,
      "ests": 4785,
      "Ġspent": 4786,
      "Ġamount": 4787,
      "ashington": 4788,
      "Ġslowly": 4789,
      "han": 4790,
      "Ġnobody": 4791,
      "ĠOlymp": 4792,
      "ä»ĸä»¬": 4793,
      "Ġrecht": 4794,
      "rag": 4795,
      "cell": 4796,
      "ĠLou": 4797,
      "ensus": 4798,
      "Ġshows": 4799,
      "IM": 4800,
      "Ġcovered": 4801,
      "ĠMartin": 4802,
      "Pl": 4803,
      "antic": 4804,
      "ĠLa": 4805,
      "Ġdelight": 4806,
      "Ġpolitical": 4807,
      "æĦı": 4808,
      "Ġpra": 4809,
      "vert": 4810,
      "ĠMex": 4811,
      "Ġappar": 4812,
      "uits": 4813,
      "Ġpretend": 4814,
      "ĠNe": 4815,
      "ato": 4816,
      "Ġforest": 4817,
      "Ġinflu": 4818,
      "Ġstreng": 4819,
      "Ġwheel": 4820,
      "Ġsurprise": 4821,
      "æ´": 4822,
      "Ġnurs": 4823,
      "Ġdeed": 4824,
      "ĠMot": 4825,
      "ails": 4826,
      "Ġshowed": 4827,
      "Ġwid": 4828,
      "Ġviol": 4829,
      "Ġappe": 4830,
      "Ġespecially": 4831,
      "ĠLeague": 4832,
      "Ġtax": 4833,
      "Ġpound": 4834,
      "Ġstories": 4835,
      "Ġrob": 4836,
      "Ġspirit": 4837,
      "inary": 4838,
      "Ġlock": 4839,
      "Ġblocks": 4840,
      "ĠBetty": 4841,
      "Ġcivil": 4842,
      "Ġvroeg": 4843,
      "Ġanx": 4844,
      "ushing": 4845,
      "Ġ29": 4846,
      "Ġorganis": 4847,
      "ours": 4848,
      "Ġkrijgt": 4849,
      "kin": 4850,
      "Ġniks": 4851,
      "Ġrefer": 4852,
      "By": 4853,
      "bu": 4854,
      "Ġsac": 4855,
      "Ġvia": 4856,
      "oopt": 4857,
      "Ġjack": 4858,
      "äºĮ": 4859,
      "Ġfighting": 4860,
      "çŁ¥éģĵ": 4861,
      "Ġlichaam": 4862,
      "Ġplaced": 4863,
      "Ġpeace": 4864,
      "Ġbere": 4865,
      "igs": 4866,
      "Ġslight": 4867,
      "Ġhoeveel": 4868,
      "Ġjongen": 4869,
      "Geef": 4870,
      "Ġbud": 4871,
      "Ġbeetje": 4872,
      "ĠMil": 4873,
      "Ġasleep": 4874,
      "pping": 4875,
      "ibly": 4876,
      "Ġpicked": 4877,
      "å·±": 4878,
      "ache": 4879,
      "Ġbod": 4880,
      "ĠEuropean": 4881,
      "ĠCaliforn": 4882,
      "Ġkm": 4883,
      "urse": 4884,
      "ĠAnt": 4885,
      "ĠBill": 4886,
      "Ġtravel": 4887,
      "phone": 4888,
      "ç»ı": 4889,
      "rica": 4890,
      "Ġeggs": 4891,
      "eless": 4892,
      "Ġstone": 4893,
      "Ġrole": 4894,
      "Ġturning": 4895,
      "wise": 4896,
      "Ġep": 4897,
      "Ġformed": 4898,
      "Ġsituation": 4899,
      "åĢĻ": 4900,
      "Ġwaardoor": 4901,
      "Ġpolitician": 4902,
      "çİ°åľ¨": 4903,
      "ampionship": 4904,
      "ores": 4905,
      "wood": 4906,
      "Ġfright": 4907,
      "Ġspoon": 4908,
      "dam": 4909,
      "ç®": 4910,
      "Ġidee": 4911,
      "æĸ¹": 4912,
      "Give": 4913,
      "Ġreact": 4914,
      "ĠAlex": 4915,
      "ffic": 4916,
      "Ġsatisf": 4917,
      "cast": 4918,
      "Ġdeg": 4919,
      "Ġhadden": 4920,
      "Ġasking": 4921,
      "Ġmel": 4922,
      "Ġpan": 4923,
      "ĠBru": 4924,
      "Ġstarts": 4925,
      "Ġexperience": 4926,
      "Ġcrazy": 4927,
      "HAT": 4928,
      "Ġangry": 4929,
      "ĠLu": 4930,
      "Ġsurr": 4931,
      "Ġapart": 4932,
      "Tell": 4933,
      "Ġwide": 4934,
      "Ġthick": 4935,
      "ĠGra": 4936,
      "Ġklein": 4937,
      "ĠAustralia": 4938,
      "Ġsize": 4939,
      "ĠCouncil": 4940,
      "ĠEast": 4941,
      "ijna": 4942,
      "èĩªå·±": 4943,
      "Ġmedicine": 4944,
      "wanna": 4945,
      "Ġbite": 4946,
      "orthern": 4947,
      "order": 4948,
      "Ġhelped": 4949,
      "Ġbroad": 4950,
      "Ġphys": 4951,
      "Ġeffort": 4952,
      "Ġsla": 4953,
      "Ġthanks": 4954,
      "ography": 4955,
      "iw": 4956,
      "Ġnone": 4957,
      "Ġspring": 4958,
      "ĠAcad": 4959,
      "Hi": 4960,
      "Ġbattle": 4961,
      "Ġcaptain": 4962,
      "ett": 4963,
      "Ġheen": 4964,
      "Ġmogelijk": 4965,
      "Ġnatural": 4966,
      "Ġlikely": 4967,
      "lla": 4968,
      "Ġbey": 4969,
      "ĠSant": 4970,
      "produ": 4971,
      "Even": 4972,
      "Ġfresh": 4973,
      "ĠSl": 4974,
      "essie": 4975,
      "Ġfem": 4976,
      "Ġfool": 4977,
      "Ġkant": 4978,
      "Ġforty": 4979,
      "aped": 4980,
      "Ġdeter": 4981,
      "Ġhoud": 4982,
      "Ġear": 4983,
      "outhern": 4984,
      "Ġnemen": 4985,
      "Ġterrible": 4986,
      "Ġbeste": 4987,
      "ĠHenry": 4988,
      "car": 4989,
      "has": 4990,
      "âĢ": 4991,
      "Ġident": 4992,
      "Ġdirty": 4993,
      "aling": 4994,
      "ĠMother": 4995,
      "ĠDick": 4996,
      "Ġmanier": 4997,
      "Ġapple": 4998,
      "æīĵ": 4999,
      "Ġdemand": 5000,
      "ande": 5001,
      "ĠSan": 5002,
      "aving": 5003,
      "ĠFranc": 5004,
      "face": 5005,
      "Ġhost": 5006,
      "Ġeh": 5007,
      "Ġwonderful": 5008,
      "Ġee": 5009,
      "ĠMom": 5010,
      "ĠRed": 5011,
      "Ġgraag": 5012,
      "ï¿½ï¿½ï¿½ï¿½": 5013,
      "aa": 5014,
      "dd": 5015,
      "heden": 5016,
      "Ġ[?": 5017,
      "ĠIntern": 5018,
      "Ġ2014": 5019,
      "Sch": 5020,
      "Ġmum": 5021,
      "Ġwhisper": 5022,
      "Ġrose": 5023,
      "æľĢ": 5024,
      "Ġholds": 5025,
      "Ġcaused": 5026,
      "Ġooit": 5027,
      "ĠSunday": 5028,
      "OL": 5029,
      "iant": 5030,
      "nes": 5031,
      "éĽ": 5032,
      "ĠTV": 5033,
      "Ġaffect": 5034,
      "Ġentered": 5035,
      "incip": 5036,
      "Ġlearned": 5037,
      "AM": 5038,
      "Doe": 5039,
      "iar": 5040,
      "gev": 5041,
      "olutely": 5042,
      "ĠEm": 5043,
      "Misschien": 5044,
      "Ġcro": 5045,
      "Ġworse": 5046,
      "Ġkans": 5047,
      "æĹ¶åĢĻ": 5048,
      "Ġmodern": 5049,
      "five": 5050,
      "Ġbacter": 5051,
      "itude": 5052,
      "Ġger": 5053,
      "äºĽ": 5054,
      "ä½Ĩ": 5055,
      "Ġkaart": 5056,
      "Ġgebruiken": 5057,
      "Ġsimply": 5058,
      "lect": 5059,
      "rijven": 5060,
      "Ġchocolate": 5061,
      "200": 5062,
      "oven": 5063,
      "arah": 5064,
      "Ġcourt": 5065,
      "',": 5066,
      "inter": 5067,
      "Ġwarn": 5068,
      "Ġow": 5069,
      "ĠWashington": 5070,
      "Ġverw": 5071,
      "Ġnumbers": 5072,
      "Ġcho": 5073,
      "Ġchoo": 5074,
      "Ġcoast": 5075,
      "Ġemploy": 5076,
      "Ġstrength": 5077,
      "Geen": 5078,
      "avond": 5079,
      "Ġdirected": 5080,
      "Ġarrived": 5081,
      "Ġconsidered": 5082,
      "pa": 5083,
      "Ġziek": 5084,
      "Ġimm": 5085,
      "Ġdagen": 5086,
      "Ġhoog": 5087,
      "URS": 5088,
      "Ġligt": 5089,
      "åīį": 5090,
      "oet": 5091,
      "ç¬": 5092,
      "arts": 5093,
      "ĠLeg": 5094,
      "Ġbridge": 5095,
      "Ġloved": 5096,
      "Ġaction": 5097,
      "åħ¬": 5098,
      "Ġelephant": 5099,
      "Ġontw": 5100,
      "Ġweather": 5101,
      "Ġboek": 5102,
      "aanse": 5103,
      "hin": 5104,
      "Ġtalked": 5105,
      "Hallo": 5106,
      "vious": 5107,
      "olen": 5108,
      "akant": 5109,
      "ĠJesus": 5110,
      "Ġfeat": 5111,
      "these": 5112,
      "Ġrespons": 5113,
      "Ġwand": 5114,
      "Ġund": 5115,
      "Ġterms": 5116,
      "SC": 5117,
      "Ġsell": 5118,
      "ĠHall": 5119,
      "Ġexist": 5120,
      "Ġ2013": 5121,
      "Ver": 5122,
      "wr": 5123,
      "edy": 5124,
      "ularly": 5125,
      "hy": 5126,
      "æ±": 5127,
      "ĠMus": 5128,
      "Ġsmile": 5129,
      "å¦Ĥ": 5130,
      "Ġmilitary": 5131,
      "Ġlength": 5132,
      "è¢": 5133,
      "inct": 5134,
      "ening": 5135,
      "Ġgelijk": 5136,
      "Ġweap": 5137,
      "rap": 5138,
      "ijnen": 5139,
      "Ġblank": 5140,
      "Ġappl": 5141,
      "Ge": 5142,
      "Wacht": 5143,
      "Ġfol": 5144,
      "Ġang": 5145,
      "ago": 5146,
      "ateg": 5147,
      "Ġofficers": 5148,
      "Ġduty": 5149,
      "vell": 5150,
      "ĠChris": 5151,
      "Ġregard": 5152,
      "Ġclever": 5153,
      "cia": 5154,
      "kn": 5155,
      "Ã¶": 5156,
      "ĠOld": 5157,
      "ledge": 5158,
      "Ġsett": 5159,
      "30": 5160,
      "Ġbill": 5161,
      "Ġliter": 5162,
      "ĠRo": 5163,
      "Ġagreed": 5164,
      "ouwen": 5165,
      "Ġnature": 5166,
      "Ġoccasion": 5167,
      "ergy": 5168,
      "Ġwit": 5169,
      "Ġhiding": 5170,
      "arrow": 5171,
      "asons": 5172,
      "Ġvindt": 5173,
      "ĠAND": 5174,
      "Bed": 5175,
      "rees": 5176,
      "Ġaff": 5177,
      "åŃ¦": 5178,
      "oming": 5179,
      "Ġleader": 5180,
      "Ġtong": 5181,
      "Ġonge": 5182,
      "ental": 5183,
      "Ġdiscovered": 5184,
      "Her": 5185,
      "Ġtherefore": 5186,
      "Ġcoat": 5187,
      "Ġguard": 5188,
      "Ġproduced": 5189,
      "Ġsquare": 5190,
      "!'": 5191,
      "idden": 5192,
      "Ġcrit": 5193,
      "Ġinsp": 5194,
      "Ġstem": 5195,
      "ĠSim": 5196,
      "æĺİ": 5197,
      "Ġ2007": 5198,
      "ĠCanada": 5199,
      "Ġnineteen": 5200,
      "uin": 5201,
      "Ġsearch": 5202,
      "Ġ2016": 5203,
      "Ġspeaking": 5204,
      "åĨį": 5205,
      "ĠJapanese": 5206,
      "Ġbreath": 5207,
      "Ġbeyond": 5208,
      "Ġcouncil": 5209,
      "Ġzorgen": 5210,
      "zeg": 5211,
      "Ġbelieved": 5212,
      "ä¸ī": 5213,
      "voorbeeld": 5214,
      "Ġprotect": 5215,
      "ĠAcademy": 5216,
      "Listen": 5217,
      "Ġdrawing": 5218,
      "Ġconcl": 5219,
      "jebl": 5220,
      "Ġflying": 5221,
      "ĠGood": 5222,
      "Ġspend": 5223,
      "ĠAnn": 5224,
      "Sure": 5225,
      "lag": 5226,
      "Ġtower": 5227,
      "Ġlaid": 5228,
      "ola": 5229,
      "Ġmilj": 5230,
      "Ġjoin": 5231,
      "å¦Ī": 5232,
      "Peter": 5233,
      "Ġspeel": 5234,
      "Ġgrad": 5235,
      "Ġcorrect": 5236,
      "ziek": 5237,
      "Ġham": 5238,
      "Ġcru": 5239,
      "Ġrail": 5240,
      "Ġsongs": 5241,
      "ĠCalifornia": 5242,
      "noise": 5243,
      "ĠOok": 5244,
      "udd": 5245,
      "Ġvertellen": 5246,
      "Ġopport": 5247,
      "Ġtijdens": 5248,
      "rib": 5249,
      "wee": 5250,
      "Ġaud": 5251,
      "Ġhey": 5252,
      "Ġheet": 5253,
      "Ġvac": 5254,
      "ĠMed": 5255,
      "hered": 5256,
      "Ġpaint": 5257,
      "Ġwoods": 5258,
      "Ġmov": 5259,
      "ĠEgy": 5260,
      "Ġmeaning": 5261,
      "Ġ2012": 5262,
      "Ġdestroy": 5263,
      "'?": 5264,
      "Ġnaughty": 5265,
      "ida": 5266,
      "Ġplane": 5267,
      "Ġarrang": 5268,
      "ny": 5269,
      "Ġnest": 5270,
      "Ġlicht": 5271,
      "elly": 5272,
      "ĠLee": 5273,
      "Ġwelcome": 5274,
      "iÃ«n": 5275,
      "Ġhigher": 5276,
      "Tr": 5277,
      "four": 5278,
      "Ġteddy": 5279,
      "ĠBo": 5280,
      "Ġtotal": 5281,
      "Ġgroe": 5282,
      "Ġhotel": 5283,
      "Ġupstairs": 5284,
      "ĠJul": 5285,
      "Ġ2015": 5286,
      "Van": 5287,
      "Ġgele": 5288,
      "Ġclock": 5289,
      "issen": 5290,
      "umber": 5291,
      "Ġhers": 5292,
      "These": 5293,
      "Ġinterrupt": 5294,
      "Ġoppos": 5295,
      "Ġutter": 5296,
      "ĠNet": 5297,
      "istan": 5298,
      "Ġwerken": 5299,
      "mee": 5300,
      "Ġtiny": 5301,
      "Ġjaren": 5302,
      "Ġrap": 5303,
      "ĠCath": 5304,
      "ums": 5305,
      "inese": 5306,
      "Ġdriving": 5307,
      "Ġestab": 5308,
      "ĠFlorence": 5309,
      "Mom": 5310,
      "Would": 5311,
      "Ġroof": 5312,
      "Ġdate": 5313,
      "Ġmisschien": 5314,
      "Ġdressed": 5315,
      "iber": 5316,
      "æµ": 5317,
      "Ġpal": 5318,
      "Nothing": 5319,
      "Ġsimple": 5320,
      "Nou": 5321,
      "Pr": 5322,
      "Ġthreat": 5323,
      "ĠHere": 5324,
      "ppen": 5325,
      "ĠNa": 5326,
      "Ġcalling": 5327,
      "Does": 5328,
      "Ġmissing": 5329,
      "astern": 5330,
      "jeblieft": 5331,
      "Ġnam": 5332,
      "outs": 5333,
      "Ġnote": 5334,
      "big": 5335,
      "Ġlines": 5336,
      "Ġstupid": 5337,
      "Ġcloud": 5338,
      "ĠVer": 5339,
      "Ġolder": 5340,
      "Ġinformatie": 5341,
      "ups": 5342,
      "oups": 5343,
      "lem": 5344,
      "ements": 5345,
      "Ġaccident": 5346,
      "Ġtraining": 5347,
      "Ġnecessary": 5348,
      "åĿ": 5349,
      "Ġconv": 5350,
      "ĠCharles": 5351,
      "Pe": 5352,
      "aft": 5353,
      "arry": 5354,
      "ĠTony": 5355,
      "ĠCo": 5356,
      "Ġ2000": 5357,
      "Ġpublished": 5358,
      "Ġthuis": 5359,
      "cean": 5360,
      "ĠWhere": 5361,
      "Ġspeed": 5362,
      "aret": 5363,
      "Ġbackground": 5364,
      "Ġ2008": 5365,
      "John": 5366,
      "Very": 5367,
      "bel": 5368,
      "pot": 5369,
      "ester": 5370,
      "Ġmannen": 5371,
      "Ġcurrent": 5372,
      "è®©": 5373,
      "Lu": 5374,
      "mond": 5375,
      "asc": 5376,
      "Ġriv": 5377,
      "ikt": 5378,
      "Ġindivid": 5379,
      "è§ģ": 5380,
      "Ġprofessional": 5381,
      "imin": 5382,
      "ify": 5383,
      "oorten": 5384,
      "eman": 5385,
      "Ġgrond": 5386,
      "ĠIts": 5387,
      "Ġeasily": 5388,
      "Hou": 5389,
      "Two": 5390,
      "gent": 5391,
      "Ġpromise": 5392,
      "ä¸¤": 5393,
      "Ġassist": 5394,
      "Excuse": 5395,
      "alle": 5396,
      "Ġtrade": 5397,
      "Ġdifference": 5398,
      "Ġrelation": 5399,
      "Ġarticle": 5400,
      "Ġonto": 5401,
      "Ġstom": 5402,
      "ĠKen": 5403,
      "ĠStreet": 5404,
      "Ġ2009": 5405,
      "åĽł": 5406,
      "Ġraised": 5407,
      "Ġstrugg": 5408,
      "ĠSaturday": 5409,
      "ban": 5410,
      "ocht": 5411,
      "igd": 5412,
      "Ġplat": 5413,
      "Ġhandle": 5414,
      "rijd": 5415,
      "Ġcontact": 5416,
      "Ġgeluk": 5417,
      "ĠParis": 5418,
      "erved": 5419,
      "Ġopt": 5420,
      "]!": 5421,
      "Ġhoop": 5422,
      "ĠBilly": 5423,
      "Ġuitspra": 5424,
      "Ġscar": 5425,
      "Ġadvent": 5426,
      "Ġhappening": 5427,
      "uct": 5428,
      "roat": 5429,
      "Ġprobe": 5430,
      "Ġunless": 5431,
      "Ġskin": 5432,
      "Ġmooi": 5433,
      "ÃŃ": 5434,
      "Ġvijf": 5435,
      "Really": 5436,
      "Ġtaste": 5437,
      "Amer": 5438,
      "lim": 5439,
      "hest": 5440,
      "ä½łä»¬": 5441,
      "ĠCarol": 5442,
      "Ġeducation": 5443,
      "Mag": 5444,
      "Ġrough": 5445,
      "ĠCome": 5446,
      "ĠColl": 5447,
      "aud": 5448,
      "Ġescape": 5449,
      "Ġspelen": 5450,
      "Ġoffer": 5451,
      "Ġcheek": 5452,
      "Ġmotor": 5453,
      "sey": 5454,
      "Ġstraw": 5455,
      "ĠFirst": 5456,
      "Ġbren": 5457,
      "Ġ2006": 5458,
      "aties": 5459,
      "ĠTs": 5460,
      "Ġfalling": 5461,
      "Dr": 5462,
      "wat": 5463,
      "Ġclaim": 5464,
      "ĠStone": 5465,
      "annel": 5466,
      "Ġindepend": 5467,
      "Ġoriginal": 5468,
      "Ġvoedsel": 5469,
      "oured": 5470,
      "Ġeager": 5471,
      "berry": 5472,
      "Ġsnake": 5473,
      "ĠCharl": 5474,
      "Ġfamilie": 5475,
      "Ġbabies": 5476,
      "ĠPortug": 5477,
      "Ġstream": 5478,
      "ieten": 5479,
      "ĠRock": 5480,
      "Ġtrip": 5481,
      "Ġimmediately": 5482,
      "Cos": 5483,
      "every": 5484,
      "ube": 5485,
      "Ġtone": 5486,
      "Ġwoorden": 5487,
      "Ġcous": 5488,
      "ruction": 5489,
      "Ġbegrij": 5490,
      "Ġended": 5491,
      "Ġattract": 5492,
      "eken": 5493,
      "Ġnon": 5494,
      "ĠBro": 5495,
      "ĠCr": 5496,
      "esta": 5497,
      "Ġhistor": 5498,
      "Ġelke": 5499,
      "Ġ186": 5500,
      "ashion": 5501,
      "ĠKingdom": 5502,
      "Ġ:": 5503,
      "Ġaunt": 5504,
      "Ġoil": 5505,
      "Ġbijna": 5506,
      "rain": 5507,
      "Ġarch": 5508,
      "Ġimpro": 5509,
      "Leg": 5510,
      "Ġtv": 5511,
      "Ġhero": 5512,
      "Ġmeal": 5513,
      "Ġallow": 5514,
      "those": 5515,
      "ourt": 5516,
      "azing": 5517,
      "ephone": 5518,
      "Ġlijkt": 5519,
      "Ġkop": 5520,
      "Ġanywhere": 5521,
      "Ġbedroom": 5522,
      "Ġpulled": 5523,
      "Ġ~": 5524,
      "Ġgate": 5525,
      "ĠMel": 5526,
      "ĠPet": 5527,
      "ĠVol": 5528,
      "ĠState": 5529,
      "æŀľ": 5530,
      "Ġprivate": 5531,
      "ique": 5532,
      "Ġtight": 5533,
      "another": 5534,
      "onel": 5535,
      "elden": 5536,
      "ĠChe": 5537,
      "ucky": 5538,
      "Ġcontract": 5539,
      "Ġstarting": 5540,
      "Ġ40": 5541,
      "IF": 5542,
      "Ġdicht": 5543,
      "Ġthrew": 5544,
      "Ġkil": 5545,
      "ĠCO": 5546,
      "oughs": 5547,
      "Ġzelfs": 5548,
      "Ġinvolved": 5549,
      "æ¸": 5550,
      "ĠDem": 5551,
      "Ġthinks": 5552,
      "åĬ¨": 5553,
      "From": 5554,
      "Ġdrew": 5555,
      "isme": 5556,
      "icious": 5557,
      "alo": 5558,
      "ĠCup": 5559,
      "Ġverz": 5560,
      "Over": 5561,
      "Ġbound": 5562,
      "Ġthus": 5563,
      "Ġareas": 5564,
      "Ġplenty": 5565,
      "ption": 5566,
      "Ġhardly": 5567,
      "ĠAdam": 5568,
      "History": 5569,
      "Le": 5570,
      "ooi": 5571,
      "Ġshel": 5572,
      "Ġmovies": 5573,
      "Ġlion": 5574,
      "Ġlod": 5575,
      "utch": 5576,
      "Ġzee": 5577,
      "ĠMat": 5578,
      "ables": 5579,
      "Ġpa": 5580,
      "ĠPur": 5581,
      "Ġgehe": 5582,
      "Ġmult": 5583,
      "...?": 5584,
      "YOU": 5585,
      "ky": 5586,
      "mit": 5587,
      "Ġwoord": 5588,
      "Ġzag": 5589,
      "Ġadult": 5590,
      "Ġsupper": 5591,
      "ĠAfrica": 5592,
      "wich": 5593,
      "éļ": 5594,
      "erc": 5595,
      "Ġoccur": 5596,
      "Ġquarter": 5597,
      "ishes": 5598,
      "ĠWaar": 5599,
      "Mama": 5600,
      "Ġcircum": 5601,
      "Ġcrowd": 5602,
      "Ġrich": 5603,
      "Ġsugar": 5604,
      "Ġlights": 5605,
      "Ġzouden": 5606,
      ".,": 5607,
      "Qu": 5608,
      "opl": 5609,
      "Ġhadn": 5610,
      "Ġminister": 5611,
      "ĠWhite": 5612,
      "aign": 5613,
      "make": 5614,
      "ç«": 5615,
      "ĠPri": 5616,
      "ĠNed": 5617,
      "Ġgroups": 5618,
      "Ġcompletely": 5619,
      "Ġmama": 5620,
      "usion": 5621,
      "ĠGo": 5622,
      "osh": 5623,
      "gency": 5624,
      "Ġwatched": 5625,
      "utenant": 5626,
      "zicht": 5627,
      "Ġenige": 5628,
      "Ġrode": 5629,
      "å¥³": 5630,
      "Ġopening": 5631,
      "Ġdefin": 5632,
      "Bedankt": 5633,
      "DAD": 5634,
      "could": 5635,
      "mark": 5636,
      "rek": 5637,
      "Ġbru": 5638,
      "shire": 5639,
      "Ġsinger": 5640,
      "ĠRichard": 5641,
      "Ġknife": 5642,
      "ĠJwww": 5643,
      "Ġblind": 5644,
      "ensive": 5645,
      "Ġflight": 5646,
      "Deze": 5647,
      "Ġhuge": 5648,
      "bird": 5649,
      "Ġdust": 5650,
      "Ġbye": 5651,
      "åĲĮ": 5652,
      "ita": 5653,
      "Ġscience": 5654,
      "arliam": 5655,
      "Ġmeneer": 5656,
      "Tot": 5657,
      "oved": 5658,
      "Ġsoul": 5659,
      "Ġbatter": 5660,
      "Ġhoren": 5661,
      "Jullie": 5662,
      "Our": 5663,
      "lijke": 5664,
      "ä¾": 5665,
      "ĠÃ": 5666,
      "umper": 5667,
      "Ġappoint": 5668,
      "Ġmonster": 5669,
      "ENT": 5670,
      "Ġhouses": 5671,
      "dad": 5672,
      "iform": 5673,
      "ĠChinese": 5674,
      "è¢«": 5675,
      "host": 5676,
      "esp": 5677,
      "Ġpath": 5678,
      "ĠMany": 5679,
      "ĠHugh": 5680,
      "istics": 5681,
      "going": 5682,
      "iÃ«nt": 5683,
      "Ne": 5684,
      "Ġdinosaur": 5685,
      "arliament": 5686,
      "é£": 5687,
      "Ġwake": 5688,
      "Ġrout": 5689,
      "Ġprim": 5690,
      "åı¯ä»¥": 5691,
      "Ġgebeurt": 5692,
      "Am": 5693,
      "éĴ": 5694,
      "ĠOm": 5695,
      "rett": 5696,
      "Ġlocated": 5697,
      "ĠNorah": 5698,
      "åĹ": 5699,
      "aled": 5700,
      "Ġenergy": 5701,
      "ĠWik": 5702,
      "Ġarrest": 5703,
      "åĲĥ": 5704,
      "Ġmunicipality": 5705,
      "Wij": 5706,
      "bal": 5707,
      "Ġjour": 5708,
      "ĠMac": 5709,
      "äºİ": 5710,
      "ä»İ": 5711,
      "Ġsmart": 5712,
      "Ġpersonal": 5713,
      "Ġgeleden": 5714,
      "Ġmotion": 5715,
      "AI": 5716,
      "tr": 5717,
      "Ġchap": 5718,
      "Ġedge": 5719,
      "ĠEgypt": 5720,
      "Ġloss": 5721,
      "ĠIT": 5722,
      "Ġzoek": 5723,
      "Ġshirt": 5724,
      "ĠSpain": 5725,
      "Ġexplain": 5726,
      "Ġlucky": 5727,
      "Ġpurpose": 5728,
      "Ġcases": 5729,
      "Ġcensus": 5730,
      "ieke": 5731,
      "Ġprincip": 5732,
      "å¤ª": 5733,
      "Ġbeside": 5734,
      "Ġhill": 5735,
      "Which": 5736,
      "Mommy": 5737,
      "father": 5738,
      "maar": 5739,
      "Ġdieren": 5740,
      "Ġplain": 5741,
      "Ġslide": 5742,
      "ĠMichael": 5743,
      "col": 5744,
      "ĠAss": 5745,
      "urton": 5746,
      "Ġoccup": 5747,
      "Ġchanges": 5748,
      "Ġavail": 5749,
      "FRI": 5750,
      "fin": 5751,
      "Ġhm": 5752,
      "Ġvent": 5753,
      "Ġscient": 5754,
      "Ġsurv": 5755,
      "Ġtrem": 5756,
      "Ġcollect": 5757,
      "keep": 5758,
      "ĠMama": 5759,
      "ĠWil": 5760,
      "Ġruns": 5761,
      "Ġmountains": 5762,
      "Ġhonest": 5763,
      "HT": 5764,
      "cries": 5765,
      "kelijk": 5766,
      "ilig": 5767,
      "inder": 5768,
      "Ġamb": 5769,
      "Ġshoulder": 5770,
      "åĲ¬": 5771,
      "ĠChristian": 5772,
      "Aye": 5773,
      "èĤ": 5774,
      "oted": 5775,
      "veer": 5776,
      "Ġgoin": 5777,
      "Ġnotice": 5778,
      "brother": 5779,
      "Ġdenken": 5780,
      "Ġexcited": 5781,
      "sn": 5782,
      "ĠAward": 5783,
      "actually": 5784,
      "Ġdriver": 5785,
      "Ġearlier": 5786,
      "mie": 5787,
      "Ġwearing": 5788,
      "ĠScot": 5789,
      "reedom": 5790,
      "Ġorders": 5791,
      "Ġmethod": 5792,
      "uy": 5793,
      "Ġbuck": 5794,
      "ĠTer": 5795,
      "ellig": 5796,
      "Ġschools": 5797,
      "ĠRussian": 5798,
      "èº": 5799,
      "Ġstre": 5800,
      "Ġcolors": 5801,
      "Ġmissed": 5802,
      "Ġsides": 5803,
      "Ġharm": 5804,
      "Ġvond": 5805,
      "Ġmostly": 5806,
      "ibility": 5807,
      "SE": 5808,
      "ĠLat": 5809,
      "Ġtells": 5810,
      "ontin": 5811,
      "Ġgebied": 5812,
      "Mrs": 5813,
      "Ġsteps": 5814,
      "Ġdevelopment": 5815,
      "Ġaang": 5816,
      "erst": 5817,
      "Ġogen": 5818,
      "Ġstret": 5819,
      "Ġbutton": 5820,
      "aalde": 5821,
      "æīĭ": 5822,
      "Ġontwikk": 5823,
      "iate": 5824,
      "Ġdun": 5825,
      "rake": 5826,
      "Ġshoe": 5827,
      "å¸Ī": 5828,
      "Ġawful": 5829,
      "Ġapproach": 5830,
      "UT": 5831,
      "Ġcart": 5832,
      "Ġcrew": 5833,
      "opt": 5834,
      "ria": 5835,
      "ocrat": 5836,
      "æī¾": 5837,
      "yer": 5838,
      "elet": 5839,
      "ĠHigh": 5840,
      "Ġenk": 5841,
      "ĠFather": 5842,
      "Ġspell": 5843,
      "weg": 5844,
      "ĠItalian": 5845,
      "ĠFrancis": 5846,
      "Zeg": 5847,
      "owel": 5848,
      "Ġstates": 5849,
      "ittee": 5850,
      "Ġfounded": 5851,
      "Ġfellows": 5852,
      "Welke": 5853,
      "Ġverhaal": 5854,
      "Ġannounced": 5855,
      "ials": 5856,
      "ucht": 5857,
      "Ġtap": 5858,
      "Ġredu": 5859,
      "ĠTheir": 5860,
      "--\"": 5861,
      "Ġsmoke": 5862,
      "Ġcheer": 5863,
      "ĠWho": 5864,
      "Dad": 5865,
      "fe": 5866,
      "Ġtou": 5867,
      "ĠMaster": 5868,
      "ĠBessie": 5869,
      "oemd": 5870,
      "gl": 5871,
      "Ġhello": 5872,
      "ĠDoor": 5873,
      "ops": 5874,
      "Ġuncle": 5875,
      "Ġexpected": 5876,
      "Sc": 5877,
      "icans": 5878,
      "Ġeleven": 5879,
      "Ġniemand": 5880,
      "AC": 5881,
      "ĠMic": 5882,
      "ĠAre": 5883,
      "ĠDen": 5884,
      "ĠON": 5885,
      "Ġproud": 5886,
      "éĹ®": 5887,
      "picks": 5888,
      "Ġboss": 5889,
      "Ġmir": 5890,
      "Ġkort": 5891,
      "ente": 5892,
      "Ġdoc": 5893,
      "ĠAz": 5894,
      "Ġsurprised": 5895,
      "Ġdangerous": 5896,
      "Ġprepared": 5897,
      "va": 5898,
      "Ġtaught": 5899,
      "heart": 5900,
      "Ġemer": 5901,
      "ĠSal": 5902,
      "Ġrug": 5903,
      "Ġremain": 5904,
      "Ġcarefully": 5905,
      "HÃ©": 5906,
      "gain": 5907,
      "ĠST": 5908,
      "Ġgezeg": 5909,
      "Ġpercent": 5910,
      "ĠBrown": 5911,
      "Ġversion": 5912,
      "Ġtim": 5913,
      "Ġhi": 5914,
      "Ġnomin": 5915,
      "Ġweight": 5916,
      "ĠDie": 5917,
      "Ġtwice": 5918,
      "Ġgenerally": 5919,
      "Ġtradition": 5920,
      "May": 5921,
      "åĺ": 5922,
      "icated": 5923,
      "rol": 5924,
      "ĠSus": 5925,
      "Ġforces": 5926,
      "Ġagree": 5927,
      "iana": 5928,
      "Ġscream": 5929,
      "Ġontstaan": 5930,
      "é¡": 5931,
      "orough": 5932,
      "Ġforth": 5933,
      "Ġphot": 5934,
      "âĢķ": 5935,
      "GE": 5936,
      "gress": 5937,
      "ĠAir": 5938,
      "illa": 5939,
      "cles": 5940,
      "ety": 5941,
      "ĠSov": 5942,
      "ĠRay": 5943,
      "ĠFrom": 5944,
      "Ġbijvoorbeeld": 5945,
      "åıĪ": 5946,
      "werp": 5947,
      "Ġhurry": 5948,
      "Ġaward": 5949,
      "otion": 5950,
      "Ġspread": 5951,
      "deel": 5952,
      "ruk": 5953,
      "Ġlog": 5954,
      "ossible": 5955,
      "åĪĨ": 5956,
      "åħ¶": 5957,
      "Ġobviously": 5958,
      "Ġfilled": 5959,
      "Ġmiljoen": 5960,
      "ĠAct": 5961,
      "ä½ľ": 5962,
      "Ġactor": 5963,
      "å¤´": 5964,
      "Ġcommunity": 5965,
      "Ġ2001": 5966,
      "Ġ2004": 5967,
      "ĠâĮ": 5968,
      "pet": 5969,
      "orden": 5970,
      "Ġfaith": 5971,
      "ammy": 5972,
      "Ġscene": 5973,
      "Ġunc": 5974,
      "Ġbestaat": 5975,
      "ĠScott": 5976,
      "èĢĮ": 5977,
      "Ġempty": 5978,
      "KE": 5979,
      "boy": 5980,
      "counter": 5981,
      "tje": 5982,
      "Ġvakant": 5983,
      "Ġweak": 5984,
      "ĠDNA": 5985,
      "ĠEarth": 5986,
      "ĠYour": 5987,
      "Ġcraw": 5988,
      "Ġpil": 5989,
      "Ġheat": 5990,
      "Ġander": 5991,
      "ĠSoc": 5992,
      "æĹģ": 5993,
      "ĠIsland": 5994,
      "Ġguns": 5995,
      "Ġplanten": 5996,
      "Ġjongens": 5997,
      "Ġstruct": 5998,
      "Ġsuggested": 5999,
      "aad": 6000,
      "ala": 6001,
      "sters": 6002,
      "ĠBig": 6003,
      "ante": 6004,
      "Ġchoose": 6005,
      "Ġgegeven": 6006,
      "Ġbrush": 6007,
      "Ġuitge": 6008,
      "æŃ£": 6009,
      "Ġeeuw": 6010,
      "Ġbat": 6011,
      "urry": 6012,
      "ĠNesta": 6013,
      "oking": 6014,
      "ĠOver": 6015,
      "Ġpleasure": 6016,
      "komst": 6017,
      "Ġaand": 6018,
      "ini": 6019,
      "isn": 6020,
      "Ġlift": 6021,
      "ĠLittle": 6022,
      "Ġmeisje": 6023,
      "dog": 6024,
      "kl": 6025,
      "ette": 6026,
      "ĠBest": 6027,
      "Ġbetek": 6028,
      "Ġflag": 6029,
      "Ġregular": 6030,
      "åħ³": 6031,
      "ification": 6032,
      "Bob": 6033,
      "LY": 6034,
      "sil": 6035,
      "Ġnacht": 6036,
      "Thomas": 6037,
      "Ġevidence": 6038,
      "Ġjumped": 6039,
      "izing": 6040,
      "Ġcontinues": 6041,
      "éĹ´": 6042,
      "iens": 6043,
      "Ġpair": 6044,
      "Ġexpand": 6045,
      "Ġgevonden": 6046,
      "æ¯Ķ": 6047,
      "vocalizes": 6048,
      "zil": 6049,
      "æĽ": 6050,
      "Ġbin": 6051,
      "Ġpin": 6052,
      "abr": 6053,
      "uckles": 6054,
      "Ġclimb": 6055,
      "ç§į": 6056,
      "ĠMal": 6057,
      "ĠAB": 6058,
      "Ġplans": 6059,
      "ighs": 6060,
      "Ġlistening": 6061,
      "vir": 6062,
      "ora": 6063,
      "Ġpool": 6064,
      "Ġlips": 6065,
      "ĠEleanor": 6066,
      "Ġusual": 6067,
      "Ġpersoon": 6068,
      "sych": 6069,
      "Ġhoudt": 6070,
      "ispers": 6071,
      "orst": 6072,
      "Ġheads": 6073,
      "Ġpolic": 6074,
      "Ġhalen": 6075,
      "ummie": 6076,
      "Never": 6077,
      "è¶": 6078,
      "ella": 6079,
      "ĠJo": 6080,
      "essed": 6081,
      "Ġtroops": 6082,
      "Ġbegins": 6083,
      "Ġseconds": 6084,
      "Ġdollar": 6085,
      "Ġcookie": 6086,
      "win": 6087,
      "Ġtur": 6088,
      "onse": 6089,
      "ĠBE": 6090,
      "geant": 6091,
      "ropical": 6092,
      "åŁ": 6093,
      "Ġdouble": 6094,
      "elle": 6095,
      "Ġneedta": 6096,
      "ĠEurop": 6097,
      "Ġstruck": 6098,
      "Ġargument": 6099,
      "Ġshr": 6100,
      "Ġsaved": 6101,
      "Ġspoken": 6102,
      "Ġtrick": 6103,
      "ords": 6104,
      "aws": 6105,
      "Ġsymb": 6106,
      "Ġfallen": 6107,
      "ĠConf": 6108,
      "Ġholiday": 6109,
      "ç¾": 6110,
      "Ġtoil": 6111,
      "Ġrot": 6112,
      "Ġ190": 6113,
      "ĠFriday": 6114,
      "Ġ2005": 6115,
      "Ġelection": 6116,
      "Help": 6117,
      "Ġcy": 6118,
      "Ġpak": 6119,
      "ĠRoger": 6120,
      "Ġspr": 6121,
      "Ġdirector": 6122,
      "Ġtelephone": 6123,
      "won": 6124,
      "Ġess": 6125,
      "Ġtro": 6126,
      "Ġinj": 6127,
      "inda": 6128,
      "ĠJose": 6129,
      "Ġvooral": 6130,
      "ĠChild": 6131,
      "Ġklas": 6132,
      "jorie": 6133,
      "Ġimagine": 6134,
      "Could": 6135,
      "west": 6136,
      "Ġobl": 6137,
      "Ġgevol": 6138,
      "Ġzoon": 6139,
      "puts": 6140,
      "Ġships": 6141,
      "Ġrocks": 6142,
      "uig": 6143,
      "xim": 6144,
      "Ġsour": 6145,
      "ĠRome": 6146,
      "Ġmission": 6147,
      "âĮĭ": 6148,
      "Ġrapid": 6149,
      "Ġaver": 6150,
      "itation": 6151,
      "Ġthroat": 6152,
      "ĠFin": 6153,
      "whisper": 6154,
      "ennen": 6155,
      "Ġpractice": 6156,
      "Ġgang": 6157,
      "Ġfault": 6158,
      "Ġles": 6159,
      "Ġrate": 6160,
      "Ġblad": 6161,
      "Ġgrowing": 6162,
      "Ġteams": 6163,
      "Ġveget": 6164,
      "Ġmistake": 6165,
      "Ġresearch": 6166,
      "Ġnursery": 6167,
      "Ġavailable": 6168,
      "iated": 6169,
      "ero": 6170,
      "raft": 6171,
      "Ġgrown": 6172,
      "Ġmovement": 6173,
      "Ġpromised": 6174,
      "Ġfifteen": 6175,
      "ares": 6176,
      "Ġinh": 6177,
      "oorz": 6178,
      "uiten": 6179,
      "Ġfixed": 6180,
      "Ġideas": 6181,
      "Ġcrayon": 6182,
      "iance": 6183,
      "atives": 6184,
      "Ġhug": 6185,
      "ĠGro": 6186,
      "apa": 6187,
      "ĠEllen": 6188,
      "Ġgrot": 6189,
      "Ġbits": 6190,
      "Ġkeeping": 6191,
      "Ġdiag": 6192,
      "Ġbekend": 6193,
      "rant": 6194,
      "Ġta": 6195,
      "ators": 6196,
      "ona": 6197,
      "asp": 6198,
      "ĠMos": 6199,
      "abet": 6200,
      "Ã«n": 6201,
      "éĤ£ä¸ª": 6202,
      "Ġlanguages": 6203,
      "Ġswimming": 6204,
      "VAL": 6205,
      "æĻ": 6206,
      "ĠME": 6207,
      "ols": 6208,
      "enda": 6209,
      "Ġsees": 6210,
      "Ġelectric": 6211,
      "ule": 6212,
      "ville": 6213,
      "itor": 6214,
      "urity": 6215,
      "onde": 6216,
      "Ġfourth": 6217,
      "Ġmagaz": 6218,
      "Ġgesl": 6219,
      "ĠPeople": 6220,
      "Ġmicrophone": 6221,
      "midd": 6222,
      "zij": 6223,
      "Ġtoast": 6224,
      "omme": 6225,
      "think": 6226,
      "Ġmanner": 6227,
      "genomen": 6228,
      "werk": 6229,
      "Ġbrave": 6230,
      "FAD": 6231,
      "Ġvre": 6232,
      "Ġkree": 6233,
      "ĠGeef": 6234,
      "ĠKe": 6235,
      "geten": 6236,
      "Ġdenkt": 6237,
      "åºĶ": 6238,
      "ĠItaly": 6239,
      "his": 6240,
      "ĠCor": 6241,
      "olic": 6242,
      "onds": 6243,
      "angers": 6244,
      "ĠVir": 6245,
      "Ġwerkt": 6246,
      "Ġcampaign": 6247,
      "Ġsuccessful": 6248,
      "Ġdeterm": 6249,
      "bra": 6250,
      "gem": 6251,
      "uro": 6252,
      "enth": 6253,
      "Ġplants": 6254,
      "Ġqual": 6255,
      "Ġchoice": 6256,
      "ga": 6257,
      "su": 6258,
      "Ġox": 6259,
      "reven": 6260,
      "Ġgat": 6261,
      "Ġmoeil": 6262,
      "ĠSamuel": 6263,
      "Ġgezegd": 6264,
      "bank": 6265,
      "jo": 6266,
      "Ġast": 6267,
      "aked": 6268,
      "Ġstudio": 6269,
      "Ġabsolutely": 6270,
      "Ġoude": 6271,
      "Ġvandaag": 6272,
      "Ġgeweldig": 6273,
      "Ste": 6274,
      "rid": 6275,
      "sure": 6276,
      "Ġsite": 6277,
      "Ġrisk": 6278,
      "oln": 6279,
      "Ġwilling": 6280,
      "izza": 6281,
      "Ġdecision": 6282,
      "åĹ¯": 6283,
      "Ġfund": 6284,
      "asy": 6285,
      "Alles": 6286,
      "ELL": 6287,
      "Ġbowl": 6288,
      "ios": 6289,
      "èĬ": 6290,
      "ushes": 6291,
      "Ġshore": 6292,
      "ulf": 6293,
      "Ġcalls": 6294,
      "Ġwriter": 6295,
      "Ġassoc": 6296,
      "Ġparticularly": 6297,
      "Ġdeveloped": 6298,
      "æ¬¡": 6299,
      "gra": 6300,
      "making": 6301,
      "arily": 6302,
      "ĠSen": 6303,
      "Ġschat": 6304,
      "Ġeaten": 6305,
      "Ġpolicy": 6306,
      "Ġpuppet": 6307,
      "Ġrare": 6308,
      "Ġprevent": 6309,
      "å¿«": 6310,
      "Ġconcerned": 6311,
      "BA": 6312,
      "Ġach": 6313,
      "itar": 6314,
      "Ġrights": 6315,
      "Ġlanden": 6316,
      "Ġcentre": 6317,
      "è§īå¾Ĺ": 6318,
      "Ġtongue": 6319,
      "Ġjourney": 6320,
      "rot": 6321,
      "Ġbother": 6322,
      "Ġmorgen": 6323,
      "ĠMount": 6324,
      "odat": 6325,
      "æĶ¾": 6326,
      "Ġfemale": 6327,
      "First": 6328,
      "Ġsum": 6329,
      "ede": 6330,
      "Ġpad": 6331,
      "stad": 6332,
      "ĠComp": 6333,
      "should": 6334,
      "è¿Ľ": 6335,
      "Ġbesl": 6336,
      "Ġevents": 6337,
      "Ġtar": 6338,
      "illed": 6339,
      "ĠRec": 6340,
      "quar": 6341,
      "Ġmanaged": 6342,
      "Ġshouted": 6343,
      "onday": 6344,
      "ordon": 6345,
      "looking": 6346,
      "å¹²": 6347,
      "Ġincluded": 6348,
      "minist": 6349,
      "Ġfirm": 6350,
      "bouw": 6351,
      "ses": 6352,
      "Ġlopen": 6353,
      "Ġinn": 6354,
      "Ġrange": 6355,
      "using": 6356,
      "ĠUncle": 6357,
      "Ġcommun": 6358,
      "ĠBear": 6359,
      "Ġdollars": 6360,
      "incoln": 6361,
      "Ġservices": 6362,
      "Ġkoning": 6363,
      "Ġongeveer": 6364,
      "Ġhom": 6365,
      "Ġmoves": 6366,
      "Ġopge": 6367,
      "while": 6368,
      "Ġbenef": 6369,
      "ĠAtl": 6370,
      "ĠRoyal": 6371,
      "23": 6372,
      "25": 6373,
      "bon": 6374,
      "é«": 6375,
      "sta": 6376,
      "Ġdeliver": 6377,
      "Ġofficial": 6378,
      "Ġladies": 6379,
      "bro": 6380,
      "dro": 6381,
      "zien": 6382,
      "Ġpill": 6383,
      "Ġken": 6384,
      "aine": 6385,
      "Ġteken": 6386,
      "Ġcarrying": 6387,
      "äºĨæĪĳ": 6388,
      "Ġeasier": 6389,
      "Ġoorlog": 6390,
      "Ġtitle": 6391,
      "El": 6392,
      "bare": 6393,
      "sequ": 6394,
      "ĠDep": 6395,
      "ĠNick": 6396,
      "Ġsav": 6397,
      "Ġ()": 6398,
      "whoops": 6399,
      "æľ¬": 6400,
      "Ġenter": 6401,
      "Ġ1990": 6402,
      "Ġdrinking": 6403,
      "âĮī": 6404,
      "Ġouders": 6405,
      "æ³ķ": 6406,
      "40": 6407,
      "Ġkee": 6408,
      "ented": 6409,
      "Ġourselves": 6410,
      "elebr": 6411,
      "å®ĥ": 6412,
      "after": 6413,
      "ĠArmy": 6414,
      "Ġelders": 6415,
      "fly": 6416,
      "mans": 6417,
      "oly": 6418,
      "Ġtiger": 6419,
      "Ġding": 6420,
      "Ġdise": 6421,
      "Ġjoy": 6422,
      "anda": 6423,
      "Ġshown": 6424,
      "Ġordered": 6425,
      "Ġrule": 6426,
      "Ġninety": 6427,
      "ĠMexico": 6428,
      "yr": 6429,
      "Ġpants": 6430,
      "ĠSarah": 6431,
      "Ġdancing": 6432,
      "Ġaccording": 6433,
      "schijn": 6434,
      "Ġexplained": 6435,
      "ĠBlackie": 6436,
      "wijl": 6437,
      "æĦŁ": 6438,
      "çĦ¶åĲİ": 6439,
      "ĠQueen": 6440,
      "çĭ": 6441,
      "eland": 6442,
      "Ġactress": 6443,
      "Ġ189": 6444,
      "ĠAnnie": 6445,
      "ipper": 6446,
      "Ġruim": 6447,
      "Ġvrienden": 6448,
      "é«ĺ": 6449,
      "IR": 6450,
      "Man": 6451,
      "ena": 6452,
      "Ġgeef": 6453,
      "Ġneg": 6454,
      "åħĪ": 6455,
      "Ġbrain": 6456,
      "çŃī": 6457,
      "ĠBrazil": 6458,
      "edia": 6459,
      "alf": 6460,
      "ĠLaw": 6461,
      "Ġprice": 6462,
      "ĠZo": 6463,
      "Ġacqu": 6464,
      "Ġshopping": 6465,
      "Ġsociety": 6466,
      "ä¿¡": 6467,
      "Ġdeclared": 6468,
      "Ġopportunity": 6469,
      "æĹģçĻ½": 6470,
      "reken": 6471,
      "ä»Ĭ": 6472,
      "Ġpleased": 6473,
      "ĠSmith": 6474,
      "cream": 6475,
      "Ġbike": 6476,
      "Ġfant": 6477,
      "ĠBurton": 6478,
      "aging": 6479,
      "ĠDun": 6480,
      "Ġsake": 6481,
      "Ġspeech": 6482,
      "ĠOK": 6483,
      "Ġlekker": 6484,
      "Ġsettle": 6485,
      "Chris": 6486,
      "Ġvrouwen": 6487,
      "Ġnormal": 6488,
      "Got": 6489,
      "squ": 6490,
      "sorry": 6491,
      "Ġpour": 6492,
      "idelijk": 6493,
      "Ġalarm": 6494,
      "Ġuniversity": 6495,
      "Ġsurface": 6496,
      "Ġverkl": 6497,
      "Ġancient": 6498,
      "itely": 6499,
      "ĠBird": 6500,
      "Ġkinds": 6501,
      "Ġ2003": 6502,
      "Ġ188": 6503,
      "Ġsmaller": 6504,
      "Ġleading": 6505,
      "Ġcalm": 6506,
      "Ġmixed": 6507,
      "èº«": 6508,
      "EA": 6509,
      "cod": 6510,
      "lin": 6511,
      "ingu": 6512,
      "ĠWay": 6513,
      "Ġmessage": 6514,
      "Ġmentioned": 6515,
      "cut": 6516,
      "Ġverg": 6517,
      "ĠEmp": 6518,
      "itte": 6519,
      "blue": 6520,
      "Ġontmo": 6521,
      "Ġgebeurd": 6522,
      "Bet": 6523,
      "rs": 6524,
      "Ġtie": 6525,
      "Ġsoms": 6526,
      "aly": 6527,
      "Ġbeide": 6528,
      "Ġdeck": 6529,
      "ĠSummer": 6530,
      "ĠBu": 6531,
      "Ġash": 6532,
      "ĠPak": 6533,
      "istry": 6534,
      "Ġnewsp": 6535,
      "hee": 6536,
      "itie": 6537,
      "Ġcong": 6538,
      "iezen": 6539,
      "ĠCong": 6540,
      "ĠDutch": 6541,
      "acks": 6542,
      "ä¸»": 6543,
      "Ġgoodness": 6544,
      "ĠChampionship": 6545,
      "Ġminuten": 6546,
      "Ġpurple": 6547,
      "Laten": 6548,
      "Te": 6549,
      "little": 6550,
      "ym": 6551,
      "icole": 6552,
      "ĠPal": 6553,
      "Ġexec": 6554,
      "Ġcenter": 6555,
      "ournal": 6556,
      "éĥ": 6557,
      "Ġboo": 6558,
      "Ġrow": 6559,
      "Ġdesp": 6560,
      "Ġresc": 6561,
      "Ġfalls": 6562,
      "ĠGrandma": 6563,
      "ceeded": 6564,
      "ĠWelke": 6565,
      "oons": 6566,
      "isy": 6567,
      "aries": 6568,
      "Ġneither": 6569,
      "Ġdownstairs": 6570,
      "Ġcomplete": 6571,
      "opher": 6572,
      "ĠGreen": 6573,
      "Ġexamen": 6574,
      "Ġaged": 6575,
      "Ġbloody": 6576,
      "Ġhighest": 6577,
      "uf": 6578,
      "ÉĻ": 6579,
      "Ġdoors": 6580,
      "è¿Ļä¹Ī": 6581,
      "ĠSchrijf": 6582,
      "Ġinternational": 6583,
      "ences": 6584,
      "Ġleren": 6585,
      "ĠDis": 6586,
      "zeker": 6587,
      "Ġwalls": 6588,
      "çĽ¸": 6589,
      "Kan": 6590,
      "Ph": 6591,
      "fessor": 6592,
      "anen": 6593,
      "Ġfashion": 6594,
      "Ġlap": 6595,
      "Ġnoticed": 6596,
      "ĠNoord": 6597,
      "Ġtweed": 6598,
      "ples": 6599,
      "Ġremained": 6600,
      "Ġcousin": 6601,
      "hum": 6602,
      "vey": 6603,
      "Ġstyle": 6604,
      "Ġenorm": 6605,
      "uhuh": 6606,
      "ommige": 6607,
      "ĠRepublic": 6608,
      "Ġpause": 6609,
      "ĠTex": 6610,
      "Ġopin": 6611,
      "Ġ31": 6612,
      "åĬĽ": 6613,
      "yal": 6614,
      "Ġtries": 6615,
      "Ġoog": 6616,
      "amma": 6617,
      "Ġzat": 6618,
      "ĠDid": 6619,
      "Ġprobleem": 6620,
      "çĶµ": 6621,
      "Ġexperiment": 6622,
      "Ġblijft": 6623,
      "Ġfairly": 6624,
      "Ġstairs": 6625,
      "umn": 6626,
      "Ġstayed": 6627,
      "ĠSteven": 6628,
      "Ġmaterial": 6629,
      "Ġwan": 6630,
      "Ġshake": 6631,
      "ĠLincoln": 6632,
      "Ġkrijg": 6633,
      "Perhaps": 6634,
      "é©": 6635,
      "éĶ": 6636,
      "Ġsen": 6637,
      "Ġbug": 6638,
      "Ġpages": 6639,
      "alph": 6640,
      "ading": 6641,
      "Ġrelated": 6642,
      "III": 6643,
      "çĲĨ": 6644,
      "fall": 6645,
      "yon": 6646,
      "ani": 6647,
      "ĠCourt": 6648,
      "iano": 6649,
      "Ġfinding": 6650,
      "å·²": 6651,
      "å£": 6652,
      "Ġcities": 6653,
      "ĠDay": 6654,
      "ective": 6655,
      "Ġeverywhere": 6656,
      "Ġresponse": 6657,
      "Ġcondition": 6658,
      "Ġbetekent": 6659,
      "Jack": 6660,
      "Toen": 6661,
      "wing": 6662,
      "itter": 6663,
      "Ġcellen": 6664,
      "etch": 6665,
      "Ġvess": 6666,
      "icago": 6667,
      "chan": 6668,
      "Ġafford": 6669,
      "erences": 6670,
      "ĠAfrican": 6671,
      "Ġgehad": 6672,
      "+~": 6673,
      "Sir": 6674,
      "Ġbunny": 6675,
      "omed": 6676,
      "Ġvog": 6677,
      "Ġ..": 6678,
      "ĠChurch": 6679,
      "Ġepis": 6680,
      "People": 6681,
      "Ġrelationship": 6682,
      "\"'": 6683,
      "mes": 6684,
      "Ġinqu": 6685,
      "adow": 6686,
      "Ġknee": 6687,
      "icked": 6688,
      "Ġmeeste": 6689,
      "Ġrepeated": 6690,
      "ĠTsar": 6691,
      "Ġbump": 6692,
      "Ġmor": 6693,
      "Ġcit": 6694,
      "Ġghost": 6695,
      "sect": 6696,
      "ĠArab": 6697,
      "Ġlever": 6698,
      "å°ıåŃ©": 6699,
      "è¾¹": 6700,
      "Ġremarked": 6701,
      "----------------": 6702,
      "åĽłä¸º": 6703,
      "loop": 6704,
      "reden": 6705,
      "lly": 6706,
      "enten": 6707,
      "Ġstoffen": 6708,
      "Ġnovel": 6709,
      "Ġrestaur": 6710,
      "Ġinvestig": 6711,
      "å¸¸": 6712,
      "Ġimpossible": 6713,
      "Ġproperly": 6714,
      "ĠMaggie": 6715,
      "Luister": 6716,
      "vels": 6717,
      "èĭ": 6718,
      "Ġtum": 6719,
      "Ġfought": 6720,
      "Ġbeer": 6721,
      "Ġveroorz": 6722,
      "å·¥": 6723,
      "Ġsoldier": 6724,
      "Che": 6725,
      "EC": 6726,
      "Gen": 6727,
      "ION": 6728,
      "_,": 6729,
      "rad": 6730,
      "æģ": 6731,
      "oned": 6732,
      "ĠDolly": 6733,
      "akker": 6734,
      "Ġupset": 6735,
      "Ġknowledge": 6736,
      "Ġwelk": 6737,
      "è¿Ļæł·": 6738,
      "ĠJean": 6739,
      "çĪ¸": 6740,
      "Ġgentleman": 6741,
      "Ġappearance": 6742,
      "nic": 6743,
      "wan": 6744,
      "isa": 6745,
      "Ġpor": 6746,
      "ĠSea": 6747,
      "Ġworried": 6748,
      "ĠEric": 6749,
      "Ġboats": 6750,
      "ephen": 6751,
      "Ġelected": 6752,
      "aval": 6753,
      "æīį": 6754,
      "Ġfailed": 6755,
      "bar": 6756,
      "æį": 6757,
      "Ġdiam": 6758,
      "Ġzoeken": 6759,
      "Ġwheels": 6760,
      "Ġaddition": 6761,
      "Ġpencil": 6762,
      "Ġquietly": 6763,
      "Ġsna": 6764,
      "Ġhorn": 6765,
      "Ġvir": 6766,
      "six": 6767,
      "uke": 6768,
      "incess": 6769,
      "atory": 6770,
      "Ġpas": 6771,
      "Ġnut": 6772,
      "Ġnarrow": 6773,
      "ĠIr": 6774,
      "Ġvle": 6775,
      "Ġvocal": 6776,
      "ĠRose": 6777,
      "ension": 6778,
      "ä½ĵ": 6779,
      "Ġshowing": 6780,
      "offrey": 6781,
      "Ġcontinue": 6782,
      "ĠBritain": 6783,
      "Ġmodel": 6784,
      "cely": 6785,
      "ners": 6786,
      "vy": 6787,
      "isher": 6788,
      "Ġnurse": 6789,
      "stood": 6790,
      "agement": 6791,
      "epen": 6792,
      "weet": 6793,
      "athan": 6794,
      "199": 6795,
      "Ġaddress": 6796,
      "Maak": 6797,
      "ju": 6798,
      "Ġkamer": 6799,
      "action": 6800,
      "Ġnative": 6801,
      "Ġpossibly": 6802,
      "ĠCanad": 6803,
      "æŁ": 6804,
      "Ġwolf": 6805,
      "alled": 6806,
      "each": 6807,
      "Ġzoveel": 6808,
      "ĠGovernment": 6809,
      "ias": 6810,
      "çķ": 6811,
      "Ġcards": 6812,
      "Ġinit": 6813,
      "ijst": 6814,
      "ĠRight": 6815,
      "Ġfrightened": 6816,
      "Say": 6817,
      "rum": 6818,
      "Ġ/": 6819,
      "Ġmouse": 6820,
      "otte": 6821,
      "ĠEvery": 6822,
      "Ġprint": 6823,
      "igsaw": 6824,
      "zing": 6825,
      "åĥ": 6826,
      "Ġfaces": 6827,
      "omb": 6828,
      "Ġwashing": 6829,
      "ĠGold": 6830,
      "ulty": 6831,
      "Ġconcentr": 6832,
      "ĠKore": 6833,
      "Ġalsof": 6834,
      "Ġ2002": 6835,
      "Ġstudents": 6836,
      "Ġfilms": 6837,
      "Ġeigenlijk": 6838,
      "Ġmemory": 6839,
      "ĠInternational": 6840,
      "Ġmoeilijk": 6841,
      "tain": 6842,
      "æı": 6843,
      "Ġhar": 6844,
      "ĠIS": 6845,
      "stelling": 6846,
      "uns": 6847,
      "Ġleer": 6848,
      "Ġprevious": 6849,
      "Ġtoilet": 6850,
      "Ġaverage": 6851,
      "onen": 6852,
      "Ġzin": 6853,
      "Ġboot": 6854,
      "ĠHey": 6855,
      "osta": 6856,
      "Ġperm": 6857,
      "ĠMarcia": 6858,
      "Ġstands": 6859,
      "Ġbringing": 6860,
      "IGHT": 6861,
      "Ġbepaalde": 6862,
      "Ġestabl": 6863,
      "Ind": 6864,
      "lie": 6865,
      "ti": 6866,
      "ential": 6867,
      "Ġterrit": 6868,
      "Ġsau": 6869,
      "Ġbeach": 6870,
      "Ġsomewhat": 6871,
      "ĠKitty": 6872,
      "Ġflower": 6873,
      "Ġcollege": 6874,
      "Ġsigned": 6875,
      "Ġteachers": 6876,
      "è°¢": 6877,
      "Ġforgotten": 6878,
      "Carl": 6879,
      "takes": 6880,
      "Ã¤": 6881,
      "Ġstock": 6882,
      "ĠTor": 6883,
      "plant": 6884,
      "ĠChief": 6885,
      "åĩł": 6886,
      "eta": 6887,
      "igan": 6888,
      "imm": 6889,
      "Ġrat": 6890,
      "Ġtrail": 6891,
      "Ġactivity": 6892,
      "regen": 6893,
      "Ġforced": 6894,
      "ĠNin": 6895,
      "å¤ĸ": 6896,
      "Ġweekend": 6897,
      "Ġprotest": 6898,
      "ĠTurk": 6899,
      "known": 6900,
      "bits": 6901,
      "Ġbark": 6902,
      "Ġpsych": 6903,
      "Ġboots": 6904,
      "icking": 6905,
      "ahhah": 6906,
      "Ġgreatest": 6907,
      "Ġplek": 6908,
      "Ġpleasant": 6909,
      "Only": 6910,
      "Ġgeloof": 6911,
      "Ġdamn": 6912,
      "Ooh": 6913,
      "eur": 6914,
      "huis": 6915,
      "Ġcelebr": 6916,
      "inger": 6917,
      "ĠIII": 6918,
      "icles": 6919,
      "ĠDist": 6920,
      "ĠFil": 6921,
      "Ġcentral": 6922,
      "Ġreported": 6923,
      "Ġkunst": 6924,
      "mom": 6925,
      "zig": 6926,
      "aning": 6927,
      "Ġnation": 6928,
      "Ġclown": 6929,
      "Ġdrag": 6930,
      "Ġexcuse": 6931,
      "çī¹": 6932,
      "Ġliggen": 6933,
      "Ġtweede": 6934,
      "''": 6935,
      "Ġwa": 6936,
      "Ġmummy": 6937,
      "Ġcred": 6938,
      "ĠMost": 6939,
      "ĠMax": 6940,
      "Ġris": 6941,
      "istic": 6942,
      "weer": 6943,
      "Ġrope": 6944,
      "ĠVict": 6945,
      "Chi": 6946,
      "Ġtransport": 6947,
      "gebied": 6948,
      "Ġfrequ": 6949,
      "ĠLouis": 6950,
      "Ed": 6951,
      "Put": 6952,
      "Su": 6953,
      "TH": 6954,
      "acters": 6955,
      "aka": 6956,
      "actor": 6957,
      "æĪĳçļĦ": 6958,
      "ĠMarjorie": 6959,
      "Ġclearly": 6960,
      "Ġdirectly": 6961,
      "Ġinvent": 6962,
      "Ġbewer": 6963,
      "Ġsuc": 6964,
      "Ġdisp": 6965,
      "Ġcommunic": 6966,
      "ussy": 6967,
      "ĠSuper": 6968,
      "ients": 6969,
      "Ġmole": 6970,
      "ĠJer": 6971,
      "Ġinterview": 6972,
      "Ġballs": 6973,
      "Ġrelease": 6974,
      "Ġsandwich": 6975,
      "ĠSanta": 6976,
      "60": 6977,
      "Eleanor": 6978,
      "aus": 6979,
      "pop": 6980,
      "zes": 6981,
      "èĥ": 6982,
      "èĦ": 6983,
      "llie": 6984,
      "ĠAmy": 6985,
      "ĠDel": 6986,
      "throw": 6987,
      "beren": 6988,
      "Ġuses": 6989,
      "Ġoffered": 6990,
      "çļĦæĹ¶åĢĻ": 6991,
      "Ġdecide": 6992,
      "Ġduidelijk": 6993,
      "Ġadvant": 6994,
      "Ġperfectly": 6995,
      "try": 6996,
      "æ¶": 6997,
      "ç½": 6998,
      "Ġtummy": 6999,
      "Ġwings": 7000,
      "Ġmate": 7001,
      "ĠMer": 7002,
      "iverse": 7003,
      "Ġwalks": 7004,
      "åĥı": 7005,
      "Hold": 7006,
      "ih": 7007,
      "Ġtien": 7008,
      "ouder": 7009,
      "igr": 7010,
      "Ġdemon": 7011,
      "ĠMen": 7012,
      "Ġren": 7013,
      "ĠDuring": 7014,
      "ooth": 7015,
      "Ġcrime": 7016,
      "Ġgreater": 7017,
      "åħ¨": 7018,
      "åĵª": 7019,
      "viron": 7020,
      "lam": 7021,
      "rif": 7022,
      "Ġhond": 7023,
      "igde": 7024,
      "Ġhetzelfde": 7025,
      "enden": 7026,
      "ĠJane": 7027,
      "Ġloves": 7028,
      "Ġ187": 7029,
      "æĸ°": 7030,
      "zerba": 7031,
      "Ġrules": 7032,
      "Ġfishing": 7033,
      "stra": 7034,
      "ĠTim": 7035,
      "uno": 7036,
      "æľº": 7037,
      "isteren": 7038,
      "raagd": 7039,
      "Ġrecorder": 7040,
      "Ġlawyer": 7041,
      "Ġfavour": 7042,
      "cellent": 7043,
      "Ġbrengen": 7044,
      "zerbaij": 7045,
      "dag": 7046,
      "sen": 7047,
      "èī": 7048,
      "Ġmale": 7049,
      "Ġhut": 7050,
      "ĠFOR": 7051,
      "Ġbutt": 7052,
      "ĠChicago": 7053,
      "Ġdism": 7054,
      "ĠJeff": 7055,
      "\"]": 7056,
      "æ¡": 7057,
      "èģ": 7058,
      "Ġgall": 7059,
      "Ġfurn": 7060,
      "Ġvij": 7061,
      "Ġstir": 7062,
      "Ġmanager": 7063,
      "Ġafterwards": 7064,
      "cious": 7065,
      "draw": 7066,
      "Ġsem": 7067,
      "ata": 7068,
      "Ġvote": 7069,
      "Ġtext": 7070,
      "ANN": 7071,
      "Ġchest": 7072,
      "babbles": 7073,
      "Ġ60": 7074,
      "Ma": 7075,
      "VER": 7076,
      "pull": 7077,
      "ç©": 7078,
      "Ġrevol": 7079,
      "Ġtears": 7080,
      "odes": 7081,
      "inned": 7082,
      "Ġbasis": 7083,
      "ĠEdward": 7084,
      "hib": 7085,
      "reland": 7086,
      "Ġhelping": 7087,
      "Ġfamilies": 7088,
      "Ġgentlemen": 7089,
      "Ġgarage": 7090,
      "Ġneemt": 7091,
      "Ġwink": 7092,
      "ĠhÃ¨": 7093,
      "Ġfac": 7094,
      "Ġfoc": 7095,
      "eau": 7096,
      "thew": 7097,
      "ockey": 7098,
      "Ġevil": 7099,
      "è¿ĺæĺ¯": 7100,
      "Ġgrootste": 7101,
      "ĠAustralian": 7102,
      "Ġvliegt": 7103,
      "Ġcircumst": 7104,
      "About": 7105,
      "Ġthin": 7106,
      "ĠSun": 7107,
      "Ġmyster": 7108,
      "okes": 7109,
      "ccording": 7110,
      "Ġphil": 7111,
      "Ġmagic": 7112,
      "Ġpressure": 7113,
      "Ġvictim": 7114,
      "dis": 7115,
      "Ġdarm": 7116,
      "Ġpijn": 7117,
      "Ġpale": 7118,
      "ilities": 7119,
      "ĠCat": 7120,
      "Ġworst": 7121,
      "Ġboom": 7122,
      "oday": 7123,
      "Ġfeest": 7124,
      "Ġpartner": 7125,
      "Ġtalks": 7126,
      "Ġgenoemd": 7127,
      "ipping": 7128,
      "Ġbrothers": 7129,
      "iggles": 7130,
      "Ġwhispered": 7131,
      "ĠScotland": 7132,
      "gn": 7133,
      "enced": 7134,
      "ĠLion": 7135,
      "Ġgevoel": 7136,
      "Ġfigures": 7137,
      "Ġjuiste": 7138,
      "Ġkeeps": 7139,
      "24": 7140,
      "Mother": 7141,
      "UST": 7142,
      "ki": 7143,
      "çĥ": 7144,
      "Ġdom": 7145,
      "Ġner": 7146,
      "Ġkracht": 7147,
      "amil": 7148,
      "Ġstudied": 7149,
      "Ġzwart": 7150,
      "Ġsettled": 7151,
      "pill": 7152,
      "ware": 7153,
      "heen": 7154,
      "Ġhulp": 7155,
      "Ġcel": 7156,
      "Ġchat": 7157,
      "Ġnic": 7158,
      "ĠIreland": 7159,
      "ieu": 7160,
      "angle": 7161,
      "blad": 7162,
      "Ġprefer": 7163,
      "äºĨä½ł": 7164,
      "Ġserve": 7165,
      "Ġsixty": 7166,
      "Ġevident": 7167,
      "Ġtelef": 7168,
      "Ġindustry": 7169,
      "bish": 7170,
      "happy": 7171,
      "Ġforms": 7172,
      "ĠBern": 7173,
      "...\"": 7174,
      "Ġcoach": 7175,
      "Ġcats": 7176,
      "Ġ1999": 7177,
      "Ġlarger": 7178,
      "Ġissue": 7179,
      "ĠPurdie": 7180,
      "éĴ±": 7181,
      "ĠJoseph": 7182,
      "WE": 7183,
      "zaam": 7184,
      "¥¿": 7185,
      "ç³": 7186,
      "inig": 7187,
      "itzer": 7188,
      "Ġfence": 7189,
      "Ġheaven": 7190,
      "Ġstam": 7191,
      "Ġrib": 7192,
      "Ġorde": 7193,
      "Ġcharacters": 7194,
      "Ġsoftly": 7195,
      "Ġglasses": 7196,
      "Ġcastle": 7197,
      "Ġcandid": 7198,
      "Ġkap": 7199,
      "ĠMonday": 7200,
      "umps": 7201,
      "Ġcoal": 7202,
      "Ġterror": 7203,
      "ĠGeoffrey": 7204,
      "åĸľ": 7205,
      "ĠTexas": 7206,
      "aron": 7207,
      "Ġjigsaw": 7208,
      "Ġreasons": 7209,
      "Ġplayers": 7210,
      "Ġfriendly": 7211,
      "Ġdaarna": 7212,
      "Ġmarriage": 7213,
      "Ġencour": 7214,
      "onge": 7215,
      "ctions": 7216,
      "Ġmob": 7217,
      "Ġdistribut": 7218,
      "ELA": 7219,
      "Before": 7220,
      "Ġknocked": 7221,
      "Ġkreeg": 7222,
      "cr": 7223,
      "ji": 7224,
      "esc": 7225,
      "Ġdezelfde": 7226,
      "Ġmeasure": 7227,
      "ĠTwo": 7228,
      "ĠBund": 7229,
      "ĠHi": 7230,
      "Ġverv": 7231,
      "about": 7232,
      "ĠNorm": 7233,
      "ĠAmericans": 7234,
      "Ġbathroom": 7235,
      "Ġpoet": 7236,
      "ĠRussia": 7237,
      "ĠBelg": 7238,
      "ĠOlympics": 7239,
      "Ġdegree": 7240,
      "Cal": 7241,
      "èĲ": 7242,
      "Ġwachten": 7243,
      "ref": 7244,
      "Ġlatter": 7245,
      "Ġzuur": 7246,
      "ĠMont": 7247,
      "Ġgoat": 7248,
      "Ġshock": 7249,
      "ĠRuth": 7250,
      "Ġlezen": 7251,
      "ĠKim": 7252,
      "Ġagent": 7253,
      "whispers": 7254,
      "show": 7255,
      "Ġbuff": 7256,
      "è¯¥": 7257,
      "Ġsnap": 7258,
      "Ġmarry": 7259,
      "æĹł": 7260,
      "Ġmatters": 7261,
      "ergie": 7262,
      "Ġvalue": 7263,
      "Nog": 7264,
      "Ġwanneer": 7265,
      "ĠWal": 7266,
      "ĠYoung": 7267,
      "Ġfarmer": 7268,
      "Ġelder": 7269,
      "Great": 7270,
      "Ġtid": 7271,
      "Ġsoorten": 7272,
      "Ġtheory": 7273,
      "ĠMike": 7274,
      "cky": 7275,
      "iode": 7276,
      "Neem": 7277,
      "Ġconfir": 7278,
      "Ġobjects": 7279,
      "Ġdivided": 7280,
      "Fraser": 7281,
      "Ġnatuurlijk": 7282,
      "vin": 7283,
      "Ġwacht": 7284,
      "Ġdare": 7285,
      "itan": 7286,
      "idt": 7287,
      "rokken": 7288,
      "Ġrif": 7289,
      "Ġcancer": 7290,
      "abeth": 7291,
      "ĠRon": 7292,
      "Ġprogress": 7293,
      "Ġresol": 7294,
      "Ġ1980": 7295,
      "åĴ±": 7296,
      "'-": 7297,
      "rekken": 7298,
      "itz": 7299,
      "Ġfancy": 7300,
      "Ġmeas": 7301,
      "aga": 7302,
      "ĠDO": 7303,
      "ĠJew": 7304,
      "Ġcomment": 7305,
      "ĠOkay": 7306,
      "Ġcontain": 7307,
      "éĩį": 7308,
      "ĠSoviet": 7309,
      "Vol": 7310,
      "case": 7311,
      "Ġ+": 7312,
      "Ġtent": 7313,
      "Ġwave": 7314,
      "Ġwaste": 7315,
      "Ġriding": 7316,
      "ĠPolly": 7317,
      "Ġsupply": 7318,
      "Ġincludes": 7319,
      "IE": 7320,
      "ogen": 7321,
      "lle": 7322,
      "ĠAld": 7323,
      "unnel": 7324,
      "Ġontde": 7325,
      "Ġeighty": 7326,
      "Ġpowerful": 7327,
      "Ġdomin": 7328,
      "Ġzodat": 7329,
      "Ġrom": 7330,
      "asty": 7331,
      "place": 7332,
      "iley": 7333,
      "Ġactive": 7334,
      "ĠMaria": 7335,
      "Ġstring": 7336,
      "Ġpapa": 7337,
      "å¸¦": 7338,
      "Ġconduct": 7339,
      "Ġdisappeared": 7340,
      "å±±": 7341,
      "Ġnieuws": 7342,
      "Fuck": 7343,
      "tjes": 7344,
      "Ġtal": 7345,
      "Ġvoll": 7346,
      "igger": 7347,
      "Ġkitty": 7348,
      "ĠCub": 7349,
      "ĠHol": 7350,
      "ĠLy": 7351,
      "ĠOther": 7352,
      "Those": 7353,
      "Ġproduction": 7354,
      "Ġpainting": 7355,
      "Ġprovince": 7356,
      "å§Ĳ": 7357,
      "from": 7358,
      "Ġkost": 7359,
      "choo": 7360,
      "ĠPen": 7361,
      "Ġmanage": 7362,
      "Ġtravell": 7363,
      "Ġgevaar": 7364,
      "Ġburied": 7365,
      "Ġreceive": 7366,
      "RY": 7367,
      "Zijn": 7368,
      "fish": 7369,
      "kig": 7370,
      "och": 7371,
      "Ġdere": 7372,
      "Three": 7373,
      "Ġunivers": 7374,
      "ĠPlay": 7375,
      "Ġdescribed": 7376,
      "ĠVirgin": 7377,
      "rich": 7378,
      "Ġax": 7379,
      "Ġreck": 7380,
      "Ġwhist": 7381,
      "ĠJud": 7382,
      "Ġrol": 7383,
      "Ġfired": 7384,
      "Ġbecoming": 7385,
      "Ġmagn": 7386,
      "ocratic": 7387,
      "Ġhook": 7388,
      "edereen": 7389,
      "ijl": 7390,
      "illiant": 7391,
      "ects": 7392,
      "iaal": 7393,
      "Ġdepart": 7394,
      "Ġbags": 7395,
      "Ã¯n": 7396,
      "é¢ĺ": 7397,
      "ä½Ĩæĺ¯": 7398,
      "Bye": 7399,
      "yellow": 7400,
      "Ġgere": 7401,
      "Ġwebs": 7402,
      "Ġliber": 7403,
      "ĠGab": 7404,
      "nods": 7405,
      "Ġscrew": 7406,
      "Ġfeelings": 7407,
      "Ġretired": 7408,
      "è¿ĺæľī": 7409,
      "Ġproperty": 7410,
      "Ġanxious": 7411,
      "product": 7412,
      "Ġopposite": 7413,
      "Ġlodge": 7414,
      "21": 7415,
      "mouth": 7416,
      "Ġdelen": 7417,
      "orter": 7418,
      "Ġgather": 7419,
      "Ġune": 7420,
      "acon": 7421,
      "ĠWind": 7422,
      "Ġacting": 7423,
      "Ġwindows": 7424,
      "ological": 7425,
      "Ġflew": 7426,
      "Ġrivier": 7427,
      "Ġestablished": 7428,
      "LA": 7429,
      "aire": 7430,
      "Ġtip": 7431,
      "emon": 7432,
      "Ġwaarin": 7433,
      "Ġcutting": 7434,
      "Ġbescher": 7435,
      "Ġcompanies": 7436,
      "ĠEmpire": 7437,
      "coughs": 7438,
      "sung": 7439,
      "Ġdik": 7440,
      "only": 7441,
      "Ġdozen": 7442,
      "ura": 7443,
      "ĠGet": 7444,
      "ĠJenny": 7445,
      "Ġemb": 7446,
      "Ġmedia": 7447,
      "vironment": 7448,
      "Echt": 7449,
      "ano": 7450,
      "anches": 7451,
      "Ġbisc": 7452,
      "Ġleeft": 7453,
      "amin": 7454,
      "ĠRalph": 7455,
      "Ġmeteen": 7456,
      "Ġotherwise": 7457,
      "Ġcompos": 7458,
      "Ġthoughts": 7459,
      "Ġdesert": 7460,
      "Ġinstant": 7461,
      "ferring": 7462,
      "Ġapparently": 7463,
      "Ġkilomet": 7464,
      "ç´": 7465,
      "Ġsalt": 7466,
      "Ġtooth": 7467,
      "Ġdoct": 7468,
      "ĠMiles": 7469,
      "ĠAzerbaij": 7470,
      "Ġlies": 7471,
      "ĠRol": 7472,
      "osen": 7473,
      "ä¸ľ": 7474,
      "ĠKl": 7475,
      "Ġsuppl": 7476,
      "Ġresist": 7477,
      "ederal": 7478,
      "ĠIndians": 7479,
      "åİŁ": 7480,
      "Ġpatient": 7481,
      "Ġhanging": 7482,
      "Ġentirely": 7483,
      "Ġinsect": 7484,
      "Ġstaff": 7485,
      "ĠBoy": 7486,
      "indelijk": 7487,
      "ĠLake": 7488,
      "ĠRoss": 7489,
      "Ġgep": 7490,
      "ishment": 7491,
      "Ġmagnet": 7492,
      "Ġgevraagd": 7493,
      "Ġinfluence": 7494,
      "schijnlijk": 7495,
      "BO": 7496,
      "Rem": 7497,
      "bin": 7498,
      "rans": 7499,
      "organ": 7500,
      "Ġvalt": 7501,
      "Ġeiw": 7502,
      "Ġsocks": 7503,
      "arsh": 7504,
      "Ġhuid": 7505,
      "Ġballoon": 7506,
      "Alright": 7507,
      "åĵ¥": 7508,
      "çİĭ": 7509,
      "Ġcloser": 7510,
      "too": 7511,
      "Ġtor": 7512,
      "Ġfox": 7513,
      "Ġvallen": 7514,
      "imate": 7515,
      "eeuw": 7516,
      "Ġknowing": 7517,
      "ĠGO": 7518,
      "Ġvoort": 7519,
      "Ġwatches": 7520,
      "Ġbub": 7521,
      "Ġbeginnen": 7522,
      "Ġdifficulty": 7523,
      "æ°Ķ": 7524,
      "ĠSecret": 7525,
      "Ġdetermined": 7526,
      "houd": 7527,
      "opter": 7528,
      "ĠGreek": 7529,
      "iken": 7530,
      "ĠLuc": 7531,
      "ipl": 7532,
      "Ġbiggest": 7533,
      "Ġremembered": 7534,
      "Ġextrem": 7535,
      "Ġreply": 7536,
      "Ġkeu": 7537,
      "Ġaarde": 7538,
      "Ġsports": 7539,
      "US": 7540,
      "nice": 7541,
      "Ġavo": 7542,
      "Ġdread": 7543,
      "Ġhoort": 7544,
      "ĠSpe": 7545,
      "ĠApp": 7546,
      "ĠBart": 7547,
      "ĠCam": 7548,
      "akt": 7549,
      "ika": 7550,
      "ĠLady": 7551,
      "ĠUit": 7552,
      "Ġpresence": 7553,
      "Ġvoel": 7554,
      "ĠAnna": 7555,
      "Ġboxes": 7556,
      "Ġintellig": 7557,
      "Ġadvice": 7558,
      "Ġconstit": 7559,
      "Ġbevat": 7560,
      "Ġshooting": 7561,
      "Ġreligious": 7562,
      "silence": 7563,
      "Keep": 7564,
      "bell": 7565,
      "bour": 7566,
      "èį": 7567,
      "Ġnorthern": 7568,
      "sell": 7569,
      "imp": 7570,
      "iland": 7571,
      "antwoord": 7572,
      "ĠNan": 7573,
      "ĠUk": 7574,
      "igned": 7575,
      "Isn": 7576,
      "Ġcooking": 7577,
      "æ¬¢": 7578,
      "Ġsterk": 7579,
      "ĠSk": 7580,
      "ĠCamp": 7581,
      "Ġasp": 7582,
      "ĠParliament": 7583,
      "ulation": 7584,
      "Ġscreen": 7585,
      "Ġthrown": 7586,
      "Ġ1970": 7587,
      "åĨĽ": 7588,
      "Ġverdw": 7589,
      "Ġburst": 7590,
      "Ġhonor": 7591,
      "Ġsouthern": 7592,
      "ĠBay": 7593,
      "ĠGordon": 7594,
      "ĠHeb": 7595,
      "ĠChair": 7596,
      "æľĪ": 7597,
      "Ġrealize": 7598,
      "Ġsymp": 7599,
      "Ġprovide": 7600,
      "Ġcustom": 7601,
      "Ġopinion": 7602,
      ".)": 7603,
      "Denk": 7604,
      "daddy": 7605,
      "walk": 7606,
      "ç¥": 7607,
      "çģ": 7608,
      "Ġpizza": 7609,
      "aland": 7610,
      "ira": 7611,
      "Ġlibr": 7612,
      "Ġfeels": 7613,
      "Ġunderstood": 7614,
      "Ġexpress": 7615,
      "Ġgrab": 7616,
      "Ġsignific": 7617,
      "Blijf": 7618,
      "Ġtouched": 7619,
      "craft": 7620,
      "çĹ": 7621,
      "Ġaft": 7622,
      "Ġsink": 7623,
      "Ġmile": 7624,
      "Ġpushed": 7625,
      "Ġtrou": 7626,
      "stein": 7627,
      "Ġrecently": 7628,
      "eerd": 7629,
      "ĠGeorg": 7630,
      "fortun": 7631,
      "playing": 7632,
      "ĠCentral": 7633,
      "Ġcompanion": 7634,
      "\"?": 7635,
      "Ġwou": 7636,
      "Ġwra": 7637,
      "Ġwol": 7638,
      "Ġwounded": 7639,
      "Ġmaat": 7640,
      "Ġinfect": 7641,
      "Ġhanden": 7642,
      "Ġslag": 7643,
      "Ġcrash": 7644,
      "Ġhearing": 7645,
      "è§£": 7646,
      "ursday": 7647,
      "Ġdisease": 7648,
      "bur": 7649,
      "mony": 7650,
      "Ġtask": 7651,
      "Ġaim": 7652,
      "Ġpipe": 7653,
      "Ġyer": 7654,
      "Ġnap": 7655,
      "ams": 7656,
      "Ġweinig": 7657,
      "Ġmeter": 7658,
      "Ġmuziek": 7659,
      "Ġnummer": 7660,
      "leden": 7661,
      "ĠPrime": 7662,
      "nesday": 7663,
      "Ġziekte": 7664,
      "oi": 7665,
      "rick": 7666,
      "Ġtied": 7667,
      "Ġaer": 7668,
      "orp": 7669,
      "Ġheav": 7670,
      "ĠBur": 7671,
      "ĠEven": 7672,
      "Ġexerc": 7673,
      "Ġsits": 7674,
      "Ġvoet": 7675,
      "Ġstaying": 7676,
      "komt": 7677,
      "ĠFlorida": 7678,
      "ĠTHAT": 7679,
      "æ°´": 7680,
      "COL": 7681,
      "bet": 7682,
      "ç¡": 7683,
      "Ġocean": 7684,
      "Ġlange": 7685,
      "Ġjournal": 7686,
      "ĠHaw": 7687,
      "Ġnoem": 7688,
      "eps": 7689,
      "plane": 7690,
      "Ġrecover": 7691,
      "Ġpassing": 7692,
      "Ġrespond": 7693,
      "Ġtypes": 7694,
      "èĢģå¸Ī": 7695,
      "Ġdruk": 7696,
      "ĠVictor": 7697,
      "28": 7698,
      "Act": 7699,
      "iven": 7700,
      "rently": 7701,
      "èĪ": 7702,
      "Ġmail": 7703,
      "Ġyouth": 7704,
      "Ġzoo": 7705,
      "Ġzowel": 7706,
      "ĠHA": 7707,
      "ĠWestern": 7708,
      "Ġsore": 7709,
      "Ġproberen": 7710,
      "ĠNederlandse": 7711,
      "Ġeinde": 7712,
      "æİ¥": 7713,
      "æ´»": 7714,
      "ĠCanadian": 7715,
      "law": 7716,
      "Ġbarn": 7717,
      "ĠLos": 7718,
      "Ġervan": 7719,
      "Ġcommer": 7720,
      "Ġmetal": 7721,
      "ensen": 7722,
      "ilder": 7723,
      "ocr": 7724,
      "Ġbelief": 7725,
      "rijke": 7726,
      "åĪ©": 7727,
      "æĹ¥": 7728,
      "Ġveilig": 7729,
      "Ġdrove": 7730,
      "çĽ´": 7731,
      "Ġmagazine": 7732,
      "Since": 7733,
      "mine": 7734,
      "nel": 7735,
      "iring": 7736,
      "Ġrang": 7737,
      "ector": 7738,
      "Ġbless": 7739,
      "Ġaange": 7740,
      "Ġproblemen": 7741,
      "Ġvictory": 7742,
      "bow": 7743,
      "green": 7744,
      "wers": 7745,
      "icate": 7746,
      "Ġdoin": 7747,
      "ĠMur": 7748,
      "ila": 7749,
      "Ġmogen": 7750,
      "ĠJones": 7751,
      "Ġcode": 7752,
      "Ġtrains": 7753,
      "ĠBrad": 7754,
      "Ġwaited": 7755,
      "åĽĽ": 7756,
      "Ġladder": 7757,
      "Ġcompetition": 7758,
      "ĠbacteriÃ«n": 7759,
      "é©¬": 7760,
      "Bij": 7761,
      "Ġgift": 7762,
      "Ġtowel": 7763,
      "Ġpatter": 7764,
      "tering": 7765,
      "Ġshook": 7766,
      "Ġsticks": 7767,
      "ĠNether": 7768,
      "gh": 7769,
      "Ġsoup": 7770,
      "atoes": 7771,
      "referring": 7772,
      "Ġdank": 7773,
      "Ġmond": 7774,
      "Ġcijf": 7775,
      "Ġnerv": 7776,
      "otter": 7777,
      "steem": 7778,
      "Ġdey": 7779,
      "ĠMolly": 7780,
      "ĠViet": 7781,
      "ä½į": 7782,
      "ekijk": 7783,
      "Ġapprec": 7784,
      "unts": 7785,
      "Ġbecomes": 7786,
      "Ġsilent": 7787,
      "ĠSpani": 7788,
      "Ġcomfortable": 7789,
      "Ġseparate": 7790,
      "Ġbodies": 7791,
      "Ġfeatures": 7792,
      "BC": 7793,
      "Other": 7794,
      "cat": 7795,
      "talk": 7796,
      "Ġ--": 7797,
      "ota": 7798,
      "toe": 7799,
      "Ġremoved": 7800,
      "Ġowner": 7801,
      "Ġgiant": 7802,
      "Ġbeauty": 7803,
      "Ġstomach": 7804,
      "Ġenkele": 7805,
      "Aha": 7806,
      "Want": 7807,
      "heast": 7808,
      "Ġfully": 7809,
      "Ġbeast": 7810,
      "rog": 7811,
      "Ġaside": 7812,
      "ĠOnder": 7813,
      "å°ĳ": 7814,
      "ĠAndrew": 7815,
      "ĠProv": 7816,
      "Ġdrawn": 7817,
      "cow": 7818,
      "vrouw": 7819,
      "è¥¿": 7820,
      "really": 7821,
      "ĠPost": 7822,
      "Ġeruit": 7823,
      "berries": 7824,
      "ocks": 7825,
      "soft": 7826,
      "Ġweergegeven": 7827,
      "Ġforeign": 7828,
      "Ġechte": 7829,
      "Ġgrandma": 7830,
      "Ġetc": 7831,
      "Beg": 7832,
      "Jim": 7833,
      "Na": 7834,
      "wind": 7835,
      "å¨": 7836,
      "Ġlake": 7837,
      "Ġstond": 7838,
      "ĠGal": 7839,
      "Ġthrowing": 7840,
      "Ġcolour": 7841,
      "Ġbroer": 7842,
      "Ġyounger": 7843,
      "Ġpapers": 7844,
      "Ġjobs": 7845,
      "Ġaware": 7846,
      "Ġmainly": 7847,
      "ĠPatty": 7848,
      "Ġceremony": 7849,
      "27": 7850,
      "sw": 7851,
      "æ¼": 7852,
      "éħ": 7853,
      "Ġwoon": 7854,
      "ĠWE": 7855,
      "ĠWed": 7856,
      "ĠStephen": 7857,
      "Ġuniform": 7858,
      "ichting": 7859,
      "Ġtotally": 7860,
      "Ġfunction": 7861,
      "Ġvraagt": 7862,
      "oft": 7863,
      "Ġkol": 7864,
      "road": 7865,
      "ĠDiv": 7866,
      "estival": 7867,
      "ĠOx": 7868,
      "Ġuitleg": 7869,
      "annine": 7870,
      "Ġpassage": 7871,
      "Ġgezicht": 7872,
      "Ġfamiliar": 7873,
      "çĻ¾": 7874,
      "stitute": 7875,
      "Bel": 7876,
      "Ġwo": 7877,
      "Ġreis": 7878,
      "lyn": 7879,
      "Ġbranches": 7880,
      "iences": 7881,
      "Ġsmiled": 7882,
      "è¿Ļæĺ¯": 7883,
      "Ġ1996": 7884,
      "ungle": 7885,
      "holds": 7886,
      "Ġmatches": 7887,
      "Ġcabin": 7888,
      "ca": 7889,
      "Ġmud": 7890,
      "oma": 7891,
      "Ġkru": 7892,
      "Ġrank": 7893,
      "Ġknees": 7894,
      "ä¸ļ": 7895,
      "Ġcris": 7896,
      "Ġtyp": 7897,
      "enschap": 7898,
      "Ġwine": 7899,
      "Ġcater": 7900,
      "Ġbewe": 7901,
      "Ġjam": 7902,
      "ĠCook": 7903,
      "Ġunus": 7904,
      "Ġrequired": 7905,
      "yyy": 7906,
      "Grand": 7907,
      "Ġcrocod": 7908,
      "ĠPakistan": 7909,
      "Ġfold": 7910,
      "Ġvet": 7911,
      "icient": 7912,
      "iders": 7913,
      "Ġdeb": 7914,
      "ieur": 7915,
      "Ġreview": 7916,
      "kee": 7917,
      "Ġadvan": 7918,
      "Ġthroughout": 7919,
      "year": 7920,
      "Ġends": 7921,
      "å®Į": 7922,
      "Ġbehand": 7923,
      "idding": 7924,
      "Ġproduce": 7925,
      "Ġplanet": 7926,
      "Ġsafety": 7927,
      "ategory": 7928,
      "ĠNetherlands": 7929,
      "NN": 7930,
      "rific": 7931,
      "wart": 7932,
      "Ġzes": 7933,
      "ĠTw": 7934,
      "ĠBang": 7935,
      "rip": 7936,
      "Ġspider": 7937,
      "Ġprovided": 7938,
      "staande": 7939,
      "45": 7940,
      "Lea": 7941,
      "jest": 7942,
      "Ġwestern": 7943,
      "Ġpiano": 7944,
      "Ġrings": 7945,
      "ĠCast": 7946,
      "umed": 7947,
      "emd": 7948,
      "achter": 7949,
      "Ġowned": 7950,
      "Ġdesper": 7951,
      "Ġentertain": 7952,
      "Ġ1995": 7953,
      "Ġprogramme": 7954,
      "ç¬¬": 7955,
      "Ġgradu": 7956,
      "Ġindividual": 7957,
      "FA": 7958,
      "Tom": 7959,
      "Ġoven": 7960,
      "Ġstof": 7961,
      "iraff": 7962,
      "Ġhabit": 7963,
      "Ġshell": 7964,
      "Ġplastic": 7965,
      "Ġguitar": 7966,
      "Ġ2023": 7967,
      "Ġinstruct": 7968,
      "Ġconditions": 7969,
      "Ġauthority": 7970,
      "Ġdisappoint": 7971,
      "Ġprecies": 7972,
      "long": 7973,
      "niet": 7974,
      "ĠokÃ©": 7975,
      "Ġloopt": 7976,
      "etjes": 7977,
      "ĠSur": 7978,
      "Ġneer": 7979,
      "ĠLib": 7980,
      "Ġvoordat": 7981,
      "bey": 7982,
      "ugg": 7983,
      "Ġfinanc": 7984,
      "Ġstandard": 7985,
      "Ġspecific": 7986,
      "Ġ1994": 7987,
      "Ġlangs": 7988,
      "Ġzetten": 7989,
      "Nie": 7990,
      "OH": 7991,
      "Something": 7992,
      "aver": 7993,
      "overy": 7994,
      "ĠMass": 7995,
      "ĠAwards": 7996,
      "ĠFort": 7997,
      "Ġsection": 7998,
      "Ġbricks": 7999,
      "Ġswing": 8000,
      "ĠCollege": 8001,
      "Ġgathered": 8002,
      "éĥ¨": 8003,
      "Ġadvantage": 8004,
      "Ġdeur": 8005,
      "iep": 8006,
      "Ġreve": 8007,
      "ros": 8008,
      "ĠMidd": 8009,
      "Ġterwijl": 8010,
      "Ġcrown": 8011,
      "Ġforever": 8012,
      "ĠSteve": 8013,
      "Ġbomb": 8014,
      "ĠKenyon": 8015,
      "push": 8016,
      "recht": 8017,
      "elingen": 8018,
      "Ġonts": 8019,
      "Ġdebut": 8020,
      "ĠAD": 8021,
      "ĠBert": 8022,
      "ĠHot": 8023,
      "ĠHER": 8024,
      "ĠGar": 8025,
      "ĠLand": 8026,
      "ĠLab": 8027,
      "Ġprove": 8028,
      "issa": 8029,
      "Ġadminist": 8030,
      "Ġcontribut": 8031,
      "Ġtrap": 8032,
      "Ġentr": 8033,
      "Ġklim": 8034,
      "Ġ1960": 8035,
      "ĠpatiÃ«nt": 8036,
      "Ġdrops": 8037,
      "Ġequip": 8038,
      "ĠAssoc": 8039,
      "Ġrapidly": 8040,
      "fa": 8041,
      "Ġdier": 8042,
      "aars": 8043,
      "Ġzeer": 8044,
      "athy": 8045,
      "Ġbegint": 8046,
      "Ġaccomp": 8047,
      "197": 8048,
      "Ġintroduced": 8049,
      "Ġstubs": 8050,
      "cos": 8051,
      "kins": 8052,
      "Ġsig": 8053,
      "Ġdying": 8054,
      "Ġboun": 8055,
      "isl": 8056,
      "Ġpow": 8057,
      "Ġinno": 8058,
      "amas": 8059,
      "ĠCap": 8060,
      "Ġbelt": 8061,
      "Ġbene": 8062,
      "å°Ĩ": 8063,
      "åı«": 8064,
      "Ġcute": 8065,
      "Ġautom": 8066,
      "çĪ·": 8067,
      "haha": 8068,
      "delen": 8069,
      "çĮ": 8070,
      "Ġcant": 8071,
      "amn": 8072,
      "Ġzon": 8073,
      "ĠSaint": 8074,
      "Ġneat": 8075,
      "venue": 8076,
      "ĠFox": 8077,
      "Ġsposta": 8078,
      "wezig": 8079,
      "Ġschuld": 8080,
      "Ġexpression": 8081,
      "Ġlaws": 8082,
      "Frank": 8083,
      "æīĢä»¥": 8084,
      "å·²ç»ı": 8085,
      "Kl": 8086,
      "lt": 8087,
      "Ĥ¬": 8088,
      "sex": 8089,
      "ĠServ": 8090,
      "ĠHE": 8091,
      "Ġspel": 8092,
      "ä¸ĩ": 8093,
      "aved": 8094,
      "Ġdesk": 8095,
      "Ġrecorded": 8096,
      "Ġthousands": 8097,
      "Ġperformed": 8098,
      "Ġcaptured": 8099,
      "di": 8100,
      "round": 8101,
      "chuckles": 8102,
      "Ġstro": 8103,
      "ĠAh": 8104,
      "Ġjezelf": 8105,
      "Ġbush": 8106,
      "ĠArt": 8107,
      "ĠWhile": 8108,
      "Ġgekomen": 8109,
      "åı¯èĥ½": 8110,
      "Ġwedding": 8111,
      "ĠConfeder": 8112,
      "Ġcircumstances": 8113,
      "reme": 8114,
      "Ġbos": 8115,
      "Ġkonden": 8116,
      "ching": 8117,
      "eller": 8118,
      "ĠWater": 8119,
      "Ġverke": 8120,
      "ĠLie": 8121,
      "Ġmuse": 8122,
      "Ġpointing": 8123,
      "Ġ80": 8124,
      "Ġordinary": 8125,
      "atuurlijk": 8126,
      "ĠLaura": 8127,
      "ĠCharlie": 8128,
      "ç¾İ": 8129,
      ".[": 8130,
      "Helen": 8131,
      "lf": 8132,
      "pea": 8133,
      "Ġtunnel": 8134,
      "Ġbare": 8135,
      "Ġpump": 8136,
      "omst": 8137,
      "Ġevolution": 8138,
      "Ġkat": 8139,
      "ĠHon": 8140,
      "ĠHoll": 8141,
      "thur": 8142,
      "Ġvanaf": 8143,
      "Ġfrag": 8144,
      "ĠJon": 8145,
      "ĠFire": 8146,
      "oses": 8147,
      "ansen": 8148,
      "Ġadvert": 8149,
      "izabeth": 8150,
      "Ġpolitie": 8151,
      "ĠProfessor": 8152,
      "Ġteaching": 8153,
      "Ġhoeveelheid": 8154,
      "Ġpattern": 8155,
      "é¦": 8156,
      "Ġyum": 8157,
      "Ġitem": 8158,
      "strijd": 8159,
      "ĠDuits": 8160,
      "Ġtractor": 8161,
      "Ġsecurity": 8162,
      "åĲĪ": 8163,
      "Ġattend": 8164,
      "Ġenth": 8165,
      "Ġ1998": 8166,
      "Ġgeworden": 8167,
      "Ġkwamen": 8168,
      "Ġconcert": 8169,
      "ĠLaurie": 8170,
      "ĠAngeles": 8171,
      "Ġblanket": 8172,
      "itzerland": 8173,
      "59": 8174,
      "Gu": 8175,
      "Se": 8176,
      "eight": 8177,
      "sing": 8178,
      "were": 8179,
      "isions": 8180,
      "cha": 8181,
      "ami": 8182,
      "Ġjoke": 8183,
      "urance": 8184,
      "Ġrise": 8185,
      "Ġrushed": 8186,
      "rik": 8187,
      "standig": 8188,
      "Ġrecording": 8189,
      "Didn": 8190,
      "Ġoperation": 8191,
      "Ġdamage": 8192,
      "è°ģ": 8193,
      "Ġobserved": 8194,
      "zak": 8195,
      "Ġcurt": 8196,
      "Ġfout": 8197,
      "Ġplus": 8198,
      "Ġoverle": 8199,
      "ousers": 8200,
      "Ġalsjeblieft": 8201,
      "Ġminor": 8202,
      "nothing": 8203,
      "Ġpicking": 8204,
      "Ġsorts": 8205,
      "Once": 8206,
      "Ġspeaks": 8207,
      "22": 8208,
      "Door": 8209,
      "Sm": 8210,
      "coh": 8211,
      "mar": 8212,
      "Ġbord": 8213,
      "Ġcig": 8214,
      "Ġfaster": 8215,
      "Ġstones": 8216,
      "Ġlied": 8217,
      "Ġchannel": 8218,
      "Ġbranch": 8219,
      "avi": 8220,
      "Ġdesc": 8221,
      "ĠJimmie": 8222,
      "Ġcopy": 8223,
      "Ġjudge": 8224,
      "hol": 8225,
      "sighs": 8226,
      "Ġacht": 8227,
      "Ġlit": 8228,
      "stuk": 8229,
      "ĠSee": 8230,
      "ĠSqu": 8231,
      "Ġenvironment": 8232,
      "elled": 8233,
      "ĠWAS": 8234,
      "ĠNob": 8235,
      "Ġ1997": 8236,
      "help": 8237,
      "Ġlifted": 8238,
      "Ġlocked": 8239,
      "Ġvakantie": 8240,
      "MEL": 8241,
      "æ¥": 8242,
      "hem": 8243,
      "Ġwore": 8244,
      "Ġwrest": 8245,
      "Ġdw": 8246,
      "ompl": 8247,
      "adi": 8248,
      "Ġnoemen": 8249,
      "Ġwaters": 8250,
      "ĠVal": 8251,
      "Ġflo": 8252,
      "Ġdrama": 8253,
      "åĪļ": 8254,
      "Ġpresently": 8255,
      "ĠBecause": 8256,
      "Ġbuildings": 8257,
      "Ġeffects": 8258,
      "ĠSwitzerland": 8259,
      "Ġhammer": 8260,
      "Ġodd": 8261,
      "ication": 8262,
      "Ġregen": 8263,
      "ĠBer": 8264,
      "Ġgras": 8265,
      "Ġsmiling": 8266,
      "Ġdistur": 8267,
      "ception": 8268,
      "ĠEdna": 8269,
      "Ġicecream": 8270,
      "Everything": 8271,
      "Ġaccepted": 8272,
      "Ġculture": 8273,
      "Ġreligion": 8274,
      "ĠAmerikaanse": 8275,
      "Ġweapons": 8276,
      "Ġdefinitely": 8277,
      "Early": 8278,
      "cup": 8279,
      "Ġwire": 8280,
      "Ġpic": 8281,
      "Ġheight": 8282,
      "rael": 8283,
      "ĠWomen": 8284,
      "ulk": 8285,
      "azz": 8286,
      "Ġliever": 8287,
      "Ġsolid": 8288,
      "ĠGovernor": 8289,
      "Ġdoggie": 8290,
      "Ġplatform": 8291,
      "Ġscarcely": 8292,
      "Ġinhab": 8293,
      "Ġtarget": 8294,
      "boek": 8295,
      "non": 8296,
      "Ġdiss": 8297,
      "Ġbast": 8298,
      "Ġpir": 8299,
      "ĠSalle": 8300,
      "ĠMo": 8301,
      "ĠPac": 8302,
      "ĠNancy": 8303,
      "Ġproved": 8304,
      "ä½ı": 8305,
      "whoa": 8306,
      "schap": 8307,
      "Ġresults": 8308,
      "OME": 8309,
      "Ġseventy": 8310,
      "å¦Ĥæŀľ": 8311,
      "cial": 8312,
      "Ġwished": 8313,
      "Ġdish": 8314,
      "Ġcash": 8315,
      "orse": 8316,
      "Ġlorry": 8317,
      "ament": 8318,
      "Ġgoal": 8319,
      "ĠRy": 8320,
      "Ġchop": 8321,
      "rub": 8322,
      "Ġscore": 8323,
      "Christ": 8324,
      "voer": 8325,
      "Ġgovernor": 8326,
      "Ġhurried": 8327,
      "Ġoriginally": 8328,
      "Ġtemperature": 8329,
      "past": 8330,
      "ç¨": 8331,
      "oning": 8332,
      "Ġgaf": 8333,
      "Ġfond": 8334,
      "idents": 8335,
      "together": 8336,
      "assing": 8337,
      "çļĦäºº": 8338,
      "Ġshoulders": 8339,
      "Ġwonen": 8340,
      "Ġgreatly": 8341,
      "Ġshower": 8342,
      "Ġmaanden": 8343,
      "Ġmusical": 8344,
      "slag": 8345,
      "Ġgehoord": 8346,
      "Ġissues": 8347,
      "Ġslightly": 8348,
      "Ġstructure": 8349,
      "Vert": 8350,
      "pie": 8351,
      "uz": 8352,
      "éª": 8353,
      "Ġcups": 8354,
      "Ġpowers": 8355,
      "Ġjun": 8356,
      "ĠSil": 8357,
      "aboo": 8358,
      "Ġagre": 8359,
      "Ġelement": 8360,
      "ĠStap": 8361,
      "Ġeats": 8362,
      "Ġnucle": 8363,
      "Ġrealized": 8364,
      "Ġresponsible": 8365,
      "ĠChairman": 8366,
      "_.": 8367,
      "Ġpaard": 8368,
      "Ġbevol": 8369,
      "aming": 8370,
      "Ġweird": 8371,
      "Ġvanavond": 8372,
      "apes": 8373,
      "Ġuseta": 8374,
      "äºĨä¸Ģ": 8375,
      "ä½łè¯´": 8376,
      "ä¸įèĥ½": 8377,
      "Ġonderwerp": 8378,
      "Ġeerder": 8379,
      "uesday": 8380,
      "Ġfifth": 8381,
      "Ġstrike": 8382,
      "Ġsplit": 8383,
      "Ġliefde": 8384,
      "Ġweapon": 8385,
      "Ġdestroyed": 8386,
      "Ġdocument": 8387,
      "._": 8388,
      "55": 8389,
      "kle": 8390,
      "rough": 8391,
      "å©": 8392,
      "Ġond": 8393,
      "Ġhills": 8394,
      "ĠIran": 8395,
      "stick": 8396,
      "Ġmechan": 8397,
      "Ġrent": 8398,
      "Ġrush": 8399,
      "inden": 8400,
      "ĠLook": 8401,
      "ĠJac": 8402,
      "ĠUt": 8403,
      "Ġslept": 8404,
      "apping": 8405,
      "Ġpresents": 8406,
      "Ġhunter": 8407,
      "åĳĬ": 8408,
      "Ġeighteen": 8409,
      "Ġpaying": 8410,
      "Ġoblig": 8411,
      "ois": 8412,
      "rated": 8413,
      "Ġmap": 8414,
      "Ġanderen": 8415,
      "Ġbrings": 8416,
      "reekt": 8417,
      "Ġrooms": 8418,
      "198": 8419,
      "Ġcurious": 8420,
      "Ġartist": 8421,
      "Ġpulling": 8422,
      "Ġclimbed": 8423,
      "çī©": 8424,
      "Ġspirits": 8425,
      "éļ¾": 8426,
      "Ġstreets": 8427,
      "Ġequipment": 8428,
      "Moet": 8429,
      "PO": 8430,
      "Zij": 8431,
      "nemen": 8432,
      "uous": 8433,
      "irteen": 8434,
      "rier": 8435,
      "ĠWas": 8436,
      "Ġspreken": 8437,
      "Ġhunting": 8438,
      "Ġexciting": 8439,
      "Omdat": 8440,
      "Iedereen": 8441,
      "NOW": 8442,
      "iqu": 8443,
      "something": 8444,
      "adem": 8445,
      "Ġshame": 8446,
      "Ġergens": 8447,
      "Ġschip": 8448,
      "Ġdecor": 8449,
      "Shit": 8450,
      "Ġexcit": 8451,
      "Ġreplaced": 8452,
      "Ġrolled": 8453,
      "Ġclosely": 8454,
      "Ġburning": 8455,
      "Ġwitness": 8456,
      "ĠEuropa": 8457,
      "IV": 8458,
      "mpt": 8459,
      "nope": 8460,
      "esch": 8461,
      "Ġparties": 8462,
      "Ġdefe": 8463,
      "Ġdolly": 8464,
      "ĠLatin": 8465,
      "Ġmirror": 8466,
      "29": 8467,
      "Ġtabel": 8468,
      "Ġsinds": 8469,
      "aria": 8470,
      "Ġyard": 8471,
      "Ġreaches": 8472,
      "ĠAg": 8473,
      "Ġatm": 8474,
      "ĠGina": 8475,
      "äºĶ": 8476,
      "Ġharder": 8477,
      "akespea": 8478,
      "Anyway": 8479,
      "Heeft": 8480,
      "Most": 8481,
      "care": 8482,
      "tained": 8483,
      "anced": 8484,
      "Ġdien": 8485,
      "Ġheer": 8486,
      "Ġstap": 8487,
      "ĠSandy": 8488,
      "ĠAan": 8489,
      "ĠGil": 8490,
      "While": 8491,
      "Ġstudent": 8492,
      "Ġkijkt": 8493,
      "Ġnormally": 8494,
      "Ġdoggy": 8495,
      "akespeare": 8496,
      "GAI": 8497,
      "Men": 8498,
      "Paul": 8499,
      "ado": 8500,
      "Ġjail": 8501,
      "again": 8502,
      "ĠJoh": 8503,
      "oston": 8504,
      "Ġgeloven": 8505,
      "Ġsucces": 8506,
      "Ġsystems": 8507,
      "Ġpunten": 8508,
      "åĺĽ": 8509,
      "Ġphilos": 8510,
      "Ġzuurstof": 8511,
      "ĠWednesday": 8512,
      "Zie": 8513,
      "wa": 8514,
      "Ã§": 8515,
      "Ġtank": 8516,
      "ito": 8517,
      "itect": 8518,
      "edig": 8519,
      "amps": 8520,
      "ĠMaak": 8521,
      "Ġaltern": 8522,
      "peror": 8523,
      "Ġoccurred": 8524,
      "ĠCongress": 8525,
      "know": 8526,
      "last": 8527,
      "part": 8528,
      "Ġfart": 8529,
      "esides": 8530,
      "Ġlack": 8531,
      "ĠSince": 8532,
      "ilen": 8533,
      "Ġcharm": 8534,
      "ĠOut": 8535,
      "Ġvoorkomen": 8536,
      "ĠUN": 8537,
      "Ġbitter": 8538,
      "Ġdesire": 8539,
      "ukt": 8540,
      "Ġstoppen": 8541,
      "Ġuseful": 8542,
      "bridge": 8543,
      "Ġbadly": 8544,
      "Ġ1992": 8545,
      "Ġwondering": 8546,
      "Ġtransl": 8547,
      "Ġhoge": 8548,
      "Ġtelefoon": 8549,
      "Ha": 8550,
      "vorm": 8551,
      "yay": 8552,
      "erb": 8553,
      "Ġhunt": 8554,
      "Ġkool": 8555,
      "imit": 8556,
      "ĠSpr": 8557,
      "ĠMack": 8558,
      "ĠAT": 8559,
      "Ġvergeten": 8560,
      "Ġmighty": 8561,
      "Ġlanded": 8562,
      "Ġ1993": 8563,
      "Ġdrinken": 8564,
      "Ġcurrently": 8565,
      "Ġengaged": 8566,
      "åĵİ": 8567,
      "Ġsisters": 8568,
      "Ġescaped": 8569,
      "Ġbelongs": 8570,
      "Ġbezig": 8571,
      "Ġlosing": 8572,
      "ĠStonewell": 8573,
      "uyu": 8574,
      "Ad": 8575,
      "uan": 8576,
      "uizen": 8577,
      "zaak": 8578,
      "Ġbunch": 8579,
      "Ġnick": 8580,
      "Ġzout": 8581,
      "raine": 8582,
      "ikel": 8583,
      "ulous": 8584,
      "ĠKik": 8585,
      "ä½łçļĦ": 8586,
      "ANT": 8587,
      "Stay": 8588,
      "Alleen": 8589,
      "Ġgrave": 8590,
      "Ġcookies": 8591,
      "Ġequal": 8592,
      "nieuw": 8593,
      "Ġenjoyed": 8594,
      "Ġeventually": 8595,
      "ĠSusan": 8596,
      "Ġlibrary": 8597,
      "Con": 8598,
      "bor": 8599,
      "lagen": 8600,
      "pat": 8601,
      "Ġwinning": 8602,
      "Ġcounter": 8603,
      "orie": 8604,
      "keys": 8605,
      "ĠBrian": 8606,
      "usted": 8607,
      "ability": 8608,
      "Ġconsequ": 8609,
      "Ġvoorbij": 8610,
      "ĠStar": 8611,
      "æĪĳå°±": 8612,
      "Ġcolon": 8613,
      "Ġpointed": 8614,
      "Ġkilling": 8615,
      "Ġveh": 8616,
      "æŃ»": 8617,
      "Ġplanning": 8618,
      "ç®Ĺ": 8619,
      "Ġfolks": 8620,
      "ĠCatholic": 8621,
      "Ġindependent": 8622,
      "kiss": 8623,
      "uut": 8624,
      "eding": 8625,
      "ĠSing": 8626,
      "uls": 8627,
      "Ġopens": 8628,
      "Ġquality": 8629,
      "Ġomge": 8630,
      "Ġslapen": 8631,
      "Ġleague": 8632,
      "Ġnaast": 8633,
      "Ġrefused": 8634,
      "Ġpurse": 8635,
      "Ġexecut": 8636,
      "Ġbeneath": 8637,
      "During": 8638,
      "Out": 8639,
      "Ġloose": 8640,
      "Ġsta": 8641,
      "urally": 8642,
      "olars": 8643,
      "Ġcliff": 8644,
      "chester": 8645,
      "intend": 8646,
      "Ġsurely": 8647,
      "Ġstepped": 8648,
      "Ġgeval": 8649,
      "ervation": 8650,
      "æĸĩ": 8651,
      "ITH": 8652,
      "Ġticket": 8653,
      "ĠCommand": 8654,
      "Ġlinks": 8655,
      "Ġnewspaper": 8656,
      "las": 8657,
      "rence": 8658,
      "Ġaid": 8659,
      "Ġdim": 8660,
      "Ġgrey": 8661,
      "Ġeet": 8662,
      "ĠMY": 8663,
      "ĠBC": 8664,
      "ript": 8665,
      "Ġ(;": 8666,
      "ĠKennis": 8667,
      "Ġqueen": 8668,
      "Ġslipped": 8669,
      "Ġgenet": 8670,
      "lets": 8671,
      "Ġ500": 8672,
      "Ġpurs": 8673,
      "wijs": 8674,
      "è½¦": 8675,
      "Ġrestaurant": 8676,
      "dle": 8677,
      "fire": 8678,
      "rift": 8679,
      "èĻ": 8680,
      "Ġfal": 8681,
      "Ġzu": 8682,
      "raat": 8683,
      "Ġervoor": 8684,
      "Ġsomehow": 8685,
      "Ġarrow": 8686,
      "Ġhelps": 8687,
      "ĠZij": 8688,
      "Ġrecent": 8689,
      "Ġhoeft": 8690,
      "Ġtrial": 8691,
      "Ġtribe": 8692,
      "Ġlearning": 8693,
      "Ġadvance": 8694,
      "Ġneighbor": 8695,
      "ĠAmerika": 8696,
      "Ġuitspraken": 8697,
      "Ġgevolg": 8698,
      "Ġadvanced": 8699,
      "Ġexcitement": 8700,
      "yo": 8701,
      "Ġx": 8702,
      "Ġbone": 8703,
      "Ġpussy": 8704,
      "Ġforgive": 8705,
      "Ġtrousers": 8706,
      "Ġadvis": 8707,
      "annah": 8708,
      "Ġpositive": 8709,
      "Ġdivision": 8710,
      "Car": 8711,
      "Sam": 8712,
      "VID": 8713,
      "kant": 8714,
      "é¥": 8715,
      "Ġpure": 8716,
      "Ġzen": 8717,
      "ĠMah": 8718,
      "ĠDar": 8719,
      "inding": 8720,
      "inky": 8721,
      "Ġslim": 8722,
      "ãĢģ": 8723,
      "azed": 8724,
      "Ġaccess": 8725,
      "Ġconfl": 8726,
      "Ġnetwork": 8727,
      "Ġshops": 8728,
      "çĪ±": 8729,
      "Ġcompeted": 8730,
      "Ġpuppy": 8731,
      "Ġrecognized": 8732,
      "Ġhasta": 8733,
      "ĠBruce": 8734,
      "Wow": 8735,
      "iat": 8736,
      "woorden": 8737,
      "çł": 8738,
      "ĠHad": 8739,
      "ĠPop": 8740,
      "inkt": 8741,
      "Ġbrilliant": 8742,
      "Ġprem": 8743,
      "ĠThanks": 8744,
      "Ġpersons": 8745,
      "Ġbesides": 8746,
      "ĠBefore": 8747,
      "Ġsignal": 8748,
      "ĠPrince": 8749,
      "Ġpropos": 8750,
      "Ġprisoners": 8751,
      "American": 8752,
      "EW": 8753,
      "Fine": 8754,
      "foot": 8755,
      "giggles": 8756,
      "wijk": 8757,
      "Ġpracht": 8758,
      "ĠNorthern": 8759,
      "ĠRel": 8760,
      "Ġspite": 8761,
      "Ġcomr": 8762,
      "resp": 8763,
      "Ġcock": 8764,
      "Ġaanwezig": 8765,
      "inny": 8766,
      "Ġbedo": 8767,
      "Ġkinda": 8768,
      "ailed": 8769,
      "volgens": 8770,
      "OUT": 8771,
      "Ġhighly": 8772,
      "æĢ»": 8773,
      "ALL": 8774,
      "çĲĥ": 8775,
      "Ġdemanded": 8776,
      "ĠâĮĪ": 8777,
      "Ġveroorzaakt": 8778,
      "[.": 8779,
      "vaten": 8780,
      "Ġnood": 8781,
      "Ġhaha": 8782,
      "ĠHave": 8783,
      "rika": 8784,
      "ĠJam": 8785,
      "Ġsequ": 8786,
      "kening": 8787,
      "Ġamazing": 8788,
      "Ġvoices": 8789,
      "Ġawake": 8790,
      "Ġdarkness": 8791,
      "Ġtreated": 8792,
      "Ġshouting": 8793,
      "Ġbepaald": 8794,
      "Ġastron": 8795,
      "Meer": 8796,
      "gang": 8797,
      "Ġwaves": 8798,
      "Ġgently": 8799,
      "icing": 8800,
      "stellen": 8801,
      "idays": 8802,
      "chair": 8803,
      "herry": 8804,
      "ĠBat": 8805,
      "ested": 8806,
      "ĠJerry": 8807,
      "Ġexcellent": 8808,
      "ĠUK": 8809,
      "Ġscr": 8810,
      "Ġ35": 8811,
      "Ġtraffic": 8812,
      "Ġleaf": 8813,
      "Ġhung": 8814,
      "Ġsixteen": 8815,
      "Ġ1991": 8816,
      "Ġlegal": 8817,
      "ĠZealand": 8818,
      "Ġfields": 8819,
      "Ġantwoorden": 8820,
      "Ġmooie": 8821,
      "Ġdunno": 8822,
      "ĠDistrict": 8823,
      "Ok": 8824,
      "tin": 8825,
      "Ġtin": 8826,
      "Ġgal": 8827,
      "Ġfiction": 8828,
      "Ġeiland": 8829,
      "entie": 8830,
      "amber": 8831,
      "Ġzorg": 8832,
      "ĠMiller": 8833,
      "ĠCons": 8834,
      "Ġspect": 8835,
      "Ġprepar": 8836,
      "Ġunion": 8837,
      "Ġcarriage": 8838,
      "ĠArmen": 8839,
      "proken": 8840,
      "Ġattacked": 8841,
      "Ġcaterpill": 8842,
      "Verd": 8843,
      "hot": 8844,
      "houden": 8845,
      "ii": 8846,
      "ynam": 8847,
      "ç¦": 8848,
      "Ġfier": 8849,
      "esh": 8850,
      "oty": 8851,
      "umes": 8852,
      "endid": 8853,
      "Ġchosen": 8854,
      "ĠOost": 8855,
      "Ġmannet": 8856,
      "Ġbloem": 8857,
      "phy": 8858,
      "Ġmaag": 8859,
      "35": 8860,
      "Father": 8861,
      "Ġhomes": 8862,
      "Ġpony": 8863,
      "Ġjar": 8864,
      "Ġexch": 8865,
      "ĠVeren": 8866,
      "ĠInter": 8867,
      "Ġactual": 8868,
      "Ġbreaking": 8869,
      "ĠAsia": 8870,
      "Ġgeme": 8871,
      "Ġraise": 8872,
      "Ġlistened": 8873,
      "Ġlabor": 8874,
      "Ġredenen": 8875,
      "ĠAzerbaijan": 8876,
      "gers": 8877,
      "tes": 8878,
      "Ġoef": 8879,
      "Ġfreedom": 8880,
      "ĠDoug": 8881,
      "plaats": 8882,
      "Ġpartij": 8883,
      "Ġasks": 8884,
      "Ġexped": 8885,
      "éĹ¨": 8886,
      "Ġspeelt": 8887,
      "Eh": 8888,
      "ME": 8889,
      "Um": 8890,
      "Ġtough": 8891,
      "inen": 8892,
      "Ġlon": 8893,
      "Ġhesit": 8894,
      "Ġbeeld": 8895,
      "ooper": 8896,
      "Ġrear": 8897,
      "ĠBoston": 8898,
      "ifer": 8899,
      "ureau": 8900,
      "Ġbegon": 8901,
      "apped": 8902,
      "romos": 8903,
      "Ġleaders": 8904,
      "Ġjumping": 8905,
      "Ġcritic": 8906,
      "Ġuitspraak": 8907,
      "Ġbegrijp": 8908,
      "eens": 8909,
      "kel": 8910,
      "ties": 8911,
      "Ġijs": 8912,
      "Ġdur": 8913,
      "Ġgingen": 8914,
      "Ġpakken": 8915,
      "sten": 8916,
      "uther": 8917,
      "Ġdochter": 8918,
      "ĠTandy": 8919,
      "ĠMist": 8920,
      "eeg": 8921,
      "ĠDave": 8922,
      "ATT": 8923,
      "è®°": 8924,
      "ĠMajor": 8925,
      "Ġstatistics": 8926,
      "Ġadmit": 8927,
      "Ġdrugs": 8928,
      "remember": 8929,
      "ĠIrish": 8930,
      "Ġbuffalo": 8931,
      "Ten": 8932,
      "isse": 8933,
      "Ġce": 8934,
      "Ġweken": 8935,
      "ĠCle": 8936,
      "rial": 8937,
      "Ġcourage": 8938,
      "Ġairport": 8939,
      "Ġmedical": 8940,
      "åĵĪ": 8941,
      "Ġdesigned": 8942,
      "Ġimprove": 8943,
      "éĶĻ": 8944,
      "åĸľæ¬¢": 8945,
      "iraffe": 8946,
      "Care": 8947,
      "New": 8948,
      "OD": 8949,
      "contin": 8950,
      "æ·": 8951,
      "Ġok": 8952,
      "Ġfate": 8953,
      "Ġloop": 8954,
      "Ġleef": 8955,
      "Ġbears": 8956,
      "ĠMore": 8957,
      "ĠRos": 8958,
      "ĠKenn": 8959,
      "odd": 8960,
      "ĠHein": 8961,
      "Ġparticip": 8962,
      "Ġ1950": 8963,
      "Ġwarning": 8964,
      "Ġclouds": 8965,
      "ä»Ĭå¤©": 8966,
      "Ġnervous": 8967,
      "Niemand": 8968,
      "bus": 8969,
      "ua": 8970,
      "zoeken": 8971,
      "Ġnad": 8972,
      "Ġvot": 8973,
      "Ġkeen": 8974,
      "Ġdeer": 8975,
      "entje": 8976,
      "achel": 8977,
      "ĠHal": 8978,
      "Ġblijkt": 8979,
      "Ġtrunk": 8980,
      "Ġschrijven": 8981,
      "shakes": 8982,
      "Ġours": 8983,
      "Ġcontr": 8984,
      "ouwd": 8985,
      "Ġvertrouw": 8986,
      "Ġpotatoes": 8987,
      "ĠCarolina": 8988,
      "26": 8989,
      "lk": 8990,
      "rr": 8991,
      "Ã±": 8992,
      "Ġpant": 8993,
      "Ġpeak": 8994,
      "Ġongel": 8995,
      "Ġbee": 8996,
      "Ġbeans": 8997,
      "Ġanno": 8998,
      "Ġverr": 8999,
      "Ġworn": 9000,
      "Ġgrant": 9001,
      "ĠThank": 9002,
      "Ġcontent": 9003,
      "åıĺ": 9004,
      "Ġdistant": 9005,
      "Ġreflect": 9006,
      "æĢĿ": 9007,
      "Ġchanging": 9008,
      "ublieft": 9009,
      "Ġsweetheart": 9010,
      "Ġvliegen": 9011,
      "Ġincrease": 9012,
      "çľŁçļĦ": 9013,
      "Ġsatisfied": 9014,
      "Ġstruggle": 9015,
      "Ġ~+": 9016,
      "Ġemergency": 9017,
      "ĠRaymond": 9018,
      "âĮī.": 9019,
      "Ġextremely": 9020,
      "first": 9021,
      "gonna": 9022,
      "listen": 9023,
      "Ġhoo": 9024,
      "edish": 9025,
      "uries": 9026,
      "ĠBaby": 9027,
      "Ġnotes": 9028,
      "ĠDE": 9029,
      "Ġverzeker": 9030,
      "Ġspare": 9031,
      "Ġbuurt": 9032,
      "Ġbeneden": 9033,
      "å®ī": 9034,
      "Ġsetting": 9035,
      "éĤ£ä¹Ī": 9036,
      "Ġclimbing": 9037,
      "Ġancest": 9038,
      "Ġverwacht": 9039,
      "ĠOxford": 9040,
      "Ġentrance": 9041,
      "ĠAssociation": 9042,
      "WHAT": 9043,
      "ĠĊ": 9044,
      "Ġere": 9045,
      "Ġtoer": 9046,
      "stublieft": 9047,
      "ĠSouthern": 9048,
      "Ġsprang": 9049,
      "Ġseeds": 9050,
      "icket": 9051,
      "iteindelijk": 9052,
      "Ġminim": 9053,
      "boom": 9054,
      "Ġsteam": 9055,
      "ĠBarb": 9056,
      "Ġappears": 9057,
      "Ġjacket": 9058,
      "ĠBruin": 9059,
      "Ġaudience": 9060,
      "âĮĭ.": 9061,
      "Ġbenefit": 9062,
      "Ġzenuw": 9063,
      "70": 9064,
      "Natuurlijk": 9065,
      "Sometimes": 9066,
      "eaut": 9067,
      "ĠHard": 9068,
      "ulance": 9069,
      "Ġgray": 9070,
      "ĠThursday": 9071,
      "åľº": 9072,
      "ĠAndor": 9073,
      "ĠBeeld": 9074,
      "Ġdriven": 9075,
      "Ġnearer": 9076,
      "loren": 9077,
      "Ġverschil": 9078,
      "Ġadmir": 9079,
      "ĠDemocratic": 9080,
      "Ġpoliceman": 9081,
      "44": 9082,
      "ei": 9083,
      "ux": 9084,
      "onia": 9085,
      "Ġgast": 9086,
      "Ġlag": 9087,
      "Ġeig": 9088,
      "urrent": 9089,
      "ĠBattle": 9090,
      "Ġhadta": 9091,
      "Ġoverw": 9092,
      "Ġpeas": 9093,
      "Ġadem": 9094,
      "ä¸Ģä¸ĭ": 9095,
      "Ġmoments": 9096,
      "Ġglance": 9097,
      "Ġsleut": 9098,
      "Ġbushes": 9099,
      "ĠShakespeare": 9100,
      "mbly": 9101,
      "Ġsuffered": 9102,
      "sky": 9103,
      "Ġperformance": 9104,
      "ĠRoad": 9105,
      "ĠHAVE": 9106,
      "rate": 9107,
      "ç¤": 9108,
      "hemat": 9109,
      "aned": 9110,
      "Ġdoo": 9111,
      "Ġmal": 9112,
      "Ġgreet": 9113,
      "Ġtoek": 9114,
      "Ġupper": 9115,
      "ĠSn": 9116,
      "una": 9117,
      "uments": 9118,
      "Ġenergie": 9119,
      "ĠOff": 9120,
      "Ġremains": 9121,
      "anning": 9122,
      "HERE": 9123,
      "Ġstudies": 9124,
      "åĪ°äºĨ": 9125,
      "Ġhurts": 9126,
      "Ġapolog": 9127,
      "ĠTrans": 9128,
      "ĠElizabeth": 9129,
      "pointing": 9130,
      "Ġproposed": 9131,
      "Ġconnected": 9132,
      "ĠAngela": 9133,
      "Ġscientific": 9134,
      "KAT": 9135,
      "Nice": 9136,
      "Tw": 9137,
      "best": 9138,
      "Ġbouw": 9139,
      "Ġpity": 9140,
      "ete": 9141,
      "ali": 9142,
      "stal": 9143,
      "rose": 9144,
      "ĠAto": 9145,
      "inkle": 9146,
      "mann": 9147,
      "Ġwaarbij": 9148,
      "Ġbreast": 9149,
      "Ġpassen": 9150,
      "Ġpresented": 9151,
      "Ġmajority": 9152,
      "Ġkeys": 9153,
      "Ġbanana": 9154,
      "Ġepisode": 9155,
      "ĠVirginia": 9156,
      "ĠSecretary": 9157,
      "Jesus": 9158,
      "Nin": 9159,
      "],": 9160,
      "é»": 9161,
      "erable": 9162,
      "Ġmacht": 9163,
      "Ġhidden": 9164,
      "seven": 9165,
      "Ġdoel": 9166,
      "Ġanal": 9167,
      "ili": 9168,
      "ĠPas": 9169,
      "ĠRus": 9170,
      "Ġchick": 9171,
      "Ġbeds": 9172,
      "ĠClub": 9173,
      "éĥ½æĺ¯": 9174,
      "Ġprofessor": 9175,
      "nament": 9176,
      "Remember": 9177,
      "Hurry": 9178,
      "Make": 9179,
      "maken": 9180,
      "Ġwitte": 9181,
      "onk": 9182,
      "Ġthirst": 9183,
      "ĠSometimes": 9184,
      "Ġliqu": 9185,
      "ĠLater": 9186,
      "åıĭ": 9187,
      "goes": 9188,
      "Ġintended": 9189,
      "Ġ70": 9190,
      "Ġcontroll": 9191,
      "Ġgebeuren": 9192,
      "Ġdreams": 9193,
      "Ġvermoord": 9194,
      "Ġrubbish": 9195,
      "goed": 9196,
      "oer": 9197,
      "Ġtropical": 9198,
      "Ġdial": 9199,
      "Ġtoes": 9200,
      "elic": 9201,
      "sterd": 9202,
      "Ġkennen": 9203,
      "sembly": 9204,
      "Ġstack": 9205,
      "ĠBible": 9206,
      "ĠJess": 9207,
      "Ġlect": 9208,
      "ĠUnder": 9209,
      "Think": 9210,
      "onsense": 9211,
      "ĠArch": 9212,
      "Ġ1984": 9213,
      "ancing": 9214,
      "Ġprize": 9215,
      "iedenis": 9216,
      "Ġwow": 9217,
      "Ġgit": 9218,
      "Ġstil": 9219,
      "Ġmoe": 9220,
      "æĪĺ": 9221,
      "åı£": 9222,
      "åĳĺ": 9223,
      "beeldingen": 9224,
      "ĠHierdoor": 9225,
      "Ġselected": 9226,
      "Ġbudget": 9227,
      "ĠMuslim": 9228,
      "ĠPortugal": 9229,
      "ĠSpaniards": 9230,
      "\").": 9231,
      "sche": 9232,
      "Ġgre": 9233,
      "Ġthorough": 9234,
      "ĠCorn": 9235,
      "Ġseed": 9236,
      "beelden": 9237,
      "olle": 9238,
      "åĲĳ": 9239,
      "Ġbitch": 9240,
      "Ġhorrible": 9241,
      "Ġgevangen": 9242,
      "ĠâĤ¬": 9243,
      "attles": 9244,
      "ĠSweden": 9245,
      "Ġbelangrijke": 9246,
      "Ġappointed": 9247,
      "37": 9248,
      "Aan": 9249,
      "æħ": 9250,
      "Ġduur": 9251,
      "iture": 9252,
      "Ġyyy": 9253,
      "Ġlamp": 9254,
      "ador": 9255,
      "Ġwashed": 9256,
      "Ġstroom": 9257,
      "alls": 9258,
      "illing": 9259,
      "uman": 9260,
      "tha": 9261,
      "ĠWood": 9262,
      "emies": 9263,
      "æĪĳä¹Ł": 9264,
      "Another": 9265,
      "Ġgezond": 9266,
      "Ġformula": 9267,
      "Ġtreatment": 9268,
      "Ġfleet": 9269,
      "Ġearnest": 9270,
      "Ġdegrees": 9271,
      "Ġrescue": 9272,
      "Ġunusual": 9273,
      "Huh": 9274,
      "kend": 9275,
      "press": 9276,
      "rels": 9277,
      "ĠMister": 9278,
      "Ġrij": 9279,
      "Ġconce": 9280,
      "Ġblame": 9281,
      "Ġbetalen": 9282,
      "ĠBruno": 9283,
      "gery": 9284,
      "Ġtowns": 9285,
      "Ġsquee": 9286,
      "Ġmiddel": 9287,
      "Ġmidship": 9288,
      "Ġtracks": 9289,
      "ĠGraham": 9290,
      "Ġphysical": 9291,
      "Ġvessel": 9292,
      "ĠRoland": 9293,
      "'...": 9294,
      "mers": 9295,
      "iner": 9296,
      "Ġwoke": 9297,
      "Ġsets": 9298,
      "Ġdump": 9299,
      "Ġbum": 9300,
      "Ġhong": 9301,
      "Ġyo": 9302,
      "ĠSand": 9303,
      "uster": 9304,
      "Ġverst": 9305,
      "ĠRE": 9306,
      "Ġcomedy": 9307,
      "udden": 9308,
      "ĠInstitute": 9309,
      "Ġunits": 9310,
      "Ġmustn": 9311,
      "Ġseriously": 9312,
      "Ġwooden": 9313,
      "æŃ¤": 9314,
      "Ġpraat": 9315,
      "Ġeagerly": 9316,
      "Ġroute": 9317,
      "åºĶè¯¥": 9318,
      ":\"": 9319,
      "OS": 9320,
      "bage": 9321,
      "erland": 9322,
      "Ġmort": 9323,
      "Ġkent": 9324,
      "Ġdoden": 9325,
      "ĠHun": 9326,
      "Ġseized": 9327,
      "Ġwhenever": 9328,
      "Ġslip": 9329,
      "Ġcomplex": 9330,
      "åħī": 9331,
      "Ġsword": 9332,
      "ĠGermans": 9333,
      "Ġmedal": 9334,
      "ĠAbout": 9335,
      "Ġdetails": 9336,
      "Ġcreate": 9337,
      "quarters": 9338,
      "Ġavoid": 9339,
      "rument": 9340,
      "uart": 9341,
      "Ġign": 9342,
      "Ġyards": 9343,
      "Ġdata": 9344,
      "anker": 9345,
      "ivity": 9346,
      "Ġtrouw": 9347,
      "ĠStud": 9348,
      "egd": 9349,
      "Ġoldest": 9350,
      "Ġwaarde": 9351,
      "Ġrelief": 9352,
      "æĿ¥äºĨ": 9353,
      "Ġsubst": 9354,
      "Ġconfidence": 9355,
      "Ġexplos": 9356,
      "Ġsuffer": 9357,
      "Ġavond": 9358,
      "Ġincreased": 9359,
      "ĠMatthew": 9360,
      "cohol": 9361,
      "Ġlonely": 9362,
      "38": 9363,
      "Sl": 9364,
      "pool": 9365,
      "Ġfan": 9366,
      "Ġfaint": 9367,
      "Ġthunder": 9368,
      "Ġweb": 9369,
      "ĠTop": 9370,
      "ĠTuesday": 9371,
      "Ġrhy": 9372,
      "ĠBerl": 9373,
      "riet": 9374,
      "Ġplot": 9375,
      "ĠLife": 9376,
      "Ġeraan": 9377,
      "gene": 9378,
      "Heel": 9379,
      "Ġregret": 9380,
      "Ġdaarom": 9381,
      "Ġwondered": 9382,
      "Ġverteld": 9383,
      "eekaboo": 9384,
      "ĠCommittee": 9385,
[...]
