{
  "version": "1.0",
  "truncation": null,
  "padding": null,
  "added_tokens": [
    {
      "id": 0,
      "content": "<unk>",
      "single_word": false,
      "lstrip": false,
      "rstrip": false,
      "normalized": false,
      "special": true
    },
    {
      "id": 1,
      "content": "<s>",
      "single_word": false,
      "lstrip": false,
      "rstrip": false,
      "normalized": false,
      "special": true
    },
    {
      "id": 2,
      "content": "</s>",
      "single_word": false,
      "lstrip": false,
      "rstrip": false,
      "normalized": false,
      "special": true
    },
    {
      "id": 3,
      "content": "<pad>",
      "single_word": false,
      "lstrip": false,
      "rstrip": false,
      "normalized": false,
      "special": true
    },
    {
      "id": 4,
      "content": "<mask>",
      "single_word": false,
      "lstrip": false,
      "rstrip": false,
      "normalized": false,
      "special": true
    }
  ],
  "normalizer": null,
  "pre_tokenizer": {
    "type": "ByteLevel",
    "add_prefix_space": false,
    "trim_offsets": true,
    "use_regex": true
  },
  "post_processor": {
    "type": "ByteLevel",
    "add_prefix_space": true,
    "trim_offsets": false,
    "use_regex": true
  },
  "decoder": {
    "type": "ByteLevel",
    "add_prefix_space": true,
    "trim_offsets": true,
    "use_regex": true
  },
  "model": {
    "type": "BPE",
    "dropout": null,
    "unk_token": null,
    "continuing_subword_prefix": null,
    "end_of_word_suffix": null,
    "fuse_unk": false,
    "byte_fallback": false,
    "ignore_merges": false,
    "vocab": {
      "<unk>": 0,
      "<s>": 1,
      "</s>": 2,
      "<pad>": 3,
      "<mask>": 4,
      "!": 5,
      "\"": 6,
      "#": 7,
      "$": 8,
      "%": 9,
      "&": 10,
      "'": 11,
      "(": 12,
      ")": 13,
      "*": 14,
      "+": 15,
      ",": 16,
      "-": 17,
      ".": 18,
      "/": 19,
      "0": 20,
      "1": 21,
      "2": 22,
      "3": 23,
      "4": 24,
      "5": 25,
      "6": 26,
      "7": 27,
      "8": 28,
      "9": 29,
      ":": 30,
      ";": 31,
      "<": 32,
      "=": 33,
      ">": 34,
      "?": 35,
      "@": 36,
      "A": 37,
      "B": 38,
      "C": 39,
      "D": 40,
      "E": 41,
      "F": 42,
      "G": 43,
      "H": 44,
      "I": 45,
      "J": 46,
      "K": 47,
      "L": 48,
      "M": 49,
      "N": 50,
      "O": 51,
      "P": 52,
      "Q": 53,
      "R": 54,
      "S": 55,
      "T": 56,
      "U": 57,
      "V": 58,
      "W": 59,
      "X": 60,
      "Y": 61,
      "Z": 62,
      "[": 63,
      "\\": 64,
      "]": 65,
      "^": 66,
      "_": 67,
      "`": 68,
      "a": 69,
      "b": 70,
      "c": 71,
      "d": 72,
      "e": 73,
      "f": 74,
      "g": 75,
      "h": 76,
      "i": 77,
      "j": 78,
      "k": 79,
      "l": 80,
      "m": 81,
      "n": 82,
      "o": 83,
      "p": 84,
      "q": 85,
      "r": 86,
      "s": 87,
      "t": 88,
      "u": 89,
      "v": 90,
      "w": 91,
      "x": 92,
      "y": 93,
      "z": 94,
      "{": 95,
      "|": 96,
      "}": 97,
      "~": 98,
      "¡": 99,
      "¢": 100,
      "£": 101,
      "¤": 102,
      "¥": 103,
      "¦": 104,
      "§": 105,
      "¨": 106,
      "©": 107,
      "ª": 108,
      "«": 109,
      "¬": 110,
      "®": 111,
      "¯": 112,
      "°": 113,
      "±": 114,
      "²": 115,
      "³": 116,
      "´": 117,
      "µ": 118,
      "¶": 119,
      "·": 120,
      "¸": 121,
      "¹": 122,
      "º": 123,
      "»": 124,
      "¼": 125,
      "½": 126,
      "¾": 127,
      "¿": 128,
      "À": 129,
      "Á": 130,
      "Â": 131,
      "Ã": 132,
      "Ä": 133,
      "Å": 134,
      "Æ": 135,
      "Ç": 136,
      "È": 137,
      "É": 138,
      "Ê": 139,
      "Ë": 140,
      "Ì": 141,
      "Í": 142,
      "Î": 143,
      "Ï": 144,
      "Ð": 145,
      "Ñ": 146,
      "Ò": 147,
      "Ó": 148,
      "Ô": 149,
      "Õ": 150,
      "Ö": 151,
      "×": 152,
      "Ø": 153,
      "Ù": 154,
      "Ú": 155,
      "Û": 156,
      "Ü": 157,
      "Ý": 158,
      "Þ": 159,
      "ß": 160,
      "à": 161,
      "á": 162,
      "â": 163,
      "ã": 164,
      "ä": 165,
      "å": 166,
      "æ": 167,
      "ç": 168,
      "è": 169,
      "é": 170,
      "ê": 171,
      "ë": 172,
      "ì": 173,
      "í": 174,
      "î": 175,
      "ï": 176,
      "ð": 177,
      "ñ": 178,
      "ò": 179,
      "ó": 180,
      "ô": 181,
      "õ": 182,
      "ö": 183,
      "÷": 184,
      "ø": 185,
      "ù": 186,
      "ú": 187,
      "û": 188,
      "ü": 189,
      "ý": 190,
      "þ": 191,
      "ÿ": 192,
      "Ā": 193,
      "ā": 194,
      "Ă": 195,
      "ă": 196,
      "Ą": 197,
      "ą": 198,
      "Ć": 199,
      "ć": 200,
      "Ĉ": 201,
      "ĉ": 202,
      "Ċ": 203,
      "ċ": 204,
      "Č": 205,
      "č": 206,
      "Ď": 207,
      "ď": 208,
      "Đ": 209,
      "đ": 210,
      "Ē": 211,
      "ē": 212,
      "Ĕ": 213,
      "ĕ": 214,
      "Ė": 215,
      "ė": 216,
      "Ę": 217,
      "ę": 218,
      "Ě": 219,
      "ě": 220,
      "Ĝ": 221,
      "ĝ": 222,
      "Ğ": 223,
      "ğ": 224,
      "Ġ": 225,
      "ġ": 226,
      "Ģ": 227,
      "ģ": 228,
      "Ĥ": 229,
      "ĥ": 230,
      "Ħ": 231,
      "ħ": 232,
      "Ĩ": 233,
      "ĩ": 234,
      "Ī": 235,
      "ī": 236,
      "Ĭ": 237,
      "ĭ": 238,
      "Į": 239,
      "į": 240,
      "İ": 241,
      "ı": 242,
      "Ĳ": 243,
      "ĳ": 244,
      "Ĵ": 245,
      "ĵ": 246,
      "Ķ": 247,
      "ķ": 248,
      "ĸ": 249,
      "Ĺ": 250,
      "ĺ": 251,
      "Ļ": 252,
      "ļ": 253,
      "Ľ": 254,
      "ľ": 255,
      "Ŀ": 256,
      "ŀ": 257,
      "Ł": 258,
      "ł": 259,
      "Ń": 260,
      "en": 261,
      "er": 262,
      "Ġt": 263,
      "an": 264,
      "he": 265,
      "in": 266,
      "Ġd": 267,
      "Ġw": 268,
      "at": 269,
      "Ġo": 270,
      "Ġs": 271,
      "Ġm": 272,
      "Ġa": 273,
      "Ġ.": 274,
      "ä¸": 275,
      "Ġb": 276,
      "ou": 277,
      "is": 278,
      "et": 279,
      "ar": 280,
      "or": 281,
      "Ġh": 282,
      "Ġg": 283,
      "el": 284,
      "it": 285,
      "Ġv": 286,
      "Ġthe": 287,
      "ij": 288,
      "Ġn": 289,
      "on": 290,
      "es": 291,
      "Ġhe": 292,
      "ed": 293,
      "äº": 294,
      "ing": 295,
      "and": 296,
      "ch": 297,
      "Ġz": 298,
      "Ġde": 299,
      "Ġl": 300,
      "Ġp": 301,
      "Ġe": 302,
      "çļ": 303,
      "çļĦ": 304,
      "al": 305,
      "Ġin": 306,
      "Ġj": 307,
      "Ġth": 308,
      "re": 309,
      "Ġf": 310,
      "Ġc": 311,
      "Ġk": 312,
      "as": 313,
      "ä»": 314,
      "Ġto": 315,
      "om": 316,
      "æĪ": 317,
      "ie": 318,
      "OT": 319,
      "MOT": 320,
      "Ġis": 321,
      "ä½": 322,
      "Ġy": 323,
      "aar": 324,
      "è¿": 325,
      "æĪĳ": 326,
      "CH": 327,
      "æĺ": 328,
      "CHI": 329,
      "ll": 330,
      "Ġyou": 331,
      "Ġof": 332,
      "Ġ,": 333,
      "Ġand": 334,
      "st": 335,
      "æĺ¯": 336,
      "ot": 337,
      "Ġje": 338,
      "ig": 339,
      "Ġon": 340,
      "ä½ł": 341,
      "le": 342,
      "ik": 343,
      "ĠI": 344,
      "Ġeen": 345,
      "äºĨ": 346,
      "å¤": 347,
      "Ġhet": 348,
      "oor": 349,
      "ä¹": 350,
      "æľ": 351,
      "oo": 352,
      "ad": 353,
      "id": 354,
      "åı": 355,
      "Ġu": 356,
      "åĲ": 357,
      "ere": 358,
      "å°": 359,
      "ow": 360,
      "'s": 361,
      "ä¸į": 362,
      "Ġ?": 363,
      "Ġbe": 364,
      "ä¸Ģ": 365,
      "iet": 366,
      "Ġr": 367,
      "am": 368,
      "Ġst": 369,
      "..": 370,
      "Ġen": 371,
      "ut": 372,
      "Ġvan": 373,
      "ve": 374,
      "Ġme": 375,
      "ur": 376,
      "Ġwe": 377,
      "Ġge": 378,
      "ak": 379,
      "è¯": 380,
      "Ġit": 381,
      "ay": 382,
      "il": 383,
      "è¿Ļ": 384,
      "ent": 385,
      "å®": 386,
      "ic": 387,
      "Ġwas": 388,
      "ver": 389,
      "åľ": 390,
      "ijn": 391,
      "åĪ": 392,
      "Ġthat": 393,
      "ag": 394,
      "ro": 395,
      "Ġop": 396,
      "Ġdat": 397,
      "Ġwh": 398,
      "å¥": 399,
      "Ġver": 400,
      "Ġniet": 401,
      "cht": 402,
      "ee": 403,
      "åħ": 404,
      "im": 405,
      "Ġdo": 406,
      "æĿ": 407,
      "ĠS": 408,
      "se": 409,
      "un": 410,
      "ä¸ª": 411,
      "Ik": 412,
      "Ġte": 413,
      "de": 414,
      "ĠM": 415,
      "Ġik": 416,
      "æľī": 417,
      "ol": 418,
      "ra": 419,
      "th": 420,
      "ĠD": 421,
      "den": 422,
      "å°±": 423,
      "est": 424,
      "ĠT": 425,
      "ĠA": 426,
      "Ġal": 427,
      "ãĢ": 428,
      "oe": 429,
      "Ġ'": 430,
      "gen": 431,
      "ĠH": 432,
      "ir": 433,
      "der": 434,
      "Ġer": 435,
      "ijk": 436,
      "'t": 437,
      "åĳ": 438,
      "ĥ½": 439,
      "ion": 440,
      "åľ¨": 441,
      "ä»¬": 442,
      "åŃ": 443,
      "å¾": 444,
      "ĠB": 445,
      "ly": 446,
      "ç»": 447,
      "ant": 448,
      "ãĢĤ": 449,
      "ac": 450,
      "ter": 451,
      "æī": 452,
      "Ġfor": 453,
      "ä»ĸ": 454,
      "åķ": 455,
      "ven": 456,
      "Ġgo": 457,
      "Ġre": 458,
      "ap": 459,
      "ä¹Ī": 460,
      "äºº": 461,
      "op": 462,
      "æĿ¥": 463,
      "Ġze": 464,
      "ht": 465,
      "ĠæĪĳ": 466,
      "us": 467,
      "Ġvoor": 468,
      "ell": 469,
      "Ġå": 470,
      "çĶ": 471,
      "æĹ": 472,
      "ĠC": 473,
      "çľ": 474,
      "Ġmo": 475,
      "è¯´": 476,
      "Ġzijn": 477,
      "ld": 478,
      "Ġheb": 479,
      "ill": 480,
      "ken": 481,
      "Ġmet": 482,
      "ith": 483,
      "éĤ": 484,
      "ier": 485,
      "åķĬ": 486,
      "ä¼": 487,
      "Ġall": 488,
      "åĽ": 489,
      "Ġha": 490,
      "éĤ£": 491,
      "ft": 492,
      "ers": 493,
      "å¥½": 494,
      "ct": 495,
      "Ġ...": 496,
      "Ġ1": 497,
      "Ġno": 498,
      "ge": 499,
      "ĠW": 500,
      "aat": 501,
      "ight": 502,
      "Ġan": 503,
      "æĢ": 504,
      "ok": 505,
      "åİ": 506,
      "Ġwor": 507,
      "ome": 508,
      "æ²": 509,
      "Ġwith": 510,
      "Ġä½ł": 511,
      "ien": 512,
      "æĥ": 513,
      "Ġdie": 514,
      "¦ģ": 515,
      "èµ": 516,
      "è¦ģ": 517,
      "um": 518,
      "ĠP": 519,
      "em": 520,
      "Ġas": 521,
      "éĩ": 522,
      "è®": 523,
      "hat": 524,
      "Ġle": 525,
      "all": 526,
      "ĠE": 527,
      "aan": 528,
      "åĬ": 529,
      "å¿": 530,
      "Ġaan": 531,
      "ust": 532,
      "å¤§": 533,
      "ĠG": 534,
      "Ġ\"": 535,
      "åį": 536,
      "èĢ": 537,
      "åĩ": 538,
      "ĠN": 539,
      "if": 540,
      "è§": 541,
      "xx": 542,
      "nd": 543,
      "ĠJ": 544,
      "Ġat": 545,
      "åĪ°": 546,
      "je": 547,
      "ul": 548,
      "Ġhad": 549,
      "Ġwat": 550,
      "Ġover": 551,
      "Ġsp": 552,
      "ä¸Ĭ": 553,
      "ce": 554,
      "IN": 555,
      "Ġnot": 556,
      "ah": 557,
      "ind": 558,
      "åŃĲ": 559,
      "ist": 560,
      "æĬ": 561,
      "Ġkn": 562,
      "ze": 563,
      "Ġom": 564,
      "Ġhave": 565,
      "ĠL": 566,
      "ould": 567,
      "å·": 568,
      "çİ": 569,
      "AR": 570,
      "å¼": 571,
      "å¸": 572,
      "Ġthis": 573,
      "å¹": 574,
      "AT": 575,
      "æ²¡": 576,
      "ä¹Ł": 577,
      "Ġuit": 578,
      "ĠR": 579,
      "åĨ": 580,
      "INV": 581,
      "Ġals": 582,
      "éĥ½": 583,
      "å¯": 584,
      "ast": 585,
      "Ġpl": 586,
      "ook": 587,
      "Ġare": 588,
      "eer": 589,
      "Ġsh": 590,
      "åİ»": 591,
      "art": 592,
      "è¿ĺ": 593,
      "ood": 594,
      "çľĭ": 595,
      "å¾Ĺ": 596,
      "...": 597,
      "Ġ2": 598,
      "ab": 599,
      "ug": 600,
      "eld": 601,
      "æł": 602,
      "Ġfr": 603,
      "Ġzo": 604,
      "ĠO": 605,
      "å°ı": 606,
      "éĹ": 607,
      "æĸ": 608,
      "ä¼ļ": 609,
      "åĵ": 610,
      "Ġne": 611,
      "ess": 612,
      "åı¯": 613,
      "os": 614,
      "èĥ½": 615,
      "ĠF": 616,
      "rou": 617,
      "è·": 618,
      "ang": 619,
      "ä¸º": 620,
      "ink": 621,
      "Ġthey": 622,
      "Ħ¿": 623,
      "Ġmaar": 624,
      "ri": 625,
      "Ġhis": 626,
      "æŃ": 627,
      "æĹ¶": 628,
      "Ġone": 629,
      "We": 630,
      "Ġcan": 631,
      "Ġher": 632,
      "çĿ": 633,
      "Ġ(": 634,
      "ET": 635,
      "een": 636,
      "out": 637,
      "Ġnaar": 638,
      "nen": 639,
      "ond": 640,
      "ain": 641,
      "Ġyour": 642,
      "LD": 643,
      "ard": 644,
      "Ġknow": 645,
      "ä»¥": 646,
      "Ġup": 647,
      "Ġthere": 648,
      "Ġ!": 649,
      "CHILD": 650,
      "ä»Ģ": 651,
      "ĠK": 652,
      "ä»Ģä¹Ī": 653,
      "Ġdan": 654,
      "å¦": 655,
      "Ġdon": 656,
      "å¤©": 657,
      "ru": 658,
      "Het": 659,
      "åĦ¿": 660,
      "TAR": 661,
      "GET": 662,
      "eah": 663,
      "TARGET": 664,
      "rij": 665,
      "ich": 666,
      "aal": 667,
      "Ġ-": 668,
      "åĴ": 669,
      "ry": 670,
      "Ġaf": 671,
      "Ġmoet": 672,
      "ike": 673,
      "Ġsch": 674,
      "å®¶": 675,
      "éĿ": 676,
      "her": 677,
      "ck": 678,
      "sen": 679,
      "Ġman": 680,
      "è¿ĩ": 681,
      "ä¸ĭ": 682,
      "oh": 683,
      "Ġwhat": 684,
      "éģ": 685,
      "åº": 686,
      "åĲİ": 687,
      "we": 688,
      "è¡": 689,
      "be": 690,
      "te": 691,
      "Ġor": 692,
      "Ġbl": 693,
      "Je": 694,
      "èĩ": 695,
      "æĥ³": 696,
      "éĢ": 697,
      "Ġpro": 698,
      "elijk": 699,
      "Ġhij": 700,
      "Ġmy": 701,
      "äºĭ": 702,
      "Ġshe": 703,
      "ĠV": 704,
      "ull": 705,
      "Ġso": 706,
      "ten": 707,
      "Ġch": 708,
      "ation": 709,
      "Ġben": 710,
      "çĽ": 711,
      "You": 712,
      "pen": 713,
      "Ġget": 714,
      "ore": 715,
      "çĪ": 716,
      "åĳ¢": 717,
      "ack": 718,
      "çĿĢ": 719,
      "Ġwer": 720,
      "ä¸Ģä¸ª": 721,
      "ake": 722,
      "å¯¹": 723,
      "ies": 724,
      "ER": 725,
      "Ġout": 726,
      "Ã©": 727,
      "æķ": 728,
      "Ġab": 729,
      "eel": 730,
      "Ġsa": 731,
      "è¿Ļä¸ª": 732,
      "Ġwel": 733,
      "ank": 734,
      "ong": 735,
      "Ġbij": 736,
      "Ġook": 737,
      "è°": 738,
      "æ¯": 739,
      "éĩĮ": 740,
      "'re": 741,
      "ip": 742,
      "Ġkan": 743,
      "æĦ": 744,
      "Ġtw": 745,
      "æĭ": 746,
      "ĠDe": 747,
      "Ġlike": 748,
      "åĩº": 749,
      "acht": 750,
      "Ġpr": 751,
      "Ġwil": 752,
      "Wat": 753,
      "sch": 754,
      "åĲ§": 755,
      "Ġhim": 756,
      "ĠThe": 757,
      "åĲĹ": 758,
      "å¤ļ": 759,
      "qu": 760,
      "çī": 761,
      "Ġfrom": 762,
      "eft": 763,
      "The": 764,
      "De": 765,
      "ber": 766,
      "ine": 767,
      "çĶŁ": 768,
      "Ġnog": 769,
      "Ġcom": 770,
      "å½": 771,
      "aak": 772,
      "Ġwaar": 773,
      "åľ°": 774,
      "æ°": 775,
      "çŁ": 776,
      "Ġhier": 777,
      "Ġbut": 778,
      "Ġdoor": 779,
      "æĪĳä»¬": 780,
      "elf": 781,
      "od": 782,
      "og": 783,
      "one": 784,
      "na": 785,
      "æŀ": 786,
      "ç§": 787,
      "å°±æĺ¯": 788,
      "ame": 789,
      "ç»Ļ": 790,
      "Ġsu": 791,
      "éģĵ": 792,
      "ide": 793,
      "Ze": 794,
      "çİ°": 795,
      "FAT": 796,
      "Ġcon": 797,
      "au": 798,
      "Ġkun": 799,
      "00": 800,
      "ort": 801,
      "you": 802,
      "Ġex": 803,
      "Ġse": 804,
      "çĤ": 805,
      "çĦ": 806,
      "Ġby": 807,
      "èĩª": 808,
      "Ġwere": 809,
      "Dat": 810,
      "ben": 811,
      "ive": 812,
      "no": 813,
      "che": 814,
      "what": 815,
      "xxx": 816,
      "ä¸Ń": 817,
      "Ġthem": 818,
      "Ġsee": 819,
      "åģ": 820,
      "çĦ¶": 821,
      "Ġbo": 822,
      "è¾": 823,
      "æĶ": 824,
      "'m": 825,
      "Ġkom": 826,
      "æ¬": 827,
      "Ġheeft": 828,
      "ep": 829,
      "here": 830,
      "our": 831,
      "å¿ĥ": 832,
      "åĢ": 833,
      "æł·": 834,
      "En": 835,
      "own": 836,
      "Ġgot": 837,
      "Ġdid": 838,
      "Ġwant": 839,
      "HER": 840,
      "Ġmijn": 841,
      "ek": 842,
      "åĴĮ": 843,
      "Ġè¿Ļ": 844,
      "è·Ł": 845,
      "Ġdit": 846,
      "Ġmen": 847,
      "Ġgoed": 848,
      "å¾Ī": 849,
      "ls": 850,
      "Ġel": 851,
      "uur": 852,
      "ste": 853,
      "Ġhebben": 854,
      "Ġabout": 855,
      "eren": 856,
      "Ġsome": 857,
      "ally": 858,
      "èĢģ": 859,
      "itt": 860,
      "'ll": 861,
      "iv": 862,
      "æİ": 863,
      "è´": 864,
      "ä¿": 865,
      "Ġbet": 866,
      "çĤ¹": 867,
      "Ġbr": 868,
      "ijd": 869,
      "æĬĬ": 870,
      "å¥¹": 871,
      "Ġthink": 872,
      "Ġwill": 873,
      "å§": 874,
      "Ġword": 875,
      "Ġun": 876,
      "çŁ¥": 877,
      "Ġhem": 878,
      "Ġ19": 879,
      "ke": 880,
      "åĮ": 881,
      "Ġgr": 882,
      "ff": 883,
      "æĢİ": 884,
      "ite": 885,
      ".\"": 886,
      "æ²¡æľī": 887,
      "å±": 888,
      "ä¸įæĺ¯": 889,
      "aten": 890,
      "ice": 891,
      "Ġhere": 892,
      "æĢİä¹Ī": 893,
      "Ġgeen": 894,
      "åī": 895,
      "ingen": 896,
      "ick": 897,
      "éĻ": 898,
      "pp": 899,
      "èµ·": 900,
      "].": 901,
      "oug": 902,
      "uit": 903,
      "Ġjust": 904,
      "ied": 905,
      "ate": 906,
      "Ġlook": 907,
      "MOTHER": 908,
      "He": 909,
      "åĳĢ": 910,
      "æĮ": 911,
      "Ġsaid": 912,
      "ĠIn": 913,
      "ĠéĤ£": 914,
      "çľŁ": 915,
      "åĪ«": 916,
      "oon": 917,
      "æ³": 918,
      "to": 919,
      "yeah": 920,
      "ime": 921,
      "ia": 922,
      "la": 923,
      "Ġwould": 924,
      "uis": 925,
      "Ġhaar": 926,
      "oed": 927,
      "Ġdeze": 928,
      "orm": 929,
      "uk": 930,
      "å¹´": 931,
      "çŃ": 932,
      "Ġdr": 933,
      "Ġmeer": 934,
      "eg": 935,
      "ect": 936,
      "Ġter": 937,
      "åĽ½": 938,
      "éķ": 939,
      "Hij": 940,
      "aken": 941,
      "Ġif": 942,
      "Ġwho": 943,
      "hing": 944,
      "å¼Ģ": 945,
      "è¡Į": 946,
      "per": 947,
      ",\"": 948,
      "åĽŀ": 949,
      "eten": 950,
      "éĿ¢": 951,
      "è¯Ŀ": 952,
      "Ġsay": 953,
      "mer": 954,
      "Ġdaar": 955,
      "oord": 956,
      "pl": 957,
      "Ġthen": 958,
      "Ġus": 959,
      "ings": 960,
      "Ġgaan": 961,
      "elen": 962,
      "è½": 963,
      "éĺ": 964,
      "çº": 965,
      "é¢": 966,
      "Ġjij": 967,
      "Ġany": 968,
      "'ve": 969,
      "bl": 970,
      "æĤ": 971,
      "Ġnow": 972,
      "Ġright": 973,
      "Ġnu": 974,
      "æ´": 975,
      "zen": 976,
      "ä¹ĭ": 977,
      "æĥħ": 978,
      "åıĳ": 979,
      "ĠHe": 980,
      "land": 981,
      "çŁ¥éģĵ": 982,
      "that": 983,
      "pt": 984,
      "Ġwhen": 985,
      "are": 986,
      "av": 987,
      "Ġar": 988,
      "Ġonder": 989,
      "Ġdoen": 990,
      "ous": 991,
      "åĸ": 992,
      "ost": 993,
      "ound": 994,
      "Ġag": 995,
      "è®©": 996,
      "lijk": 997,
      "Ġgeb": 998,
      "Ġbeg": 999,
      "çĲ": 1000,
      "åıª": 1001,
      "icht": 1002,
      "èµ°": 1003,
      "çĻ": 1004,
      "å®ļ": 1005,
      "It": 1006,
      "æīĢ": 1007,
      "ç»ı": 1008,
      "ose": 1009,
      "æĪĲ": 1010,
      "æĦı": 1011,
      "ther": 1012,
      "oll": 1013,
      "éķ¿": 1014,
      "Ġweet": 1015,
      "å®ŀ": 1016,
      "ud": 1017,
      "ES": 1018,
      "OR": 1019,
      "Ġdown": 1020,
      "å·±": 1021,
      "Ġzou": 1022,
      "ige": 1023,
      "è§ī": 1024,
      "æµ": 1025,
      "Ġwordt": 1026,
      "Ġbeen": 1027,
      "Ġoff": 1028,
      "Ġcl": 1029,
      "ker": 1030,
      "çĶ¨": 1031,
      "ittle": 1032,
      "èĩªå·±": 1033,
      "nt": 1034,
      "way": 1035,
      "Ġhand": 1036,
      "ĠCh": 1037,
      "Ġkl": 1038,
      "Ġworden": 1039,
      "other": 1040,
      "Ġsl": 1041,
      "Ġhou": 1042,
      "Ġbed": 1043,
      "åģļ": 1044,
      "ool": 1045,
      "Ġback": 1046,
      "ear": 1047,
      "ä½Ĩ": 1048,
      "åĢĻ": 1049,
      "ause": 1050,
      "ity": 1051,
      "ach": 1052,
      "Ġzeg": 1053,
      "Ġgoing": 1054,
      "Ġgaat": 1055,
      "ree": 1056,
      "Ġ20": 1057,
      "ullie": 1058,
      "Waar": 1059,
      "Ġbel": 1060,
      "men": 1061,
      "ass": 1062,
      "Ġhas": 1063,
      "Ġä»ĸ": 1064,
      "æľĢ": 1065,
      "ĠIt": 1066,
      "Ġga": 1067,
      "çİ°åľ¨": 1068,
      "ĠSt": 1069,
      "iets": 1070,
      "Ġtime": 1071,
      "jes": 1072,
      "ble": 1073,
      "Ġput": 1074,
      "yl": 1075,
      "äºĽ": 1076,
      "ĠU": 1077,
      "ç¬": 1078,
      "æĹ¶åĢĻ": 1079,
      "ele": 1080,
      "agen": 1081,
      "Ġeven": 1082,
      "Ġhoe": 1083,
      "Ġgew": 1084,
      "als": 1085,
      "ç®": 1086,
      "ew": 1087,
      "åįģ": 1088,
      "Ġbest": 1089,
      "IG": 1090,
      "å¦Ī": 1091,
      "rouw": 1092,
      "Ġwhich": 1093,
      "Ġcould": 1094,
      "Ġbent": 1095,
      "age": 1096,
      "Ġtheir": 1097,
      "Ġlittle": 1098,
      "Ġvol": 1099,
      "æīĵ": 1100,
      "åīį": 1101,
      "ans": 1102,
      "Ġvery": 1103,
      "ĠZ": 1104,
      "ace": 1105,
      "æĸ¹": 1106,
      "ure": 1107,
      "ish": 1108,
      "å½ĵ": 1109,
      "uw": 1110,
      "In": 1111,
      "Ġmore": 1112,
      "EST": 1113,
      "Ġgood": 1114,
      "Ġmij": 1115,
      "eder": 1116,
      "ne": 1117,
      "èĬ": 1118,
      "oek": 1119,
      "dat": 1120,
      "ire": 1121,
      "iss": 1122,
      "åĿ": 1123,
      "Ġ[": 1124,
      "els": 1125,
      "my": 1126,
      "ATOR": 1127,
      "ESTIG": 1128,
      "INVESTIG": 1129,
      "INVESTIGATOR": 1130,
      "Ġqu": 1131,
      "éĴ": 1132,
      "cause": 1133,
      "yes": 1134,
      "alk": 1135,
      "ade": 1136,
      "Maar": 1137,
      "æ¸": 1138,
      "Ġvr": 1139,
      "Ġxxx": 1140,
      "Oh": 1141,
      "ç«": 1142,
      "Als": 1143,
      "ä¸ī": 1144,
      "Ġjou": 1145,
      "è§ģ": 1146,
      "the": 1147,
      "Ġkunnen": 1148,
      "å¤ª": 1149,
      "Ġons": 1150,
      "enk": 1151,
      "åŃ¦": 1152,
      "Ġpe": 1153,
      "Ġtwo": 1154,
      "Ġgel": 1155,
      "Ġont": 1156,
      "Ġhel": 1157,
      "éĽ": 1158,
      "oc": 1159,
      "åĬ¨": 1160,
      "åĪĨ": 1161,
      "And": 1162,
      "atie": 1163,
      "æĻ": 1164,
      "mand": 1165,
      "ment": 1166,
      "ä¸¤": 1167,
      "èĤ": 1168,
      "Ġsom": 1169,
      "æĤ¨": 1170,
      "éĹ®": 1171,
      "Ġmin": 1172,
      "Ġro": 1173,
      "æīĭ": 1174,
      "åĲĥ": 1175,
      "What": 1176,
      "Ja": 1177,
      "Nee": 1178,
      "--": 1179,
      "æĺİ": 1180,
      "æ±": 1181,
      "Ġhebt": 1182,
      "igen": 1183,
      "äºĮ": 1184,
      "ert": 1185,
      "èĢĮ": 1186,
      "Th": 1187,
      "Ġgen": 1188,
      "iend": 1189,
      "onder": 1190,
      "æŀľ": 1191,
      "old": 1192,
      "ç§į": 1193,
      "äºİ": 1194,
      "Ġzal": 1195,
      "aren": 1196,
      "omen": 1197,
      "æĽ": 1198,
      "int": 1199,
      "Ġsn": 1200,
      "é¡": 1201,
      "éĹ´": 1202,
      "Ġfl": 1203,
      "heid": 1204,
      "uh": 1205,
      "orn": 1206,
      "Ġhun": 1207,
      "è¢": 1208,
      "Een": 1209,
      "ĠFr": 1210,
      "Ġgev": 1211,
      "ark": 1212,
      "Ġ3": 1213,
      "racht": 1214,
      "åı¯ä»¥": 1215,
      "Ġplay": 1216,
      "éļ": 1217,
      "Ġeer": 1218,
      "raag": 1219,
      "wh": 1220,
      "wer": 1221,
      "oof": 1222,
      "Ġveel": 1223,
      "èº": 1224,
      "Ġweg": 1225,
      "åĲ¬": 1226,
      "Ġjullie": 1227,
      "Ġiets": 1228,
      "ord": 1229,
      "ian": 1230,
      "é£": 1231,
      "åĨį": 1232,
      "è¶": 1233,
      "Ġper": 1234,
      "Ġna": 1235,
      "reat": 1236,
      "ä»İ": 1237,
      "æŃ£": 1238,
      "eden": 1239,
      "Ġtot": 1240,
      "åıĪ": 1241,
      "end": 1242,
      "ase": 1243,
      "oot": 1244,
      "ä»ĸä»¬": 1245,
      "ä½ľ": 1246,
      "sh": 1247,
      "å®ĥ": 1248,
      "å¥³": 1249,
      "ç¾": 1250,
      "åħ¬": 1251,
      "Ġever": 1252,
      "Ġother": 1253,
      "ief": 1254,
      "Ġzit": 1255,
      "oel": 1256,
      "ople": 1257,
      "Ġinto": 1258,
      "ob": 1259,
      "æģ": 1260,
      "ng": 1261,
      "Ġged": 1262,
      "æ¯Ķ": 1263,
      "urn": 1264,
      "Ġä¸į": 1265,
      "Ġtr": 1266,
      "Ġpart": 1267,
      "Ġcome": 1268,
      "Ġgro": 1269,
      "ĠHet": 1270,
      "Ġzien": 1271,
      "pr": 1272,
      "ater": 1273,
      "me": 1274,
      "ĠTh": 1275,
      "Ġcar": 1276,
      "do": 1277,
      "irst": 1278,
      "Ã«": 1279,
      "åħ¶": 1280,
      "Ġmu": 1281,
      "åĲĮ": 1282,
      "ary": 1283,
      "aakt": 1284,
      "act": 1285,
      "amen": 1286,
      "è¿Ľ": 1287,
      "å¤´": 1288,
      "Ġweer": 1289,
      "åħ³": 1290,
      "onna": 1291,
      "Ġway": 1292,
      "man": 1293,
      "ough": 1294,
      "?\"": 1295,
      "æī¾": 1296,
      "ys": 1297,
      "ount": 1298,
      "åħĪ": 1299,
      "åĺ": 1300,
      "ely": 1301,
      "ä¸»": 1302,
      "æľ¬": 1303,
      "æ¬¡": 1304,
      "éĶ": 1305,
      "innen": 1306,
      "Hoe": 1307,
      "Er": 1308,
      "è§īå¾Ĺ": 1309,
      "æīį": 1310,
      "Ġagain": 1311,
      "iek": 1312,
      "Yeah": 1313,
      "Ġlet": 1314,
      "ä¾": 1315,
      "Ġterug": 1316,
      "æ³ķ": 1317,
      "Ġwater": 1318,
      "ild": 1319,
      "Ġpeople": 1320,
      "Ġsc": 1321,
      "Ġwork": 1322,
      "af": 1323,
      "èĦ": 1324,
      "Ġtegen": 1325,
      "çĭ": 1326,
      "Ġmensen": 1327,
      "Ġmoeten": 1328,
      "!\"": 1329,
      "No": 1330,
      "Ġam": 1331,
      "åĽł": 1332,
      "Ġgonna": 1333,
      "chter": 1334,
      "esch": 1335,
      "èº«": 1336,
      "Ġwell": 1337,
      "ä»Ĭ": 1338,
      "å¦Ĥ": 1339,
      "è°¢": 1340,
      "é«": 1341,
      "Ġstr": 1342,
      "çŃī": 1343,
      "Ġhow": 1344,
      "å¹²": 1345,
      "Ġmake": 1346,
      "Ġvert": 1347,
      "ance": 1348,
      "Ġdoes": 1349,
      "é«ĺ": 1350,
      "Ġmee": 1351,
      "æĦŁ": 1352,
      "Ġeens": 1353,
      "Ġsm": 1354,
      "Ġnie": 1355,
      "sp": 1356,
      "Kom": 1357,
      "Ġtwee": 1358,
      "ult": 1359,
      "è¿Ļä¹Ī": 1360,
      "ä½łä»¬": 1361,
      "è¢«": 1362,
      "Ġmaken": 1363,
      "èĥ": 1364,
      "of": 1365,
      "åĬĽ": 1366,
      "éĤ£ä¸ª": 1367,
      "Ġcall": 1368,
      "amp": 1369,
      "Ġad": 1370,
      "Ġwhere": 1371,
      "ruik": 1372,
      "ale": 1373,
      "esp": 1374,
      "Ġfirst": 1375,
      "æĶ¾": 1376,
      "Wh": 1377,
      "cc": 1378,
      "ja": 1379,
      "air": 1380,
      "ç½": 1381,
      "Ġwerk": 1382,
      "Ġday": 1383,
      "å£": 1384,
      "ue": 1385,
      "ger": 1386,
      "oen": 1387,
      "Ġtell": 1388,
      "¥¿": 1389,
      "ann": 1390,
      "ile": 1391,
      "Ġkon": 1392,
      "ock": 1393,
      "Ġalleen": 1394,
      "ise": 1395,
      "è¾¹": 1396,
      "æ°Ķ": 1397,
      "Ġsomet": 1398,
      "å·²": 1399,
      "gens": 1400,
      "Ġtijd": 1401,
      "æį": 1402,
      "Ġgez": 1403,
      "Ġtoo": 1404,
      "Ġtake": 1405,
      "ĠÂ": 1406,
      "hm": 1407,
      "oren": 1408,
      "åŃ©": 1409,
      "å¿«": 1410,
      "Ġland": 1411,
      "é©": 1412,
      "Ġneed": 1413,
      "iz": 1414,
      "åħ¨": 1415,
      "çĦ¶åĲİ": 1416,
      "Ġkomt": 1417,
      "è¿Ļæł·": 1418,
      "ç©": 1419,
      "ĥı": 1420,
      "ty": 1421,
      "ote": 1422,
      "èĭ": 1423,
      "çķ": 1424,
      "cl": 1425,
      "app": 1426,
      "Ġecht": 1427,
      "Dit": 1428,
      "ĠMr": 1429,
      "ĠæĪĳä»¬": 1430,
      "èģ": 1431,
      "Ġleven": 1432,
      "Ġcont": 1433,
      "ci": 1434,
      "æ¡": 1435,
      "çĥ": 1436,
      "çģ": 1437,
      "Ġsec": 1438,
      "Ġzich": 1439,
      "æĪĳçļĦ": 1440,
      "Ġlaat": 1441,
      "ren": 1442,
      "éĥ": 1443,
      "Ġkw": 1444,
      "over": 1445,
      "çĲĨ": 1446,
      "Ġtoch": 1447,
      "Ġie": 1448,
      "åºĶ": 1449,
      "erd": 1450,
      "oop": 1451,
      "Ġact": 1452,
      "é¢ĺ": 1453,
      "Ġonly": 1454,
      "çĶµ": 1455,
      "ave": 1456,
      "wn": 1457,
      "çĪ¸": 1458,
      "dig": 1459,
      "Ġwerd": 1460,
      "Ġple": 1461,
      "éĩį": 1462,
      "æŁ": 1463,
      "çļĦæĹ¶åĢĻ": 1464,
      "That": 1465,
      "Ġlang": 1466,
      "Ġafter": 1467,
      "Is": 1468,
      "ellen": 1469,
      "ef": 1470,
      "å¸¸": 1471,
      "ather": 1472,
      "St": 1473,
      "Ġjaar": 1474,
      "Ġkrij": 1475,
      "Ġtra": 1476,
      "Ġour": 1477,
      "ict": 1478,
      "ä½Ĩæĺ¯": 1479,
      "åĥı": 1480,
      "è¥¿": 1481,
      "alen": 1482,
      "ub": 1483,
      "ugh": 1484,
      "ç¥": 1485,
      "ove": 1486,
      "roug": 1487,
      "æĹł": 1488,
      "è¯¥": 1489,
      "ä¸ľ": 1490,
      "æĹ¥": 1491,
      "uck": 1492,
      "Ġkomen": 1493,
      "ooit": 1494,
      "èī": 1495,
      "iver": 1496,
      "Ġim": 1497,
      "æ°´": 1498,
      "çĽ¸": 1499,
      "ath": 1500,
      "Ĺ¯": 1501,
      "ĠJe": 1502,
      "ç³": 1503,
      "ç´": 1504,
      "åŁ": 1505,
      "elt": 1506,
      "ä½ĵ": 1507,
      "okay": 1508,
      "Ġhele": 1509,
      "èĪ": 1510,
      "è¿ĺæĺ¯": 1511,
      "gt": 1512,
      "ons": 1513,
      "åĵª": 1514,
      "hed": 1515,
      "éĴ±": 1516,
      "where": 1517,
      "çĽ´": 1518,
      "çī©": 1519,
      "çĻ½": 1520,
      "But": 1521,
      "å¤ĸ": 1522,
      "Ġkle": 1523,
      "inn": 1524,
      "Well": 1525,
      "du": 1526,
      "å¨": 1527,
      "appen": 1528,
      "Ġapp": 1529,
      "Ġgek": 1530,
      "Ġmuch": 1531,
      "ens": 1532,
      "ting": 1533,
      "çī¹": 1534,
      "Ġ4": 1535,
      "able": 1536,
      "æīĢä»¥": 1537,
      "Ġandere": 1538,
      "Ġblij": 1539,
      "Yes": 1540,
      "ady": 1541,
      "ader": 1542,
      "æ´»": 1543,
      "è§£": 1544,
      "Ġdis": 1545,
      "Ġthese": 1546,
      "æĸ°": 1547,
      "ç¦": 1548,
      "Ġdenk": 1549,
      "round": 1550,
      "çĮ": 1551,
      "Ġmag": 1552,
      "æ¬¢": 1553,
      "ving": 1554,
      "there": 1555,
      "çĪ±": 1556,
      "Ġæĺ¯": 1557,
      "åı«": 1558,
      "oud": 1559,
      "fore": 1560,
      "Ġyear": 1561,
      "ory": 1562,
      "Ġsle": 1563,
      "åĸľ": 1564,
      "iff": 1565,
      "ought": 1566,
      "æı": 1567,
      "Ġlong": 1568,
      "Ġdidn": 1569,
      "Ġ201": 1570,
      "Ã©n": 1571,
      "Ġevery": 1572,
      "æľº": 1573,
      "Ġthan": 1574,
      "oorden": 1575,
      "Ġmade": 1576,
      "get": 1577,
      "æŃ»": 1578,
      "Ġcomp": 1579,
      "èĬ±": 1580,
      "inder": 1581,
      "Ġla": 1582,
      "Ġwr": 1583,
      "èĻ": 1584,
      "çļĦäºº": 1585,
      "è°ģ": 1586,
      "Ġnooit": 1587,
      "ont": 1588,
      "Ġheel": 1589,
      "ated": 1590,
      "Ġopen": 1591,
      "å·¥": 1592,
      "ä½į": 1593,
      "ions": 1594,
      "ix": 1595,
      "'d": 1596,
      "Ġinter": 1597,
      "uid": 1598,
      "up": 1599,
      "arl": 1600,
      "Ġshould": 1601,
      "ife": 1602,
      "oog": 1603,
      "All": 1604,
      "kay": 1605,
      "Ġbig": 1606,
      "ische": 1607,
      "voor": 1608,
      "åıĭ": 1609,
      "çİĭ": 1610,
      "Ġå°±": 1611,
      "åĵ¥": 1612,
      "Ġsomething": 1613,
      "Ġelk": 1614,
      "åĩł": 1615,
      "ä¿¡": 1616,
      "å©": 1617,
      "ĠBr": 1618,
      "çľŁçļĦ": 1619,
      "å¸Ī": 1620,
      "Ġgebruik": 1621,
      "Ġ5": 1622,
      "éľ": 1623,
      "day": 1624,
      "Ġtalk": 1625,
      "ä½łçļĦ": 1626,
      "Ġzelf": 1627,
      "zelf": 1628,
      "thing": 1629,
      "èį": 1630,
      "åĪļ": 1631,
      "Ġalles": 1632,
      "Ġverd": 1633,
      "Ġvl": 1634,
      "Ġkijk": 1635,
      "right": 1636,
      "orry": 1637,
      "å®ī": 1638,
      "oet": 1639,
      "ãĢĤ\"": 1640,
      "Ġbecause": 1641,
      "ouw": 1642,
      "ody": 1643,
      "å®Į": 1644,
      "Ġspe": 1645,
      "onden": 1646,
      "ov": 1647,
      "æİ¥": 1648,
      "Ġpol": 1649,
      "é»": 1650,
      "Ġunder": 1651,
      "Ġaway": 1652,
      "å·²ç»ı": 1653,
      "ç¡": 1654,
      "ph": 1655,
      "self": 1656,
      "Ġfe": 1657,
      "open": 1658,
      "ail": 1659,
      "Ġstaat": 1660,
      "æĿ¥äºĨ": 1661,
      "é©¬": 1662,
      "Ġvind": 1663,
      "ç¬¬": 1664,
      "ĠÂ·": 1665,
      "Ġschool": 1666,
      "unt": 1667,
      "å°ĳ": 1668,
      "aby": 1669,
      "æ¶": 1670,
      "å¸¦": 1671,
      ").": 1672,
      "ward": 1673,
      "åĲĪ": 1674,
      "Ġste": 1675,
      "ç¾İ": 1676,
      "tijd": 1677,
      "è¿ĺæľī": 1678,
      "Ġgem": 1679,
      "form": 1680,
      "gel": 1681,
      "Ġwon": 1682,
      "æ¼": 1683,
      "ä¸Ģä¸ĭ": 1684,
      "ember": 1685,
      "åı¯èĥ½": 1686,
      "Ġmean": 1687,
      "Ġmom": 1688,
      "Ġbefore": 1689,
      "Ġreally": 1690,
      "è½¦": 1691,
      "Ġgl": 1692,
      "issch": 1693,
      "Ġzei": 1694,
      "ä½ı": 1695,
      "ä¸įèĥ½": 1696,
      "åŃ©åŃĲ": 1697,
      "Waarom": 1698,
      "éħ": 1699,
      "ĠMar": 1700,
      "Ġrem": 1701,
      "Ġalso": 1702,
      "åĳĬ": 1703,
      "Ġzw": 1704,
      "Ġpers": 1705,
      "woord": 1706,
      "urt": 1707,
      "sl": 1708,
      "çĹ": 1709,
      "ç»ĵ": 1710,
      "arm": 1711,
      "ijf": 1712,
      ":\"": 1713,
      "Ġwent": 1714,
      "Ġlast": 1715,
      "iÃ«": 1716,
      "çĸ": 1717,
      "orgen": 1718,
      "ange": 1719,
      "eep": 1720,
      "Ġgu": 1721,
      "dy": 1722,
      "row": 1723,
      "anna": 1724,
      "ä»Ĭå¤©": 1725,
      "æĽ´": 1726,
      "ãĢģ": 1727,
      "aking": 1728,
      "åıĺ": 1729,
      "åľº": 1730,
      "æĢĿ": 1731,
      "Ġpre": 1732,
      "isschien": 1733,
      "åĪ°äºĨ": 1734,
      "Ġser": 1735,
      "Ġnodig": 1736,
      "vol": 1737,
      "æľĪ": 1738,
      "å§Ĳ": 1739,
      "é¦": 1740,
      "oss": 1741,
      "ors": 1742,
      "ins": 1743,
      "ign": 1744,
      "çĻ¾": 1745,
      "bij": 1746,
      "éĥ½æĺ¯": 1747,
      "éª": 1748,
      "idd": 1749,
      "rough": 1750,
      "Ġkunt": 1751,
      "äºĶ": 1752,
      "ussen": 1753,
      "åĽłä¸º": 1754,
      "eef": 1755,
      "ĠY": 1756,
      "Ġkind": 1757,
      "rek": 1758,
      "Ġbeh": 1759,
      "éĥ¨": 1760,
      "Ġdoing": 1761,
      "åĹ¯": 1762,
      "AN": 1763,
      "Ġeigen": 1764,
      "Ġgebe": 1765,
      "io": 1766,
      "Ġåĵ": 1767,
      "allen": 1768,
      "enn": 1769,
      "Ġthree": 1770,
      "Ġâ": 1771,
      "ĠÃ©": 1772,
      "but": 1773,
      "Ġvrouw": 1774,
      "ç¤": 1775,
      "éĹ¨": 1776,
      "Ġbu": 1777,
      "Ġmay": 1778,
      "å±±": 1779,
      "look": 1780,
      "éĿŀ": 1781,
      "Ġma": 1782,
      "éļ¾": 1783,
      "Ġstart": 1784,
      "Ġask": 1785,
      "rijk": 1786,
      "é¥": 1787,
      "Ġgir": 1788,
      "So": 1789,
      "$$": 1790,
      "ets": 1791,
      "Ġjon": 1792,
      "äº²": 1793,
      "éĶĻ": 1794,
      "igh": 1795,
      "Ġhelp": 1796,
      "ĠIk": 1797,
      "off": 1798,
      "ĠZe": 1799,
      "oem": 1800,
      "Ġ200": 1801,
      "Ġhuis": 1802,
      "èĲ": 1803,
      "Ġnever": 1804,
      "æ»": 1805,
      "red": 1806,
      "ĠYou": 1807,
      "æĢ»": 1808,
      "Ġthose": 1809,
      "oy": 1810,
      "beeld": 1811,
      "Ġnet": 1812,
      "æŃ¤": 1813,
      "Ġthought": 1814,
      "Ġdag": 1815,
      "ederland": 1816,
      "ister": 1817,
      "gr": 1818,
      "amil": 1819,
      "åı£": 1820,
      "è¯·": 1821,
      "Ġverl": 1822,
      "stand": 1823,
      "well": 1824,
      "ĠÃ©Ã©n": 1825,
      "Ġthrough": 1826,
      "Ga": 1827,
      "åĨĽ": 1828,
      "PAR": 1829,
      "uren": 1830,
      "ĠAmer": 1831,
      "Ġhead": 1832,
      "ma": 1833,
      "Ġkeer": 1834,
      "Ġerm": 1835,
      "Ġcame": 1836,
      "ç¨": 1837,
      "ss": 1838,
      "Ġaltijd": 1839,
      "Ġold": 1840,
      "äºĭåĦ¿": 1841,
      "Ġonze": 1842,
      "br": 1843,
      "xt": 1844,
      "port": 1845,
      "éĢļ": 1846,
      "van": 1847,
      "åĬŀ": 1848,
      "Ġmil": 1849,
      "ever": 1850,
      "ĠShe": 1851,
      "ait": 1852,
      "akes": 1853,
      "ful": 1854,
      "oint": 1855,
      "oofd": 1856,
      "Ġbro": 1857,
      "èĢħ": 1858,
      "åĽĽ": 1859,
      "Ġgra": 1860,
      "ious": 1861,
      "æľĭ": 1862,
      "Jij": 1863,
      "ces": 1864,
      "Ġmany": 1865,
      "Ġgreat": 1866,
      "åĵĪ": 1867,
      "Ġthing": 1868,
      "æ·": 1869,
      "Ġnew": 1870,
      "Ġzeggen": 1871,
      "oort": 1872,
      "Ġalle": 1873,
      "Ġweten": 1874,
      "emaal": 1875,
      "ders": 1876,
      "æ¯ı": 1877,
      "Ġachter": 1878,
      "åıĹ": 1879,
      "çľ¼": 1880,
      "Ġstop": 1881,
      "Ġthings": 1882,
      "ieren": 1883,
      "ç²": 1884,
      "ä¸Ģå®ļ": 1885,
      "è·¯": 1886,
      "Ġdoe": 1887,
      "etje": 1888,
      "erk": 1889,
      "Ġbot": 1890,
      "Ġbit": 1891,
      "Ġant": 1892,
      "æľĭåıĭ": 1893,
      "ä¸ļ": 1894,
      "å¤§å®¶": 1895,
      "æħ": 1896,
      "Ġæľī": 1897,
      "atuur": 1898,
      "Ġche": 1899,
      "ä¹Łä¸į": 1900,
      "can": 1901,
      "Ġhome": 1902,
      "Ġå¦": 1903,
      "åĲį": 1904,
      "ĠNederland": 1905,
      "åĬł": 1906,
      "å¹³": 1907,
      "ĠUn": 1908,
      "Ġiemand": 1909,
      "è®¤": 1910,
      "Ġhouse": 1911,
      "ved": 1912,
      "å°Ĩ": 1913,
      "ars": 1914,
      "ĠåĽ": 1915,
      "Ġanother": 1916,
      "åĸľæ¬¢": 1917,
      "Ġå¥½": 1918,
      "Ġmust": 1919,
      "Ġwaren": 1920,
      "åĺĽ": 1921,
      "Ġbaby": 1922,
      "ried": 1923,
      "éĺŁ": 1924,
      "ijden": 1925,
      "kÃ©": 1926,
      "åĴ±": 1927,
      "Ġminut": 1928,
      "Ġtoe": 1929,
      "vel": 1930,
      "Ġelkaar": 1931,
      "åĲĳ": 1932,
      "Ġverk": 1933,
      "Daar": 1934,
      "Ġfind": 1935,
      "Ġstill": 1936,
      "Ġreg": 1937,
      "æĭ¿": 1938,
      "aam": 1939,
      "Ġnum": 1940,
      "Goed": 1941,
      "Ġpres": 1942,
      "Ġnou": 1943,
      "eerd": 1944,
      "ident": 1945,
      "Ġgive": 1946,
      "æĹ¶éĹ´": 1947,
      "ullen": 1948,
      "Ġturn": 1949,
      "Ġtoen": 1950,
      "çł": 1951,
      "Ġdus": 1952,
      "veel": 1953,
      "ç¡®": 1954,
      "ilm": 1955,
      "Ġwanna": 1956,
      "Ġdood": 1957,
      "ende": 1958,
      "è¡¨": 1959,
      "ä¹Łæĺ¯": 1960,
      "ä»»": 1961,
      "å¸®": 1962,
      "esl": 1963,
      "ĠSp": 1964,
      "ç®Ĺ": 1965,
      "Ġdone": 1966,
      "Ġaut": 1967,
      "ç³»": 1968,
      "Ġcalled": 1969,
      "ä¸ĩ": 1970,
      "Ġlaten": 1971,
      "Ġzie": 1972,
      "cent": 1973,
      "Ġniets": 1974,
      "inden": 1975,
      "Ġkinder": 1976,
      "Ġeat": 1977,
      "æĸĩ": 1978,
      "wij": 1979,
      "è®°": 1980,
      "ina": 1981,
      "éĢī": 1982,
      "ä¿Ŀ": 1983,
      "Ġlot": 1984,
      "äºĨä¸Ģ": 1985,
      "åº¦": 1986,
      "les": 1987,
      "let": 1988,
      "geven": 1989,
      "ä»¶": 1990,
      "Ġzegt": 1991,
      "eds": 1992,
      "ubl": 1993,
      "Ġgewoon": 1994,
      "Ġbre": 1995,
      "Ġgeh": 1996,
      "Heb": 1997,
      "ĠHij": 1998,
      "iden": 1999,
      "åħ¶å®ŀ": 2000,
      "Ġversch": 2001,
      "é¸": 2002,
      "Ġshow": 2003,
      "åı¯æĺ¯": 2004,
      "Ġ18": 2005,
      "å£°": 2006,
      "ude": 2007,
      "Ġbook": 2008,
      "org": 2009,
      "Die": 2010,
      "çļĦè¯Ŀ": 2011,
      "Ġcr": 2012,
      "äºĭæĥħ": 2013,
      "ates": 2014,
      "oeg": 2015,
      "amer": 2016,
      "elijke": 2017,
      "çĶ·": 2018,
      "come": 2019,
      "ç®¡": 2020,
      "Ġeerste": 2021,
      "uc": 2022,
      "Ġvast": 2023,
      "Ġits": 2024,
      "çĲĥ": 2025,
      "è±": 2026,
      "Ġ6": 2027,
      "dracht": 2028,
      "Ġfamil": 2029,
      "Ġdiff": 2030,
      "æĹ©": 2031,
      "Ġnee": 2032,
      "Ġres": 2033,
      "å¤Ħ": 2034,
      "å²": 2035,
      "They": 2036,
      "Ġfound": 2037,
      "ical": 2038,
      "unn": 2039,
      "uiten": 2040,
      "gende": 2041,
      "EN": 2042,
      "ually": 2043,
      "æĢ§": 2044,
      "ope": 2045,
      "å¼ł": 2046,
      "ĠWe": 2047,
      "Ġgrote": 2048,
      "isch": 2049,
      "by": 2050,
      "æµ·": 2051,
      "Ġbinnen": 2052,
      "Ġboy": 2053,
      "EX": 2054,
      "ä¸Ģèµ·": 2055,
      "éĵ": 2056,
      "ĠSch": 2057,
      "Ġplaat": 2058,
      "Ġred": 2059,
      "Ġwij": 2060,
      "åĮĸ": 2061,
      "ĠGod": 2062,
      "ĠAl": 2063,
      "Ġhappen": 2064,
      "Ġallemaal": 2065,
      "éĩı": 2066,
      "ib": 2067,
      "Ġåľ¨": 2068,
      "éĤ£ä¹Ī": 2069,
      "eter": 2070,
      "Ġvo": 2071,
      "Ġchild": 2072,
      "ĠEng": 2073,
      "kend": 2074,
      "Ġnight": 2075,
      "Ġmight": 2076,
      "çĪ·": 2077,
      "Ġproble": 2078,
      "ama": 2079,
      "Ġerg": 2080,
      "ç¦»": 2081,
      "æıĲ": 2082,
      "Ġgroot": 2083,
      "bo": 2084,
      "apt": 2085,
      "Ġdoet": 2086,
      "ww": 2087,
      "Ġsamen": 2088,
      "æĴ": 2089,
      "She": 2090,
      "åĶ": 2091,
      "æľĽ": 2092,
      "EXP": 2093,
      "ooi": 2094,
      "uwe": 2095,
      "Ġzitten": 2096,
      "æĳ": 2097,
      "çĽ®": 2098,
      "ç»ĻæĪĳ": 2099,
      "ereen": 2100,
      "ummy": 2101,
      "åĩºæĿ¥": 2102,
      "sel": 2103,
      "pro": 2104,
      "Ġmon": 2105,
      "åĳ½": 2106,
      "åħī": 2107,
      "ĠBe": 2108,
      "æĻļ": 2109,
      "On": 2110,
      "Ġhal": 2111,
      "ents": 2112,
      "atter": 2113,
      "è¯ī": 2114,
      "æ¸ħ": 2115,
      "æĬ¥": 2116,
      "Mijn": 2117,
      "åıį": 2118,
      "æ¢": 2119,
      "imes": 2120,
      "Ġhard": 2121,
      "Ġname": 2122,
      "ä¸İ": 2123,
      "éĩĳ": 2124,
      "ĠAn": 2125,
      "Ġvader": 2126,
      ".'": 2127,
      "æ®": 2128,
      "Ġweek": 2129,
      "åİŁ": 2130,
      "ucht": 2131,
      "Ġfriend": 2132,
      "Ġpap": 2133,
      "ster": 2134,
      "Ġfeel": 2135,
      "oney": 2136,
      "ä¸įä¼ļ": 2137,
      "æ¡Ī": 2138,
      "Ġä½Ĩæĺ¯": 2139,
      "Ġown": 2140,
      "ä¸ľè¥¿": 2141,
      "Ġcount": 2142,
      "Ġrest": 2143,
      "ĠEen": 2144,
      "fr": 2145,
      "ä»ĸçļĦ": 2146,
      "laugh": 2147,
      "éĹ®é¢ĺ": 2148,
      "Ġgeld": 2149,
      "Ġisn": 2150,
      "æĪĺ": 2151,
      "æ°ĳ": 2152,
      "çļĦæĺ¯": 2153,
      "ä½ķ": 2154,
      "çŃĶ": 2155,
      "çħ": 2156,
      "Ġbus": 2157,
      "Ġä¸Ģ": 2158,
      "ç±": 2159,
      "åĳĺ": 2160,
      "Ġlater": 2161,
      "å¦Īå¦Ī": 2162,
      "mhm": 2163,
      "Ġdes": 2164,
      "Ġmost": 2165,
      "oos": 2166,
      "This": 2167,
      "Ġtry": 2168,
      "ä¸ºä»Ģä¹Ī": 2169,
      "Ġkinderen": 2170,
      "å§ĭ": 2171,
      "isten": 2172,
      "è¶Ĭ": 2173,
      "Ġrec": 2174,
      "ple": 2175,
      "æĪĳå°±": 2176,
      ",'": 2177,
      "Ġzoals": 2178,
      "ĠEn": 2179,
      "æĢķ": 2180,
      "Ġvragen": 2181,
      "arn": 2182,
      "Ġmoeder": 2183,
      "åºĶè¯¥": 2184,
      "Ġyears": 2185,
      "Ġbeing": 2186,
      "Ġied": 2187,
      "Ġplace": 2188,
      "ĠThey": 2189,
      "aard": 2190,
      "body": 2191,
      "Niet": 2192,
      "å¥½çļĦ": 2193,
      "There": 2194,
      "çª": 2195,
      "Ġcomm": 2196,
      "Ġmoment": 2197,
      "åħ«": 2198,
      "æķħ": 2199,
      "Laat": 2200,
      "ijt": 2201,
      "Ġwereld": 2202,
      "Ġbetter": 2203,
      "æ£": 2204,
      "Ġgirl": 2205,
      "çı": 2206,
      "å¢": 2207,
      "000": 2208,
      "Ġgedaan": 2209,
      "æĲ": 2210,
      "gelijk": 2211,
      "Ġå¯": 2212,
      "ä»£": 2213,
      "emen": 2214,
      "ä¸ĸ": 2215,
      "ms": 2216,
      "Ġfin": 2217,
      "Ġå°ı": 2218,
      "åħ¥": 2219,
      "ition": 2220,
      "ä½łè¯´": 2221,
      "ä¸ŃåĽ½": 2222,
      "IS": 2223,
      "äº¤": 2224,
      "ĠWh": 2225,
      "ĠAnd": 2226,
      "Zo": 2227,
      "é£İ": 2228,
      "Ġcour": 2229,
      "Ġuw": 2230,
      "ç¼": 2231,
      "éŁ": 2232,
      "Ġdrie": 2233,
      "Ġvraag": 2234,
      "Ġlig": 2235,
      "Ġaround": 2236,
      "oeken": 2237,
      "Ġdra": 2238,
      "Ġå°±æĺ¯": 2239,
      "pe": 2240,
      "çİ©": 2241,
      "Ġused": 2242,
      "Ġja": 2243,
      "outh": 2244,
      "maal": 2245,
      "Ġstaan": 2246,
      "side": 2247,
      "Ġmeest": 2248,
      "aart": 2249,
      "èµ·æĿ¥": 2250,
      "Ġprob": 2251,
      "rijf": 2252,
      "ĠçĦ¶åĲİ": 2253,
      "Ġplan": 2254,
      "so": 2255,
      "oten": 2256,
      "20": 2257,
      "ited": 2258,
      "éĢģ": 2259,
      "ift": 2260,
      "ieve": 2261,
      "Ġsit": 2262,
      "Ġsuch": 2263,
      "uister": 2264,
      "Ġhoofd": 2265,
      "iel": 2266,
      "Ġ7": 2267,
      "æ¥": 2268,
      "æĿ¡": 2269,
      "Ġsupp": 2270,
      "åĳĬè¯ī": 2271,
      "ations": 2272,
      "åĨħ": 2273,
      "Ġrel": 2274,
      "ĠLe": 2275,
      "Ġbez": 2276,
      "å½±": 2277,
      "æĪ¿": 2278,
      "å¤Ł": 2279,
      "ä¹Ĳ": 2280,
      "Op": 2281,
      "Ġging": 2282,
      "Ġvinden": 2283,
      "Ġend": 2284,
      "val": 2285,
      "Ġå¦Ĥ": 2286,
      "Ġlife": 2287,
      "AD": 2288,
      "Ġvriend": 2289,
      "èī²": 2290,
      "Voor": 2291,
      "è£": 2292,
      "Ġru": 2293,
      "Ġä½łä»¬": 2294,
      "Ġfilm": 2295,
      "ames": 2296,
      "ways": 2297,
      "è¿ĳ": 2298,
      "ince": 2299,
      "Ġwillen": 2300,
      "äº§": 2301,
      "å¨ĺ": 2302,
      "Ġè¿Ļä¸ª": 2303,
      "Ġtussen": 2304,
      "ĠæīĢä»¥": 2305,
      "erg": 2306,
      "Ġfour": 2307,
      "ĠEr": 2308,
      "ĠAr": 2309,
      "ä»¥åĲİ": 2310,
      "Wie": 2311,
      "Ġju": 2312,
      "æľį": 2313,
      "ohn": 2314,
      "hes": 2315,
      "Ġkeep": 2316,
      "å¾Īå¤ļ": 2317,
      "ps": 2318,
      "ial": 2319,
      "Ġsame": 2320,
      "çĨ": 2321,
      "ĠGr": 2322,
      "ruk": 2323,
      "ä¸Ķ": 2324,
      "è¿ĻäºĽ": 2325,
      "Ġsnel": 2326,
      "è®²": 2327,
      "Ġwie": 2328,
      "Ġsteeds": 2329,
      "addy": 2330,
      "Ġpolit": 2331,
      "ters": 2332,
      "å¼Ł": 2333,
      "this": 2334,
      "Ġå¯¹": 2335,
      "\".": 2336,
      "),": 2337,
      "Ġlove": 2338,
      "kom": 2339,
      "med": 2340,
      "è°¢è°¢": 2341,
      "ä¹°": 2342,
      "aw": 2343,
      "Ġwhy": 2344,
      "Ġanders": 2345,
      "ves": 2346,
      "ä¸Ģæł·": 2347,
      "æľŁ": 2348,
      "Ġnice": 2349,
      "åı¸": 2350,
      "ç»Ļä½ł": 2351,
      "ced": 2352,
      "vent": 2353,
      "oun": 2354,
      "ä¸ĢçĤ¹": 2355,
      "Ġverh": 2356,
      "ern": 2357,
      "æĮº": 2358,
      "Ġzij": 2359,
      "äººçļĦ": 2360,
      "rist": 2361,
      "Ġelse": 2362,
      "å»": 2363,
      "å®³": 2364,
      "èİ": 2365,
      "è¿ľ": 2366,
      "oes": 2367,
      "anden": 2368,
      "åĳĥ": 2369,
      "Ġatt": 2370,
      "Ġvolgende": 2371,
      "ç¥ŀ": 2372,
      "çī¹åĪ«": 2373,
      "Ġwilde": 2374,
      "ĠåĴ": 2375,
      "Kijk": 2376,
      "æķĻ": 2377,
      "èĩªå·±çļĦ": 2378,
      "Dan": 2379,
      "How": 2380,
      "Ġ8": 2381,
      "ĠPr": 2382,
      "room": 2383,
      ".]": 2384,
      "ĠAls": 2385,
      "Ġcol": 2386,
      "Ġnext": 2387,
      "eek": 2388,
      "åºķ": 2389,
      "If": 2390,
      "Ġten": 2391,
      "Ġdoesn": 2392,
      "çĪ¶": 2393,
      "Ġomdat": 2394,
      "ä¸¤ä¸ª": 2395,
      "ä¿©": 2396,
      "Ġve": 2397,
      "èĢĥ": 2398,
      "å¼º": 2399,
      "omm": 2400,
      "ä¹Ŀ": 2401,
      "ork": 2402,
      "Ġlie": 2403,
      "ctor": 2404,
      "Ġnieuwe": 2405,
      "Ġsche": 2406,
      "ird": 2407,
      "æķ°": 2408,
      "éĿŀå¸¸": 2409,
      "Ġpop": 2410,
      "ower": 2411,
      "ĠDat": 2412,
      "Ġpar": 2413,
      "Ġnaam": 2414,
      "Ġinform": 2415,
      "Ġsy": 2416,
      "åĪ©": 2417,
      "æ±Ĥ": 2418,
      "å¾Ģ": 2419,
      "Ġjouw": 2420,
      "Ġmar": 2421,
      "Ġbesch": 2422,
      "mm": 2423,
      "æĶ¶": 2424,
      "æ¼Ķ": 2425,
      "é£ŀ": 2426,
      "Ġwhile": 2427,
      "è·ĳ": 2428,
      "Ġmed": 2429,
      "aag": 2430,
      "å¼Ģå§ĭ": 2431,
      "ta": 2432,
      "they": 2433,
      "OkÃ©": 2434,
      "ash": 2435,
      "è¿ŀ": 2436,
      "ject": 2437,
      "Ġsur": 2438,
      "bs": 2439,
      "æł¹": 2440,
      "Ġco": 2441,
      "å©ļ": 2442,
      "part": 2443,
      "aad": 2444,
      "laughs": 2445,
      "è¿Ļæĺ¯": 2446,
      "Ġhoor": 2447,
      "now": 2448,
      "Ġbeter": 2449,
      "åŁİ": 2450,
      "çĬ": 2451,
      "Ġstand": 2452,
      "ä¹¦": 2453,
      "nee": 2454,
      "arly": 2455,
      "eng": 2456,
      "éľĢ": 2457,
      "erm": 2458,
      "Ġ10": 2459,
      "é¼": 2460,
      "Ġhalf": 2461,
      "ä¾¿": 2462,
      "vo": 2463,
      "çĹħ": 2464,
      "Ġac": 2465,
      "Ġanything": 2466,
      "ĠIs": 2467,
      "ese": 2468,
      "ç©º": 2469,
      "ican": 2470,
      "Ġbelang": 2471,
      "Ġsays": 2472,
      "Ġball": 2473,
      "çº¢": 2474,
      "Ġph": 2475,
      "Ġokay": 2476,
      "Ġliv": 2477,
      "Ġdacht": 2478,
      "é¥Ń": 2479,
      "its": 2480,
      "iks": 2481,
      "æŀĹ": 2482,
      "alt": 2483,
      "Ġmoest": 2484,
      "uss": 2485,
      "Weet": 2486,
      "she": 2487,
      "åĩĨ": 2488,
      "åħŃ": 2489,
      "Ġid": 2490,
      "çħ§": 2491,
      "ole": 2492,
      "MA": 2493,
      "Ġuse": 2494,
      "Ġleuk": 2495,
      "gest": 2496,
      "Ġacc": 2497,
      "å¥½äºĨ": 2498,
      "Ġåĵİ": 2499,
      "vis": 2500,
      "ĠèĢĮ": 2501,
      "ĠâĢ": 2502,
      "Ġalways": 2503,
      "ĠSh": 2504,
      "Ġwind": 2505,
      "ield": 2506,
      "ç¬ĳ": 2507,
      "aur": 2508,
      "Ġem": 2509,
      "Ġmaak": 2510,
      "è·ŁæĪĳ": 2511,
      "Ġperson": 2512,
      "è®¡": 2513,
      "Ġleft": 2514,
      "Ġsure": 2515,
      "Ġcent": 2516,
      "Ġå¦Ĥæŀľ": 2517,
      "komen": 2518,
      "Al": 2519,
      "ä¸įçŁ¥éģĵ": 2520,
      "put": 2521,
      "ream": 2522,
      "Ġstad": 2523,
      "not": 2524,
      "åİ»äºĨ": 2525,
      "Ġroom": 2526,
      "Ġset": 2527,
      "åĪ¶": 2528,
      "åľ¨è¿Ļ": 2529,
      "Ġkijken": 2530,
      "ĠWat": 2531,
      "éĻ¢": 2532,
      "Ġleg": 2533,
      "Ġkrijgen": 2534,
      "æģ¯": 2535,
      "Ġvrij": 2536,
      "any": 2537,
      "Ġstra": 2538,
      "ĠBut": 2539,
      "å¤«": 2540,
      "zo": 2541,
      "ç´§": 2542,
      "Ġgone": 2543,
      "akken": 2544,
      "å¸Ĥ": 2545,
      "Ġuur": 2546,
      "Ġcle": 2547,
      "oman": 2548,
      "aut": 2549,
      "Ġyeah": 2550,
      "Ġsaw": 2551,
      "Ġcat": 2552,
      "ä¸ºäºĨ": 2553,
      "Ġfather": 2554,
      "ouden": 2555,
      "æľīä¸Ģ": 2556,
      "Ġtold": 2557,
      "Ġgemaakt": 2558,
      "çľĭçľĭ": 2559,
      "èĽ": 2560,
      "åĲĦ": 2561,
      "Wil": 2562,
      "Ġsk": 2563,
      "roeg": 2564,
      "erent": 2565,
      "Ġprodu": 2566,
      "etten": 2567,
      "Hier": 2568,
      "Ġkwam": 2569,
      "ä¸įè¦ģ": 2570,
      "Ġdog": 2571,
      "Ġziet": 2572,
      "log": 2573,
      "led": 2574,
      "ieft": 2575,
      "ots": 2576,
      "Ġbad": 2577,
      "ä¼ł": 2578,
      "Ġzeker": 2579,
      "reen": 2580,
      "ĠOp": 2581,
      "Ġcons": 2582,
      "Ġtru": 2583,
      "reek": 2584,
      "Ġwacht": 2585,
      "çķĻ": 2586,
      "çļĦä¸Ģ": 2587,
      "Ġmaakt": 2588,
      "ween": 2589,
      "Ġret": 2590,
      "è¿Ļç§į": 2591,
      "åĴ±ä»¬": 2592,
      "æĦıæĢĿ": 2593,
      "çĶ±": 2594,
      "Ġeten": 2595,
      "eb": 2596,
      "ence": 2597,
      "çģ«": 2598,
      "å¤ĩ": 2599,
      "Ġè¦ģ": 2600,
      "Ġopdracht": 2601,
      "åĨ³": 2602,
      "iteit": 2603,
      "Ġgeven": 2604,
      "assen": 2605,
      "die": 2606,
      "å®Ŀ": 2607,
      "arr": 2608,
      "å·¥ä½ľ": 2609,
      "æµģ": 2610,
      "cy": 2611,
      "Ġå¥¹": 2612,
      "eling": 2613,
      "åĸĿ": 2614,
      "èĬĤ": 2615,
      "æŁ¥": 2616,
      "Ch": 2617,
      "ç«ĭ": 2618,
      "Ġgezien": 2619,
      "ational": 2620,
      "æļ": 2621,
      "¿½": 2622,
      "chten": 2623,
      "èħ": 2624,
      "æķ´": 2625,
      "Ġtre": 2626,
      "Ġverm": 2627,
      "ä¸ĥ": 2628,
      "ĠNew": 2629,
      "Ġform": 2630,
      "Ġä¹Ł": 2631,
      "ede": 2632,
      "Ġpaar": 2633,
      "åıĳçİ°": 2634,
      "atuurlijk": 2635,
      "Mm": 2636,
      "Ġmis": 2637,
      "Ġå¤§": 2638,
      "ĠåĽł": 2639,
      "uff": 2640,
      "Ġbelangrijk": 2641,
      "ijkt": 2642,
      "Ġverb": 2643,
      "fect": 2644,
      "åĿĹ": 2645,
      "Ġmother": 2646,
      "ai": 2647,
      "Ġke": 2648,
      "ped": 2649,
      "Ġreal": 2650,
      "Ġind": 2651,
      "Ġpoint": 2652,
      "Ġgoede": 2653,
      "Dus": 2654,
      "åķ¦": 2655,
      "å¿ħ": 2656,
      "èµ¶": 2657,
      "Ġpass": 2658,
      "ton": 2659,
      "èı": 2660,
      "Ġ199": 2661,
      "å¤§çļĦ": 2662,
      "Ġmoney": 2663,
      "Ġdec": 2664,
      "Ġhelemaal": 2665,
      "ä¼¤": 2666,
      "ï¿½": 2667,
      "orning": 2668,
      "Why": 2669,
      "vl": 2670,
      "Ġfig": 2671,
      "çķĮ": 2672,
      "ged": 2673,
      "Ġvis": 2674,
      "\",": 2675,
      "Ġgest": 2676,
      "aps": 2677,
      "å¤±": 2678,
      "é¡¹": 2679,
      "til": 2680,
      "Ġbedoel": 2681,
      "Ġyes": 2682,
      "Ġcoming": 2683,
      "çĶŁæ´»": 2684,
      "è®¸": 2685,
      "èĢģå¸Ī": 2686,
      "ĠæĢİä¹Ī": 2687,
      "Ġenough": 2688,
      "Ben": 2689,
      "Ġdire": 2690,
      "rew": 2691,
      "é¾": 2692,
      "olog": 2693,
      "cies": 2694,
      "Ġtele": 2695,
      "å®¹": 2696,
      "Ġå½": 2697,
      "æ¯į": 2698,
      "Don": 2699,
      "Ã¨": 2700,
      "åĮ»": 2701,
      "Ġquite": 2702,
      "Ġdist": 2703,
      "iding": 2704,
      "Ġtook": 2705,
      "ush": 2706,
      "Ġmeis": 2707,
      "19": 2708,
      "ä¸ĢçĽ´": 2709,
      "åįĥ": 2710,
      "geb": 2711,
      "Ġread": 2712,
      "è¯Ĩ": 2713,
      "æĪĸ": 2714,
      "how": 2715,
      "Ġwilt": 2716,
      "baar": 2717,
      "ness": 2718,
      "Ġ9": 2719,
      "orth": 2720,
      "Ġsw": 2721,
      "ĠBl": 2722,
      "An": 2723,
      "who": 2724,
      "Ġbas": 2725,
      "è¯ģ": 2726,
      "ĠMaar": 2727,
      "Ġfive": 2728,
      "ellow": 2729,
      "ĠâĢ¢": 2730,
      "izen": 2731,
      "eeft": 2732,
      "èĮ": 2733,
      "åĿĲ": 2734,
      "Nu": 2735,
      "GMA": 2736,
      "åı¥": 2737,
      "uring": 2738,
      "Ġcourse": 2739,
      "æĿ¥çļĦ": 2740,
      "Ġstud": 2741,
      "åŃĹ": 2742,
      "åĮħ": 2743,
      "ollow": 2744,
      "door": 2745,
      "Ġkill": 2746,
      "eth": 2747,
      "èµĦ": 2748,
      "Ġvand": 2749,
      "cept": 2750,
      "ium": 2751,
      "Ġhouden": 2752,
      "æĮģ": 2753,
      "Ġeerst": 2754,
      "èµ°äºĨ": 2755,
      "Ġzullen": 2756,
      "Now": 2757,
      "Ġster": 2758,
      "ä¹ĭåĲİ": 2759,
      "Ġdingen": 2760,
      "aring": 2761,
      "gaan": 2762,
      "Ġplaats": 2763,
      "çĿ¡": 2764,
      "äº®": 2765,
      "ĠThis": 2766,
      "Wel": 2767,
      "Ġbuiten": 2768,
      "è¿Ĳ": 2769,
      "æĿĢ": 2770,
      "éŁ³": 2771,
      "Ġfar": 2772,
      "ç¢": 2773,
      "az": 2774,
      "Ġbloed": 2775,
      "åįķ": 2776,
      "çīĩ": 2777,
      "è½»": 2778,
      "æħ¢": 2779,
      "Ġcare": 2780,
      "åı·": 2781,
      "è¾ĥ": 2782,
      "ä¸įå¥½": 2783,
      "çľĭåĪ°": 2784,
      "èĤ¯": 2785,
      "Ġwalk": 2786,
      "åħ³ç³»": 2787,
      "anneer": 2788,
      "åĮĹ": 2789,
      "ross": 2790,
      "ĠæĤ¨": 2791,
      "ĠåĽłä¸º": 2792,
      "don": 2793,
      "ract": 2794,
      "Ġplease": 2795,
      "ids": 2796,
      "Do": 2797,
      "æ»¡": 2798,
      "Ġverschill": 2799,
      "æĮĩ": 2800,
      "Om": 2801,
      "Ġwait": 2802,
      "ĠJohn": 2803,
      "Ġaant": 2804,
      "uld": 2805,
      "éľĢè¦ģ": 2806,
      "å¹¶": 2807,
      "ron": 2808,
      "Ġass": 2809,
      "æį®": 2810,
      "Be": 2811,
      "ĠåĨ": 2812,
      "ling": 2813,
      "Ġmorning": 2814,
      "åħ´": 2815,
      "huh": 2816,
      "ä½¿": 2817,
      "att": 2818,
      "æĺ¯ä¸įæĺ¯": 2819,
      "Ġniks": 2820,
      "Ġdifferent": 2821,
      "ĠDit": 2822,
      "Ġside": 2823,
      "ished": 2824,
      "ible": 2825,
      "Ver": 2826,
      "Ġtop": 2827,
      "Ġ15": 2828,
      "Ġseen": 2829,
      "ider": 2830,
      "Ġblijven": 2831,
      "Sorry": 2832,
      "Ġthough": 2833,
      "Ġsing": 2834,
      "Ġtrain": 2835,
      "ikk": 2836,
      "Ġhelpen": 2837,
      "Ġfew": 2838,
      "Ġbev": 2839,
      "Ġbeetje": 2840,
      "Ġuntil": 2841,
      "go": 2842,
      "åĵİ": 2843,
      "Ġklaar": 2844,
      "å¦Ĥæŀľ": 2845,
      "ĠEur": 2846,
      "ivers": 2847,
      "Ġart": 2848,
      "åħ±": 2849,
      "Ġoor": 2850,
      "Ġden": 2851,
      "éħĴ": 2852,
      "ä¸Ģæ¬¡": 2853,
      "Ġåį": 2854,
      "ankt": 2855,
      "Ġsecond": 2856,
      "Ġwaarom": 2857,
      "æĭľ": 2858,
      "Ġhaven": 2859,
      "ĠOn": 2860,
      "wat": 2861,
      "ics": 2862,
      "ç¨ĭ": 2863,
      "Ġlief": 2864,
      "æĦ¿": 2865,
      "Ġeind": 2866,
      "Ġgoes": 2867,
      "ony": 2868,
      "æĺŁ": 2869,
      "Ġbetween": 2870,
      "Ġface": 2871,
      "åĵģ": 2872,
      "Ġlooks": 2873,
      "Ġround": 2874,
      "Ġsmall": 2875,
      "æ¶Ī": 2876,
      "Ġmoe": 2877,
      "waar": 2878,
      "Ġsix": 2879,
      "Ġeyes": 2880,
      "Misschien": 2881,
      "ĠAll": 2882,
      "è°ĥ": 2883,
      "Ġteam": 2884,
      "è½¬": 2885,
      "Ġgewe": 2886,
      "Ġexc": 2887,
      "ye": 2888,
      "ĠDaar": 2889,
      "åĳ¨": 2890,
      "angen": 2891,
      "Ġsleep": 2892,
      "ries": 2893,
      "Ġgenoeg": 2894,
      "Ġasked": 2895,
      "Ġgesch": 2896,
      "å¥¶": 2897,
      "Ġpie": 2898,
      "ane": 2899,
      "vie": 2900,
      "æłĳ": 2901,
      "Ġè¿ĺ": 2902,
      "Ġzonder": 2903,
      "gether": 2904,
      "è®©æĪĳ": 2905,
      "Let": 2906,
      "Ġtogether": 2907,
      "Ġlight": 2908,
      "Ġhold": 2909,
      "åķ¥": 2910,
      "Ġlaatste": 2911,
      "cle": 2912,
      "ball": 2913,
      "aster": 2914,
      "Ġiedereen": 2915,
      "Ġæ²¡": 2916,
      "èĩ³": 2917,
      "aden": 2918,
      "ĠInd": 2919,
      "Ġrecht": 2920,
      "Ġworld": 2921,
      "Ġknown": 2922,
      "æĭī": 2923,
      "Ġkant": 2924,
      "Ġeach": 2925,
      "Ġspr": 2926,
      "æĿİ": 2927,
      "Ġverg": 2928,
      "Ġfun": 2929,
      "Ġvoel": 2930,
      "äºĨæĪĳ": 2931,
      "åı°": 2932,
      "ction": 2933,
      "allo": 2934,
      "RO": 2935,
      "åįĬ": 2936,
      "apen": 2937,
      "Ġauto": 2938,
      "Mr": 2939,
      "åĬ¡": 2940,
      "Ġnothing": 2941,
      "Ġjongen": 2942,
      "Ġnieuw": 2943,
      "æº": 2944,
      "Ġgebeur": 2945,
      "åľ°æĸ¹": 2946,
      "Ġdoll": 2947,
      "Ġverand": 2948,
      "ustr": 2949,
      "une": 2950,
      "åĽŀæĿ¥": 2951,
      "Ġremember": 2952,
      "Ġnam": 2953,
      "Ġlooking": 2954,
      "Ġsort": 2955,
      "åįĹ": 2956,
      "ips": 2957,
      "ax": 2958,
      "Ġä½Ĩ": 2959,
      "Ġinst": 2960,
      "è±¡": 2961,
      "Ġnumber": 2962,
      "è¦ģæĺ¯": 2963,
      "cial": 2964,
      "æĶ¹": 2965,
      "wo": 2966,
      "å»º": 2967,
      "Ġdisc": 2968,
      "ants": 2969,
      "éĽ¶": 2970,
      "ures": 2971,
      "Ġstuk": 2972,
      "éĿĴ": 2973,
      "çº¿": 2974,
      "zelfde": 2975,
      "ĠQ": 2976,
      "æĢ¥": 2977,
      "Ġken": 2978,
      "çĪ¸çĪ¸": 2979,
      "tje": 2980,
      "ä½łå¥½": 2981,
      "ĠWhat": 2982,
      "æ®µ": 2983,
      "Ġverder": 2984,
      "ably": 2985,
      "SIS": 2986,
      "ung": 2987,
      "æĺĵ": 2988,
      "Ġslecht": 2989,
      "Ġsorry": 2990,
      "ily": 2991,
      "ulp": 2992,
      "Ġåıª": 2993,
      "Ġbang": 2994,
      "Ġå½ĵ": 2995,
      "åĨµ": 2996,
      "æ¸¸": 2997,
      "å¯¼": 2998,
      "éĩĮéĿ¢": 2999,
      "Ã¯": 3000,
      "elde": 3001,
      "Ġbox": 3002,
      "æĪĳæĺ¯": 3003,
      "æĦŁè§ī": 3004,
      "Ġgeweest": 3005,
      "Ġboven": 3006,
      "Come": 3007,
      "Ġboth": 3008,
      "Ġide": 3009,
      "ç«Ļ": 3010,
      "nie": 3011,
      "èµĽ": 3012,
      "ĠRe": 3013,
      "omas": 3014,
      "ape": 3015,
      "Ġstay": 3016,
      "Ġvier": 3017,
      "Ġpraten": 3018,
      "use": 3019,
      "aas": 3020,
      "äºĨåĲĹ": 3021,
      "ught": 3022,
      "Ġhot": 3023,
      "Ġyoung": 3024,
      "Ġtek": 3025,
      "Bl": 3026,
      "Ġhear": 3027,
      "Ġsound": 3028,
      "Ġdeel": 3029,
      "ica": 3030,
      "ating": 3031,
      "Ġint": 3032,
      "å±ķ": 3033,
      "why": 3034,
      "Ġçİ°åľ¨": 3035,
      "Ġfoot": 3036,
      "Geef": 3037,
      "rijven": 3038,
      "ĠWill": 3039,
      "Ġmiss": 3040,
      "Ġfire": 3041,
      "å¿Ļ": 3042,
      "Ġmisschien": 3043,
      "ç¿": 3044,
      "Ġspijt": 3045,
      "Ġyet": 3046,
      "Ġlar": 3047,
      "Ġtoday": 3048,
      "æĶ¿": 3049,
      "Doe": 3050,
      "auw": 3051,
      "ĮæľĽ": 3052,
      "oit": 3053,
      "mp": 3054,
      "ley": 3055,
      "æķĳ": 3056,
      "Ġdrink": 3057,
      "Ġfollow": 3058,
      "ement": 3059,
      "Ġgetting": 3060,
      "æŃ¥": 3061,
      "ason": 3062,
      "Ġsla": 3063,
      "æķ¢": 3064,
      "æĪĳè§īå¾Ĺ": 3065,
      "par": 3066,
      "Ġrun": 3067,
      "Geen": 3068,
      "Nou": 3069,
      "Ġantwoord": 3070,
      "é»Ħ": 3071,
      "Ġbec": 3072,
      "ual": 3073,
      "åĨĻ": 3074,
      "è§Ĥ": 3075,
      "ç½ĳ": 3076,
      "ennis": 3077,
      "Ġvroeg": 3078,
      "ired": 3079,
      "?'": 3080,
      "aald": 3081,
      "Ġè¿Ļæĺ¯": 3082,
      "Dank": 3083,
      "omme": 3084,
      "Hey": 3085,
      "mber": 3086,
      "Ġwist": 3087,
      "æīĢæľī": 3088,
      "Ġkleine": 3089,
      "ä¹ī": 3090,
      "Ġdri": 3091,
      "ĠåĴ±": 3092,
      "åħĦ": 3093,
      "åĢĴ": 3094,
      "ĠChrist": 3095,
      "Ġhor": 3096,
      "Ġonce": 3097,
      "ĠHoe": 3098,
      "å®ĺ": 3099,
      "Ġum": 3100,
      "é»ĳ": 3101,
      "åķĨ": 3102,
      "ific": 3103,
      "Ġhadden": 3104,
      "wel": 3105,
      "werk": 3106,
      "æ³¨": 3107,
      "éļı": 3108,
      "åĮº": 3109,
      "ump": 3110,
      "reken": 3111,
      "å¥½å¥½": 3112,
      "anks": 3113,
      "Ġè¯´": 3114,
      "é±": 3115,
      "Ġä½łè¯´": 3116,
      "Ġans": 3117,
      "çŀ": 3118,
      "ĠèĢģ": 3119,
      "é±¼": 3120,
      "Ġwonder": 3121,
      "è¯ķ": 3122,
      "ĠGe": 3123,
      "ĨĴ": 3124,
      "Ġwoorden": 3125,
      "èĤ¯å®ļ": 3126,
      "Ġwithout": 3127,
      "FATHER": 3128,
      "Bed": 3129,
      "å¦¹": 3130,
      "è¨": 3131,
      "avond": 3132,
      "æ·±": 3133,
      "å¼ı": 3134,
      "ijna": 3135,
      "ä¸ĭæĿ¥": 3136,
      "Ġmind": 3137,
      "Ġext": 3138,
      "Ġinformatie": 3139,
      "çĥŃ": 3140,
      "åĵĪåĵĪ": 3141,
      "Ġsoon": 3142,
      "Ġbeste": 3143,
      "Ġheen": 3144,
      "Ġpresent": 3145,
      "æİĴ": 3146,
      "Met": 3147,
      "Ġvaak": 3148,
      "è§Ĩ": 3149,
      "ines": 3150,
      "Le": 3151,
      "ĠThere": 3152,
      "Ġ198": 3153,
      "Ġheet": 3154,
      "ç²¾": 3155,
      "Ġgraag": 3156,
      "Ġing": 3157,
      "éĺ¿": 3158,
      "uz": 3159,
      "æł¼": 3160,
      "enen": 3161,
      "Ġpick": 3162,
      "è¨Ģ": 3163,
      "æĩ": 3164,
      "oto": 3165,
      "Ġgener": 3166,
      "My": 3167,
      "etty": 3168,
      "Ġidee": 3169,
      "Ġä»ĸä»¬": 3170,
      "inner": 3171,
      "åĬŁ": 3172,
      "ĠBij": 3173,
      "å¾ħ": 3174,
      "Ġverschillende": 3175,
      "zeg": 3176,
      "did": 3177,
      "Wacht": 3178,
      "Ġair": 3179,
      "ress": 3180,
      "oven": 3181,
      "Ġger": 3182,
      "Hou": 3183,
      "ĠFrank": 3184,
      "ĠMe": 3185,
      "Ġhands": 3186,
      "Ġhaving": 3187,
      "zoek": 3188,
      "éĺ³": 3189,
      "ept": 3190,
      "ient": 3191,
      "osed": 3192,
      "Okay": 3193,
      "iam": 3194,
      "ç§ĳ": 3195,
      "ĠVoor": 3196,
      "ats": 3197,
      "æĢª": 3198,
      "urg": 3199,
      "Ġmove": 3200,
      "æİī": 3201,
      "ijdens": 3202,
      "Ġhigh": 3203,
      "äººå®¶": 3204,
      "Ġoh": 3205,
      "schap": 3206,
      "Ġgebruikt": 3207,
      "èĲ½": 3208,
      "ijs": 3209,
      "Ġbere": 3210,
      "åĭ": 3211,
      "Of": 3212,
      "å«": 3213,
      "Ġhoud": 3214,
      "è¿ĩæĿ¥": 3215,
      "ches": 3216,
      "Ġheard": 3217,
      "Ġcut": 3218,
      "åħĪçĶŁ": 3219,
      "Ġå¿": 3220,
      "Ġligt": 3221,
      "ks": 3222,
      "elling": 3223,
      "fta": 3224,
      "åħ¬åı¸": 3225,
      "æľ¯": 3226,
      "Ġsign": 3227,
      "èģĶ": 3228,
      "ows": 3229,
      "Ġtalking": 3230,
      "èĭ¦": 3231,
      "ç»Ī": 3232,
      "Sch": 3233,
      "erde": 3234,
      "Ġber": 3235,
      "Ġneem": 3236,
      "Ġleave": 3237,
      "Âł": 3238,
      "Ġdear": 3239,
      "woorden": 3240,
      "ages": 3241,
      "ä¸ĬçļĦ": 3242,
      "uil": 3243,
      "Ġwanted": 3244,
      "Ġupon": 3245,
      "ĠAs": 3246,
      "kken": 3247,
      "åıĸ": 3248,
      "å¤į": 3249,
      "Ġanim": 3250,
      "Ġshall": 3251,
      "akk": 3252,
      "leg": 3253,
      "Ġrond": 3254,
      "gan": 3255,
      "Ġmatter": 3256,
      "inc": 3257,
      "éĥ½ä¸į": 3258,
      "Ġgeluk": 3259,
      "stof": 3260,
      "fl": 3261,
      "å¿Ĺ": 3262,
      "Ġhimself": 3263,
      "ä¹ħ": 3264,
      "éº": 3265,
      "Ġboek": 3266,
      "è´¨": 3267,
      "æľīä»Ģä¹Ī": 3268,
      "çıŃ": 3269,
      "Ġmus": 3270,
      "Ġagainst": 3271,
      "Not": 3272,
      "Ġwerden": 3273,
      "ä¹ĭåīį": 3274,
      "Ġkoning": 3275,
      "Ġthuis": 3276,
      "åł": 3277,
      "èģĬ": 3278,
      "Ġboys": 3279,
      "onnen": 3280,
      "å½¢": 3281,
      "Ġwatch": 3282,
      "äºĨä½ł": 3283,
      "ĠNo": 3284,
      "Ġchildren": 3285,
      "è¾¾": 3286,
      "Ġtekst": 3287,
      "mb": 3288,
      "Ġincl": 3289,
      "å²ģ": 3290,
      "anger": 3291,
      "Ġdu": 3292,
      "Ġzorgen": 3293,
      "Ġdicht": 3294,
      "Ġob": 3295,
      "weg": 3296,
      "ĠåķĬ": 3297,
      "é¦ĸ": 3298,
      "Ġsir": 3299,
      "ä¸Ģä¸ªäºº": 3300,
      "Ġcoll": 3301,
      "ready": 3302,
      "itch": 3303,
      "HE": 3304,
      "åĤ": 3305,
      "ett": 3306,
      "Ġnat": 3307,
      "æľĢåĲİ": 3308,
      "Ġmooi": 3309,
      "Ġbew": 3310,
      "æŃĮ": 3311,
      "Ġelke": 3312,
      "çļĩ": 3313,
      "urs": 3314,
      "ched": 3315,
      "Ġå¹": 3316,
      "jebl": 3317,
      "con": 3318,
      "ison": 3319,
      "Ġdays": 3320,
      "ĠOok": 3321,
      "Ġnear": 3322,
      "Ġoffic": 3323,
      "het": 3324,
      "ä¸ĢäºĽ": 3325,
      "ijken": 3326,
      "èŃ": 3327,
      "ular": 3328,
      "Ġdro": 3329,
      "Ġnemen": 3330,
      "kker": 3331,
      "ities": 3332,
      "Ġlive": 3333,
      "ĠDeze": 3334,
      "è¡£": 3335,
      "æĪĳä»¬çļĦ": 3336,
      "Ġanswer": 3337,
      "Ġgeeft": 3338,
      "Ġ12": 3339,
      "Ġvertellen": 3340,
      "oth": 3341,
      "Ġsim": 3342,
      "Ġgeweld": 3343,
      "ä¸ĸçķĮ": 3344,
      "Ġklein": 3345,
      "Ġhafta": 3346,
      "Ġaantal": 3347,
      "Ġvlie": 3348,
      "Ġkrijgt": 3349,
      "ator": 3350,
      "ieden": 3351,
      "oke": 3352,
      "ober": 3353,
      "Ġlooked": 3354,
      "èŃ¦": 3355,
      "jeblieft": 3356,
      "ĠHier": 3357,
      "åĽ¢": 3358,
      "è·Łä½ł": 3359,
      "å®¢": 3360,
      "most": 3361,
      "åĻ": 3362,
      "ased": 3363,
      "Hallo": 3364,
      "ĠæĪĳæĺ¯": 3365,
      "è¶³": 3366,
      "ç»Ŀ": 3367,
      "Ġwerken": 3368,
      "èĦ¸": 3369,
      "è®º": 3370,
      "æ¯Ķè¾ĥ": 3371,
      "Ġdeed": 3372,
      "ĠUnited": 3373,
      "ha": 3374,
      "min": 3375,
      "åħ»": 3376,
      "Ġhappened": 3377,
      "eert": 3378,
      "å§ĳ": 3379,
      "Ġrust": 3380,
      "Ġwoord": 3381,
      "ĠåĪ«": 3382,
      "ĠSc": 3383,
      "ĠMiss": 3384,
      "Ġcir": 3385,
      "oemen": 3386,
      "gl": 3387,
      "Ġåı¯æĺ¯": 3388,
      "son": 3389,
      "ĠæĪĳå°±": 3390,
      "çļĦå°ı": 3391,
      "Ġlijkt": 3392,
      "å·®": 3393,
      "Ġchar": 3394,
      "âĳ": 3395,
      "Ġbreak": 3396,
      "Ġhour": 3397,
      "ĠAmerican": 3398,
      "und": 3399,
      "äºĮåįģ": 3400,
      "é¢Ĩ": 3401,
      "Ġtri": 3402,
      "Ġhen": 3403,
      "anten": 3404,
      "ideo": 3405,
      "é¹": 3406,
      "Jullie": 3407,
      "Ġfact": 3408,
      "very": 3409,
      "Ġstory": 3410,
      "å¥ĩ": 3411,
      "ertain": 3412,
      "½çĦ¶": 3413,
      "ĠAmerik": 3414,
      "Ġooit": 3415,
      "Ġzag": 3416,
      "Ġwelke": 3417,
      "Ġmeet": 3418,
      "net": 3419,
      "appy": 3420,
      "è£ħ": 3421,
      "ä¼ļåĦ¿": 3422,
      "bed": 3423,
      "Ġalong": 3424,
      "voorbeeld": 3425,
      "Ġwar": 3426,
      "illy": 3427,
      "éĩįè¦ģ": 3428,
      "aanse": 3429,
      "Ġ202": 3430,
      "Ġhart": 3431,
      "Ġmeneer": 3432,
      "ĠJack": 3433,
      "æĥħåĨµ": 3434,
      "igd": 3435,
      "æĬ¤": 3436,
      "çªģ": 3437,
      "Ġknew": 3438,
      "åıĬ": 3439,
      "æ¯Ľ": 3440,
      "enten": 3441,
      "åŁº": 3442,
      "ä»½": 3443,
      "Ġuh": 3444,
      "å¸ĮæľĽ": 3445,
      "Ġsub": 3446,
      "enty": 3447,
      "åħĥ": 3448,
      "Ġready": 3449,
      "Ġdel": 3450,
      "æ²»": 3451,
      "Ġpict": 3452,
      "è¿Ļä¸Ģ": 3453,
      "Ġ197": 3454,
      "aint": 3455,
      "Ġ17": 3456,
      "Ġquest": 3457,
      "Ġjuist": 3458,
      "ä¹ł": 3459,
      "Ġgelijk": 3460,
      "Ġhoog": 3461,
      "www": 3462,
      "æ¥ļ": 3463,
      "Ġty": 3464,
      "Ġmeisje": 3465,
      "éĢł": 3466,
      "è®¾": 3467,
      "ones": 3468,
      "Ġpubl": 3469,
      "çŁ³": 3470,
      "Ġsaying": 3471,
      "Ġgod": 3472,
      "ĠæĿ¥": 3473,
      "ä¸įäºĨ": 3474,
      "oopt": 3475,
      "ĠMrs": 3476,
      "ç»Ń": 3477,
      "HÃ©": 3478,
      "åį´": 3479,
      "Ġmanier": 3480,
      "Sh": 3481,
      "ither": 3482,
      "Ġbegrij": 3483,
      "ç±»": 3484,
      "Ġfall": 3485,
      "Ġheart": 3486,
      "Ġpos": 3487,
      "Ġgave": 3488,
      "ç»Ħ": 3489,
      "Ġkre": 3490,
      "Ġdied": 3491,
      "weet": 3492,
      "less": 3493,
      "èį¯": 3494,
      "Ġbijna": 3495,
      "Ġexp": 3496,
      "ï¿½ï¿½": 3497,
      "ĠPh": 3498,
      "æĺİçĻ½": 3499,
      "å¤ľ": 3500,
      "eerde": 3501,
      "Ġresp": 3502,
      "èĥ½å¤Ł": 3503,
      "rijd": 3504,
      "çľŁæĺ¯": 3505,
      "æĪĳä¹Ł": 3506,
      "Ġwin": 3507,
      "anc": 3508,
      "gram": 3509,
      "åĵªåĦ¿": 3510,
      "Ġverz": 3511,
      "Ġontst": 3512,
      "ury": 3513,
      "Ġkop": 3514,
      "uurt": 3515,
      "iness": 3516,
      "Ġcity": 3517,
      "æĢģ": 3518,
      "Ġfood": 3519,
      "è¯¯": 3520,
      "ommy": 3521,
      "çĶ»": 3522,
      "æĸŃ": 3523,
      "fe": 3524,
      "Ġcountry": 3525,
      "iter": 3526,
      "OU": 3527,
      "Ġfamily": 3528,
      "ĠCl": 3529,
      "Ġbren": 3530,
      "Ġmidd": 3531,
      "åĪĩ": 3532,
      "Ġdirect": 3533,
      "Ġmaking": 3534,
      "Van": 3535,
      "mon": 3536,
      "Ġpast": 3537,
      "Deze": 3538,
      "åŀ": 3539,
      "Ġletter": 3540,
      "Ġgi": 3541,
      "Ġou": 3542,
      "Ġhoren": 3543,
      "éĻ¤": 3544,
      "Ġä¸įæĺ¯": 3545,
      "raat": 3546,
      "æĪı": 3547,
      "è°Ī": 3548,
      "erst": 3549,
      "Ġav": 3550,
      "èľ": 3551,
      "åįĸ": 3552,
      "ç»Ĩ": 3553,
      "ocht": 3554,
      "ital": 3555,
      "akt": 3556,
      "arry": 3557,
      "Ġmogelijk": 3558,
      "ä½łå°±": 3559,
      "Ġenige": 3560,
      "Ġspeel": 3561,
      "éŃ": 3562,
      "opt": 3563,
      "Ġniemand": 3564,
      "wards": 3565,
      "åĪĺ": 3566,
      "roken": 3567,
      "çĶµè¯Ŀ": 3568,
      "Ġonge": 3569,
      "é¾Ļ": 3570,
      "ä¸įè¿ĩ": 3571,
      "Ġwhe": 3572,
      "Ġeff": 3573,
      "Ġverhaal": 3574,
      "ouse": 3575,
      "Ġaard": 3576,
      "Ġhum": 3577,
      "èĳ": 3578,
      "Ġbelieve": 3579,
      "When": 3580,
      "æĿ¿": 3581,
      "Ġtown": 3582,
      "Ġlucht": 3583,
      "Ġactually": 3584,
      "Ġlos": 3585,
      "ara": 3586,
      "Ġgebruiken": 3587,
      "æĬĵ": 3588,
      "ded": 3589,
      "Ġbring": 3590,
      "Ġborn": 3591,
      "Ġvindt": 3592,
      "å¸ĥ": 3593,
      "DS": 3594,
      "Ġwasn": 3595,
      "inyl": 3596,
      "Ġåİ": 3597,
      "Ġstem": 3598,
      "Ġeverything": 3599,
      "ON": 3600,
      "Ġwoman": 3601,
      "maar": 3602,
      "é£Ł": 3603,
      "weede": 3604,
      "Ġcontro": 3605,
      "ikt": 3606,
      "Ġbep": 3607,
      "ully": 3608,
      "åĩºåİ»": 3609,
      "Ġorgan": 3610,
      "Ġ0": 3611,
      "å©Ĩ": 3612,
      "Ġzin": 3613,
      "ester": 3614,
      "uin": 3615,
      "Ġbesl": 3616,
      "å°½": 3617,
      "Ġ16": 3618,
      "çĨĬ": 3619,
      "äºĨåĲ§": 3620,
      "res": 3621,
      "æľª": 3622,
      "Ġmannen": 3623,
      "airs": 3624,
      "ĠMummy": 3625,
      "Ġwhole": 3626,
      "Ġsoort": 3627,
      "Ġref": 3628,
      "èįī": 3629,
      "ieten": 3630,
      "ession": 3631,
      "Bedankt": 3632,
      "Ġgrond": 3633,
      "II": 3634,
      "Ġleer": 3635,
      "Ġåħ¶å®ŀ": 3636,
      "ilig": 3637,
      "ĠDuit": 3638,
      "æĻļä¸Ĭ": 3639,
      "Ġkr": 3640,
      "é¦Ļ": 3641,
      "Ġed": 3642,
      "inds": 3643,
      "åħµ": 3644,
      "åĵį": 3645,
      "ç«Ł": 3646,
      "åıĶ": 3647,
      "Ġunderstand": 3648,
      "æĿĳ": 3649,
      "Ġinterest": 3650,
      "ç©¿": 3651,
      "Ġsince": 3652,
      "zicht": 3653,
      "ç»Ł": 3654,
      "Ġmoo": 3655,
      "aul": 3656,
      "Ġgehe": 3657,
      "Ġjob": 3658,
      "olen": 3659,
      "ĠSam": 3660,
      "Ġsold": 3661,
      "irt": 3662,
      "ĠGer": 3663,
      "Ġexpl": 3664,
      "Ġå¸": 3665,
      "Ġgesp": 3666,
      "Ġgame": 3667,
      "Ġreturn": 3668,
      "åĪ°åºķ": 3669,
      "åĪļæīį": 3670,
      "ald": 3671,
      "werp": 3672,
      "Ġpun": 3673,
      "æ¹": 3674,
      "å¿ĥéĩĮ": 3675,
      "æĪĳä¸į": 3676,
      "Ġda": 3677,
      "Ġblack": 3678,
      "Ġä»Ģä¹Ī": 3679,
      "lo": 3680,
      "åĬŀæ³ķ": 3681,
      "è´¹": 3682,
      "vers": 3683,
      "read": 3684,
      "ĠAt": 3685,
      "EA": 3686,
      "unny": 3687,
      "è·³": 3688,
      "Wij": 3689,
      "Ġoorlog": 3690,
      "ards": 3691,
      "Ġhoop": 3692,
      "gy": 3693,
      "ĠVer": 3694,
      "æ²³": 3695,
      "ec": 3696,
      "åĪ»": 3697,
      "Ġgezeg": 3698,
      "Ġstarted": 3699,
      "ected": 3700,
      "orrow": 3701,
      "Ġposs": 3702,
      "Ġdenken": 3703,
      "Ġhers": 3704,
      "è¸": 3705,
      "Ġwhite": 3706,
      "æĸĻ": 3707,
      "æį¢": 3708,
      "Fr": 3709,
      "ding": 3710,
      "Ġ196": 3711,
      "ç¦ı": 3712,
      "æĶ¯": 3713,
      "Af": 3714,
      "itten": 3715,
      "mat": 3716,
      "ä¸įèµ·": 3717,
      "Ġverw": 3718,
      "èĦĳ": 3719,
      "Ġhalen": 3720,
      "æ¨": 3721,
      "çŃĶæ¡Ī": 3722,
      "å¾·": 3723,
      "ize": 3724,
      "ĠThomas": 3725,
      "ocal": 3726,
      "Ġvandaag": 3727,
      "lex": 3728,
      "Ġnoise": 3729,
      "åħļ": 3730,
      "ying": 3731,
      "Ġ:": 3732,
      "Ġjaren": 3733,
      "æĭħ": 3734,
      "ives": 3735,
      "ared": 3736,
      "Ġca": 3737,
      "Ġbecame": 3738,
      "ship": 3739,
      "Ġspelen": 3740,
      "ham": 3741,
      "å±Ģ": 3742,
      "Ġdagen": 3743,
      "Ġogen": 3744,
      "Ġvorm": 3745,
      "Where": 3746,
      "co": 3747,
      "Ġpri": 3748,
      "Ġzouden": 3749,
      "ç¤¾": 3750,
      "è¿Ļæł·çļĦ": 3751,
      "mee": 3752,
      "oemd": 3753,
      "ney": 3754,
      "ä»¤": 3755,
      "rekken": 3756,
      "Just": 3757,
      "Ġwrong": 3758,
      "Ġcur": 3759,
      "Ġéĥ½": 3760,
      "ev": 3761,
      "ari": 3762,
      "Who": 3763,
      "æĺ¯æĪĳ": 3764,
      "Ġi": 3765,
      "abel": 3766,
      "ienden": 3767,
      "åĩĨå¤ĩ": 3768,
      "ĠWik": 3769,
      "Ġcompl": 3770,
      "Ġtable": 3771,
      "ç±³": 3772,
      "è¯´äºĨ": 3773,
      "Ġpat": 3774,
      "ĠSte": 3775,
      "Ġcomes": 3776,
      "ule": 3777,
      "ĠDan": 3778,
      "Ġton": 3779,
      "Ġinv": 3780,
      "ised": 3781,
      "ĠFl": 3782,
      "tr": 3783,
      "å½ĵæĹ¶": 3784,
      "åįİ": 3785,
      "iger": 3786,
      "Ġjongens": 3787,
      "çĵ": 3788,
      "Ġcra": 3789,
      "ĠEl": 3790,
      "ĠJan": 3791,
      "Ġopge": 3792,
      "å£«": 3793,
      "oms": 3794,
      "ilijk": 3795,
      "å¾®": 3796,
      "ĠPar": 3797,
      "Ġidea": 3798,
      "Ġlov": 3799,
      "Ġpretty": 3800,
      "è¯´çļĦ": 3801,
      "Ġcontin": 3802,
      "Ġfeet": 3803,
      "Zeg": 3804,
      "æľīçĤ¹": 3805,
      "Ġgegeven": 3806,
      "çł´": 3807,
      "Ġzelfs": 3808,
      "Ġzoon": 3809,
      "Ġklas": 3810,
      "Ġgebeurt": 3811,
      "Ġgrou": 3812,
      "Ġlik": 3813,
      "ĠVan": 3814,
      "ret": 3815,
      "kel": 3816,
      "erv": 3817,
      "EL": 3818,
      "bel": 3819,
      "rie": 3820,
      "åĵ¦": 3821,
      "Ġprov": 3822,
      "ĠYork": 3823,
      "Ġlost": 3824,
      "Ġvers": 3825,
      "Ġåı¯": 3826,
      "Ġsil": 3827,
      "ijnen": 3828,
      "NAN": 3829,
      "Ġgeleden": 3830,
      "Ġimport": 3831,
      "Ġwouldn": 3832,
      "Ġeight": 3833,
      "Ġzoek": 3834,
      "idden": 3835,
      "aces": 3836,
      "è¯´ä½ł": 3837,
      "ekent": 3838,
      "çīĽ": 3839,
      "è¿ĻåĦ¿": 3840,
      "é¸¡": 3841,
      "Ġtimes": 3842,
      "Ġkans": 3843,
      "10": 3844,
      "èĻ½çĦ¶": 3845,
      "dag": 3846,
      "sc": 3847,
      "è´Ł": 3848,
      "heden": 3849,
      "Alles": 3850,
      "æĺ¯ä¸Ģ": 3851,
      "elden": 3852,
      "ĠStates": 3853,
      "äºĳ": 3854,
      "Ġgar": 3855,
      "ĠKing": 3856,
      "é¡¾": 3857,
      "lish": 3858,
      "Ġpolitie": 3859,
      "å®¶éĩĮ": 3860,
      "ĠæĬĬ": 3861,
      "Ġalready": 3862,
      "éģĩ": 3863,
      "è®©ä½ł": 3864,
      "dred": 3865,
      "Ġoude": 3866,
      "Ġvijf": 3867,
      "Ġmot": 3868,
      "Ġeng": 3869,
      "moet": 3870,
      "æ¢¦": 3871,
      "æĬĢ": 3872,
      "æĩĤ": 3873,
      "Ġson": 3874,
      "Ġarm": 3875,
      "Ġhundred": 3876,
      "Ġminute": 3877,
      "Ġcertain": 3878,
      "Ġgezegd": 3879,
      "åıĤ": 3880,
      "ĠDon": 3881,
      "Ġless": 3882,
      "æķħäºĭ": 3883,
      "Ġoud": 3884,
      "alan": 3885,
      "è§Ħ": 3886,
      "Ġbegan": 3887,
      "ç¤º": 3888,
      "æĴŃ": 3889,
      "ĠåĨį": 3890,
      "éĤ£äºĽ": 3891,
      "Ġteken": 3892,
      "ĠHow": 3893,
      "ĠOr": 3894,
      "å¯Ĩ": 3895,
      "ç¤¼": 3896,
      "roe": 3897,
      "åıĳçĶŁ": 3898,
      "oep": 3899,
      "èĴ": 3900,
      "Ġfamilie": 3901,
      "ner": 3902,
      "ined": 3903,
      "Ġpay": 3904,
      "aptain": 3905,
      "Ġpost": 3906,
      "Ġvideo": 3907,
      "Ġalmost": 3908,
      "Ġpot": 3909,
      "ä»·": 3910,
      "Ġmoeilijk": 3911,
      "åİĨ": 3912,
      "Look": 3913,
      "Ġsqu": 3914,
      "Ġband": 3915,
      "Ġprot": 3916,
      "äº¬": 3917,
      "æŀģ": 3918,
      "Ġhoeveel": 3919,
      "Laten": 3920,
      "Ġlich": 3921,
      "æľīä¸Ģä¸ª": 3922,
      "ä¸ªäºº": 3923,
      "ä¼Ĺ": 3924,
      "Ġorder": 3925,
      "Ġbetekent": 3926,
      "rag": 3927,
      "Ġbur": 3928,
      "esten": 3929,
      "vern": 3930,
      "str": 3931,
      "Ġmark": 3932,
      "Ġnacht": 3933,
      "Ġlekker": 3934,
      "unch": 3935,
      "ipp": 3936,
      "ä¸ĵ": 3937,
      "æĢİä¹Īæł·": 3938,
      "olly": 3939,
      "Ġsong": 3940,
      "Ġè¿ĺæľī": 3941,
      "Ġprobably": 3942,
      "Ġhair": 3943,
      "Ġfriends": 3944,
      "Ġmilj": 3945,
      "Ġvond": 3946,
      "é¡»": 3947,
      "çĭĹ": 3948,
      "Ġander": 3949,
      "Ġplayed": 3950,
      "itie": 3951,
      "Ġçľĭ": 3952,
      "Ġhoudt": 3953,
      "æİ¨": 3954,
      "Ġ..": 3955,
      "åĽŀåİ»": 3956,
      "é¼ł": 3957,
      "Ġgebeurd": 3958,
      "çļ®": 3959,
      "arde": 3960,
      "Ġmens": 3961,
      "omet": 3962,
      "èĭ±": 3963,
      "ox": 3964,
      "Ġkrijg": 3965,
      "Ġaange": 3966,
      "Ġfloor": 3967,
      "Ġgreen": 3968,
      "Ġtrans": 3969,
      "Ġeas": 3970,
      "ING": 3971,
      "åĺ´": 3972,
      "Ġduring": 3973,
      "!'": 3974,
      "å·´": 3975,
      "just": 3976,
      "åħ·": 3977,
      "Ġsucc": 3978,
      "ç¬¬ä¸Ģ": 3979,
      "Ġprof": 3980,
      "Ġfiguur": 3981,
      "äºī": 3982,
      "åľŁ": 3983,
      "kl": 3984,
      "lijke": 3985,
      "good": 3986,
      "Are": 3987,
      "Then": 3988,
      "Ġzon": 3989,
      "Ġval": 3990,
      "Maak": 3991,
      "Ġwarm": 3992,
      "ouch": 3993,
      "ises": 3994,
      "åĬ©": 3995,
      "éĿĻ": 3996,
      "Ġbeaut": 3997,
      "Ġminder": 3998,
      "king": 3999,
      "haps": 4000,
      "Ġ194": 4001,
      "ga": 4002,
      "åı¶": 4003,
      "Ġtrying": 4004,
      "reven": 4005,
      "Ġgroep": 4006,
      "olf": 4007,
      "åĪ«äºº": 4008,
      "rought": 4009,
      "ĠTe": 4010,
      "ç»§": 4011,
      "Ġwed": 4012,
      "Ġtrou": 4013,
      "Ġ_": 4014,
      "ming": 4015,
      "åĳ³": 4016,
      "Ġtaken": 4017,
      "ager": 4018,
      "Ġplaying": 4019,
      "Ġbuild": 4020,
      "Ġcolor": 4021,
      "çĽ¸ä¿¡": 4022,
      "åıªæĺ¯": 4023,
      "éĢĤ": 4024,
      "éĻĪ": 4025,
      "Ġsyst": 4026,
      "çº¦": 4027,
      "Ġparty": 4028,
      "Ġprom": 4029,
      "Ġmorgen": 4030,
      "Ġdenkt": 4031,
      "Ġsent": 4032,
      "ues": 4033,
      "lle": 4034,
      "éªĮ": 4035,
      "Ġdef": 4036,
      "ĠPl": 4037,
      "æ±Ł": 4038,
      "ience": 4039,
      "Ġdead": 4040,
      "Right": 4041,
      "rouwen": 4042,
      "ĠAf": 4043,
      "ĠPro": 4044,
      "ĠEd": 4045,
      "Ġbegin": 4046,
      "ĠFor": 4047,
      "Ġclose": 4048,
      "Ġeigenlijk": 4049,
      "hel": 4050,
      "Ġrock": 4051,
      "cess": 4052,
      "inde": 4053,
      "Ġä»İ": 4054,
      "æľĢè¿ĳ": 4055,
      "è´£": 4056,
      "ander": 4057,
      "Ġä»Ĭå¤©": 4058,
      "Ġcup": 4059,
      "åĿı": 4060,
      "ĠåĹ¯": 4061,
      "Ġ11": 4062,
      "aybe": 4063,
      "å¯Ł": 4064,
      "Ġbijvoorbeeld": 4065,
      "ç®Ģ": 4066,
      "é¬": 4067,
      "Ġconf": 4068,
      "Ġcamp": 4069,
      "Ġev": 4070,
      "äºĨä¸Ģä¸ª": 4071,
      "Ġmeans": 4072,
      "As": 4073,
      "itting": 4074,
      "ĠBob": 4075,
      "Ġaren": 4076,
      "èĦļ": 4077,
      "Ġbestaat": 4078,
      "é²": 4079,
      "éĻª": 4080,
      "Ġsat": 4081,
      "æ¸ħæ¥ļ": 4082,
      "åĦ¿åŃĲ": 4083,
      "DAD": 4084,
      "Ġpa": 4085,
      "è·Łä½łè¯´": 4086,
      "Ġmat": 4087,
      "see": 4088,
      "ruct": 4089,
      "Ġreact": 4090,
      "got": 4091,
      "èĥĮ": 4092,
      "è§Ĵ": 4093,
      "Ġble": 4094,
      "æĪĸèĢħ": 4095,
      "åģĩ": 4096,
      "ains": 4097,
      "è¿ĩåİ»": 4098,
      "more": 4099,
      "Ġfav": 4100,
      "Ġpersoon": 4101,
      "aks": 4102,
      "ç¬¬äºĮ": 4103,
      "ĠZo": 4104,
      "bank": 4105,
      "å¿µ": 4106,
      "çĸĳ": 4107,
      "Ġgotta": 4108,
      "åħĶ": 4109,
      "éĨĴ": 4110,
      "ĠAd": 4111,
      "Ġgeloof": 4112,
      "Mag": 4113,
      "rat": 4114,
      "æľĿ": 4115,
      "Ġ14": 4116,
      "Ġå¼": 4117,
      "Ġnatuurlijk": 4118,
      "æĬķ": 4119,
      "åī§": 4120,
      "Ġmonth": 4121,
      "æ±ī": 4122,
      "'.": 4123,
      "Ġappear": 4124,
      "å¤ļå°ĳ": 4125,
      "alanyl": 4126,
      "euw": 4127,
      "ummer": 4128,
      "Hel": 4129,
      "Ġzat": 4130,
      "Ġoften": 4131,
      "Ġblue": 4132,
      "Ġ)": 4133,
      "Ġlicht": 4134,
      "ç£": 4135,
      "reet": 4136,
      "ided": 4137,
      "Ġbrand": 4138,
      "Ex": 4139,
      "æĭį": 4140,
      "Ġwants": 4141,
      "CDS": 4142,
      "ä»¥åīį": 4143,
      "ler": 4144,
      "sten": 4145,
      "æĸ¯": 4146,
      "ogra": 4147,
      "æĥ³åĪ°": 4148,
      "ĠDo": 4149,
      "Ġfront": 4150,
      "Ġtijdens": 4151,
      "æł¡": 4152,
      "ists": 4153,
      "zer": 4154,
      "Ġfull": 4155,
      "è¯Ń": 4156,
      "ĠQu": 4157,
      "Ġzet": 4158,
      "Ġvrienden": 4159,
      "Stop": 4160,
      "arth": 4161,
      "åĲİæĿ¥": 4162,
      "Ġnorm": 4163,
      "Ġable": 4164,
      "ä¸¥": 4165,
      "iers": 4166,
      "å¥½åĥı": 4167,
      "Ġgevonden": 4168,
      "Ġdruk": 4169,
      "ained": 4170,
      "éĽĨ": 4171,
      "çĬ¶": 4172,
      "é¬¼": 4173,
      "Ġpull": 4174,
      "æŃ¦": 4175,
      "ĠEnglish": 4176,
      "omp": 4177,
      "ç»ĥ": 4178,
      "è¶ħ": 4179,
      "Ġoutside": 4180,
      "èıľ": 4181,
      "Ġfoto": 4182,
      "åŃĺ": 4183,
      "Ġplek": 4184,
      "Re": 4185,
      "ently": 4186,
      "éĻ©": 4187,
      "çļĦäºĭæĥħ": 4188,
      "Ġinc": 4189,
      "ĠThat": 4190,
      "Ġæ²¡æľī": 4191,
      "æŃ£ç¡®": 4192,
      "veer": 4193,
      "ĠCon": 4194,
      "Ġturned": 4195,
      "Ġpas": 4196,
      "æĽ¾": 4197,
      "Ġbar": 4198,
      "Ġbrought": 4199,
      "ides": 4200,
      "50": 4201,
      "Ġhope": 4202,
      "ä½łæĺ¯": 4203,
      "sn": 4204,
      "Good": 4205,
      "Ġgroe": 4206,
      "ä¸įåĪ°": 4207,
      "Ġ=": 4208,
      "ima": 4209,
      "è¿ĻéĩĮ": 4210,
      "Ġsoms": 4211,
      "Ġgeef": 4212,
      "ĠBrit": 4213,
      "ada": 4214,
      "æĢĢ": 4215,
      "deel": 4216,
      "Ġminutes": 4217,
      "ĠJap": 4218,
      "ĠCan": 4219,
      "yn": 4220,
      "èĹ": 4221,
      "Ġsuper": 4222,
      "åĪĻ": 4223,
      "slag": 4224,
      "met": 4225,
      "Ġyourself": 4226,
      "èĽĭ": 4227,
      "houd": 4228,
      "ĠCar": 4229,
      "Ġdeath": 4230,
      "Ġlink": 4231,
      "Ġdou": 4232,
      "æĺ¥": 4233,
      "Ġschat": 4234,
      "çİ¯": 4235,
      "Ġquick": 4236,
      "Ġjo": 4237,
      "Ġkap": 4238,
      "because": 4239,
      "Ġexper": 4240,
      "RA": 4241,
      "ene": 4242,
      "Ġcook": 4243,
      "è¿½": 4244,
      "midd": 4245,
      "irth": 4246,
      "Ġmovie": 4247,
      "ott": 4248,
      "ä¼Ļ": 4249,
      "Ġfight": 4250,
      "è®®": 4251,
      "To": 4252,
      "åĽ½å®¶": 4253,
      "orie": 4254,
      "Ġprobleem": 4255,
      "éĽª": 4256,
      "heen": 4257,
      "Ġblijft": 4258,
      "Ġaw": 4259,
      "çľĭè§ģ": 4260,
      "ĠDaddy": 4261,
      "Ġlichaam": 4262,
      "å¡": 4263,
      "selves": 4264,
      "Ġvoed": 4265,
      "åıĳå±ķ": 4266,
      "Ġminuten": 4267,
      "æĹ¢": 4268,
      "Ġbehind": 4269,
      "orp": 4270,
      "Ġprogram": 4271,
      "éĽ¨": 4272,
      "åģľ": 4273,
      "æĶ¾å¿ĥ": 4274,
      "Ġpresident": 4275,
      "Ġhappy": 4276,
      "ĠHer": 4277,
      "Ġneer": 4278,
      "Ġstick": 4279,
      "Ġåĩ": 4280,
      "ĠX": 4281,
      "Thank": 4282,
      "Ġwerkt": 4283,
      "ç©¶": 4284,
      "Ġadv": 4285,
      "ĠJim": 4286,
      "æ´¾": 4287,
      "Cl": 4288,
      "ä»¥ä¸º": 4289,
      "æĵ": 4290,
      "Ġhond": 4291,
      "Ġheld": 4292,
      "Did": 4293,
      "è¯´æĪĳ": 4294,
      "Ġrather": 4295,
      "ĠMet": 4296,
      "çļĦå¤§": 4297,
      "mo": 4298,
      "Ġvoice": 4299,
      "Ġbag": 4300,
      "plaat": 4301,
      "èĥ¡": 4302,
      "ging": 4303,
      "åĻ¨": 4304,
      "Ġvak": 4305,
      "æĺ¯ä»Ģä¹Ī": 4306,
      "Ġtem": 4307,
      "raak": 4308,
      "Tot": 4309,
      "akker": 4310,
      "Zijn": 4311,
      "çĮ«": 4312,
      "Ġ30": 4313,
      "åħĦå¼Ł": 4314,
      "çº§": 4315,
      "ande": 4316,
      "Ġcouldn": 4317,
      "Luister": 4318,
      "é©¬ä¸Ĭ": 4319,
      "Ġruim": 4320,
      "Ġlisten": 4321,
      "like": 4322,
      "Ġpower": 4323,
      "åĪĿ": 4324,
      "Ġdieren": 4325,
      "åĶ±": 4326,
      "Ġseemed": 4327,
      "ĠæĪĳè§īå¾Ĺ": 4328,
      "orge": 4329,
      "Ġcover": 4330,
      "Nog": 4331,
      "Can": 4332,
      "å°±ä¸į": 4333,
      "å§ĳå¨ĺ": 4334,
      "ana": 4335,
      "Ġdraw": 4336,
      "ĠMa": 4337,
      "Ġimportant": 4338,
      "åħĭ": 4339,
      "iful": 4340,
      "ĠHis": 4341,
      "Ġbekend": 4342,
      "ĠDie": 4343,
      "Men": 4344,
      "éĹ»": 4345,
      "Ġlearn": 4346,
      "å¿ĺ": 4347,
      "æłĩ": 4348,
      "Ġziek": 4349,
      "åĢ¼": 4350,
      "ĠhÃ¨": 4351,
      "ĠWaar": 4352,
      "Ġshop": 4353,
      "Ġmusic": 4354,
      "ĠMan": 4355,
      "hand": 4356,
      "Ġgun": 4357,
      "Ġenerg": 4358,
      "ately": 4359,
      "Ġles": 4360,
      "åĽŀå®¶": 4361,
      "dem": 4362,
      "åı¤": 4363,
      "iezen": 4364,
      "åľ¨ä¸Ģèµ·": 4365,
      "Ġlanden": 4366,
      "èµ¶ç´§": 4367,
      "Ġstuff": 4368,
      "ç»ĵæŀľ": 4369,
      "åı¦": 4370,
      "çªģçĦ¶": 4371,
      "ford": 4372,
      "Ġwife": 4373,
      "Ġtree": 4374,
      "å¢ĥ": 4375,
      "oul": 4376,
      "rip": 4377,
      "å¹¸": 4378,
      "Ġpoor": 4379,
      "Ġfine": 4380,
      "åıĮ": 4381,
      "å°Ķ": 4382,
      "head": 4383,
      "åºĹ": 4384,
      "Ġrad": 4385,
      "ĠOh": 4386,
      "Ġbra": 4387,
      "imed": 4388,
      "ized": 4389,
      "ĠSchrijf": 4390,
      "||": 4391,
      "Ġproduct": 4392,
      "Ġpur": 4393,
      "esh": 4394,
      "Ġding": 4395,
      "æľ¨": 4396,
      "éĿł": 4397,
      "ä¸½": 4398,
      "Denk": 4399,
      "Ġhon": 4400,
      "zet": 4401,
      "Ġkamer": 4402,
      "ĠåĴ±ä»¬": 4403,
      "åĪĽ": 4404,
      "Ġchair": 4405,
      "Ġduid": 4406,
      "Ġshort": 4407,
      "Ġpartic": 4408,
      "inken": 4409,
      "Ġwords": 4410,
      "ments": 4411,
      "å±ŀ": 4412,
      "Ġhurt": 4413,
      "Ġmouth": 4414,
      "éĤ£ç§į": 4415,
      "ured": 4416,
      "zij": 4417,
      "omin": 4418,
      "wee": 4419,
      "Ġelect": 4420,
      "Ġzee": 4421,
      "uth": 4422,
      "Ġ13": 4423,
      "Ġluister": 4424,
      "Ġmakes": 4425,
      "Ġlaugh": 4426,
      "Ġpopul": 4427,
      "Ġhuh": 4428,
      "Ġchange": 4429,
      "Ġvre": 4430,
      "idge": 4431,
      "Ġteach": 4432,
      "ument": 4433,
      "Ġclass": 4434,
      "çļĦä¸Ģä¸ª": 4435,
      "Ġmyself": 4436,
      "éĢļè¿ĩ": 4437,
      "æĦ¿æĦı": 4438,
      "Ġonderzoek": 4439,
      "wijl": 4440,
      "Ġlopen": 4441,
      "åĩ»": 4442,
      "Ġbek": 4443,
      "Ġserv": 4444,
      "éĴŁ": 4445,
      "Ġbott": 4446,
      "Ġè°¢è°¢": 4447,
      "é¡º": 4448,
      "Ã«n": 4449,
      "essed": 4450,
      "Ġpicture": 4451,
      "unning": 4452,
      "Ġzoeken": 4453,
      "Toen": 4454,
      "inger": 4455,
      "æ²¹": 4456,
      "kig": 4457,
      "Ġperfect": 4458,
      "Ġsun": 4459,
      "Ġline": 4460,
      "Ġfell": 4461,
      "Ġones": 4462,
      "thers": 4463,
      "Ġpaper": 4464,
      "ä¸Ģå¤©": 4465,
      "Br": 4466,
      "key": 4467,
      "éº»": 4468,
      "Ġtro": 4469,
      "Ġleren": 4470,
      "Ġspel": 4471,
      "ĠWest": 4472,
      "è¡Ģ": 4473,
      "LO": 4474,
      "ĠTom": 4475,
      "æ¸©": 4476,
      "Ġlarge": 4477,
      "isk": 4478,
      "Vol": 4479,
      "ĠIf": 4480,
      "ĠOm": 4481,
      "èĢĮä¸Ķ": 4482,
      "kt": 4483,
      "æĺ¯ä¸Ģä¸ª": 4484,
      "éĢŁ": 4485,
      "uig": 4486,
      "ä½łçľĭ": 4487,
      "Ġbes": 4488,
      "çİī": 4489,
      "æŀĲ": 4490,
      "Go": 4491,
      "Ġlate": 4492,
      "Ġpijn": 4493,
      "Ġcommun": 4494,
      "æĿ¾": 4495,
      "ä¸įè¡Į": 4496,
      "è®¤è¯Ĩ": 4497,
      "Ġuitge": 4498,
      "Ġeeuw": 4499,
      "Ġresult": 4500,
      "akkelijk": 4501,
      "ä¸Ģå®ļè¦ģ": 4502,
      "Ġwoon": 4503,
      "Ġdeal": 4504,
      "å±ħ": 4505,
      "Ġbusiness": 4506,
      "Ġwachten": 4507,
      "ourn": 4508,
      "ä¹±": 4509,
      "ilt": 4510,
      "åĩłä¸ª": 4511,
      "æĿĥ": 4512,
      "è¿Ľè¡Į": 4513,
      "Ġrecord": 4514,
      "Kan": 4515,
      "éħį": 4516,
      "Ġbrengen": 4517,
      "UR": 4518,
      "ĠThen": 4519,
      "ĠSpan": 4520,
      "Ġvar": 4521,
      "Ġgiven": 4522,
      "äºĨåķĬ": 4523,
      "ĠAm": 4524,
      "Ġstep": 4525,
      "Ġè®©": 4526,
      "Ah": 4527,
      "Ġgrot": 4528,
      "Ġbody": 4529,
      "Ġbeginnen": 4530,
      "ziek": 4531,
      "irty": 4532,
      "verd": 4533,
      "Ġhulp": 4534,
      "Echt": 4535,
      "ode": 4536,
      "Ġtaking": 4537,
      "Ġstrong": 4538,
      "Ġbal": 4539,
      "Ġjong": 4540,
      "Ġocc": 4541,
      "hey": 4542,
      "Ġchang": 4543,
      "for": 4544,
      "amb": 4545,
      "Ġmaybe": 4546,
      "æ¯ıå¤©": 4547,
      "zien": 4548,
      "ĠTo": 4549,
      "Ġgehad": 4550,
      "acter": 4551,
      "å®¤": 4552,
      "åİĭ": 4553,
      "çĶµå½±": 4554,
      "Ġago": 4555,
      "æĹ¥æľ¬": 4556,
      "huis": 4557,
      "ucyl": 4558,
      "esc": 4559,
      "band": 4560,
      "Ġra": 4561,
      "ĠBen": 4562,
      "18": 4563,
      "rying": 4564,
      "----": 4565,
      "iep": 4566,
      "Ġbrother": 4567,
      "conom": 4568,
      "ention": 4569,
      "Ġkreeg": 4570,
      "iving": 4571,
      "bye": 4572,
      "veral": 4573,
      "Ġreden": 4574,
      "ĠJapan": 4575,
      "arling": 4576,
      "æ¥¼": 4577,
      "Ġage": 4578,
      "ç½ª": 4579,
      "Sp": 4580,
      "ille": 4581,
      "zie": 4582,
      "ĠWhen": 4583,
      "Ġvoet": 4584,
      "Ġhoort": 4585,
      "beren": 4586,
      "used": 4587,
      "Ġpen": 4588,
      "Ġmine": 4589,
      "Ġbirth": 4590,
      "pos": 4591,
      "Ġho": 4592,
      "å®¹æĺĵ": 4593,
      "ĠEurop": 4594,
      "Ġzom": 4595,
      "Ġbird": 4596,
      "Ġground": 4597,
      "Ġè°ģ": 4598,
      "osp": 4599,
      "rab": 4600,
      "åĵŃ": 4601,
      "Ġliggen": 4602,
      "Ġrele": 4603,
      "éĻħ": 4604,
      "ĠGerman": 4605,
      "foon": 4606,
      "Ġfelt": 4607,
      "ä½İ": 4608,
      "Ġrepl": 4609,
      "ĠèĢĮä¸Ķ": 4610,
      "èģĮ": 4611,
      "Ġvrouwen": 4612,
      "æĭ©": 4613,
      "Ġhang": 4614,
      "ĠMay": 4615,
      "åŃĲçļĦ": 4616,
      "è¯´è¯Ŀ": 4617,
      "ç»Ļä»ĸ": 4618,
      "ä¼¼": 4619,
      "ĠAfr": 4620,
      "å¼Ħ": 4621,
      "Ġgeweldig": 4622,
      "aged": 4623,
      "eem": 4624,
      "ution": 4625,
      "ugust": 4626,
      "Ġmiljoen": 4627,
      "Ġstate": 4628,
      "Ġroad": 4629,
      "ĠFrance": 4630,
      "Ġbear": 4631,
      "ĠDr": 4632,
      "del": 4633,
      "æĪĳæĥ³": 4634,
      "Ġcomput": 4635,
      "ĠæĪĳä¸į": 4636,
      "æī¿": 4637,
      "åĳĬè¯īä½ł": 4638,
      "ĠéĤ£ä½ł": 4639,
      "reg": 4640,
      "åºľ": 4641,
      "Pro": 4642,
      "thank": 4643,
      "anen": 4644,
      "Ġhist": 4645,
      "Ġhorse": 4646,
      "æ´Ĺ": 4647,
      "åľ¨è¿ĻåĦ¿": 4648,
      "ijst": 4649,
      "Ġgovern": 4650,
      "Ġbrief": 4651,
      "zy": 4652,
      "Ġlady": 4653,
      "éĹ¹": 4654,
      "çĥ¦": 4655,
      "åģ·": 4656,
      "Ġtwenty": 4657,
      "ragen": 4658,
      "Ġveilig": 4659,
      "Neem": 4660,
      "è·Łä»ĸ": 4661,
      "Ġpiece": 4662,
      "glut": 4663,
      "For": 4664,
      "æ¯ĶèµĽ": 4665,
      "Ġguess": 4666,
      "Ġwomen": 4667,
      "ä¾Ŀ": 4668,
      "bare": 4669,
      "Ġlad": 4670,
      "que": 4671,
      "ĠWel": 4672,
      "Ġsitu": 4673,
      "åĩºäºĨ": 4674,
      "ouwen": 4675,
      "Ġcap": 4676,
      "Ġprecies": 4677,
      "æľºä¼ļ": 4678,
      "ente": 4679,
      "line": 4680,
      "Ġcase": 4681,
      "ius": 4682,
      "born": 4683,
      "å¿ħé¡»": 4684,
      "å¹¿": 4685,
      "Ġlaw": 4686,
      "Ġinside": 4687,
      "Ġ100": 4688,
      "sk": 4689,
      "Ġsug": 4690,
      "ç¡®å®ŀ": 4691,
      "At": 4692,
      "Ġthank": 4693,
      "ä¸ŃçļĦ": 4694,
      "Ġinclud": 4695,
      "æ¦": 4696,
      "Ġpark": 4697,
      "Ġoper": 4698,
      "æĥĬ": 4699,
      "ĠWor": 4700,
      "éĵģ": 4701,
      "Blijf": 4702,
      "ardon": 4703,
      "osten": 4704,
      "then": 4705,
      "ric": 4706,
      "ering": 4707,
      "Ġeither": 4708,
      "ative": 4709,
      "æĿ¨": 4710,
      "é«ĺåħ´": 4711,
      "Mummy": 4712,
      "çĭ¬": 4713,
      "Ġmount": 4714,
      "çĭ¼": 4715,
      "Kun": 4716,
      "Ġcold": 4717,
      "èĤ¡": 4718,
      "Ġothers": 4719,
      "Ġwanneer": 4720,
      "ism": 4721,
      "Ġgesl": 4722,
      "pril": 4723,
      "æ°¸": 4724,
      "åıªæľī": 4725,
      "åª": 4726,
      "Ġhit": 4727,
      "ç¦»å¼Ģ": 4728,
      "åĽŃ": 4729,
      "offen": 4730,
      "yy": 4731,
      "å¸Ŀ": 4732,
      "inning": 4733,
      "Ġice": 4734,
      "Ġjezelf": 4735,
      "Nie": 4736,
      "å§Ķ": 4737,
      "æ¯ķ": 4738,
      "shall": 4739,
      "Ġthrow": 4740,
      "Ġsister": 4741,
      "Ġextra": 4742,
      "sy": 4743,
      "ery": 4744,
      "Ġtelevis": 4745,
      "Ġzoveel": 4746,
      "åĨ²": 4747,
      "Ġhanden": 4748,
      "uizen": 4749,
      "God": 4750,
      "ĠMaak": 4751,
      "ram": 4752,
      "aties": 4753,
      "è®¤ä¸º": 4754,
      "Kl": 4755,
      "ĠItal": 4756,
      "Ġlezen": 4757,
      "ika": 4758,
      "èļ": 4759,
      "Ġdeur": 4760,
      "glutam": 4761,
      "æĪĲäºĨ": 4762,
      "ĠokÃ©": 4763,
      "igin": 4764,
      "ç¾¤": 4765,
      "Ġgere": 4766,
      "Ġquestion": 4767,
      "åĽ´": 4768,
      "æĲŀ": 4769,
      "ĠDuits": 4770,
      "ä¸¾": 4771,
      "Ġmill": 4772,
      "å®«": 4773,
      "ello": 4774,
      "iversity": 4775,
      "Ġbank": 4776,
      "Ġleast": 4777,
      "Ġfree": 4778,
      "è¿Ļæ¬¡": 4779,
      "ç¤¾ä¼ļ": 4780,
      "Ġverst": 4781,
      "Ġring": 4782,
      "ĠBel": 4783,
      "Omdat": 4784,
      "rit": 4785,
      "eland": 4786,
      "å¹´çļĦ": 4787,
      "çłĶ": 4788,
      "åĲĽ": 4789,
      "Ġlead": 4790,
      "æī¾åĪ°": 4791,
      "ete": 4792,
      "Ġgirls": 4793,
      "Ġang": 4794,
      "æĪĳæĪĳ": 4795,
      "chn": 4796,
      "igde": 4797,
      "Pr": 4798,
      "Ġouders": 4799,
      "ç¯": 4800,
      "zaam": 4801,
      "Ġbor": 4802,
      "ĠæĪĳæĥ³": 4803,
      "åŃĻ": 4804,
      "ä¹ĭéĹ´": 4805,
      "Ġbuy": 4806,
      "æĺ¾": 4807,
      "bit": 4808,
      "éĢīæĭ©": 4809,
      "llo": 4810,
      "iously": 4811,
      "èº«ä½ĵ": 4812,
      "Ġwee": 4813,
      "Ġeruit": 4814,
      "velop": 4815,
      "Ġæĥ³": 4816,
      "Ġstond": 4817,
      "å°±ä¼ļ": 4818,
      "Ġontw": 4819,
      "have": 4820,
      "Get": 4821,
      "Ġmess": 4822,
      "Was": 4823,
      "èĵ": 4824,
      "åº§": 4825,
      "è¿İ": 4826,
      "Ġtrue": 4827,
      "Ġduidelijk": 4828,
      "edereen": 4829,
      "æĹı": 4830,
      "Ġfur": 4831,
      "ĠSo": 4832,
      "Ġpage": 4833,
      "Ġä½łçľĭ": 4834,
      "Ġworking": 4835,
      "èĻİ": 4836,
      "Ġroll": 4837,
      "ä¸īåįģ": 4838,
      "reed": 4839,
      "Ġongeveer": 4840,
      "ĠNa": 4841,
      "schijn": 4842,
      "rict": 4843,
      "vallen": 4844,
      "å¼ķ": 4845,
      "Mar": 4846,
      "Ġkaart": 4847,
      "Ġnieuws": 4848,
      "åĳ¼": 4849,
      "Ġlangs": 4850,
      "achten": 4851,
      "å¥¹çļĦ": 4852,
      "Ġpunt": 4853,
      "ĠComm": 4854,
      "å¥³äºº": 4855,
      "ico": 4856,
      "ç½®": 4857,
      "æĮī": 4858,
      "com": 4859,
      "Ġwit": 4860,
      "Ġsometimes": 4861,
      "æ¨¡": 4862,
      "Ġconc": 4863,
      "ĠéĤ£ä¹Ī": 4864,
      "hal": 4865,
      "ousand": 4866,
      "Ġinde": 4867,
      "è¯»": 4868,
      "Ġacross": 4869,
      "Ġoef": 4870,
      "å®Ī": 4871,
      "ĠéĤ£ä¸ª": 4872,
      "does": 4873,
      "åĪĴ": 4874,
      "Ġrece": 4875,
      "æĸ¹éĿ¢": 4876,
      "Ġhy": 4877,
      "Ġtweede": 4878,
      "deren": 4879,
      "Ġalsof": 4880,
      "ey": 4881,
      "ç»§ç»Ń": 4882,
      "ÉĻ": 4883,
      "ç´¯": 4884,
      "Ġcor": 4885,
      "âĮ": 4886,
      "antwoord": 4887,
      "Ġearly": 4888,
      "TER": 4889,
      "Ġgezicht": 4890,
      "Ġarr": 4891,
      "çĮª": 4892,
      "Ġè¡Į": 4893,
      "Ġcreat": 4894,
      "rog": 4895,
      "Ġbeautiful": 4896,
      "fully": 4897,
      "Ġfout": 4898,
      "ä¼ĳ": 4899,
      "Ġ195": 4900,
      "Ġkilled": 4901,
      "ante": 4902,
      "èĲ¥": 4903,
      "Ġfuck": 4904,
      "Ġmain": 4905,
      "Ġuitleg": 4906,
      "åĲĮå¿Ĺ": 4907,
      "Ġsen": 4908,
      "Ġarea": 4909,
      "è¡£æľį": 4910,
      "è®°å¾Ĺ": 4911,
      "ä»»ä½ķ": 4912,
      "Ġ193": 4913,
      "Ġpak": 4914,
      "å¦ĩ": 4915,
      "éĢīé¡¹": 4916,
      "morrow": 4917,
      "bal": 4918,
      "olon": 4919,
      "ached": 4920,
      "Ġspeak": 4921,
      "Ġguy": 4922,
      "ĠAng": 4923,
      "æŀª": 4924,
      "12": 4925,
      "Ġhat": 4926,
      "ä»ħ": 4927,
      "Ġ2020": 4928,
      "15": 4929,
      "fort": 4930,
      "Ġonderwerp": 4931,
      "ADU": 4932,
      "niet": 4933,
      "åĬ¿": 4934,
      "å¹²ä»Ģä¹Ī": 4935,
      "Ġechte": 4936,
      "Ġgele": 4937,
      "æİ§": 4938,
      "Ġä½łæĺ¯": 4939,
      "è´µ": 4940,
      "when": 4941,
      "eur": 4942,
      "æĺİå¤©": 4943,
      "ä¸ĬäºĨ": 4944,
      "ench": 4945,
      "Ġalone": 4946,
      "Ġill": 4947,
      "ä¹İ": 4948,
      "Ġmach": 4949,
      "è¯¾": 4950,
      "inet": 4951,
      "Vert": 4952,
      "ĠJu": 4953,
      "eens": 4954,
      "aving": 4955,
      "çĪ¹": 4956,
      "cil": 4957,
      "Ġanimals": 4958,
      "èĤī": 4959,
      "åĨ·": 4960,
      "Ġsomeone": 4961,
      "Ġlay": 4962,
      "æĪĳè¦ģ": 4963,
      "çģµ": 4964,
      "AP": 4965,
      "Ġ25": 4966,
      "èĩ´": 4967,
      "éĥ½æ²¡æľī": 4968,
      "TEA": 4969,
      "Ġsystem": 4970,
      "aced": 4971,
      "Ġpunten": 4972,
      "Ġgroup": 4973,
      "vrouw": 4974,
      "ç»ĵå©ļ": 4975,
      "Ġopl": 4976,
      "ä¸įåĲĮ": 4977,
      "å¢ŀ": 4978,
      "Te": 4979,
      "Ġtien": 4980,
      "èĪŀ": 4981,
      "Ġlo": 4982,
      "Ġä½łæĢİä¹Ī": 4983,
      "Ġconst": 4984,
      "bum": 4985,
      "Ġwish": 4986,
      "Ġdarling": 4987,
      "zak": 4988,
      "Ġcompany": 4989,
      "umm": 4990,
      "ç¾İåĽ½": 4991,
      "Ġglad": 4992,
      "houden": 4993,
      "å°ıå§Ĳ": 4994,
      "Ġconsider": 4995,
      "ural": 4996,
      "åĲĥé¥Ń": 4997,
      "Zie": 4998,
      "æµİ": 4999,
      "æ½": 5000,
      "Ġmeteen": 5001,
      "Ġsweet": 5002,
      "èĹı": 5003,
      "åĩºçİ°": 5004,
      "kele": 5005,
      "Ġ&": 5006,
      "Ġdaarna": 5007,
      "avy": 5008,
      "å¥³åĦ¿": 5009,
      "Ġadd": 5010,
      "çļĦäºĭ": 5011,
      "éĩİ": 5012,
      "Ġmama": 5013,
      "alm": 5014,
      "Ġgevaar": 5015,
      "rijs": 5016,
      "Ġcond": 5017,
      "ĠMc": 5018,
      "Ġseveral": 5019,
      "Ġvill": 5020,
      "Me": 5021,
      "Ġvooral": 5022,
      "ians": 5023,
      "Ġvog": 5024,
      "Ġthousand": 5025,
      "Ġdark": 5026,
      "æ¼Ĥ": 5027,
      "Ġå·": 5028,
      "Ġyellow": 5029,
      "Ġmacht": 5030,
      "Ġmooie": 5031,
      "ĠCharl": 5032,
      "Ġvallen": 5033,
      "éĩĮçļĦ": 5034,
      "æĪ·": 5035,
      "çĬ¯": 5036,
      "æ¤": 5037,
      "çľ¼çĿ": 5038,
      "Ġfast": 5039,
      "Ġseven": 5040,
      "Ġleeft": 5041,
      "Ġclub": 5042,
      "IT": 5043,
      "Ġgrow": 5044,
      "Ġmer": 5045,
      "Ġlangu": 5046,
      "Ġnoemen": 5047,
      "Ġship": 5048,
      "Ġmilk": 5049,
      "orden": 5050,
      "oops": 5051,
      "æŃ¢": 5052,
      "upp": 5053,
      "åı²": 5054,
      "ris": 5055,
      "Ġgenoemd": 5056,
      "å·ŀ": 5057,
      "Ġspecial": 5058,
      "Ġrol": 5059,
      "ç½Ĺ": 5060,
      "è¾Ī": 5061,
      "Ġmogen": 5062,
      "æĭĽ": 5063,
      "vert": 5064,
      "åİī": 5065,
      "icks": 5066,
      "kende": 5067,
      "Ġåĳĥ": 5068,
      "Ġfair": 5069,
      "Ġå¿«": 5070,
      "Ġpakken": 5071,
      "éĺ²": 5072,
      "åĿļ": 5073,
      "burg": 5074,
      "Ġplant": 5075,
      "Your": 5076,
      "ä¸įå¾Ĺ": 5077,
      "Ġproberen": 5078,
      "æ¿": 5079,
      "å½±åĵį": 5080,
      "ĠWorld": 5081,
      "Ġfeest": 5082,
      "pers": 5083,
      "Ġol": 5084,
      "Ġbecome": 5085,
      "çľĭçĿĢ": 5086,
      "è¹": 5087,
      "cul": 5088,
      "ĠPaul": 5089,
      "bt": 5090,
      "Ġcre": 5091,
      "ĠRome": 5092,
      "åĽ¾": 5093,
      "çĶ°": 5094,
      "æºĲ": 5095,
      "aien": 5096,
      "èĪ¬": 5097,
      "even": 5098,
      "Ġå®ĥ": 5099,
      "æł¹æľ¬": 5100,
      "çļĦè¿Ļä¸ª": 5101,
      "Ġtest": 5102,
      "Ġfunny": 5103,
      "åĨ³å®ļ": 5104,
      "ĠPhil": 5105,
      "uary": 5106,
      "Ġsend": 5107,
      "Zij": 5108,
      "éĵ¶": 5109,
      "Ġgraf": 5110,
      "Ġfavor": 5111,
      "gas": 5112,
      "åı¥è¯Ŀ": 5113,
      "ĠYes": 5114,
      "æĺ¨": 5115,
      "ĠOl": 5116,
      "Ġimp": 5117,
      "Ġavond": 5118,
      "Ġgas": 5119,
      "æľīäºº": 5120,
      "Ġstation": 5121,
      "Ġgrootste": 5122,
      "Natuurlijk": 5123,
      "iting": 5124,
      "Ġblood": 5125,
      "èĤ²": 5126,
      "æĢİä¹ĪåĬŀ": 5127,
      "Ã¼": 5128,
      "å±ĭ": 5129,
      "Ġeffect": 5130,
      "cri": 5131,
      "water": 5132,
      "uke": 5133,
      "æĬĹ": 5134,
      "inig": 5135,
      "alth": 5136,
      "omb": 5137,
      "ĠNor": 5138,
      "Ġdiv": 5139,
      "æīĭæľº": 5140,
      "Ġkracht": 5141,
      "urch": 5142,
      "Ġgets": 5143,
      "One": 5144,
      "Ġäºº": 5145,
      "æĬ±": 5146,
      "èİ·": 5147,
      "ino": 5148,
      "Ġmeeste": 5149,
      "Ġtruck": 5150,
      "eph": 5151,
      "}$$": 5152,
      "partment": 5153,
      "ED": 5154,
      "Ġclot": 5155,
      "Ġbi": 5156,
      "Ġzetten": 5157,
      "äºĨè§£": 5158,
      "Here": 5159,
      "ĠKennis": 5160,
      "å¤ļçļĦ": 5161,
      "ral": 5162,
      "Ġder": 5163,
      "èī¯": 5164,
      "Ġafbeeld": 5165,
      "Ġamong": 5166,
      "åŀĭ": 5167,
      "ĠçŃī": 5168,
      "nou": 5169,
      "åĪĹ": 5170,
      "derd": 5171,
      "ĠCount": 5172,
      "gg": 5173,
      "Ġtill": 5174,
      "Ġä¸įè¿ĩ": 5175,
      "pje": 5176,
      "sche": 5177,
      "icult": 5178,
      "Over": 5179,
      "Ge": 5180,
      "iken": 5181,
      "çľ¼çĿĽ": 5182,
      "èĭı": 5183,
      "Ġclean": 5184,
      "BRO": 5185,
      "æĺ¯åĲ§": 5186,
      "nieuw": 5187,
      "ä¹Łæ²¡": 5188,
      "ä¿®": 5189,
      "Ã³": 5190,
      "Ġdi": 5191,
      "eeuw": 5192,
      "Ġbegint": 5193,
      "Ġguys": 5194,
      "Ġallow": 5195,
      "èµµ": 5196,
      "çĹĽ": 5197,
      "æĪĳè¿ĺ": 5198,
      "ä¸įéĶĻ": 5199,
      "é¢ĺå¹²": 5200,
      "stuk": 5201,
      "Ġfootball": 5202,
      "ĠRuss": 5203,
      "two": 5204,
      "Ġabs": 5205,
      "ute": 5206,
      "Ġobject": 5207,
      "Ġpound": 5208,
      "Ġhetzelfde": 5209,
      "Ġvanavond": 5210,
      "Ġenter": 5211,
      "äºİæĺ¯": 5212,
      "Ġvij": 5213,
      "ĠAb": 5214,
      "Ġfish": 5215,
      "Bij": 5216,
      "Ã¶": 5217,
      "Ġwet": 5218,
      "Ġran": 5219,
      "]?": 5220,
      "ä¸įçĶ¨": 5221,
      "ä¸ĭåİ»": 5222,
      "æĿ¥è¯´": 5223,
      "Ġmond": 5224,
      "Ġwou": 5225,
      "çĽ´æİ¥": 5226,
      "Ġgeloven": 5227,
      "was": 5228,
      "ereken": 5229,
      "Ġboat": 5230,
      "ically": 5231,
      "Ġervan": 5232,
      "tern": 5233,
      "ĠTr": 5234,
      "Ġalsjeblieft": 5235,
      "boek": 5236,
      "ĠMart": 5237,
      "Ġeinde": 5238,
      "Ġrunning": 5239,
      "ä¼ĺ": 5240,
      "ĠRep": 5241,
      "æĺ¯ä¸ª": 5242,
      "urk": 5243,
      "åĨľ": 5244,
      "æ¿Ģ": 5245,
      "Ġhol": 5246,
      "Ġnummer": 5247,
      "Ġvraagt": 5248,
      "Ġcommand": 5249,
      "Ġgehoord": 5250,
      "friend": 5251,
      "ices": 5252,
      "æĽ¿": 5253,
      "gend": 5254,
      "æĿĲ": 5255,
      "Ġmist": 5256,
      "indelijk": 5257,
      "Ġdet": 5258,
      "Ġzodat": 5259,
      "äºĴ": 5260,
      "hi": 5261,
      "éªĹ": 5262,
      "ĠSchool": 5263,
      "æĪĳè¯´": 5264,
      "ĠBar": 5265,
      "ola": 5266,
      "Ġtea": 5267,
      "Ġslapen": 5268,
      "Ġorde": 5269,
      "Ġproblemen": 5270,
      "Ġtel": 5271,
      "Ġcou": 5272,
      "ĠEx": 5273,
      "ç§°": 5274,
      "Ġwall": 5275,
      "å®īåħ¨": 5276,
      "åıįæŃ£": 5277,
      "Ġhop": 5278,
      "Ġnorth": 5279,
      "Ġä½łå°±": 5280,
      "Ġtoys": 5281,
      "ĠTHE": 5282,
      "é½": 5283,
      "Ġthinking": 5284,
      "Ġtemper": 5285,
      "Ġmuziek": 5286,
      "komt": 5287,
      "jor": 5288,
      "ç´ł": 5289,
      "Ġliefde": 5290,
      "Ġtried": 5291,
      "Ġdezelfde": 5292,
      "ĠKl": 5293,
      "Ġvergeten": 5294,
      "æĪĳéĥ½": 5295,
      "ĠEurope": 5296,
      "Ġtelefoon": 5297,
      "Ġvle": 5298,
      "çļĦåľ°æĸ¹": 5299,
      "Ġmam": 5300,
      "çĶ·äºº": 5301,
      "çºª": 5302,
      "Ġgrand": 5303,
      "mas": 5304,
      "ĠWar": 5305,
      "å½ĵçĦ¶": 5306,
      "é¸Ł": 5307,
      "Ġrep": 5308,
      "æľµ": 5309,
      "Ġschuld": 5310,
      "Ġcos": 5311,
      "åºŃ": 5312,
      "Ġergens": 5313,
      "Ġä¸ºä»Ģä¹Ī": 5314,
      "Ġsea": 5315,
      "æľīä¸ª": 5316,
      "Ġusually": 5317,
      "Ġsol": 5318,
      "æ¯Ķå¦Ĥ": 5319,
      "Ġgekomen": 5320,
      "èīº": 5321,
      "Ġsta": 5322,
      "èĬĤçĽ®": 5323,
      "cuse": 5324,
      "Ġwood": 5325,
      "æ¯Ĵ": 5326,
      "èĻĳ": 5327,
      "Ġgevangen": 5328,
      "ived": 5329,
      "ior": 5330,
      "Ġnoem": 5331,
      "Ġaand": 5332,
      "Ġvalt": 5333,
      "Ġreason": 5334,
      "Ġstap": 5335,
      "ales": 5336,
      "å§¨": 5337,
      "å¤ļäºĨ": 5338,
      "Ġappro": 5339,
      "åĲ¸": 5340,
      "ĠLord": 5341,
      "ances": 5342,
      "hor": 5343,
      "Verd": 5344,
      "Ġvia": 5345,
      "aalde": 5346,
      "è¿ĩäºĨ": 5347,
      "Ġ50": 5348,
      "unk": 5349,
      "å¼¹": 5350,
      "åłĤ": 5351,
      "Ġlaug": 5352,
      "Ġvolgens": 5353,
      "æĻ¯": 5354,
      "æĺ¯åķĬ": 5355,
      "æİĮ": 5356,
      "çĭĲ": 5357,
      "andy": 5358,
      "isme": 5359,
      "ĠPat": 5360,
      "Ġbezig": 5361,
      "inkt": 5362,
      "dom": 5363,
      "æł·çļĦ": 5364,
      "lease": 5365,
      "Ġstar": 5366,
      "æĪ¿åŃĲ": 5367,
      "ç¾Ĭ": 5368,
      "icken": 5369,
      "ague": 5370,
      "ooh": 5371,
      "Ġenkele": 5372,
      "çĮ´": 5373,
      "åį«": 5374,
      "çĨŁ": 5375,
      "Ġalright": 5376,
      "éĢĢ": 5377,
      "Ġrijk": 5378,
      "æķĪ": 5379,
      "gro": 5380,
      "Ġvi": 5381,
      "Ġmedic": 5382,
      "17": 5383,
      "annen": 5384,
      "Ar": 5385,
      "obert": 5386,
      "Ġins": 5387,
      "å£°éŁ³": 5388,
      "ping": 5389,
      "Ġvoorbij": 5390,
      "Ġliving": 5391,
      "çļĦä¸ľè¥¿": 5392,
      "èº«ä¸Ĭ": 5393,
      "aars": 5394,
      "Ġmeter": 5395,
      "Ġlog": 5396,
      "won": 5397,
      "Ġverkl": 5398,
      "Ġaarde": 5399,
      "genomen": 5400,
      "çº¸": 5401,
      "under": 5402,
      "Ġloopt": 5403,
      "aser": 5404,
      "èĪ¹": 5405,
      "Ġrug": 5406,
      "$$\\": 5407,
      "è¿ĲåĬ¨": 5408,
      "atten": 5409,
      "åĲ¦": 5410,
      "Ġspreken": 5411,
      "éĢĥ": 5412,
      "æīįèĥ½": 5413,
      "bles": 5414,
      "æµĭ": 5415,
      "å§ĵ": 5416,
      "æĪĲä¸º": 5417,
      "ĠHarry": 5418,
      "å®¶çļĦ": 5419,
      "è®©ä»ĸ": 5420,
      "goed": 5421,
      "ĠMarch": 5422,
      "å¦»": 5423,
      "ylalanyl": 5424,
      "Ġè¿ĺæĺ¯": 5425,
      "Ġroe": 5426,
      "éľ²": 5427,
      "å¾ĭ": 5428,
      "ĠBeeld": 5429,
      "Ġwrite": 5430,
      "Ġperhaps": 5431,
      "Ġbeneden": 5432,
      "Ġorigin": 5433,
      "ĠCal": 5434,
      "åĬ¨çī©": 5435,
      "Ġkru": 5436,
      "ä¸īä¸ª": 5437,
      "strijd": 5438,
      "Ġgaf": 5439,
      "èĥľ": 5440,
      "Ġanswered": 5441,
      "Ġdochter": 5442,
      "å®ĥä»¬": 5443,
      "pres": 5444,
      "æŃ»äºĨ": 5445,
      "Ġlived": 5446,
      "åĹ": 5447,
      "Ġfellow": 5448,
      "ĠFrench": 5449,
      "ges": 5450,
      "ĠOf": 5451,
      "Ġschrijven": 5452,
      "å¥¶å¥¶": 5453,
      "Ġ24": 5454,
      "Ġriv": 5455,
      "ç§Ģ": 5456,
      "Ġzes": 5457,
      "Iedereen": 5458,
      "Ġdinner": 5459,
      "Ġcult": 5460,
      "ĠMon": 5461,
      "Ġsport": 5462,
      "Na": 5463,
      "Ġontde": 5464,
      "Ġfly": 5465,
      "åİīå®³": 5466,
      "Ġdollar": 5467,
      "ä¸įå¯¹": 5468,
      "Ġcheck": 5469,
      "Ġåİ»": 5470,
      "Ġnine": 5471,
      "Ġeconom": 5472,
      "Ġbirthday": 5473,
      "uut": 5474,
      "åĨįè§ģ": 5475,
      "Niemand": 5476,
      "æŃ£åľ¨": 5477,
      "ĠStap": 5478,
      "Ġeerder": 5479,
      "Ġweinig": 5480,
      "Ġdevelop": 5481,
      "Ġalbum": 5482,
      "æ¼Ĥäº®": 5483,
      "ility": 5484,
      "pped": 5485,
      "ĠJanuary": 5486,
      "ä¸Ģç§į": 5487,
      "è´¢": 5488,
      "play": 5489,
      "åĪĨä¹ĭ": 5490,
      "ĠPeter": 5491,
      "za": 5492,
      "Ġwaarin": 5493,
      "uhhuh": 5494,
      "Ġmarried": 5495,
      "Ġhoeft": 5496,
      "å¼Ģå¿ĥ": 5497,
      "é¡¶": 5498,
      "Ġdien": 5499,
      "Ġslag": 5500,
      "Ġmass": 5501,
      "ask": 5502,
      "åį±": 5503,
      "åĮ»éĻ¢": 5504,
      "ä½łä¸į": 5505,
      "Ġsomebody": 5506,
      "uzz": 5507,
      "Ġvreem": 5508,
      "Ġzult": 5509,
      "æŁĲ": 5510,
      "ĠæĪĳä¹Ł": 5511,
      "ä½łè¦ģ": 5512,
      "Ġtakes": 5513,
      "ç»´": 5514,
      "Ġreport": 5515,
      "Ġdier": 5516,
      "Ġkept": 5517,
      "oken": 5518,
      "Beg": 5519,
      "ĠMin": 5520,
      "Ġacht": 5521,
      "Ġkijkt": 5522,
      "çĳ": 5523,
      "omst": 5524,
      "æ²¡äºĭ": 5525,
      "éĶĻè¯¯": 5526,
      "ĠNederlandse": 5527,
      "çľģ": 5528,
      "raid": 5529,
      "å½ĵä¸Ń": 5530,
      "Ġseries": 5531,
      "Will": 5532,
      "Ġ+": 5533,
      "ustral": 5534,
      "Ġterwijl": 5535,
      "Gaat": 5536,
      "å¯Į": 5537,
      "Ġexact": 5538,
      "Ġpublic": 5539,
      "oi": 5540,
      "Ġthemselves": 5541,
      "Ġges": 5542,
      "èĸ": 5543,
      "ç»ıæµİ": 5544,
      "Ġproblem": 5545,
      "stead": 5546,
      "Ġloc": 5547,
      "åĢŁ": 5548,
      "æ´ŀ": 5549,
      "Ġtouch": 5550,
      "ĠPer": 5551,
      "Ġpapa": 5552,
      "Ġtrouble": 5553,
      "Ġdaugh": 5554,
      "ST": 5555,
      "ring": 5556,
      "ä½łä¹Ł": 5557,
      "gie": 5558,
      "Ġdoden": 5559,
      "iest": 5560,
      "rokken": 5561,
      "Moet": 5562,
      "cer": 5563,
      "Ġbooks": 5564,
      "14": 5565,
      "Ġervoor": 5566,
      "Ġphone": 5567,
      "Ġvanaf": 5568,
      "ĠVol": 5569,
      "oorten": 5570,
      "ds": 5571,
      "Ġcomputer": 5572,
      "æł·åŃĲ": 5573,
      "ä»ĭ": 5574,
      "ä½ľä¸º": 5575,
      "Ġ/": 5576,
      "åįĪ": 5577,
      "Ġdrinken": 5578,
      "Ġdoel": 5579,
      "ĠDav": 5580,
      "éĩĩ": 5581,
      "Ġgeval": 5582,
      "éŀ": 5583,
      "ued": 5584,
      "Or": 5585,
      "Ġkil": 5586,
      "SI": 5587,
      "produ": 5588,
      "Ġli": 5589,
      "iment": 5590,
      "äºĮéĽ¶": 5591,
      "æĹ¢çĦ¶": 5592,
      "ĠBra": 5593,
      "emy": 5594,
      "ĠJoe": 5595,
      "Ġpartij": 5596,
      "å¥Ĺ": 5597,
      "çĪ¶äº²": 5598,
      "schijnlijk": 5599,
      "Ġongel": 5600,
      "ener": 5601,
      "è¿ĩç¨ĭ": 5602,
      "ĠSe": 5603,
      "Ġcross": 5604,
      "Ġent": 5605,
      "ç´¢": 5606,
      "Ġbroer": 5607,
      "rey": 5608,
      "Aan": 5609,
      "Ġåģ": 5610,
      "å½©": 5611,
      "Ġsoft": 5612,
      "Ġ*": 5613,
      "ĠDec": 5614,
      "ä¹¡": 5615,
      "åĲ´": 5616,
      "ä¸ĢåĿĹ": 5617,
      "Ġhours": 5618,
      "Ġpracht": 5619,
      "Ġkent": 5620,
      "rum": 5621,
      "Ġtoy": 5622,
      "ĠJune": 5623,
      "Ġtit": 5624,
      "ĠOct": 5625,
      "Ġfield": 5626,
      "Ġfinished": 5627,
      "ĠWas": 5628,
      "elk": 5629,
      "æĺ¯ä½ł": 5630,
      "iÃ«n": 5631,
      "Ġregion": 5632,
      "Ġsitting": 5633,
      "Ġmaakte": 5634,
      "Ġvermoord": 5635,
      "ondon": 5636,
      "Ġdank": 5637,
      "èº«è¾¹": 5638,
      "Ġport": 5639,
      "owers": 5640,
      "ror": 5641,
      "ĠAlex": 5642,
      "åº·": 5643,
      "Ġgeworden": 5644,
      "Heeft": 5645,
      "Ġdifficult": 5646,
      "olle": 5647,
      "Meer": 5648,
      "ä¸ģ": 5649,
      "åĪļåĪļ": 5650,
      "Ġzwart": 5651,
      "Erm": 5652,
      "though": 5653,
      "æŀ¶": 5654,
      "Ġgebouw": 5655,
      "åĲ¬è¯´": 5656,
      "Ġbetalen": 5657,
      "AL": 5658,
      "oger": 5659,
      "rem": 5660,
      "Ġquiet": 5661,
      "Ġnational": 5662,
      "åıªè¦ģ": 5663,
      "bab": 5664,
      "ç»¿": 5665,
      "oom": 5666,
      "ç²ī": 5667,
      "Ġwink": 5668,
      "oer": 5669,
      "ç»Īäºİ": 5670,
      "Ġchance": 5671,
      "IJ": 5672,
      "ality": 5673,
      "Ġfift": 5674,
      "åį³": 5675,
      "kk": 5676,
      "ĠII": 5677,
      "Ġrij": 5678,
      "ctie": 5679,
      "ĠåıĪ": 5680,
      "æĸ¹å¼ı": 5681,
      "Ġstoppen": 5682,
      "Ġtomorrow": 5683,
      "ĠDoor": 5684,
      "ĠEngland": 5685,
      "æĺ¨å¤©": 5686,
      "æĺ¯åľ¨": 5687,
      "Ġkwamen": 5688,
      "åħ¶ä»ĸ": 5689,
      "Ġevent": 5690,
      "ĠæĪĳçļĦ": 5691,
      "Ġclim": 5692,
      "Heel": 5693,
      "åħ³æ³¨": 5694,
      "ä»ĺ": 5695,
      "berg": 5696,
      "igheid": 5697,
      "Ġx": 5698,
      "èĨ": 5699,
      "Ġstat": 5700,
      "ä¼´": 5701,
      "çİĩ": 5702,
      "16": 5703,
      "Ġproper": 5704,
      "ç¥¨": 5705,
      "çĪ¶æ¯į": 5706,
      "è¿ĺæ²¡": 5707,
      "å¤ı": 5708,
      "erence": 5709,
      "wijs": 5710,
      "Ġsurpr": 5711,
      "ç§ĺ": 5712,
      "Ġshot": 5713,
      "åıªèĥ½": 5714,
      "Ġir": 5715,
      "ä¸Ŀ": 5716,
      "æľīæ²¡æľī": 5717,
      "Ġgebied": 5718,
      "çĽĳ": 5719,
      "ĠOne": 5720,
      "åĲĮåŃ¦": 5721,
      "aire": 5722,
      "Ġanderen": 5723,
      "issen": 5724,
      "ĠæĪĳçŁ¥éģĵ": 5725,
      "Ã¡": 5726,
      "ãĢĭ": 5727,
      "ãĢĬ": 5728,
      "æĹ¥åŃĲ": 5729,
      "Ġwonen": 5730,
      "ogen": 5731,
      "ĠSouth": 5732,
      "Ġsingle": 5733,
      "æīĢæľīçļĦ": 5734,
      "arch": 5735,
      "13": 5736,
      "ijl": 5737,
      "Ġspeci": 5738,
      "çĥ§": 5739,
      "åĪ¤": 5740,
      "aker": 5741,
      "ample": 5742,
      "Ġet": 5743,
      "æĿ¥æĿ¥": 5744,
      "Ġbegon": 5745,
      "Ġlives": 5746,
      "ĠAustral": 5747,
      "ube": 5748,
      "Ġafraid": 5749,
      "æģĭ": 5750,
      "è´Ŀ": 5751,
      "Ġgebeuren": 5752,
      "uze": 5753,
      "ç§ĭ": 5754,
      "ining": 5755,
      "ĠAugust": 5756,
      "Ġwithin": 5757,
      "aves": 5758,
      "åŃ¦ä¹ł": 5759,
      "å¤§åĵ¥": 5760,
      "Ġsuppose": 5761,
      "Ġverdw": 5762,
      "ĠBlack": 5763,
      "Ġschoon": 5764,
      "Ġverteld": 5765,
      "åĲĵ": 5766,
      "umb": 5767,
      "Ġcannot": 5768,
      "Ġhowever": 5769,
      "ĠIr": 5770,
      "oph": 5771,
      "åĹ¯åĹ¯": 5772,
      "Ġrain": 5773,
      "ĠAnt": 5774,
      "Ġclos": 5775,
      "Ġè¯·": 5776,
      "Ġwindow": 5777,
      "leven": 5778,
      "Ġsterven": 5779,
      "Ġmaat": 5780,
      "isc": 5781,
      "ç¿»": 5782,
      "æ³¢": 5783,
      "æĭľæĭľ": 5784,
      "Ġnose": 5785,
      "å±Ĥ": 5786,
      "iging": 5787,
      "amera": 5788,
      "gem": 5789,
      "Ġwhether": 5790,
      "ĠMag": 5791,
      "Ġclear": 5792,
      "dra": 5793,
      "Ġegg": 5794,
      "Ġontwikk": 5795,
      "å®ĮäºĨ": 5796,
      "icro": 5797,
      "ĠGl": 5798,
      "Ġneemt": 5799,
      "éĤ£åĦ¿": 5800,
      "oenen": 5801,
      "Ġgarden": 5802,
      "ĠCity": 5803,
      "Ġmoved": 5804,
      "èĭ¥": 5805,
      "æ¶Īæģ¯": 5806,
      "è¿·": 5807,
      "ĠNot": 5808,
      "ĠLondon": 5809,
      "Ġfa": 5810,
      "entle": 5811,
      "ĠEm": 5812,
      "gev": 5813,
      "åį¡": 5814,
      "åºĬ": 5815,
      "weer": 5816,
      "æķ£": 5817,
      "çŁŃ": 5818,
      "Ġantwoorden": 5819,
      "Ġwild": 5820,
      "çĸ¼": 5821,
      "æĮĳ": 5822,
      "Ġattack": 5823,
      "åĬª": 5824,
      "Ġdoctor": 5825,
      "æĭħå¿ĥ": 5826,
      "makes": 5827,
      "Ġå¤§å®¶": 5828,
      "Ġfix": 5829,
      "Ġner": 5830,
      "æĸĹ": 5831,
      "want": 5832,
      "Ġlift": 5833,
      "å¹´è½»": 5834,
      "Ġletters": 5835,
      "å®Įåħ¨": 5836,
      "Ġcatch": 5837,
      "Ġrot": 5838,
      "Ġsnap": 5839,
      "ĠMary": 5840,
      "Ġtrouw": 5841,
      "Ġsinds": 5842,
      "Ġleger": 5843,
      "ĠéĤ£æĪĳ": 5844,
      "ograph": 5845,
      "Ġvor": 5846,
      "èĢ³": 5847,
      "æ²Ļ": 5848,
      "æķĮ": 5849,
      "Ġbru": 5850,
      "çĶļ": 5851,
      "Ġmonths": 5852,
      "ael": 5853,
      "Ġcool": 5854,
      "å¯¹å¯¹": 5855,
      "El": 5856,
      "Ġest": 5857,
      "ex": 5858,
      "Ġoog": 5859,
      "Ġvie": 5860,
      "ĠSw": 5861,
      "sing": 5862,
      "å¹²åĲĹ": 5863,
      "schapp": 5864,
      "äº«": 5865,
      "press": 5866,
      "Ġactiv": 5867,
      "asure": 5868,
      "ĠEll": 5869,
      "è¯Ħ": 5870,
      "ĠNorth": 5871,
      "æĬĬæĪĳ": 5872,
      "åĽłæŃ¤": 5873,
      "æ¬¾": 5874,
      "Ġvoordat": 5875,
      "æĭ¬": 5876,
      "Ġya": 5877,
      "Ġstil": 5878,
      "Ġgovernment": 5879,
      "Please": 5880,
      "Ġlach": 5881,
      "Ġå¦Ī": 5882,
      "Ġpossible": 5883,
      "åįĩ": 5884,
      "Ġä¸Ģä¸ª": 5885,
      "Ġequ": 5886,
      "Ġmaanden": 5887,
      "Help": 5888,
      "åľĪ": 5889,
      "Ġcow": 5890,
      "ays": 5891,
      "å¤§äºº": 5892,
      "ĠGra": 5893,
      "fer": 5894,
      "Ġzeer": 5895,
      "Ġafg": 5896,
      "Ġtrad": 5897,
      "è±Ĩ": 5898,
      "Because": 5899,
      "ä½łäºĨ": 5900,
      "Ġhar": 5901,
      "ĠDecember": 5902,
      "kn": 5903,
      "Ġeraan": 5904,
      "Ġä½łè¦ģ": 5905,
      "æĥ³è¦ģ": 5906,
      "åħħ": 5907,
      "ç§¯": 5908,
      "åĸĦ": 5909,
      "Ġtype": 5910,
      "ĠGu": 5911,
      "è¿Ļä¹Īå¤ļ": 5912,
      "hello": 5913,
      "Ġvergelijk": 5914,
      "thern": 5915,
      "Ġkennen": 5916,
      "eding": 5917,
      "Ġzorg": 5918,
      "Ġkonden": 5919,
      "Ġliet": 5920,
      "èĢģæĿ¿": 5921,
      "onde": 5922,
      "ĠLaur": 5923,
      "åĪº": 5924,
      "âĢ": 5925,
      "Ġabove": 5926,
      "Ġvliegt": 5927,
      "Ġheer": 5928,
      "alright": 5929,
      "Ġfit": 5930,
      "kening": 5931,
      "Ġä¸Ĭ": 5932,
      "å°ģ": 5933,
      "Ġvoort": 5934,
      "ä¼¯": 5935,
      "vin": 5936,
      "Alleen": 5937,
      "Ġlijn": 5938,
      "ä¸Ģåıª": 5939,
      "æ´ĭ": 5940,
      "Ġdad": 5941,
      "ä¸´": 5942,
      "Ġpraat": 5943,
      "Ġhur": 5944,
      "çļĦéĤ£": 5945,
      "ä½łè¿Ļ": 5946,
      "Ġrespect": 5947,
      "aven": 5948,
      "Ġnamed": 5949,
      "è¾Ľ": 5950,
      "Ġhung": 5951,
      "æĦŁæĥħ": 5952,
      "repen": 5953,
      "Ġkopen": 5954,
      "Ġren": 5955,
      "Gew": 5956,
      "maken": 5957,
      "ĠMil": 5958,
      "Ġdam": 5959,
      "ĠÃ": 5960,
      "äºļ": 5961,
      "è¿ĺä¸į": 5962,
      "åģ¥": 5963,
      "ĠNove": 5964,
      "Ġsex": 5965,
      "Ġhus": 5966,
      "ĠNovember": 5967,
      "ĠåĮ": 5968,
      "bert": 5969,
      "ĠCHI": 5970,
      "raagd": 5971,
      "å°±æĺ¯è¯´": 5972,
      "ç¬Ķ": 5973,
      "Ġstood": 5974,
      "vorm": 5975,
      "Ġdaughter": 5976,
      "æĹģ": 5977,
      "Ġworked": 5978,
      "èĥ½ä¸įèĥ½": 5979,
      "å®ĭ": 5980,
      "stellen": 5981,
      "Ġopg": 5982,
      "Ġcirc": 5983,
      "lingen": 5984,
      "point": 5985,
      "eptember": 5986,
      "Ġmember": 5987,
      "itter": 5988,
      "è¶ĬæĿ¥": 5989,
      "åŃ¦çĶŁ": 5990,
      "ories": 5991,
      "åĪĢ": 5992,
      "ukt": 5993,
      "ills": 5994,
      "ç»ĩ": 5995,
      "Ġwest": 5996,
      "ĠSm": 5997,
      "çĻ¾åĪĨä¹ĭ": 5998,
      "Ġruimte": 5999,
      "è®¨": 6000,
      "pel": 6001,
      "stairs": 6002,
      "Ġknows": 6003,
      "ä¿ĿæĬ¤": 6004,
      "èŀ": 6005,
      "Ġpriv": 6006,
      "Ġlovely": 6007,
      "Ġgep": 6008,
      "Ġwaarde": 6009,
      "ength": 6010,
      "gegeven": 6011,
      "Ġclothes": 6012,
      "åģļçļĦ": 6013,
      "Ġfear": 6014,
      "ĠSu": 6015,
      "Ġmaand": 6016,
      "ĠVeren": 6017,
      "Some": 6018,
      "ection": 6019,
      "Ġlange": 6020,
      "Ġbegrijp": 6021,
      "LA": 6022,
      "Ġdaarom": 6023,
      "ĠPres": 6024,
      "åŃ¦æł¡": 6025,
      "ebru": 6026,
      "Ġlunch": 6027,
      "ĠSun": 6028,
      "dern": 6029,
      "è¶ĬæĿ¥è¶Ĭ": 6030,
      "dden": 6031,
      "lijn": 6032,
      "æĪĳåľ¨": 6033,
      "MCH": 6034,
      "Ġain": 6035,
      "æĸĩåĮĸ": 6036,
      "æ£Ģ": 6037,
      "ĠPart": 6038,
      "eller": 6039,
      "ä»Ļ": 6040,
      "oose": 6041,
      "ĠTer": 6042,
      "ĠOctober": 6043,
      "ä¸Ģä¼ļåĦ¿": 6044,
      "æĿ¯": 6045,
      "ĠæĪĳè¯´": 6046,
      "rift": 6047,
      "éĥ¨åĪĨ": 6048,
      "Ġpain": 6049,
      "dan": 6050,
      "Ġforward": 6051,
      "kant": 6052,
      "é¦Ĩ": 6053,
      "uigen": 6054,
      "éĥ½ä¼ļ": 6055,
      "Wanneer": 6056,
      "Ġpig": 6057,
      "Ġshoes": 6058,
      "Ġzak": 6059,
      "recht": 6060,
      "Ġformule": 6061,
      "sta": 6062,
      "ĠGeorge": 6063,
      "Ġkoff": 6064,
      "è´§": 6065,
      "Ġhuman": 6066,
      "rop": 6067,
      "åĴĭ": 6068,
      "éĩĬ": 6069,
      "Ġåº": 6070,
      "Ġboom": 6071,
      "view": 6072,
      "Ġverr": 6073,
      "ç§ģ": 6074,
      "Ġgang": 6075,
      "Ġschip": 6076,
      "¤Ĳ": 6077,
      "ľçļĦ": 6078,
      "Ġjuiste": 6079,
      "Ġvillage": 6080,
      "å´": 6081,
      "aa": 6082,
      "Ġbath": 6083,
      "Ġpassed": 6084,
      "Ġbab": 6085,
      "Ġsnow": 6086,
      "åįļ": 6087,
      "Ġesc": 6088,
      "éĻį": 6089,
      "Ġgingen": 6090,
      "Ġherself": 6091,
      "Ġkiss": 6092,
      "Every": 6093,
      "ä¹Łæ²¡æľī": 6094,
      "ä¾Ľ": 6095,
      "è´¥": 6096,
      "ĠLeg": 6097,
      "Ġcommon": 6098,
      "ä¸Ģå®ļä¼ļ": 6099,
      "ĠBritish": 6100,
      "Ġyours": 6101,
      "zonder": 6102,
      "ĠLees": 6103,
      "ision": 6104,
      "Ġafbeelding": 6105,
      "åľ°è¯´": 6106,
      "astic": 6107,
      "which": 6108,
      "Ġbuurt": 6109,
      "ublieft": 6110,
      "ç¢°": 6111,
      "æĿ¥åĪ°": 6112,
      "bers": 6113,
      "ekijk": 6114,
      "Ġvlucht": 6115,
      "ĠMy": 6116,
      "Ġcried": 6117,
      "æĪĳçľĭ": 6118,
      "ĠUniversity": 6119,
      "Ġcorn": 6120,
      "Ġelek": 6121,
      "ebruary": 6122,
      "åĬªåĬĽ": 6123,
      "æ¸¸æĪı": 6124,
      "Sn": 6125,
      "Ġmater": 6126,
      "æĪĳåİ»": 6127,
      "èĿ": 6128,
      "Ġlist": 6129,
      "Ġlots": 6130,
      "é½Ĳ": 6131,
      "ĠYeah": 6132,
      "Ġeasy": 6133,
      "gly": 6134,
      "Ġexamen": 6135,
      "stublieft": 6136,
      "Ġsudden": 6137,
      "Ġdest": 6138,
      "ĠGeef": 6139,
      "Ġspreek": 6140,
      "Ġgevol": 6141,
      "è¡¥": 6142,
      "eltje": 6143,
      "éģį": 6144,
      "cel": 6145,
      "ĠAfter": 6146,
      "è¿ĺè¦ģ": 6147,
      "Ġsand": 6148,
      "ases": 6149,
      "è¢ĭ": 6150,
      "OM": 6151,
      "ä¸¢": 6152,
      "Ġlonger": 6153,
      "Ġontmoet": 6154,
      "æħ¢æħ¢": 6155,
      "iod": 6156,
      "Ġkor": 6157,
      "ĠApril": 6158,
      "nemen": 6159,
      "è¯į": 6160,
      "Ġrode": 6161,
      "ocol": 6162,
      "Ġfort": 6163,
      "åĸĬ": 6164,
      "ĠFran": 6165,
      "iny": 6166,
      "Ġsterk": 6167,
      "Alsjeblieft": 6168,
      "hold": 6169,
      "æģĲ": 6170,
      "Ġvoedsel": 6171,
      "oning": 6172,
      "your": 6173,
      "onk": 6174,
      "Ġå§": 6175,
      "kenen": 6176,
      "æĬĺ": 6177,
      "åĲµ": 6178,
      "ä½łçŁ¥éģĵ": 6179,
      "èī²çļĦ": 6180,
      "hoog": 6181,
      "Ġluck": 6182,
      "éĥ½åľ¨": 6183,
      "Ġcoun": 6184,
      "Ġsuggest": 6185,
      "ĠNe": 6186,
      "è¿Ľåİ»": 6187,
      "ä¸įæĥ³": 6188,
      "Ġhors": 6189,
      "Ġkids": 6190,
      "Ġtoek": 6191,
      "Ġreis": 6192,
      "Ġcop": 6193,
      "Ġdress": 6194,
      "ered": 6195,
      "UN": 6196,
      "Ġmakkelijk": 6197,
      "Gr": 6198,
      "nam": 6199,
      "wegen": 6200,
      "è§£æŀĲ": 6201,
      "Ġweken": 6202,
      "Ġreleased": 6203,
      "Ġsuff": 6204,
      "çľŁçļĦæĺ¯": 6205,
      "Ġblijf": 6206,
      "Ġ21": 6207,
      "ĠCounty": 6208,
      "ĠGel": 6209,
      "æķ´ä¸ª": 6210,
      "åĲįåŃĹ": 6211,
      "éŃĶ": 6212,
      "Ġpolice": 6213,
      "Bel": 6214,
      "Ġtechn": 6215,
      "ĠRob": 6216,
      "ç»ıå¸¸": 6217,
      "Ġhusband": 6218,
      "è¿Ļä»¶": 6219,
      "Ġwaardoor": 6220,
      "çĭ¸": 6221,
      "é¤Ĳ": 6222,
      "åıĺæĪĲ": 6223,
      "Pl": 6224,
      "æİ¢": 6225,
      "æ³¨æĦı": 6226,
      "Ġverwacht": 6227,
      "geet": 6228,
      "will": 6229,
      "Ġijs": 6230,
      "iedenis": 6231,
      "Ġlow": 6232,
      "Hello": 6233,
      "Ġdream": 6234,
      "å¼ĥ": 6235,
      "Ġ192": 6236,
      "Ġcontrol": 6237,
      "æ¹ĸ": 6238,
      "Ġdig": 6239,
      "Ġvent": 6240,
      "ä»ĸä»¬çļĦ": 6241,
      "dien": 6242,
      "Ġthird": 6243,
      "eeg": 6244,
      "éĥ½æ²¡": 6245,
      "åĩłå¤©": 6246,
      "Ġbroken": 6247,
      "ĠCaptain": 6248,
      "Ġnad": 6249,
      "Ġpract": 6250,
      "æŀĦ": 6251,
      "Ġerop": 6252,
      "å¾ĹåĪ°": 6253,
      "ĠRepubl": 6254,
      "æµª": 6255,
      "Ġstof": 6256,
      "ikken": 6257,
      "åħ°": 6258,
      "è®Ń": 6259,
      "Ġmilit": 6260,
      "uist": 6261,
      "zin": 6262,
      "Ġkost": 6263,
      "åĨ°": 6264,
      "Ġnaast": 6265,
      "Ġexample": 6266,
      "æģ©": 6267,
      "ä¸»è¦ģ": 6268,
      "Ġkleur": 6269,
      "Ġmm": 6270,
      "Ġspl": 6271,
      "Ġtrein": 6272,
      "ĠPol": 6273,
      "Ġfant": 6274,
      "Ġseems": 6275,
      "genoot": 6276,
      "Zoals": 6277,
      "æľīäºĽ": 6278,
      "éĺµ": 6279,
      "ä½łæĢİä¹Ī": 6280,
      "Ġwear": 6281,
      "ustig": 6282,
      "Ġè¿Ļæł·": 6283,
      "Ġneeds": 6284,
      "å¸¦çĿĢ": 6285,
      "æ£®": 6286,
      "Ġredden": 6287,
      "Ġsick": 6288,
      "gelopen": 6289,
      "çľŁæŃ£": 6290,
      "çĲĨè§£": 6291,
      "æ¬¢è¿İ": 6292,
      "Bereken": 6293,
      "ĠZijn": 6294,
      "Ġvoelt": 6295,
      "Ġdaddy": 6296,
      "Ġvechten": 6297,
      "Ġ22": 6298,
      "ĠåĪ°": 6299,
      "Ġtrek": 6300,
      "lean": 6301,
      "èĮ¶": 6302,
      "æĬ¢": 6303,
      "bouw": 6304,
      "IE": 6305,
      "ĠIN": 6306,
      "é¢Ħ": 6307,
      "æĻ®": 6308,
      "uel": 6309,
      "çŃĶåºĶ": 6310,
      "ology": 6311,
      "ĠMen": 6312,
      "Ġgast": 6313,
      "Ġorganis": 6314,
      "Have": 6315,
      "antie": 6316,
      "Ġreger": 6317,
      "ĠOnder": 6318,
      "fast": 6319,
      "este": 6320,
      "æĻº": 6321,
      "ĠWil": 6322,
      "Door": 6323,
      "èĪĴ": 6324,
      "zus": 6325,
      "çĩ": 6326,
      "Ġontstaan": 6327,
      "druk": 6328,
      "åĽŀæĿ¥äºĨ": 6329,
      "Ġvuur": 6330,
      "ĠAan": 6331,
      "Ġwinter": 6332,
      "with": 6333,
      "Ġsight": 6334,
      "æ¦Ĥ": 6335,
      "èĥ½åĬĽ": 6336,
      "ĠAmerikaanse": 6337,
      "iety": 6338,
      "vangen": 6339,
      "ĠåĽŀ": 6340,
      "Ġblock": 6341,
      "Ġenorm": 6342,
      "IC": 6343,
      "Ġbaas": 6344,
      "èĩ£": 6345,
      "kijk": 6346,
      "ĠBer": 6347,
      "ĠæĪĳè¦ģ": 6348,
      "Ġåĸ": 6349,
      "éĻĨ": 6350,
      "Ġè¿Ļä¹Ī": 6351,
      "Ġcouple": 6352,
      "åħ¬ä¸»": 6353,
      "ette": 6354,
      "åĵ¥åĵ¥": 6355,
      "Ġmiddel": 6356,
      "çłĶç©¶": 6357,
      "Ġeating": 6358,
      "Ġsupport": 6359,
      "Ġhell": 6360,
      "çĥŁ": 6361,
      "Ġdiscover": 6362,
      "Ġrijden": 6363,
      "ĠLet": 6364,
      "å¦Ĥä½ķ": 6365,
      "ipe": 6366,
      "Ġslow": 6367,
      "Ġprobeer": 6368,
      "ĠJuly": 6369,
      "gar": 6370,
      "çĭĲçĭ¸": 6371,
      "Ġfijn": 6372,
      "åħį": 6373,
      "å½Ĵ": 6374,
      "lymp": 6375,
      "itty": 6376,
      "Ġarri": 6377,
      "éª¨": 6378,
      "',": 6379,
      "Ġdelen": 6380,
      "Ġèµ°": 6381,
      "Ġgister": 6382,
      "ĠSeptember": 6383,
      "æĹħ": 6384,
      "Ġhuid": 6385,
      "Ġgeboren": 6386,
      "èĮĥ": 6387,
      "ĠLa": 6388,
      "å½ķ": 6389,
      "Vertel": 6390,
      "ozen": 6391,
      "Ġbos": 6392,
      "Ġcontact": 6393,
      "Ġtonight": 6394,
      "Ġvolk": 6395,
      "Ġbow": 6396,
      "Ġdeep": 6397,
      "toe": 6398,
      "Ġsounds": 6399,
      "imin": 6400,
      "wood": 6401,
      "Ġwaiting": 6402,
      "Ġwakker": 6403,
      "çļĦäºĭåĦ¿": 6404,
      "Ġhaal": 6405,
      "eh": 6406,
      "aling": 6407,
      "ĠFebruary": 6408,
      "Ġspeelt": 6409,
      "espe": 6410,
      "Dag": 6411,
      "æĸ°éĹ»": 6412,
      "çĶļèĩ³": 6413,
      "Ġ40": 6414,
      "Dr": 6415,
      "Gel": 6416,
      "ä¸įä½ı": 6417,
      "éĥ½æľī": 6418,
      "Ġsail": 6419,
      "æĬĢæľ¯": 6420,
      "ya": 6421,
      "Ġomge": 6422,
      "Ġgevoel": 6423,
      "ĠRobert": 6424,
      "é¡¿": 6425,
      "phen": 6426,
      "Ġthr": 6427,
      "Ġarms": 6428,
      "Ġmid": 6429,
      "Ġlid": 6430,
      "è¦ģæ±Ĥ": 6431,
      "è·ŁçĿĢ": 6432,
      "eddy": 6433,
      "Ġann": 6434,
      "ening": 6435,
      "Ġtreat": 6436,
      "Ġshut": 6437,
      "apa": 6438,
      "Ġgentle": 6439,
      "Ġdok": 6440,
      "åĲĮæĹ¶": 6441,
      "night": 6442,
      "Ġboard": 6443,
      "Ġfeeling": 6444,
      "onen": 6445,
      "ature": 6446,
      "Ġschree": 6447,
      "Ġstraight": 6448,
      "Ġspir": 6449,
      "Ġsal": 6450,
      "Ġlied": 6451,
      "Ġrelig": 6452,
      "Ġtired": 6453,
      "esterd": 6454,
      "æĸ½": 6455,
      "ĠHen": 6456,
      "Ġopnieuw": 6457,
      "å¾Īå¥½": 6458,
      "ĠPort": 6459,
      "ules": 6460,
      "Ġdepartment": 6461,
      "æĪĳè¿Ļ": 6462,
      "Ġzwaar": 6463,
      "Ġplaces": 6464,
      "çļĦéĤ£ä¸ª": 6465,
      "Ġjuice": 6466,
      "itein": 6467,
      "æĻĵ": 6468,
      "dr": 6469,
      "alle": 6470,
      "Ġpoints": 6471,
      "Ġå¤ª": 6472,
      "Ġmemb": 6473,
      "Ġforget": 6474,
      "uwen": 6475,
      "Ġtelevision": 6476,
      "ĠMad": 6477,
      "Ġfrog": 6478,
      "ichael": 6479,
      "30": 6480,
      "éĿ©": 6481,
      "Ġcost": 6482,
      "Ġboot": 6483,
      "ĠMark": 6484,
      "Ġschrij": 6485,
      "çīĮ": 6486,
      "Ġsuccess": 6487,
      "ira": 6488,
      "åĬ²": 6489,
      "Ġgelukkig": 6490,
      "ç¼º": 6491,
      "æľ¬æĿ¥": 6492,
      "reng": 6493,
      "å°±è¦ģ": 6494,
      "dam": 6495,
      "Ġdanger": 6496,
      "regen": 6497,
      "çģ°": 6498,
      "åį°": 6499,
      "æĸ°çļĦ": 6500,
      "Ġriver": 6501,
      "Ġmillion": 6502,
      "gang": 6503,
      "æĪĲåĬŁ": 6504,
      "Ġker": 6505,
      "ising": 6506,
      "Ġshoot": 6507,
      "Ġcaught": 6508,
      "agina": 6509,
      "éĤ£è¾¹": 6510,
      "ç³ĸ": 6511,
      "Ġputting": 6512,
      "arg": 6513,
      "Ġeil": 6514,
      "bor": 6515,
      "cing": 6516,
      "è¯Ĺ": 6517,
      "Ġkwijt": 6518,
      "ĠCent": 6519,
      "ĠCol": 6520,
      "èĵĿ": 6521,
      "work": 6522,
      "Ġobs": 6523,
      "æł¹æį®": 6524,
      "Ġä½łçļĦ": 6525,
      "rible": 6526,
      "cks": 6527,
      "èĥĸ": 6528,
      "Ġheavy": 6529,
      "thre": 6530,
      "å®ŀåľ¨": 6531,
      "Ġfollowing": 6532,
      "enny": 6533,
      "Ġadm": 6534,
      "ts": 6535,
      "Ġgevraagd": 6536,
      "åĲ¬åĪ°": 6537,
      "attle": 6538,
      "See": 6539,
      "åĨ¬": 6540,
      "ä¸ĭçļĦ": 6541,
      "ç®Ģåįķ": 6542,
      "esterday": 6543,
      "èĦ±": 6544,
      "Ġveranderen": 6545,
      "Per": 6546,
      "å·¦": 6547,
      "Ġled": 6548,
      "åľĨ": 6549,
      "Ġmeestal": 6550,
      "Ġplane": 6551,
      "æļĹ": 6552,
      "Ġbellen": 6553,
      "æĺ¯è°ģ": 6554,
      "ç¨³": 6555,
      "xim": 6556,
      "Ġprison": 6557,
      "ogn": 6558,
      "Ġcamera": 6559,
      "Ġdik": 6560,
      "å°Ħ": 6561,
      "Ġevening": 6562,
      "ĠIndian": 6563,
      "Ġposition": 6564,
      "Ġsett": 6565,
      "åķĬä½ł": 6566,
      "MAR": 6567,
      "ella": 6568,
      "Ġbete": 6569,
      "11": 6570,
      "Ġcry": 6571,
      "Ġfarm": 6572,
      "Ġanyway": 6573,
      "beer": 6574,
      "Ġvisit": 6575,
      "ume": 6576,
      "Ġbroke": 6577,
      "Ġenergie": 6578,
      "Her": 6579,
      "Ġpassen": 6580,
      "åľ¨æĪĳ": 6581,
      "ĠGrand": 6582,
      "çħ§é¡¾": 6583,
      "Ġreactie": 6584,
      "è§£åĨ³": 6585,
      "Ġæĺ¯ä¸įæĺ¯": 6586,
      "Ġmur": 6587,
      "Ġbaan": 6588,
      "oft": 6589,
      "åŃĲéĩĮ": 6590,
      "Ġmeisjes": 6591,
      "çĺ": 6592,
      "å¿į": 6593,
      "oppen": 6594,
      "åĽ°": 6595,
      "Ġduur": 6596,
      "Ġnamelijk": 6597,
      "ĠEuropa": 6598,
      "ĠæľĢ": 6599,
      "æĶ¹åıĺ": 6600,
      "blad": 6601,
      "ĠMOT": 6602,
      "Ġoveral": 6603,
      "Ġmeester": 6604,
      "Ġnamen": 6605,
      "llustr": 6606,
      "Ġpan": 6607,
      "Naar": 6608,
      "çĶŁæ°Ķ": 6609,
      "inter": 6610,
      "Ġkast": 6611,
      "æī¹": 6612,
      "æĽ¾ç»ı": 6613,
      "Ġmidden": 6614,
      "ĠWilliam": 6615,
      "çİ¯å¢ĥ": 6616,
      "ket": 6617,
      "åķĬæĪĳ": 6618,
      "ebruik": 6619,
      "åĳĹ": 6620,
      "ingers": 6621,
      "Ġeh": 6622,
      "å¹¸ç¦ı": 6623,
      "ä½Ļ": 6624,
      "lands": 6625,
      "Ġcal": 6626,
      "Ġrequ": 6627,
      "naam": 6628,
      "æ¢ħ": 6629,
      "ĠChristmas": 6630,
      "é¢ĳ": 6631,
      "Ġboos": 6632,
      "Want": 6633,
      "Ġtrees": 6634,
      "ĠDuitsland": 6635,
      "ä¼ĳæģ¯": 6636,
      "ospital": 6637,
      "din": 6638,
      "afel": 6639,
      "Ġmevrouw": 6640,
      "ĠDE": 6641,
      "Ġeet": 6642,
      "aste": 6643,
      "Ġhotel": 6644,
      "Ġricht": 6645,
      "Ġknock": 6646,
      "æ°¸è¿ľ": 6647,
      "With": 6648,
      "å°ıå¿ĥ": 6649,
      "éĻ¤äºĨ": 6650,
      "Ġcarry": 6651,
      "vloed": 6652,
      "å³": 6653,
      "Ġmembers": 6654,
      "Ġwinnen": 6655,
      "èĢĥèĻĳ": 6656,
      "åİ»æī¾": 6657,
      "çīĻ": 6658,
      "æĳĨ": 6659,
      "ĠPe": 6660,
      "John": 6661,
      "Ġreached": 6662,
      "Ġnor": 6663,
      "Ġformer": 6664,
      "osaur": 6665,
      "Ġeye": 6666,
      "åĩı": 6667,
      "çĪ·çĪ·": 6668,
      "Ġlanguage": 6669,
      "Ġquickly": 6670,
      "Ġzus": 6671,
      "ĠæĪĳçİ°åľ¨": 6672,
      "uken": 6673,
      "Ġmachine": 6674,
      "Ġ#": 6675,
      "ĠSome": 6676,
      "Ġworks": 6677,
      "Ġforgot": 6678,
      "Ġminister": 6679,
      "empt": 6680,
      "Ġslim": 6681,
      "Ġmeth": 6682,
      "è¡Ĺ": 6683,
      "è¶£": 6684,
      "otte": 6685,
      "æĳĩ": 6686,
      "Ġkort": 6687,
      "Ġwaarheid": 6688,
      "å§Ĳå§Ĳ": 6689,
      "èģª": 6690,
      "çļĩä¸Ĭ": 6691,
      "Ġbreat": 6692,
      "å®Ĺ": 6693,
      "aalt": 6694,
      "Ġsouth": 6695,
      "ersch": 6696,
      "Ġreplied": 6697,
      "Even": 6698,
      "å¼Ĥ": 6699,
      "å¯¹æĪĳ": 6700,
      "ä»»åĬ¡": 6701,
      "edia": 6702,
      "Ġshout": 6703,
      "laag": 6704,
      "Ġabsol": 6705,
      "Ġking": 6706,
      "eech": 6707,
      "å¸Ĥåľº": 6708,
      "Ġnearly": 6709,
      "Ġstorm": 6710,
      "ĠMommy": 6711,
      "å¥³åŃ©": 6712,
      "hij": 6713,
      "sm": 6714,
      "åıĤåĬł": 6715,
      "ala": 6716,
      "Ġvandaan": 6717,
      "ym": 6718,
      "ä¾ĭ": 6719,
      "åª³": 6720,
      "ieke": 6721,
      "éº»çĥ¦": 6722,
      "Ġmajor": 6723,
      "Ġbuilding": 6724,
      "å¤§äºĨ": 6725,
      "çĽĺ": 6726,
      "Ġamb": 6727,
      "Ġweeks": 6728,
      "ĠZuid": 6729,
      "Ġhield": 6730,
      "Ġwhatever": 6731,
      "stad": 6732,
      "GRA": 6733,
      "Ġlab": 6734,
      "ĠGa": 6735,
      "AS": 6736,
      "Ġhom": 6737,
      "æĿŁ": 6738,
      "ĠReg": 6739,
      "After": 6740,
      "äººä»¬": 6741,
      "ĠåĴĮ": 6742,
      "éĹ®ä½ł": 6743,
      "ioen": 6744,
      "Ġveroor": 6745,
      "ified": 6746,
      "è¾ĵ": 6747,
      "æİ¥åıĹ": 6748,
      "ĠSan": 6749,
      "Ġoffice": 6750,
      "åĮ»çĶŁ": 6751,
      "Ġgeneral": 6752,
      "zijn": 6753,
      "ubb": 6754,
      "åĳĬè¯īæĪĳ": 6755,
      "zel": 6756,
      "uch": 6757,
      "Ġaccept": 6758,
      "å¯»": 6759,
      "Ġmoesten": 6760,
      "ossing": 6761,
      "ucy": 6762,
      "Ġtoekomst": 6763,
      "Ġeverybody": 6764,
      "Ġcast": 6765,
      "Ġregel": 6766,
      "Ġseem": 6767,
      "éļ¾éģĵ": 6768,
      "uurd": 6769,
      "å®ĥçļĦ": 6770,
      "Ġåıªè¦ģ": 6771,
      "Ġnoises": 6772,
      "Ã¯n": 6773,
      "ä¸ĬéĿ¢": 6774,
      "Ġsupposed": 6775,
      "Ġchanged": 6776,
      "ĠStaten": 6777,
      "Ġsad": 6778,
      "Ġkeek": 6779,
      "æīĺ": 6780,
      "æĽ²": 6781,
      "Ġperform": 6782,
      "rodu": 6783,
      "èĩªçĦ¶": 6784,
      "Ġdoubt": 6785,
      "Ġzaken": 6786,
      "zoeken": 6787,
      "åı³": 6788,
      "ĠNational": 6789,
      "Ġcertainly": 6790,
      "Ġradio": 6791,
      "Ġtick": 6792,
      "Ġzuur": 6793,
      "ä¼ļæľī": 6794,
      "Ġview": 6795,
      "Ġregen": 6796,
      "ĠOlymp": 6797,
      "iot": 6798,
      "Ġlim": 6799,
      "ç¥Ŀ": 6800,
      "Ġreturned": 6801,
      "laimed": 6802,
      "æļĸ": 6803,
      "erecht": 6804,
      "Ġperiod": 6805,
      "è¿Ľåħ¥": 6806,
      "Ġverv": 6807,
      "field": 6808,
      "Ġcell": 6809,
      "Ġintern": 6810,
      "åİŁæĿ¥": 6811,
      "some": 6812,
      "åĬ³": 6813,
      "ui": 6814,
      "esse": 6815,
      "Ġmun": 6816,
      "Ġarg": 6817,
      "uro": 6818,
      "Ġtowards": 6819,
      "Ġregering": 6820,
      "æ¾": 6821,
      "Ġkennis": 6822,
      "Ġerin": 6823,
      "èİ«": 6824,
      "Ġdroom": 6825,
      "Ġdescri": 6826,
      "zichtig": 6827,
      "ĠWelke": 6828,
      "leanor": 6829,
      "ĠNow": 6830,
      "Ġspace": 6831,
      "çĿĢæĢ¥": 6832,
      "ĠJo": 6833,
      "å·§": 6834,
      "ippen": 6835,
      "clus": 6836,
      "halen": 6837,
      "Ġ$": 6838,
      "Ġworry": 6839,
      "emand": 6840,
      "æ¤į": 6841,
      "Ġninet": 6842,
      "Ġcake": 6843,
      "å¸®æĪĳ": 6844,
      "Ġdrive": 6845,
      "Ġinsp": 6846,
      "æĬĬä½ł": 6847,
      "Ġstraat": 6848,
      "Ġboeken": 6849,
      "veren": 6850,
      "Ġusing": 6851,
      "ĠMartin": 6852,
      "joy": 6853,
      "Ġwritten": 6854,
      "Ġzichzelf": 6855,
      "Rustig": 6856,
      "Ġtoward": 6857,
      "è®¾è®¡": 6858,
      "ĠHeb": 6859,
      "oogle": 6860,
      "å°Ŀ": 6861,
      "å¯¹åķĬ": 6862,
      "Ġkid": 6863,
      "Ġsecret": 6864,
      "Ġglass": 6865,
      "ĠSl": 6866,
      "oci": 6867,
      "Ġhuil": 6868,
      "è¾ĪåŃĲ": 6869,
      "Ġinstead": 6870,
      "FCH": 6871,
      "Ġrace": 6872,
      "Ġbuilt": 6873,
      "Ġdw": 6874,
      "åī¯": 6875,
      "Onze": 6876,
      "å¤ĸéĿ¢": 6877,
      "Ġahead": 6878,
      "kens": 6879,
      "åĶĲ": 6880,
      "å®ģ": 6881,
      "å¦ĤæŃ¤": 6882,
      "Ġmix": 6883,
      "egd": 6884,
      "ux": 6885,
      "ĠJer": 6886,
      "æģ¶": 6887,
      "Excuse": 6888,
      "ä»Ģä¹ĪæĹ¶åĢĻ": 6889,
      "å¿«ä¹Ĳ": 6890,
      "Ġpieces": 6891,
      "zetten": 6892,
      "ä»Ģä¹ĪåĳĢ": 6893,
      "Ġbedrijf": 6894,
      "ida": 6895,
      "æł¸": 6896,
      "Ġ23": 6897,
      "Ġpreten": 6898,
      "laas": 6899,
      "å¸ħ": 6900,
      "Ġbehulp": 6901,
      "å¥ĸ": 6902,
      "Ġcompet": 6903,
      "æĮ¥": 6904,
      "reden": 6905,
      "Maybe": 6906,
      "Ġgiving": 6907,
      "Ġpack": 6908,
      "éķ¿çļĦ": 6909,
      "Ġjonge": 6910,
      "Ġ2018": 6911,
      "æĪĳçŁ¥éģĵ": 6912,
      "Ġseat": 6913,
      "åŁİå¸Ĥ": 6914,
      "Ġgrafiek": 6915,
      "aff": 6916,
      "ĠHar": 6917,
      "ĠLou": 6918,
      "Ġsomm": 6919,
      "Ġneg": 6920,
      "achte": 6921,
      "Ġexcept": 6922,
      "rian": 6923,
      "Ġfruit": 6924,
      "Hoi": 6925,
      "æ²ī": 6926,
      "ĠGro": 6927,
      "bei": 6928,
      "ĠChina": 6929,
      "Ġverloren": 6930,
      "organ": 6931,
      "ä½ľçĶ¨": 6932,
      "éĽ·": 6933,
      "Ġtelling": 6934,
      "åĵªéĩĮ": 6935,
      "isper": 6936,
      "åŃ£": 6937,
      "ugd": 6938,
      "éķľ": 6939,
      "å¤ªéĺ³": 6940,
      "Ġjump": 6941,
      "Ġblad": 6942,
      "éŁ³ä¹Ĳ": 6943,
      "gene": 6944,
      "äººæ°ĳ": 6945,
      "iday": 6946,
      "çĸĹ": 6947,
      "Twee": 6948,
      "äºĨä»ĸ": 6949,
      "essie": 6950,
      "zier": 6951,
      "arah": 6952,
      "Ġhig": 6953,
      "anny": 6954,
      "Ġhoorde": 6955,
      "rent": 6956,
      "etjes": 6957,
      "åİŁåĽł": 6958,
      "Ġdistrict": 6959,
      "Ġ2021": 6960,
      "æ¸Ĳ": 6961,
      "PO": 6962,
      "å±ŀäºİ": 6963,
      "çŀ§": 6964,
      "åĭĩ": 6965,
      "kan": 6966,
      "å°¾": 6967,
      "Welke": 6968,
      "leiding": 6969,
      "rijden": 6970,
      "æĢ»æĺ¯": 6971,
      "Ġstemmen": 6972,
      "Ġè·Ł": 6973,
      "Ġbeide": 6974,
      "ä¸ĢèĪ¬": 6975,
      "ĠCarl": 6976,
      "åħ³äºİ": 6977,
      "Ġdokter": 6978,
      "noise": 6979,
      "ç«¯": 6980,
      "Ġservice": 6981,
      "åİĤ": 6982,
      "Ġwaarbij": 6983,
      "oorlog": 6984,
      "Volgens": 6985,
      "Ġchem": 6986,
      "Ġè¿ĻäºĽ": 6987,
      "è¡ĮäºĨ": 6988,
      "å®¶äºº": 6989,
      "Ġkunst": 6990,
      "çļĦåĲĹ": 6991,
      "Ġwrote": 6992,
      "Ġfollowed": 6993,
      "Ġwedstrijd": 6994,
      "Ġkat": 6995,
      "board": 6996,
      "Ġproject": 6997,
      "zil": 6998,
      "Ġpolitic": 6999,
      "ä¿¡æģ¯": 7000,
      "Daarom": 7001,
      "ĠZij": 7002,
      "è§ģè¿ĩ": 7003,
      "ula": 7004,
      "Ġbreakfast": 7005,
      "Ġliter": 7006,
      "ĠSim": 7007,
      "Any": 7008,
      "Ġcareful": 7009,
      "å¯¹äºİ": 7010,
      "æĹłæ³ķ": 7011,
      "Ġhappens": 7012,
      "Ġnatuur": 7013,
      "Daddy": 7014,
      "å°Ĭ": 7015,
      "uses": 7016,
      "åª³å¦ĩ": 7017,
      "nem": 7018,
      "Ġincluding": 7019,
      "çĤ¹åĦ¿": 7020,
      "Ġauthor": 7021,
      "ammer": 7022,
      "ĠåĬ": 7023,
      "ä»İæĿ¥": 7024,
      "Ġdoc": 7025,
      "okken": 7026,
      "Vooruit": 7027,
      "Ġbepaalde": 7028,
      "LE": 7029,
      "ĠRich": 7030,
      "ä¸¤ä¸ªäºº": 7031,
      "æ¯ķç«Ł": 7032,
      "say": 7033,
      "uts": 7034,
      "ictor": 7035,
      "Ġä¸ī": 7036,
      "...\"": 7037,
      "beelden": 7038,
      "reep": 7039,
      "Ġterm": 7040,
      "Ġcentury": 7041,
      "ĠRo": 7042,
      "wezen": 7043,
      "å°±åľ¨": 7044,
      "è½®": 7045,
      "Ġstanding": 7046,
      "çļĦåķĬ": 7047,
      "Ġliever": 7048,
      "Ġpress": 7049,
      "Ġindeed": 7050,
      "stelling": 7051,
      "åĽŀäºĭ": 7052,
      "èħ¿": 7053,
      "ä¸Ĭæµ·": 7054,
      "æŁĵ": 7055,
      "Ġaardig": 7056,
      "Ġgeheim": 7057,
      "æĪĳçİ°åľ¨": 7058,
      "ä¹Į": 7059,
      "Ġlanger": 7060,
      "è·ŁæĪĳè¯´": 7061,
      "çģ¯": 7062,
      "uwelijk": 7063,
      "sterd": 7064,
      "elijkheid": 7065,
      "AND": 7066,
      "Uit": 7067,
      "Ġdisapp": 7068,
      "Ġfill": 7069,
      "åºĨ": 7070,
      "Ġhistory": 7071,
      "Ġappar": 7072,
      "maybe": 7073,
      "Ġrustig": 7074,
      "ä»ĸæĺ¯": 7075,
      "ĠJames": 7076,
      "åĩĢ": 7077,
      "idence": 7078,
      "åĲ¹": 7079,
      "Ġæ¯ı": 7080,
      "æī§": 7081,
      "itchen": 7082,
      "Ġearth": 7083,
      "ĠZw": 7084,
      "Ġseason": 7085,
      "Pak": 7086,
      "heb": 7087,
      "ä¸Ģè¾¹": 7088,
      "ĠäºĮ": 7089,
      "Ġwand": 7090,
      "Ġslaap": 7091,
      "Ġmeant": 7092,
      "offee": 7093,
      "Ġreach": 7094,
      "ä¼ģ": 7095,
      "Ġ(\"": 7096,
      "elingen": 7097,
      "Ġrob": 7098,
      "Ġplayer": 7099,
      "Ġdecided": 7100,
      "Ġgeluid": 7101,
      "Ġdesign": 7102,
      "ny": 7103,
      "ribut": 7104,
      "çĿ¡è§ī": 7105,
      "å®¶åºŃ": 7106,
      "would": 7107,
      "ĠRoy": 7108,
      "çŃĸ": 7109,
      "Net": 7110,
      "Ġpuzz": 7111,
      "é»ĺ": 7112,
      "Ġexpect": 7113,
      "lleucyl": 7114,
      "Meneer": 7115,
      "Ġafterno": 7116,
      "éŁ©": 7117,
      "Ġå¤©": 7118,
      "ä¸¤å¤©": 7119,
      "Ġverdomme": 7120,
      "Ġnews": 7121,
      "æĿ¡ä»¶": 7122,
      "icip": 7123,
      "Ġwaarschijnlijk": 7124,
      "Uh": 7125,
      "tjes": 7126,
      "èĶ": 7127,
      "ĠRiver": 7128,
      "ording": 7129,
      "æĪ´": 7130,
      "Ġyesterday": 7131,
      "æĬĬä»ĸ": 7132,
      "è·¯ä¸Ĭ": 7133,
      "Ġburn": 7134,
      "Ġanyone": 7135,
      "ĠToen": 7136,
      "edig": 7137,
      "Ġaller": 7138,
      "staan": 7139,
      "Ġmezelf": 7140,
      "Ġmoving": 7141,
      "éĢı": 7142,
      "Ġbelangrijke": 7143,
      "Ġgroter": 7144,
      "éŀĭ": 7145,
      "Ġstroom": 7146,
      "ĠDen": 7147,
      "iefd": 7148,
      "Ġleerlingen": 7149,
      "å°ĨåĨĽ": 7150,
      "Amer": 7151,
      "Ġur": 7152,
      "Ġ2019": 7153,
      "å®ĮæĪĲ": 7154,
      "Ġregels": 7155,
      "ĠDaarna": 7156,
      "Ġsense": 7157,
      "Ġmeen": 7158,
      "Ġopened": 7159,
      "Ġsilly": 7160,
      "å°ıæĹ¶": 7161,
      "ĠDoctor": 7162,
      "ugs": 7163,
      "åĽŀçŃĶ": 7164,
      "å¾ĹäºĨ": 7165,
      "Ġprins": 7166,
      "Ġmiles": 7167,
      "Ġdin": 7168,
      "Ġpaard": 7169,
      "Ġåī": 7170,
      "Ġblow": 7171,
      "elly": 7172,
      "Ġpil": 7173,
      "å®£": 7174,
      "ĠSat": 7175,
      "iller": 7176,
      "çĪ±çļĦ": 7177,
      "Ġplanten": 7178,
      "brand": 7179,
      "Ġcareer": 7180,
      "Ġvriendin": 7181,
      "Ġè¦ģä¸į": 7182,
      "Ġbeeld": 7183,
      "ĠMer": 7184,
      "Ġfre": 7185,
      "Ġkiezen": 7186,
      "iders": 7187,
      "illen": 7188,
      "Ġsucces": 7189,
      "Illustr": 7190,
      "å¨ģ": 7191,
      "çĽĬ": 7192,
      "åĲİéĿ¢": 7193,
      "gaat": 7194,
      "ĠNoord": 7195,
      "åĮĹäº¬": 7196,
      "anning": 7197,
      "Ġzaak": 7198,
      "Ġä½łè¿Ļ": 7199,
      "give": 7200,
      "Ġlocal": 7201,
      "ba": 7202,
      "aper": 7203,
      "Ġworth": 7204,
      "Ġplat": 7205,
      "Ġswe": 7206,
      "ushed": 7207,
      "agon": 7208,
      "Ġvolg": 7209,
      "ç«¥": 7210,
      "ç»Ŀå¯¹": 7211,
      "Ġthirty": 7212,
      "èµ¢": 7213,
      "éģĹ": 7214,
      "æ¬§": 7215,
      "Ġprijs": 7216,
      "ĠCom": 7217,
      "ĠVerenigde": 7218,
      "ä¸Ģçľĭ": 7219,
      "æĵį": 7220,
      "å¥½å¤ļ": 7221,
      "Ġomhoog": 7222,
      "Ġbread": 7223,
      "Ġä¸įè¦ģ": 7224,
      "Mama": 7225,
      "ç»ıè¿ĩ": 7226,
      "Ġä¸ĭ": 7227,
      "æĿ¥çľĭ": 7228,
      "Ġstom": 7229,
      "ampion": 7230,
      "Ġhungry": 7231,
      "çĶŁçļĦ": 7232,
      "Ġbestaan": 7233,
      "Ġeerlijk": 7234,
      "èº²": 7235,
      "ails": 7236,
      "å«Į": 7237,
      "æĶ¯æĮģ": 7238,
      "back": 7239,
      "roy": 7240,
      "schappen": 7241,
      "ĠGoogle": 7242,
      "ĠJust": 7243,
      "é¢ľ": 7244,
      "Ġstraks": 7245,
      "äºĶåįģ": 7246,
      "yle": 7247,
      "ĠWell": 7248,
      "æĬĬå®ĥ": 7249,
      "Ġzwem": 7250,
      "åĤ»": 7251,
      "pes": 7252,
      "ermen": 7253,
      "ĠBy": 7254,
      "zz": 7255,
      "Ġta": 7256,
      "ache": 7257,
      "Ġposit": 7258,
      "ĠDavid": 7259,
      "kw": 7260,
      "Ġtape": 7261,
      "ä½łåľ¨": 7262,
      "Ġieder": 7263,
      "Ġdiscuss": 7264,
      "ees": 7265,
      "Ġzul": 7266,
      "Ġuitleggen": 7267,
      "Ġkerk": 7268,
      "ĠFrankrijk": 7269,
      "Ġä½łä¸į": 7270,
      "Ġquestions": 7271,
      "ĠYOU": 7272,
      "Ġfir": 7273,
      "icle": 7274,
      "Ġlaughs": 7275,
      "amm": 7276,
      "Ġcomb": 7277,
      "moeten": 7278,
      "Ġdiep": 7279,
      "arts": 7280,
      "æĳ¸": 7281,
      "æĶ¿åºľ": 7282,
      "ground": 7283,
      "arp": 7284,
      "åħ±äº§": 7285,
      "Ġvroeger": 7286,
      "ĠWaarom": 7287,
      "Ġmountain": 7288,
      "è¿Ļä¸ªäºº": 7289,
      "Ġhasn": 7290,
      "ID": 7291,
      "valyl": 7292,
      "leep": 7293,
      "ĠæĪĳè¿Ļ": 7294,
      "çļĦæĹ¶éĹ´": 7295,
      "ä¸Ĭåİ»": 7296,
      "èĪį": 7297,
      "ĠStan": 7298,
      "Hoeveel": 7299,
      "Ġongeluk": 7300,
      "Ġzeven": 7301,
      "çĶµè§Ĩ": 7302,
      "Ĥ¬": 7303,
      "Ġpopulation": 7304,
      "Ġèĥ½": 7305,
      "Ġkitchen": 7306,
      "ç¬¨": 7307,
      "Ġafternoon": 7308,
      "ç«ł": 7309,
      "Ġmad": 7310,
      "è¡¨çİ°": 7311,
      "ç£¨": 7312,
      "Ġspring": 7313,
      "æĿĤ": 7314,
      "Ġsomewhere": 7315,
      "æĹ©å°±": 7316,
      "é¼ĵ": 7317,
      "ĠEgy": 7318,
      "Ġmotor": 7319,
      "Ġdem": 7320,
      "Ġstrange": 7321,
      "200": 7322,
      "iste": 7323,
      "éħ¸": 7324,
      "åľ¨è¿ĻéĩĮ": 7325,
      "derdaad": 7326,
      "Ġforce": 7327,
      "Ġhaat": 7328,
      "ĠWer": 7329,
      "æĥľ": 7330,
      "pend": 7331,
      "Ġhole": 7332,
      "spraak": 7333,
      "ĠMex": 7334,
      "Ġapart": 7335,
      "å°±åı¯ä»¥": 7336,
      "éĤ£ä½ł": 7337,
      "æĶ»": 7338,
      "è®¡åĪĴ": 7339,
      "å·¨": 7340,
      "Ġbelong": 7341,
      "Ġgrapp": 7342,
      "punt": 7343,
      "Ġvoll": 7344,
      "å¸®åĬ©": 7345,
      "Ġgeschreven": 7346,
      "åı¦å¤ĸ": 7347,
      "ĠPresident": 7348,
      "ĠçľŁçļĦ": 7349,
      "Ġgames": 7350,
      "ç¯®": 7351,
      "Un": 7352,
      "Ġenjoy": 7353,
      "æĦŁè°¢": 7354,
      "ç»Ħç»ĩ": 7355,
      "volgens": 7356,
      "Ġreceived": 7357,
      "æĺ¯æľī": 7358,
      "ĠAmerica": 7359,
      "Ġmommy": 7360,
      "å¤ĦçĲĨ": 7361,
      "Mooi": 7362,
      "åİ¿": 7363,
      "çıł": 7364,
      "Ġbottom": 7365,
      "lin": 7366,
      "ston": 7367,
      "ĠThese": 7368,
      "Ġkwaad": 7369,
      "hier": 7370,
      "ĠMot": 7371,
      "ĠCr": 7372,
      "çĤ¸": 7373,
      "proly": 7374,
      "ugen": 7375,
      "Ġherinner": 7376,
      "åĽŀåĪ°": 7377,
      "bled": 7378,
      "US": 7379,
      "é¢Ĺ": 7380,
      "Ġrechts": 7381,
      "ä¹Łæľī": 7382,
      "ugg": 7383,
      "åĪ«çļĦ": 7384,
      "æķ¬": 7385,
      "ä»£è¡¨": 7386,
      "Ġbesp": 7387,
      "Ġdocent": 7388,
      "Ġklim": 7389,
      "Ġserie": 7390,
      "Ġzieken": 7391,
      "ç²¾ç¥ŀ": 7392,
      "ooien": 7393,
      "å¥½åķĬ": 7394,
      "ieved": 7395,
      "Ġprofession": 7396,
      "Zelf": 7397,
      "Ġchicken": 7398,
      "èĻ«": 7399,
      "åıĺåĮĸ": 7400,
      "ros": 7401,
      "æĬ½": 7402,
      "Ġstopped": 7403,
      "present": 7404,
      "ä¸įè§ģ": 7405,
      "Ġtaal": 7406,
      "Wees": 7407,
      "Ġdur": 7408,
      "ä¸ĢæĿ¡": 7409,
      "ests": 7410,
      "teren": 7411,
      "å®īæİĴ": 7412,
      "ekst": 7413,
      "Ġkoningin": 7414,
      "Ġcharacter": 7415,
      "Ġban": 7416,
      "Ġbull": 7417,
      "Ġdorp": 7418,
      "çĶŁåĳ½": 7419,
      "Ġlegs": 7420,
      "Ġstuck": 7421,
      "Ġverwij": 7422,
      "Ġ27": 7423,
      "delen": 7424,
      "Ġä½łè¿ĺ": 7425,
      "Ġä½łåĪ«": 7426,
      "Ġsoorten": 7427,
      "CHAP": 7428,
      "ĠIndia": 7429,
      "Ġåı¯ä»¥": 7430,
      "Ġcere": 7431,
      "åħ¨éĥ¨": 7432,
      "Ġstuur": 7433,
      "èĤļ": 7434,
      "ishing": 7435,
      "å®¡": 7436,
      "Ġcarried": 7437,
      "ä»ĸå°±": 7438,
      "æ¯įäº²": 7439,
      "Ġheren": 7440,
      "è¡ĮåĬ¨": 7441,
      "Ġrecogn": 7442,
      "Ġrid": 7443,
      "Ġuite": 7444,
      "ç¥ĸ": 7445,
      "ä¸ĢçĻ¾": 7446,
      "Ġorange": 7447,
      "Ġanybody": 7448,
      "aches": 7449,
      "éĺ¿å§¨": 7450,
      "Ġhospital": 7451,
      "åĪĨéĴŁ": 7452,
      "kamer": 7453,
      "ĠRock": 7454,
      "Ġinformation": 7455,
      "ä½łè¿ĺ": 7456,
      "Ġklinkt": 7457,
      "Ġallowed": 7458,
      "Ġverschil": 7459,
      "Ġ26": 7460,
      "éĻĲ": 7461,
      "ä¸ĭäºĨ": 7462,
      "Ġcomfort": 7463,
      "LOI": 7464,
      "Ġfurther": 7465,
      "uture": 7466,
      "Ġversl": 7467,
      "Ġzoiets": 7468,
      "è½¯": 7469,
      "Ġtabel": 7470,
      "ims": 7471,
      "Ġgrass": 7472,
      "æīĵå¼Ģ": 7473,
      "ened": 7474,
      "ç»į": 7475,
      "Ġlevel": 7476,
      "Ġcomplet": 7477,
      "Ġstellen": 7478,
      "Ġverdien": 7479,
      "Ġçİĭ": 7480,
      "Ġdom": 7481,
      "Ġsafe": 7482,
      "æ±¤": 7483,
      "çľĭäºĨ": 7484,
      "Ġafge": 7485,
      "ĠPark": 7486,
      "ĠWhy": 7487,
      "Veel": 7488,
      "Ġåĵª": 7489,
      "Ġä¼ļ": 7490,
      "apens": 7491,
      "Ġinternet": 7492,
      "sings": 7493,
      "å¤§åŃ¦": 7494,
      "Ġtrots": 7495,
      "èħ¾": 7496,
      "Ġerbij": 7497,
      "è¿ĽæĿ¥": 7498,
      "è¡¨ç¤º": 7499,
      "estig": 7500,
      "Ġtv": 7501,
      "Ġsou": 7502,
      "icy": 7503,
      "Ġbase": 7504,
      "isole": 7505,
      "Zet": 7506,
      "å¥½åĲ§": 7507,
      "éģĩåĪ°": 7508,
      "Ġprop": 7509,
      "å¸®ä½ł": 7510,
      "Ġbasis": 7511,
      "çĥĪ": 7512,
      "æ»ļ": 7513,
      "Ġstukje": 7514,
      "Ter": 7515,
      "Ġaccount": 7516,
      "cially": 7517,
      "Ġ2017": 7518,
      "amous": 7519,
      "Ġexactly": 7520,
      "Ġlag": 7521,
      "wez": 7522,
      "nes": 7523,
      "éĺŁéķ¿": 7524,
      "Ġzinnen": 7525,
      "wow": 7526,
      "Ġtuin": 7527,
      "Ġwhom": 7528,
      "ç§»": 7529,
      "æĺ¯åĽłä¸º": 7530,
      "Ġmiddle": 7531,
      "sterdam": 7532,
      "ils": 7533,
      "ĠAmerika": 7534,
      "èĳ£": 7535,
      "Ġmicro": 7536,
      "ĠWith": 7537,
      "éĽĦ": 7538,
      "ĠYouT": 7539,
      "Ġbrown": 7540,
      "EÃ©n": 7541,
      "Ġfat": 7542,
      "Ġsave": 7543,
      "èģĶç³»": 7544,
      "Ġsubject": 7545,
      "Ġ28": 7546,
      "ç§¦": 7547,
      "åĲĥçļĦ": 7548,
      "opdracht": 7549,
      "æĪĳäºĨ": 7550,
      "åŁºæľ¬": 7551,
      "ĠSer": 7552,
      "Ġfucking": 7553,
      "Ġweren": 7554,
      "Ġkool": 7555,
      "Ġinten": 7556,
      "Ġfinish": 7557,
      "essor": 7558,
      "wijk": 7559,
      "äº¿": 7560,
      "ĠAN": 7561,
      "æĢĿèĢĥ": 7562,
      "Ġlinks": 7563,
      "Ġstruct": 7564,
      "ilder": 7565,
      "Ġspot": 7566,
      "ĠVeel": 7567,
      "wassen": 7568,
      "Ġzen": 7569,
      "entie": 7570,
      "Ġcars": 7571,
      "æĥ¯": 7572,
      "Ġovert": 7573,
      "car": 7574,
      "å¾Ĺå¾Ī": 7575,
      "ĠBelg": 7576,
      "æ¡Į": 7577,
      "Ġpupp": 7578,
      "Ġcause": 7579,
      "ĠSir": 7580,
      "Ġermee": 7581,
      "ä¸įå¤ª": 7582,
      "Ġstars": 7583,
      "ĠHall": 7584,
      "Ġconvers": 7585,
      "Ġsus": 7586,
      "zeker": 7587,
      "éĿ¢åīį": 7588,
      "çłģ": 7589,
      "åĲĦä½į": 7590,
      "Ġcompan": 7591,
      "hank": 7592,
      "LT": 7593,
      "Ġprocess": 7594,
      "Ġwhose": 7595,
      "ç¬¬ä¸Ģæ¬¡": 7596,
      "ban": 7597,
      "åĲī": 7598,
      "ĠFred": 7599,
      "Ġhoef": 7600,
      "vere": 7601,
      "Ġwapen": 7602,
      "Ġbought": 7603,
      "Ġplezier": 7604,
      "è§£éĩĬ": 7605,
      "çļĦå°±æĺ¯": 7606,
      "Ġcab": 7607,
      "Ġgeleerd": 7608,
      "Ġparents": 7609,
      "anda": 7610,
      "Ġinvol": 7611,
      "Ġraak": 7612,
      "Ġprinc": 7613,
      "sit": 7614,
      "TUR": 7615,
      "Ġeuro": 7616,
      "çŃ¾": 7617,
      "éĢ¼": 7618,
      "Ġgekregen": 7619,
      "ĠOver": 7620,
      "åģļäºĨ": 7621,
      "Ġtrust": 7622,
      "ä»Ĭå¹´": 7623,
      "çģŃ": 7624,
      "ĠBekijk": 7625,
      "Ġwinkel": 7626,
      "da": 7627,
      "Ġmod": 7628,
      "Ġtruth": 7629,
      "ona": 7630,
      "æļ´": 7631,
      "æ®µæĹ¶éĹ´": 7632,
      "å°±åĥı": 7633,
      "æĮĤ": 7634,
      "woordig": 7635,
      "Ġputs": 7636,
      "Ġvlak": 7637,
      "åįĥä¸ĩ": 7638,
      "å¾Ĳ": 7639,
      "åľ°ä¸Ĭ": 7640,
      "name": 7641,
      "å¥½ä¸įå¥½": 7642,
      "iteiten": 7643,
      "Ġtrouwen": 7644,
      "Ġimag": 7645,
      "glutaminyl": 7646,
      "ĠNin": 7647,
      "ĠBrazil": 7648,
      "RE": 7649,
      "ĠJul": 7650,
      "Ġwelk": 7651,
      "èĢģå©Ĩ": 7652,
      "éĽħ": 7653,
      "zing": 7654,
      "éļĲ": 7655,
      "ĠâĤ¬": 7656,
      "æ²Ī": 7657,
      "Illustration": 7658,
      "Ġreag": 7659,
      "Ġagent": 7660,
      "è´£ä»»": 7661,
      "å¹³æĹ¶": 7662,
      "ä½ıäºĨ": 7663,
      "Ġride": 7664,
      "OO": 7665,
      "oming": 7666,
      "å¾ģ": 7667,
      "çĪ¬": 7668,
      "Ġgegaan": 7669,
      "Ne": 7670,
      "ites": 7671,
      "ĠChe": 7672,
      "oeder": 7673,
      "Ġbegonnen": 7674,
      "Verdomme": 7675,
      "Ġadem": 7676,
      "ĠYouTube": 7677,
      "Ġbedankt": 7678,
      "rad": 7679,
      "lser": 7680,
      "ç¡¬": 7681,
      "Ġvermoorden": 7682,
      "Ġdev": 7683,
      "æīĵçĶµè¯Ŀ": 7684,
      "Ġbased": 7685,
      "ĠåĲ¬": 7686,
      "çļĦåĳĢ": 7687,
      "ĠMel": 7688,
      "iforn": 7689,
      "ĠJa": 7690,
      "æĶ¾åľ¨": 7691,
      "Ġvanuit": 7692,
      "Ġmodel": 7693,
      "å¯¹ä¸įèµ·": 7694,
      "Ġinfl": 7695,
      "Ġweergegeven": 7696,
      "please": 7697,
      "æŃ£å¸¸": 7698,
      "Ġfail": 7699,
      "Ġverniet": 7700,
      "éĤ£ä¹Īå¤ļ": 7701,
      "Qu": 7702,
      "Ġimm": 7703,
      "Ġbouw": 7704,
      "Ġleaving": 7705,
      "Ġcoffee": 7706,
      "ä¸Ģå¹´": 7707,
      "Ġbegrijpen": 7708,
      "ipedia": 7709,
      "å¨ĥ": 7710,
      "Ġ2010": 7711,
      "çªĹ": 7712,
      "wege": 7713,
      "æĭ¼": 7714,
      "Ġdut": 7715,
      "ä½³": 7716,
      "ikel": 7717,
      "Ġopt": 7718,
      "cellen": 7719,
      "Ġbutter": 7720,
      "Ġå¹²": 7721,
      "åĿĹéĴ±": 7722,
      "Ġå¹¶": 7723,
      "inen": 7724,
      "igg": 7725,
      "Ġwilden": 7726,
      "ission": 7727,
      "ä½łä½ł": 7728,
      "itted": 7729,
      "Ġswim": 7730,
      "åħ±äº§åħļ": 7731,
      "CHAPTER": 7732,
      "Ġä¸º": 7733,
      "Ġå¾Ī": 7734,
      "lei": 7735,
      "çĮľ": 7736,
      "Ġduck": 7737,
      "eless": 7738,
      "ommen": 7739,
      "Ġnecess": 7740,
      "oost": 7741,
      "Ġbevol": 7742,
      "åĩºæĿ¥äºĨ": 7743,
      "ĠOliver": 7744,
      "ĠChi": 7745,
      "house": 7746,
      "Ġprima": 7747,
      "vocal": 7748,
      "Ġgeg": 7749,
      "Ġcommune": 7750,
      "é¥¿": 7751,
      "Ġvogel": 7752,
      "çĬ¶æĢģ": 7753,
      "gesteld": 7754,
      "bout": 7755,
      "æľīçļĦ": 7756,
      "Ġeduc": 7757,
      "Ġrap": 7758,
      "Ġvoorbeeld": 7759,
      "Ġsheep": 7760,
      "å«ģ": 7761,
      "tv": 7762,
      "Ġfil": 7763,
      "stel": 7764,
      "Ġneck": 7765,
      "æĢİä¹ĪäºĨ": 7766,
      "Ġbehand": 7767,
      "åĲĦç§į": 7768,
      "Niets": 7769,
      "Ġalthough": 7770,
      "å°ıçļĦ": 7771,
      "æ¬º": 7772,
      "æĻ¨": 7773,
      "staande": 7774,
      "Ġkm": 7775,
      "ĠUit": 7776,
      "vlak": 7777,
      "Ġsommige": 7778,
      "Ġsmell": 7779,
      "standig": 7780,
      "åĨĴ": 7781,
      "æĿ°": 7782,
      "Ġsocial": 7783,
      "ivil": 7784,
      "Ġleef": 7785,
      "ATT": 7786,
      "çİ°åľº": 7787,
      "ĠChin": 7788,
      "å¿ĥçļĦ": 7789,
      "ĠNu": 7790,
      "Ġvoelen": 7791,
      "ä¸įåı¯": 7792,
      "Ġanimal": 7793,
      "Ġroept": 7794,
      "len": 7795,
      "æĸ¹åĲĳ": 7796,
      "komst": 7797,
      "æĪĳæĿ¥": 7798,
      "ä¸ĢåĪĩ": 7799,
      "Ġrivier": 7800,
      "å¼±": 7801,
      "è°·": 7802,
      "ç¾İä¸½": 7803,
      "Ġmaxim": 7804,
      "bre": 7805,
      "hoe": 7806,
      "ĠAunt": 7807,
      "onger": 7808,
      "å®³æĢķ": 7809,
      "va": 7810,
      "mark": 7811,
      "uf": 7812,
      "ored": 7813,
      "rap": 7814,
      "Ġfigure": 7815,
      "hee": 7816,
      "å®ŀéĻħ": 7817,
      "ĠFraser": 7818,
      "ä½įç½®": 7819,
      "èĢģåħ¬": 7820,
      "lect": 7821,
      "åĨł": 7822,
      "Ġgemidd": 7823,
      "ç¼ĺ": 7824,
      "ita": 7825,
      "Ġtrap": 7826,
      "æĲ¬": 7827,
      "ieken": 7828,
      "ĠMor": 7829,
      "é¹¿": 7830,
      "ä½łåķĬ": 7831,
      "ams": 7832,
      "ç»ª": 7833,
      "ival": 7834,
      "é¸Ń": 7835,
      "oeld": 7836,
      "werken": 7837,
      "Ġfan": 7838,
      "Ġcel": 7839,
      "ĠæĪĳè¿ĺ": 7840,
      "Ġåı¯èĥ½": 7841,
      "Ġschrijf": 7842,
      "éģĵçĲĨ": 7843,
      "Ġslechts": 7844,
      "Ġtent": 7845,
      "Ġought": 7846,
      "clock": 7847,
      "Alle": 7848,
      "Ġnormaal": 7849,
      "Ġene": 7850,
      "Ġpad": 7851,
      "Ġblank": 7852,
      "uhoh": 7853,
      "ä¹Łä¸įçŁ¥éģĵ": 7854,
      "Ġassist": 7855,
      "rect": 7856,
      "Ġcard": 7857,
      "ĠRoman": 7858,
      "Ġpopular": 7859,
      "Ġ29": 7860,
      "Ġklopt": 7861,
      "Ġ2022": 7862,
      "åģı": 7863,
      "asting": 7864,
      "Ġwriting": 7865,
      "æľīäºĨ": 7866,
      "werpen": 7867,
      "Ġ2014": 7868,
      "ois": 7869,
      "leur": 7870,
      "lor": 7871,
      "time": 7872,
      "zingen": 7873,
      "ĠAct": 7874,
      "åŃĺåľ¨": 7875,
      "è¿°": 7876,
      "âĢķ": 7877,
      "iaal": 7878,
      "ĠæĪĳçľĭ": 7879,
      "èŀį": 7880,
      "gesch": 7881,
      "Ġvres": 7882,
      "gasps": 7883,
      "ffen": 7884,
      "éĩĮè¾¹": 7885,
      "ĠWikipedia": 7886,
      "åħ¶ä¸Ń": 7887,
      "èĥŀ": 7888,
      "oelen": 7889,
      "Ġcreated": 7890,
      "Ġkamp": 7891,
      "Ġä½łæĥ³": 7892,
      "èĢģé¼ł": 7893,
      "æ´»åĬ¨": 7894,
      "ĠBobby": 7895,
      "Ġwitte": 7896,
      "Ġzuid": 7897,
      "Ġteeth": 7898,
      "aans": 7899,
      "ä»Ģä¹Īåĳ¢": 7900,
      "Ġeleph": 7901,
      "ĠAmsterdam": 7902,
      "Ġä½łçŁ¥éģĵ": 7903,
      "æģ¨": 7904,
      "Ġtafel": 7905,
      "è¯ļ": 7906,
      "æ¸¯": 7907,
      "è®¸å¤ļ": 7908,
      "Ġtail": 7909,
      "Ġä»¥": 7910,
      "ĠéĤ£å°±": 7911,
      "Ġsilence": 7912,
      "Ġincre": 7913,
      "Ġgold": 7914,
      "Ġwatching": 7915,
      "stit": 7916,
      "Ġshape": 7917,
      "ffic": 7918,
      "Ġbelangrijkste": 7919,
      "Ġbleef": 7920,
      "åį±éĻ©": 7921,
      "ĠKar": 7922,
      "singing": 7923,
      "æ··": 7924,
      "éº¦": 7925,
      "ago": 7926,
      "æĸ¹æ³ķ": 7927,
      "fen": 7928,
      "Ġmeeting": 7929,
      "Ġåģļ": 7930,
      "Ġdansen": 7931,
      "woners": 7932,
      "RI": 7933,
      "uge": 7934,
      "Ġfuture": 7935,
      "aj": 7936,
      "Ġpush": 7937,
      "ĠDad": 7938,
      "Ġshirt": 7939,
      "Ġnon": 7940,
      "Ġplate": 7941,
      "Ġshit": 7942,
      "ä¸įç®¡": 7943,
      "plaats": 7944,
      "Ġchocol": 7945,
      "èį£": 7946,
      "ä½łåİ»": 7947,
      "ä½łæĥ³": 7948,
      "ively": 7949,
      "èµ·äºĨ": 7950,
      "Ġç»Ļ": 7951,
      "Ġderde": 7952,
      "rok": 7953,
      "ĠNet": 7954,
      "çıį": 7955,
      "ĠhÃ©": 7956,
      "Ġiss": 7957,
      "pect": 7958,
      "Ġah": 7959,
      "Ġitself": 7960,
      "Ġonderdeel": 7961,
      "ä¸ĢæŃ¥": 7962,
      "ĠèĻ½çĦ¶": 7963,
      "è§¦": 7964,
      "ĠCaliforn": 7965,
      "ijdt": 7966,
      "é²ľ": 7967,
      "Ġberg": 7968,
      "Ġvoorkomen": 7969,
      "çĪĨ": 7970,
      "éĶ®": 7971,
      "æĪ¿éĹ´": 7972,
      "cont": 7973,
      "ratie": 7974,
      "orgt": 7975,
      "ä»ĸè¯´": 7976,
      "overn": 7977,
      "icit": 7978,
      "éĹŃ": 7979,
      "Ġ2011": 7980,
      "éĴĪ": 7981,
      "æ£Ĵ": 7982,
      "Ġhoge": 7983,
      "Ġéĥ½æĺ¯": 7984,
      "åĽĽåįģ": 7985,
      "Ġallebei": 7986,
      "ĠåİŁ": 7987,
      "geld": 7988,
      "ĠBill": 7989,
      "Ġlaag": 7990,
      "Ġkoffie": 7991,
      "erson": 7992,
      "è¿ĺåľ¨": 7993,
      "hington": 7994,
      "olonel": 7995,
      "unde": 7996,
      "ĠAc": 7997,
      "å¤ªå¤ª": 7998,
      "Ġfifty": 7999,
      "Ġchurch": 8000,
      "ools": 8001,
      "Ġafgelopen": 8002,
      "æ¯Ķå¦Ĥè¯´": 8003,
      "Ġtoest": 8004,
      "ĠTO": 8005,
      "Iemand": 8006,
      "dro": 8007,
      "Ġhemel": 8008,
      "Ġbeginning": 8009,
      "Ġprepar": 8010,
      ".)": 8011,
      "achter": 8012,
      "rel": 8013,
      "ads": 8014,
      "ĠTony": 8015,
      "His": 8016,
      "tell": 8017,
      "Ġstreet": 8018,
      "ĠRed": 8019,
      "Ġintrodu": 8020,
      "threon": 8021,
      "åľ¨è¿Ļä¸ª": 8022,
      "Ġrevol": 8023,
      "Ġstel": 8024,
      "Ġwebs": 8025,
      "Ġlevens": 8026,
      "é¼»": 8027,
      "Ġvliegen": 8028,
      "çĵľ": 8029,
      "Ġmonster": 8030,
      "å¦¹å¦¹": 8031,
      "ç®Ĺæĺ¯": 8032,
      "ouder": 8033,
      "åįł": 8034,
      "ï¿½ï¿½ï¿½ï¿½": 8035,
      "hy": 8036,
      "Ġbusy": 8037,
      "Ste": 8038,
      "aardig": 8039,
      "Ġviel": 8040,
      "Ġspell": 8041,
      "athol": 8042,
      "èĻļ": 8043,
      "Ġoma": 8044,
      "å¤©å¤©": 8045,
      "å°¤": 8046,
      "çļĦå¿ĥ": 8047,
      "Ġ2000": 8048,
      "Ġpray": 8049,
      "Ġbeschermen": 8050,
      "å¥½åĲĹ": 8051,
      "Schiet": 8052,
      "ĠåºĶ": 8053,
      "å¥½çľĭ": 8054,
      "ĠOF": 8055,
      "ikker": 8056,
      "owel": 8057,
      "Ġquar": 8058,
      "ĠIsra": 8059,
      "Ġgeschiedenis": 8060,
      "ometimes": 8061,
      "å¸Ń": 8062,
      "bling": 8063,
      "Ġpounds": 8064,
      "ä½¿çĶ¨": 8065,
      "ivid": 8066,
      "sych": 8067,
      "çĻ»": 8068,
      "ĠHenry": 8069,
      "Ġident": 8070,
      "Ġtrack": 8071,
      "çļĦéĹ®é¢ĺ": 8072,
      "Ġcapital": 8073,
      "lement": 8074,
      "light": 8075,
      "Ġversp": 8076,
      "Ġcray": 8077,
      "Ġwalking": 8078,
      "Ġloop": 8079,
      "ĠRus": 8080,
      "cient": 8081,
      "ilar": 8082,
      "å¥ĩæĢª": 8083,
      "Ġweekend": 8084,
      "leed": 8085,
      "ĠTV": 8086,
      "Ġbescherm": 8087,
      "Ġcontrole": 8088,
      "Ġkloot": 8089,
      "Ġdragen": 8090,
      "iode": 8091,
      "Ġdistance": 8092,
      "èŃ¦å¯Ł": 8093,
      "ĠTekst": 8094,
      "è¾Ľèĭ¦": 8095,
      "oest": 8096,
      "Ġfab": 8097,
      "Ġafstand": 8098,
      "ä¸įåľ¨": 8099,
      "Ġadded": 8100,
      "Vind": 8101,
      "Ġveranderd": 8102,
      "Ġnaartoe": 8103,
      "medi": 8104,
      "gin": 8105,
      "çĿĢæĪĳ": 8106,
      "å¥¹ä»¬": 8107,
      "Ġappeared": 8108,
      "ä¸įä¸Ģæł·": 8109,
      "çĽĸ": 8110,
      "éªĤ": 8111,
      "ologie": 8112,
      "ĠAg": 8113,
      "Ġhuwelijk": 8114,
      "Con": 8115,
      "viously": 8116,
      "Ġå¤ļ": 8117,
      "ä¸¹": 8118,
      "åºĦ": 8119,
      "æĲľ": 8120,
      "Ġunivers": 8121,
      "Ġhous": 8122,
      "Ġbright": 8123,
      "Ġontstaat": 8124,
      "ĠSy": 8125,
      "Ġtrekken": 8126,
      "çĽĽ": 8127,
      "Ġå¸Ī": 8128,
      "Ġterecht": 8129,
      "Ġgoud": 8130,
      "40": 8131,
      "Hi": 8132,
      "Sl": 8133,
      "ĠæĿİ": 8134,
      "Ġanymore": 8135,
      "rouwd": 8136,
      "Ġflat": 8137,
      "åĤħ": 8138,
      "Zou": 8139,
      "è°ĵ": 8140,
      "Thanks": 8141,
      "Ġgrappig": 8142,
      "ÃŃ": 8143,
      "otter": 8144,
      "osh": 8145,
      "é¬¼åŃĲ": 8146,
      "äººéĥ½": 8147,
      "åİĨåı²": 8148,
      "ĠçľŁ": 8149,
      "Ġhealth": 8150,
      "Ġoverl": 8151,
      "Ġ2016": 8152,
      "Ġlachen": 8153,
      "Ġbatter": 8154,
      "ores": 8155,
      "çĶŁæĦı": 8156,
      "éķĩ": 8157,
      "Ġgezond": 8158,
      "Ġdol": 8159,
      "æĮºå¥½çļĦ": 8160,
      "Ġep": 8161,
      "ĠHouse": 8162,
      "Ġå±": 8163,
      "Ġconn": 8164,
      "Ġconcern": 8165,
      "Ġfinger": 8166,
      "Ġspecies": 8167,
      "Ġverliefd": 8168,
      "ĠGener": 8169,
      "Ġexclaimed": 8170,
      "ĠWiki": 8171,
      "erkt": 8172,
      "Ġsky": 8173,
      "Ġwol": 8174,
      "æ£®æŀĹ": 8175,
      "Ġhide": 8176,
      "éĤ£éĩĮ": 8177,
      "Jon": 8178,
      "ky": 8179,
      "ĠSant": 8180,
      "Ġontsn": 8181,
      "ĠFranc": 8182,
      "ĠDem": 8183,
      "Ġmoon": 8184,
      "Ġdue": 8185,
      "Ġpaint": 8186,
      "Ġrestaur": 8187,
      "ĠåĵİåĳĢ": 8188,
      "jaar": 8189,
      "ĠNed": 8190,
      "Ġiedere": 8191,
      "Ġattempt": 8192,
      "asc": 8193,
      "Ġut": 8194,
      "Ġparts": 8195,
      "daar": 8196,
      "Ġhout": 8197,
      "äº¡": 8198,
      "ĠKijk": 8199,
      "Wait": 8200,
      "Ġ2015": 8201,
      "Kids": 8202,
      "child": 8203,
      "è¯´æĺİ": 8204,
      "åĩ¶": 8205,
      "Ġhoney": 8206,
      "æĭ¥": 8207,
      "auwe": 8208,
      "hoek": 8209,
      "Ġpet": 8210,
      "çĸ«": 8211,
      "Ġvliegtuig": 8212,
      "Ġeiland": 8213,
      "Ġtax": 8214,
      "ometer": 8215,
      "ĠWereld": 8216,
      "Ġgeme": 8217,
      "Ġspullen": 8218,
      "Ġspend": 8219,
      "Ġvertrouwen": 8220,
      "Ġenkel": 8221,
      "oeien": 8222,
      "Ġvolgen": 8223,
      "IL": 8224,
      "iled": 8225,
      "Ġvertel": 8226,
      "idt": 8227,
      "Ġdance": 8228,
      "èľľ": 8229,
      "Ġdropped": 8230,
      "Ġbeweg": 8231,
      "åĲĪä½ľ": 8232,
      "Ġvertelt": 8233,
      "achtig": 8234,
      "Ġsituatie": 8235,
      "éĺ¶": 8236,
      "Ġhoogte": 8237,
      "Ġmatch": 8238,
      "Man": 8239,
      "Ġtong": 8240,
      "Ġkerst": 8241,
      "Ġzomaar": 8242,
      "\")": 8243,
      "NA": 8244,
      "ply": 8245,
      "Ken": 8246,
      "Ġsummer": 8247,
      "Ġechter": 8248,
      "åĮħæĭ¬": 8249,
      "roll": 8250,
      "Ġmodern": 8251,
      "å®ŀè¯Ŀ": 8252,
      "éģ¿": 8253,
      "ç»ĵæĿŁ": 8254,
      "voer": 8255,
      "Ġdecl": 8256,
      "ä¸įä¸Ĭ": 8257,
      "ĠBest": 8258,
      "åįı": 8259,
      "èµ°åĲ§": 8260,
      "Ġplays": 8261,
      "igt": 8262,
      "ĠTH": 8263,
      "Ġgebracht": 8264,
      "æĿĲæĸĻ": 8265,
      "Ġä»¥åĲİ": 8266,
      "plant": 8267,
      "ç¬¦": 8268,
      "izer": 8269,
      "Ġholding": 8270,
      "è¿ĽäºĨ": 8271,
      "Ġgehouden": 8272,
      "Ġprogramma": 8273,
      "Ġmurder": 8274,
      "onderd": 8275,
      "çħ§çīĩ": 8276,
      "Ġcla": 8277,
      "aining": 8278,
      "Ġviol": 8279,
      "Ġcream": 8280,
      "æŃ£å¥½": 8281,
      "Ġtoeg": 8282,
      "raad": 8283,
      "Ook": 8284,
      "ours": 8285,
      "Ġshouldn": 8286,
      "èı²": 8287,
      "ç§ĳåŃ¦": 8288,
      "åĺī": 8289,
      "SO": 8290,
      "ĠHelen": 8291,
      "æ±½": 8292,
      "Ġrab": 8293,
      "ĠNie": 8294,
      "Ġontmoeten": 8295,
      "Ġ60": 8296,
      "Ġuiteindelijk": 8297,
      "ĠHowever": 8298,
      "Ġidi": 8299,
      "Lees": 8300,
      "Ġfamous": 8301,
      "æĤĦ": 8302,
      "ä¸»ä»»": 8303,
      "ä¸»ä¹ī": 8304,
      "Ġneeded": 8305,
      "Ġpaid": 8306,
      "éĥ½è¦ģ": 8307,
      "ç»ıåİĨ": 8308,
      "é¦ĸåħĪ": 8309,
      "Ġcaptain": 8310,
      "oegen": 8311,
      "Ġerv": 8312,
      "Ġwoont": 8313,
      "isoleucyl": 8314,
      "Ġbelow": 8315,
      "Ġwalked": 8316,
      "Ġinterested": 8317,
      "ĠKen": 8318,
      "Ġdaarmee": 8319,
      "Ġcounty": 8320,
      "Haal": 8321,
      "Pardon": 8322,
      "bie": 8323,
      "Ġinf": 8324,
      "ĠLeague": 8325,
      "Ġinclude": 8326,
      "Ġprachtig": 8327,
      "Take": 8328,
      "Ġgevaarlijk": 8329,
      "bon": 8330,
      "Ġdraag": 8331,
      "leet": 8332,
      "ĠTweede": 8333,
      "Ġspoke": 8334,
      "Ġvertelde": 8335,
      "Ġjud": 8336,
      "çĶľ": 8337,
      "ç»ľ": 8338,
      "riek": 8339,
      "å¤®": 8340,
      "æ´²": 8341,
      "Ġremark": 8342,
      "é¢Ĩå¯¼": 8343,
      "isen": 8344,
      "dad": 8345,
      "Ġhieronder": 8346,
      "æīĵç®Ĺ": 8347,
      "åĩŃ": 8348,
      "Ġok": 8349,
      "Ġliep": 8350,
      "Ġteacher": 8351,
      "bing": 8352,
      "Ġshoul": 8353,
      "ĠMaria": 8354,
      "ä»ĭç»į": 8355,
      "Uw": 8356,
      "æľīä¸Ģå¤©": 8357,
      "coun": 8358,
      "ä¼°": 8359,
      "ĠCommons": 8360,
      "æ³ª": 8361,
      "çŃīçŃī": 8362,
      "ĠDuitse": 8363,
      "Mom": 8364,
      "ellig": 8365,
      "åĿļæĮģ": 8366,
      "Leg": 8367,
      "è¿¹": 8368,
      "æĪĳæľī": 8369,
      "èĥĨ": 8370,
      "Ġcountries": 8371,
      "Ġpagina": 8372,
      "æĹ§": 8373,
      "Ġneigh": 8374,
      "å¼ĢäºĨ": 8375,
      "Ġeveryone": 8376,
      "æĬ¥åĳĬ": 8377,
      "Ġslechte": 8378,
      "æĢĢçĸĳ": 8379,
      "Ġbrengt": 8380,
      "ruck": 8381,
      "voerd": 8382,
      "éĶĻäºĨ": 8383,
      "Ġvreemd": 8384,
      "åİ»åĲ§": 8385,
      "ä¼ģä¸ļ": 8386,
      "äººç±»": 8387,
      "SIB": 8388,
      "ä¸įå¤ļ": 8389,
      "ĠRay": 8390,
      "åĽ½çİĭ": 8391,
      "åħĪèµ°äºĨ": 8392,
      "roepen": 8393,
      "Ġloud": 8394,
      "Ġopper": 8395,
      "ĠAngel": 8396,
      "AK": 8397,
      "Ġlikes": 8398,
      "ĠåĲİæĿ¥": 8399,
      "ä¸Ģä½į": 8400,
      "Ġwash": 8401,
      "Ġgevolg": 8402,
      "Ġnest": 8403,
      "Ġkoud": 8404,
      "Ġtab": 8405,
      "èĭ¹": 8406,
      "Ġcharge": 8407,
      "Like": 8408,
      "Ġvict": 8409,
      "ĠæĪĳåľ¨": 8410,
      "parag": 8411,
      "Ġlose": 8412,
      "åĲĥäºĨ": 8413,
      "Ġhorses": 8414,
      "Ġexam": 8415,
      "ĠSal": 8416,
      "acing": 8417,
      "èº«ä»½": 8418,
      "Ġ2012": 8419,
      "Ġarch": 8420,
      "Ġfilms": 8421,
      "Ġpictures": 8422,
      "esus": 8423,
      "åıĺå¾Ĺ": 8424,
      "ceed": 8425,
      "è¿ĺèĥ½": 8426,
      "æı¡": 8427,
      "rs": 8428,
      "Ġbasket": 8429,
      "èĭ¹æŀľ": 8430,
      "Ġbezoek": 8431,
      "Ġwaarop": 8432,
      "åī©": 8433,
      "ĠNederlands": 8434,
      "ĠCanada": 8435,
      "Ġmelk": 8436,
      "ä½Ľ": 8437,
      "Ġmeat": 8438,
      "Ġways": 8439,
      "Zelfs": 8440,
      "threonyl": 8441,
      "åĽº": 8442,
      "inding": 8443,
      "ç§Ł": 8444,
      "Ġnergens": 8445,
      "ä¼Ł": 8446,
      "Ġaanb": 8447,
      "æįķ": 8448,
      "åįģäºĮ": 8449,
      "ommige": 8450,
      "Ġsuddenly": 8451,
      "å¯¹ä½ł": 8452,
      "Ġåĵ¦": 8453,
      "zuur": 8454,
      "atic": 8455,
      "ä¸įæķ¢": 8456,
      "è®©äºº": 8457,
      "Ġå½ĵæĹ¶": 8458,
      "Ġtall": 8459,
      "Ġalive": 8460,
      "Ġkapot": 8461,
      "andid": 8462,
      "ĠMal": 8463,
      "æ¡¥": 8464,
      "æİ¥ä¸ĭæĿ¥": 8465,
      "IR": 8466,
      "æĪĳä¼ļ": 8467,
      "Ġrood": 8468,
      "asant": 8469,
      "Ġseeing": 8470,
      "Ġ2013": 8471,
      "Ġself": 8472,
      "product": 8473,
      "mond": 8474,
      "Ġarrest": 8475,
      "asion": 8476,
      "äºı": 8477,
      "çļĦæķħäºĭ": 8478,
      "Ġslaan": 8479,
      "Ġverzam": 8480,
      "Ġgisteren": 8481,
      "æ¤įçī©": 8482,
      "ĠæĹł": 8483,
      "Ġziel": 8484,
      "ĠTim": 8485,
      "å¯¹æĸ¹": 8486,
      "Ġdry": 8487,
      "pot": 8488,
      "ä½łåĪ«": 8489,
      "Ġengine": 8490,
      "è¯´æĺ¯": 8491,
      "è·Ŀ": 8492,
      "è¾ŀ": 8493,
      "Ġpapier": 8494,
      "Ġmention": 8495,
      "ĠCa": 8496,
      "Ġaanwez": 8497,
      "ĠGreat": 8498,
      "åŃ¤": 8499,
      "ĠWashington": 8500,
      "åĽ½çļĦ": 8501,
      "Ġattention": 8502,
      "æ¢ģ": 8503,
      "iling": 8504,
      "rupt": 8505,
      "uy": 8506,
      "çĽ®åīį": 8507,
      "dit": 8508,
      "take": 8509,
      "rol": 8510,
      "çŁ¥éģĵäºĨ": 8511,
      "Ġdrop": 8512,
      "25": 8513,
      "ĠWie": 8514,
      "ĠNPO": 8515,
      "Ġsens": 8516,
      "Ġproblems": 8517,
      "åĩºçļĦ": 8518,
      "gers": 8519,
      "Ġtal": 8520,
      "Ġbeat": 8521,
      "Ġsel": 8522,
      "riage": 8523,
      "ray": 8524,
      "ĠSec": 8525,
      "iced": 8526,
      "Ġneus": 8527,
      "okk": 8528,
      "æĥħç»ª": 8529,
      "las": 8530,
      "æĥ³æ³ķ": 8531,
      "ationale": 8532,
      "Ġveroorz": 8533,
      "çĻ¾å§ĵ": 8534,
      "uten": 8535,
      "pens": 8536,
      "Ġbevat": 8537,
      "ä¸¥éĩį": 8538,
      "ä¿Ŀè¯ģ": 8539,
      "Welkom": 8540,
      "Mhm": 8541,
      "ĠåıįæŃ£": 8542,
      "Ġfol": 8543,
      "Ġwaard": 8544,
      "Ġå¼Ģ": 8545,
      "box": 8546,
      "Ġziekte": 8547,
      "Mam": 8548,
      "earch": 8549,
      "ADULT": 8550,
      "ĠAir": 8551,
      "Onder": 8552,
      "éĩįè¦ģçļĦ": 8553,
      "counter": 8554,
      "Ġlijst": 8555,
      "éĶĢ": 8556,
      "Ġfem": 8557,
      "å¯¹åĲ§": 8558,
      "æĹ¥æľ¬äºº": 8559,
      "ĠChinese": 8560,
      "Pas": 8561,
      "èµļ": 8562,
      "ĠGood": 8563,
      "Ġreading": 8564,
      "Ġearl": 8565,
      "åİħ": 8566,
      "Ġisland": 8567,
      "Ġfilmpje": 8568,
      "Ġflowers": 8569,
      "çĵ¶": 8570,
      "Ġcontinued": 8571,
      "itions": 8572,
      "å¯Ĵ": 8573,
      "çĪ±æĥħ": 8574,
      "Ġduurt": 8575,
      "ĠMichael": 8576,
      "å¿Ĩ": 8577,
      "baby": 8578,
      "esloten": 8579,
      "Ġå½ĵçĦ¶": 8580,
      "Ġlaughed": 8581,
      "ä»ĩ": 8582,
      "Ġate": 8583,
      "Ġzwarte": 8584,
      "Ġboer": 8585,
      "cious": 8586,
      "ization": 8587,
      "å¿ĺäºĨ": 8588,
      "GR": 8589,
      "Jack": 8590,
      "Ġij": 8591,
      "Ġä¸ºäºĨ": 8592,
      "Ġaud": 8593,
      "åĬĿ": 8594,
      "è¡Įä¸º": 8595,
      "Ġattract": 8596,
      "grond": 8597,
      "Ġbood": 8598,
      "æī¬": 8599,
      "ĠUS": 8600,
      "Ġgedrag": 8601,
      "æ¶²": 8602,
      "ĠVictor": 8603,
      "ĠWikiKids": 8604,
      "nis": 8605,
      "ĠBo": 8606,
      "arginyl": 8607,
      "Ġwid": 8608,
      "ichten": 8609,
      "æ¼«": 8610,
      "bet": 8611,
      "xide": 8612,
      "Ġlying": 8613,
      "ĠSunday": 8614,
      "stop": 8615,
      "spel": 8616,
      "Ġpink": 8617,
      "Ġgesproken": 8618,
      "ä¸Ī": 8619,
      "å°±èĥ½": 8620,
      "Ġannoun": 8621,
      "æįŁ": 8622,
      "èĪª": 8623,
      "è°ĥæŁ¥": 8624,
      "çĶ²": 8625,
      "gew": 8626,
      "æĮ£": 8627,
      "uct": 8628,
      "Ġlock": 8629,
      "Ġzuurstof": 8630,
      "å¾Īå¿«": 8631,
      "ĠVraag": 8632,
      "ruim": 8633,
      "ĠMinister": 8634,
      "AM": 8635,
      "éĿ¢å¯¹": 8636,
      "Ġcontract": 8637,
      "Ġkwal": 8638,
      "Ġsteden": 8639,
      "rib": 8640,
      "erve": 8641,
      "--------": 8642,
      "Ġnames": 8643,
      "Ġspoor": 8644,
      "çķ¥": 8645,
      "erste": 8646,
      "entje": 8647,
      "istan": 8648,
      "ora": 8649,
      "igs": 8650,
      "Ġenemy": 8651,
      "ĠMac": 8652,
      "ĠDaarom": 8653,
      "aft": 8654,
      "ville": 8655,
      "ä¸Ģä»¶": 8656,
      "isse": 8657,
      "ipped": 8658,
      "ä¸įçĿĢ": 8659,
      "Ġrout": 8660,
      "ĠMax": 8661,
      "Ġarmy": 8662,
      "Ġ2008": 8663,
      "è¯´æ³ķ": 8664,
      "Ġshare": 8665,
      "Ġbottle": 8666,
      "BC": 8667,
      "west": 8668,
      "ums": 8669,
      "Ġindust": 8670,
      "Ġnood": 8671,
      "illa": 8672,
      "ĠWal": 8673,
      "æŃī": 8674,
      "åĩºæĿ¥çļĦ": 8675,
      "lad": 8676,
      "åľ£": 8677,
      "Ġgevallen": 8678,
      "åĲĮæĦı": 8679,
      "Ġvarious": 8680,
      "ĠTra": 8681,
      "Ġfresh": 8682,
      "è§ģåĪ°": 8683,
      "æīįæĺ¯": 8684,
      "Ġoplossing": 8685,
      "ĠKennisbank": 8686,
      "isf": 8687,
      "Ġrechter": 8688,
      "åĩ¤": 8689,
      "ĠWillem": 8690,
      "ano": 8691,
      "Ġinwoners": 8692,
      "oeie": 8693,
      "elsel": 8694,
      "åŁŁ": 8695,
      "Ġturns": 8696,
      "ĠPal": 8697,
      "Ġleaves": 8698,
      "åħĶåŃĲ": 8699,
      "Ġmuur": 8700,
      "éĹª": 8701,
      "imedia": 8702,
      "Ġhistor": 8703,
      "åĲ«": 8704,
      "deeld": 8705,
      "éĤ£æĺ¯": 8706,
      "Ġsuit": 8707,
      "olland": 8708,
      "æľĪäº®": 8709,
      "è´Łè´£": 8710,
      "CAR": 8711,
      "Sc": 8712,
      "set": 8713,
      "Ġhonger": 8714,
      "Ġdate": 8715,
      "æĤ¨çļĦ": 8716,
      "ĠåºĶè¯¥": 8717,
      "Ġmarket": 8718,
      "60": 8719,
      "pty": 8720,
      "ç®±": 8721,
      "ureau": 8722,
      "ocrat": 8723,
      "Ġears": 8724,
      "Ġgewonnen": 8725,
      "Ġserious": 8726,
      "Car": 8727,
      "Ġdrank": 8728,
      "Ġmoed": 8729,
      "åĴĮä½ł": 8730,
      "åĲĪéĢĤ": 8731,
      "ĠæĢ»": 8732,
      "iker": 8733,
      "ä¸įåı¯èĥ½": 8734,
      "åĩ¡": 8735,
      "ĠHierdoor": 8736,
      "edy": 8737,
      "äºĮéĽ¶ä¸Ģ": 8738,
      "especially": 8739,
      "Ġgekozen": 8740,
      "ç¦»å©ļ": 8741,
      "elve": 8742,
      "udd": 8743,
      "ç¤¼çī©": 8744,
      "rom": 8745,
      "æĪĳèĩªå·±": 8746,
      "è´¦": 8747,
      "Ġhoek": 8748,
      "Ġseconden": 8749,
      "æķĻèĤ²": 8750,
      "Ġstore": 8751,
      "ĠEast": 8752,
      "Ġcheese": 8753,
      "ĠæĽ´": 8754,
      "ĠæĹ¢çĦ¶": 8755,
      "å®¾": 8756,
      "Ġphys": 8757,
      "åķĨéĩı": 8758,
      "Miss": 8759,
      "loos": 8760,
      "ipjes": 8761,
      "Ġgives": 8762,
      "ç«ŁçĦ¶": 8763,
      "Ġfiets": 8764,
      "opp": 8765,
      "astisch": 8766,
      "down": 8767,
      "Ġtap": 8768,
      "ä¸°": 8769,
      "æĪĳä¸Ģ": 8770,
      "Ġmocht": 8771,
      "ĠVal": 8772,
      "beeldingen": 8773,
      "CAT": 8774,
      "ĠGermany": 8775,
      "sw": 8776,
      "æİĪ": 8777,
      "Ġalstublieft": 8778,
      "æİ§åĪ¶": 8779,
      "äººåĳĺ": 8780,
      "ateg": 8781,
      "åĵĪåĵĪåĵĪ": 8782,
      "Ġå·²": 8783,
      "Ġluisteren": 8784,
      "Ġmem": 8785,
      "Ġsleut": 8786,
      "ĠGeluid": 8787,
      "Ġbekijken": 8788,
      "Ġdefin": 8789,
      "Zal": 8790,
      "Ġonbe": 8791,
      "åºĶè¯¥æĺ¯": 8792,
      "ç«Ļåľ¨": 8793,
      "Ġleeftijd": 8794,
      "Ġinvloed": 8795,
      "Ġgeest": 8796,
      "raft": 8797,
      "è¯´ä»Ģä¹Ī": 8798,
      "åħ³éĶ®": 8799,
      "Ġspirit": 8800,
      "Ġwound": 8801,
      "Ġbeer": 8802,
      "Ġtotaal": 8803,
      "çĭł": 8804,
      "Ġopdrachten": 8805,
      "Ġstudy": 8806,
      "ĠSchooltv": 8807,
      "ĠEngeland": 8808,
      "aid": 8809,
      "ĠMat": 8810,
      "ogel": 8811,
      "ĠParty": 8812,
      "Ġpock": 8813,
      "Ġbirds": 8814,
      "Ġhate": 8815,
      "ament": 8816,
      "Ġtraining": 8817,
      "Ġprobeerde": 8818,
      "lopen": 8819,
      "iber": 8820,
      "Ġgegevens": 8821,
      "Ġcapt": 8822,
      "Ġåĩº": 8823,
      "ummie": 8824,
      "ih": 8825,
      "è¦ģä¸į": 8826,
      "Ġparticular": 8827,
      "Ġrecent": 8828,
      ",--": 8829,
      "ĠGebruik": 8830,
      "Ġsepar": 8831,
      "æĴĴ": 8832,
      "ĠWikimedia": 8833,
      "Ġå¼ł": 8834,
      "Ġbacter": 8835,
      "stra": 8836,
      "è¸¢": 8837,
      "Ġdun": 8838,
      "Weg": 8839,
      "å²Ľ": 8840,
      "é¢Ŀ": 8841,
      "Ġgeldt": 8842,
      "lang": 8843,
      "Ġtwelve": 8844,
      "åĪ©çĶ¨": 8845,
      "èĴĻ": 8846,
      "ĠLaura": 8847,
      "order": 8848,
      "isted": 8849,
      "Thomas": 8850,
      "ploy": 8851,
      "Ġvormen": 8852,
      "Ġziekenhuis": 8853,
      "Ġbak": 8854,
      "Ġtoets": 8855,
      "Ġzorgt": 8856,
      "äºĨä¸ª": 8857,
      "ique": 8858,
      "Ġstub": 8859,
      "ç³Ĭ": 8860,
      "Ġraad": 8861,
      "è¯º": 8862,
      "Ġblind": 8863,
      "Ġåįģ": 8864,
      "ĠAz": 8865,
      "ĠSov": 8866,
      "rm": 8867,
      "ĠKon": 8868,
      "éļĶ": 8869,
      "Ġearn": 8870,
      "ĠMus": 8871,
      "stoffen": 8872,
      "Ġbijzonder": 8873,
      "ç¼ĸ": 8874,
      "Bob": 8875,
      "ination": 8876,
      "Ġhall": 8877,
      "Ġvolwassen": 8878,
      "Ġoce": 8879,
      "Ġstage": 8880,
      "åŃĶ": 8881,
      "Ġleggen": 8882,
      "å°ļ": 8883,
      "ĠTijd": 8884,
      "ĠEarth": 8885,
      "å«Ĥ": 8886,
      "Ġgenomen": 8887,
      "iction": 8888,
      "éªĳ": 8889,
      "Ġvir": 8890,
      "æĺł": 8891,
      "Ġmunicip": 8892,
      "dere": 8893,
      "Â·": 8894,
      "Ġclosed": 8895,
      "å¢Ļ": 8896,
      "Ġofficer": 8897,
      "åıĶåıĶ": 8898,
      "Ġvakantie": 8899,
      "ĠKe": 8900,
      "bra": 8901,
      "jar": 8902,
      "Ġwide": 8903,
      "Ġcijf": 8904,
      "å¥¥": 8905,
      "åıĹåĪ°": 8906,
      "Ġzingen": 8907,
      "Ġpsych": 8908,
      "Ġgetrouwd": 8909,
      "Ġhonden": 8910,
      "Ġnut": 8911,
      "å¥³æľĭåıĭ": 8912,
      "Ġbepaald": 8913,
      "Ġliked": 8914,
      "Ġzomer": 8915,
      "å¥Ķ": 8916,
      "antly": 8917,
      "ulf": 8918,
      "keken": 8919,
      "Ġkleren": 8920,
      "ae": 8921,
      "Ġkeuze": 8922,
      "ĠMama": 8923,
      "Ġhost": 8924,
      "Ġæīĵ": 8925,
      "å³°": 8926,
      "ĠæĪĸèĢħ": 8927,
      "å¥ĭ": 8928,
      "Ġgebeurde": 8929,
      "ä¹Łä¼ļ": 8930,
      "Ġverkopen": 8931,
      "mie": 8932,
      "omer": 8933,
      "æĨ": 8934,
      "Ġern": 8935,
      "äº§çĶŁ": 8936,
      "Ġconsidered": 8937,
      "Ġschiet": 8938,
      "Ġcircle": 8939,
      "Breng": 8940,
      "bes": 8941,
      "veld": 8942,
      "ĠMom": 8943,
      "Ġbloemen": 8944,
      "è°ĭ": 8945,
      "èģªæĺİ": 8946,
      "urday": 8947,
      "ä¹Łä¸įä¼ļ": 8948,
      "Mum": 8949,
      "Ġplaatsen": 8950,
      "æĴŀ": 8951,
      "Ġlaughing": 8952,
      "Ġjun": 8953,
      "Ġbeoord": 8954,
      "ĠæĪĳå°±æĺ¯": 8955,
      "Ġvoldo": 8956,
      "aarten": 8957,
      "Ġverliezen": 8958,
      "Ġvac": 8959,
      "Ġbran": 8960,
      "oemde": 8961,
      "Ġspoon": 8962,
      "Ġcrow": 8963,
      "Ġmuse": 8964,
      "Ġwapens": 8965,
      "Ġund": 8966,
      "Ġhelft": 8967,
      "ĠSpanish": 8968,
      "åģ¥åº·": 8969,
      "åĵĩ": 8970,
      "Ġbron": 8971,
      "Afbeeldingen": 8972,
      "Ġvijand": 8973,
      "By": 8974,
      "ä¼¸": 8975,
      "inks": 8976,
      "ĠÂ©": 8977,
      "Ġsac": 8978,
      "ä¸įçŁ¥": 8979,
      "Ġopening": 8980,
      "çĸ¯": 8981,
      "è¿Ļè¾¹": 8982,
      "Ġduizen": 8983,
      "ĠEuropese": 8984,
      "æ²¡æĥ³åĪ°": 8985,
      "assing": 8986,
      "åįģåĪĨ": 8987,
      "Ġasking": 8988,
      "ĠAlexander": 8989,
      "æĺ¯åĲĹ": 8990,
      "èµı": 8991,
      "ĠGo": 8992,
      "sters": 8993,
      "ä½łä»¬çļĦ": 8994,
      "ç©ºéĹ´": 8995,
      "Ġcovered": 8996,
      "mother": 8997,
      "Ġbrood": 8998,
      "æľªæĿ¥": 8999,
      "Ġklasgenoot": 9000,
      "Ġrepresent": 9001,
      "åİļ": 9002,
      "ĠLat": 9003,
      "ĠBeeldbank": 9004,
      "Ġseks": 9005,
      "yyy": 9006,
      "ongen": 9007,
      "Ġverkeerd": 9008,
      "pardon": 9009,
      "yond": 9010,
      "asparag": 9011,
      "æľ±": 9012,
      "Ġstrijd": 9013,
      "chtend": 9014,
      "æ¼Ķåĳĺ": 9015,
      "Ġaccident": 9016,
      "Ġwolf": 9017,
      "Clipjes": 9018,
      "Ġkey": 9019,
      "ĠæĪĳä¼ļ": 9020,
      "Ġsymb": 9021,
      "glyc": 9022,
      "Ġsite": 9023,
      "æ¡ĥ": 9024,
      "Ġverlaten": 9025,
      "Ġconversation": 9026,
      "Ġwonderful": 9027,
      "han": 9028,
      "sect": 9029,
      "pression": 9030,
      "Ġgeve": 9031,
      "sey": 9032,
      "ĠCO": 9033,
      "ĠGovern": 9034,
      "gemaakt": 9035,
      "ially": 9036,
      "ĠStone": 9037,
      "Ġinteresting": 9038,
      "Ġdienst": 9039,
      "XX": 9040,
      "Ġdeden": 9041,
      "å®ŀçİ°": 9042,
      "DE": 9043,
      "Pre": 9044,
      "ä½łèĩªå·±": 9045,
      "èĤ¥": 9046,
      "Ġthema": 9047,
      "æĭ¿çĿĢ": 9048,
      "gebied": 9049,
      "alo": 9050,
      "Ġchief": 9051,
      "RY": 9052,
      "ä»Ģä¹Īäºĭ": 9053,
      "Ġbegrip": 9054,
      "çī©ä½ĵ": 9055,
      "å¤«äºº": 9056,
      "ĠIII": 9057,
      "çĮİ": 9058,
      "æĲŃ": 9059,
      "Ġcourt": 9060,
      "âĳł": 9061,
      "big": 9062,
      "loop": 9063,
      "ä»ĸåľ¨": 9064,
      "eget": 9065,
      "è¯ģæį®": 9066,
      "Ġamount": 9067,
      "lk": 9068,
      "Ãł": 9069,
      "itude": 9070,
      "Ġsharp": 9071,
      "ipl": 9072,
      "actie": 9073,
      "çĶ±äºİ": 9074,
      "ä¼¼çļĦ": 9075,
      "Ġåīį": 9076,
      "Ġthanks": 9077,
      "ilige": 9078,
      "ĠDick": 9079,
      "åīĳ": 9080,
      "Ġmann": 9081,
      "æİ¥çĿĢ": 9082,
      "Ġsimilar": 9083,
      "Ġkick": 9084,
      "Ġperiode": 9085,
      "çŃīçĿĢ": 9086,
      "èģļ": 9087,
      "Ġ2009": 9088,
      "éĨ": 9089,
      "ç»Ĩèĥŀ": 9090,
      "THE": 9091,
      "è®¯": 9092,
      "é²ģ": 9093,
      "Ġvertrekken": 9094,
      "ä¸ĭåĪĹ": 9095,
      "Ġprobeert": 9096,
      "è¶³çĲĥ": 9097,
      "æĮīçħ§": 9098,
      "Ġsteek": 9099,
      "Ġbouwen": 9100,
      "Ġgrew": 9101,
      "ĠBed": 9102,
      "ĠSen": 9103,
      "Ġbridge": 9104,
      "ĠStreet": 9105,
      "éļıä¾¿": 9106,
      "ä¸Ģå£°": 9107,
      "roat": 9108,
      "ĠBilly": 9109,
      "ç»©": 9110,
      "Ġnumbers": 9111,
      "é¡¹çĽ®": 9112,
      "Ġvoelde": 9113,
      "Ġeast": 9114,
      "æ±ł": 9115,
      "efore": 9116,
      "utely": 9117,
      "æĹ¶ä»£": 9118,
      "æī¾æĪĳ": 9119,
      "inderen": 9120,
      "jo": 9121,
      "wit": 9122,
      "hah": 9123,
      "ijen": 9124,
      "Ġnogal": 9125,
      "Ġshowed": 9126,
      "arrow": 9127,
      "Ġä½łçİ°åľ¨": 9128,
      "Ġnatural": 9129,
      "mag": 9130,
      "åħ¸": 9131,
      "Ġthee": 9132,
      "Ġnobody": 9133,
      "æĭ¾": 9134,
      "éķ¿å¾Ĺ": 9135,
      "Ġfinally": 9136,
      "ĠKies": 9137,
      "çº·": 9138,
      "Ġdogs": 9139,
      "Ġopa": 9140,
      "ç¡®å®ļ": 9141,
      "ĠArt": 9142,
      "Ġenergy": 9143,
      "Ġvlees": 9144,
      "ĠNick": 9145,
      "Ġbegra": 9146,
      "pose": 9147,
      "æī«": 9148,
      "ato": 9149,
      "Ġwaarmee": 9150,
      "Ġoverw": 9151,
      "Ġsurprise": 9152,
      "æī°": 9153,
      "Ġdonker": 9154,
      "æĵ¦": 9155,
      "Ġmult": 9156,
      "alf": 9157,
      "three": 9158,
      "istory": 9159,
      "çº³": 9160,
      "erie": 9161,
      "åĶ¯": 9162,
      "Ġeentje": 9163,
      "ijnt": 9164,
      "å¾Īæľī": 9165,
      "æ³¡": 9166,
      "Ġä¸įç®¡": 9167,
      "è¯ģæĺİ": 9168,
      "Ġsoldiers": 9169,
      "Ġnauw": 9170,
      "OK": 9171,
      "Ġterrible": 9172,
      "Ġtravel": 9173,
      "Ġspec": 9174,
      "looks": 9175,
      "kijken": 9176,
      "ç»ĻæĪĳä»¬": 9177,
      "Ġverantwoord": 9178,
      "Ġdirection": 9179,
      "çļĦæĪĳ": 9180,
      "These": 9181,
      "è´´": 9182,
      "Mrs": 9183,
      "Ġcrying": 9184,
      "groep": 9185,
      "Gen": 9186,
      "ä¸įå®¹æĺĵ": 9187,
      "å¼Łå¼Ł": 9188,
      "Had": 9189,
      "è²": 9190,
      "Soms": 9191,
      "Ġstier": 9192,
      "éĩįæĸ°": 9193,
      "Ġfavorite": 9194,
      "Ġtim": 9195,
      "wait": 9196,
      "æ»ĳ": 9197,
      "ĠPri": 9198,
      "å¦ĸ": 9199,
      "Ġsturen": 9200,
      "ĠParijs": 9201,
      "Ġvergelijking": 9202,
      "points": 9203,
      "has": 9204,
      "Ġoverheid": 9205,
      "Ġeggs": 9206,
      "èºº": 9207,
      "åĨįè¯´": 9208,
      "æĶ¾å¿ĥåĲ§": 9209,
      "hem": 9210,
      "eltjes": 9211,
      "Ġstarts": 9212,
      "Ġjoined": 9213,
      "Ġbreng": 9214,
      "æĦıæĢĿåķĬ": 9215,
      "ĠÉĻ": 9216,
      "åĪĨäº«": 9217,
      "astern": 9218,
      "Ġprotect": 9219,
      "æĹģè¾¹": 9220,
      "film": 9221,
      "Ġimmedi": 9222,
      "Toe": 9223,
      "Ġrisk": 9224,
      "vragen": 9225,
      "Ġplaced": 9226,
      "Ġpercent": 9227,
      "Ġmor": 9228,
      "çĲ´": 9229,
      "Ġvolgt": 9230,
      "Ġbeloof": 9231,
      "rees": 9232,
      "urdie": 9233,
      "Ġphot": 9234,
      "schuld": 9235,
      "Ġrepe": 9236,
      "Ġslight": 9237,
      "omething": 9238,
      "otion": 9239,
      "ĠDis": 9240,
      "ĠCoun": 9241,
      "inkrijk": 9242,
      "iano": 9243,
      "Ġbell": 9244,
      "æĬĬè¿Ļ": 9245,
      "ä»Ĺ": 9246,
      "å¸ģ": 9247,
      "åºŁ": 9248,
      "Ġmonkey": 9249,
      "wanna": 9250,
      "boden": 9251,
      "Ġtemperatuur": 9252,
      "åĩī": 9253,
      "Ġfright": 9254,
      "Ġconcent": 9255,
      "Ok": 9256,
      "ä¹Ķ": 9257,
      "Ġhelpt": 9258,
      "ashed": 9259,
      "ĠSarah": 9260,
      "elijks": 9261,
      "Ġpeace": 9262,
      "æĹ©ä¸Ĭ": 9263,
      "âĳ¡": 9264,
      "iana": 9265,
      "Ġtalked": 9266,
      "Ġstoffen": 9267,
      "å¾Ĵ": 9268,
      "tered": 9269,
      "æĪĳä»¬å°±": 9270,
      "non": 9271,
      "Ġherinn": 9272,
      "Ġbye": 9273,
      "Ġvul": 9274,
      "è¯´ä¸į": 9275,
      "Ġspent": 9276,
      "æīĢè°ĵ": 9277,
      "åĵªä¸ª": 9278,
      "Ġtie": 9279,
      "Ġmole": 9280,
      "uster": 9281,
      "upid": 9282,
      "Ġstrip": 9283,
      "prob": 9284,
      "åļ": 9285,
      "Ġåħ¨": 9286,
      "utie": 9287,
      "åĪ·": 9288,
      "éĻĦ": 9289,
      "èĦ¾": 9290,
      "Give": 9291,
      "Ġbud": 9292,
      "éĤ£æł·": 9293,
      "ĠCharlie": 9294,
      "çļĦæĥħåĨµ": 9295,
      "etch": 9296,
      "Ġei": 9297,
      "Ġsevent": 9298,
      "ĠGeneral": 9299,
      "aped": 9300,
      "Ġserved": 9301,
      "Ġloved": 9302,
      "è¿ĺæ²¡æľī": 9303,
      "coh": 9304,
      "åĵİåĳĢ": 9305,
      "Ġåį´": 9306,
      "asing": 9307,
      "Ġrub": 9308,
      "...?": 9309,
      "Ġschieten": 9310,
      "Ġspeciale": 9311,
      "boy": 9312,
      "Ġgift": 9313,
      "èĩªçĶ±": 9314,
      "Hebben": 9315,
      "lseryl": 9316,
      "Ġrich": 9317,
      "è¾Ĩ": 9318,
      "Ġdemon": 9319,
      "è¦ģåİ»": 9320,
      "Ġå¯¹ä¸įèµ·": 9321,
      "åı¸ä»¤": 9322,
      "dog": 9323,
      "Ġstam": 9324,
      "Ġrose": 9325,
      "Ġsituation": 9326,
      "ĠåħĪ": 9327,
      "ç¬¬ä¸ī": 9328,
      "Ġcolle": 9329,
      "æĬķèµĦ": 9330,
      "Ġelephant": 9331,
      "Ġplastic": 9332,
      "izza": 9333,
      "åıįåºĶ": 9334,
      "éĢŁåº¦": 9335,
      "èĪĴæľį": 9336,
      "Ġlower": 9337,
      "aded": 9338,
      "æ¬ł": 9339,
      "å§»": 9340,
      "Ġpolitician": 9341,
      "vall": 9342,
      "ĠåĶ": 9343,
      "Ġallerlei": 9344,
      "Sam": 9345,
      "Ġterms": 9346,
      "ç³»ç»Ł": 9347,
      "Ġlees": 9348,
      "Ġziens": 9349,
      "éĶħ": 9350,
      "wed": 9351,
      "Ġanx": 9352,
      "åįģäºĶ": 9353,
      "Ġmedicine": 9354,
      "face": 9355,
      "rucht": 9356,
      "æŀĿ": 9357,
      "ias": 9358,
      "å®½": 9359,
      "Ġrespons": 9360,
      "nod": 9361,
      "Ġsize": 9362,
      "umenten": 9363,
      "åħ¬åŃĲ": 9364,
      "jaard": 9365,
      "Ġdocument": 9366,
      "ipper": 9367,
      "Ġshows": 9368,
      "Tell": 9369,
      "Ġ$$\\": 9370,
      "ushing": 9371,
      "izes": 9372,
      "ä»į": 9373,
      "olden": 9374,
      "Ġaffect": 9375,
      "ĠWho": 9376,
      "bere": 9377,
      "inct": 9378,
      "éĤ£æĪĳ": 9379,
      "å¹´åīį": 9380,
      "Ġaction": 9381,
      "anken": 9382,
      "kennen": 9383,
      "Ġcommunic": 9384,
      "book": 9385,
      "æīĶ": 9386,
      "å¯¹äºĨ": 9387,
      "å¹²åĺĽ": 9388,
      "Ġå¿ĥ": 9389,
      "Ġsleeping": 9390,
      "Geweld": 9391,
      "wise": 9392,
      "orde": 9393,
      "Ġsoci": 9394,
      "Ġvorige": 9395,
      "Mommy": 9396,
      "turn": 9397,
      "äº§åĵģ": 9398,
      "others": 9399,
      "chan": 9400,
      "Ġleek": 9401,
      "è®¿": 9402,
      "Ġscared": 9403,
      "ĠCalifornia": 9404,
      "ĠRusland": 9405,
      "Ġä¹Łæĺ¯": 9406,
      "anje": 9407,
      "Ġforty": 9408,
      "outs": 9409,
      "Ġcloud": 9410,
      "æĸ¹ä¾¿": 9411,
      "Ġcorrect": 9412,
      "ĠMed": 9413,
      "Ġmening": 9414,
      "è¿Ļä¹Īè¯´": 9415,
      "Ġeindelijk": 9416,
      "ĠSmith": 9417,
      "bren": 9418,
      "Ġbill": 9419,
      "Ġleeg": 9420,
      "å·Ŀ": 9421,
      "Ġgesloten": 9422,
      "kort": 9423,
      "lant": 9424,
      "Ġmaster": 9425,
      "Ġnone": 9426,
      "ĠWanneer": 9427,
      "Ġsmile": 9428,
      "Ġgesprek": 9429,
      "kin": 9430,
      "Ġbracht": 9431,
      "Ġraken": 9432,
      "éĹ²": 9433,
      "Ġelektr": 9434,
      "cohol": 9435,
      "Ġworse": 9436,
      "ä¸ĭéĿ¢": 9437,
      "å¦Ļ": 9438,
      "ography": 9439,
      "wing": 9440,
      "wagen": 9441,
      "Ġsell": 9442,
      "Ġzand": 9443,
      "Ġdans": 9444,
      "Ġå·²ç»ı": 9445,
      "spr": 9446,
      "Ġlength": 9447,
      "Ġcru": 9448,
      "ĠST": 9449,
      "èµĶ": 9450,
      "âĳ¢": 9451,
      "ares": 9452,
      "Ġä»ĸè¯´": 9453,
      "Ġgemeen": 9454,
      "Ġ~": 9455,
      "Ġvoetbal": 9456,
      "éĢĶ": 9457,
      "fin": 9458,
      "licht": 9459,
      "Ġcivil": 9460,
      "Ġgras": 9461,
      "æľĢå¥½çļĦ": 9462,
      "ĠPortug": 9463,
      "rik": 9464,
      "wil": 9465,
      "Ġcrew": 9466,
      "ĠZet": 9467,
      "ĠYour": 9468,
      "çŀİ": 9469,
      "Ġcollect": 9470,
      "hood": 9471,
      "indt": 9472,
      "watch": 9473,
      "Ġwheel": 9474,
      "Ġlearned": 9475,
      "ĠArab": 9476,
      "ĠBig": 9477,
      "ĠâĮ": 9478,
      "çĶŁçī©": 9479,
      "éĺ»": 9480,
      "Ġfighting": 9481,
      "Ġlijken": 9482,
      "åĿĲåľ¨": 9483,
      "Ġnature": 9484,
      "æĹ¦": 9485,
      "Ġsmart": 9486,
      "Mensen": 9487,
      "ĠAss": 9488,
      "Ġespecially": 9489,
      "ternational": 9490,
      "ç§ĺå¯Ĩ": 9491,
      "Papa": 9492,
      "ä½łæľī": 9493,
      "ĠKun": 9494,
      "Ġgered": 9495,
      "çĮ´åŃĲ": 9496,
      "ä¸įä»ħ": 9497,
      "çĶŁäº§": 9498,
      "Ġspeed": 9499,
      "é¾Ħ": 9500,
      "meester": 9501,
      "Ġappl": 9502,
      "Ġglas": 9503,
      "Ph": 9504,
      "raÃ¯": 9505,
      "æĬĬè¿Ļä¸ª": 9506,
      "æ·¡": 9507,
      "ios": 9508,
      "Ġax": 9509,
      "orence": 9510,
      "Ġformed": 9511,
      "Ġorders": 9512,
      "Ġgods": 9513,
      "ä½łèĥ½": 9514,
      "ĠHit": 9515,
      "æĤĶ": 9516,
      "AAR": 9517,
      "å®ĩ": 9518,
      "æĶ¾å¼ĥ": 9519,
      "ä¸ºä»Ģä¹Īè¦ģ": 9520,
      "Ġkorte": 9521,
      "uen": 9522,
      "ĠHere": 9523,
      "Ġleiden": 9524,
      "Ġfinal": 9525,
      "åĨħå®¹": 9526,
      "Ġlikely": 9527,
      "erc": 9528,
      "Ġgete": 9529,
      "å±ģ": 9530,
      "iant": 9531,
      "æľ«": 9532,
      "åĿĩ": 9533,
      "ç¬¬ä¸Ģä¸ª": 9534,
      "çļĦå¥½": 9535,
      "ä¸įæĩĤ": 9536,
      "æ²¡ä»Ģä¹Ī": 9537,
      "ĠWhite": 9538,
      "Ġstraw": 9539,
      "Ã¨re": 9540,
      "wich": 9541,
      "ĠAre": 9542,
      "Ġinterview": 9543,
      "Ġgebouwd": 9544,
      "ije": 9545,
      "rein": 9546,
      "abl": 9547,
      "éĥİ": 9548,
      "iles": 9549,
      "Ã«l": 9550,
      "Ġprotest": 9551,
      "ĠEllen": 9552,
      "ĠçĶ¨": 9553,
      "æĭĸ": 9554,
      "keur": 9555,
      "Ġfeit": 9556,
      "Ġbewegen": 9557,
      "ĠBru": 9558,
      "Ġ2006": 9559,
      "ĠCharles": 9560,
      "Mo": 9561,
      "éĺ´": 9562,
      "Ġcorner": 9563,
      "]!": 9564,
      "ä¸įåİ»": 9565,
      "ning": 9566,
      "å°ıåŃĲ": 9567,
      "ournal": 9568,
      "yr": 9569,
      "éĤ£å¤©": 9570,
      "Ġfunctie": 9571,
      "Ġkregen": 9572,
      "ĠRichard": 9573,
      "Ġdeter": 9574,
      "ä¼į": 9575,
      "oede": 9576,
      "âĳ£": 9577,
      "éĵ¶è¡Į": 9578,
      "Ġap": 9579,
      "éĢĴ": 9580,
      "vang": 9581,
      "Ġkilometer": 9582,
      "tog": 9583,
      "Ġtour": 9584,
      "å¯¹ä¸įå¯¹": 9585,
      "Goedem": 9586,
      "ledge": 9587,
      "Ġcaused": 9588,
      "ieu": 9589,
      "è®©æĪĳä»¬": 9590,
      "åĲ¬è§ģ": 9591,
      "ĠOpdracht": 9592,
      "ĠåĿ": 9593,
      "ĠCome": 9594,
      "Two": 9595,
      "asons": 9596,
      "Ġä½łä¹Ł": 9597,
      "å®ŀéªĮ": 9598,
      "Ġsimply": 9599,
      "Ġkrant": 9600,
      "Ġpromise": 9601,
      "Ġoom": 9602,
      "Ġleader": 9603,
      "ĠEngels": 9604,
      "ä¹łæĥ¯": 9605,
      "Haar": 9606,
      "Ġgather": 9607,
      "Ġvet": 9608,
      "erend": 9609,
      "imm": 9610,
      "ops": 9611,
      "ukkig": 9612,
      "isy": 9613,
      "ughing": 9614,
      "Ġlargest": 9615,
      "ularly": 9616,
      "èµ°èµ°": 9617,
      "æĦıè§ģ": 9618,
      "ĠMother": 9619,
      "ç©·": 9620,
      "è§Ĥå¯Ł": 9621,
      "åºĵ": 9622,
      "tend": 9623,
      "Ġsaf": 9624,
      "åĽ½éĻħ": 9625,
      "vies": 9626,
      "worth": 9627,
      "Ġjum": 9628,
      "Ġtoil": 9629,
      "eman": 9630,
      "Ġprim": 9631,
      "Ġsilver": 9632,
      "èª": 9633,
      "ĠæĪĳæĪĳ": 9634,
      "berry": 9635,
      "Ġfool": 9636,
      "Ġ2007": 9637,
      "ç¦ģ": 9638,
      "åĳĲ": 9639,
      "æĤ£": 9640,
      "Ġsimple": 9641,
      "gave": 9642,
      "issing": 9643,
      "Ġgroeien": 9644,
      "ka": 9645,
      "äºĨåĳ¢": 9646,
      "å°¼": 9647,
      "Ġfeed": 9648,
      "æĽ´åĬł": 9649,
      "Ġouder": 9650,
      "Ġcust": 9651,
      "Ġalarm": 9652,
      "ĠWhere": 9653,
      "eloos": 9654,
      "minste": 9655,
      "éĢĤåĲĪ": 9656,
      "æĺ¯çļĦ": 9657,
      "ĠVolgens": 9658,
      ".,": 9659,
      "aspart": 9660,
      "gebracht": 9661,
      "Ġaff": 9662,
      "Ġbigger": 9663,
      "Jim": 9664,
      "ĠBro": 9665,
      "å¾Īéļ¾": 9666,
      "çŁ¥è¯Ĩ": 9667,
      "these": 9668,
      "Ġbereiken": 9669,
      "Ġpossib": 9670,
      "Ġduty": 9671,
      "æ±½è½¦": 9672,
      "Ġindivid": 9673,
      "Ġhoeveelheid": 9674,
      "Ġbound": 9675,
      "æľķ": 9676,
      "oved": 9677,
      "ĠNiet": 9678,
      "ä¸ĬçıŃ": 9679,
      "ä»¥åıĬ": 9680,
      "Ġbeyond": 9681,
      "å°±æ²¡æľī": 9682,
      "éģŃ": 9683,
      "Ġsneller": 9684,
      "çĶ·åŃ©": 9685,
      "Ġklootzak": 9686,
      "nog": 9687,
      "ç»Ļå¥¹": 9688,
      "è§Ĥä¼Ĺ": 9689,
      "ielen": 9690,
      "ĠSus": 9691,
      "æ¶Ĥ": 9692,
      "æħ§": 9693,
      "æıĲä¾Ľ": 9694,
      "æĺİçĻ½äºĨ": 9695,
      "åŁ¹": 9696,
      "wijzen": 9697,
      "OW": 9698,
      "Ġstone": 9699,
      "isa": 9700,
      "åīįéĿ¢": 9701,
[...]
