{
  "version": "1.0",
  "truncation": null,
  "padding": null,
  "added_tokens": [
    {
      "id": 0,
      "content": "<unk>",
      "single_word": false,
      "lstrip": false,
      "rstrip": false,
      "normalized": false,
      "special": true
    },
    {
      "id": 1,
      "content": "<s>",
      "single_word": false,
      "lstrip": false,
      "rstrip": false,
      "normalized": false,
      "special": true
    },
    {
      "id": 2,
      "content": "</s>",
      "single_word": false,
      "lstrip": false,
      "rstrip": false,
      "normalized": false,
      "special": true
    },
    {
      "id": 3,
      "content": "<pad>",
      "single_word": false,
      "lstrip": false,
      "rstrip": false,
      "normalized": false,
      "special": true
    },
    {
      "id": 4,
      "content": "<mask>",
      "single_word": false,
      "lstrip": false,
      "rstrip": false,
      "normalized": false,
      "special": true
    },
    {
      "id": 5,
      "content": "，",
      "single_word": false,
      "lstrip": false,
      "rstrip": false,
      "normalized": false,
      "special": true
    },
    {
      "id": 6,
      "content": "。",
      "single_word": false,
      "lstrip": false,
      "rstrip": false,
      "normalized": false,
      "special": true
    },
    {
      "id": 7,
      "content": "、",
      "single_word": false,
      "lstrip": false,
      "rstrip": false,
      "normalized": false,
      "special": true
    },
    {
      "id": 8,
      "content": "！",
      "single_word": false,
      "lstrip": false,
      "rstrip": false,
      "normalized": false,
      "special": true
    },
    {
      "id": 9,
      "content": "？",
      "single_word": false,
      "lstrip": false,
      "rstrip": false,
      "normalized": false,
      "special": true
    },
    {
      "id": 10,
      "content": "：",
      "single_word": false,
      "lstrip": false,
      "rstrip": false,
      "normalized": false,
      "special": true
    },
    {
      "id": 11,
      "content": "；",
      "single_word": false,
      "lstrip": false,
      "rstrip": false,
      "normalized": false,
      "special": true
    },
    {
      "id": 12,
      "content": "「",
      "single_word": false,
      "lstrip": false,
      "rstrip": false,
      "normalized": false,
      "special": true
    },
    {
      "id": 13,
      "content": "」",
      "single_word": false,
      "lstrip": false,
      "rstrip": false,
      "normalized": false,
      "special": true
    },
    {
      "id": 14,
      "content": "（",
      "single_word": false,
      "lstrip": false,
      "rstrip": false,
      "normalized": false,
      "special": true
    },
    {
      "id": 15,
      "content": "）",
      "single_word": false,
      "lstrip": false,
      "rstrip": false,
      "normalized": false,
      "special": true
    },
    {
      "id": 16,
      "content": "《",
      "single_word": false,
      "lstrip": false,
      "rstrip": false,
      "normalized": false,
      "special": true
    },
    {
      "id": 17,
      "content": "》",
      "single_word": false,
      "lstrip": false,
      "rstrip": false,
      "normalized": false,
      "special": true
    },
    {
      "id": 18,
      "content": "【",
      "single_word": false,
      "lstrip": false,
      "rstrip": false,
      "normalized": false,
      "special": true
    },
    {
      "id": 19,
      "content": "】",
      "single_word": false,
      "lstrip": false,
      "rstrip": false,
      "normalized": false,
      "special": true
    }
  ],
  "normalizer": null,
  "pre_tokenizer": {
    "type": "ByteLevel",
    "add_prefix_space": false,
    "trim_offsets": true,
    "use_regex": true
  },
  "post_processor": {
    "type": "ByteLevel",
    "add_prefix_space": true,
    "trim_offsets": false,
    "use_regex": true
  },
  "decoder": {
    "type": "ByteLevel",
    "add_prefix_space": true,
    "trim_offsets": true,
    "use_regex": true
  },
  "model": {
    "type": "BPE",
    "dropout": null,
    "unk_token": null,
    "continuing_subword_prefix": null,
    "end_of_word_suffix": null,
    "fuse_unk": false,
    "byte_fallback": false,
    "ignore_merges": false,
    "vocab": {
      "<unk>": 0,
      "<s>": 1,
      "</s>": 2,
      "<pad>": 3,
      "<mask>": 4,
      "，": 5,
      "。": 6,
      "、": 7,
      "！": 8,
      "？": 9,
      "：": 10,
      "；": 11,
      "「": 12,
      "」": 13,
      "（": 14,
      "）": 15,
      "《": 16,
      "》": 17,
      "【": 18,
      "】": 19,
      "!": 20,
      "\"": 21,
      "#": 22,
      "$": 23,
      "%": 24,
      "&": 25,
      "'": 26,
      "(": 27,
      ")": 28,
      "*": 29,
      "+": 30,
      ",": 31,
      "-": 32,
      ".": 33,
      "/": 34,
      "0": 35,
      "1": 36,
      "2": 37,
      "3": 38,
      "4": 39,
      "5": 40,
      "6": 41,
      "7": 42,
      "8": 43,
      "9": 44,
      ":": 45,
      ";": 46,
      "<": 47,
      "=": 48,
      ">": 49,
      "?": 50,
      "@": 51,
      "A": 52,
      "B": 53,
      "C": 54,
      "D": 55,
      "E": 56,
      "F": 57,
      "G": 58,
      "H": 59,
      "I": 60,
      "J": 61,
      "K": 62,
      "L": 63,
      "M": 64,
      "N": 65,
      "O": 66,
      "P": 67,
      "Q": 68,
      "R": 69,
      "S": 70,
      "T": 71,
      "U": 72,
      "V": 73,
      "W": 74,
      "X": 75,
      "Y": 76,
      "Z": 77,
      "[": 78,
      "\\": 79,
      "]": 80,
      "^": 81,
      "_": 82,
      "`": 83,
      "a": 84,
      "b": 85,
      "c": 86,
      "d": 87,
      "e": 88,
      "f": 89,
      "g": 90,
      "h": 91,
      "i": 92,
      "j": 93,
      "k": 94,
      "l": 95,
      "m": 96,
      "n": 97,
      "o": 98,
      "p": 99,
      "q": 100,
      "r": 101,
      "s": 102,
      "t": 103,
      "u": 104,
      "v": 105,
      "w": 106,
      "x": 107,
      "y": 108,
      "z": 109,
      "{": 110,
      "|": 111,
      "}": 112,
      "~": 113,
      "¡": 114,
      "¢": 115,
      "£": 116,
      "¤": 117,
      "¥": 118,
      "¦": 119,
      "§": 120,
      "¨": 121,
      "©": 122,
      "ª": 123,
      "«": 124,
      "¬": 125,
      "®": 126,
      "¯": 127,
      "°": 128,
      "±": 129,
      "²": 130,
      "³": 131,
      "´": 132,
      "µ": 133,
      "¶": 134,
      "·": 135,
      "¸": 136,
      "¹": 137,
      "º": 138,
      "»": 139,
      "¼": 140,
      "½": 141,
      "¾": 142,
      "¿": 143,
      "À": 144,
      "Á": 145,
      "Â": 146,
      "Ã": 147,
      "Ä": 148,
      "Å": 149,
      "Æ": 150,
      "Ç": 151,
      "È": 152,
      "É": 153,
      "Ê": 154,
      "Ë": 155,
      "Ì": 156,
      "Í": 157,
      "Î": 158,
      "Ï": 159,
      "Ð": 160,
      "Ñ": 161,
      "Ò": 162,
      "Ó": 163,
      "Ô": 164,
      "Õ": 165,
      "Ö": 166,
      "×": 167,
      "Ø": 168,
      "Ù": 169,
      "Ú": 170,
      "Û": 171,
      "Ü": 172,
      "Ý": 173,
      "Þ": 174,
      "ß": 175,
      "à": 176,
      "á": 177,
      "â": 178,
      "ã": 179,
      "ä": 180,
      "å": 181,
      "æ": 182,
      "ç": 183,
      "è": 184,
      "é": 185,
      "ê": 186,
      "ë": 187,
      "ì": 188,
      "í": 189,
      "î": 190,
      "ï": 191,
      "ð": 192,
      "ñ": 193,
      "ò": 194,
      "ó": 195,
      "ô": 196,
      "õ": 197,
      "ö": 198,
      "÷": 199,
      "ø": 200,
      "ù": 201,
      "ú": 202,
      "û": 203,
      "ü": 204,
      "ý": 205,
      "þ": 206,
      "ÿ": 207,
      "Ā": 208,
      "ā": 209,
      "Ă": 210,
      "ă": 211,
      "Ą": 212,
      "ą": 213,
      "Ć": 214,
      "ć": 215,
      "Ĉ": 216,
      "ĉ": 217,
      "Ċ": 218,
      "ċ": 219,
      "Č": 220,
      "č": 221,
      "Ď": 222,
      "ď": 223,
      "Đ": 224,
      "đ": 225,
      "Ē": 226,
      "ē": 227,
      "Ĕ": 228,
      "ĕ": 229,
      "Ė": 230,
      "ė": 231,
      "Ę": 232,
      "ę": 233,
      "Ě": 234,
      "ě": 235,
      "Ĝ": 236,
      "ĝ": 237,
      "Ğ": 238,
      "ğ": 239,
      "Ġ": 240,
      "ġ": 241,
      "Ģ": 242,
      "ģ": 243,
      "Ĥ": 244,
      "ĥ": 245,
      "Ħ": 246,
      "ħ": 247,
      "Ĩ": 248,
      "ĩ": 249,
      "Ī": 250,
      "ī": 251,
      "Ĭ": 252,
      "ĭ": 253,
      "Į": 254,
      "į": 255,
      "İ": 256,
      "ı": 257,
      "Ĳ": 258,
      "ĳ": 259,
      "Ĵ": 260,
      "ĵ": 261,
      "Ķ": 262,
      "ķ": 263,
      "ĸ": 264,
      "Ĺ": 265,
      "ĺ": 266,
      "Ļ": 267,
      "ļ": 268,
      "Ľ": 269,
      "ľ": 270,
      "Ŀ": 271,
      "ŀ": 272,
      "Ł": 273,
      "ł": 274,
      "Ń": 275,
      "en": 276,
      "er": 277,
      "Ġt": 278,
      "an": 279,
      "he": 280,
      "in": 281,
      "Ġd": 282,
      "Ġw": 283,
      "at": 284,
      "Ġo": 285,
      "Ġ.": 286,
      "Ġs": 287,
      "Ġa": 288,
      "Ġm": 289,
      "Ġb": 290,
      "ä¸": 291,
      "is": 292,
      "ou": 293,
      "et": 294,
      "ar": 295,
      "or": 296,
      "Ġg": 297,
      "Ġh": 298,
      "el": 299,
      "Ġv": 300,
      "it": 301,
      "ij": 302,
      "Ġn": 303,
      "Ġthe": 304,
      "on": 305,
      "es": 306,
      "ed": 307,
      "Ġhe": 308,
      "ing": 309,
      "and": 310,
      "äº": 311,
      "Ġde": 312,
      "ch": 313,
      "Ġz": 314,
      "Ġl": 315,
      "Ġp": 316,
      "Ġe": 317,
      "Ġin": 318,
      "al": 319,
      "çļ": 320,
      "çļĦ": 321,
      "Ġj": 322,
      "Ġc": 323,
      "re": 324,
      "Ġf": 325,
      "Ġk": 326,
      "Ġth": 327,
      "as": 328,
      "om": 329,
      "Ġto": 330,
      "ie": 331,
      "ä»": 332,
      "æĪ": 333,
      "OT": 334,
      "MOT": 335,
      "aar": 336,
      "Ġis": 337,
      "CH": 338,
      "ä½": 339,
      "CHI": 340,
      "Ġy": 341,
      "è¿": 342,
      "æĪĳ": 343,
      "ll": 344,
      "æĺ": 345,
      "Ġ,": 346,
      "Ġof": 347,
      "Ġyou": 348,
      "st": 349,
      "Ġand": 350,
      "ot": 351,
      "ig": 352,
      "æĺ¯": 353,
      "Ġje": 354,
      "Ġon": 355,
      "ik": 356,
      "Ġeen": 357,
      "ä½ł": 358,
      "Ġhet": 359,
      "oor": 360,
      "le": 361,
      "ĠI": 362,
      "äºĨ": 363,
      "oo": 364,
      "å¤": 365,
      "ad": 366,
      "id": 367,
      "æľ": 368,
      "Ġu": 369,
      "ä¹": 370,
      "åĲ": 371,
      "ere": 372,
      "ow": 373,
      "åı": 374,
      "å°": 375,
      "'s": 376,
      "Ġ?": 377,
      "Ġvan": 378,
      "Ġbe": 379,
      "iet": 380,
      "Ġen": 381,
      "Ġr": 382,
      "ä¸į": 383,
      "..": 384,
      "am": 385,
      "ä¸Ģ": 386,
      "Ġst": 387,
      "ut": 388,
      "Ġge": 389,
      "ur": 390,
      "ak": 391,
      "Ġme": 392,
      "Ġit": 393,
      "ve": 394,
      "Ġwe": 395,
      "il": 396,
      "ent": 397,
      "ay": 398,
      "è¯": 399,
      "ic": 400,
      "ver": 401,
      "è¿Ļ": 402,
      "Ġwas": 403,
      "ijn": 404,
      "å®": 405,
      "åľ": 406,
      "ro": 407,
      "åĪ": 408,
      "ag": 409,
      "Ġver": 410,
      "Ġop": 411,
      "cht": 412,
      "Ġdat": 413,
      "ee": 414,
      "Ġniet": 415,
      "Ġthat": 416,
      "å¥": 417,
      "Ġwh": 418,
      "im": 419,
      "åħ": 420,
      "Ġdo": 421,
      "ĠS": 422,
      "de": 423,
      "un": 424,
      "Ik": 425,
      "se": 426,
      "Ġte": 427,
      "ä¸ª": 428,
      "ĠM": 429,
      "ol": 430,
      "æĿ": 431,
      "Ġik": 432,
      "den": 433,
      "ĠA": 434,
      "ĠD": 435,
      "ra": 436,
      "æľī": 437,
      "th": 438,
      "est": 439,
      "gen": 440,
      "ĠT": 441,
      "å°±": 442,
      "Ġal": 443,
      "oe": 444,
      "ãĢ": 445,
      "ĠH": 446,
      "der": 447,
      "Ġ'": 448,
      "ir": 449,
      "ijk": 450,
      "åĳ": 451,
      "Ġer": 452,
      "'t": 453,
      "ion": 454,
      "ĠB": 455,
      "åŃ": 456,
      "ant": 457,
      "åľ¨": 458,
      "ãĢĤ": 459,
      "ĥ½": 460,
      "ct": 461,
      "ç»": 462,
      "ly": 463,
      "å¾": 464,
      "åķ": 465,
      "ft": 466,
      "ä»ĸ": 467,
      "Ġvoor": 468,
      "op": 469,
      "ers": 470,
      "ä»¬": 471,
      "us": 472,
      "Ġre": 473,
      "ven": 474,
      "æī": 475,
      "Ġgo": 476,
      "ap": 477,
      "ht": 478,
      "Ġze": 479,
      "Ġfor": 480,
      "ĠC": 481,
      "äºº": 482,
      "ä¹Ī": 483,
      "Ġzijn": 484,
      "æĿ¥": 485,
      "ell": 486,
      "ĠæĪĳ": 487,
      "Ġmo": 488,
      "Ġ1": 489,
      "è¯´": 490,
      "åĽ": 491,
      "æĹ": 492,
      "Ġmet": 493,
      "çľ": 494,
      "çĶ": 495,
      "Ġheb": 496,
      "ill": 497,
      "ken": 498,
      "ier": 499,
      "ld": 500,
      "Ġ...": 501,
      "åķĬ": 502,
      "éĤ": 503,
      "ith": 504,
      "Ġall": 505,
      "ce": 506,
      "ge": 507,
      "ck": 508,
      "éĤ£": 509,
      "aat": 510,
      "Ġå": 511,
      "Ġno": 512,
      "ä¼": 513,
      "Ġha": 514,
      "ist": 515,
      "å¥½": 516,
      "ight": 517,
      "Ġwor": 518,
      "um": 519,
      "ĠW": 520,
      "ok": 521,
      "Ġan": 522,
      "ome": 523,
      "Ġwith": 524,
      "ien": 525,
      "æĢ": 526,
      "Ġdie": 527,
      "æ²": 528,
      "åİ": 529,
      "ĠP": 530,
      "Ġä½ł": 531,
      "Ġ\"": 532,
      "æĥ": 533,
      "Ġle": 534,
      "¦ģ": 535,
      "Ġaan": 536,
      "è¦ģ": 537,
      "ĠE": 538,
      "hat": 539,
      "aan": 540,
      "èµ": 541,
      "em": 542,
      "ĠN": 543,
      "xx": 544,
      "ah": 545,
      "ĠG": 546,
      "Ġas": 547,
      "éĩ": 548,
      "all": 549,
      "ust": 550,
      "åĬ": 551,
      "è®": 552,
      "åį": 553,
      "nd": 554,
      "if": 555,
      "Ġover": 556,
      "ul": 557,
      "Ġsp": 558,
      "ze": 559,
      "å¤§": 560,
      "Ġwat": 561,
      "ind": 562,
      "å¿": 563,
      "åĩ": 564,
      "Ġhad": 565,
      "Ġat": 566,
      "Ġ2": 567,
      "åĪ°": 568,
      "je": 569,
      "Ġnot": 570,
      "åŃĲ": 571,
      "è§": 572,
      "èĢ": 573,
      "Ġuit": 574,
      "Ġkn": 575,
      "Ġom": 576,
      "ä¸Ĭ": 577,
      "ĠJ": 578,
      "ĠR": 579,
      "ast": 580,
      "Ġals": 581,
      "çİ": 582,
      "ĠL": 583,
      "å·": 584,
      "ook": 585,
      "æ²¡": 586,
      "å¹": 587,
      "æĬ": 588,
      "eer": 589,
      "eld": 590,
      "Ġthis": 591,
      "Ġpl": 592,
      "Ġhave": 593,
      "ug": 594,
      "ould": 595,
      "å¼": 596,
      "å¸": 597,
      "art": 598,
      "ä¹Ł": 599,
      "åĨ": 600,
      "AT": 601,
      "...": 602,
      "éĥ½": 603,
      "IN": 604,
      "ter": 605,
      "å¯": 606,
      "Ġare": 607,
      "ĠO": 608,
      "ood": 609,
      "Ġzo": 610,
      "è¿ĺ": 611,
      "ĠF": 612,
      "Ġsh": 613,
      "ab": 614,
      "Ġfr": 615,
      "åİ»": 616,
      "çľĭ": 617,
      "ess": 618,
      "rou": 619,
      "os": 620,
      "Ħ¿": 621,
      "æĸ": 622,
      "åĵ": 623,
      "å¾Ĺ": 624,
      "ang": 625,
      "Ġne": 626,
      "Ġ(": 627,
      "å°ı": 628,
      "Ġher": 629,
      "Ġmaar": 630,
      "AR": 631,
      "eah": 632,
      "ri": 633,
      "èĥ½": 634,
      "We": 635,
      "è·": 636,
      "Ġnaar": 637,
      "æł": 638,
      "nen": 639,
      "éĹ": 640,
      "we": 641,
      "æĹ¶": 642,
      "åı¯": 643,
      "INV": 644,
      "Ġhis": 645,
      "ä¼ļ": 646,
      "ond": 647,
      "Ġcan": 648,
      "Ġone": 649,
      "ä¸º": 650,
      "ink": 651,
      "Ġup": 652,
      "Ġthey": 653,
      "Ġknow": 654,
      "æŃ": 655,
      "te": 656,
      "ru": 657,
      "åĦ¿": 658,
      "ard": 659,
      "ike": 660,
      "ens": 661,
      "ain": 662,
      "Ġdan": 663,
      "Ġbl": 664,
      "çĿ": 665,
      "out": 666,
      "be": 667,
      "Ġthere": 668,
      "rij": 669,
      "Ġ!": 670,
      "aal": 671,
      "her": 672,
      "Ġdon": 673,
      "ĠK": 674,
      "Het": 675,
      "Ġmoet": 676,
      "ä»¥": 677,
      "Ġman": 678,
      "Ġyour": 679,
      "ich": 680,
      "å¤©": 681,
      "Ġshe": 682,
      "å¦": 683,
      "ä»Ģ": 684,
      "ry": 685,
      "elijk": 686,
      "åĴ": 687,
      "Ġsch": 688,
      "Ġor": 689,
      "ä»Ģä¹Ī": 690,
      "å®¶": 691,
      "åĲİ": 692,
      "Je": 693,
      "ä¸ĭ": 694,
      "ation": 695,
      "Ġpro": 696,
      "Ġ-": 697,
      "Ġch": 698,
      "Ġwhat": 699,
      "è¿ĩ": 700,
      "éĿ": 701,
      "ten": 702,
      "Ġben": 703,
      "èĩ": 704,
      "ET": 705,
      "ĠV": 706,
      "Ġwer": 707,
      "oh": 708,
      "Ġhij": 709,
      "åĳ¢": 710,
      "éģ": 711,
      "çĪ": 712,
      "ies": 713,
      "æĥ³": 714,
      "ore": 715,
      "ong": 716,
      "Ġso": 717,
      "éĢ": 718,
      "che": 719,
      "åº": 720,
      "ank": 721,
      "LD": 722,
      "è¡": 723,
      "ĠThe": 724,
      "Ġget": 725,
      "ull": 726,
      "Ġsa": 727,
      "Ġbij": 728,
      "Ġwel": 729,
      "eel": 730,
      "çĽ": 731,
      "pen": 732,
      "Ġmy": 733,
      "ä¸Ģä¸ª": 734,
      "een": 735,
      "äºĭ": 736,
      "çĿĢ": 737,
      "CHILD": 738,
      "ake": 739,
      "ĠDe": 740,
      "ack": 741,
      "You": 742,
      "TAR": 743,
      "GET": 744,
      "Ġlike": 745,
      "TARGET": 746,
      "Ã©": 747,
      "00": 748,
      "Ġtw": 749,
      "na": 750,
      "ine": 751,
      "Ġkan": 752,
      "Ġout": 753,
      "Ġab": 754,
      "è¿Ļä¸ª": 755,
      "Ġook": 756,
      "eft": 757,
      "éĩĮ": 758,
      "æķ": 759,
      "Ġwil": 760,
      "å¯¹": 761,
      "De": 762,
      "ip": 763,
      "Ġwaar": 764,
      "æ¯": 765,
      "Wat": 766,
      "Ġpr": 767,
      "æĦ": 768,
      "Ġdoor": 769,
      "åĲĹ": 770,
      "æĭ": 771,
      "no": 772,
      "Ġfrom": 773,
      "å¤ļ": 774,
      "ber": 775,
      "aak": 776,
      "Ġaf": 777,
      "qu": 778,
      "acht": 779,
      "Ġnog": 780,
      "'re": 781,
      "åĩº": 782,
      "Ġcom": 783,
      "FAT": 784,
      "The": 785,
      "è°": 786,
      "å½": 787,
      "åĲ§": 788,
      "Ġcon": 789,
      "ame": 790,
      "elf": 791,
      "çī": 792,
      "ER": 793,
      "çŁ": 794,
      "sch": 795,
      "og": 796,
      "ep": 797,
      "Ġsu": 798,
      "ort": 799,
      "Ġhier": 800,
      "ç»Ļ": 801,
      "you": 802,
      "å°±æĺ¯": 803,
      "Ġbo": 804,
      "Ġhim": 805,
      "Ġex": 806,
      "Ze": 807,
      "æ°": 808,
      "Ġbut": 809,
      "Ġkun": 810,
      "one": 811,
      "what": 812,
      "Ġby": 813,
      "ben": 814,
      "xxx": 815,
      "ide": 816,
      "åľ°": 817,
      "au": 818,
      "ç§": 819,
      "eren": 820,
      "çĤ": 821,
      "Ġwere": 822,
      "ive": 823,
      "èĩª": 824,
      "Ġse": 825,
      "Dat": 826,
      "éģĵ": 827,
      "çĶŁ": 828,
      "çİ°": 829,
      "Ġheeft": 830,
      "Ġkom": 831,
      "æŀ": 832,
      "æĪĳä»¬": 833,
      "ke": 834,
      "own": 835,
      "çĦ": 836,
      "Ġbr": 837,
      "Ġthem": 838,
      "here": 839,
      "iv": 840,
      "od": 841,
      "æ¬": 842,
      "æĶ": 843,
      "ele": 844,
      "Ġhebben": 845,
      "Ġsee": 846,
      "åģ": 847,
      "çĦ¶": 848,
      "En": 849,
      "åĢ": 850,
      "ä¸Ń": 851,
      "'m": 852,
      "Ġdit": 853,
      "è¾": 854,
      "Ġmijn": 855,
      "Ġgr": 856,
      "Ġdid": 857,
      "sen": 858,
      "Ġ19": 859,
      "Ġwant": 860,
      "our": 861,
      "itt": 862,
      "è·Ł": 863,
      "Ġgoed": 864,
      "Ġword": 865,
      "å¿ĥ": 866,
      "Ġgot": 867,
      "ste": 868,
      "æł·": 869,
      "ff": 870,
      "å¥¹": 871,
      "ally": 872,
      "ingen": 873,
      "oed": 874,
      "è´": 875,
      "la": 876,
      "Ġhem": 877,
      ".\"": 878,
      "çĤ¹": 879,
      "åĴĮ": 880,
      "Ġsome": 881,
      "Ġè¿Ļ": 882,
      "ls": 883,
      "'ll": 884,
      "].": 885,
      "ied": 886,
      "ijd": 887,
      "uur": 888,
      "Ġabout": 889,
      "æİ": 890,
      "ä¿": 891,
      "ek": 892,
      "yeah": 893,
      "ite": 894,
      "Ġbet": 895,
      "æĬĬ": 896,
      "pp": 897,
      "ia": 898,
      "mer": 899,
      "aten": 900,
      "ick": 901,
      "å¾Ī": 902,
      "Ġgeen": 903,
      "çŁ¥": 904,
      "Ġun": 905,
      "èĢģ": 906,
      "æ²¡æľī": 907,
      "æĢİ": 908,
      "ĠIn": 909,
      "HER": 910,
      "Ġdeze": 911,
      "Ġhere": 912,
      "å±": 913,
      "oug": 914,
      "ä¸įæĺ¯": 915,
      "Ġwill": 916,
      "å§": 917,
      ",\"": 918,
      "ate": 919,
      "ice": 920,
      "Ġlook": 921,
      "uit": 922,
      "åĮ": 923,
      "land": 924,
      "æĢİä¹Ī": 925,
      "Ġsaid": 926,
      "æĮ": 927,
      "Ġthink": 928,
      "åī": 929,
      "åĳĢ": 930,
      "Hij": 931,
      "éĻ": 932,
      "oon": 933,
      "He": 934,
      "elen": 935,
      "Ġjust": 936,
      "æ³": 937,
      "Ġhaar": 938,
      "bl": 939,
      "Ġdr": 940,
      "Ġmeer": 941,
      "èµ·": 942,
      "ĠéĤ£": 943,
      "Ġel": 944,
      "orm": 945,
      "åĽŀ": 946,
      "to": 947,
      "ings": 948,
      "per": 949,
      "aken": 950,
      "å¹´": 951,
      "åĪ«": 952,
      "çľŁ": 953,
      "éķ": 954,
      "Ġonder": 955,
      "Ġthen": 956,
      "Ġdaar": 957,
      "hing": 958,
      "ĠHe": 959,
      "è¯Ŀ": 960,
      "oord": 961,
      "ime": 962,
      "uk": 963,
      "Ġter": 964,
      "eg": 965,
      "Ġwould": 966,
      "Ġgaan": 967,
      "çŃ": 968,
      "Ġnu": 969,
      "åĽ½": 970,
      "Ġar": 971,
      "Ġgeb": 972,
      "éĿ¢": 973,
      "pl": 974,
      "ound": 975,
      "Ġif": 976,
      "eten": 977,
      "ose": 978,
      "that": 979,
      "çº": 980,
      "Ġright": 981,
      "MOTHER": 982,
      "Ġus": 983,
      "å¼Ģ": 984,
      "éĺ": 985,
      "è½": 986,
      "é¢": 987,
      "Ġsay": 988,
      "icht": 989,
      "are": 990,
      "ige": 991,
      "ost": 992,
      "zen": 993,
      "Ġany": 994,
      "åĸ": 995,
      "av": 996,
      "Ġjij": 997,
      "Ġwordt": 998,
      "lijk": 999,
      "ker": 1000,
      "ĠU": 1001,
      "Ġhou": 1002,
      "Ġbeg": 1003,
      "Ġdown": 1004,
      "è¡Į": 1005,
      "ĠIt": 1006,
      "Ġwhen": 1007,
      "ä¹ĭ": 1008,
      "Ġworden": 1009,
      "Ġag": 1010,
      "pt": 1011,
      "çŁ¥éģĵ": 1012,
      "æĪĲ": 1013,
      "Ġdoen": 1014,
      "Ġnow": 1015,
      "Ġwho": 1016,
      "ne": 1017,
      "æĥħ": 1018,
      "Ġkl": 1019,
      "other": 1020,
      "Ġzou": 1021,
      "åıĳ": 1022,
      "å·±": 1023,
      "éķ¿": 1024,
      "ĠSt": 1025,
      "çĻ": 1026,
      "Ġsl": 1027,
      "oek": 1028,
      "Ġ20": 1029,
      "ud": 1030,
      "ittle": 1031,
      "Ġweet": 1032,
      "æĤ": 1033,
      "èĩªå·±": 1034,
      "ass": 1035,
      "è®©": 1036,
      "ous": 1037,
      "Waar": 1038,
      "ĠCh": 1039,
      "Ġoff": 1040,
      "å®ŀ": 1041,
      "way": 1042,
      "ish": 1043,
      "Ġcl": 1044,
      "æĦı": 1045,
      "Ġbed": 1046,
      "Ġbeen": 1047,
      "oll": 1048,
      "Ġ[": 1049,
      "Ġput": 1050,
      "'ve": 1051,
      "uw": 1052,
      "Ġhand": 1053,
      "æ´": 1054,
      "ther": 1055,
      "jes": 1056,
      "åĢĻ": 1057,
      "rouw": 1058,
      "als": 1059,
      "Ġzeg": 1060,
      "my": 1061,
      "çĲ": 1062,
      "èµ°": 1063,
      "Ġback": 1064,
      "ool": 1065,
      "è§ī": 1066,
      "Ġ3": 1067,
      "å®ļ": 1068,
      "æīĢ": 1069,
      "It": 1070,
      "åģļ": 1071,
      "åıª": 1072,
      "ans": 1073,
      "Ġgaat": 1074,
      "Ġhas": 1075,
      "ity": 1076,
      "Ġbel": 1077,
      "dat": 1078,
      "ç»ı": 1079,
      "men": 1080,
      "atie": 1081,
      "ree": 1082,
      "ause": 1083,
      "Ġga": 1084,
      "çĶ¨": 1085,
      "age": 1086,
      "iets": 1087,
      "nt": 1088,
      "Ġgew": 1089,
      "Ġä»ĸ": 1090,
      "åįģ": 1091,
      "ect": 1092,
      "çİ°åľ¨": 1093,
      "Ġbent": 1094,
      "æĹ¶åĢĻ": 1095,
      "Ġlittle": 1096,
      "ear": 1097,
      "ĠZ": 1098,
      "ä½Ĩ": 1099,
      "æľĢ": 1100,
      "ach": 1101,
      "eder": 1102,
      "Ġgoing": 1103,
      "ew": 1104,
      "agen": 1105,
      "Ġbest": 1106,
      "iss": 1107,
      "Ġont": 1108,
      "Ġgen": 1109,
      "act": 1110,
      "ullie": 1111,
      "Ġhoe": 1112,
      "ç¬": 1113,
      "éĴ": 1114,
      "Ġmore": 1115,
      "äºĽ": 1116,
      "æµ": 1117,
      "Ġtime": 1118,
      "Ġcould": 1119,
      "Ġtheir": 1120,
      "æīĵ": 1121,
      "ure": 1122,
      "ç®": 1123,
      "Ġvol": 1124,
      "Ġeven": 1125,
      "Ġkunnen": 1126,
      "ble": 1127,
      "åīį": 1128,
      "In": 1129,
      "ä¸ī": 1130,
      "Ġxxx": 1131,
      "æĸ¹": 1132,
      "Ġwhich": 1133,
      "Maar": 1134,
      "åŃ¦": 1135,
      "Ġmij": 1136,
      "åĿ": 1137,
      "els": 1138,
      "Als": 1139,
      "ade": 1140,
      "uis": 1141,
      "ire": 1142,
      "enk": 1143,
      "ment": 1144,
      "Ġons": 1145,
      "å½ĵ": 1146,
      "cause": 1147,
      "èĬ": 1148,
      "å¦Ī": 1149,
      "oc": 1150,
      "Ġhun": 1151,
      "the": 1152,
      "Ġmin": 1153,
      "ac": 1154,
      "yes": 1155,
      "ob": 1156,
      "ert": 1157,
      "åĽł": 1158,
      "uh": 1159,
      "Ġgev": 1160,
      "Ġjou": 1161,
      "Ġgood": 1162,
      "omen": 1163,
      "me": 1164,
      "mand": 1165,
      "aren": 1166,
      "ĠFr": 1167,
      "Ġvr": 1168,
      "Ġqu": 1169,
      "int": 1170,
      "Ġplay": 1171,
      "äºĮ": 1172,
      "ace": 1173,
      "Ġhel": 1174,
      "æĻ": 1175,
      "eden": 1176,
      "Oh": 1177,
      "Ġmens": 1178,
      "Ġsom": 1179,
      "Ġvery": 1180,
      "onder": 1181,
      "pr": 1182,
      "Ġtwo": 1183,
      "å¤ª": 1184,
      "Ġfl": 1185,
      "ater": 1186,
      "racht": 1187,
      "wh": 1188,
      "Ġgel": 1189,
      "Ġveel": 1190,
      "åħ¬": 1191,
      "éĽ": 1192,
      "alk": 1193,
      "Ġtot": 1194,
      "åĬ¨": 1195,
      "Ġzal": 1196,
      "ä¸¤": 1197,
      "æ¸": 1198,
      "å¥³": 1199,
      "ç«": 1200,
      "Ã«": 1201,
      "éĹ®": 1202,
      "æīĭ": 1203,
      "Ġpe": 1204,
      "wer": 1205,
      "æĺİ": 1206,
      "igen": 1207,
      "iend": 1208,
      "ian": 1209,
      "oof": 1210,
      "What": 1211,
      "oot": 1212,
      "heid": 1213,
      "Ġhebt": 1214,
      "Ġsn": 1215,
      "Nee": 1216,
      "Ġgro": 1217,
      "do": 1218,
      "Ġna": 1219,
      "åĪĨ": 1220,
      "åı¯ä»¥": 1221,
      "Ja": 1222,
      "ĠHet": 1223,
      "orn": 1224,
      "ief": 1225,
      "äºİ": 1226,
      "åĲ¬": 1227,
      "è§ģ": 1228,
      "old": 1229,
      "Een": 1230,
      "ç§į": 1231,
      "man": 1232,
      "Ġiets": 1233,
      "éĹ´": 1234,
      "Ġeer": 1235,
      "èĤ": 1236,
      "raag": 1237,
      "Th": 1238,
      "Ġweg": 1239,
      "ng": 1240,
      "Ġro": 1241,
      "åĲĥ": 1242,
      "è¶": 1243,
      "èº": 1244,
      "éļ": 1245,
      "Ġzien": 1246,
      "æ±": 1247,
      "è¢": 1248,
      "oel": 1249,
      "æŀľ": 1250,
      "æĤ¨": 1251,
      "urn": 1252,
      "èĢĮ": 1253,
      "æŃ£": 1254,
      "Ġinto": 1255,
      "ark": 1256,
      "Yeah": 1257,
      "And": 1258,
      "Ġged": 1259,
      "æĽ": 1260,
      "Ġcar": 1261,
      "ä»İ": 1262,
      "Ġper": 1263,
      "ase": 1264,
      "Ġweer": 1265,
      "åĺ": 1266,
      "end": 1267,
      "aakt": 1268,
      "åĨį": 1269,
      "ord": 1270,
      "Ġtr": 1271,
      "Ġzit": 1272,
      "?\"": 1273,
      "Hoe": 1274,
      "é¡": 1275,
      "onna": 1276,
      "reat": 1277,
      "é£": 1278,
      "fter": 1279,
      "Ġjullie": 1280,
      "very": 1281,
      "Ġwater": 1282,
      "amen": 1283,
      "ä½ľ": 1284,
      "Ġcome": 1285,
      "innen": 1286,
      "ough": 1287,
      "irst": 1288,
      "å®ĥ": 1289,
      "æģ": 1290,
      "sh": 1291,
      "æ¯Ķ": 1292,
      "Ġother": 1293,
      "å¤´": 1294,
      "iek": 1295,
      "ople": 1296,
      "ary": 1297,
      "iz": 1298,
      "åĲĮ": 1299,
      "ES": 1300,
      "OR": 1301,
      "åıĪ": 1302,
      "esch": 1303,
      "Ġpart": 1304,
      "Ġä¸į": 1305,
      "ä»ĸä»¬": 1306,
      "åħ³": 1307,
      "éĶ": 1308,
      "ely": 1309,
      "Ġalleen": 1310,
      "af": 1311,
      "Ġtwee": 1312,
      "Ġmu": 1313,
      "Ġmoeten": 1314,
      "è¿Ľ": 1315,
      "ä¾": 1316,
      "åħ¶": 1317,
      "ä¸»": 1318,
      "ellen": 1319,
      "æī¾": 1320,
      "Ġgonna": 1321,
      "esp": 1322,
      "Ġnie": 1323,
      "ç¾": 1324,
      "Ġway": 1325,
      "ci": 1326,
      "sp": 1327,
      "Er": 1328,
      "Ġstr": 1329,
      "ild": 1330,
      "é«": 1331,
      "æľ¬": 1332,
      "Ġterug": 1333,
      "Ġlet": 1334,
      "ruik": 1335,
      "æ¬¡": 1336,
      "Ġagain": 1337,
      "ĠTh": 1338,
      "Ġsm": 1339,
      "æĦŁ": 1340,
      "Ġtegen": 1341,
      "ult": 1342,
      "chter": 1343,
      "of": 1344,
      "Ġland": 1345,
      "cl": 1346,
      "æ³ķ": 1347,
      "é«ĺ": 1348,
      "Ġhow": 1349,
      "ote": 1350,
      "Ġeens": 1351,
      "Ġmensen": 1352,
      "Ġvert": 1353,
      "ount": 1354,
      "ance": 1355,
      "Ġdoes": 1356,
      "Ġam": 1357,
      "Ġwork": 1358,
      "åŃ©": 1359,
      "ale": 1360,
      "Ġmee": 1361,
      "!\"": 1362,
      "åħĪ": 1363,
      "Kom": 1364,
      "ue": 1365,
      "èº«": 1366,
      "app": 1367,
      "air": 1368,
      "ile": 1369,
      "ä»Ĭ": 1370,
      "cc": 1371,
      "åĬĽ": 1372,
      "Ġwhere": 1373,
      "oop": 1374,
      "éĤ£ä¸ª": 1375,
      "Ġad": 1376,
      "Ġmen": 1377,
      "Ġpeople": 1378,
      "Ġgez": 1379,
      "æīį": 1380,
      "è§īå¾Ĺ": 1381,
      "No": 1382,
      "èĦ": 1383,
      "å¹²": 1384,
      "ys": 1385,
      "Ġcall": 1386,
      "hm": 1387,
      "Ġsc": 1388,
      "Ġwell": 1389,
      "Ġ4": 1390,
      "TI": 1391,
      "oren": 1392,
      "oen": 1393,
      "Ġkomt": 1394,
      "ä½łä»¬": 1395,
      "uist": 1396,
      "è°¢": 1397,
      "Ġfirst": 1398,
      "è¿Ļä¹Ī": 1399,
      "çĭ": 1400,
      "ock": 1401,
      "erd": 1402,
      "çŃī": 1403,
      "è¢«": 1404,
      "Ġwerk": 1405,
      "Dit": 1406,
      "Ġleven": 1407,
      "Ġtake": 1408,
      "Ġtoo": 1409,
      "çĦ¶åĲİ": 1410,
      "Ġzich": 1411,
      "Ġtijd": 1412,
      "gens": 1413,
      "Ġsomet": 1414,
      "ische": 1415,
      "ger": 1416,
      "Ġmaken": 1417,
      "è¾¹": 1418,
      "æĶ¾": 1419,
      "ub": 1420,
      "åĽłä¸º": 1421,
      "å£": 1422,
      "çļĦæĹ¶åĢĻ": 1423,
      "rit": 1424,
      "å¦Ĥ": 1425,
      "Ġmake": 1426,
      "amp": 1427,
      "Ġsec": 1428,
      "æ°Ķ": 1429,
      "èĥ": 1430,
      "¥¿": 1431,
      "Ġlaat": 1432,
      "Ġkon": 1433,
      "ise": 1434,
      "Ġcont": 1435,
      "--": 1436,
      "éĴ±": 1437,
      "okay": 1438,
      "èĭ": 1439,
      "Wh": 1440,
      "ef": 1441,
      "ç½": 1442,
      "ren": 1443,
      "éĥ": 1444,
      "Ġwerd": 1445,
      "ĠMr": 1446,
      "iver": 1447,
      "du": 1448,
      "Ġkw": 1449,
      "çĶµ": 1450,
      "æį": 1451,
      "dig": 1452,
      "çĪ¸": 1453,
      "gt": 1454,
      "Ġday": 1455,
      "ov": 1456,
      "Ġkrij": 1457,
      "çģ": 1458,
      "Ġlang": 1459,
      "ty": 1460,
      "åĥ": 1461,
      "é©": 1462,
      "Ġact": 1463,
      "Ġkomen": 1464,
      "ann": 1465,
      "St": 1466,
      "ç©": 1467,
      "é¢ĺ": 1468,
      "å·²": 1469,
      "where": 1470,
      "Ĺ¯": 1471,
      "Ġie": 1472,
      "ugh": 1473,
      "åħ¨": 1474,
      "Ġjaar": 1475,
      "Ġtell": 1476,
      "Ġtoch": 1477,
      "ather": 1478,
      "ATOR": 1479,
      "TIG": 1480,
      "dy": 1481,
      "INVES": 1482,
      "TIGATOR": 1483,
      "INVESTIGATOR": 1484,
      "Ġim": 1485,
      "ath": 1486,
      "ooit": 1487,
      "Ġecht": 1488,
      "å¿«": 1489,
      "uck": 1490,
      "çĥ": 1491,
      "elt": 1492,
      "Ġple": 1493,
      "è¿Ļæł·": 1494,
      "ç¥": 1495,
      "Ġkle": 1496,
      "Ġandere": 1497,
      "Ġafter": 1498,
      "ĠæĪĳä»¬": 1499,
      "ijf": 1500,
      "beeld": 1501,
      "over": 1502,
      "èģ": 1503,
      "ader": 1504,
      "Ġla": 1505,
      "ave": 1506,
      "ĠÂ": 1507,
      "roug": 1508,
      "éĩį": 1509,
      "çĲĨ": 1510,
      "inn": 1511,
      "round": 1512,
      "Ġtra": 1513,
      "ouw": 1514,
      "çİĭ": 1515,
      "Ġneed": 1516,
      "çķ": 1517,
      "wn": 1518,
      "åĵª": 1519,
      "Ġonly": 1520,
      "æ°´": 1521,
      "æĹł": 1522,
      "Ġ201": 1523,
      "ting": 1524,
      "å©": 1525,
      "Is": 1526,
      "è¥¿": 1527,
      "ady": 1528,
      "ä½Ĩæĺ¯": 1529,
      "åºĶ": 1530,
      "ĠY": 1531,
      "æĪĳçļĦ": 1532,
      "ç³": 1533,
      "Ġour": 1534,
      "ict": 1535,
      "å¸¸": 1536,
      "get": 1537,
      "Ġ5": 1538,
      "able": 1539,
      "ja": 1540,
      "kay": 1541,
      "ated": 1542,
      "ä½ĵ": 1543,
      "Ġapp": 1544,
      "alen": 1545,
      "åĥı": 1546,
      "æ¡": 1547,
      "Ġdenk": 1548,
      "ons": 1549,
      "oog": 1550,
      "æ¬¢": 1551,
      "That": 1552,
      "Ġdis": 1553,
      "uid": 1554,
      "çĻ½": 1555,
      "Ġvl": 1556,
      "Ġhele": 1557,
      "æĹ¥": 1558,
      "up": 1559,
      "iff": 1560,
      "çĽ¸": 1561,
      "ove": 1562,
      "çĽ´": 1563,
      "ç´": 1564,
      "åĸľ": 1565,
      "Ġsle": 1566,
      "iÃ«": 1567,
      "ä¸ľ": 1568,
      "è¯¥": 1569,
      "ory": 1570,
      "è¿ĺæĺ¯": 1571,
      "çĪ±": 1572,
      "æĸ°": 1573,
      "Ġgek": 1574,
      "æľº": 1575,
      "ont": 1576,
      ").": 1577,
      "Ã©n": 1578,
      "çī©": 1579,
      "åŁ": 1580,
      "Ġgebruik": 1581,
      "èī": 1582,
      "right": 1583,
      "Ġopen": 1584,
      "Ġ200": 1585,
      "Ġcomp": 1586,
      "Ġnooit": 1587,
      "çī¹": 1588,
      "there": 1589,
      "è§£": 1590,
      "ma": 1591,
      "vol": 1592,
      "oud": 1593,
      "Ġlong": 1594,
      "urt": 1595,
      "Ġinter": 1596,
      "Ġmade": 1597,
      "åı«": 1598,
      "Ġmuch": 1599,
      "fore": 1600,
      "æ´»": 1601,
      "æŁ": 1602,
      "inder": 1603,
      "ought": 1604,
      "aby": 1605,
      "All": 1606,
      "å¨": 1607,
      "ieren": 1608,
      "Ġzelf": 1609,
      "ix": 1610,
      "hed": 1611,
      "èĪ": 1612,
      "Ġwon": 1613,
      "çļĦäºº": 1614,
      "Ġthese": 1615,
      "æİ¥": 1616,
      "Ġbig": 1617,
      "ions": 1618,
      "åŃ©åŃĲ": 1619,
      "Ġæĺ¯": 1620,
      "Ġevery": 1621,
      "ving": 1622,
      "Ġheel": 1623,
      "arl": 1624,
      "Ġdidn": 1625,
      "ĠAmer": 1626,
      "Ġverd": 1627,
      "Ġyear": 1628,
      "ä¿¡": 1629,
      "Ġmag": 1630,
      "io": 1631,
      "ç¦": 1632,
      "å·¥": 1633,
      "day": 1634,
      "arm": 1635,
      "zelf": 1636,
      "å°ĳ": 1637,
      "voor": 1638,
      "AN": 1639,
      "å¤ĸ": 1640,
      "è°ģ": 1641,
      "èĬ±": 1642,
      "Ġspe": 1643,
      "But": 1644,
      "Ġsomething": 1645,
      "anna": 1646,
      "Ġelk": 1647,
      "Ġalles": 1648,
      "åıĭ": 1649,
      "åĩł": 1650,
      "Ġgl": 1651,
      "Ġthan": 1652,
      "ussen": 1653,
      "éħ": 1654,
      "ä½łçļĦ": 1655,
      "Ġzw": 1656,
      "æı": 1657,
      "open": 1658,
      "åĵ¥": 1659,
      "'d": 1660,
      "Ġfe": 1661,
      "Ġå°±": 1662,
      "ä½į": 1663,
      "ederland": 1664,
      "æīĢä»¥": 1665,
      "Well": 1666,
      "Ġpol": 1667,
      "Ġste": 1668,
      "Ġrem": 1669,
      "onden": 1670,
      "Ġpers": 1671,
      "Ġkijk": 1672,
      "Ġschool": 1673,
      "Ġaway": 1674,
      "Ġmom": 1675,
      "ĠMar": 1676,
      "å®Į": 1677,
      "sl": 1678,
      "ĠJe": 1679,
      "oy": 1680,
      "çĮ": 1681,
      "Ġvind": 1682,
      "Ġvrouw": 1683,
      "tijd": 1684,
      "åĪļ": 1685,
      "Ġreg": 1686,
      "èĻ": 1687,
      "Ġzei": 1688,
      "ä¸Ģä¸ĭ": 1689,
      "Ġblij": 1690,
      "Waarom": 1691,
      "æŃ»": 1692,
      "è½¦": 1693,
      "thing": 1694,
      "oorden": 1695,
      "æĿ¥äºĨ": 1696,
      "ward": 1697,
      "ph": 1698,
      "Ġunder": 1699,
      "eef": 1700,
      "æ¶": 1701,
      "appen": 1702,
      "çľŁçļĦ": 1703,
      "look": 1704,
      "ĠShe": 1705,
      "ç»ĵ": 1706,
      "rek": 1707,
      "ife": 1708,
      "ende": 1709,
      "é©¬": 1710,
      "ãĢģ": 1711,
      "Ġstaat": 1712,
      "Ġalso": 1713,
      "Ġma": 1714,
      "oet": 1715,
      "Ġshould": 1716,
      "orry": 1717,
      "Ġreally": 1718,
      "Ġwent": 1719,
      "äºĶ": 1720,
      "ders": 1721,
      "ĠNederland": 1722,
      "ãĢĤ\"": 1723,
      "oss": 1724,
      "åĳĬ": 1725,
      "Ġgu": 1726,
      "erk": 1727,
      "Ġbefore": 1728,
      "åĹ¯": 1729,
      "éľ": 1730,
      "orgen": 1731,
      "IS": 1732,
      "æľĪ": 1733,
      "Ġverl": 1734,
      "ç¡": 1735,
      "ç¬¬": 1736,
      "ĠÂ·": 1737,
      "Ġbro": 1738,
      "é¦": 1739,
      "gr": 1740,
      "Ġbeh": 1741,
      "Ġpre": 1742,
      "cent": 1743,
      "van": 1744,
      "Ġkind": 1745,
      "å·²ç»ı": 1746,
      "ĠUn": 1747,
      "è¿ĺæľī": 1748,
      "Ġtalk": 1749,
      "Ġmil": 1750,
      "rijk": 1751,
      "åĲĪ": 1752,
      "ign": 1753,
      "æ¼": 1754,
      "Ġgem": 1755,
      "å¸¦": 1756,
      "oem": 1757,
      "Ġnodig": 1758,
      "Ġbecause": 1759,
      "enn": 1760,
      "Ġdoing": 1761,
      "ange": 1762,
      "åĽĽ": 1763,
      "eerd": 1764,
      "So": 1765,
      "ä»Ĭå¤©": 1766,
      "Ġmis": 1767,
      "çĻ¾": 1768,
      "unt": 1769,
      "br": 1770,
      "åı¯èĥ½": 1771,
      "åĨĽ": 1772,
      "ä¸įèĥ½": 1773,
      "Ġits": 1774,
      "Ġversch": 1775,
      "oort": 1776,
      "éĥ¨": 1777,
      "åıĺ": 1778,
      "amil": 1779,
      "ç¾İ": 1780,
      "ors": 1781,
      "idd": 1782,
      "Ġmean": 1783,
      "port": 1784,
      "Ġgebe": 1785,
      "Ġgir": 1786,
      "èį": 1787,
      "Ġmay": 1788,
      "åľº": 1789,
      "Ġnet": 1790,
      "ä½ı": 1791,
      "å§Ĳ": 1792,
      "é»": 1793,
      "off": 1794,
      "ina": 1795,
      "Ġlast": 1796,
      ":\"": 1797,
      "akes": 1798,
      "ets": 1799,
      "woord": 1800,
      "aking": 1801,
      "elijke": 1802,
      "Ġjon": 1803,
      "éĥ½æĺ¯": 1804,
      "atuur": 1805,
      "Ġask": 1806,
      "rough": 1807,
      "ces": 1808,
      "æ·": 1809,
      "but": 1810,
      "æĢĿ": 1811,
      "ait": 1812,
      "eep": 1813,
      "Ġser": 1814,
      "Ã©Ã©n": 1815,
      "éª": 1816,
      "å®ī": 1817,
      "eds": 1818,
      "ç¤": 1819,
      "ww": 1820,
      "Ġche": 1821,
      "ijden": 1822,
      "aam": 1823,
      "åĵĪ": 1824,
      "æ»": 1825,
      "å¸Ī": 1826,
      "èĲ": 1827,
      "Ġhome": 1828,
      "uren": 1829,
      "iden": 1830,
      "éļ¾": 1831,
      "schien": 1832,
      "ins": 1833,
      "Ġhead": 1834,
      "Ġold": 1835,
      "form": 1836,
      "åĪ°äºĨ": 1837,
      "çĹ": 1838,
      "allen": 1839,
      "Ġbaby": 1840,
      "Ġhelp": 1841,
      "Ġåĵ": 1842,
      "Ġnew": 1843,
      "bij": 1844,
      "éĶĻ": 1845,
      "äº²": 1846,
      "Ġhouse": 1847,
      "Ġdag": 1848,
      "ĠÃ©Ã©n": 1849,
      "åĬŀ": 1850,
      "can": 1851,
      "Ġthree": 1852,
      "Ġmany": 1853,
      "Ġalle": 1854,
      "ubl": 1855,
      "ious": 1856,
      "row": 1857,
      "Ġaltijd": 1858,
      "åĺĽ": 1859,
      "Ġwaren": 1860,
      "sel": 1861,
      "Ġwanna": 1862,
      "æĽ´": 1863,
      "oofd": 1864,
      "Jij": 1865,
      "Ġeigen": 1866,
      "Ġstart": 1867,
      "Ġkunt": 1868,
      "Ġtoen": 1869,
      "Ġmust": 1870,
      "Ġonze": 1871,
      "Ġbu": 1872,
      "Ġnum": 1873,
      "Ġhuis": 1874,
      "äºĭåĦ¿": 1875,
      "$$": 1876,
      "Ġthose": 1877,
      "stand": 1878,
      "Ġthought": 1879,
      "æľĭ": 1880,
      "Ġcame": 1881,
      "å±±": 1882,
      "Ga": 1883,
      "Ġzeggen": 1884,
      "ved": 1885,
      "ĠZe": 1886,
      "Ġeat": 1887,
      "Ġbot": 1888,
      "è·¯": 1889,
      "ç²": 1890,
      "Daar": 1891,
      "Ġbinnen": 1892,
      "Ġ18": 1893,
      "Ġstop": 1894,
      "Ġthrough": 1895,
      "Ġverk": 1896,
      "red": 1897,
      "inden": 1898,
      "org": 1899,
      "Ġdoe": 1900,
      "ful": 1901,
      "åĸľæ¬¢": 1902,
      "xt": 1903,
      "Ġaut": 1904,
      "æľĭåıĭ": 1905,
      "Yes": 1906,
      "ĠAl": 1907,
      "igh": 1908,
      "les": 1909,
      "çĸ": 1910,
      "åı£": 1911,
      "ĠIk": 1912,
      "éĢļ": 1913,
      "æĹ¶éĹ´": 1914,
      "åĲį": 1915,
      "Ġnever": 1916,
      "Ġä¸Ģ": 1917,
      "ail": 1918,
      "Ġthing": 1919,
      "Ġiemand": 1920,
      "Ġachter": 1921,
      "é¥": 1922,
      "ç¨": 1923,
      "Ġres": 1924,
      "oint": 1925,
      "Ġbook": 1926,
      "Ġthings": 1927,
      "self": 1928,
      "Goed": 1929,
      "Ġtoe": 1930,
      "éĿŀ": 1931,
      "Ġgrote": 1932,
      "æ¯ı": 1933,
      "well": 1934,
      "ucht": 1935,
      "Ġæľī": 1936,
      "etje": 1937,
      "Ġelkaar": 1938,
      "å°Ĩ": 1939,
      "Ġturn": 1940,
      "veel": 1941,
      "åĴ±": 1942,
      "come": 1943,
      "æĢ»": 1944,
      "Ġzegt": 1945,
      "Ġdood": 1946,
      "emaal": 1947,
      "ummy": 1948,
      "Ġcalled": 1949,
      "Ġkeer": 1950,
      "ullen": 1951,
      "uwe": 1952,
      "Ġâ": 1953,
      "Ġfind": 1954,
      "å¤§å®¶": 1955,
      "Ġbit": 1956,
      "ident": 1957,
      "ss": 1958,
      "Ġnee": 1959,
      "esl": 1960,
      "ä¹Łä¸į": 1961,
      "ical": 1962,
      "æĭ¿": 1963,
      "ates": 1964,
      "Ġanother": 1965,
      "å¸®": 1966,
      "åıĹ": 1967,
      "Ġshow": 1968,
      "ä¸ĩ": 1969,
      "Ġniets": 1970,
      ".]": 1971,
      "vel": 1972,
      "Ġgra": 1973,
      "Ġfamil": 1974,
      "æħ": 1975,
      "çľ¼": 1976,
      "çļĦè¯Ŀ": 1977,
      "Ġminut": 1978,
      "éĹ¨": 1979,
      "Ġant": 1980,
      "amer": 1981,
      "ried": 1982,
      "Ġpres": 1983,
      "Heb": 1984,
      "è¯·": 1985,
      "ç³»": 1986,
      "äºĨä¸Ģ": 1987,
      "åĬł": 1988,
      "Ġdus": 1989,
      "ä¸ļ": 1990,
      "wij": 1991,
      "geven": 1992,
      "ever": 1993,
      "Ġfound": 1994,
      "ody": 1995,
      "åħī": 1996,
      "kÃ©": 1997,
      "Ġå¦": 1998,
      "Ġvast": 1999,
      "ope": 2000,
      "çĪ·": 2001,
      "ember": 2002,
      "æŃ¤": 2003,
      "Ġstill": 2004,
      "Ġerg": 2005,
      "ä»»": 2006,
      "æĸĩ": 2007,
      "isch": 2008,
      "Ġnou": 2009,
      "é¸": 2010,
      "èĢħ": 2011,
      "Ġgive": 2012,
      "åĲĳ": 2013,
      "Ġgreat": 2014,
      "Ġzie": 2015,
      "pe": 2016,
      "éĢī": 2017,
      "Ġplaat": 2018,
      "dracht": 2019,
      "ars": 2020,
      "gende": 2021,
      "Ġlaten": 2022,
      "Ġ6": 2023,
      "Ġgeh": 2024,
      "ude": 2025,
      "Ġgroot": 2026,
      "fr": 2027,
      "è¡¨": 2028,
      "ern": 2029,
      "Ġdiff": 2030,
      "laugh": 2031,
      "ç¡®": 2032,
      "ĠYou": 2033,
      "let": 2034,
      "000": 2035,
      "ĠBr": 2036,
      "ilm": 2037,
      "Ġsamen": 2038,
      "Ġvo": 2039,
      "ama": 2040,
      "è®°": 2041,
      "ç®Ĺ": 2042,
      "å¹³": 2043,
      "uiten": 2044,
      "Ġgewoon": 2045,
      "Ġmight": 2046,
      "è®¤": 2047,
      "unn": 2048,
      "ĠEng": 2049,
      "çĶ·": 2050,
      "Die": 2051,
      "æĴ": 2052,
      "aart": 2053,
      "Ġå¥½": 2054,
      "Ġrec": 2055,
      "Ġdone": 2056,
      "Ġweten": 2057,
      "åº¦": 2058,
      "è±": 2059,
      "oeg": 2060,
      "gel": 2061,
      "éĵ": 2062,
      "door": 2063,
      "æĪĺ": 2064,
      "SIS": 2065,
      "isten": 2066,
      "ĠHij": 2067,
      "Ġproble": 2068,
      "Ġkinder": 2069,
      "bo": 2070,
      "ĠGod": 2071,
      "Ġeerste": 2072,
      "ents": 2073,
      "ä¹Łæĺ¯": 2074,
      "éĺŁ": 2075,
      "AD": 2076,
      "Ġwij": 2077,
      "ually": 2078,
      "æ®": 2079,
      "çł": 2080,
      "ç®¡": 2081,
      "EN": 2082,
      "Ġbre": 2083,
      "Ġchild": 2084,
      "Ġwr": 2085,
      "ä»¶": 2086,
      "Ġzoals": 2087,
      "ĠThey": 2088,
      "ĠAnd": 2089,
      "ib": 2090,
      "ĠEen": 2091,
      "çĽ®": 2092,
      "åħ¶å®ŀ": 2093,
      "ited": 2094,
      "Ġvader": 2095,
      "Ġcount": 2096,
      "Ġåľ¨": 2097,
      "åĶ": 2098,
      "Ġname": 2099,
      "erm": 2100,
      "æľĽ": 2101,
      "å£°": 2102,
      "ĠGr": 2103,
      "Ġbloed": 2104,
      "çĲĥ": 2105,
      "Ġhard": 2106,
      "ooi": 2107,
      "Ġred": 2108,
      "å¤Ħ": 2109,
      "Mijn": 2110,
      "Ġlot": 2111,
      "ĠçĦ¶åĲİ": 2112,
      "Ġdrie": 2113,
      "Laat": 2114,
      "Ġsuch": 2115,
      "kend": 2116,
      "Ġdoet": 2117,
      "ç»ĻæĪĳ": 2118,
      "äºĭæĥħ": 2119,
      "aw": 2120,
      "Ġpap": 2121,
      "ĠAn": 2122,
      "Ġtussen": 2123,
      "ereen": 2124,
      "Ġcomm": 2125,
      "iel": 2126,
      "åĩºæĿ¥": 2127,
      "åİŁ": 2128,
      "æ¸ħ": 2129,
      "Ġfin": 2130,
      "Ġallemaal": 2131,
      "They": 2132,
      "ä¿Ŀ": 2133,
      "ä¸Ģèµ·": 2134,
      "ĠBe": 2135,
      "ĠSch": 2136,
      "Ġsit": 2137,
      "oos": 2138,
      "æĬ¥": 2139,
      "ç¦»": 2140,
      "Ġown": 2141,
      "On": 2142,
      "å½±": 2143,
      "éĩı": 2144,
      "å²": 2145,
      "Ġverh": 2146,
      "Zo": 2147,
      "imes": 2148,
      "éĤ£ä¹Ī": 2149,
      "Ġuw": 2150,
      "ä¸İ": 2151,
      "å¼ł": 2152,
      "Ġmeest": 2153,
      "è¯ī": 2154,
      "åıį": 2155,
      "Ġmost": 2156,
      "Ġwereld": 2157,
      "æ¢": 2158,
      "Ġmon": 2159,
      "ĠSp": 2160,
      "è¶Ĭ": 2161,
      "æĢ§": 2162,
      "EX": 2163,
      "æĹ©": 2164,
      "Ġbus": 2165,
      "åĳĺ": 2166,
      "Ġrel": 2167,
      "zoek": 2168,
      "Ġgeld": 2169,
      "oeken": 2170,
      "ä¸ĸ": 2171,
      "She": 2172,
      "ä»ĸçļĦ": 2173,
      "emen": 2174,
      "pro": 2175,
      "çŃĶ": 2176,
      "ced": 2177,
      "æĲ": 2178,
      "åħ«": 2179,
      "Ġzitten": 2180,
      "vo": 2181,
      "çı": 2182,
      "Ġtry": 2183,
      "æĻļ": 2184,
      "è·Łä½ł": 2185,
      "Ġaround": 2186,
      "Ġlater": 2187,
      "Ġgedaan": 2188,
      "åĳ½": 2189,
      "Ġhal": 2190,
      "æĢķ": 2191,
      "çª": 2192,
      "çļĦæĺ¯": 2193,
      "æĪĳå°±": 2194,
      "PAR": 2195,
      "ĠAr": 2196,
      "Ġboy": 2197,
      "Ġstaan": 2198,
      "Ġgirl": 2199,
      "åı¯æĺ¯": 2200,
      "EXP": 2201,
      "éĹ®é¢ĺ": 2202,
      "Ġnight": 2203,
      "åħ¥": 2204,
      "ister": 2205,
      "apt": 2206,
      "ican": 2207,
      "Ġpop": 2208,
      "Ġä½Ĩæĺ¯": 2209,
      "ijt": 2210,
      "ught": 2211,
      "å©ļ": 2212,
      "mhm": 2213,
      "Ġcol": 2214,
      "çħ": 2215,
      "Ġend": 2216,
      "Ġvinden": 2217,
      "ps": 2218,
      "Ġcr": 2219,
      "Ġpaar": 2220,
      "Ġfeel": 2221,
      "room": 2222,
      "åĮĸ": 2223,
      "Ġanders": 2224,
      "æĳ": 2225,
      "Ġ7": 2226,
      "ial": 2227,
      "ä¸Ģå®ļ": 2228,
      "æıĲ": 2229,
      "rijf": 2230,
      "Ġlig": 2231,
      "ĠWe": 2232,
      "oney": 2233,
      "éĩĳ": 2234,
      "20": 2235,
      "ĠEn": 2236,
      "Ġbetter": 2237,
      "æ°ĳ": 2238,
      "äº¤": 2239,
      "Wel": 2240,
      "ç±": 2241,
      "Ġprob": 2242,
      "by": 2243,
      "ä½ķ": 2244,
      "å¥½çļĦ": 2245,
      "ĠWh": 2246,
      "Ġused": 2247,
      "Ġisn": 2248,
      "ä¸įä¼ļ": 2249,
      "èİ": 2250,
      "This": 2251,
      "Ġrest": 2252,
      "Ġsteeds": 2253,
      "Ġdes": 2254,
      "æľį": 2255,
      "Ġweek": 2256,
      "kom": 2257,
      "ieve": 2258,
      "ction": 2259,
      "æĮº": 2260,
      "ition": 2261,
      "Ġied": 2262,
      "ĠEr": 2263,
      "body": 2264,
      "side": 2265,
      "erg": 2266,
      "ä¹°": 2267,
      "she": 2268,
      "iteit": 2269,
      "anden": 2270,
      "Ġplace": 2271,
      "ift": 2272,
      "Ġå°±æĺ¯": 2273,
      "Ġsupp": 2274,
      "Ġomdat": 2275,
      "æ¥": 2276,
      "Ġfriend": 2277,
      "ations": 2278,
      "ä»£": 2279,
      "Ġmoeder": 2280,
      "å»": 2281,
      "ç¼": 2282,
      "Ġvragen": 2283,
      "ese": 2284,
      "geb": 2285,
      "é£İ": 2286,
      "Ġyears": 2287,
      "Ġhoofd": 2288,
      "med": 2289,
      "vent": 2290,
      "ä¹Ŀ": 2291,
      "åı¸": 2292,
      "æµ·": 2293,
      "ched": 2294,
      "åĳĬè¯ī": 2295,
      "Ġkinderen": 2296,
      "addy": 2297,
      "Ġatt": 2298,
      "oten": 2299,
      "ms": 2300,
      "arn": 2301,
      "mber": 2302,
      "Ġging": 2303,
      "æķ°": 2304,
      "Ġvriend": 2305,
      "Ġnieuwe": 2306,
      "Ġå°ı": 2307,
      "ä¸ºä»Ģä¹Ī": 2308,
      "so": 2309,
      "æĪ¿": 2310,
      "ç»Ļä½ł": 2311,
      "alt": 2312,
      "Voor": 2313,
      "put": 2314,
      "eling": 2315,
      "Ġmoment": 2316,
      "å¢": 2317,
      "outh": 2318,
      "æķħ": 2319,
      "eek": 2320,
      "ster": 2321,
      "Ġwillen": 2322,
      "There": 2323,
      "Ġdra": 2324,
      "Ġve": 2325,
      "Ġzij": 2326,
      "åĪ©": 2327,
      "Niet": 2328,
      "æ¡Ī": 2329,
      "Op": 2330,
      "Ġfour": 2331,
      "Ġwie": 2332,
      "Ġokay": 2333,
      "ple": 2334,
      "Ġbesch": 2335,
      "ä»¥åĲİ": 2336,
      "å§ĭ": 2337,
      "æĿ¡": 2338,
      "ä¸ľè¥¿": 2339,
      "Ġvraag": 2340,
      "aag": 2341,
      "åĨħ": 2342,
      "Ġwilde": 2343,
      "è£": 2344,
      "è¿ŀ": 2345,
      "),": 2346,
      "Ġstad": 2347,
      "ruk": 2348,
      "Ġten": 2349,
      "Ġbelang": 2350,
      "Wie": 2351,
      "èµ·æĿ¥": 2352,
      "Ġmed": 2353,
      "\".": 2354,
      "æ£": 2355,
      "maal": 2356,
      "uss": 2357,
      "Ġ10": 2358,
      "å¨ĺ": 2359,
      "Ġelse": 2360,
      "Ġbeing": 2361,
      "Ġ8": 2362,
      "Ġyeah": 2363,
      "this": 2364,
      "omm": 2365,
      "they": 2366,
      "Ġwhy": 2367,
      "Ġpolit": 2368,
      "ĠLe": 2369,
      "è¿ĳ": 2370,
      "æľŁ": 2371,
      "Ġsnel": 2372,
      "èĩªå·±çļĦ": 2373,
      "äººçļĦ": 2374,
      "Dan": 2375,
      "ai": 2376,
      "Ġè¿Ļä¸ª": 2377,
      "å¼Ł": 2378,
      "rist": 2379,
      "çİ©": 2380,
      "åºĶè¯¥": 2381,
      "ways": 2382,
      "Ġfilm": 2383,
      "å¦Īå¦Ī": 2384,
      "Ġpar": 2385,
      "åħŃ": 2386,
      "å¤Ł": 2387,
      "ence": 2388,
      "è®²": 2389,
      "ä¿©": 2390,
      "Ġph": 2391,
      "Ġsy": 2392,
      "Ġsame": 2393,
      "now": 2394,
      "cy": 2395,
      "Ġdoesn": 2396,
      "Ġmat": 2397,
      "eter": 2398,
      "vl": 2399,
      "olog": 2400,
      "Ġlife": 2401,
      "Ġvolgende": 2402,
      "laughs": 2403,
      "ä¸ŃåĽ½": 2404,
      "Ġå¦Ĥ": 2405,
      "Ġnext": 2406,
      "Ġwhile": 2407,
      "Ġplan": 2408,
      "ames": 2409,
      "ince": 2410,
      "Ġå¯": 2411,
      "ash": 2412,
      "Ġ199": 2413,
      "æĶ¶": 2414,
      "ves": 2415,
      "åºķ": 2416,
      "ĠPr": 2417,
      "Ġru": 2418,
      "çī¹åĪ«": 2419,
      "eng": 2420,
      "Ġmother": 2421,
      "ork": 2422,
      "ett": 2423,
      "mm": 2424,
      "ä¸Ķ": 2425,
      ",'": 2426,
      "äº§": 2427,
      "èī²": 2428,
      "Ġcent": 2429,
      "ä¸ĢçĤ¹": 2430,
      "Ġperson": 2431,
      "Ġprodu": 2432,
      "Ġja": 2433,
      "Ġverg": 2434,
      "ower": 2435,
      "bs": 2436,
      "Kijk": 2437,
      "ä¸Ģæł·": 2438,
      "å¾Ģ": 2439,
      "assen": 2440,
      "è¿ĻäºĽ": 2441,
      "è°¢è°¢": 2442,
      "Ġhappen": 2443,
      "Ġkeep": 2444,
      "ĠWat": 2445,
      "Ġä½łä»¬": 2446,
      "Ġsays": 2447,
      "Ġverm": 2448,
      "é¼": 2449,
      "If": 2450,
      "çĨ": 2451,
      "Ġdacht": 2452,
      "ĠAls": 2453,
      "Ġroom": 2454,
      "éŁ": 2455,
      "Ġnice": 2456,
      "how": 2457,
      "gest": 2458,
      "led": 2459,
      "Ġuur": 2460,
      "How": 2461,
      "uff": 2462,
      "ĠNew": 2463,
      "Al": 2464,
      "Ġbeter": 2465,
      "Ġverschill": 2466,
      "its": 2467,
      "Ġbez": 2468,
      "å®Ŀ": 2469,
      "Ġerm": 2470,
      "ased": 2471,
      "anten": 2472,
      "ĠåĴ": 2473,
      "Ġsur": 2474,
      "Ġsche": 2475,
      "Weet": 2476,
      "æ¼Ķ": 2477,
      "ĠEur": 2478,
      "Ġid": 2479,
      "åĳĥ": 2480,
      "å®³": 2481,
      "åķ¥": 2482,
      "éľĢ": 2483,
      "ron": 2484,
      "aad": 2485,
      "Ã¯": 2486,
      "Ġlie": 2487,
      "ird": 2488,
      "éĢģ": 2489,
      "waar": 2490,
      "ä¸¤ä¸ª": 2491,
      "ä¹Ĳ": 2492,
      "Ġdog": 2493,
      "ctor": 2494,
      "oes": 2495,
      "ieft": 2496,
      "Ġele": 2497,
      "Ġtele": 2498,
      "æķĻ": 2499,
      "Ġvrij": 2500,
      "Ġanything": 2501,
      "baar": 2502,
      "Ġbelangrijk": 2503,
      "komen": 2504,
      "az": 2505,
      "Ġnaam": 2506,
      "è·ĳ": 2507,
      "Ġkrijgen": 2508,
      ".'": 2509,
      "ped": 2510,
      "erent": 2511,
      "arly": 2512,
      "ä¸ĥ": 2513,
      "\",": 2514,
      "Ġmaak": 2515,
      "Dus": 2516,
      "Ġeten": 2517,
      "Ġhoor": 2518,
      "çĬ": 2519,
      "Ġke": 2520,
      "è¿Ļæĺ¯": 2521,
      "vis": 2522,
      "ouden": 2523,
      "Ġgone": 2524,
      "èĢĥ": 2525,
      "éħĴ": 2526,
      "roeg": 2527,
      "Ġliv": 2528,
      "Ġball": 2529,
      "ĠAll": 2530,
      "Ġmoest": 2531,
      "å¾Īå¤ļ": 2532,
      "akken": 2533,
      "OkÃ©": 2534,
      "Ġuse": 2535,
      "Ġstand": 2536,
      "Ġkijken": 2537,
      "not": 2538,
      "ject": 2539,
      "Ġac": 2540,
      "Ġacc": 2541,
      "Ġ9": 2542,
      "Ġleft": 2543,
      "ç¬ĳ": 2544,
      "Ġleg": 2545,
      "Ġgre": 2546,
      "ijkt": 2547,
      "ton": 2548,
      "Ġmar": 2549,
      "Ġco": 2550,
      "ĠDat": 2551,
      "Hier": 2552,
      "Ġfather": 2553,
      "oun": 2554,
      "Ġopdracht": 2555,
      "Ġå¯¹": 2556,
      "ĠOp": 2557,
      "ç¥ŀ": 2558,
      "ADU": 2559,
      "ished": 2560,
      "Ġcour": 2561,
      "è·ŁæĪĳ": 2562,
      "æĦıæĢĿ": 2563,
      "who": 2564,
      "ĠæīĢä»¥": 2565,
      "Ġsure": 2566,
      "oman": 2567,
      "ç©º": 2568,
      "reek": 2569,
      "ĠBut": 2570,
      "ä¹¦": 2571,
      "æł¹": 2572,
      "Wil": 2573,
      "Ġround": 2574,
      "Ġziet": 2575,
      "å¤«": 2576,
      "Ġgoes": 2577,
      "åİ»äºĨ": 2578,
      "etten": 2579,
      "å¼Ģå§ĭ": 2580,
      "iding": 2581,
      "gan": 2582,
      "Ġmaakt": 2583,
      "è¿ľ": 2584,
      "huh": 2585,
      "Ġsk": 2586,
      "Ġtru": 2587,
      "ikk": 2588,
      "åĪ¶": 2589,
      "Ġjouw": 2590,
      "ots": 2591,
      "ush": 2592,
      "å¥½äºĨ": 2593,
      "Ġwind": 2594,
      "Ġind": 2595,
      "å¼º": 2596,
      "Ġret": 2597,
      "ational": 2598,
      "hes": 2599,
      "éĿŀå¸¸": 2600,
      "Ġwaarom": 2601,
      "ield": 2602,
      "chten": 2603,
      "ä¼ł": 2604,
      "Ġgoede": 2605,
      "ui": 2606,
      "Ġplaats": 2607,
      "çļĦä¸Ģ": 2608,
      "raat": 2609,
      "Ġcat": 2610,
      "Ġgeven": 2611,
      "Ġaant": 2612,
      "è®¡": 2613,
      "çº¢": 2614,
      "ged": 2615,
      "Ġalways": 2616,
      "don": 2617,
      "Ġlove": 2618,
      "æ±Ĥ": 2619,
      "Ġå¦Ĥæŀľ": 2620,
      "æļ": 2621,
      "Ġsw": 2622,
      "Ġvis": 2623,
      "ä¸ºäºĨ": 2624,
      "ling": 2625,
      "ohn": 2626,
      "Ġwelke": 2627,
      "çĪ¶": 2628,
      "ream": 2629,
      "Ġleuk": 2630,
      "Ġexc": 2631,
      "orth": 2632,
      "Ġverand": 2633,
      "Ġhalf": 2634,
      "è¿Ļç§į": 2635,
      "Ġcons": 2636,
      "ä¾¿": 2637,
      "iks": 2638,
      "atuurlijk": 2639,
      "Ġzeker": 2640,
      "Ġkwam": 2641,
      "ĠSh": 2642,
      "åĿĹ": 2643,
      "aut": 2644,
      "ä¸įçŁ¥éģĵ": 2645,
      "Ġbev": 2646,
      "èĽ": 2647,
      "ç´§": 2648,
      "åįĥ": 2649,
      "é¥Ń": 2650,
      "Ġsing": 2651,
      "èı": 2652,
      "ç«ĭ": 2653,
      "çģ«": 2654,
      "ĠâĢ": 2655,
      "åĳ¨": 2656,
      "Ġart": 2657,
      "Ġdire": 2658,
      "ede": 2659,
      "kt": 2660,
      "åĮĹ": 2661,
      "åĴ±ä»¬": 2662,
      "éĻ¢": 2663,
      "Ġcle": 2664,
      "ĠMaar": 2665,
      "ween": 2666,
      "til": 2667,
      "çľĭçľĭ": 2668,
      "åľ¨è¿Ļ": 2669,
      "Ben": 2670,
      "nee": 2671,
      "ĠèĢĮ": 2672,
      "åŃĹ": 2673,
      "åĲĦ": 2674,
      "çĶ±": 2675,
      "ific": 2676,
      "åĸĿ": 2677,
      "çħ§": 2678,
      "Ġpie": 2679,
      "Ġzullen": 2680,
      "ta": 2681,
      "ĠOn": 2682,
      "é£ŀ": 2683,
      "Ġgemaakt": 2684,
      "Ġå¥¹": 2685,
      "Ġass": 2686,
      "Ġint": 2687,
      "Ġtold": 2688,
      "è¿Ĳ": 2689,
      "æģ¯": 2690,
      "çĹħ": 2691,
      "Ġbad": 2692,
      "ches": 2693,
      "åı¥": 2694,
      "åĽŀæĿ¥": 2695,
      "fect": 2696,
      "æľīä¸Ģ": 2697,
      "gd": 2698,
      "ä¹ĭåĲİ": 2699,
      "Ġinform": 2700,
      "isschien": 2701,
      "Ġjuist": 2702,
      "ica": 2703,
      "cies": 2704,
      "Ġem": 2705,
      "å¸Ĥ": 2706,
      "ĠFrank": 2707,
      "Ġvlie": 2708,
      "å·¥ä½ľ": 2709,
      "An": 2710,
      "æµģ": 2711,
      "Ġwalk": 2712,
      "Ġåĵİ": 2713,
      "Ġtek": 2714,
      "Ġsaw": 2715,
      "LT": 2716,
      "ness": 2717,
      "Ġtre": 2718,
      "Ġkill": 2719,
      "æ¯į": 2720,
      "Ġwait": 2721,
      "Ġvand": 2722,
      "Ġdist": 2723,
      "Ġspr": 2724,
      "ustr": 2725,
      "Ġnam": 2726,
      "Ġbuiten": 2727,
      "è¦ģæĺ¯": 2728,
      "cept": 2729,
      "çĶŁæ´»": 2730,
      "ĠThis": 2731,
      "Ġbedoel": 2732,
      "Ġcoming": 2733,
      "Ġgezien": 2734,
      "èĬĤ": 2735,
      "Ġwilt": 2736,
      "beelding": 2737,
      "ä¸įè¦ģ": 2738,
      "ĠDit": 2739,
      "Ġden": 2740,
      "Ġwacht": 2741,
      "åŁİ": 2742,
      "eeft": 2743,
      "cle": 2744,
      "Ġpass": 2745,
      "Nu": 2746,
      "ç¢": 2747,
      "Ġdifferent": 2748,
      "19": 2749,
      "Ġthough": 2750,
      "è®¸": 2751,
      "Ġgest": 2752,
      "part": 2753,
      "Ġverb": 2754,
      "åĩĨ": 2755,
      "Ġread": 2756,
      "å¤§çļĦ": 2757,
      "Ġtook": 2758,
      "Ġzonder": 2759,
      "æĺŁ": 2760,
      "gaan": 2761,
      "æ®µ": 2762,
      "Ġever": 2763,
      "eb": 2764,
      "Ch": 2765,
      "Ġlooks": 2766,
      "RO": 2767,
      "Ġreal": 2768,
      "Ġster": 2769,
      "uring": 2770,
      "Ġä¹Ł": 2771,
      "Why": 2772,
      "Ġside": 2773,
      "zo": 2774,
      "Ġpat": 2775,
      "åĿĲ": 2776,
      "çķĻ": 2777,
      "ĠDaar": 2778,
      "Ġsound": 2779,
      "Ġbox": 2780,
      "ADULT": 2781,
      "ä¸ĢçĽ´": 2782,
      "arr": 2783,
      "any": 2784,
      "Ġfive": 2785,
      "Ġgesch": 2786,
      "åįķ": 2787,
      "Ġenough": 2788,
      "å®¹": 2789,
      "Ġhouden": 2790,
      "Ġworld": 2791,
      "æŀĹ": 2792,
      "éľĢè¦ģ": 2793,
      "Ġoor": 2794,
      "ley": 2795,
      "ivers": 2796,
      "RA": 2797,
      "æķ´": 2798,
      "val": 2799,
      "Om": 2800,
      "ape": 2801,
      "Ġeerst": 2802,
      "aring": 2803,
      "Ġhelemaal": 2804,
      "æĭī": 2805,
      "cial": 2806,
      "Don": 2807,
      "ium": 2808,
      "Ġ15": 2809,
      "èħ": 2810,
      "ä¸įå¥½": 2811,
      "Ġboek": 2812,
      "Ġstud": 2813,
      "une": 2814,
      "ats": 2815,
      "ä½¿": 2816,
      "ries": 2817,
      "DS": 2818,
      "ĠInd": 2819,
      "aur": 2820,
      "aden": 2821,
      "att": 2822,
      "æĪĸ": 2823,
      "zelfde": 2824,
      "EL": 2825,
      "Ġlight": 2826,
      "Ġfar": 2827,
      "Ġhelpen": 2828,
      "æĮģ": 2829,
      "çķĮ": 2830,
      "aps": 2831,
      "allo": 2832,
      "Ġsmall": 2833,
      "ract": 2834,
      "Ġnieuw": 2835,
      "åķ¦": 2836,
      "uld": 2837,
      "Ġfew": 2838,
      "ä¼¤": 2839,
      "ollow": 2840,
      "go": 2841,
      "Mm": 2842,
      "Ġcare": 2843,
      "å¤ĩ": 2844,
      "Ġmeis": 2845,
      "è¯Ĩ": 2846,
      "Ġuntil": 2847,
      "Ġum": 2848,
      "Ġteam": 2849,
      "Ġplease": 2850,
      "èĮ": 2851,
      "Ġå¤§": 2852,
      "Ġslecht": 2853,
      "æ»¡": 2854,
      "å»º": 2855,
      "åĨ³": 2856,
      "Ġklaar": 2857,
      "Ġknown": 2858,
      "èĤ¯": 2859,
      "åħ³ç³»": 2860,
      "enten": 2861,
      "åıĳçİ°": 2862,
      "é¡¹": 2863,
      "Ġpraten": 2864,
      "log": 2865,
      "Sorry": 2866,
      "oto": 2867,
      "æĦŁè§ī": 2868,
      "Ġblijven": 2869,
      "Ã¨": 2870,
      "Ġdingen": 2871,
      "ĠIs": 2872,
      "åı·": 2873,
      "Ġgewe": 2874,
      "ross": 2875,
      "Ġhold": 2876,
      "èµ¶": 2877,
      "auw": 2878,
      "vie": 2879,
      "åı°": 2880,
      "Ġboven": 2881,
      "æĮĩ": 2882,
      "Ġlief": 2883,
      "Ġå½": 2884,
      "Ver": 2885,
      "ept": 2886,
      "Ġeyes": 2887,
      "gelijk": 2888,
      "ole": 2889,
      "ids": 2890,
      "ider": 2891,
      "æĺ¯ä¸įæĺ¯": 2892,
      "Ġvoel": 2893,
      "å¤±": 2894,
      "ĠâĢ¢": 2895,
      "angen": 2896,
      "fta": 2897,
      "Ġnumber": 2898,
      "Ġpoint": 2899,
      "è¾ĥ": 2900,
      "ung": 2901,
      "Ġdisc": 2902,
      "why": 2903,
      "å¹¶": 2904,
      "ĠQ": 2905,
      "Ġdeel": 2906,
      "æĦ¿": 2907,
      "Ġasked": 2908,
      "ane": 2909,
      "çľĭåĪ°": 2910,
      "Ġeind": 2911,
      "Ġmoney": 2912,
      "ics": 2913,
      "ĠæĢİä¹Ī": 2914,
      "çīĩ": 2915,
      "Ġseen": 2916,
      "ijdens": 2917,
      "Ġauto": 2918,
      "aas": 2919,
      "Ġair": 2920,
      "ankt": 2921,
      "Ġgenoeg": 2922,
      "æ¶Ī": 2923,
      "Ġorgan": 2924,
      "Ġbetween": 2925,
      "è±¡": 2926,
      "Ġverschillende": 2927,
      "apen": 2928,
      "ures": 2929,
      "Ġsecond": 2930,
      "æį®": 2931,
      "Ġ17": 2932,
      "Ġinst": 2933,
      "æħ¢": 2934,
      "ating": 2935,
      "Ġken": 2936,
      "ĠAmerican": 2937,
      "å¿ħ": 2938,
      "orning": 2939,
      "æĶ¹": 2940,
      "Ġtekst": 2941,
      "Ġvier": 2942,
      "æĭľ": 2943,
      "å¦Ĥæŀľ": 2944,
      "Ġtrain": 2945,
      "ex": 2946,
      "gether": 2947,
      "åħ´": 2948,
      "çº¿": 2949,
      "Ġmoe": 2950,
      "äºĨåĲĹ": 2951,
      "éĺ¿": 2952,
      "ax": 2953,
      "Ġsix": 2954,
      "Ġæ²¡": 2955,
      "åĬ¡": 2956,
      "Ġtogether": 2957,
      "ä¸Ģæ¬¡": 2958,
      "ieden": 2959,
      "åĮħ": 2960,
      "èĢģå¸Ī": 2961,
      "Met": 2962,
      "è¯ģ": 2963,
      "åĵİ": 2964,
      "anneer": 2965,
      "åĭ": 2966,
      "wo": 2967,
      "Ġboth": 2968,
      "Ġniks": 2969,
      "Ġlaatste": 2970,
      "Ġçİ°åľ¨": 2971,
      "åĽ¢": 2972,
      "æŁ¥": 2973,
      "èµĦ": 2974,
      "uister": 2975,
      "Be": 2976,
      "ĠUnited": 2977,
      "è½¬": 2978,
      "Ġjongen": 2979,
      "eth": 2980,
      "Ġhafta": 2981,
      "Ġtop": 2982,
      "ä½łå¥½": 2983,
      "Ġremember": 2984,
      "Misschien": 2985,
      "Ġquite": 2986,
      "å¯¼": 2987,
      "ç¨ĭ": 2988,
      "Ġpopul": 2989,
      "ĠåĽłä¸º": 2990,
      "éĽ¶": 2991,
      "Ġface": 2992,
      "æĿĢ": 2993,
      "Ġiedereen": 2994,
      "Ġgeweest": 2995,
      "Ġeach": 2996,
      "Ġtoday": 2997,
      "ball": 2998,
      "Ġdrink": 2999,
      "ĮæľĽ": 3000,
      "ily": 3001,
      "ĠBij": 3002,
      "èµĽ": 3003,
      "ible": 3004,
      "èµ°äºĨ": 3005,
      "æĿİ": 3006,
      "äººå®¶": 3007,
      "Ġwerden": 3008,
      "elling": 3009,
      "Ġhot": 3010,
      "ants": 3011,
      "Ġä½łè¯´": 3012,
      "aard": 3013,
      "kken": 3014,
      "åħ¬åı¸": 3015,
      "Ġè¿ĺ": 3016,
      "aald": 3017,
      "oit": 3018,
      "uz": 3019,
      "Ġbec": 3020,
      "Ġlooking": 3021,
      "Ġbang": 3022,
      "ĠThere": 3023,
      "Ġger": 3024,
      "Ġext": 3025,
      "ump": 3026,
      "Ġgebeur": 3027,
      "çĪ¸çĪ¸": 3028,
      "Ġbeetje": 3029,
      "Ġverder": 3030,
      "www": 3031,
      "Dank": 3032,
      "Ġ198": 3033,
      "è®©æĪĳ": 3034,
      "Ġspijt": 3035,
      "ĠChrist": 3036,
      "Ġlar": 3037,
      "ows": 3038,
      "Ġdoll": 3039,
      "wat": 3040,
      "die": 3041,
      "Ġfun": 3042,
      "ired": 3043,
      "ĠBrit": 3044,
      "Ġhoud": 3045,
      "é¾": 3046,
      "Ġåį": 3047,
      "Ġdec": 3048,
      "anks": 3049,
      "Ġvroeg": 3050,
      "ony": 3051,
      "ĠæĤ¨": 3052,
      "æĪĳæĺ¯": 3053,
      "å¼ı": 3054,
      "Ġneem": 3055,
      "èĩ³": 3056,
      "onnen": 3057,
      "king": 3058,
      "Ġhaven": 3059,
      "ĠRe": 3060,
      "åįĬ": 3061,
      "Hey": 3062,
      "wel": 3063,
      "æłĳ": 3064,
      "Ġstuk": 3065,
      "tje": 3066,
      "Ġhart": 3067,
      "Ġcut": 3068,
      "ĠPh": 3069,
      "rijven": 3070,
      "mp": 3071,
      "Let": 3072,
      "ably": 3073,
      "æŃ¥": 3074,
      "Ġyes": 3075,
      "Ġè¦ģ": 3076,
      "Ġsla": 3077,
      "Ġmind": 3078,
      "Bl": 3079,
      "æº": 3080,
      "çıŃ": 3081,
      "Ġhadden": 3082,
      "æ³¨": 3083,
      "çŀ": 3084,
      "Ġbep": 3085,
      "Ġdi": 3086,
      "ĠåĨ": 3087,
      "åľ°æĸ¹": 3088,
      "bed": 3089,
      "ks": 3090,
      "Do": 3091,
      "Okay": 3092,
      "Ġgener": 3093,
      "ha": 3094,
      "åįĹ": 3095,
      "Ġnothing": 3096,
      "use": 3097,
      "enen": 3098,
      "Ġmus": 3099,
      "elde": 3100,
      "Ġfact": 3101,
      "ual": 3102,
      "çĵ": 3103,
      "EA": 3104,
      "Ġmiss": 3105,
      "Ġmorning": 3106,
      "Ġfire": 3107,
      "Ġstay": 3108,
      "net": 3109,
      "äºĨæĪĳ": 3110,
      "ennis": 3111,
      "Doe": 3112,
      "ye": 3113,
      "¿½": 3114,
      "åĮ»": 3115,
      "erman": 3116,
      "æĶ¿": 3117,
      "Ġkleine": 3118,
      "Ġvaak": 3119,
      "Ġpick": 3120,
      "nie": 3121,
      "åħ±": 3122,
      "Ġfoot": 3123,
      "Ġsorry": 3124,
      "é»ĳ": 3125,
      "Now": 3126,
      "Ġber": 3127,
      "éº": 3128,
      "Ġlucht": 3129,
      "Ġsleep": 3130,
      "Geef": 3131,
      "Ġset": 3132,
      "çĿ¡": 3133,
      "æĺĵ": 3134,
      "urg": 3135,
      "Ġ12": 3136,
      "Ġ16": 3137,
      "ips": 3138,
      "æİĴ": 3139,
      "Ġpresent": 3140,
      "CDS": 3141,
      "Geen": 3142,
      "Mr": 3143,
      "å«": 3144,
      "åķĨ": 3145,
      "Not": 3146,
      "Ġhapp": 3147,
      "Ġrecht": 3148,
      "fl": 3149,
      "Ġdro": 3150,
      "éĿĴ": 3151,
      "son": 3152,
      "è¿ĩæĿ¥": 3153,
      "erde": 3154,
      "Ġoh": 3155,
      "ijs": 3156,
      "ijken": 3157,
      "Ġchar": 3158,
      "ator": 3159,
      "con": 3160,
      "ared": 3161,
      "é¦ĸ": 3162,
      "Ġtri": 3163,
      "Le": 3164,
      "Ġing": 3165,
      "Ġfollow": 3166,
      "Ġyet": 3167,
      "Ġwatch": 3168,
      "ï¿½": 3169,
      "Ġä½Ĩ": 3170,
      "å¦¹": 3171,
      "åĮº": 3172,
      "è½»": 3173,
      "Ġide": 3174,
      "Ġkant": 3175,
      "acter": 3176,
      "Ġeff": 3177,
      "Ġgeweld": 3178,
      "urs": 3179,
      "æĢ¥": 3180,
      "Ġafbeelding": 3181,
      "ĠAmerik": 3182,
      "åĬŁ": 3183,
      "çĥŃ": 3184,
      "å¿Ļ": 3185,
      "Ġè¯´": 3186,
      "ĠHoe": 3187,
      "Ġwist": 3188,
      "Ġgetting": 3189,
      "Ġåıª": 3190,
      "Ġuh": 3191,
      "Ġonce": 3192,
      "è¡£": 3193,
      "Ġgraag": 3194,
      "Ġaantal": 3195,
      "lo": 3196,
      "Hallo": 3197,
      "ä¸ĭæĿ¥": 3198,
      "Come": 3199,
      "ä¹ī": 3200,
      "ijna": 3201,
      "ĠHier": 3202,
      "çŁ³": 3203,
      "åĨĻ": 3204,
      "Ġå½ĵ": 3205,
      "ĠåĴ±": 3206,
      "Ġhigh": 3207,
      "Ġrond": 3208,
      "æ¸¸": 3209,
      "aught": 3210,
      "Ġheen": 3211,
      "rew": 3212,
      "Ġonderzoek": 3213,
      "Wacht": 3214,
      "avond": 3215,
      "Ġnat": 3216,
      "ason": 3217,
      "ress": 3218,
      "èĤ¯å®ļ": 3219,
      "uc": 3220,
      "rom": 3221,
      "Ġidee": 3222,
      "Ġhear": 3223,
      "ulp": 3224,
      "Ġantwoord": 3225,
      "Ġincl": 3226,
      "ç«Ļ": 3227,
      "Ġcoll": 3228,
      "äºĮåįģ": 3229,
      "å¥½å¥½": 3230,
      "jebl": 3231,
      "ĠJohn": 3232,
      "ines": 3233,
      "äº®": 3234,
      "Ġgeeft": 3235,
      "éŁ³": 3236,
      "eerde": 3237,
      "leg": 3238,
      "è¯ķ": 3239,
      "éĺ³": 3240,
      "Ġcourse": 3241,
      "Ġrun": 3242,
      "Ġè¿Ļæĺ¯": 3243,
      "Sch": 3244,
      "ä½łè¯´": 3245,
      "ç½ĳ": 3246,
      "ç²¾": 3247,
      "igd": 3248,
      "è´¨": 3249,
      "Ġchildren": 3250,
      "Ġdri": 3251,
      "reken": 3252,
      "Ġwar": 3253,
      "Ġdeed": 3254,
      "å¥¶": 3255,
      "éŃ": 3256,
      "Ġbew": 3257,
      "ĠDeze": 3258,
      "ering": 3259,
      "éĩĮéĿ¢": 3260,
      "åĢĴ": 3261,
      "Bed": 3262,
      "Of": 3263,
      "Ġpict": 3264,
      "ĠMiss": 3265,
      "eert": 3266,
      "åĵģ": 3267,
      "é¹": 3268,
      "Ġresp": 3269,
      "æ·±": 3270,
      "illy": 3271,
      "Ġexp": 3272,
      "Ġkrijgt": 3273,
      "Ġsoort": 3274,
      "åĵĪåĵĪ": 3275,
      "ĠAs": 3276,
      "Ġmisschien": 3277,
      "etty": 3278,
      "Ġvoed": 3279,
      "åĨµ": 3280,
      "Ġhers": 3281,
      "Ġalong": 3282,
      "ä¸ĬçļĦ": 3283,
      "Ġklein": 3284,
      "è§Ĩ": 3285,
      "æķĳ": 3286,
      "ages": 3287,
      "most": 3288,
      "anger": 3289,
      "Ġzorgen": 3290,
      "mb": 3291,
      "Ġanim": 3292,
      "jeblieft": 3293,
      "Ġpubl": 3294,
      "did": 3295,
      "ĠSc": 3296,
      "è°ĥ": 3297,
      "ç¿": 3298,
      "Ġä»ĸä»¬": 3299,
      "zer": 3300,
      "Ġbeste": 3301,
      "aanse": 3302,
      "Ġsign": 3303,
      "ott": 3304,
      "oke": 3305,
      "Ġheet": 3306,
      "Ġheard": 3307,
      "Ġooit": 3308,
      "ĠGe": 3309,
      "å±ķ": 3310,
      "åĤ": 3311,
      "inc": 3312,
      "èģĬ": 3313,
      "æīĢæľī": 3314,
      "Ġgebruikt": 3315,
      "åł": 3316,
      "osed": 3317,
      "Ġgeluk": 3318,
      "Nou": 3319,
      "å¾·": 3320,
      "Ġ197": 3321,
      "Ġlooked": 3322,
      "ĠèĢģ": 3323,
      "itch": 3324,
      "Ġsort": 3325,
      "Ġligt": 3326,
      "Ġthuis": 3327,
      "Ġwonder": 3328,
      "Ġsong": 3329,
      "å¤į": 3330,
      "Ġmove": 3331,
      "æķ¢": 3332,
      "Ġkre": 3333,
      "æĪĳè§īå¾Ĺ": 3334,
      "Ġfell": 3335,
      "omme": 3336,
      "æİī": 3337,
      "éĥ½ä¸į": 3338,
      "èĲ½": 3339,
      "ĠOok": 3340,
      "ensch": 3341,
      "Hou": 3342,
      "oth": 3343,
      "Ġvertellen": 3344,
      "Ġyoung": 3345,
      "yp": 3346,
      "ä¼ļåĦ¿": 3347,
      "Ġsoon": 3348,
      "Ġleave": 3349,
      "HE": 3350,
      "stof": 3351,
      "Ġwithout": 3352,
      "Ġmooi": 3353,
      "Ġexpl": 3354,
      "Ġontst": 3355,
      "Ġnemen": 3356,
      "èģĶ": 3357,
      "fess": 3358,
      "ĠWhat": 3359,
      "weg": 3360,
      "ital": 3361,
      "ç»Ī": 3362,
      "åĪĺ": 3363,
      "uil": 3364,
      "Ġhaving": 3365,
      "Ġmanier": 3366,
      "Ġfall": 3367,
      "res": 3368,
      "ready": 3369,
      "Ġagainst": 3370,
      "Ġverhaal": 3371,
      "ä¹ĭåīį": 3372,
      "Ġhands": 3373,
      "inner": 3374,
      "å¾ħ": 3375,
      "kker": 3376,
      "raak": 3377,
      "å¿Ĺ": 3378,
      "Ġdirect": 3379,
      "å¸ĮæľĽ": 3380,
      "ĠMrs": 3381,
      "aul": 3382,
      "ç§ĳ": 3383,
      "èŃ": 3384,
      "å½¢": 3385,
      "Ġå¹": 3386,
      "Ġhen": 3387,
      "èĭ¦": 3388,
      "ocht": 3389,
      "Ġwrit": 3390,
      "Ġoffic": 3391,
      "Ġstra": 3392,
      "Ġrust": 3393,
      "æŃĮ": 3394,
      "Ġwerken": 3395,
      "æ¥ļ": 3396,
      "woorden": 3397,
      "ities": 3398,
      "oopt": 3399,
      "æĩ": 3400,
      "æĺİçĻ½": 3401,
      "èŃ¦": 3402,
      "ison": 3403,
      "Ġcir": 3404,
      "çļĦå°ı": 3405,
      "Ġtalking": 3406,
      "ĠVoor": 3407,
      "Ġzag": 3408,
      "Ġnear": 3409,
      "ds": 3410,
      "oven": 3411,
      "Ġou": 3412,
      "è¾¾": 3413,
      "å²ģ": 3414,
      "äºĨä½ł": 3415,
      "Ġshall": 3416,
      "Ġgrond": 3417,
      "NAN": 3418,
      "akk": 3419,
      "Ġsub": 3420,
      "Ġvorm": 3421,
      "Ġhoog": 3422,
      "Ġob": 3423,
      "Ġlive": 3424,
      "ommy": 3425,
      "åħĦ": 3426,
      "ding": 3427,
      "ĠåĪ«": 3428,
      "åıĬ": 3429,
      "ieten": 3430,
      "è·³": 3431,
      "Ġlijkt": 3432,
      "Ġdef": 3433,
      "Ġbegrij": 3434,
      "Ġonge": 3435,
      "ĠEd": 3436,
      "Ġfoto": 3437,
      "ç»Ń": 3438,
      "åį´": 3439,
      "éĨ": 3440,
      "ä¸Ģä¸ªäºº": 3441,
      "é±": 3442,
      "é¢Ĩ": 3443,
      "Ġhappened": 3444,
      "é±¼": 3445,
      "Ġdicht": 3446,
      "uurt": 3447,
      "æľĢåĲİ": 3448,
      "éĢł": 3449,
      "ober": 3450,
      "ĠStates": 3451,
      "Ġhor": 3452,
      "ither": 3453,
      "ikt": 3454,
      "vers": 3455,
      "ä¸ĸçķĮ": 3456,
      "Ġbron": 3457,
      "Ġcontro": 3458,
      "Ġknew": 3459,
      "Ġsim": 3460,
      "çĶ»": 3461,
      "åŁº": 3462,
      "Ġvide": 3463,
      "ä¸ĢäºĽ": 3464,
      "Ġans": 3465,
      "erst": 3466,
      "åıĸ": 3467,
      "ĠAt": 3468,
      "Ġready": 3469,
      "æł¼": 3470,
      "Ġupon": 3471,
      "ney": 3472,
      "éļı": 3473,
      "ä¹ł": 3474,
      "Ġcountry": 3475,
      "è¶³": 3476,
      "Ġcur": 3477,
      "ury": 3478,
      "Ġborn": 3479,
      "æľīä»Ģä¹Ī": 3480,
      "Ġ11": 3481,
      "è§Ĥ": 3482,
      "ä¹ħ": 3483,
      "opt": 3484,
      "å·®": 3485,
      "Ġwanted": 3486,
      "Ġgebruiken": 3487,
      "Ġbas": 3488,
      "ĠEl": 3489,
      "inds": 3490,
      "è£ħ": 3491,
      "ba": 3492,
      "Ġdied": 3493,
      "ertain": 3494,
      "æ¯Ķè¾ĥ": 3495,
      "ĠBob": 3496,
      "gram": 3497,
      "iger": 3498,
      "Ġav": 3499,
      "Ġgrou": 3500,
      "çªģ": 3501,
      "Ġlich": 3502,
      "aint": 3503,
      "Ġform": 3504,
      "?'": 3505,
      "è®¾": 3506,
      "åįĸ": 3507,
      "Ġdays": 3508,
      "Ġwin": 3509,
      "Ġbren": 3510,
      "uizen": 3511,
      "ĠåķĬ": 3512,
      "æĢª": 3513,
      "æĢģ": 3514,
      "Deze": 3515,
      "Ġmogelijk": 3516,
      "Ġå¿": 3517,
      "èĦ¸": 3518,
      "å©Ĩ": 3519,
      "unny": 3520,
      "OU": 3521,
      "Ġniemand": 3522,
      "Ġmeneer": 3523,
      "Ġcity": 3524,
      "åħ»": 3525,
      "Ġvindt": 3526,
      "ined": 3527,
      "ement": 3528,
      "éĻ¤": 3529,
      "è¨": 3530,
      "ŀĭ": 3531,
      "å¥ĩ": 3532,
      "Sh": 3533,
      "Ġstory": 3534,
      "weede": 3535,
      "è¨Ģ": 3536,
      "ç»Ŀ": 3537,
      "å¸ĥ": 3538,
      "ĠGerman": 3539,
      "weet": 3540,
      "mon": 3541,
      "Ġgeze": 3542,
      "ĠæĪĳå°±": 3543,
      "Âł": 3544,
      "Ġdear": 3545,
      "Ġquest": 3546,
      "ĠæĿ¥": 3547,
      "Ġ202": 3548,
      "voorbeeld": 3549,
      "åĻ": 3550,
      "arry": 3551,
      "ĠDon": 3552,
      "oemen": 3553,
      "ĠBl": 3554,
      "Ġzouden": 3555,
      "ä¸įäºĨ": 3556,
      "ĠSte": 3557,
      "Ġmannen": 3558,
      "uin": 3559,
      "Ġgame": 3560,
      "Ġmaking": 3561,
      "Ġbijna": 3562,
      "Jullie": 3563,
      "Ġbreak": 3564,
      "roe": 3565,
      "åħµ": 3566,
      "Ġreturn": 3567,
      "æĪĳä»¬çļĦ": 3568,
      "Ġogen": 3569,
      "Ġsil": 3570,
      "ç»Ħ": 3571,
      "AL": 3572,
      "Ġheart": 3573,
      "Ġverz": 3574,
      "ĠCl": 3575,
      "HÃ©": 3576,
      "å¾®": 3577,
      "æ²³": 3578,
      "Ġminder": 3579,
      "ying": 3580,
      "Ġ:": 3581,
      "Ġgar": 3582,
      "çļĩ": 3583,
      "é£Ł": 3584,
      "âĳ": 3585,
      "æĪĳä¹Ł": 3586,
      "Ġverw": 3587,
      "Ġfamily": 3588,
      "Ġdenken": 3589,
      "Ġmeet": 3590,
      "æĴŃ": 3591,
      "Ġdel": 3592,
      "å°½": 3593,
      "è®º": 3594,
      "Ġspeel": 3595,
      "Ġelke": 3596,
      "Ġmidd": 3597,
      "Ġsucc": 3598,
      "æľīçĤ¹": 3599,
      "iam": 3600,
      "het": 3601,
      "Ġnoise": 3602,
      "Ġsince": 3603,
      "æľ¯": 3604,
      "anc": 3605,
      "Ġaard": 3606,
      "Ġgelijk": 3607,
      "è¿Ļä¸Ģ": 3608,
      "ives": 3609,
      "å¤ľ": 3610,
      "Ġaange": 3611,
      "jor": 3612,
      "ret": 3613,
      "æĸŃ": 3614,
      "çīĽ": 3615,
      "Ġhair": 3616,
      "ully": 3617,
      "å§ĳ": 3618,
      "heden": 3619,
      "Ġhoren": 3620,
      "Ġwoord": 3621,
      "see": 3622,
      "enty": 3623,
      "lish": 3624,
      "è¯¯": 3625,
      "åĩºåİ»": 3626,
      "åĵªåĦ¿": 3627,
      "maar": 3628,
      "Ġlos": 3629,
      "Ġenige": 3630,
      "ĠWill": 3631,
      "Ġpri": 3632,
      "Ġfood": 3633,
      "æľª": 3634,
      "rekken": 3635,
      "Ġdagen": 3636,
      "Ġwoman": 3637,
      "Ġlicht": 3638,
      "å®¢": 3639,
      "ĠJan": 3640,
      "ç±»": 3641,
      "Ġinformatie": 3642,
      "euw": 3643,
      "Ġä¸įæĺ¯": 3644,
      "Ġwet": 3645,
      "Ġwhite": 3646,
      "ĠNo": 3647,
      "Ġgroe": 3648,
      "Ġzelfs": 3649,
      "ones": 3650,
      "Ġhum": 3651,
      "Ġvak": 3652,
      "ester": 3653,
      "ijnen": 3654,
      "æĿ¥çļĦ": 3655,
      "less": 3656,
      "ouse": 3657,
      "å®ĺ": 3658,
      "Ġref": 3659,
      "Ġleer": 3660,
      "Ġvers": 3661,
      "Ġgesp": 3662,
      "roken": 3663,
      "ĠPro": 3664,
      "ĠMummy": 3665,
      "ä¸įè¿ĩ": 3666,
      "Ġmeisje": 3667,
      "Ġhimself": 3668,
      "ä»½": 3669,
      "ç»Ł": 3670,
      "Ġbere": 3671,
      "airs": 3672,
      "æĬĵ": 3673,
      "åĵį": 3674,
      "ä½łå°±": 3675,
      "Ġprot": 3676,
      "Ġtrans": 3677,
      "Ġwhe": 3678,
      "è¯´äºĨ": 3679,
      "Ġbring": 3680,
      "iness": 3681,
      "Ġgebeurt": 3682,
      "Van": 3683,
      "åħĶ": 3684,
      "Ġboys": 3685,
      "çĶµè¯Ŀ": 3686,
      "éĩįè¦ģ": 3687,
      "Ġlov": 3688,
      "read": 3689,
      "ĠHow": 3690,
      "ĠæĪĳæĺ¯": 3691,
      "½çĦ¶": 3692,
      "Ġkop": 3693,
      "Ġvijf": 3694,
      "Ġzoek": 3695,
      "ĠDr": 3696,
      "çľŁæĺ¯": 3697,
      "Ġfamilie": 3698,
      "Wij": 3699,
      "dem": 3700,
      "ĠJap": 3701,
      "åĬŀæ³ķ": 3702,
      "Ġwoorden": 3703,
      "Ġhoop": 3704,
      "ocal": 3705,
      "èį¯": 3706,
      "Ġkoning": 3707,
      "good": 3708,
      "åĪĩ": 3709,
      "Ġ196": 3710,
      "Bedankt": 3711,
      "My": 3712,
      "æĿĳ": 3713,
      "ize": 3714,
      "Ġspelen": 3715,
      "æĸ¯": 3716,
      "Ġklas": 3717,
      "slag": 3718,
      "Ġposs": 3719,
      "å¿ĥéĩĮ": 3720,
      "aus": 3721,
      "und": 3722,
      "Ġgave": 3723,
      "Ġplayed": 3724,
      "é»Ħ": 3725,
      "GRA": 3726,
      "ari": 3727,
      "èĳ": 3728,
      "é¼ł": 3729,
      "Ġband": 3730,
      "Ġhalen": 3731,
      "elden": 3732,
      "ric": 3733,
      "ently": 3734,
      "Ġjaren": 3735,
      "omas": 3736,
      "TEA": 3737,
      "ters": 3738,
      "Ġåı¯æĺ¯": 3739,
      "Ġcomes": 3740,
      "Ġpos": 3741,
      "Ġlichaam": 3742,
      "Ġrock": 3743,
      "water": 3744,
      "ised": 3745,
      "Ġ14": 3746,
      "inde": 3747,
      "Where": 3748,
      "zicht": 3749,
      "Ġtable": 3750,
      "æĪı": 3751,
      "åħĥ": 3752,
      "çŃĶæ¡Ī": 3753,
      "Ġmoo": 3754,
      "ager": 3755,
      "æĸĻ": 3756,
      "èĥ½å¤Ł": 3757,
      "ĠFor": 3758,
      "åıĶ": 3759,
      "ded": 3760,
      "Ġtree": 3761,
      "Ġåİ": 3762,
      "Ġgi": 3763,
      "Ġopge": 3764,
      "When": 3765,
      "Ġbecame": 3766,
      "ouch": 3767,
      "Ġsaying": 3768,
      "Ġwhole": 3769,
      "Mummy": 3770,
      "kl": 3771,
      "è´¹": 3772,
      "Ġkaart": 3773,
      "ev": 3774,
      "ilig": 3775,
      "Ġpast": 3776,
      "ä½łæĺ¯": 3777,
      "ĠPar": 3778,
      "werp": 3779,
      "akt": 3780,
      "æį¢": 3781,
      "Ġanswer": 3782,
      "ner": 3783,
      "ises": 3784,
      "rijd": 3785,
      "Ġsold": 3786,
      "aster": 3787,
      "Ġstarted": 3788,
      "æĻļä¸Ĭ": 3789,
      "imed": 3790,
      "è°Ī": 3791,
      "Ġplaying": 3792,
      "dam": 3793,
      "Zeg": 3794,
      "å¦ĩ": 3795,
      "press": 3796,
      "Ġjongens": 3797,
      "offen": 3798,
      "æĪĳä¸į": 3799,
      "åĵ¦": 3800,
      "é¦Ļ": 3801,
      "åįİ": 3802,
      "Right": 3803,
      "ĠYork": 3804,
      "ienden": 3805,
      "Ġ0": 3806,
      "Ġuitge": 3807,
      "Ġblack": 3808,
      "Ġinterest": 3809,
      "Ġeverything": 3810,
      "Ġfloor": 3811,
      "æ¯Ľ": 3812,
      "ara": 3813,
      "Ġbelieve": 3814,
      "æ¢¦": 3815,
      "rat": 3816,
      "Ġcompl": 3817,
      "Ġåħ¶å®ŀ": 3818,
      "olen": 3819,
      "zie": 3820,
      "Ġzon": 3821,
      "Ġcra": 3822,
      "Ġrele": 3823,
      "ç©¿": 3824,
      "Ġvandaag": 3825,
      "Ġhour": 3826,
      "å¤ļå°ĳ": 3827,
      "æĿ¿": 3828,
      "åĪ°åºķ": 3829,
      "Ġmilj": 3830,
      "Ġpolitie": 3831,
      "Ġbi": 3832,
      "Ġzet": 3833,
      "Ġziek": 3834,
      "æĥħåĨµ": 3835,
      "Ġfeet": 3836,
      "Ġwasn": 3837,
      "ctie": 3838,
      "sc": 3839,
      "éĤ£äºĽ": 3840,
      "æķħäºĭ": 3841,
      "mee": 3842,
      "Ġed": 3843,
      "Ġbesl": 3844,
      "wards": 3845,
      "Ġtijdens": 3846,
      "æł¡": 3847,
      "åĦ¿åŃĲ": 3848,
      "ç¤¼": 3849,
      "æ²»": 3850,
      "Ġä»Ģä¹Ī": 3851,
      "ĠWel": 3852,
      "Ġimport": 3853,
      "Ġenk": 3854,
      "è¯´çļĦ": 3855,
      "åĽŀåİ»": 3856,
      "SO": 3857,
      "ĠX": 3858,
      "aks": 3859,
      "Ġhoudt": 3860,
      "arde": 3861,
      "Ġtimes": 3862,
      "æĬ¤": 3863,
      "ĠVan": 3864,
      "Alles": 3865,
      "Ġgehe": 3866,
      "å£«": 3867,
      "ç¤º": 3868,
      "cess": 3869,
      "Ġmot": 3870,
      "éģĩ": 3871,
      "Ġbegan": 3872,
      "Ġgezegd": 3873,
      "Ġdieren": 3874,
      "gy": 3875,
      "Ġ30": 3876,
      "rum": 3877,
      "ĠDaddy": 3878,
      "Ġgeleden": 3879,
      "50": 3880,
      "co": 3881,
      "çļ®": 3882,
      "å®¶éĩĮ": 3883,
      "Ġkans": 3884,
      "ç«Ł": 3885,
      "ĠSe": 3886,
      "Ġnatuurlijk": 3887,
      "Ġpost": 3888,
      "oms": 3889,
      "ĠFrance": 3890,
      "iÃ«n": 3891,
      "ç»§": 3892,
      "èıľ": 3893,
      "just": 3894,
      "ç»ĥ": 3895,
      "ists": 3896,
      "oemd": 3897,
      "Ġmusic": 3898,
      "Ġinv": 3899,
      "Ġgroep": 3900,
      "Ġrep": 3901,
      "Ġminute": 3902,
      "æ¨": 3903,
      "idden": 3904,
      "æĭħ": 3905,
      "Ġbrand": 3906,
      "Ġton": 3907,
      "éĽ¨": 3908,
      "hal": 3909,
      "erv": 3910,
      "Ġexper": 3911,
      "è´Ł": 3912,
      "å½ĵæĹ¶": 3913,
      "Ġoude": 3914,
      "Ġsqu": 3915,
      "Ġunderstand": 3916,
      "veer": 3917,
      "éĽĨ": 3918,
      "ler": 3919,
      "ande": 3920,
      "esten": 3921,
      "å±Ģ": 3922,
      "Ġpaper": 3923,
      "ï¿½ï¿½": 3924,
      "é²": 3925,
      "rouwen": 3926,
      "Ġvideo": 3927,
      "Ġvill": 3928,
      "Ġteken": 3929,
      "ĠWik": 3930,
      "Laten": 3931,
      "è¸": 3932,
      "Ġeng": 3933,
      "åħĭ": 3934,
      "Ġdenkt": 3935,
      "Ġvond": 3936,
      "Ġnacht": 3937,
      "Ġstem": 3938,
      "çĨĬ": 3939,
      "Who": 3940,
      "Just": 3941,
      "äºī": 3942,
      "åıĤ": 3943,
      "zy": 3944,
      "itie": 3945,
      "åħļ": 3946,
      "Ġontw": 3947,
      "Ġless": 3948,
      "Ġander": 3949,
      "æľĿ": 3950,
      "Ġriv": 3951,
      "ĠNor": 3952,
      "Ġappear": 3953,
      "Ġzee": 3954,
      "Ġfight": 3955,
      "äºĨåĲ§": 3956,
      "Ġalmost": 3957,
      "Ġcontin": 3958,
      "like": 3959,
      "Ġtown": 3960,
      "æĺ¯ä¸Ģ": 3961,
      "ience": 3962,
      "Ġoorlog": 3963,
      "'.": 3964,
      "bel": 3965,
      "Ġline": 3966,
      "stem": 3967,
      "ided": 3968,
      "Ġcolor": 3969,
      "äº¬": 3970,
      "Ġlost": 3971,
      "ipp": 3972,
      "Ġactually": 3973,
      "ming": 3974,
      "äºĳ": 3975,
      "Ġalready": 3976,
      "rought": 3977,
      "åĪļæīį": 3978,
      "Ġtrying": 3979,
      "mat": 3980,
      "Ġreden": 3981,
      "Ġprov": 3982,
      "Ġgevonden": 3983,
      "Ġinc": 3984,
      "Ġkrijg": 3985,
      "ained": 3986,
      "ient": 3987,
      "Ġval": 3988,
      "ä¸ªäºº": 3989,
      "æİ¨": 3990,
      "II": 3991,
      "å¡": 3992,
      "ution": 3993,
      "æĶ¯": 3994,
      "itting": 3995,
      "MCH": 3996,
      "ç±³": 3997,
      "ram": 3998,
      "åª": 3999,
      "!'": 4000,
      "ana": 4001,
      "Ġduring": 4002,
      "Ġoud": 4003,
      "Ġpretty": 4004,
      "é¸¡": 4005,
      "Ġwrong": 4006,
      "Ġverst": 4007,
      "å¥½åĥı": 4008,
      "åħĪçĶŁ": 4009,
      "Ġble": 4010,
      "ene": 4011,
      "Ġpay": 4012,
      "æĩĤ": 4013,
      "Ġsir": 4014,
      "Ġoften": 4015,
      "è¯´ä½ł": 4016,
      "orrow": 4017,
      "ä»¤": 4018,
      "ĠAfr": 4019,
      "è¿Ļæł·çļĦ": 4020,
      "Ġeeuw": 4021,
      "Ġmatter": 4022,
      "min": 4023,
      "ekent": 4024,
      "ĠWaar": 4025,
      "Ġidea": 4026,
      "åľŁ": 4027,
      "æ¹": 4028,
      "Ġlik": 4029,
      "æĢİä¹Īæł·": 4030,
      "lijke": 4031,
      "Then": 4032,
      "arth": 4033,
      "vern": 4034,
      "Ġzoon": 4035,
      "ogra": 4036,
      "èĭ±": 4037,
      "Ġpiece": 4038,
      "ziek": 4039,
      "åĪ»": 4040,
      "åĩ»": 4041,
      "Ġgotta": 4042,
      "é¡¾": 4043,
      "och": 4044,
      "Ġkr": 4045,
      "éĤ£ç§į": 4046,
      "éĻª": 4047,
      "ĠSam": 4048,
      "unch": 4049,
      "Ġeas": 4050,
      "uth": 4051,
      "Ġtem": 4052,
      "Ġhoeveel": 4053,
      "ç£": 4054,
      "Ġnorm": 4055,
      "Ġarm": 4056,
      "Ġstick": 4057,
      "ĠMet": 4058,
      "Ġdet": 4059,
      "Ġcor": 4060,
      "Ġcertain": 4061,
      "ilijk": 4062,
      "ç¤¾": 4063,
      "Re": 4064,
      "ĠæĬĬ": 4065,
      "è¯Ń": 4066,
      "oep": 4067,
      "ĠCon": 4068,
      "æŀģ": 4069,
      "plaat": 4070,
      "è®©ä½ł": 4071,
      "ĠHis": 4072,
      "ĠEnglish": 4073,
      "FCH": 4074,
      "Ġrad": 4075,
      "åĽŀå®¶": 4076,
      "éªĮ": 4077,
      "Ġéĥ½": 4078,
      "Ġwed": 4079,
      "Ġev": 4080,
      "ald": 4081,
      "Ġjob": 4082,
      "lex": 4083,
      "åĳ³": 4084,
      "çł´": 4085,
      "ĠMay": 4086,
      "ummer": 4087,
      "Ġä»Ĭå¤©": 4088,
      "Maak": 4089,
      "ging": 4090,
      "Ġletter": 4091,
      "ĠJapan": 4092,
      "Ġzin": 4093,
      "Ġmorgen": 4094,
      "ç¦ı": 4095,
      "Ġresult": 4096,
      "Ġzom": 4097,
      "Ġschat": 4098,
      "ON": 4099,
      "Ġpen": 4100,
      "Ġeight": 4101,
      "ides": 4102,
      "ured": 4103,
      "Ġlanden": 4104,
      "Ġbur": 4105,
      "Ġlink": 4106,
      "ä¸įèµ·": 4107,
      "Stop": 4108,
      "Ġpersoon": 4109,
      "ç»Ĩ": 4110,
      "åĵŃ": 4111,
      "werk": 4112,
      "åľ¨ä¸Ģèµ·": 4113,
      "ING": 4114,
      "Ġtro": 4115,
      "deel": 4116,
      "Ġå¸": 4117,
      "dr": 4118,
      "Ġ)": 4119,
      "Ġpot": 4120,
      "è¿ĻåĦ¿": 4121,
      "Ġwarm": 4122,
      "eem": 4123,
      "éĿĻ": 4124,
      "ä¼Ĺ": 4125,
      "Ġgebeurd": 4126,
      "Ġbra": 4127,
      "ä¸ĵ": 4128,
      "è§Ħ": 4129,
      "åıªæĺ¯": 4130,
      "èĦĳ": 4131,
      "ox": 4132,
      "anen": 4133,
      "Ġsat": 4134,
      "ĠCan": 4135,
      "Ġ194": 4136,
      "Ġgeef": 4137,
      "å·´": 4138,
      "Ġprom": 4139,
      "çº¦": 4140,
      "æľĢè¿ĳ": 4141,
      "ç®Ģ": 4142,
      "Ġbuild": 4143,
      "Ġpower": 4144,
      "Ġlekker": 4145,
      "åĽ½å®¶": 4146,
      "èĻ½çĦ¶": 4147,
      "wit": 4148,
      "Ġson": 4149,
      "Ġbekend": 4150,
      "ç¬¬ä¸Ģ": 4151,
      "Ġheld": 4152,
      "Ġgod": 4153,
      "rying": 4154,
      "Ġontm": 4155,
      "æĺ¥": 4156,
      "åī§": 4157,
      "Ġvrienden": 4158,
      "åĺ´": 4159,
      "é¾Ļ": 4160,
      "ĠVer": 4161,
      "çĶµå½±": 4162,
      "Ġblue": 4163,
      "æĭį": 4164,
      "çĸĳ": 4165,
      "10": 4166,
      "Ġdead": 4167,
      "åħ·": 4168,
      "foon": 4169,
      "èľ": 4170,
      "esc": 4171,
      "éĢĤ": 4172,
      "Ġaren": 4173,
      "èĥĮ": 4174,
      "ĠPhil": 4175,
      "Ġbar": 4176,
      "irth": 4177,
      "åİĨ": 4178,
      "ards": 4179,
      "because": 4180,
      "Ġbetekent": 4181,
      "Ġtaken": 4182,
      "Ġlady": 4183,
      "åĪ«äºº": 4184,
      "sk": 4185,
      "aties": 4186,
      "Ġmark": 4187,
      "Ġfront": 4188,
      "Ġprobably": 4189,
      "Ġdraw": 4190,
      "é¬": 4191,
      "akker": 4192,
      "åĶ±": 4193,
      "isme": 4194,
      "oul": 4195,
      "ä¼Ļ": 4196,
      "èĦļ": 4197,
      "Ġprobleem": 4198,
      "Fr": 4199,
      "midd": 4200,
      "omp": 4201,
      "ourn": 4202,
      "Ġturned": 4203,
      "Mag": 4204,
      "Ġä»İ": 4205,
      "Ġfig": 4206,
      "å°Ķ": 4207,
      "ĠDan": 4208,
      "ĠOl": 4209,
      "Ġmoeilijk": 4210,
      "Ġæ²¡æľī": 4211,
      "reven": 4212,
      "æĥ³åĪ°": 4213,
      "ey": 4214,
      "è¯´æĪĳ": 4215,
      "Ġbijvoorbeeld": 4216,
      "uig": 4217,
      "Ġmine": 4218,
      "Ġåı¯": 4219,
      "ima": 4220,
      "schap": 4221,
      "Ġwouldn": 4222,
      "çĽ¸ä¿¡": 4223,
      "Luister": 4224,
      "Ġbrought": 4225,
      "Ġsoms": 4226,
      "æ±Ł": 4227,
      "æĺ¯æĪĳ": 4228,
      "å±ŀ": 4229,
      "çĮ«": 4230,
      "åıĳçĶŁ": 4231,
      "oorten": 4232,
      "äºĨä¸Ģä¸ª": 4233,
      "ilt": 4234,
      "ments": 4235,
      "Ġgeloof": 4236,
      "Ġbehind": 4237,
      "Ġè¿ĺæľī": 4238,
      "Ġpas": 4239,
      "ä»·": 4240,
      "Ġwerkt": 4241,
      "Ġrecord": 4242,
      "Ġoutside": 4243,
      "Ġpur": 4244,
      "ä½łçľĭ": 4245,
      "ĠåĹ¯": 4246,
      "Ġorder": 4247,
      "Ġparty": 4248,
      "zij": 4249,
      "bank": 4250,
      "Dr": 4251,
      "Ġduid": 4252,
      "ä»¥åīį": 4253,
      "FATHER": 4254,
      "Are": 4255,
      "Ġcook": 4256,
      "arling": 4257,
      "sten": 4258,
      "Ġchair": 4259,
      "uits": 4260,
      "for": 4261,
      "Ġplant": 4262,
      "Ġblijft": 4263,
      "ĠSpan": 4264,
      "Ġgeweldig": 4265,
      "è§Ĵ": 4266,
      "Ã«n": 4267,
      "ham": 4268,
      "met": 4269,
      "åıĮ": 4270,
      "ellow": 4271,
      "Ġgele": 4272,
      "åĬ©": 4273,
      "Ġadv": 4274,
      "Ġwit": 4275,
      "ico": 4276,
      "éĹ»": 4277,
      "Ġpicture": 4278,
      "çĬ¶": 4279,
      "æ¸ħæ¥ļ": 4280,
      "ä¸½": 4281,
      "è´£": 4282,
      "Ġbegin": 4283,
      "Ġclose": 4284,
      "||": 4285,
      "orge": 4286,
      "ĠJack": 4287,
      "Ġkap": 4288,
      "å¯Ł": 4289,
      "Ġwaardoor": 4290,
      "Ġeigenlijk": 4291,
      "iers": 4292,
      "Ġsent": 4293,
      "Ġvia": 4294,
      "Ġzat": 4295,
      "ĠOr": 4296,
      "Ġmonth": 4297,
      "got": 4298,
      "zien": 4299,
      "ente": 4300,
      "æľīä¸Ģä¸ª": 4301,
      "ular": 4302,
      "Ġmakes": 4303,
      "Ġlaw": 4304,
      "èįī": 4305,
      "LO": 4306,
      "bum": 4307,
      "Ġ13": 4308,
      "éĻĪ": 4309,
      "æ±ī": 4310,
      "å§ĳå¨ĺ": 4311,
      "åĿı": 4312,
      "aces": 4313,
      "inken": 4314,
      "Ġho": 4315,
      "ĠIf": 4316,
      "æĪĸèĢħ": 4317,
      "hand": 4318,
      "Ġseemed": 4319,
      "Ġpull": 4320,
      "è¿ĩåİ»": 4321,
      "Ġwords": 4322,
      "éĻ©": 4323,
      "ĠéĤ£ä½ł": 4324,
      "ized": 4325,
      "Ġneer": 4326,
      "Ġminuten": 4327,
      "ĠåĨį": 4328,
      "Ġdou": 4329,
      "Ġlisten": 4330,
      "Toen": 4331,
      "bouw": 4332,
      "Ġmeans": 4333,
      "æĢĢ": 4334,
      "Look": 4335,
      "ues": 4336,
      "Ġtrou": 4337,
      "é¬¼": 4338,
      "BRO": 4339,
      "æĬķ": 4340,
      "æ¥¼": 4341,
      "omet": 4342,
      "çĭĹ": 4343,
      "dag": 4344,
      "Ġsun": 4345,
      "è¿½": 4346,
      "Ġmovie": 4347,
      "Ġsitu": 4348,
      "fe": 4349,
      "é¡»": 4350,
      "gie": 4351,
      "ĠBen": 4352,
      "Ġåĩ": 4353,
      "abel": 4354,
      "ains": 4355,
      "ç¬¬äºĮ": 4356,
      "éĵģ": 4357,
      "Ġfriends": 4358,
      "è¿ĻéĩĮ": 4359,
      "æĿ¾": 4360,
      "Ġplek": 4361,
      "Ġvoice": 4362,
      "åĩĨå¤ĩ": 4363,
      "PAT": 4364,
      "more": 4365,
      "æŃ¦": 4366,
      "Ġeffect": 4367,
      "Ġocc": 4368,
      "Ġleren": 4369,
      "Ġlopen": 4370,
      "å¥³äºº": 4371,
      "inger": 4372,
      "å¯Ĩ": 4373,
      "æĭ©": 4374,
      "æĹ¥æľ¬": 4375,
      "Ġçľĭ": 4376,
      "reet": 4377,
      "Ġyourself": 4378,
      "Ġwants": 4379,
      "éĨĴ": 4380,
      "ĠPat": 4381,
      "è·Łä»ĸ": 4382,
      "æĽ¾": 4383,
      "æĶ¾å¿ĥ": 4384,
      "å¿ĺ": 4385,
      "æĬĢ": 4386,
      "Ġvrouwen": 4387,
      "çļĦå¤§": 4388,
      "ĠZo": 4389,
      "ga": 4390,
      "wee": 4391,
      "za": 4392,
      "Ġjong": 4393,
      "éĢŁ": 4394,
      "Ġclub": 4395,
      "ism": 4396,
      "ĠEurop": 4397,
      "Ġgroup": 4398,
      "Ex": 4399,
      "Ġdruk": 4400,
      "chn": 4401,
      "å°±ä¸į": 4402,
      "ĠFl": 4403,
      "ĠKing": 4404,
      "Ġmiljoen": 4405,
      "Denk": 4406,
      "upp": 4407,
      "èĴ": 4408,
      "Ġbestaat": 4409,
      "Ġcouldn": 4410,
      "ç©¶": 4411,
      "Hel": 4412,
      "Ġles": 4413,
      "Ġcup": 4414,
      "amb": 4415,
      "Tot": 4416,
      "aybe": 4417,
      "æ²¹": 4418,
      "ç»Ļä»ĸ": 4419,
      "igin": 4420,
      "åģľ": 4421,
      "sn": 4422,
      "Ġelect": 4423,
      "ç»ĵæŀľ": 4424,
      "eland": 4425,
      "ä¸įåĪ°": 4426,
      "Ġgehad": 4427,
      "Ġliggen": 4428,
      "Kan": 4429,
      "Vol": 4430,
      "Ġbag": 4431,
      "ĠDie": 4432,
      "åģĩ": 4433,
      "ship": 4434,
      "Ġhurt": 4435,
      "Ġstep": 4436,
      "è¯´è¯Ŀ": 4437,
      "å±ħ": 4438,
      "bit": 4439,
      "Ġgegeven": 4440,
      "Ġable": 4441,
      "è¶ħ": 4442,
      "Ġju": 4443,
      "åĪĽ": 4444,
      "Ġprogram": 4445,
      "Nog": 4446,
      "èļ": 4447,
      "ino": 4448,
      "huis": 4449,
      "ately": 4450,
      "äºĨåķĬ": 4451,
      "thers": 4452,
      "åĲİæĿ¥": 4453,
      "Ġground": 4454,
      "Ġpijn": 4455,
      "Ġfull": 4456,
      "ĠAm": 4457,
      "heen": 4458,
      "Ġbirth": 4459,
      "æ¯ĶèµĽ": 4460,
      "zet": 4461,
      "ÉĻ": 4462,
      "Ġè°¢è°¢": 4463,
      "Ġvar": 4464,
      "Ġzoeken": 4465,
      "reem": 4466,
      "que": 4467,
      "key": 4468,
      "å¹¿": 4469,
      "Ġguess": 4470,
      "haps": 4471,
      "Ġmill": 4472,
      "Ġfine": 4473,
      "Ġkamer": 4474,
      "iezen": 4475,
      "wijl": 4476,
      "Ġdu": 4477,
      "Ġdeath": 4478,
      "Ġvooral": 4479,
      "Ġwoon": 4480,
      "å¹¸": 4481,
      "Ġimportant": 4482,
      "Ġfav": 4483,
      "Ġshort": 4484,
      "åĢ¼": 4485,
      "éĴŁ": 4486,
      "Ġgirls": 4487,
      "houd": 4488,
      "ris": 4489,
      "ika": 4490,
      "Ġsuper": 4491,
      "SOA": 4492,
      "ype": 4493,
      "irt": 4494,
      "ĠThomas": 4495,
      "ç½Ĺ": 4496,
      "ĠNa": 4497,
      "ä»¥ä¸º": 4498,
      "Ġongeveer": 4499,
      "Ġage": 4500,
      "Ġhope": 4501,
      "Ġgreen": 4502,
      "Did": 4503,
      "rip": 4504,
      "çº§": 4505,
      "Ġinclud": 4506,
      "Can": 4507,
      "æĺ¯ä»Ģä¹Ī": 4508,
      "èĭı": 4509,
      "Ġhon": 4510,
      "Ġeither": 4511,
      "Ġalsof": 4512,
      "orld": 4513,
      "ä¸įè¡Į": 4514,
      "ĠWhen": 4515,
      "sy": 4516,
      "èĹ": 4517,
      "head": 4518,
      "Ġhond": 4519,
      "Ġå¼": 4520,
      "tern": 4521,
      "éĿł": 4522,
      "Ġquick": 4523,
      "åŃĺ": 4524,
      "Ġeruit": 4525,
      "Ġbrengen": 4526,
      "Ġcover": 4527,
      "æīĭæľº": 4528,
      "å¢ĥ": 4529,
      "ugust": 4530,
      "Ġzoveel": 4531,
      "ĠItal": 4532,
      "Ġouders": 4533,
      "Ġbes": 4534,
      "âĮ": 4535,
      "Ġmess": 4536,
      "æľ¨": 4537,
      "ention": 4538,
      "deren": 4539,
      "Ġconc": 4540,
      "schijn": 4541,
      "æŀĲ": 4542,
      "Ġbrother": 4543,
      "born": 4544,
      "Ġding": 4545,
      "Ġbank": 4546,
      "åĪĿ": 4547,
      "ĠRuss": 4548,
      "ery": 4549,
      "Ġbeaut": 4550,
      "Ġstate": 4551,
      "Ġgebied": 4552,
      "èĲ¥": 4553,
      "Ġgovern": 4554,
      "å¿µ": 4555,
      "å¼ķ": 4556,
      "Ġmaybe": 4557,
      "ĠEurope": 4558,
      "Ġhappy": 4559,
      "str": 4560,
      "Ġlearn": 4561,
      "Ġ2020": 4562,
      "Ġduidelijk": 4563,
      "aid": 4564,
      "bal": 4565,
      "Ġaw": 4566,
      "Ġbal": 4567,
      "omin": 4568,
      "idge": 4569,
      "éĢīæĭ©": 4570,
      "Ġcommun": 4571,
      "åħĦå¼Ł": 4572,
      "çªģçĦ¶": 4573,
      "As": 4574,
      "Pro": 4575,
      "Ġbor": 4576,
      "iter": 4577,
      "ĠAng": 4578,
      "icks": 4579,
      "Ġminutes": 4580,
      "èĽĭ": 4581,
      "åĻ¨": 4582,
      "Ġhuh": 4583,
      "Ġwachten": 4584,
      "æŃ£ç¡®": 4585,
      "Ġtruck": 4586,
      "cil": 4587,
      "Ġ100": 4588,
      "åĩłä¸ª": 4589,
      "ç»ĵå©ļ": 4590,
      "é©¬ä¸Ĭ": 4591,
      "Zijn": 4592,
      "line": 4593,
      "Ġtest": 4594,
      "iep": 4595,
      "then": 4596,
      "Ã³": 4597,
      "Ġ25": 4598,
      "ä¸ŃçļĦ": 4599,
      "pril": 4600,
      "ford": 4601,
      "Ġhulp": 4602,
      "reed": 4603,
      "ĠVol": 4604,
      "Ah": 4605,
      "God": 4606,
      "IT": 4607,
      "Ġtom": 4608,
      "Ġhit": 4609,
      "æĺ¯ä¸Ģä¸ª": 4610,
      "ĠMe": 4611,
      "olf": 4612,
      "æĦ¿æĦı": 4613,
      "zaam": 4614,
      "orp": 4615,
      "ĠOm": 4616,
      "beren": 4617,
      "Echt": 4618,
      "atter": 4619,
      "Ġfish": 4620,
      "Ġblood": 4621,
      "ench": 4622,
      "Ġdarling": 4623,
      "Ġstuff": 4624,
      "genomen": 4625,
      "å¸Ŀ": 4626,
      "Ġgesl": 4627,
      "Ġlate": 4628,
      "åı¦": 4629,
      "åĽ´": 4630,
      "Ġchang": 4631,
      "]?": 4632,
      "veral": 4633,
      "Good": 4634,
      "NA": 4635,
      "çļĦäºĭæĥħ": 4636,
      "æĿĥ": 4637,
      "Ġruim": 4638,
      "Ġwanneer": 4639,
      "Ġenerg": 4640,
      "Ġothers": 4641,
      "çľĭè§ģ": 4642,
      "åı¶": 4643,
      "sing": 4644,
      "thank": 4645,
      "æī¿": 4646,
      "è¡£æľį": 4647,
      "com": 4648,
      "cri": 4649,
      "Ġè®©": 4650,
      "Ġconf": 4651,
      "é¡º": 4652,
      "Ġalbum": 4653,
      "Ġhat": 4654,
      "ative": 4655,
      "Ġgrot": 4656,
      "Ġkreeg": 4657,
      "Ġdeur": 4658,
      "ĠMan": 4659,
      "éĢļè¿ĩ": 4660,
      "rog": 4661,
      "ĠJim": 4662,
      "çİ¯": 4663,
      "Ġnieuws": 4664,
      "ä¹±": 4665,
      "osp": 4666,
      "ĠSchrijf": 4667,
      "è®®": 4668,
      "Ġorde": 4669,
      "åľ¨è¿ĻåĦ¿": 4670,
      "akkelijk": 4671,
      "æĵ": 4672,
      "Ġbouw": 4673,
      "Ġfur": 4674,
      "Ġgrow": 4675,
      "Thank": 4676,
      "ä¾Ŀ": 4677,
      "Go": 4678,
      "æĪĳæĪĳ": 4679,
      "aged": 4680,
      "eeuw": 4681,
      "ĠåĴ±ä»¬": 4682,
      "æ¦": 4683,
      "åİĭ": 4684,
      "Nie": 4685,
      "kig": 4686,
      "ä¸¥": 4687,
      "Ġang": 4688,
      "Ġontwikk": 4689,
      "da": 4690,
      "Ġhist": 4691,
      "Ġcap": 4692,
      "ĠCar": 4693,
      "åĳĬè¯īä½ł": 4694,
      "éº»": 4695,
      "ĠhÃ¨": 4696,
      "Ġthank": 4697,
      "vert": 4698,
      "hel": 4699,
      "åĨ²": 4700,
      "æłĩ": 4701,
      "Sp": 4702,
      "band": 4703,
      "ä½İ": 4704,
      "åĳ¼": 4705,
      "iving": 4706,
      "selves": 4707,
      "Ġpresident": 4708,
      "çļĦä¸Ģä¸ª": 4709,
      "Ġcamp": 4710,
      "ĠPl": 4711,
      "aalde": 4712,
      "Ġbrief": 4713,
      "bye": 4714,
      "Ġextra": 4715,
      "Ġvoedsel": 4716,
      "ä¸Ģå¤©": 4717,
      "èµ¶ç´§": 4718,
      "have": 4719,
      "Ġtill": 4720,
      "Ġfelt": 4721,
      "åĪĻ": 4722,
      "æĹı": 4723,
      "eptember": 4724,
      "ural": 4725,
      "Ġteach": 4726,
      "ĠèĢĮä¸Ķ": 4727,
      "ode": 4728,
      "Ġtweede": 4729,
      "Ġmouth": 4730,
      "antie": 4731,
      "ardon": 4732,
      "inning": 4733,
      "è®¤è¯Ĩ": 4734,
      "hey": 4735,
      "Ġtoys": 4736,
      "æĺ¯åĲ§": 4737,
      "å®¤": 4738,
      "Ġlezen": 4739,
      "æ¯ķ": 4740,
      "æ¯ıå¤©": 4741,
      "ĠMag": 4742,
      "olon": 4743,
      "èĢĮä¸Ķ": 4744,
      "Blijf": 4745,
      "18": 4746,
      "Kun": 4747,
      "ç¯": 4748,
      "urk": 4749,
      "ante": 4750,
      "è¿Ľè¡Į": 4751,
      "èº«ä½ĵ": 4752,
      "produ": 4753,
      "Kl": 4754,
      "yn": 4755,
      "Ġè°ģ": 4756,
      "iment": 4757,
      "ĠæĪĳè§īå¾Ĺ": 4758,
      "åģ·": 4759,
      "Ġlaugh": 4760,
      "Welke": 4761,
      "æĹ¢": 4762,
      "Ġseven": 4763,
      "Ġlangs": 4764,
      "æľºä¼ļ": 4765,
      "Ġmilk": 4766,
      "At": 4767,
      "Ġaand": 4768,
      "Cl": 4769,
      "ruct": 4770,
      "Ġmyself": 4771,
      "Neem": 4772,
      "Ġcomput": 4773,
      "ring": 4774,
      "rab": 4775,
      "Ġä½łçľĭ": 4776,
      "ç¾¤": 4777,
      "Ġvliegt": 4778,
      "Ġlarge": 4779,
      "Ġvillage": 4780,
      "dom": 4781,
      "Ġgun": 4782,
      "edereen": 4783,
      "Ġwee": 4784,
      "ç½®": 4785,
      "Ġpun": 4786,
      "Ġones": 4787,
      "Ġbek": 4788,
      "Ġstrong": 4789,
      "friend": 4790,
      "Ġhang": 4791,
      "Ġcold": 4792,
      "ç¡®å®ŀ": 4793,
      "ete": 4794,
      "Ġoper": 4795,
      "Ġbeginnen": 4796,
      "iously": 4797,
      "Ġbusiness": 4798,
      "Ġtelefoon": 4799,
      "alm": 4800,
      "åı¤": 4801,
      "Ġkilled": 4802,
      "bare": 4803,
      "Ġol": 4804,
      "Ġinside": 4805,
      "ĠComm": 4806,
      "ĠæĪĳä¸į": 4807,
      "Ġimp": 4808,
      "Ġjo": 4809,
      "reg": 4810,
      "ada": 4811,
      "å¼Ħ": 4812,
      "ustral": 4813,
      "Ġdaarna": 4814,
      "çĭ¬": 4815,
      "Ġbroer": 4816,
      "fully": 4817,
      "ille": 4818,
      "æĥĬ": 4819,
      "è¡Ģ": 4820,
      "Ġroad": 4821,
      "Ġrol": 4822,
      "ĠBel": 4823,
      "Ġgevol": 4824,
      "ragen": 4825,
      "Ġ_": 4826,
      "åĩºäºĨ": 4827,
      "Ġtien": 4828,
      "åıĳå±ķ": 4829,
      "aj": 4830,
      "Ġrather": 4831,
      "Ġrece": 4832,
      "Ġbody": 4833,
      "èĤī": 4834,
      "Ġhetzelfde": 4835,
      "ĠHer": 4836,
      "ä¸īåįģ": 4837,
      "Ġhund": 4838,
      "èĥ¡": 4839,
      "Ġguy": 4840,
      "ogen": 4841,
      "rag": 4842,
      "Ġir": 4843,
      "Ġwife": 4844,
      "Ġfree": 4845,
      "aser": 4846,
      "Ġallow": 4847,
      "å¥¹çļĦ": 4848,
      "Ġago": 4849,
      "Ġklim": 4850,
      "éħį": 4851,
      "Ġmeeste": 4852,
      "Ġhundred": 4853,
      "Ġris": 4854,
      "å¦»": 4855,
      "ijst": 4856,
      "ĠTr": 4857,
      "Ġgebouw": 4858,
      "è·Łä½łè¯´": 4859,
      "Ġkracht": 4860,
      "è¯¾": 4861,
      "ĠQu": 4862,
      "ians": 4863,
      "è¿İ": 4864,
      "åºĹ": 4865,
      "Ġgets": 4866,
      "Ġgevaar": 4867,
      "æ¸©": 4868,
      "é«ĺåħ´": 4869,
      "Ġquestion": 4870,
      "Ġgiven": 4871,
      "irty": 4872,
      "ä¼¼": 4873,
      "ĠPort": 4874,
      "Ġchange": 4875,
      "Ġ195": 4876,
      "æī¾åĪ°": 4877,
      "Ġworking": 4878,
      "burg": 4879,
      "Ġeinde": 4880,
      "Ġamong": 4881,
      "Ġprecies": 4882,
      "Ġveilig": 4883,
      "cul": 4884,
      "Ġleav": 4885,
      "does": 4886,
      "Ġperfect": 4887,
      "ĠThen": 4888,
      "velop": 4889,
      "Ġtelevis": 4890,
      "Ġvalt": 4891,
      "å¹´çļĦ": 4892,
      "Ġsystem": 4893,
      "Ġill": 4894,
      "esh": 4895,
      "åĽŃ": 4896,
      "éĻħ": 4897,
      "ĠCharl": 4898,
      "ç»§ç»Ń": 4899,
      "orden": 4900,
      "umm": 4901,
      "Ġglad": 4902,
      "Ġvij": 4903,
      "kende": 4904,
      "cember": 4905,
      "niet": 4906,
      "omst": 4907,
      "ä¸įåĲĮ": 4908,
      "conom": 4909,
      "æĥ³è¦ģ": 4910,
      "achten": 4911,
      "Ġdress": 4912,
      "Ġserv": 4913,
      "ä»»ä½ķ": 4914,
      "éĩĮçļĦ": 4915,
      "Ġconst": 4916,
      "Ġmain": 4917,
      "Ġcase": 4918,
      "Ġring": 4919,
      "åĪĴ": 4920,
      "ĠWorld": 4921,
      "æĮī": 4922,
      "æĲŀ": 4923,
      "Ġbird": 4924,
      "Ġgezicht": 4925,
      "çģµ": 4926,
      "Ġbott": 4927,
      "cellen": 4928,
      "opp": 4929,
      "Ġclass": 4930,
      "âĢ": 4931,
      "Ġsweet": 4932,
      "Ġvoet": 4933,
      "Ġstond": 4934,
      "Ġlead": 4935,
      "unning": 4936,
      "Ġhanden": 4937,
      "Ġlaug": 4938,
      "ĠWest": 4939,
      "ask": 4940,
      "Ġjezelf": 4941,
      "ĠJu": 4942,
      "æĪĲäºĨ": 4943,
      "iversity": 4944,
      "del": 4945,
      "Ġbear": 4946,
      "Ġroll": 4947,
      "Ġtea": 4948,
      "Ġgevoel": 4949,
      "Ġfuck": 4950,
      "Ġthrow": 4951,
      "Ġra": 4952,
      "åŃĻ": 4953,
      "eph": 4954,
      "è´µ": 4955,
      "å®¹æĺĵ": 4956,
      "Ġtwenty": 4957,
      "Omdat": 4958,
      "For": 4959,
      "³å¦ĩ": 4960,
      "ĠAustral": 4961,
      "ĠThat": 4962,
      "éĥ½æ²¡æľī": 4963,
      "Ġarr": 4964,
      "Ġsometimes": 4965,
      "æ¤": 4966,
      "Ġdeal": 4967,
      "ĠokÃ©": 4968,
      "æĺ¾": 4969,
      "å¤ı": 4970,
      "å°±ä¼ļ": 4971,
      "Ġarea": 4972,
      "ĠStap": 4973,
      "ĠBritish": 4974,
      "Ġbegint": 4975,
      "éĽª": 4976,
      "Ġanimals": 4977,
      "eur": 4978,
      "Ġvog": 4979,
      "ä¸ĭåİ»": 4980,
      "Ġontstaan": 4981,
      "æ¯Ĵ": 4982,
      "çĥ¦": 4983,
      "è®°å¾Ĺ": 4984,
      "Ġliever": 4985,
      "Ã¡": 4986,
      "Ġpak": 4987,
      "iful": 4988,
      "uhhuh": 4989,
      "pos": 4990,
      "Ġhoort": 4991,
      "Ġlay": 4992,
      "Ġfunny": 4993,
      "åĬ¿": 4994,
      "spraak": 4995,
      "çĶ·äºº": 4996,
      "Ġconsider": 4997,
      "uary": 4998,
      "æ¿": 4999,
      "Ġship": 5000,
      "çİī": 5001,
      "centr": 5002,
      "aptain": 5003,
      "Pr": 5004,
      "æĪĳè¦ģ": 5005,
      "llo": 5006,
      "åĽ¾": 5007,
      "Ġmeteen": 5008,
      "Ġproblemen": 5009,
      "ense": 5010,
      "å®Ī": 5011,
      "éĹ¹": 5012,
      "Ġsomeone": 5013,
      "Ġpoor": 5014,
      "Ġearly": 5015,
      "Was": 5016,
      "vallen": 5017,
      "owers": 5018,
      "Ġä½łæĺ¯": 5019,
      "åĿļ": 5020,
      "Ġoog": 5021,
      "ĠPaul": 5022,
      "Ġspecial": 5023,
      "partment": 5024,
      "Ġtemper": 5025,
      "Over": 5026,
      "Ġtaking": 5027,
      "Ġ..": 5028,
      "Ġsug": 5029,
      "ĠDoor": 5030,
      "cer": 5031,
      "inig": 5032,
      "ĠTHE": 5033,
      "ĠTe": 5034,
      "åŃĲçļĦ": 5035,
      "çĪ¹": 5036,
      "ç§°": 5037,
      "Ġpartic": 5038,
      "ached": 5039,
      "Ġgere": 5040,
      "Ġgep": 5041,
      "antwoord": 5042,
      "æ´Ĺ": 5043,
      "oops": 5044,
      "won": 5045,
      "åŀĭ": 5046,
      "ç´¯": 5047,
      "èĻİ": 5048,
      "Ġdezelfde": 5049,
      "indelijk": 5050,
      "Ġ193": 5051,
      "Ġacross": 5052,
      "åĹ": 5053,
      "rop": 5054,
      "Ġgrand": 5055,
      "Ġdoctor": 5056,
      "ional": 5057,
      "ĠRep": 5058,
      "çłĶ": 5059,
      "å½±åĵį": 5060,
      "ä½łä¸į": 5061,
      "ä¸ĬäºĨ": 5062,
      "Ġ50": 5063,
      "åı¥è¯Ŀ": 5064,
      "Ġacht": 5065,
      "Ġvallen": 5066,
      "Ġfair": 5067,
      "å¤ļäºĨ": 5068,
      "å±ĭ": 5069,
      "æĪ·": 5070,
      "æĬ±": 5071,
      "Ġmedic": 5072,
      "UN": 5073,
      "fort": 5074,
      "igde": 5075,
      "Ġleast": 5076,
      "åĨ·": 5077,
      "ĠStan": 5078,
      "æ´¾": 5079,
      "å¥³åĦ¿": 5080,
      "gg": 5081,
      "hi": 5082,
      "Ġmama": 5083,
      "ĠPer": 5084,
      "èģĮ": 5085,
      "Ġechte": 5086,
      "Ġreleased": 5087,
      "Ġcreat": 5088,
      "æĺ¨": 5089,
      "æĺİå¤©": 5090,
      "Ġgrootste": 5091,
      "onde": 5092,
      "ä»ħ": 5093,
      "ä¸įéĶĻ": 5094,
      "Ġmogen": 5095,
      "Ġmer": 5096,
      "gas": 5097,
      "Ġeil": 5098,
      "Ġplanten": 5099,
      "è´¢": 5100,
      "éĺ²": 5101,
      "Ġvle": 5102,
      "é¸Ł": 5103,
      "æ¿Ģ": 5104,
      "Ġleeft": 5105,
      "ä¹İ": 5106,
      "Ġent": 5107,
      "ĠMart": 5108,
      "Ġmach": 5109,
      "elk": 5110,
      "Ġseveral": 5111,
      "éĵ¶": 5112,
      "11": 5113,
      "Ar": 5114,
      "atten": 5115,
      "Ġins": 5116,
      "å¹²ä»Ģä¹Ī": 5117,
      "sche": 5118,
      "Ġpark": 5119,
      "æĪĳè¿ĺ": 5120,
      "Ġonderwerp": 5121,
      "Ġverkl": 5122,
      "Ġaarde": 5123,
      "Ġorigin": 5124,
      "åº§": 5125,
      "ĠéĤ£ä¸ª": 5126,
      "Ġspeak": 5127,
      "æĺ¯åķĬ": 5128,
      "Ġbecome": 5129,
      "ä¿®": 5130,
      "èĤ¡": 5131,
      "LOI": 5132,
      "ED": 5133,
      "Ġwomen": 5134,
      "Ġmist": 5135,
      "stuk": 5136,
      "æĿ¨": 5137,
      "Ġalsjeblieft": 5138,
      "æ¨¡": 5139,
      "Me": 5140,
      "gro": 5141,
      "Ġkor": 5142,
      "æľīäºº": 5143,
      "æĪĳæĥ³": 5144,
      "ĠKennis": 5145,
      "Ġproberen": 5146,
      "åĢŁ": 5147,
      "oom": 5148,
      "ä¸¾": 5149,
      "Ġmass": 5150,
      "ĠWar": 5151,
      "Ġmuziek": 5152,
      "ĠCal": 5153,
      "æŃ¢": 5154,
      "ç¦»å¼Ģ": 5155,
      "å¿ħé¡»": 5156,
      "èĩ´": 5157,
      "ived": 5158,
      "åª³å¦ĩ": 5159,
      "Ġwall": 5160,
      "laimed": 5161,
      "æĢİä¹ĪåĬŀ": 5162,
      "Ġhol": 5163,
      "komt": 5164,
      "iken": 5165,
      "ĠIr": 5166,
      "iviteit": 5167,
      "avy": 5168,
      "Ġontde": 5169,
      "shall": 5170,
      "æĪ¿åŃĲ": 5171,
      "reden": 5172,
      "Ġervan": 5173,
      "when": 5174,
      "bt": 5175,
      "ays": 5176,
      "ically": 5177,
      "è¿Ļæ¬¡": 5178,
      "ousand": 5179,
      "ĠMaak": 5180,
      "Ġprofess": 5181,
      "Ġzwart": 5182,
      "Te": 5183,
      "ener": 5184,
      "Ġclim": 5185,
      "Br": 5186,
      "åĪĹ": 5187,
      "é¢ĺå¹²": 5188,
      "Ġfinished": 5189,
      "Ġhowever": 5190,
      "houden": 5191,
      "Ġlad": 5192,
      "Ġcre": 5193,
      "è¯»": 5194,
      "icken": 5195,
      "æĸ¹éĿ¢": 5196,
      "Get": 5197,
      "zak": 5198,
      "derd": 5199,
      "ument": 5200,
      "Ġ&": 5201,
      "Ġstation": 5202,
      "Ġergens": 5203,
      "Ġnummer": 5204,
      "schijnlijk": 5205,
      "Zie": 5206,
      "æĿ¥è¯´": 5207,
      "Ġgenoemd": 5208,
      "cient": 5209,
      "Ġtrue": 5210,
      "rokken": 5211,
      "ĠæĪĳæĥ³": 5212,
      "æİ§": 5213,
      "èĬĤçĽ®": 5214,
      "Ge": 5215,
      "Ġtried": 5216,
      "çļĦäºĭ": 5217,
      "igheid": 5218,
      "å·ŀ": 5219,
      "osten": 5220,
      "uzz": 5221,
      "two": 5222,
      "ieke": 5223,
      "Ġzodat": 5224,
      "ĠFrench": 5225,
      "Here": 5226,
      "åĲ¸": 5227,
      "æĭĽ": 5228,
      "nieuw": 5229,
      "Mar": 5230,
      "iest": 5231,
      "Ġnoemen": 5232,
      "Your": 5233,
      "Ġorganis": 5234,
      "Ġcond": 5235,
      "Ġrijk": 5236,
      "ä¼ĳ": 5237,
      "Ġspel": 5238,
      "æł·çļĦ": 5239,
      "point": 5240,
      "Ġdark": 5241,
      "Ġwish": 5242,
      "Ġloopt": 5243,
      "äºĨè§£": 5244,
      "Ġsport": 5245,
      "Ġ24": 5246,
      "Ġbeneden": 5247,
      "Ġsoft": 5248,
      "Ġsea": 5249,
      "Ġjuiste": 5250,
      "sta": 5251,
      "Ġä½łæĢİä¹Ī": 5252,
      "Ġliefde": 5253,
      "Ġavond": 5254,
      "Zij": 5255,
      "rict": 5256,
      "Ġsol": 5257,
      "Ġenter": 5258,
      "ensen": 5259,
      "berg": 5260,
      "Ġusually": 5261,
      "èĪŀ": 5262,
      "Ġmommy": 5263,
      "Ġneemt": 5264,
      "Ġhorse": 5265,
      "AP": 5266,
      "Vert": 5267,
      "Ġvanavond": 5268,
      "æĿĲ": 5269,
      "åºľ": 5270,
      "åıªæľī": 5271,
      "Ġproduct": 5272,
      "è¿ĲåĬ¨": 5273,
      "Ġmam": 5274,
      "Ġnoem": 5275,
      "pped": 5276,
      "Ġgevangen": 5277,
      "Ġexpect": 5278,
      "gele": 5279,
      "Ġboat": 5280,
      "èĪ¹": 5281,
      "Ġmond": 5282,
      "ä¹ĭéĹ´": 5283,
      "Ġslag": 5284,
      "åıįæŃ£": 5285,
      "ĠOh": 5286,
      "Ġpakken": 5287,
      "Ġinde": 5288,
      "ruis": 5289,
      "kk": 5290,
      "onen": 5291,
      "æ²Ļ": 5292,
      "æµİ": 5293,
      "iber": 5294,
      "Ġzetten": 5295,
      "Ġfast": 5296,
      "Ġkil": 5297,
      "Ġweinig": 5298,
      "å½©": 5299,
      "åĲĥé¥Ń": 5300,
      "Ġwrite": 5301,
      "AS": 5302,
      "èĻĳ": 5303,
      "Ġmooie": 5304,
      "Bij": 5305,
      "ances": 5306,
      "aling": 5307,
      "leven": 5308,
      "Ġbuy": 5309,
      "Ġdiv": 5310,
      "Ġbom": 5311,
      "Ġopt": 5312,
      "Ġattack": 5313,
      "éŃĶ": 5314,
      "åı²": 5315,
      "Ġhop": 5316,
      "æĺ¯ä¸ª": 5317,
      "icro": 5318,
      "ĠNoord": 5319,
      "åĴĭ": 5320,
      "èĵ": 5321,
      "Ġåĳĥ": 5322,
      "Ġtel": 5323,
      "ä¹Łæ²¡": 5324,
      "Ġphone": 5325,
      "ĠçŃī": 5326,
      "Ġveroor": 5327,
      "avid": 5328,
      "olle": 5329,
      "çĽ´æİ¥": 5330,
      "Ġfeest": 5331,
      "Ġbooks": 5332,
      "è®¤ä¸º": 5333,
      "æ°¸": 5334,
      "éĢīé¡¹": 5335,
      "Ġgehoord": 5336,
      "ĠEngland": 5337,
      "Ġfootball": 5338,
      "Ġæĥ³": 5339,
      "Ġdier": 5340,
      "Ġalone": 5341,
      "æ¬¾": 5342,
      "Ġvergeten": 5343,
      "alth": 5344,
      "ices": 5345,
      "éĢĢ": 5346,
      "Ġeerder": 5347,
      "Ġverdw": 5348,
      "Ġenkele": 5349,
      "To": 5350,
      "hor": 5351,
      "ander": 5352,
      "ales": 5353,
      "Ġyellow": 5354,
      "çľĭçĿĢ": 5355,
      "äºĮéĽ¶": 5356,
      "Ġsend": 5357,
      "èĢ³": 5358,
      "æ¼Ĥ": 5359,
      "Ġäºº": 5360,
      "Ġran": 5361,
      "ague": 5362,
      "Ġblad": 5363,
      "Ġdollar": 5364,
      "Verd": 5365,
      "Ġnorth": 5366,
      "èĪ¬": 5367,
      "çĬ¯": 5368,
      "ining": 5369,
      "Ġslapen": 5370,
      "Ġbacter": 5371,
      "Ġrug": 5372,
      "Ġwaarin": 5373,
      "æĦŁæĥħ": 5374,
      "ĠWelke": 5375,
      "Natuurlijk": 5376,
      "iot": 5377,
      "Ġè¡Į": 5378,
      "Ġoef": 5379,
      "ijl": 5380,
      "ality": 5381,
      "alright": 5382,
      "çļĦè¿Ļä¸ª": 5383,
      "ä¸įå¾Ĺ": 5384,
      "ĠSo": 5385,
      "éĩİ": 5386,
      "çºª": 5387,
      "ility": 5388,
      "èī¯": 5389,
      "Ġvraagt": 5390,
      "Ġsister": 5391,
      "Ġpage": 5392,
      "ä¹¡": 5393,
      "Ġliving": 5394,
      "ĠJanuary": 5395,
      "ç¤¾ä¼ļ": 5396,
      "Ġtit": 5397,
      "Ġwou": 5398,
      "Ġbirthday": 5399,
      "umb": 5400,
      "ĠMin": 5401,
      "Ġmeter": 5402,
      "å½ĵçĦ¶": 5403,
      "åĲĮå¿Ĺ": 5404,
      "ç´ł": 5405,
      "å¢ŀ": 5406,
      "vloed": 5407,
      "Ġdien": 5408,
      "ette": 5409,
      "Ġthousand": 5410,
      "Ġbeide": 5411,
      "Ġå·": 5412,
      "olly": 5413,
      "Ġfout": 5414,
      "Ġalright": 5415,
      "Ġabs": 5416,
      "æĻ¯": 5417,
      "wijs": 5418,
      "aien": 5419,
      "annen": 5420,
      "Ġpracht": 5421,
      "ä½łä¹Ł": 5422,
      "åĩºçİ°": 5423,
      "Ġguys": 5424,
      "åį«": 5425,
      "äºİæĺ¯": 5426,
      "Ġkijkt": 5427,
      "Ġsingle": 5428,
      "Ġrivier": 5429,
      "uze": 5430,
      "Ġi": 5431,
      "Ġvoorbij": 5432,
      "tjes": 5433,
      "uigen": 5434,
      "Ġder": 5435,
      "Ġuitleg": 5436,
      "rijs": 5437,
      "Ġwild": 5438,
      "mas": 5439,
      "Ġgas": 5440,
      "Ġhur": 5441,
      "æĪĳè¯´": 5442,
      "Ġcheck": 5443,
      "Ġnamed": 5444,
      "yy": 5445,
      "ĠAb": 5446,
      "æĽ¿": 5447,
      "12": 5448,
      "vrouw": 5449,
      "Ġsitting": 5450,
      "issen": 5451,
      "Ġya": 5452,
      "è¿ĩäºĨ": 5453,
      "å®ĮäºĨ": 5454,
      "å®«": 5455,
      "Niemand": 5456,
      "Ġdinner": 5457,
      "ories": 5458,
      "Ġcult": 5459,
      "Ġschuld": 5460,
      "åįĪ": 5461,
      "Ġgaf": 5462,
      "èº«ä¸Ĭ": 5463,
      "èİ«": 5464,
      "Ġfavor": 5465,
      "Ġmacht": 5466,
      "Ġstap": 5467,
      "èīº": 5468,
      "Iedereen": 5469,
      "fer": 5470,
      "goed": 5471,
      "ĠGu": 5472,
      "Ġherself": 5473,
      "Ġgekomen": 5474,
      "çĹĽ": 5475,
      "Moet": 5476,
      "pers": 5477,
      "Ġwood": 5478,
      "ä¸Ģç§į": 5479,
      "Ġsta": 5480,
      "Ġsterk": 5481,
      "åħ°": 5482,
      "ctober": 5483,
      "blad": 5484,
      "æĸ¹å¼ı": 5485,
      "Leg": 5486,
      "ä»ĺ": 5487,
      "åŃ¦æł¡": 5488,
      "makes": 5489,
      "nam": 5490,
      "ror": 5491,
      "Ġges": 5492,
      "Ġzes": 5493,
      "Ġijs": 5494,
      "Ġtouch": 5495,
      "recht": 5496,
      "Ġreis": 5497,
      "åĨįè§ģ": 5498,
      "enny": 5499,
      "Ã¯n": 5500,
      "Ġlived": 5501,
      "æł¹æľ¬": 5502,
      "Ġ=": 5503,
      "Ġmater": 5504,
      "Ġnational": 5505,
      "èİ·": 5506,
      "Ġpublic": 5507,
      "Na": 5508,
      "oft": 5509,
      "Ġdoel": 5510,
      "å¾ĭ": 5511,
      "å§¨": 5512,
      "Ġadd": 5513,
      "ior": 5514,
      "ts": 5515,
      "Ġmaat": 5516,
      "under": 5517,
      "ĠDuits": 5518,
      "ĠCount": 5519,
      "Ġspreken": 5520,
      "Ġclot": 5521,
      "Ġkwamen": 5522,
      "Ġseries": 5523,
      "Ġheer": 5524,
      "ä¸ĢåĿĹ": 5525,
      "oph": 5526,
      "åį±": 5527,
      "æĸĹ": 5528,
      "Ġterwijl": 5529,
      "ç½ª": 5530,
      "Ġcompany": 5531,
      "çļĦåľ°æĸ¹": 5532,
      "Ġvoordat": 5533,
      "Ġzeer": 5534,
      "çĶ°": 5535,
      "ä¼ĺ": 5536,
      "çĭ¼": 5537,
      "çĮª": 5538,
      "Ġbeautiful": 5539,
      "Ġloc": 5540,
      "Ġequ": 5541,
      "Ġfly": 5542,
      "æľīä¸ª": 5543,
      "ãĢĭ": 5544,
      "èĤ²": 5545,
      "Ġlangu": 5546,
      "OL": 5547,
      "äºĴ": 5548,
      "æĪĳéĥ½": 5549,
      "æľµ": 5550,
      "ãĢĬ": 5551,
      "ĠWas": 5552,
      "æĪĲä¸º": 5553,
      "çĭĲ": 5554,
      "Ġå¿«": 5555,
      "Ġner": 5556,
      "Ġlange": 5557,
      "genoot": 5558,
      "Ġdrinken": 5559,
      "Ġvlucht": 5560,
      "Ġwonen": 5561,
      "ondon": 5562,
      "inkt": 5563,
      "æŀª": 5564,
      "Ġgeloven": 5565,
      "Ġkonden": 5566,
      "åĹ¯åĹ¯": 5567,
      "æºĲ": 5568,
      "Ġsuccess": 5569,
      "was": 5570,
      "andy": 5571,
      "Ġdevelop": 5572,
      "çĨŁ": 5573,
      "åĨ³å®ļ": 5574,
      "Ġå®ĥ": 5575,
      "Ġtape": 5576,
      "æľīæ²¡æľī": 5577,
      "gem": 5578,
      "çľ¼çĿ": 5579,
      "ĠSchool": 5580,
      "Ġrespect": 5581,
      "èĹı": 5582,
      "Ġcos": 5583,
      "Ġ21": 5584,
      "ekijk": 5585,
      "Ġgeworden": 5586,
      "pres": 5587,
      "çĪ¶æ¯į": 5588,
      "aire": 5589,
      "orie": 5590,
      "ç»´": 5591,
      "åħ¬ä¸»": 5592,
      "aars": 5593,
      "ĠBar": 5594,
      "Ġblock": 5595,
      "çŁŃ": 5596,
      "cuse": 5597,
      "oer": 5598,
      "}$$": 5599,
      "Ġhuid": 5600,
      "Ġervoor": 5601,
      "åºŃ": 5602,
      "åħ¶ä»ĸ": 5603,
      "espe": 5604,
      "Ġgarden": 5605,
      "Ġongel": 5606,
      "Ġreport": 5607,
      "emy": 5608,
      "Ġhoeft": 5609,
      "ĠMarch": 5610,
      "Ġstoppen": 5611,
      "Af": 5612,
      "Aan": 5613,
      "stelling": 5614,
      "Ġsomebody": 5615,
      "ĠGeorge": 5616,
      "Beg": 5617,
      "Ġtype": 5618,
      "Ġvi": 5619,
      "åĪº": 5620,
      "åİī": 5621,
      "Ġdank": 5622,
      "æģĭ": 5623,
      "Ġmaanden": 5624,
      "åłĤ": 5625,
      "Ġrain": 5626,
      "unk": 5627,
      "ukt": 5628,
      "ä¸īä¸ª": 5629,
      "weer": 5630,
      "Ġpig": 5631,
      "Ġspir": 5632,
      "åĽłæŃ¤": 5633,
      "Alleen": 5634,
      "Ġobject": 5635,
      "TER": 5636,
      "ued": 5637,
      "Ġdik": 5638,
      "reen": 5639,
      "èº«è¾¹": 5640,
      "Ġmilit": 5641,
      "Ġbezig": 5642,
      "El": 5643,
      "Will": 5644,
      "pje": 5645,
      "Ġnad": 5646,
      "Ġdoden": 5647,
      "ĠGeef": 5648,
      "Ġproblem": 5649,
      "Ġcirc": 5650,
      "ĠOliver": 5651,
      "ais": 5652,
      "yl": 5653,
      "Ġegg": 5654,
      "Ġleid": 5655,
      "ĠNederlandse": 5656,
      "Ġmaakte": 5657,
      "aker": 5658,
      "ĠDo": 5659,
      "Ġregen": 5660,
      "ĠRoy": 5661,
      "ç¬Ķ": 5662,
      "ç¾İåĽ½": 5663,
      "ength": 5664,
      "Ġcamer": 5665,
      "Erm": 5666,
      "vangen": 5667,
      "âĢķ": 5668,
      "cel": 5669,
      "oken": 5670,
      "Ġtakes": 5671,
      "Ġdelen": 5672,
      "Ġsoorten": 5673,
      "raid": 5674,
      "çľģ": 5675,
      "Ġschrijven": 5676,
      "ĠChina": 5677,
      "æĹ¥åŃĲ": 5678,
      "Ġhar": 5679,
      "onk": 5680,
      "æķ£": 5681,
      "å§Ķ": 5682,
      "oeten": 5683,
      "Ġbegon": 5684,
      "åĲĮåŃ¦": 5685,
      "ĠOnder": 5686,
      "ograph": 5687,
      "æĺ¨å¤©": 5688,
      "Ã¶": 5689,
      "entie": 5690,
      "Ġvoort": 5691,
      "ä¼´": 5692,
      "Ġthinking": 5693,
      "Ġcatch": 5694,
      "ache": 5695,
      "Ġcou": 5696,
      "åĨľ": 5697,
      "è¿ĩç¨ĭ": 5698,
      "ĠPres": 5699,
      "è¹": 5700,
      "Ġä¸ºä»Ģä¹Ī": 5701,
      "å¤§åŃ¦": 5702,
      "Ġä¸įè¿ĩ": 5703,
      "åħ³æ³¨": 5704,
      "elingen": 5705,
      "Ġzult": 5706,
      "ĠSouth": 5707,
      "ĠæĪĳçŁ¥éģĵ": 5708,
      "æ²¡äºĭ": 5709,
      "è´Ŀ": 5710,
      "æŃ»äºĨ": 5711,
      "ĠOne": 5712,
      "æł·åŃĲ": 5713,
      "å§ĵ": 5714,
      "Ġarg": 5715,
      "Ġcommon": 5716,
      "uut": 5717,
      "Ġbuurt": 5718,
      "Ġcow": 5719,
      "Ġvanaf": 5720,
      "åľĪ": 5721,
      "ĠNorth": 5722,
      "ä¸Ģå®ļè¦ģ": 5723,
      "Ġreason": 5724,
      "ä½ľä¸º": 5725,
      "Ġletters": 5726,
      "Ġgovernment": 5727,
      "é½": 5728,
      "strijd": 5729,
      "iging": 5730,
      "Ġnoises": 5731,
      "Ġä½łå°±": 5732,
      "å¤ļçļĦ": 5733,
      "è¾Ī": 5734,
      "Ġradio": 5735,
      "Ġbru": 5736,
      "Ġtoek": 5737,
      "ĠåĮ": 5738,
      "ç§¯": 5739,
      "play": 5740,
      "boek": 5741,
      "ases": 5742,
      "though": 5743,
      "gegeven": 5744,
      "Ġest": 5745,
      "Ġzorg": 5746,
      "ä½łè¦ģ": 5747,
      "Ġroe": 5748,
      "icult": 5749,
      "Ġdochter": 5750,
      "Ġtechn": 5751,
      "åį¡": 5752,
      "Ġshot": 5753,
      "åĲ¬è¯´": 5754,
      "dden": 5755,
      "äº«": 5756,
      "Ġverr": 5757,
      "ĠApril": 5758,
      "stead": 5759,
      "å½ĵä¸Ń": 5760,
      "æŃ£åľ¨": 5761,
      "Ġsurpr": 5762,
      "ĠRepubl": 5763,
      "stad": 5764,
      "ĠBra": 5765,
      "èµµ": 5766,
      "å®īåħ¨": 5767,
      "çĪ¶äº²": 5768,
      "æ¶Īæģ¯": 5769,
      "maken": 5770,
      "nemen": 5771,
      "Ġport": 5772,
      "Ġcop": 5773,
      "stubl": 5774,
      "Ġstood": 5775,
      "æŀ¶": 5776,
      "è®©ä»ĸ": 5777,
      "ocol": 5778,
      "Ġverteld": 5779,
      "ral": 5780,
      "ya": 5781,
      "asure": 5782,
      "ä»ĭ": 5783,
      "Ġåģ": 5784,
      "åĪļåĪļ": 5785,
      "vorm": 5786,
      "Ġä¸Ģä¸ª": 5787,
      "ĠOctober": 5788,
      "è¡¥": 5789,
      "çº¸": 5790,
      "15": 5791,
      "Gew": 5792,
      "ered": 5793,
      "Ġvuur": 5794,
      "Ġfit": 5795,
      "Ġrunning": 5796,
      "ĠSeptember": 5797,
      "éĩĩ": 5798,
      "å®¶çļĦ": 5799,
      "Ġpapa": 5800,
      "gebied": 5801,
      "stublieft": 5802,
      "Heeft": 5803,
      "Or": 5804,
      "spr": 5805,
      "Ġsinds": 5806,
      "Ġlift": 5807,
      "Ġfix": 5808,
      "ĠAugust": 5809,
      "Ġquiet": 5810,
      "clus": 5811,
      "ĠBeeld": 5812,
      "Ġkent": 5813,
      "Ġgebeuren": 5814,
      "çľ¼çĿĽ": 5815,
      "Ġnine": 5816,
      "ĠEm": 5817,
      "ĠéĤ£ä¹Ī": 5818,
      "å¼Ģå¿ĥ": 5819,
      "Ġeating": 5820,
      "ira": 5821,
      "Ġ/": 5822,
      "Ġpraat": 5823,
      "Ġrot": 5824,
      "åľĨ": 5825,
      "åŃ¦ä¹ł": 5826,
      "Ġexclaimed": 5827,
      "Ġkept": 5828,
      "Ġanderen": 5829,
      "ç§Ģ": 5830,
      "ample": 5831,
      "éĶĻè¯¯": 5832,
      "ç»Īäºİ": 5833,
      "17": 5834,
      "Ġevent": 5835,
      "Ġwelk": 5836,
      "é¡¶": 5837,
      "Ġbegrijp": 5838,
      "Meer": 5839,
      "Ġobs": 5840,
      "Ġchoo": 5841,
      "Ġabove": 5842,
      "Door": 5843,
      "å¯Į": 5844,
      "Ġpress": 5845,
      "ael": 5846,
      "dra": 5847,
      "eens": 5848,
      "ĠTom": 5849,
      "ĠJune": 5850,
      "è¿ĺæ²¡": 5851,
      "åĵ¥åĵ¥": 5852,
      "Ġwinter": 5853,
      "One": 5854,
      "ges": 5855,
      "ĠåıĪ": 5856,
      "Ġtrouw": 5857,
      "ä¸įçĶ¨": 5858,
      "ĠLondon": 5859,
      "å¼¹": 5860,
      "Ġsudden": 5861,
      "Ġclean": 5862,
      "ĠJuly": 5863,
      "arch": 5864,
      "Ġvreem": 5865,
      "æķĪ": 5866,
      "Ġterm": 5867,
      "raagd": 5868,
      "å®ĥä»¬": 5869,
      "view": 5870,
      "Ġbepaalde": 5871,
      "gra": 5872,
      "Ġwink": 5873,
      "Ġfield": 5874,
      "Ġbeeld": 5875,
      "ute": 5876,
      "éĻį": 5877,
      "åģļçļĦ": 5878,
      "ebru": 5879,
      "ius": 5880,
      "Ġmount": 5881,
      "Ġ23": 5882,
      "ç´¢": 5883,
      "å§Ĳå§Ĳ": 5884,
      "cing": 5885,
      "å°ģ": 5886,
      "ĠæĪĳè¯´": 5887,
      "ĠæĪĳä¹Ł": 5888,
      "Ġafraid": 5889,
      "çĥ§": 5890,
      "oi": 5891,
      "çĳ": 5892,
      "Ġdam": 5893,
      "ä¸´": 5894,
      "Ġpound": 5895,
      "Ġvermoord": 5896,
      "enschap": 5897,
      "Ġhuman": 5898,
      "owel": 5899,
      "è®Ń": 5900,
      "Ġgeval": 5901,
      "Ġregion": 5902,
      "Ġsterven": 5903,
      "iedenis": 5904,
      "æ¼Ĥäº®": 5905,
      "Ġå¤§å®¶": 5906,
      "Ġwest": 5907,
      "Ġnatuur": 5908,
      "åĳĹ": 5909,
      "ĠGl": 5910,
      "zeker": 5911,
      "å®Įåħ¨": 5912,
      "Ġsounds": 5913,
      "Ġcomputer": 5914,
      "Ġtoy": 5915,
      "ä¸Ģä¼ļåĦ¿": 5916,
      "æĭ¬": 5917,
      "pect": 5918,
      "rem": 5919,
      "æĪĳçľĭ": 5920,
      "agon": 5921,
      "ç»¿": 5922,
      "eller": 5923,
      "åĽ°": 5924,
      "Ġspeci": 5925,
      "ä¸įå¯¹": 5926,
      "ello": 5927,
      "Ġcannot": 5928,
      "oger": 5929,
      "thern": 5930,
      "Alsjeblieft": 5931,
      "UR": 5932,
      "dan": 5933,
      "Ġcross": 5934,
      "ĠæĪĳçļĦ": 5935,
      "åĬª": 5936,
      "ç»ıæµİ": 5937,
      "Ãł": 5938,
      "æ³¢": 5939,
      "Ġmonths": 5940,
      "Ġtrouble": 5941,
      "Ġlever": 5942,
      "wegen": 5943,
      "bles": 5944,
      "éªĹ": 5945,
      "ľçļĦ": 5946,
      "Ġweken": 5947,
      "eeg": 5948,
      "ified": 5949,
      "çİĩ": 5950,
      "Ġschip": 5951,
      "want": 5952,
      "Ġain": 5953,
      "ĠMc": 5954,
      "Ġmoved": 5955,
      "ĠGrand": 5956,
      "Ġåİ»": 5957,
      "Ġjuice": 5958,
      "Ġgeme": 5959,
      "æĿ¯": 5960,
      "Ġproper": 5961,
      "æµĭ": 5962,
      "æīįèĥ½": 5963,
      "ĠYes": 5964,
      "Ġesc": 5965,
      "Ġtreat": 5966,
      "Ġfarm": 5967,
      "Ġeraan": 5968,
      "è´¥": 5969,
      "Sn": 5970,
      "Ġomge": 5971,
      "æķĮ": 5972,
      "æĪĲåĬŁ": 5973,
      "ology": 5974,
      "åĭĩ": 5975,
      "pel": 5976,
      "Ġå¤ª": 5977,
      "Ġfa": 5978,
      "Ġkiss": 5979,
      "ä½łè¿Ļ": 5980,
      "Ġmember": 5981,
      "ç»ĩ": 5982,
      "è¿ĺè¦ģ": 5983,
      "Ġshop": 5984,
      "Ġthemselves": 5985,
      "åĸĦ": 5986,
      "Ġnaast": 5987,
      "æŁĲ": 5988,
      "çĪ·çĪ·": 5989,
      "ĠAmerikaanse": 5990,
      "eh": 5991,
      "zonder": 5992,
      "Ġeconom": 5993,
      "cted": 5994,
      "Ġwindow": 5995,
      "Ã¼": 5996,
      "Ġbos": 5997,
      "ĠKl": 5998,
      "ĠDecember": 5999,
      "Ġsnap": 6000,
      "Ġrode": 6001,
      "Ġpossible": 6002,
      "Ġet": 6003,
      "Ġhom": 6004,
      "Ġvie": 6005,
      "stairs": 6006,
      "åĲĵ": 6007,
      "Ġkunst": 6008,
      "kant": 6009,
      "ancy": 6010,
      "Ġvent": 6011,
      "åĲ¦": 6012,
      "Ġverv": 6013,
      "åį³": 6014,
      "Ġsheep": 6015,
      "åıªè¦ģ": 6016,
      "Ġcontrol": 6017,
      "kn": 6018,
      "ĠCHI": 6019,
      "Ġhus": 6020,
      "å·¦": 6021,
      "Ġtrad": 6022,
      "ĠSpanje": 6023,
      "Some": 6024,
      "ä¸Ģåıª": 6025,
      "Ġdocent": 6026,
      "lingen": 6027,
      "loop": 6028,
      "Ġsand": 6029,
      "imin": 6030,
      "éĢĥ": 6031,
      "Ġ40": 6032,
      "ç²ī": 6033,
      "Ġeiland": 6034,
      "toe": 6035,
      "uke": 6036,
      "Ġdepartment": 6037,
      "Ġlist": 6038,
      "Ġrij": 6039,
      "ĠæĪĳè¦ģ": 6040,
      "ĠEx": 6041,
      "achter": 6042,
      "Ġantwoorden": 6043,
      "å£°éŁ³": 6044,
      "Ġclear": 6045,
      "ebruary": 6046,
      "ID": 6047,
      "ingers": 6048,
      "Ġcool": 6049,
      "Ġkoff": 6050,
      "ikken": 6051,
      "Ġlovely": 6052,
      "Ġmun": 6053,
      "Ġbab": 6054,
      "Ġlog": 6055,
      "ä½Ļ": 6056,
      "geet": 6057,
      "Ġ22": 6058,
      "ĠOf": 6059,
      "åĬ¨çī©": 6060,
      "èĮĥ": 6061,
      "Ġverwacht": 6062,
      "ĠNorah": 6063,
      "Ġtired": 6064,
      "eding": 6065,
      "Ġluck": 6066,
      "æĺ¯ä½ł": 6067,
      "ĠMon": 6068,
      "æĹģ": 6069,
      "Ġperform": 6070,
      "Bel": 6071,
      "Ġsight": 6072,
      "Ġpract": 6073,
      "Ġkopen": 6074,
      "ĠTer": 6075,
      "éĥ½æľī": 6076,
      "ĠéĤ£æĪĳ": 6077,
      "Gaat": 6078,
      "æ½": 6079,
      "uts": 6080,
      "Ġputting": 6081,
      "oenen": 6082,
      "Ġmarried": 6083,
      "Ġmm": 6084,
      "ä¸Ŀ": 6085,
      "Ġcere": 6086,
      "Ġkm": 6087,
      "ieken": 6088,
      "ils": 6089,
      "rift": 6090,
      "volution": 6091,
      "çĮ´": 6092,
      "gesl": 6093,
      "Ġä¸Ĭ": 6094,
      "Ġerop": 6095,
      "Ġnose": 6096,
      "æĮĳ": 6097,
      "Ġhung": 6098,
      "aced": 6099,
      "ä»ĸä»¬çļĦ": 6100,
      "Ġpolice": 6101,
      "Ġsuppose": 6102,
      "æĭľæĭľ": 6103,
      "Ġdaught": 6104,
      "stellen": 6105,
      "Ġstil": 6106,
      "Ġreact": 6107,
      "Ġknows": 6108,
      "Ġcommand": 6109,
      "ç§ģ": 6110,
      "ä¾Ľ": 6111,
      "gelopen": 6112,
      "Ġkennen": 6113,
      "cr": 6114,
      "delen": 6115,
      "Ġgingen": 6116,
      "çļĦéĤ£": 6117,
      "repen": 6118,
      "ikel": 6119,
      "Ġexamen": 6120,
      "ĠZw": 6121,
      "ube": 6122,
      "will": 6123,
      "etjes": 6124,
      "Ġled": 6125,
      "ĠAfter": 6126,
      "iller": 6127,
      "ĠNove": 6128,
      "å¼ĥ": 6129,
      "æĻ®": 6130,
      "Ġfeeling": 6131,
      "Ġlives": 6132,
      "Amer": 6133,
      "Ġgang": 6134,
      "çļĦä¸ľè¥¿": 6135,
      "ĠHarry": 6136,
      "çĶļ": 6137,
      "ĠUniversity": 6138,
      "ĠNovember": 6139,
      "druk": 6140,
      "Ġdest": 6141,
      "Ġlo": 6142,
      "steem": 6143,
      "çĽĳ": 6144,
      "Ġclos": 6145,
      "åŃ¦çĶŁ": 6146,
      "Ġprobeer": 6147,
      "Ġtomorrow": 6148,
      "Ġè¿ĺæĺ¯": 6149,
      "Ġker": 6150,
      "urch": 6151,
      "Ġopl": 6152,
      "å¥Ĺ": 6153,
      "ĠMad": 6154,
      "gev": 6155,
      "Ġä½łè¦ģ": 6156,
      "ĠGro": 6157,
      "æĬĹ": 6158,
      "åĽŀæĿ¥äºĨ": 6159,
      "æĻº": 6160,
      "Ġsett": 6161,
      "æĺ¯åľ¨": 6162,
      "iode": 6163,
      "$$\\": 6164,
      "Ġtoekomst": 6165,
      "joy": 6166,
      "Ġcorn": 6167,
      "Ġricht": 6168,
      "ĠPeter": 6169,
      "Ġschoon": 6170,
      "æİ¢": 6171,
      "lands": 6172,
      "æ¬¢è¿İ": 6173,
      "Heel": 6174,
      "å°Ħ": 6175,
      "éĤ£åĦ¿": 6176,
      "åĨ°": 6177,
      "ĠOver": 6178,
      "ç§ĺ": 6179,
      "Ġenorm": 6180,
      "åĪ¤": 6181,
      "Ġåĸ": 6182,
      "å¤§åĵ¥": 6183,
      "wez": 6184,
      "åıªèĥ½": 6185,
      "Zoals": 6186,
      "Ġtrees": 6187,
      "14": 6188,
      "ature": 6189,
      "Ġearth": 6190,
      "Ġyours": 6191,
      "Ġsilence": 6192,
      "Have": 6193,
      "Ġèĥ½": 6194,
      "Ġtrek": 6195,
      "Ġduur": 6196,
      "Ġbath": 6197,
      "Ġvor": 6198,
      "ä¸įæĥ³": 6199,
      "ĠMommy": 6200,
      "erence": 6201,
      "èĭ¥": 6202,
      "ae": 6203,
      "Ġwakker": 6204,
      "ĠHar": 6205,
      "Ġwithin": 6206,
      "æ´ŀ": 6207,
      "ec": 6208,
      "Ġkort": 6209,
      "å®ĥçļĦ": 6210,
      "Ġsupport": 6211,
      "éº¦": 6212,
      "Ġpriv": 6213,
      "Ġclothes": 6214,
      "MAR": 6215,
      "Ġtaf": 6216,
      "Ġpain": 6217,
      "Ġpupp": 6218,
      "ä½łäºĨ": 6219,
      "å°±è¦ģ": 6220,
      "Ġhaal": 6221,
      "åĩłå¤©": 6222,
      "Because": 6223,
      "æ³¨æĦı": 6224,
      "OM": 6225,
      "gang": 6226,
      "èĨ": 6227,
      "iled": 6228,
      "ä¼¯": 6229,
      "Ġcomb": 6230,
      "éľ²": 6231,
      "æĭħå¿ĥ": 6232,
      "Ġontmoet": 6233,
      "gesch": 6234,
      "çĩ": 6235,
      "apa": 6236,
      "cks": 6237,
      "ĠKen": 6238,
      "åĲ¬åĪ°": 6239,
      "è¿Ļä¹Īå¤ļ": 6240,
      "å¥¶å¥¶": 6241,
      "Ġleef": 6242,
      "Ġfift": 6243,
      "ĠAan": 6244,
      "Ġvoorkomen": 6245,
      "Ġformer": 6246,
      "Ġå§": 6247,
      "Ġleger": 6248,
      "éĥ½ä¼ļ": 6249,
      "å°±æĺ¯è¯´": 6250,
      "æİĮ": 6251,
      "Ġappro": 6252,
      "Ġintern": 6253,
      "sm": 6254,
      "say": 6255,
      "Ġei": 6256,
      "ĠMich": 6257,
      "Ġspreek": 6258,
      "Ġexact": 6259,
      "which": 6260,
      "Ġmillion": 6261,
      "Ġklimaat": 6262,
      "åİīå®³": 6263,
      "Ġeet": 6264,
      "lease": 6265,
      "ĠPol": 6266,
      "Help": 6267,
      "nou": 6268,
      "åĪĨä¹ĭ": 6269,
      "é¦Ĩ": 6270,
      "çĸ¼": 6271,
      "Ġredden": 6272,
      "ĠLees": 6273,
      "lag": 6274,
      "Ġpassen": 6275,
      "Ġcaught": 6276,
      "ä½Ľ": 6277,
      "Ġstat": 6278,
      "Ġstroom": 6279,
      "æĬ¢": 6280,
      "åºĬ": 6281,
      "ç§ĭ": 6282,
      "Ġanyway": 6283,
      "Ġoffice": 6284,
      "èĥĸ": 6285,
      "èĥľ": 6286,
      "è§£æŀĲ": 6287,
      "Ġdifficult": 6288,
      "Ġvoelt": 6289,
      "ĠEuropa": 6290,
      "åĬªåĬĽ": 6291,
      "Ġtoward": 6292,
      "ĠSu": 6293,
      "ĠCent": 6294,
      "Ġbehand": 6295,
      "Ġprep": 6296,
      "å¸¦çĿĢ": 6297,
      "standig": 6298,
      "ĠMartin": 6299,
      "äºļ": 6300,
      "Ġlow": 6301,
      "Ġpuzz": 6302,
      "ĠCol": 6303,
      "æĿ¥æĿ¥": 6304,
      "Ġmeth": 6305,
      "å±Ĥ": 6306,
      "ĠZuid": 6307,
      "Ġworked": 6308,
      "ç¼º": 6309,
      "Ġdeep": 6310,
      "Ġcried": 6311,
      "Ġstoffen": 6312,
      "ills": 6313,
      "ĠRome": 6314,
      "æĬĬæĪĳ": 6315,
      "Ġdaarom": 6316,
      "Ġcontact": 6317,
      "Ġveroorz": 6318,
      "Gel": 6319,
      "åĲ´": 6320,
      "lymp": 6321,
      "æĬĺ": 6322,
      "åĨ¬": 6323,
      "Ġslim": 6324,
      "Ġperhaps": 6325,
      "Ġpaard": 6326,
      "æĹ¢çĦ¶": 6327,
      "Ġhusband": 6328,
      "zin": 6329,
      "åľ°è¯´": 6330,
      "Ġveranderen": 6331,
      "ç¿»": 6332,
      "fast": 6333,
      "hello": 6334,
      "entle": 6335,
      "ĠSome": 6336,
      "your": 6337,
      "æĻĵ": 6338,
      "Ġsomm": 6339,
      "Ġmajor": 6340,
      "Ġvechten": 6341,
      "bor": 6342,
      "èĿ": 6343,
      "Ġlach": 6344,
      "laag": 6345,
      "Ġpartij": 6346,
      "æĸ°éĹ»": 6347,
      "ision": 6348,
      "rodu": 6349,
      "å¾ĹåĪ°": 6350,
      "Ġarri": 6351,
      "ä¾ĭ": 6352,
      "ç¥¨": 6353,
      "çŀ§": 6354,
      "Ġdad": 6355,
      "Ġzaken": 6356,
      "Ġfear": 6357,
      "ĠIN": 6358,
      "Ġren": 6359,
      "ĠDen": 6360,
      "ĠNot": 6361,
      "Ġsex": 6362,
      "Ġeasy": 6363,
      "ening": 6364,
      "Ġsuff": 6365,
      "Ġrelig": 6366,
      "Ġanswered": 6367,
      "singing": 6368,
      "Ġcamera": 6369,
      "Men": 6370,
      "Ġice": 6371,
      "æĪĳåİ»": 6372,
      "Ġur": 6373,
      "Ġann": 6374,
      "ĠFebruary": 6375,
      "ffen": 6376,
      "Ġvolg": 6377,
      "Ġmeestal": 6378,
      "è¶ĬæĿ¥": 6379,
      "Ġspeelt": 6380,
      "æ¦Ĥ": 6381,
      "ST": 6382,
      "Ġknock": 6383,
      "bert": 6384,
      "Ġgevraagd": 6385,
      "å¥³åŃ©": 6386,
      "Ġzwaar": 6387,
      "åıĺæĪĲ": 6388,
      "Mhm": 6389,
      "izen": 6390,
      "ĠSw": 6391,
      "æľīäºĽ": 6392,
      "Ġreached": 6393,
      "æīĺ": 6394,
      "Ġä½łçļĦ": 6395,
      "ĠGel": 6396,
      "åĲįåŃĹ": 6397,
      "çŃĶåºĶ": 6398,
      "Vooruit": 6399,
      "Ġpassed": 6400,
      "IJ": 6401,
      "Wanneer": 6402,
      "Ġboeken": 6403,
      "ä¸ģ": 6404,
      "å¤§äºĨ": 6405,
      "çĤ¹åĦ¿": 6406,
      "ĠUit": 6407,
      "Ġslow": 6408,
      "Ġsucces": 6409,
      "ĠDNA": 6410,
      "è¶ĬæĿ¥è¶Ĭ": 6411,
      "zel": 6412,
      "edia": 6413,
      "Ġliet": 6414,
      "ooh": 6415,
      "åŃĲéĩĮ": 6416,
      "Ġblijf": 6417,
      "Ġarms": 6418,
      "Ġvisit": 6419,
      "Daddy": 6420,
      "Every": 6421,
      "Ġä¸ī": 6422,
      "Ġstar": 6423,
      "Ġreger": 6424,
      "Ġforward": 6425,
      "éĩĬ": 6426,
      "è¢ĭ": 6427,
      "çľŁçļĦæĺ¯": 6428,
      "æīĢæľīçļĦ": 6429,
      "Ġmoder": 6430,
      "å¯¹åķĬ": 6431,
      "Ġlots": 6432,
      "æļĸ": 6433,
      "16": 6434,
      "bers": 6435,
      "vocal": 6436,
      "Ġbreat": 6437,
      "Ġboom": 6438,
      "æµª": 6439,
      "åİŁæĿ¥": 6440,
      "Ġhotel": 6441,
      "ç®Ģåįķ": 6442,
      "ĠCounty": 6443,
      "30": 6444,
      "Ġgast": 6445,
      "Ġcake": 6446,
      "Ġthird": 6447,
      "ç»ıå¸¸": 6448,
      "çĭ¸": 6449,
      "Ġgeneral": 6450,
      "uy": 6451,
      "Ġmicro": 6452,
      "oning": 6453,
      "ĠSun": 6454,
      "Ġfort": 6455,
      "éĥ½æ²¡": 6456,
      "Ġvandaan": 6457,
      "Ġtelevision": 6458,
      "èĸ": 6459,
      "Ġmakkelijk": 6460,
      "ishing": 6461,
      "Ġzuur": 6462,
      "Ġcost": 6463,
      "æĪĳåľ¨": 6464,
      "æĹħ": 6465,
      "è¾Ľ": 6466,
      "Ġè¿Ļæł·": 6467,
      "oci": 6468,
      "Ġjonge": 6469,
      "komst": 6470,
      "Ġ*": 6471,
      "ĠåĪ°": 6472,
      "Ġwear": 6473,
      "ĠRob": 6474,
      "Ġshit": 6475,
      "ipe": 6476,
      "éĥ¨åĪĨ": 6477,
      "Ġcharacter": 6478,
      "ĠPart": 6479,
      "èĩ£": 6480,
      "Ġbroke": 6481,
      "ĠChristmas": 6482,
      "Ġcollect": 6483,
      "Ġè¯·": 6484,
      "Ġlid": 6485,
      "Ġlunch": 6486,
      "ä½łæĢİä¹Ī": 6487,
      "Ġstorm": 6488,
      "icip": 6489,
      "ĠMex": 6490,
      "ĠCom": 6491,
      "ustration": 6492,
      "çłĶç©¶": 6493,
      "Mama": 6494,
      "kw": 6495,
      "zoeken": 6496,
      "Ġeh": 6497,
      "ieved": 6498,
      "ammer": 6499,
      "è¿ĺä¸į": 6500,
      "Ġshout": 6501,
      "å°ıå§Ĳ": 6502,
      "Ġchance": 6503,
      "Ġbetalen": 6504,
      "çľŁæŃ£": 6505,
      "ĠIndian": 6506,
      "esse": 6507,
      "åı³": 6508,
      "Ġforget": 6509,
      "ä¹Łæ²¡æľī": 6510,
      "èĩªçĦ¶": 6511,
      "æģĲ": 6512,
      "Ġadm": 6513,
      "Ġwaiting": 6514,
      "çĭĲçĭ¸": 6515,
      "with": 6516,
      "Ġ$": 6517,
      "Ġdok": 6518,
      "éĥ½åľ¨": 6519,
      "Ġschrij": 6520,
      "çĲĨè§£": 6521,
      "Ġverschil": 6522,
      "itchen": 6523,
      "Naar": 6524,
      "some": 6525,
      "Ġtick": 6526,
      "itter": 6527,
      "èĥ½åĬĽ": 6528,
      "ĠVeren": 6529,
      "çģ¯": 6530,
      "åĮĹäº¬": 6531,
      "Ġbellen": 6532,
      "Ġking": 6533,
      "åĲµ": 6534,
      "empt": 6535,
      "Ġshoes": 6536,
      "osaur": 6537,
      "å®ŀåľ¨": 6538,
      "Ġlonger": 6539,
      "Ġå¦Ī": 6540,
      "voer": 6541,
      "lk": 6542,
      "night": 6543,
      "work": 6544,
      "Ġboos": 6545,
      "Ġcry": 6546,
      "Ġbevol": 6547,
      "ĠHen": 6548,
      "Ġexample": 6549,
      "æŀĦ": 6550,
      "Twee": 6551,
      "è¯Ĺ": 6552,
      "æĿ¥åĪ°": 6553,
      "ĠFran": 6554,
      "èĢĥèĻĳ": 6555,
      "åĮ»éĻ¢": 6556,
      "name": 6557,
      "Ġfrog": 6558,
      "è¯į": 6559,
      "ĠAunt": 6560,
      "Ġ27": 6561,
      "Ġzwem": 6562,
      "ä½łåľ¨": 6563,
      "Ġstraat": 6564,
      "è¯Ħ": 6565,
      "ĠAnt": 6566,
      "æĸ½": 6567,
      "ä¸ĭçļĦ": 6568,
      "iny": 6569,
      "Ġkerk": 6570,
      "ĠII": 6571,
      "ĠCity": 6572,
      "åįĩ": 6573,
      "è´§": 6574,
      "éĺµ": 6575,
      "Ġverloren": 6576,
      "Ġcentury": 6577,
      "Ill": 6578,
      "ule": 6579,
      "Ġcompet": 6580,
      "Ġstraight": 6581,
      "Ġdokter": 6582,
      "gar": 6583,
      "Ġcellen": 6584,
      "Ġopnieuw": 6585,
      "ume": 6586,
      "Ġseems": 6587,
      "ĠZijn": 6588,
      "beeldingen": 6589,
      "ĠAmerica": 6590,
      "ĠPortug": 6591,
      "Gr": 6592,
      "dien": 6593,
      "isper": 6594,
      "Ġhell": 6595,
      "Ġboot": 6596,
      "Ġvolgens": 6597,
      "èŀ": 6598,
      "Ġzen": 6599,
      "ilder": 6600,
      "åħħ": 6601,
      "åįļ": 6602,
      "Ġ192": 6603,
      "å¹²åĲĹ": 6604,
      "inet": 6605,
      "Ġmix": 6606,
      "Ġbaas": 6607,
      "arah": 6608,
      "Ġoveral": 6609,
      "Ġ28": 6610,
      "Ġwaarschijnlijk": 6611,
      "Ġlanger": 6612,
      "Ġhours": 6613,
      "Dag": 6614,
      "Ġblow": 6615,
      "ç¥Ŀ": 6616,
      "ç³ĸ": 6617,
      "Ġbelangrijke": 6618,
      "éĻ¤äºĨ": 6619,
      "å³": 6620,
      "Ġmidden": 6621,
      "Ġfant": 6622,
      "Ġdescri": 6623,
      "æĶ¹åıĺ": 6624,
      "Ġèµ°": 6625,
      "ä¸ĬéĿ¢": 6626,
      "å¯¹äºİ": 6627,
      "urton": 6628,
      "æ£Ģ": 6629,
      "Any": 6630,
      "Ġreturned": 6631,
      "Ġmachine": 6632,
      "Ġmut": 6633,
      "Ġzak": 6634,
      "Ġeye": 6635,
      "æĪĳè¿Ļ": 6636,
      "Ġstom": 6637,
      "å¥½åķĬ": 6638,
      "åĩı": 6639,
      "Ġplaces": 6640,
      "å¤©å¤©": 6641,
      "Ġboard": 6642,
      "Ġusing": 6643,
      "Ġsnow": 6644,
      "èĦ±": 6645,
      "Onze": 6646,
      "attle": 6647,
      "ky": 6648,
      "Ġwinnen": 6649,
      "eddy": 6650,
      "agina": 6651,
      "åº·": 6652,
      "é¢ĳ": 6653,
      "ĠZij": 6654,
      "board": 6655,
      "æĳĨ": 6656,
      "ospital": 6657,
      "hoog": 6658,
      "wassen": 6659,
      "ĠYeah": 6660,
      "anor": 6661,
      "Ġthr": 6662,
      "ola": 6663,
      "esterd": 6664,
      "éĩĮè¾¹": 6665,
      "æĶ»": 6666,
      "uurd": 6667,
      "Ġkleur": 6668,
      "åİŁåĽł": 6669,
      "Ġchanged": 6670,
      "Ġsuggest": 6671,
      "Ġdaughter": 6672,
      "VAL": 6673,
      "sit": 6674,
      "ugen": 6675,
      "ym": 6676,
      "zetten": 6677,
      "ä½łçŁ¥éģĵ": 6678,
      "è¶£": 6679,
      "Ġopened": 6680,
      "Ġcurr": 6681,
      "çĶļèĩ³": 6682,
      "otte": 6683,
      "estig": 6684,
      "oppen": 6685,
      "Ġzeven": 6686,
      "åĬ²": 6687,
      "Ġwhether": 6688,
      "Uit": 6689,
      "kel": 6690,
      "Ġsus": 6691,
      "Ġmur": 6692,
      "çļĦåķĬ": 6693,
      "Ġrijden": 6694,
      "Ġstof": 6695,
      "éĤ£è¾¹": 6696,
      "Ġ26": 6697,
      "ĠUS": 6698,
      "åĲĮæĹ¶": 6699,
      "Ġbroken": 6700,
      "Ġsupposed": 6701,
      "Ġdream": 6702,
      "Ġnor": 6703,
      "ĠMy": 6704,
      "Ġreken": 6705,
      "è¦ģæ±Ĥ": 6706,
      "é¢Ħ": 6707,
      "Ġkwijt": 6708,
      "è±Ĩ": 6709,
      "æł¹æį®": 6710,
      "Ġaardig": 6711,
      "Ġä¸ĭ": 6712,
      "iety": 6713,
      "åĪĢ": 6714,
      "å¼Ĥ": 6715,
      "Ġbedrijf": 6716,
      "Ġchem": 6717,
      "Ġnamelijk": 6718,
      "æķ´ä¸ª": 6719,
      "Ġkitchen": 6720,
      "Ġriver": 6721,
      "ĠNational": 6722,
      "ustig": 6723,
      "Ġshut": 6724,
      "Ġprinc": 6725,
      "plant": 6726,
      "Ġeverybody": 6727,
      "organ": 6728,
      "èĮ¶": 6729,
      "åĤ»": 6730,
      "Ġwritten": 6731,
      "ĠGra": 6732,
      "åģ¥": 6733,
      "åĸĬ": 6734,
      "Ġmaand": 6735,
      "Ġmiddel": 6736,
      "jorie": 6737,
      "staande": 6738,
      "iod": 6739,
      "Ġast": 6740,
      "Ġkost": 6741,
      "ĠLet": 6742,
      "Ġbelong": 6743,
      "Ġæĺ¯ä¸įæĺ¯": 6744,
      "æļĹ": 6745,
      "Ġtrein": 6746,
      "Ġdecided": 6747,
      "Pl": 6748,
      "gent": 6749,
      "ozen": 6750,
      "vere": 6751,
      "Ġsal": 6752,
      "Ġpunt": 6753,
      "Ġwaarheid": 6754,
      "Ġgrass": 6755,
      "èĢģæĿ¿": 6756,
      "Ġziekte": 6757,
      "ĠPresident": 6758,
      "aven": 6759,
      "Ġhig": 6760,
      "Ġkids": 6761,
      "Ġworry": 6762,
      "ĠWil": 6763,
      "è®¨": 6764,
      "éª¨": 6765,
      "Ġruimte": 6766,
      "å¾Ĳ": 6767,
      "ribut": 6768,
      "uwen": 6769,
      "ä¸»è¦ģ": 6770,
      "ä»Ĭå¹´": 6771,
      "ä¿ĿæĬ¤": 6772,
      "ç¦»å©ļ": 6773,
      "æĿ¡ä»¶": 6774,
      "Ġvliegen": 6775,
      "Ġmeisjes": 6776,
      "çĵ¶": 6777,
      "ĠAmerika": 6778,
      "obert": 6779,
      "Ġenergie": 6780,
      "ees": 6781,
      "¤Ĳ": 6782,
      "å´": 6783,
      "Ġçİĭ": 6784,
      "Ġdin": 6785,
      "Ġkennis": 6786,
      "este": 6787,
      "ä¸Ĭåİ»": 6788,
      "å®¶äºº": 6789,
      "å¦Ĥä½ķ": 6790,
      "æħ¢æħ¢": 6791,
      "Ġhoge": 6792,
      "product": 6793,
      "Ġcouple": 6794,
      "rad": 6795,
      "turn": 6796,
      "Ġduck": 6797,
      "Ġlied": 6798,
      "è¿·": 6799,
      "ĠMil": 6800,
      "éģį": 6801,
      "éķľ": 6802,
      "æ¯Ķå¦Ĥ": 6803,
      "Ġsecret": 6804,
      "volgens": 6805,
      "AND": 6806,
      "æ¹ĸ": 6807,
      "Ġdoubt": 6808,
      "ĠMark": 6809,
      "ĠAd": 6810,
      "ç¥ĸ": 6811,
      "æĳĩ": 6812,
      "esterday": 6813,
      "Ġlag": 6814,
      "ä»ĸæĺ¯": 6815,
      "ĠJul": 6816,
      "ĠRich": 6817,
      "ugg": 6818,
      "ç¾Ĭ": 6819,
      "Ġ2000": 6820,
      "æ£®": 6821,
      "é½Ĳ": 6822,
      "beer": 6823,
      "éŀĭ": 6824,
      "Ġgist": 6825,
      "ä¹Į": 6826,
      "aste": 6827,
      "æĬĬä½ł": 6828,
      "çĵľ": 6829,
      "Ġvliegtuig": 6830,
      "See": 6831,
      "rel": 6832,
      "inter": 6833,
      "Ġzus": 6834,
      "Ġmemb": 6835,
      "ĠSm": 6836,
      "å°±åľ¨": 6837,
      "erson": 6838,
      "Ġrequ": 6839,
      "ĠLeg": 6840,
      "é¡¿": 6841,
      "æģ©": 6842,
      "ç¢°": 6843,
      "Volgens": 6844,
      "hold": 6845,
      "regen": 6846,
      "icle": 6847,
      "used": 6848,
      "elijks": 6849,
      "å½Ĵ": 6850,
      "æ´ĭ": 6851,
      "Ġ2018": 6852,
      "ç¨³": 6853,
      "Ġslaap": 6854,
      "Ġvakantie": 6855,
      "Ġpunten": 6856,
      "nem": 6857,
      "otter": 6858,
      "ugs": 6859,
      "å¸ħ": 6860,
      "ival": 6861,
      "Ġseem": 6862,
      "ĠFraser": 6863,
      "Ġglass": 6864,
      "Ġelekt": 6865,
      "sings": 6866,
      "uken": 6867,
      "Ġbull": 6868,
      "Ġinsp": 6869,
      "Ġvanuit": 6870,
      "å¥½çľĭ": 6871,
      "ĠJer": 6872,
      "ĠOlymp": 6873,
      "wege": 6874,
      "è¾ĵ": 6875,
      "éĻĨ": 6876,
      "Ġgrapp": 6877,
      "å±ŀäºİ": 6878,
      "Please": 6879,
      "Zet": 6880,
      "hem": 6881,
      "è¿Ļä»¶": 6882,
      "ä¼ļæľī": 6883,
      "å½ķ": 6884,
      "ä»»åĬ¡": 6885,
      "Ġhole": 6886,
      "Ġluist": 6887,
      "ĠåĬ": 6888,
      "Ġgeboren": 6889,
      "è§£åĨ³": 6890,
      "èĪĴ": 6891,
      "Ġstanding": 6892,
      "Ġfollowing": 6893,
      "Illustration": 6894,
      "ih": 6895,
      "kan": 6896,
      "ĠMa": 6897,
      "Ġspl": 6898,
      "achte": 6899,
      "Ġè¿Ļä¹Ī": 6900,
      "looks": 6901,
      "æĲ¬": 6902,
      "Ġdistrict": 6903,
      "ĠGermany": 6904,
      "BA": 6905,
      "Per": 6906,
      "Want": 6907,
      "ä¸¢": 6908,
      "Ġcoun": 6909,
      "Ġfijn": 6910,
      "Ġchicken": 6911,
      "Ġexcept": 6912,
      "itein": 6913,
      "åĽ½çİĭ": 6914,
      "è¿Ľåİ»": 6915,
      "eltje": 6916,
      "çĺ": 6917,
      "Ġgentle": 6918,
      "Ġzowel": 6919,
      "Ġinstead": 6920,
      "igr": 6921,
      "åĲ¹": 6922,
      "Ġåº": 6923,
      "Ġdiep": 6924,
      "åĲİéĿ¢": 6925,
      "ekra": 6926,
      "iefd": 6927,
      "ording": 6928,
      "Ġappar": 6929,
      "çĻ¾åĪĨä¹ĭ": 6930,
      "Ġgelukkig": 6931,
      "é¤Ĳ": 6932,
      "çļĦéĤ£ä¸ª": 6933,
      "Ġcijf": 6934,
      "Ġstellen": 6935,
      "åķĬä½ł": 6936,
      "åİĤ": 6937,
      "å¿į": 6938,
      "å°ıæĹ¶": 6939,
      "aalt": 6940,
      "çīĮ": 6941,
      "Ġtonight": 6942,
      "Ġincluding": 6943,
      "Ġallowed": 6944,
      "Vertel": 6945,
      "ests": 6946,
      "éĢ¼": 6947,
      "Ġgeluid": 6948,
      "MA": 6949,
      "halen": 6950,
      "Ġhuil": 6951,
      "Ġcel": 6952,
      "Ġcast": 6953,
      "ims": 6954,
      "aper": 6955,
      "ella": 6956,
      "æ¬§": 6957,
      "Ġanyone": 6958,
      "éķ¿çļĦ": 6959,
      "æľ¬æĿ¥": 6960,
      "Ġauthor": 6961,
      "Ġpopulation": 6962,
      "Ġbasis": 6963,
      "è®¾è®¡": 6964,
      "èĵĿ": 6965,
      "åŀ": 6966,
      "Ġcal": 6967,
      "åĲĽ": 6968,
      "æī¹": 6969,
      "Ġaanwez": 6970,
      "Ġshoot": 6971,
      "Ġsocial": 6972,
      "Ġmoesten": 6973,
      "Ġhaat": 6974,
      "æģ¶": 6975,
      "izza": 6976,
      "Ġgezond": 6977,
      "Ġ2010": 6978,
      "Ġdiscover": 6979,
      "OK": 6980,
      "book": 6981,
      "Ġtyp": 6982,
      "Ġlim": 6983,
      "Ġreach": 6984,
      "çŃĸ": 6985,
      "reng": 6986,
      "ĠYOU": 6987,
      "iaal": 6988,
      "kamer": 6989,
      "Ġdw": 6990,
      "Ġdanger": 6991,
      "ĠDavid": 6992,
      "åį°": 6993,
      "athol": 6994,
      "Ġweeks": 6995,
      "ermen": 6996,
      "Ġhors": 6997,
      "ä¸ĢçĻ¾": 6998,
      "ĠSan": 6999,
      "åĬ³": 7000,
      "çĪ¬": 7001,
      "ä¸¤å¤©": 7002,
      "oogle": 7003,
      "Ġfollowed": 7004,
      "Ġprotect": 7005,
      "æ¤į": 7006,
      "Ġlanguage": 7007,
      "Ġ#": 7008,
      "Ġsouth": 7009,
      "Ġbesp": 7010,
      "Ġbased": 7011,
      "Ġhong": 7012,
      "ersch": 7013,
      "ä»Ģä¹ĪåĳĢ": 7014,
      "Ġbete": 7015,
      "éĹ®ä½ł": 7016,
      "anning": 7017,
      "èī²çļĦ": 7018,
      "Ġhoorde": 7019,
      "Ġpieces": 7020,
      "Ġtafel": 7021,
      "13": 7022,
      "Her": 7023,
      "Maybe": 7024,
      "Ġban": 7025,
      "ooien": 7026,
      "Ġsteden": 7027,
      "essie": 7028,
      "naam": 7029,
      "Ġplayer": 7030,
      "çĶµè§Ĩ": 7031,
      "èħ¿": 7032,
      "ç¯®": 7033,
      "IM": 7034,
      "ny": 7035,
      "ouder": 7036,
      "Ġliter": 7037,
      "ĠMor": 7038,
      "Ġschree": 7039,
      "erkt": 7040,
      "åĿĹéĴ±": 7041,
      "æĽ¾ç»ı": 7042,
      "bing": 7043,
      "veld": 7044,
      "ĠæľĢ": 7045,
      "å¥ĸ": 7046,
      "arts": 7047,
      "å¯¹å¯¹": 7048,
      "äºĶåįģ": 7049,
      "Pak": 7050,
      "zus": 7051,
      "itions": 7052,
      "çļĦäºĭåĦ¿": 7053,
      "Ġbewer": 7054,
      "ä¸Ģçľĭ": 7055,
      "æ¸¸æĪı": 7056,
      "Ġwedstrijd": 7057,
      "Ġsommige": 7058,
      "isc": 7059,
      "leiding": 7060,
      "Ġversp": 7061,
      "eech": 7062,
      "ĠTo": 7063,
      "Ġforgot": 7064,
      "Ġfruit": 7065,
      "beelden": 7066,
      "çĽĺ": 7067,
      "Ġwaarbij": 7068,
      "Ġseat": 7069,
      "Ġsleut": 7070,
      "ĠWaarom": 7071,
      "vin": 7072,
      "iem": 7073,
      "ĠAlex": 7074,
      "iste": 7075,
      "ugd": 7076,
      "Ġproject": 7077,
      "Ġcarry": 7078,
      "åĵªéĩĮ": 7079,
      "Ġhistory": 7080,
      "Ġtv": 7081,
      "Ġcaus": 7082,
      "Ġstreet": 7083,
      "emand": 7084,
      "Ġåĵª": 7085,
      "Ġquickly": 7086,
      "Even": 7087,
      "Ġæ¯ı": 7088,
      "Ġinfl": 7089,
      "ä¸įä½ı": 7090,
      "Ġmevrouw": 7091,
      "Daarom": 7092,
      "Ġbelangrijkste": 7093,
      "Ġgroter": 7094,
      "GE": 7095,
      "Ġsick": 7096,
      "opdracht": 7097,
      "ĠNe": 7098,
      "ä»Ģä¹ĪæĹ¶åĢĻ": 7099,
      "Ġseason": 7100,
      "èĢģé¼ł": 7101,
      "åī¯": 7102,
      "Ġevening": 7103,
      "Ġworks": 7104,
      "Ġzieken": 7105,
      "Ġgeheim": 7106,
      "ä¼ĳæģ¯": 7107,
      "bab": 7108,
      "Ġdig": 7109,
      "Ġwapen": 7110,
      "Ġzuid": 7111,
      "iday": 7112,
      "Ġerin": 7113,
      "Ġrepl": 7114,
      "ivil": 7115,
      "Ġcommune": 7116,
      "Ġ2021": 7117,
      "zing": 7118,
      "Ġmad": 7119,
      "order": 7120,
      "imm": 7121,
      "ä¹Łæľī": 7122,
      "æĮ¥": 7123,
      "Ġspec": 7124,
      "çİ¯å¢ĥ": 7125,
      "Ġhout": 7126,
      "Ġstuur": 7127,
      "Ġstuck": 7128,
      "ĠHugh": 7129,
      "ĠæĪĳè¿Ļ": 7130,
      "å·§": 7131,
      "é¢ľ": 7132,
      "Ġ2019": 7133,
      "æĸ°çļĦ": 7134,
      "Ġaccept": 7135,
      "Ġmeat": 7136,
      "laas": 7137,
      "ĠHeb": 7138,
      "Ġimm": 7139,
      "Ġbuilt": 7140,
      "åıĤåĬł": 7141,
      "å¹¸ç¦ı": 7142,
      "ekraÃ¯": 7143,
      "BR": 7144,
      "Hoi": 7145,
      "aa": 7146,
      "Ġident": 7147,
      "ato": 7148,
      "Ġhield": 7149,
      "äº¿": 7150,
      "ä½łè¿ĺ": 7151,
      "leur": 7152,
      "illed": 7153,
      "Ġelders": 7154,
      "å¹´è½»": 7155,
      "åĪĨéĴŁ": 7156,
      "èĪį": 7157,
      "Ġstopped": 7158,
      "ologie": 7159,
      "yd": 7160,
      "Ġkeek": 7161,
      "åİ»æī¾": 7162,
      "Ġprocess": 7163,
      "Ġchocol": 7164,
      "Ġafge": 7165,
      "Ġconvers": 7166,
      "lace": 7167,
      "ĠStaten": 7168,
      "çģ°": 7169,
      "Ġverdomme": 7170,
      "å«Į": 7171,
      "Ġ+": 7172,
      "Ġlab": 7173,
      "çļĦåĲĹ": 7174,
      "ĠToen": 7175,
      "Ġä½łä¸į": 7176,
      "æīĵçĶµè¯Ŀ": 7177,
      "ä»İæĿ¥": 7178,
      "ä½ľçĶ¨": 7179,
      "è¿Ľåħ¥": 7180,
      "æİ¥åıĹ": 7181,
      "æļ´": 7182,
      "å¸Ĥåľº": 7183,
      "zaak": 7184,
      "Ġbaan": 7185,
      "Ġheavy": 7186,
      "leanor": 7187,
      "ushed": 7188,
      "abr": 7189,
      "Ġwilden": 7190,
      "èĢģåħ¬": 7191,
      "Ġbreakfast": 7192,
      "Ġmiddle": 7193,
      "would": 7194,
      "çļĦåĳĢ": 7195,
      "Ġkid": 7196,
      "igt": 7197,
      "oost": 7198,
      "ä¸ĢèĪ¬": 7199,
      "opl": 7200,
      "ĠPe": 7201,
      "ustri": 7202,
      "Ġ29": 7203,
      "å¸Ń": 7204,
      "ç§¦": 7205,
      "çĶŁåĳ½": 7206,
      "Ġnews": 7207,
      "Ġwriting": 7208,
      "éº»çĥ¦": 7209,
      "Ġview": 7210,
      "After": 7211,
      "Mooi": 7212,
      "PO": 7213,
      "Ġè·Ł": 7214,
      "Ġdaddy": 7215,
      "Ġvoorbeeld": 7216,
      "ĠPark": 7217,
      "ĠRus": 7218,
      "Ġnearly": 7219,
      "åĽŀåĪ°": 7220,
      "ization": 7221,
      "Ġdisapp": 7222,
      "Alle": 7223,
      "çļĦæĹ¶éĹ´": 7224,
      "Ġenjoy": 7225,
      "Ġmeant": 7226,
      "ĠTV": 7227,
      "ĠæĪĳçİ°åľ¨": 7228,
      "Ġovert": 7229,
      "åĨĴ": 7230,
      "Ġeerlijk": 7231,
      "cially": 7232,
      "çĥŁ": 7233,
      "Ġcertainly": 7234,
      "ppen": 7235,
      "Ġtrouwen": 7236,
      "ells": 7237,
      "Ġspace": 7238,
      "çĿĢæĪĳ": 7239,
      "Ġvolgen": 7240,
      "Hoeveel": 7241,
      "åħ³äºİ": 7242,
      "Ġcountries": 7243,
      "åĳĬè¯īæĪĳ": 7244,
      "Ġfurther": 7245,
      "Ġmembers": 7246,
      "uel": 7247,
      "Ġä½łè¿ĺ": 7248,
      "ruce": 7249,
      "åºĨ": 7250,
      "éķĩ": 7251,
      "Ġstraks": 7252,
      "Ġzichzelf": 7253,
      "ĠWilliam": 7254,
      "Ġregering": 7255,
      "Ġjump": 7256,
      "Ġtowards": 7257,
      "æĺ¯è°ģ": 7258,
      "Ġmeen": 7259,
      "ĠSer": 7260,
      "ĠTH": 7261,
      "astic": 7262,
      "Wees": 7263,
      "è¡Ĺ": 7264,
      "Ġ2014": 7265,
      "æĸĩåĮĸ": 7266,
      "Mum": 7267,
      "ÃŃ": 7268,
      "ä¸Ī": 7269,
      "Ġpil": 7270,
      "Ġmezelf": 7271,
      "verd": 7272,
      "Ġaller": 7273,
      "é»ĺ": 7274,
      "Ġfinish": 7275,
      "éŁ©": 7276,
      "ebruik": 7277,
      "200": 7278,
      "back": 7279,
      "Ġadem": 7280,
      "ĠSl": 7281,
      "å°±åı¯ä»¥": 7282,
      "Ġ(\"": 7283,
      "clock": 7284,
      "Ġafterno": 7285,
      "Ġrustig": 7286,
      "Ġreceived": 7287,
      "æ°¸è¿ľ": 7288,
      "Ġdur": 7289,
      "rees": 7290,
      "æĿĤ": 7291,
      "illen": 7292,
      "bei": 7293,
      "Ġtelling": 7294,
      "æĢ»æĺ¯": 7295,
      "Ġsky": 7296,
      "ĠDaarna": 7297,
      "Ġposition": 7298,
      "zichtig": 7299,
      "é²ľ": 7300,
      "ĠLord": 7301,
      "å¯»": 7302,
      "èĥ½ä¸įèĥ½": 7303,
      "iana": 7304,
      "æĽ²": 7305,
      "æĹłæ³ķ": 7306,
      "ç²¾ç¥ŀ": 7307,
      "ç£¨": 7308,
      "EÃ©n": 7309,
      "John": 7310,
      "Rustig": 7311,
      "ground": 7312,
      "Ġsele": 7313,
      "åľ¨æĪĳ": 7314,
      "eget": 7315,
      "å¤ªéĺ³": 7316,
      "èº²": 7317,
      "Ġlaag": 7318,
      "è·¯ä¸Ĭ": 7319,
      "give": 7320,
      "Ġåı¯ä»¥": 7321,
      "ena": 7322,
      "Ġdroom": 7323,
      "Ġpet": 7324,
      "Ġä½łè¿Ļ": 7325,
      "Ġplat": 7326,
      "æķ¬": 7327,
      "Ġminister": 7328,
      "Ġ2011": 7329,
      "Ġbuilding": 7330,
      "ĠBelg": 7331,
      "ĠçľŁçļĦ": 7332,
      "Ġéĺ¿": 7333,
      "Ġahead": 7334,
      "Ġloop": 7335,
      "Ġcause": 7336,
      "illa": 7337,
      "elijkheid": 7338,
      "ively": 7339,
      "åĽŀçŃĶ": 7340,
      "Ġcareer": 7341,
      "æ¯ķç«Ł": 7342,
      "spraken": 7343,
      "ä¸¹": 7344,
      "erecht": 7345,
      "amm": 7346,
      "ä¸Ģè¾¹": 7347,
      "ĠBekijk": 7348,
      "Ġspot": 7349,
      "éĴĪ": 7350,
      "ç¬¬ä¸Ģæ¬¡": 7351,
      "éļ¾éģĵ": 7352,
      "Ġå¹²": 7353,
      "Net": 7354,
      "ux": 7355,
      "å°Ĭ": 7356,
      "çľĭäºĨ": 7357,
      "éģĹ": 7358,
      "çĶŁæ°Ķ": 7359,
      "ampion": 7360,
      "å®³æĢķ": 7361,
      "oest": 7362,
      "time": 7363,
      "Ġburn": 7364,
      "Ġhoney": 7365,
      "Ġride": 7366,
      "åİ¿": 7367,
      "Ġprison": 7368,
      "Ġpolitic": 7369,
      "Ġermee": 7370,
      "Ġpoints": 7371,
      "éģĩåĪ°": 7372,
      "Ġnormaal": 7373,
      "With": 7374,
      "maybe": 7375,
      "ĠäºĮ": 7376,
      "æĪĳçİ°åľ¨": 7377,
      "iling": 7378,
      "å¥½å¤ļ": 7379,
      "Ġpreten": 7380,
      "ogn": 7381,
      "Ġbestaan": 7382,
      "åħ¨éĥ¨": 7383,
      "åıĺåĮĸ": 7384,
      "Ġcomplet": 7385,
      "Ġlaughs": 7386,
      "kijk": 7387,
      "lor": 7388,
      "ping": 7389,
      "Ġsad": 7390,
      "Ġpan": 7391,
      "Ġfinger": 7392,
      "æĪĳçŁ¥éģĵ": 7393,
      "ament": 7394,
      "icit": 7395,
      "çīĻ": 7396,
      "izer": 7397,
      "æĦŁè°¢": 7398,
      "è·ŁæĪĳè¯´": 7399,
      "Ġmotor": 7400,
      "Ġservice": 7401,
      "Ġhungry": 7402,
      "RI": 7403,
      "Ġdarm": 7404,
      "Ġpad": 7405,
      "Ġinf": 7406,
      "æī§": 7407,
      "iforn": 7408,
      "Ġuite": 7409,
      "Ġafgelopen": 7410,
      "bled": 7411,
      "Ġvolk": 7412,
      "ĠIndia": 7413,
      "ĠHierdoor": 7414,
      "gasps": 7415,
      "Ste": 7416,
      "bre": 7417,
      "Ġbow": 7418,
      "Ġnamen": 7419,
      "Ġcoff": 7420,
      "ĠDad": 7421,
      "ĠTO": 7422,
      "ĠBurton": 7423,
      "ç»į": 7424,
      "ĠOekraÃ¯": 7425,
      "hington": 7426,
      "Ġstrange": 7427,
      "çħ§é¡¾": 7428,
      "gin": 7429,
      "yr": 7430,
      "Ġda": 7431,
      "Ġzaak": 7432,
      "åħį": 7433,
      "Ġmod": 7434,
      "å®¶åºŃ": 7435,
      "ç«ł": 7436,
      "å¨ģ": 7437,
      "æ··": 7438,
      "æ¯įäº²": 7439,
      "Ġspring": 7440,
      "Ġdiscuss": 7441,
      "Ġbepaald": 7442,
      "Ġåıªè¦ģ": 7443,
      "gaat": 7444,
      "groe": 7445,
      "zier": 7446,
      "ä½łæĥ³": 7447,
      "arter": 7448,
      "oeder": 7449,
      "æ®µæĹ¶éĹ´": 7450,
      "Ġholding": 7451,
      "Ġè¦ģä¸į": 7452,
      "Ġfigure": 7453,
      "Excuse": 7454,
      "èĤļ": 7455,
      "Ġamb": 7456,
      "Ġdrive": 7457,
      "Ġafternoon": 7458,
      "Zelf": 7459,
      "ä»Ļ": 7460,
      "Ġä½łåĪ«": 7461,
      "ĠLou": 7462,
      "Ġwhatever": 7463,
      "çĿĢæĢ¥": 7464,
      "ĠChin": 7465,
      "ç«¯": 7466,
      "Ġä¸įè¦ģ": 7467,
      "Ġregel": 7468,
      "å°ĨåĨĽ": 7469,
      "Ġlegs": 7470,
      "Ġappeared": 7471,
      "æĵį": 7472,
      "Ġleaving": 7473,
      "field": 7474,
      "Ġhu": 7475,
      "Ġhyp": 7476,
      "staan": 7477,
      "Ġrub": 7478,
      "å®ģ": 7479,
      "æĿ¥çľĭ": 7480,
      "okken": 7481,
      "wezen": 7482,
      "è¡ĮäºĨ": 7483,
      "Ġ2017": 7484,
      "voerd": 7485,
      "Ġslechts": 7486,
      "åª³å¦ĩåĦ¿": 7487,
      "derdaad": 7488,
      "Ġzul": 7489,
      "Ġkast": 7490,
      "æĿŁ": 7491,
      "ĠHelen": 7492,
      "Ġkwaad": 7493,
      "Ġneeds": 7494,
      "Ġpopular": 7495,
      "æĶ¿åºľ": 7496,
      "rans": 7497,
      "Ġyesterday": 7498,
      "ä¸Ģå¹´": 7499,
      "utie": 7500,
      "ĠJames": 7501,
      "rijden": 7502,
      "çĪ±çļĦ": 7503,
      "Ġrelatie": 7504,
      "Ġieder": 7505,
      "è¾ĪåŃĲ": 7506,
      "ket": 7507,
      "kun": 7508,
      "Ġgiving": 7509,
      "Ġnon": 7510,
      "Ġcrying": 7511,
      "ĠMel": 7512,
      "äººæ°ĳ": 7513,
      "ĠGoogle": 7514,
      "åĩĢ": 7515,
      "...\"": 7516,
      "Ġconcentr": 7517,
      "æ¸Ĳ": 7518,
      "å¦ĤæŃ¤": 7519,
      "å¸®åĬ©": 7520,
      "Ġintrodu": 7521,
      "Ġleerlingen": 7522,
      "Ġwitte": 7523,
      "Wait": 7524,
      "bour": 7525,
      "Ġcard": 7526,
      "Ġfail": 7527,
      "ometer": 7528,
      "ĠAir": 7529,
      "ĠBilly": 7530,
      "Ġzoiets": 7531,
      "ĠVal": 7532,
      "Ġbegonnen": 7533,
      "Ġperiod": 7534,
      "Ġtrots": 7535,
      "è¡¨çİ°": 7536,
      "Ġvriendin": 7537,
      "wijk": 7538,
      "zz": 7539,
      "Ġåī": 7540,
      "ĠRed": 7541,
      "éĿ©": 7542,
      "Ġflat": 7543,
      "å®īæİĴ": 7544,
      "Ġwrote": 7545,
      "æĹ©å°±": 7546,
      "Ġplane": 7547,
      "Ġcareful": 7548,
      "Ġtaal": 7549,
      "heb": 7550,
      "Ġfre": 7551,
      "stel": 7552,
      "ĠWith": 7553,
      "æĬĬå®ĥ": 7554,
      "å¿«ä¹Ĳ": 7555,
      "å¹³æĹ¶": 7556,
      "ä¸¤ä¸ªäºº": 7557,
      "Ġhoeveelheid": 7558,
      "Ġabsol": 7559,
      "dad": 7560,
      "hoe": 7561,
      "light": 7562,
      "Ġä¸º": 7563,
      "Ġgames": 7564,
      "ije": 7565,
      "å®£": 7566,
      "Ġworth": 7567,
      "Ġhoef": 7568,
      "ç«¥": 7569,
      "æ¡¥": 7570,
      "Ġmeester": 7571,
      "Ġvroeger": 7572,
      "èĶ": 7573,
      "Ġah": 7574,
      "æľīäºĨ": 7575,
      "Ġleiden": 7576,
      "å¤§äºº": 7577,
      "å°ıå¿ĥ": 7578,
      "ipedia": 7579,
      "åľ°ä¸Ĭ": 7580,
      "Ġgras": 7581,
      "Ġwatching": 7582,
      "sych": 7583,
      "Ġtail": 7584,
      "Ġbought": 7585,
      "Ġkolon": 7586,
      "Ġtoer": 7587,
      "å¥½åĲĹ": 7588,
      "Ġweren": 7589,
      "Ġbrown": 7590,
      "æĮĤ": 7591,
      "éĻĲ": 7592,
      "overn": 7593,
      "å¤ĸéĿ¢": 7594,
      "Ġdiag": 7595,
      "Uh": 7596,
      "baby": 7597,
      "Ġdorp": 7598,
      "Ġsou": 7599,
      "Ġhospital": 7600,
      "Ġinvol": 7601,
      "gene": 7602,
      "éĤ£ä½ł": 7603,
      "ä¼ģ": 7604,
      "ĠGener": 7605,
      "ĠåĴĮ": 7606,
      "Ġanimal": 7607,
      "Ġzomer": 7608,
      "çĬ¶æĢģ": 7609,
      "woners": 7610,
      "Ġapart": 7611,
      "Ġblijkt": 7612,
      "idence": 7613,
      "å«ģ": 7614,
      "é¦ĸåħĪ": 7615,
      "Ġcorre": 7616,
      "Ġvoll": 7617,
      "åĽº": 7618,
      "ĠWal": 7619,
      "æĥľ": 7620,
      "åįł": 7621,
      "å®ŀéĻħ": 7622,
      "Ġtrack": 7623,
      "è¡¨ç¤º": 7624,
      "æ£Ĵ": 7625,
      "èģĶç³»": 7626,
      "Ġlinks": 7627,
      "',": 7628,
      "best": 7629,
      "Ġene": 7630,
      "ĠEast": 7631,
      "osh": 7632,
      "ippen": 7633,
      "ocket": 7634,
      "ä½įç½®": 7635,
      "éĤ£ä¹Īå¤ļ": 7636,
      "Ġklasgenoot": 7637,
      "igg": 7638,
      "iker": 7639,
      "ikker": 7640,
      "ĠSim": 7641,
      "åķĬæĪĳ": 7642,
      "åĩºæĿ¥äºĨ": 7643,
      "æĸ¹æ³ķ": 7644,
      "ĠMarjorie": 7645,
      "Ġparents": 7646,
      "edig": 7647,
      "åŃ£": 7648,
      "ĠCO": 7649,
      "æ²ī": 7650,
      "å¾Ĺå¾Ī": 7651,
      "ekst": 7652,
      "Ġmiles": 7653,
      "Ġbeschermen": 7654,
      "Ġveranderd": 7655,
      "uch": 7656,
      "yon": 7657,
      "æľīçļĦ": 7658,
      "Ġrepres": 7659,
      "ĠJo": 7660,
      "Ġwaarde": 7661,
      "ossing": 7662,
      "æ¢ħ": 7663,
      "Ġincre": 7664,
      "Ġexactly": 7665,
      "Ġtrekken": 7666,
      "arp": 7667,
      "Ġeast": 7668,
      "Ġinvloed": 7669,
      "Ġgeve": 7670,
      "Ġvoldo": 7671,
      "Ġgeleerd": 7672,
      "Ġcarried": 7673,
      "å¸®ä½ł": 7674,
      "han": 7675,
      "xim": 7676,
      "ĠMOT": 7677,
      "leep": 7678,
      "ä¸įç®¡": 7679,
      "ä¸ĢæŃ¥": 7680,
      "Ġä½łçŁ¥éģĵ": 7681,
      "ĠRiver": 7682,
      "Ġheren": 7683,
      "éĢı": 7684,
      "ĠThese": 7685,
      "Ġbegrip": 7686,
      "Ġ2007": 7687,
      "Ġassist": 7688,
      "è´Łè´£": 7689,
      "Mom": 7690,
      "hank": 7691,
      "Ġtax": 7692,
      "Ġli": 7693,
      "Ġloud": 7694,
      "å°¾": 7695,
      "ĠSov": 7696,
      "ä»ĸè¯´": 7697,
      "Ġoverl": 7698,
      "rible": 7699,
      "å¯¹æĪĳ": 7700,
      "è½®": 7701,
      "werpen": 7702,
      "Ġperiode": 7703,
      "Ġ2008": 7704,
      "woordig": 7705,
      "çĿ¡è§ī": 7706,
      "Ġontmoeten": 7707,
      "Ġreplied": 7708,
      "oeld": 7709,
      "Ġdun": 7710,
      "Ġnood": 7711,
      "Ġrechter": 7712,
      "Ġcomfort": 7713,
      "Ġklopt": 7714,
      "Ġhasn": 7715,
      "éĶ®": 7716,
      "åĶĲ": 7717,
      "åľ¨è¿ĻéĩĮ": 7718,
      "Lees": 7719,
      "èŃ¦å¯Ł": 7720,
      "é¢Ĩå¯¼": 7721,
      "Jon": 7722,
      "Ph": 7723,
      "wood": 7724,
      "Ġdom": 7725,
      "Ġluister": 7726,
      "Ġkiezen": 7727,
      "å°Ŀ": 7728,
      "aym": 7729,
      "ä»ĸå°±": 7730,
      "Ġoma": 7731,
      "ä»Ģä¹Īåĳ¢": 7732,
      "åºĦ": 7733,
      "ivid": 7734,
      "Ġarch": 7735,
      "æŃ£å¸¸": 7736,
      "Ġlevens": 7737,
      "anny": 7738,
      "å®ĮæĪĲ": 7739,
      "Ġmaag": 7740,
      "è®¡åĪĴ": 7741,
      "Ġongeluk": 7742,
      "Niets": 7743,
      "Un": 7744,
      "Ġsilly": 7745,
      "ads": 7746,
      "åĲī": 7747,
      "Ġrood": 7748,
      "ĠSant": 7749,
      "Ġerbij": 7750,
      "äººä»¬": 7751,
      "Ġagent": 7752,
      "éĽ·": 7753,
      "çī©ä½ĵ": 7754,
      "Ġserie": 7755,
      "Ġattempt": 7756,
      "Ġtabel": 7757,
      "Ġmelk": 7758,
      "Ġvict": 7759,
      "ona": 7760,
      "OTHER": 7761,
      "ä½łä½ł": 7762,
      "ida": 7763,
      "Ġverniet": 7764,
      "ĠMer": 7765,
      "ĠBill": 7766,
      "å¾ģ": 7767,
      "Ġomhoog": 7768,
      "éĿ¢åīį": 7769,
      "ç»ıè¿ĩ": 7770,
      "izes": 7771,
      "çłģ": 7772,
      "Ġcontrole": 7773,
      "ĠDuitsland": 7774,
      "Ġspirit": 7775,
      "é¥¿": 7776,
      "child": 7777,
      "Ġkat": 7778,
      "æĪĳäºĨ": 7779,
      "apens": 7780,
      "è§¦": 7781,
      "Ġneus": 7782,
      "rib": 7783,
      "è°ĵ": 7784,
      "Ġgebieden": 7785,
      "Ġklinkt": 7786,
      "assing": 7787,
      "æģ¨": 7788,
      "æĶ¾åľ¨": 7789,
      "Ġplaatsen": 7790,
      "ELA": 7791,
      "Ġvormen": 7792,
      "æĬĢæľ¯": 7793,
      "Ġkoffie": 7794,
      "40": 7795,
      "nes": 7796,
      "Ġwand": 7797,
      "roy": 7798,
      "brand": 7799,
      "æĭ¿çĿĢ": 7800,
      "Ġgeschreven": 7801,
      "Ġlaughed": 7802,
      "Veel": 7803,
      "ray": 7804,
      "ani": 7805,
      "Ġzinnen": 7806,
      "çļĦå°±æĺ¯": 7807,
      "Ġcla": 7808,
      "Ġfir": 7809,
      "igs": 7810,
      "æĺ¯åĽłä¸º": 7811,
      "ä¸ĭäºĨ": 7812,
      "Ġactiv": 7813,
      "æĲľ": 7814,
      "æĳ¸": 7815,
      "Ġidi": 7816,
      "ĠWikipedia": 7817,
      "å¿ĺäºĨ": 7818,
      "Hello": 7819,
      "Ġbezoek": 7820,
      "amin": 7821,
      "ĠNie": 7822,
      "åĮ»çĶŁ": 7823,
      "Ġbegrijpen": 7824,
      "Ġquestions": 7825,
      "wow": 7826,
      "Ġderde": 7827,
      "ored": 7828,
      "eless": 7829,
      "alph": 7830,
      "Ġkick": 7831,
      "CHAP": 7832,
      "Ġut": 7833,
      "Ġenemy": 7834,
      "Ġrace": 7835,
      "ilar": 7836,
      "Ġversl": 7837,
      "Ġwhose": 7838,
      "ĠAN": 7839,
      "aped": 7840,
      "èĢģå©Ĩ": 7841,
      "çŃ¾": 7842,
      "Ġplays": 7843,
      "åĽĽåįģ": 7844,
      "Ġcheese": 7845,
      "å¸®æĪĳ": 7846,
      "ĠCaliforn": 7847,
      "lei": 7848,
      "Ġrid": 7849,
      "ĠAct": 7850,
      "èį£": 7851,
      "Ġdesign": 7852,
      "åįĥä¸ĩ": 7853,
      "é¹¿": 7854,
      "ĠbacteriÃ«n": 7855,
      "Ġself": 7856,
      "sect": 7857,
      "å¥½ä¸įå¥½": 7858,
      "Ġconne": 7859,
      "Ġè¿ĻäºĽ": 7860,
      "å¼ĢäºĨ": 7861,
      "é¢Ĺ": 7862,
      "Ġvoelen": 7863,
      "cont": 7864,
      "din": 7865,
      "len": 7866,
      "Ġtent": 7867,
      "ä½³": 7868,
      "Ġshoul": 7869,
      "Ġnecess": 7870,
      "Ġexpress": 7871,
      "Ġeleph": 7872,
      "Verdomme": 7873,
      "anken": 7874,
      "ä¸ĢæĿ¡": 7875,
      "Ġwebs": 7876,
      "Ġnaartoe": 7877,
      "æł¸": 7878,
      "ruim": 7879,
      "noise": 7880,
      "Ġunivers": 7881,
      "Ġbedankt": 7882,
      "Ġsneeuw": 7883,
      "ç»Ŀå¯¹": 7884,
      "Ġzwarte": 7885,
      "äºĮéĽ¶ä¸Ģ": 7886,
      "Ġzuurstof": 7887,
      "zijn": 7888,
      "Ġä»¥åĲİ": 7889,
      "Ġechter": 7890,
      "Ġkerst": 7891,
      "Ġtoest": 7892,
      "è¿°": 7893,
      "stoffen": 7894,
      "Ġrob": 7895,
      "ago": 7896,
      "uno": 7897,
      "ĠNet": 7898,
      "Ġschrijf": 7899,
      "éĽĦ": 7900,
      "ĠAlleen": 7901,
      "ero": 7902,
      "Ġthirty": 7903,
      "ashed": 7904,
      "Ġstam": 7905,
      "ĠTurk": 7906,
      "iÃ«nt": 7907,
      "ĠLeague": 7908,
      "Ġvergelijk": 7909,
      "Ġbecom": 7910,
      "åħ±äº§": 7911,
      "ĠåĲ¬": 7912,
      "heer": 7913,
      "çļĦå¿ĥ": 7914,
      "ä½łåķĬ": 7915,
      "Ġbeoord": 7916,
      "ĠDE": 7917,
      "æĥ¯": 7918,
      "Ġsomewhere": 7919,
      "ĠéĤ£å°±": 7920,
      "--\"": 7921,
      "Ġplezier": 7922,
      "Ġsuddenly": 7923,
      "house": 7924,
      "yep": 7925,
      "Ġdraag": 7926,
      "ising": 7927,
      "Ġfam": 7928,
      "sterd": 7929,
      "è¯ļ": 7930,
      "Ġmoving": 7931,
      "ĠJa": 7932,
      "ĠJoe": 7933,
      "è¿Ļä¸ªäºº": 7934,
      "itted": 7935,
      "è½¯": 7936,
      "Ġcars": 7937,
      "ä¹Łä¸įçŁ¥éģĵ": 7938,
      "Ġrestaur": 7939,
      "Ġkey": 7940,
      "Ġgeschiedenis": 7941,
      "ç§ĳåŃ¦": 7942,
      "åŁºæľ¬": 7943,
      "Ġprotest": 7944,
      "LE": 7945,
      "lang": 7946,
      "mark": 7947,
      "ä¸įå¤ļ": 7948,
      "ĠAf": 7949,
      "çĽĸ": 7950,
      "æĮ£": 7951,
      "Ġvertel": 7952,
      "æĢĿèĢĥ": 7953,
      "çªĹ": 7954,
      "Ġvermoorden": 7955,
      "Ġinformation": 7956,
      "ĠVerenigde": 7957,
      "Ġviel": 7958,
      "Ġstage": 7959,
      "èµ¢": 7960,
      "çĽĬ": 7961,
      "äºĭåķĬ": 7962,
      "Ġputs": 7963,
      "åĺī": 7964,
      "Ġvlieg": 7965,
      "ĠWashington": 7966,
      "Ġlying": 7967,
      "Ġforce": 7968,
      "okk": 7969,
      "Ġneigh": 7970,
      "Ġgebracht": 7971,
      "Ġgewonnen": 7972,
      "Ġ60": 7973,
      "Ġpictures": 7974,
      "Ġ2022": 7975,
      "Ġzomaar": 7976,
      "Ġcreated": 7977,
      "Ġwinkel": 7978,
      "bi": 7979,
      "Ġåı¯èĥ½": 7980,
      "Ĥ¬": 7981,
      "Ġtall": 7982,
      "Ġpack": 7983,
      "ä¸įä¸Ģæł·": 7984,
      "ĠSat": 7985,
      "sey": 7986,
      "äººç±»": 7987,
      "åİ»åĲ§": 7988,
      "Ġblank": 7989,
      "Ġgemidd": 7990,
      "ĠWhy": 7991,
      "Ġrechts": 7992,
      "down": 7993,
      "Ġä»¥": 7994,
      "oeien": 7995,
      "äººåĳĺ": 7996,
      "Ġå±": 7997,
      "Ġbutter": 7998,
      "åģı": 7999,
      "Ġ2016": 8000,
      "æ¡Į": 8001,
      "Ġeveryone": 8002,
      "Ġrecogn": 8003,
      "ä½¿çĶ¨": 8004,
      "Ġhappens": 8005,
      "ummie": 8006,
      "Ġpaint": 8007,
      "Ġfat": 8008,
      "åįı": 8009,
      "ĠOF": 8010,
      "ipper": 8011,
      "æĭ¼": 8012,
      "è§ģè¿ĩ": 8013,
      "ä¿¡æģ¯": 8014,
      "Ġnergens": 8015,
      "Ġuiteindelijk": 8016,
      "Haal": 8017,
      "Zou": 8018,
      "Ġswe": 8019,
      "Ġdem": 8020,
      "ĠVeel": 8021,
      "Thanks": 8022,
      "æ´»åĬ¨": 8023,
      "éĶĻäºĨ": 8024,
      "é¼ĵ": 8025,
      "Ġwalking": 8026,
      "Ġstukje": 8027,
      "ĠMinister": 8028,
      "Ġwhom": 8029,
      "è¯´æĺİ": 8030,
      "å¥½åĲ§": 8031,
      "pend": 8032,
      "Ġbright": 8033,
      "éļĲ": 8034,
      "éĶĢ": 8035,
      "èģª": 8036,
      "Ġremark": 8037,
      "åĲĦä½į": 8038,
      "Ġwalked": 8039,
      "ĠCanada": 8040,
      "Ġsituatie": 8041,
      "ĠÉĻ": 8042,
      "Ġdry": 8043,
      "Ġgeg": 8044,
      "icy": 8045,
      "Ġverwij": 8046,
      "ĠSir": 8047,
      "ĠMum": 8048,
      "å¾ĹäºĨ": 8049,
      "æĮºå¥½çļĦ": 8050,
      "Ġdistance": 8051,
      "enschapp": 8052,
      "CHAPTER": 8053,
      "Ġå¤ļ": 8054,
      "Ġhuw": 8055,
      "ĠMom": 8056,
      "ĠGa": 8057,
      "inding": 8058,
      "Ġneck": 8059,
      "Ġanybody": 8060,
      "Ġbusy": 8061,
      "medi": 8062,
      "åı¦å¤ĸ": 8063,
      "lin": 8064,
      "Ġå¾Ī": 8065,
      "ieur": 8066,
      "ä½łåĪ«": 8067,
      "ĠBer": 8068,
      "è¡ĮåĬ¨": 8069,
      "æĤĦ": 8070,
      "Ġcontract": 8071,
      "Ġ2012": 8072,
      "Ġ2013": 8073,
      "Ġinternet": 8074,
      "Ġallebei": 8075,
      "Ġweekend": 8076,
      "Ġuitleggen": 8077,
      "Ġeiwit": 8078,
      "ĠChinese": 8079,
      "Am": 8080,
      "bout": 8081,
      "fact": 8082,
      "las": 8083,
      "lijn": 8084,
      "ä¸ĢåĪĩ": 8085,
      "ĠAg": 8086,
      "umn": 8087,
      "Ġspoor": 8088,
      "ĠKijk": 8089,
      "Ġverliefd": 8090,
      "grond": 8091,
      "ç²®": 8092,
      "Ġcharge": 8093,
      "ä»ĭç»į": 8094,
      "Ġhonger": 8095,
      "RE": 8096,
      "Ġdue": 8097,
      "itive": 8098,
      "Ġrul": 8099,
      "inda": 8100,
      "Ġbodem": 8101,
      "onderd": 8102,
      "Ġbrengt": 8103,
      "ĠMaggie": 8104,
      "Ġgrappig": 8105,
      "viously": 8106,
      "ĠNow": 8107,
      "ĠKar": 8108,
      "æĻ¨": 8109,
      "ä¸Ģå®ļä¼ļ": 8110,
      "å¦¹å¦¹": 8111,
      "Ġprachtig": 8112,
      "\")": 8113,
      "ique": 8114,
      "orgt": 8115,
      "olk": 8116,
      "gew": 8117,
      "Ġprof": 8118,
      "Ġweergegeven": 8119,
      "box": 8120,
      "æĬ¥åĳĬ": 8121,
      "Welkom": 8122,
      "Ġdropped": 8123,
      "ç»Ħç»ĩ": 8124,
      "Ġstemmen": 8125,
      "Ġmunicip": 8126,
      "ened": 8127,
      "Ġtuin": 8128,
      "Ġep": 8129,
      "Ġrap": 8130,
      "Ġpray": 8131,
      "Ġprima": 8132,
      "éħ¸": 8133,
      "ä½ıäºĨ": 8134,
      "Ġsubject": 8135,
      "plaats": 8136,
      "Ġcapital": 8137,
      "Meneer": 8138,
      "Ġtoeg": 8139,
      "ĠTweede": 8140,
      "Ġoverle": 8141,
      "è¿ĺåľ¨": 8142,
      "rucht": 8143,
      "å±ģ": 8144,
      "éªĤ": 8145,
      "ä»£è¡¨": 8146,
      "Ġgesproken": 8147,
      "Ġgevaarlijk": 8148,
      "Ġtemperatuur": 8149,
      "Ġmedicine": 8150,
      "Ġkorte": 8151,
      "IE": 8152,
      "Ġlocal": 8153,
      "Ġpa": 8154,
      "ala": 8155,
      "æĺ¯æľī": 8156,
      "äºĨä»ĸ": 8157,
      "ä¸įè§ģ": 8158,
      "Ġstel": 8159,
      "ughing": 8160,
      "teen": 8161,
      "åĴĮä½ł": 8162,
      "æĬĬä»ĸ": 8163,
      "åĪ«çļĦ": 8164,
      "Ġä»ĸè¯´": 8165,
      "è§£éĩĬ": 8166,
      "å¨ĥ": 8167,
      "æ¢ģ": 8168,
      "å®Ŀå®Ŀ": 8169,
      "åĤħ": 8170,
      "Ġwoont": 8171,
      "sterdam": 8172,
      "å¤®": 8173,
      "ĠMary": 8174,
      "Ġalive": 8175,
      "irus": 8176,
      "kens": 8177,
      "ula": 8178,
      "ä¸Ĭæµ·": 8179,
      "ĠRoman": 8180,
      "éĥ½è¦ģ": 8181,
      "Ġneg": 8182,
      "Ġonderdeel": 8183,
      "Ġgenomen": 8184,
      "åĲĮæĦı": 8185,
      "è¿ĽæĿ¥": 8186,
      "çĥĪ": 8187,
      "Ġgekregen": 8188,
      "Ġbehulp": 8189,
      "ommige": 8190,
      "gesteld": 8191,
      "åŁİå¸Ĥ": 8192,
      "Ġlaughing": 8193,
      "yle": 8194,
      "æ¾": 8195,
      "Ġzout": 8196,
      "Ġziel": 8197,
      "Ġkamp": 8198,
      "åĩŃ": 8199,
      "Ġontsn": 8200,
      "Ġvolwassen": 8201,
      "Ġtrust": 8202,
      "Ġimag": 8203,
      "Ġfinal": 8204,
      "Ġsymb": 8205,
      "Ġå¹¶": 8206,
      "Ġmeeting": 8207,
      "Ġengine": 8208,
      "Ġvarious": 8209,
      "Ġroept": 8210,
      "Ġcoffee": 8211,
      "Vind": 8212,
      "ites": 8213,
      "Ġnut": 8214,
      "Ġleeg": 8215,
      "Ġpush": 8216,
      "alf": 8217,
      "Ġgegaan": 8218,
      "roll": 8219,
      "kennen": 8220,
      "achtig": 8221,
      "èµ·äºĨ": 8222,
      "ission": 8223,
      "åĲĥçļĦ": 8224,
      "Ġtruth": 8225,
      "çĮľ": 8226,
      "æĦıæĢĿåķĬ": 8227,
      "Ġinclude": 8228,
      "especially": 8229,
      "Ġgisteren": 8230,
      "Ġtong": 8231,
      "Ġmum": 8232,
      "Ġgoud": 8233,
      "ĠHall": 8234,
      "geant": 8235,
      "Ġä½łæĥ³": 8236,
      "Ġaanb": 8237,
      "è¿ĺèĥ½": 8238,
      "Ġsave": 8239,
      "Ġsafe": 8240,
      "Ġhemel": 8241,
      "å¼Łå¼Ł": 8242,
      "Ġenkel": 8243,
      "æĶ¯æĮģ": 8244,
      "åį±éĻ©": 8245,
      "Pas": 8246,
      "çļĦéĹ®é¢ĺ": 8247,
      "Ġfut": 8248,
      "æĪĳæĿ¥": 8249,
      "ĠSal": 8250,
      "abl": 8251,
      "Ġorange": 8252,
      "ç¡¬": 8253,
      "Schiet": 8254,
      "anch": 8255,
      "ini": 8256,
      "ä¸įåı¯": 8257,
      "ĠWer": 8258,
      "çĿĢä½ł": 8259,
      "ç§»": 8260,
      "Ġprobeert": 8261,
      "Ġfucking": 8262,
      "ĠKennisbank": 8263,
      "BO": 8264,
      "Ter": 8265,
      "ĠçľŁ": 8266,
      "Ġä¸ºäºĨ": 8267,
      "Ġtas": 8268,
      "esus": 8269,
      "Ġdecl": 8270,
      "Ġlose": 8271,
      "Ġcust": 8272,
      "erslag": 8273,
      "ĠCarl": 8274,
      "Ġplate": 8275,
      "ipped": 8276,
      "è¿ĽäºĨ": 8277,
      "ç®Ĺæĺ¯": 8278,
      "prob": 8279,
      "Ġkeuze": 8280,
      "Ġverzam": 8281,
      "Ġvijand": 8282,
      "lant": 8283,
      "elly": 8284,
      "Ġpaid": 8285,
      "aarten": 8286,
      "istische": 8287,
      "aakte": 8288,
      "Ġvertrouwen": 8289,
      "appy": 8290,
      "çģŃ": 8291,
      "Ġbleef": 8292,
      "Ġiron": 8293,
      "æĿĲæĸĻ": 8294,
      "Ġpuzzle": 8295,
      "Ġveroorzaakt": 8296,
      "COL": 8297,
      "bes": 8298,
      "wa": 8299,
      "Ġsens": 8300,
      "Ġkust": 8301,
      "Ġverzeker": 8302,
      "oeie": 8303,
      "Ġrevol": 8304,
      "ĠRo": 8305,
      "éĿ¢å¯¹": 8306,
      "Ġspecies": 8307,
      "ĠVolgens": 8308,
      "Ġbottom": 8309,
      "Ne": 8310,
      "Ġoce": 8311,
      "äºĨä¸ª": 8312,
      "ĠTekst": 8313,
      "Ġspell": 8314,
      "aine": 8315,
      "Ġwaard": 8316,
      "çĶŁçļĦ": 8317,
      "uhoh": 8318,
      "æ±ł": 8319,
      "Ġattention": 8320,
      "Sl": 8321,
      "Ġpsych": 8322,
      "Ġerv": 8323,
      "istory": 8324,
      "schuw": 8325,
      "Ġshowed": 8326,
      "Onder": 8327,
      "çıį": 8328,
      "Ġbescherm": 8329,
      "zerba": 8330,
      "Jack": 8331,
      "Take": 8332,
      "Ġhoger": 8333,
      "Ġjum": 8334,
      "å¥¥": 8335,
      "Ġspullen": 8336,
      "å¿ĥçļĦ": 8337,
      "ijdt": 8338,
      "Ġparts": 8339,
      "Ġ2015": 8340,
      "ĠåİŁ": 8341,
      "Ġmurder": 8342,
      "Ġconversation": 8343,
      "zerbaij": 8344,
      "Ook": 8345,
      "Ġç»Ļ": 8346,
      "Ġwide": 8347,
      "ores": 8348,
      "Ġgold": 8349,
      "ä¸Ģä½į": 8350,
      "Ġmem": 8351,
      "å°±èĥ½": 8352,
      "ĠæĪĳåľ¨": 8353,
      "ĠNu": 8354,
      "laughing": 8355,
      "éĽħ": 8356,
      "Ġregels": 8357,
      "æ»ļ": 8358,
      "åĲĦç§į": 8359,
      "XX": 8360,
      "car": 8361,
      "hij": 8362,
      "ielen": 8363,
      "Ġmention": 8364,
      "Ġdemand": 8365,
      "stit": 8366,
      "oorlog": 8367,
      "uten": 8368,
      "Ġopa": 8369,
      "ĠBart": 8370,
      "ç»©": 8371,
      "æĸ¹åĲĳ": 8372,
      "éļĶ": 8373,
      "æŃ£å¥½": 8374,
      "åħ¶ä¸Ń": 8375,
      "éĥİ": 8376,
      "ç¼ĸ": 8377,
      "Ġslechte": 8378,
      "Ġprogramma": 8379,
      "åĿļæĮģ": 8380,
      "points": 8381,
      ".,": 8382,
      "rie": 8383,
      "inct": 8384,
      "Ġsummer": 8385,
      "Ġhut": 8386,
      "itten": 8387,
      "Ġzingen": 8388,
      "Ġpour": 8389,
      "æĪĳæľī": 8390,
      "Ġspoon": 8391,
      "Ġbrood": 8392,
      "Ġbeginning": 8393,
      "Ġswim": 8394,
      "ĠCarol": 8395,
      "BROTHER": 8396,
      "ially": 8397,
      "ka": 8398,
      "worth": 8399,
      "Ġsense": 8400,
      "Ġdev": 8401,
      "rol": 8402,
      "rap": 8403,
      "Ġoverw": 8404,
      "aining": 8405,
      "Ġwaarop": 8406,
      "è°ĭ": 8407,
      "å§»": 8408,
      "ç¾İä¸½": 8409,
      "ughty": 8410,
      "Ġå½ĵæĹ¶": 8411,
      "ĠAngel": 8412,
      "ĠHenry": 8413,
      "Pardon": 8414,
      "Ġdut": 8415,
      "Ġsep": 8416,
      "ora": 8417,
      "Ġnest": 8418,
      "Ġlijn": 8419,
      "Ġpagina": 8420,
      "ĠMus": 8421,
      "Ġblind": 8422,
      "å¥¹ä»¬": 8423,
      "æĢİä¹ĪäºĨ": 8424,
      "å¥³æľĭåıĭ": 8425,
      "Ġvertrekken": 8426,
      "Ġturns": 8427,
      "ometimes": 8428,
      "ĠPatty": 8429,
      "æ£®æŀĹ": 8430,
      "Ġziekenhuis": 8431,
      "åħ±äº§åħļ": 8432,
      "lad": 8433,
      "ĠhÃ©": 8434,
      "Ġkool": 8435,
      "ä¸įä¸Ĭ": 8436,
      "ĠBy": 8437,
      "ĠCaptain": 8438,
      "abet": 8439,
      "Ġdaarvan": 8440,
      "çĻ»": 8441,
      "å®ŀéªĮ": 8442,
      "Ġbelow": 8443,
      "ootzak": 8444,
      "èĥĨ": 8445,
      "oved": 8446,
      "Ġvlak": 8447,
      "Ġ2009": 8448,
      "Ġaccount": 8449,
      "Ġdrop": 8450,
      "fessor": 8451,
      "å³°": 8452,
      "lopen": 8453,
      "Ġtour": 8454,
      "Ġaud": 8455,
      "Ġmid": 8456,
      "Ġhate": 8457,
      "lement": 8458,
      "ura": 8459,
      "Ġalthough": 8460,
      "ĠGovern": 8461,
      "Ġproef": 8462,
      "itty": 8463,
      "åĽ½çļĦ": 8464,
      "çŁ¥éģĵäºĨ": 8465,
      "Ġverdien": 8466,
      "ĠBrown": 8467,
      "Ġbread": 8468,
      "ĠAnn": 8469,
      "Ġleggen": 8470,
      "orde": 8471,
      "Ġcand": 8472,
      "ä¸įåľ¨": 8473,
      "ĠMen": 8474,
      "å·¨": 8475,
      "ruck": 8476,
      "Ġdansen": 8477,
      "Ġmann": 8478,
      "ichten": 8479,
      "Ġgevallen": 8480,
      "Ġ2006": 8481,
      "æŁĵ": 8482,
      "èĻ«": 8483,
      "ĠYouT": 8484,
      "Ġgrew": 8485,
      "ĠEuropese": 8486,
      "åŃĺåľ¨": 8487,
      "Ġleaves": 8488,
      "Ġviol": 8489,
      "ois": 8490,
      "Ġought": 8491,
      "Ġgives": 8492,
      "Ġisland": 8493,
      "ä½łåİ»": 8494,
      "ĠAdam": 8495,
      "ĠRobert": 8496,
      "ensus": 8497,
      "çĤ®": 8498,
      "Ġdaarmee": 8499,
      "cious": 8500,
      "åħĪèµ°äºĨ": 8501,
      "Ġ2004": 8502,
      "Ġfifty": 8503,
      "zil": 8504,
      "åļ": 8505,
      "æĺ¯åĲĹ": 8506,
      "è¯º": 8507,
      "Ġdoc": 8508,
      "åİħ": 8509,
      "çĽĽ": 8510,
      "bling": 8511,
      "Ġdrank": 8512,
      "Ġadded": 8513,
      "Ġverlaten": 8514,
      "ç¡®å®ļ": 8515,
      "vlak": 8516,
      "åħĶåŃĲ": 8517,
      "æĢĢçĸĳ": 8518,
      "Ġåģļ": 8519,
      "ĠRusland": 8520,
      "Ġfamous": 8521,
      "His": 8522,
      "kort": 8523,
      "ita": 8524,
      "Ġprijs": 8525,
      "Ġkoud": 8526,
      "è¿¹": 8527,
      "Ġgeest": 8528,
      "Ġteeth": 8529,
      "åĨł": 8530,
      "ĠOost": 8531,
      "éĺ¶": 8532,
      "æĲŃ": 8533,
      "Ġstudy": 8534,
      "tell": 8535,
      "Ġterecht": 8536,
      "oegen": 8537,
      "ĠBest": 8538,
      "antly": 8539,
      "rouwd": 8540,
      "Ġvres": 8541,
      "bro": 8542,
      "even": 8543,
      "ental": 8544,
      "raad": 8545,
      "ç»ª": 8546,
      "ĠCup": 8547,
      "ĠJust": 8548,
      "å¯¹ä¸įèµ·": 8549,
      "Ġboer": 8550,
      "è¾Ĩ": 8551,
      "ç»ıåİĨ": 8552,
      "Ġgraf": 8553,
      "Ġcray": 8554,
      "Ġfellow": 8555,
      "æĹ¥æľ¬äºº": 8556,
      "CAT": 8557,
      "Papa": 8558,
      "Uw": 8559,
      "iat": 8560,
      "ses": 8561,
      "arc": 8562,
      "Ġlijst": 8563,
      "Ġpink": 8564,
      "æĪ´": 8565,
      "ĠLat": 8566,
      "erend": 8567,
      "æ³ª": 8568,
      "ption": 8569,
      "åħ³éĶ®": 8570,
      "Ġvertelt": 8571,
      "çķ¥": 8572,
      "åĮħæĭ¬": 8573,
      "ĠAustralia": 8574,
      "vang": 8575,
      "Ġcab": 8576,
      "Ġkam": 8577,
      "Ġtoil": 8578,
      "aardig": 8579,
      "Ġbeat": 8580,
      "Ġstub": 8581,
      "çĶ²": 8582,
      "æĬ½": 8583,
      "Ġprop": 8584,
      "aves": 8585,
      "æı¡": 8586,
      "ĠFrankrijk": 8587,
      "ï¿½ï¿½ï¿½ï¿½": 8588,
      "Ġredenen": 8589,
      "Ġteacher": 8590,
      "Ġvogel": 8591,
      "rest": 8592,
      "ĠèĻ½çĦ¶": 8593,
      "Ġvet": 8594,
      "ä¸įå¤ª": 8595,
      "ilige": 8596,
      "raal": 8597,
      "Ġmoon": 8598,
      "èµŀ": 8599,
      "ateg": 8600,
      "aving": 8601,
      "ç¬¦": 8602,
      "æİ¥çĿĢ": 8603,
      "å¤ĦçĲĨ": 8604,
      "Ġåįģ": 8605,
      "ĠYouTube": 8606,
      ",--": 8607,
      "Like": 8608,
      "Man": 8609,
      "fin": 8610,
      "geld": 8611,
      "Ġäººå®¶": 8612,
      "erve": 8613,
      "äº¡": 8614,
      "Ġcivil": 8615,
      "igan": 8616,
      "Ġrab": 8617,
      "åľ¨è¿Ļä¸ª": 8618,
      "å¼±": 8619,
      "éĶģ": 8620,
      "èģļ": 8621,
      "Ġtrap": 8622,
      "åŁŁ": 8623,
      "Ġbevat": 8624,
      "èĳ£": 8625,
      "ĠKenyon": 8626,
      "ĠæĹł": 8627,
      "ĠåĲİæĿ¥": 8628,
      "oute": 8629,
      "Ġkruis": 8630,
      "oose": 8631,
      "ĠAz": 8632,
      "ĠBruce": 8633,
      "ĠJane": 8634,
      "Ġherinn": 8635,
      "rich": 8636,
      "ffic": 8637,
      "werken": 8638,
      "Ġitself": 8639,
      "boden": 8640,
      "å¢Ļ": 8641,
      "Ġverschillen": 8642,
      "Ġlargest": 8643,
      "çļĩä¸Ĭ": 8644,
      "Ġåĩº": 8645,
      "éĢŁåº¦": 8646,
      "Ġkilometer": 8647,
      "VE": 8648,
      "Ġæīĵ": 8649,
      "Ġpocket": 8650,
      "Ġears": 8651,
      "sters": 8652,
      "Ġbeer": 8653,
      "ĠMat": 8654,
      "ĠTs": 8655,
      "åĬĿ": 8656,
      "éģ¿": 8657,
      "éģĵçĲĨ": 8658,
      "keur": 8659,
      "Ġ2001": 8660,
      "æİ¥ä¸ĭæĿ¥": 8661,
      "Ġmatch": 8662,
      "Ġarrest": 8663,
      "vall": 8664,
      "å°±è¯´": 8665,
      "ops": 8666,
      "ĠNPO": 8667,
      "Ġprins": 8668,
      "æĭ¥": 8669,
      "keken": 8670,
      "è´¦": 8671,
      "Ġ[?": 8672,
      "Ġkwal": 8673,
      "Ġdefin": 8674,
      "Ġkrant": 8675,
      "col": 8676,
      "va": 8677,
      "Ġok": 8678,
      "Ġinsect": 8679,
      "ĠTijdens": 8680,
      "åŃ¤": 8681,
      "umenten": 8682,
      "Ġarmy": 8683,
      "ocrat": 8684,
      "Ġvertelde": 8685,
      "éĥĳ": 8686,
      "è®¸å¤ļ": 8687,
      "åİĨåı²": 8688,
      "Geweld": 8689,
      "Ġmethod": 8690,
      "è¾Ľèĭ¦": 8691,
      "Ġverspre": 8692,
      "ä¼ģä¸ļ": 8693,
      "Ġrepresent": 8694,
      "IG": 8695,
      "Iemand": 8696,
      "LL": 8697,
      "Qu": 8698,
      "bar": 8699,
      "ĠæĿİ": 8700,
      "Ġwis": 8701,
      "reep": 8702,
      "Ġfiets": 8703,
      "igar": 8704,
      "å®¡": 8705,
      "ĠDick": 8706,
      "ĠBro": 8707,
      "uster": 8708,
      "å¯¹åĲ§": 8709,
      "ploy": 8710,
      "earch": 8711,
      "ä¸»ä»»": 8712,
      "ĠâĤ¬": 8713,
      "Ġgehouden": 8714,
      "Ġbeteken": 8715,
      "Zelfs": 8716,
      "bren": 8717,
      "win": 8718,
      "Ġéĥ½æĺ¯": 8719,
      "Ġwint": 8720,
      "Ġkar": 8721,
      "æĿ°": 8722,
      "æ²¡æĥ³åĪ°": 8723,
      "éĹŃ": 8724,
      "Ġ190": 8725,
      "Ġanymore": 8726,
      "å¹²åĺĽ": 8727,
      "athan": 8728,
      "Ġgevolg": 8729,
      "ĠMichael": 8730,
      "èĪĴæľį": 8731,
      "Miss": 8732,
      "Ten": 8733,
      "Ġzand": 8734,
      "Ġlength": 8735,
      "rein": 8736,
      "Ġfil": 8737,
      "Ġstore": 8738,
      "ĠSarah": 8739,
      "ellig": 8740,
      "èµļ": 8741,
      "æīĢè°ĵ": 8742,
      "Ġflowers": 8743,
      "Ġmening": 8744,
      "ouwen": 8745,
      "Ġfeat": 8746,
      "Ġprem": 8747,
      "Welk": 8748,
      "Ġfilms": 8749,
      "Ġliep": 8750,
      "çĶ±äºİ": 8751,
      "ĠScott": 8752,
      "Ġexperiment": 8753,
      "ĠMexico": 8754,
      "60": 8755,
      "eat": 8756,
      "Ġmor": 8757,
      "elve": 8758,
      "Ġinwoners": 8759,
      "æĪĳä¸Ģ": 8760,
      "chtend": 8761,
      "ĠTim": 8762,
      "éĤ£éĩĮ": 8763,
      "ĠNin": 8764,
      "ulk": 8765,
      "ĠRalph": 8766,
      "åĵĩ": 8767,
      "å¹´äºĨ": 8768,
      "åįģäºĶ": 8769,
      "æ¼«": 8770,
      "ĠåĵİåĳĢ": 8771,
      "Ġkapot": 8772,
      "tv": 8773,
      "eloos": 8774,
      "Ġeur": 8775,
      "alo": 8776,
      "Ġlees": 8777,
      "ĠRon": 8778,
      "asting": 8779,
      "åįģäºĮ": 8780,
      "Ġåĵ¦": 8781,
      "çĽ®åīį": 8782,
      "Ġcircle": 8783,
      "Ġinterested": 8784,
      "ĠAmsterdam": 8785,
      "Ġhistor": 8786,
      "å¦»åŃĲ": 8787,
      "Ġvreemd": 8788,
      "FA": 8789,
      "Hi": 8790,
      "aches": 8791,
      "jaar": 8792,
      "pardon": 8793,
      "wan": 8794,
      "Ġä¼ļ": 8795,
      "Ġvele": 8796,
      "äºı": 8797,
      "çļĦæķħäºĭ": 8798,
      "Ġern": 8799,
      "ä»ĸåľ¨": 8800,
      "äººéĥ½": 8801,
      "ĠRock": 8802,
      "çĪĨ": 8803,
      "Ġverkeerd": 8804,
      "ä¿Ŀè¯ģ": 8805,
      "çıł": 8806,
      "please": 8807,
      "Ġvoelde": 8808,
      "Ġconcern": 8809,
      "Ġmodern": 8810,
      "Ken": 8811,
      "Ġwapens": 8812,
      "Ġfem": 8813,
      "verb": 8814,
      "ĠDis": 8815,
      "ĠåĶ": 8816,
      "iveau": 8817,
      "iley": 8818,
      "éĩįæĸ°": 8819,
      "watch": 8820,
      "å«Ĥ": 8821,
      "èŀį": 8822,
      "ban": 8823,
      "rick": 8824,
      "wait": 8825,
      "Ġcrit": 8826,
      "ĠMama": 8827,
      "è¯´æĺ¯": 8828,
      "åĩ¶": 8829,
      "ĠReg": 8830,
      "è·Ŀ": 8831,
      "Ġsoci": 8832,
      "Ġconclus": 8833,
      "åī©": 8834,
      "å®ŀçİ°": 8835,
      "ä¸»äºº": 8836,
      "Ġiedere": 8837,
      "ĠParis": 8838,
      "ournal": 8839,
      "ĠGeneral": 8840,
      "ĠåıįæŃ£": 8841,
      "Ġgift": 8842,
      "ĠAB": 8843,
      "æĢ¨": 8844,
      "æĥ³æ³ķ": 8845,
      "auwe": 8846,
      "Ġappl": 8847,
      "Ġ2005": 8848,
      "Ġindivid": 8849,
      "Ġsoldiers": 8850,
      "ĠCharles": 8851,
      "groep": 8852,
      "ography": 8853,
      "Soms": 8854,
      "Ġespecially": 8855,
      "Ġzorgt": 8856,
      "Ġpizza": 8857,
      "æĪĳä¼ļ": 8858,
      "å®ĭ": 8859,
      "rain": 8860,
      "Ġalstublieft": 8861,
      "aans": 8862,
      "Ġspoke": 8863,
      "Ġtwelve": 8864,
      "çŁ¥è¯Ĩ": 8865,
      "éĿ¢çļĦ": 8866,
      "åģļäºĨ": 8867,
      "Ġä¸Ģå®ļ": 8868,
      "æĴŀ": 8869,
      "Ġmonster": 8870,
      "èħ¾": 8871,
      "ĠHowever": 8872,
      "ç£ģ": 8873,
      "Drie": 8874,
      "Ġluisteren": 8875,
      "Ġinflu": 8876,
      "Ġgevecht": 8877,
      "Gen": 8878,
      "hah": 8879,
      "ioen": 8880,
      "etch": 8881,
      "Ġjun": 8882,
      "Ġvanwege": 8883,
      "Ġraken": 8884,
      "uses": 8885,
      "ĠæĪĳè¿ĺ": 8886,
      "ĠæĪĳå°±æĺ¯": 8887,
      "Ġate": 8888,
      "phone": 8889,
      "æ¶²": 8890,
      "oemde": 8891,
      "Ġshows": 8892,
      "Ġfinally": 8893,
      "æĮīçħ§": 8894,
      "bie": 8895,
      "kijken": 8896,
      "vaten": 8897,
      "anda": 8898,
      "othe": 8899,
      "ä¹ĸ": 8900,
      "Ġwash": 8901,
      "åĳĲ": 8902,
      "Ġuitspraken": 8903,
      "Ġbijzonder": 8904,
      "Ġsevent": 8905,
      "Ġdragen": 8906,
      "çº·": 8907,
      "å¤ªå¤ª": 8908,
      "efore": 8909,
      "éĥ¨éĺŁ": 8910,
      "åĪ©çĶ¨": 8911,
      "ologische": 8912,
      "Ġnatural": 8913,
      "Ġbirds": 8914,
      "Ġannoun": 8915,
      "AM": 8916,
      "Bob": 8917,
      "Sc": 8918,
      "loos": 8919,
      "zingen": 8920,
      "lem": 8921,
      "Ġraad": 8922,
      "raf": 8923,
      "Ġerachter": 8924,
      "æī¬": 8925,
      "Ġmocht": 8926,
      "ä¼°": 8927,
      "ĠRuth": 8928,
      "Ġseks": 8929,
      "æĬĬè¿Ļä¸ª": 8930,
      "Ġ2003": 8931,
      "Ġcompan": 8932,
      "Goedem": 8933,
      "udeer": 8934,
      "å¤«äºº": 8935,
      "romos": 8936,
      "ĠCommons": 8937,
      "Ġvlees": 8938,
      "moet": 8939,
      "aris": 8940,
      "oring": 8941,
      "Ġlijken": 8942,
      "Ġfle": 8943,
      "adem": 8944,
      "ĠAzerbaij": 8945,
      "æ²Ī": 8946,
      "riage": 8947,
      "ĠKun": 8948,
      "Ġschieten": 8949,
      "å¯¹æĸ¹": 8950,
      "Ġdoordat": 8951,
      "åĲĥäºĨ": 8952,
      "Ġseconden": 8953,
      "Ġgrap": 8954,
      "ĠBlack": 8955,
      "ĠWiki": 8956,
      "Ġlikes": 8957,
      "èľľ": 8958,
      "ä¼¼çļĦ": 8959,
      "æİ§åĪ¶": 8960,
      "Ġbevolking": 8961,
      "Best": 8962,
      "hol": 8963,
      "Ġberg": 8964,
      "ĠIS": 8965,
      "ĠLee": 8966,
      "tered": 8967,
      "Ġschilder": 8968,
      "å¯¹ä½ł": 8969,
      "Ġkleren": 8970,
      "éķ¿å¾Ĺ": 8971,
      "Ġslaan": 8972,
      "é¼»": 8973,
      "ç¢Ĺ": 8974,
      "Ġå½ĵçĦ¶": 8975,
      "å¾®ä¿¡": 8976,
      "ç¤¼çī©": 8977,
      "Ġbottle": 8978,
      "Pe": 8979,
      "dog": 8980,
      "Ġwal": 8981,
      "Ġhide": 8982,
      "Ġhealth": 8983,
      "çļĦå¥½": 8984,
      "Ġiss": 8985,
      "éĤ£æĺ¯": 8986,
      "isted": 8987,
      "ĠFin": 8988,
      "Ġshirt": 8989,
      "anker": 8990,
      "è´´": 8991,
      "Ġbelieved": 8992,
      "elsel": 8993,
      "acy": 8994,
      "Ġkregen": 8995,
      "ĠEdna": 8996,
      "Ġvogels": 8997,
      "æ¤įçī©": 8998,
      "Ġduizen": 8999,
      "Ġwa": 9000,
      "Ġcapt": 9001,
      "ä»į": 9002,
      "ä»Ĺ": 9003,
      "lever": 9004,
      "å®Ĺ": 9005,
      "roat": 9006,
      "ĠBessie": 9007,
      "Ġrecent": 9008,
      "ĠæĪĳçľĭ": 9009,
      "ĠRose": 9010,
      "å°ıçļĦ": 9011,
      "Ġprocent": 9012,
      "å®ŀè¯Ŀ": 9013,
      "ç³Ĭ": 9014,
      "ĠUnion": 9015,
      "Mrs": 9016,
      "others": 9017,
      "Ġwheel": 9018,
      "Ġbouwen": 9019,
      "ĠWereld": 9020,
      "Kids": 9021,
      "bra": 9022,
      "Ġbase": 9023,
      "Ġnames": 9024,
      "Ġlock": 9025,
      "Ġjud": 9026,
      "æĺł": 9027,
      "oorde": 9028,
      "Ġlevel": 9029,
      "Ġuitspraak": 9030,
      "åįģåĪĨ": 9031,
      "çŃīçŃī": 9032,
      "èĻļ": 9033,
      "Ġserious": 9034,
      "Ġserved": 9035,
      "Ġcolon": 9036,
      "Ġtraining": 9037,
      "Ġgebeurde": 9038,
      "Ġeduc": 9039,
      "Ġcontinued": 9040,
      "Ġå¼Ģ": 9041,
      "Ġlachen": 9042,
      "Cos": 9043,
      "IC": 9044,
      "bet": 9045,
      "mers": 9046,
      "ply": 9047,
      "take": 9048,
      "Ġduurt": 9049,
      "asc": 9050,
      "ä¸įçŁ¥": 9051,
      "ĠJwww": 9052,
      "çİ°åľº": 9053,
      "Ġscared": 9054,
      "Ġneeded": 9055,
      "zocht": 9056,
      "Ġnature": 9057,
      "Ġofficer": 9058,
      "Ġdikke": 9059,
      "Ġsepar": 9060,
      ".)": 9061,
      "Ġtal": 9062,
      "elle": 9063,
      "ĠMijn": 9064,
      "ceed": 9065,
      "Weg": 9066,
      "rijp": 9067,
      "ĠStreet": 9068,
      "ANN": 9069,
      "åĲĪéĢĤ": 9070,
      "åĨħå®¹": 9071,
      "Ġsimilar": 9072,
      "Ġinteresting": 9073,
      "jar": 9074,
      "Ġå¤©": 9075,
      "Ġoil": 9076,
      "Ġaunt": 9077,
      "asons": 9078,
      "ä½łèĩªå·±": 9079,
      "éĹª": 9080,
      "æĹ¶ä»£": 9081,
      "Ġgekozen": 9082,
      "Ġverliezen": 9083,
      "ĠAfrica": 9084,
      "Ġfuture": 9085,
      "Sam": 9086,
      "Ġap": 9087,
      "Ġbood": 9088,
      "Ġnauw": 9089,
      "Ġdeg": 9090,
      "Ġfingers": 9091,
      "Ġonbe": 9092,
      "Ġstream": 9093,
      "Ġopp": 9094,
      "ĠTot": 9095,
      "ipjes": 9096,
      "Ġwaarvan": 9097,
      "Ġnogal": 9098,
      "Ġseeing": 9099,
      "Ġ31": 9100,
      "ĠÂ©": 9101,
      "Ġinteress": 9102,
      "ç¼ĺ": 9103,
      "Ġphys": 9104,
      "weging": 9105,
      "æľªæĿ¥": 9106,
      "ĠSec": 9107,
      "ĠEuropean": 9108,
      "Ġkru": 9109,
      "å°¤": 9110,
      "ĠæĪĳä¼ļ": 9111,
      "ĠNick": 9112,
      "éĢĴ": 9113,
      "æīĵç®Ĺ": 9114,
      "Ġhelft": 9115,
      "æįķ": 9116,
      "Ġfeit": 9117,
      "Ġcounty": 9118,
      "Ġprobeerde": 9119,
      "Ġouder": 9120,
      "Ġindeed": 9121,
      "gemaakt": 9122,
      "Ġcorner": 9123,
      "Com": 9124,
      "dere": 9125,
      "kracht": 9126,
      "edy": 9127,
      "ijnt": 9128,
      "Ġvoorbeelden": 9129,
      "elled": 9130,
      "è¦ģä¸į": 9131,
      "Ġdonker": 9132,
      "Ġbigger": 9133,
      "æľīä¸Ģå¤©": 9134,
      "Ġjoined": 9135,
      "Give": 9136,
      "Toe": 9137,
      "Ġvac": 9138,
      "Ġlion": 9139,
      "Ġeig": 9140,
      "aded": 9141,
      "aders": 9142,
      "ä¸įæķ¢": 9143,
      "urday": 9144,
      "astisch": 9145,
      "nog": 9146,
      "Ġsuit": 9147,
      "å¾Īæľī": 9148,
      "çº³": 9149,
      "Ġpartner": 9150,
      "ictor": 9151,
      "åıĺå¾Ĺ": 9152,
      "åĩºæĿ¥çļĦ": 9153,
      "åıįåºĶ": 9154,
      "æľįåĬ¡": 9155,
      "gebracht": 9156,
      "Ġartikel": 9157,
      "Ġgered": 9158,
      "Ġpublished": 9159,
      "Ġoccas": 9160,
      "Ġconsidered": 9161,
      "orpen": 9162,
      "Ġcy": 9163,
      "Ġsturen": 9164,
      "aga": 9165,
      "ĠWell": 9166,
      "åĽŀå¤´": 9167,
      "Ġgene": 9168,
      "Ġlandbouw": 9169,
      "Ġä½Ĩæĺ¯æĪĳ": 9170,
      "æķĻèĤ²": 9171,
      "åĵĪåĵĪåĵĪ": 9172,
      "Ġvoedings": 9173,
      "Ġleidt": 9174,
      "ĠParty": 9175,
      "èģªæĺİ": 9176,
      "gers": 9177,
      "licht": 9178,
      "atic": 9179,
      "Ġbound": 9180,
      "ieu": 9181,
      "ĠPep": 9182,
      "è¾ŀ": 9183,
      "å¾Īå¥½": 9184,
      "æ±¤": 9185,
      "Ġways": 9186,
      "inderen": 9187,
      "Ġpolitician": 9188,
      "lt": 9189,
      "ç¦ģ": 9190,
      "ĠæĽ´": 9191,
      "ä¸°": 9192,
      "Ġveget": 9193,
      "Ġlon": 9194,
      "Ġpale": 9195,
      "Ġcrow": 9196,
      "Ġstars": 9197,
      "åĪ·": 9198,
      "Ġafstand": 9199,
      "æ¬º": 9200,
      "èµ°åĲ§": 9201,
      "Ġä¸įç®¡": 9202,
      "ç»ĵæĿŁ": 9203,
      "Ġattract": 9204,
      "æĪ¿éĹ´": 9205,
      "éĺ¿å§¨": 9206,
      "åķĨéĩı": 9207,
      "Ġexplos": 9208,
      "Ġcrack": 9209,
      "ĠFlor": 9210,
      "uyu": 9211,
      "west": 9212,
      "Ġleek": 9213,
      "Ġstories": 9214,
      "aked": 9215,
      "iced": 9216,
      "Ġtemp": 9217,
      "ĠMic": 9218,
      "ĠMax": 9219,
      "Ġrepe": 9220,
      "ä¼¸": 9221,
      "ums": 9222,
      "Ġschiet": 9223,
      "è·ŁçĿĢ": 9224,
      "æ³½": 9225,
      "ĠUt": 9226,
      "ĠFranc": 9227,
      "å¥³çļĦ": 9228,
      "Ġsneller": 9229,
      "Ġziens": 9230,
      "Ġgevolgen": 9231,
      "Ġverklaring": 9232,
      "Ġcijfers": 9233,
      "gesp": 9234,
      "riet": 9235,
      "elicit": 9236,
      "Ġnurs": 9237,
      "Ġninet": 9238,
      "Ġthee": 9239,
      "ikuyu": 9240,
      "iders": 9241,
      "Ġenc": 9242,
      "Ġrare": 9243,
      "ĠDem": 9244,
      "ĠHun": 9245,
      "è¯´æ³ķ": 9246,
      "Ġspend": 9247,
      "indt": 9248,
      "è¿Ļä¹Īè¯´": 9249,
      "Ġ189": 9250,
      "Ġsprake": 9251,
      "Ġliked": 9252,
      "æĶ¾å¿ĥåĲ§": 9253,
      "Ġdienst": 9254,
      "Ġdinosaur": 9255,
      "di": 9256,
      "vat": 9257,
      "Ġscient": 9258,
      "ares": 9259,
      "Ġlukt": 9260,
      "äºĨåĳ¢": 9261,
      "Ġverslag": 9262,
      "three": 9263,
      "Ġmole": 9264,
      "å¿Ĩ": 9265,
      "Ġfresh": 9266,
      "ureau": 9267,
      "æįŁ": 9268,
      "ĠEngeland": 9269,
      "Ġproblems": 9270,
      "èĽĻ": 9271,
      "evrouw": 9272,
      "ĠKingdom": 9273,
      "Ġsurprise": 9274,
      "è®Ńç»ĥ": 9275,
      "Ġzenuw": 9276,
      "pat": 9277,
      "Ġåħ¨": 9278,
      "Ġtap": 9279,
      "Ġveld": 9280,
      "Ġcaptain": 9281,
      "ĠMot": 9282,
      "ĠAc": 9283,
      "ĠEarth": 9284,
      "Ġshape": 9285,
      "Ġwaarmee": 9286,
      "å¾Īå¿«": 9287,
      "æ¸¯": 9288,
      "éĶħ": 9289,
      "Ġadult": 9290,
      "å°ĳçĪ·": 9291,
      "Ġfeed": 9292,
      "ails": 9293,
      "éĺŁéķ¿": 9294,
      "ibly": 9295,
      "æ¼Ķåĳĺ": 9296,
      "Ġontstaat": 9297,
      "iÃ«nten": 9298,
      "Ġsituation": 9299,
      "Ġspeciale": 9300,
      "standigheden": 9301,
      "ias": 9302,
      "Ġthanks": 9303,
      "ä»ĩ": 9304,
      "Ġstij": 9305,
      "Ġstier": 9306,
      "Ġopper": 9307,
      "å¥ĭ": 9308,
      "gend": 9309,
      "å°±åĥı": 9310,
      "ĠHouse": 9311,
      "tended": 9312,
      "Ġdroog": 9313,
      "Ġterror": 9314,
      "åħ³å¿ĥ": 9315,
      "ç¨į": 9316,
      "Ġvissen": 9317,
      "Ġhoogte": 9318,
      "Ġbasket": 9319,
      "imedia": 9320,
      "Ġfighting": 9321,
      "Ġwebsite": 9322,
      "non": 9323,
      "ran": 9324,
      "Ġbud": 9325,
      "ijen": 9326,
      "aly": 9327,
      "Ġerf": 9328,
      "ĠBo": 9329,
      "ĠChe": 9330,
      "Ġä½łçİ°åľ¨": 9331,
      "æĪĳä»¬å°±": 9332,
      "uitse": 9333,
      "æ´ª": 9334,
      "Ġ35": 9335,
      "Ġsnake": 9336,
      "æĤ¨çļĦ": 9337,
      "ä½łä»¬çļĦ": 9338,
      "Ġmonkey": 9339,
      "äº§çĶŁ": 9340,
      "Ġsongs": 9341,
      "Ġkapitein": 9342,
      "Ġrisico": 9343,
      "Ġoriginal": 9344,
      "âĢķâĢķ": 9345,
      "Ġcurrent": 9346,
      "Con": 9347,
      "eeld": 9348,
      "rig": 9349,
      "ãģ": 9350,
      "rey": 9351,
      "Ġtoets": 9352,
      "ä»Ķ": 9353,
      "Ġreag": 9354,
      "éĤ£å¤©": 9355,
      "iform": 9356,
      "åĩºçļĦ": 9357,
      "Ġbreng": 9358,
      "ä¸Ńå¤®": 9359,
      "éĺ»": 9360,
      "æīįæĺ¯": 9361,
      "Ġinterview": 9362,
      "åĲĪä½ľ": 9363,
      "Ġkoningin": 9364,
      "Ġcommunic": 9365,
      "ĠBrazil": 9366,
      "ĠåºĶ": 9367,
      "Had": 9368,
      "ning": 9369,
      "wise": 9370,
      "ĠæĪĸèĢħ": 9371,
      "Ġbatter": 9372,
      "Ġgate": 9373,
      "Ġstrijd": 9374,
      "ĠMac": 9375,
      "ĠTijd": 9376,
      "ctions": 9377,
      "Ġformed": 9378,
      "è¯´ä¸į": 9379,
      "çĶľ": 9380,
      "Ġplaced": 9381,
      "Ġcho": 9382,
      "pty": 9383,
      "isha": 9384,
      "unnel": 9385,
      "å©ļå§»": 9386,
      "Ġproduced": 9387,
      "Ġdogs": 9388,
      "Ġreading": 9389,
      "ĠDaarom": 9390,
      "Ġgroeien": 9391,
      "åıĶåıĶ": 9392,
      "UNK": 9393,
      "Ġprincip": 9394,
      "Geweldig": 9395,
      "25": 9396,
      "LA": 9397,
      "vragen": 9398,
      "ĠæĹ¢çĦ¶": 9399,
      "ĠgeÃ¯n": 9400,
      "ĠToch": 9401,
      "Ġgetrouwd": 9402,
      "æĭĸ": 9403,
      "ç§Ł": 9404,
      "Ġgedrag": 9405,
      "Ġsatis": 9406,
      "IK": 9407,
      "punt": 9408,
      "Ġhost": 9409,
      "Ġpaus": 9410,
      "çļĦæĪĳ": 9411,
      "stop": 9412,
      "Ġeentje": 9413,
      "ä¸įçĿĢ": 9414,
      "éĤ£æĪĳ": 9415,
      "Ġspent": 9416,
      "schapp": 9417,
      "è®©äºº": 9418,
      "åħ¬åŃĲ": 9419,
      "çĭł": 9420,
      "è¯ģæĺİ": 9421,
      "Ġbereiken": 9422,
      "Ġadvoc": 9423,
      "ä¸¥éĩį": 9424,
      "ĠSchooltv": 9425,
      "Ġcircum": 9426,
      "wing": 9427,
      "Ġç»ĵæŀľ": 9428,
      "Ġvervolgens": 9429,
      "Ġdate": 9430,
      "estival": 9431,
      "æīĶ": 9432,
      "ĠCook": 9433,
      "Ġä½łä¹Ł": 9434,
      "ĠLaur": 9435,
      "teren": 9436,
      "Ġdance": 9437,
      "ĠKamer": 9438,
      "Ġpaarden": 9439,
      "èİī": 9440,
      "Ġomgeving": 9441,
      "ä¸Īå¤«": 9442,
      "ĠWikiKids": 9443,
      "23": 9444,
      "Haar": 9445,
      "ĠÃ": 9446,
      "Ġdomin": 9447,
      "akers": 9448,
      "åİļ": 9449,
      "å°ıåŃĲ": 9450,
      "Ġagreed": 9451,
      "Ġtotal": 9452,
      "Ġpeace": 9453,
      "ç¬¬ä¸ī": 9454,
      "Ġeindelijk": 9455,
      "ĠWikimedia": 9456,
      "ternational": 9457,
      "Probeer": 9458,
      "gelegd": 9459,
      "ĠåħĪ": 9460,
      "Ġbomen": 9461,
      "ä¸Ģä»¶": 9462,
      "Ġmoed": 9463,
      "éĥ½èĥ½": 9464,
      "Ġsharp": 9465,
      "ĠKe": 9466,
      "æĥ³æĥ³": 9467,
      "å½»": 9468,
      "åģļä»Ģä¹Ī": 9469,
      "åĪĨæīĭ": 9470,
      "Ġasking": 9471,
      "Ġ80": 9472,
      "éĢĤåĲĪ": 9473,
      "èĴĻ": 9474,
      "Paul": 9475,
      "ji": 9476,
      "Ġear": 9477,
      "otland": 9478,
      "Ġsteek": 9479,
      "ĠMother": 9480,
      "oef": 9481,
      "ĠHigh": 9482,
      "èµı": 9483,
      "å¦ĸ": 9484,
      "schrift": 9485,
      "Ġgrad": 9486,
      "ç¬¨": 9487,
      "æ±½": 9488,
      "ĠNederlanders": 9489,
      "Ġverkopen": 9490,
      "æĴĴ": 9491,
      "Ġpolitical": 9492,
      "éŃĤ": 9493,
      "å¥ĩæĢª": 9494,
      "Ġfavorite": 9495,
      "Ġelephant": 9496,
      "face": 9497,
      "hood": 9498,
      "æĪĳèĩªå·±": 9499,
      "Ġverantwoord": 9500,
      "ĠMack": 9501,
      "Ġerover": 9502,
      "ĠEll": 9503,
      "åĩī": 9504,
      "éĢĲ": 9505,
      "Ġsacr": 9506,
      "å¹´åīį": 9507,
      "ously": 9508,
      "æīĵå¼Ģ": 9509,
      "upid": 9510,
      "ĠNederlands": 9511,
      "åıĹåĪ°": 9512,
      "Ġdirection": 9513,
      "Ġsleeping": 9514,
      "Ġrocks": 9515,
      "Ġå·²": 9516,
      "Ġslowly": 9517,
      "daar": 9518,
      "set": 9519,
      "æĨ": 9520,
      "erste": 9521,
      "Ġhall": 9522,
      "Ġpo": 9523,
      "Ġearl": 9524,
      "ä¸ªæľĪ": 9525,
      "ĠGreat": 9526,
      "aalf": 9527,
      "ä¸ĭåĪĹ": 9528,
      "çĤ¸": 9529,
      "çĪ±æĥħ": 9530,
      "çĻ¾å§ĵ": 9531,
      "Ġorganismen": 9532,
      "Ġrichting": 9533,
      "ĠGeluid": 9534,
      "bad": 9535,
      "coh": 9536,
      "Ġwarn": 9537,
      "Ġgather": 9538,
      "æĺ¯çļĦ": 9539,
      "ĠSy": 9540,
      "å°±æ²¡": 9541,
      "æ²Ł": 9542,
      "è®¿": 9543,
      "ä¸ĬçıŃ": 9544,
      "æŃī": 9545,
      "æĭ¾": 9546,
      "Ġbeloof": 9547,
      "Ġnumbers": 9548,
      "Ġ188": 9549,
      "Ġdetect": 9550,
      "Frank": 9551,
      "âĮĭ": 9552,
      "Ġdestroy": 9553,
      "ĠSunday": 9554,
      "Ġhuwelijk": 9555,
      "Ġtoilet": 9556,
      "Ed": 9557,
      "Mam": 9558,
      "æľīå¤ļ": 9559,
      "ĠCont": 9560,
      "åºŁ": 9561,
      "ogelijk": 9562,
      "ç»ĻæĪĳä»¬": 9563,
      "è·Łå¥¹": 9564,
      "ĠIts": 9565,
      "èĭ¹": 9566,
      "Ġapple": 9567,
      "Ġshouldn": 9568,
      "Ġguard": 9569,
      "æ»´": 9570,
      "orgd": 9571,
      "åĶ¯": 9572,
      "Ġaangegeven": 9573,
      "è¸ı": 9574,
      "Ġblocks": 9575,
      "Afbeeldingen": 9576,
[...]
