{
  "version": "1.0",
  "truncation": null,
  "padding": null,
  "added_tokens": [
    {
      "id": 0,
      "content": "<unk>",
      "single_word": false,
      "lstrip": false,
      "rstrip": false,
      "normalized": false,
      "special": true
    },
    {
      "id": 1,
      "content": "<s>",
      "single_word": false,
      "lstrip": false,
      "rstrip": false,
      "normalized": false,
      "special": true
    },
    {
      "id": 2,
      "content": "</s>",
      "single_word": false,
      "lstrip": false,
      "rstrip": false,
      "normalized": false,
      "special": true
    },
    {
      "id": 3,
      "content": "<pad>",
      "single_word": false,
      "lstrip": false,
      "rstrip": false,
      "normalized": false,
      "special": true
    },
    {
      "id": 4,
      "content": "<mask>",
      "single_word": false,
      "lstrip": false,
      "rstrip": false,
      "normalized": false,
      "special": true
    },
    {
      "id": 5,
      "content": "，",
      "single_word": false,
      "lstrip": false,
      "rstrip": false,
      "normalized": false,
      "special": true
    },
    {
      "id": 6,
      "content": "。",
      "single_word": false,
      "lstrip": false,
      "rstrip": false,
      "normalized": false,
      "special": true
    },
    {
      "id": 7,
      "content": "、",
      "single_word": false,
      "lstrip": false,
      "rstrip": false,
      "normalized": false,
      "special": true
    },
    {
      "id": 8,
      "content": "！",
      "single_word": false,
      "lstrip": false,
      "rstrip": false,
      "normalized": false,
      "special": true
    },
    {
      "id": 9,
      "content": "？",
      "single_word": false,
      "lstrip": false,
      "rstrip": false,
      "normalized": false,
      "special": true
    },
    {
      "id": 10,
      "content": "：",
      "single_word": false,
      "lstrip": false,
      "rstrip": false,
      "normalized": false,
      "special": true
    },
    {
      "id": 11,
      "content": "；",
      "single_word": false,
      "lstrip": false,
      "rstrip": false,
      "normalized": false,
      "special": true
    },
    {
      "id": 12,
      "content": "「",
      "single_word": false,
      "lstrip": false,
      "rstrip": false,
      "normalized": false,
      "special": true
    },
    {
      "id": 13,
      "content": "」",
      "single_word": false,
      "lstrip": false,
      "rstrip": false,
      "normalized": false,
      "special": true
    },
    {
      "id": 14,
      "content": "（",
      "single_word": false,
      "lstrip": false,
      "rstrip": false,
      "normalized": false,
      "special": true
    },
    {
      "id": 15,
      "content": "）",
      "single_word": false,
      "lstrip": false,
      "rstrip": false,
      "normalized": false,
      "special": true
    },
    {
      "id": 16,
      "content": "《",
      "single_word": false,
      "lstrip": false,
      "rstrip": false,
      "normalized": false,
      "special": true
    },
    {
      "id": 17,
      "content": "》",
      "single_word": false,
      "lstrip": false,
      "rstrip": false,
      "normalized": false,
      "special": true
    },
    {
      "id": 18,
      "content": "【",
      "single_word": false,
      "lstrip": false,
      "rstrip": false,
      "normalized": false,
      "special": true
    },
    {
      "id": 19,
      "content": "】",
      "single_word": false,
      "lstrip": false,
      "rstrip": false,
      "normalized": false,
      "special": true
    }
  ],
  "normalizer": null,
  "pre_tokenizer": {
    "type": "ByteLevel",
    "add_prefix_space": false,
    "trim_offsets": true,
    "use_regex": true
  },
  "post_processor": {
    "type": "ByteLevel",
    "add_prefix_space": true,
    "trim_offsets": false,
    "use_regex": true
  },
  "decoder": {
    "type": "ByteLevel",
    "add_prefix_space": true,
    "trim_offsets": true,
    "use_regex": true
  },
  "model": {
    "type": "BPE",
    "dropout": null,
    "unk_token": null,
    "continuing_subword_prefix": null,
    "end_of_word_suffix": null,
    "fuse_unk": false,
    "byte_fallback": false,
    "ignore_merges": false,
    "vocab": {
      "<unk>": 0,
      "<s>": 1,
      "</s>": 2,
      "<pad>": 3,
      "<mask>": 4,
      "，": 5,
      "。": 6,
      "、": 7,
      "！": 8,
      "？": 9,
      "：": 10,
      "；": 11,
      "「": 12,
      "」": 13,
      "（": 14,
      "）": 15,
      "《": 16,
      "》": 17,
      "【": 18,
      "】": 19,
      "!": 20,
      "\"": 21,
      "#": 22,
      "$": 23,
      "%": 24,
      "&": 25,
      "'": 26,
      "(": 27,
      ")": 28,
      "*": 29,
      "+": 30,
      ",": 31,
      "-": 32,
      ".": 33,
      "/": 34,
      "0": 35,
      "1": 36,
      "2": 37,
      "3": 38,
      "4": 39,
      "5": 40,
      "6": 41,
      "7": 42,
      "8": 43,
      "9": 44,
      ":": 45,
      ";": 46,
      "<": 47,
      "=": 48,
      ">": 49,
      "?": 50,
      "@": 51,
      "A": 52,
      "B": 53,
      "C": 54,
      "D": 55,
      "E": 56,
      "F": 57,
      "G": 58,
      "H": 59,
      "I": 60,
      "J": 61,
      "K": 62,
      "L": 63,
      "M": 64,
      "N": 65,
      "O": 66,
      "P": 67,
      "Q": 68,
      "R": 69,
      "S": 70,
      "T": 71,
      "U": 72,
      "V": 73,
      "W": 74,
      "X": 75,
      "Y": 76,
      "Z": 77,
      "[": 78,
      "\\": 79,
      "]": 80,
      "^": 81,
      "_": 82,
      "`": 83,
      "a": 84,
      "b": 85,
      "c": 86,
      "d": 87,
      "e": 88,
      "f": 89,
      "g": 90,
      "h": 91,
      "i": 92,
      "j": 93,
      "k": 94,
      "l": 95,
      "m": 96,
      "n": 97,
      "o": 98,
      "p": 99,
      "q": 100,
      "r": 101,
      "s": 102,
      "t": 103,
      "u": 104,
      "v": 105,
      "w": 106,
      "x": 107,
      "y": 108,
      "z": 109,
      "{": 110,
      "|": 111,
      "}": 112,
      "~": 113,
      "¡": 114,
      "¢": 115,
      "£": 116,
      "¤": 117,
      "¥": 118,
      "¦": 119,
      "§": 120,
      "¨": 121,
      "©": 122,
      "ª": 123,
      "«": 124,
      "¬": 125,
      "®": 126,
      "¯": 127,
      "°": 128,
      "±": 129,
      "²": 130,
      "³": 131,
      "´": 132,
      "µ": 133,
      "¶": 134,
      "·": 135,
      "¸": 136,
      "¹": 137,
      "º": 138,
      "»": 139,
      "¼": 140,
      "½": 141,
      "¾": 142,
      "¿": 143,
      "À": 144,
      "Á": 145,
      "Â": 146,
      "Ã": 147,
      "Ä": 148,
      "Å": 149,
      "Æ": 150,
      "Ç": 151,
      "È": 152,
      "É": 153,
      "Ê": 154,
      "Ë": 155,
      "Ì": 156,
      "Í": 157,
      "Î": 158,
      "Ï": 159,
      "Ð": 160,
      "Ñ": 161,
      "Ò": 162,
      "Ó": 163,
      "Ô": 164,
      "Õ": 165,
      "Ö": 166,
      "×": 167,
      "Ø": 168,
      "Ù": 169,
      "Ú": 170,
      "Û": 171,
      "Ü": 172,
      "Ý": 173,
      "Þ": 174,
      "ß": 175,
      "à": 176,
      "á": 177,
      "â": 178,
      "ã": 179,
      "ä": 180,
      "å": 181,
      "æ": 182,
      "ç": 183,
      "è": 184,
      "é": 185,
      "ê": 186,
      "ë": 187,
      "ì": 188,
      "í": 189,
      "î": 190,
      "ï": 191,
      "ð": 192,
      "ñ": 193,
      "ò": 194,
      "ó": 195,
      "ô": 196,
      "õ": 197,
      "ö": 198,
      "÷": 199,
      "ø": 200,
      "ù": 201,
      "ú": 202,
      "û": 203,
      "ü": 204,
      "ý": 205,
      "þ": 206,
      "ÿ": 207,
      "Ā": 208,
      "ā": 209,
      "Ă": 210,
      "ă": 211,
      "Ą": 212,
      "ą": 213,
      "Ć": 214,
      "ć": 215,
      "Ĉ": 216,
      "ĉ": 217,
      "Ċ": 218,
      "ċ": 219,
      "Č": 220,
      "č": 221,
      "Ď": 222,
      "ď": 223,
      "Đ": 224,
      "đ": 225,
      "Ē": 226,
      "ē": 227,
      "Ĕ": 228,
      "ĕ": 229,
      "Ė": 230,
      "ė": 231,
      "Ę": 232,
      "ę": 233,
      "Ě": 234,
      "ě": 235,
      "Ĝ": 236,
      "ĝ": 237,
      "Ğ": 238,
      "ğ": 239,
      "Ġ": 240,
      "ġ": 241,
      "Ģ": 242,
      "ģ": 243,
      "Ĥ": 244,
      "ĥ": 245,
      "Ħ": 246,
      "ħ": 247,
      "Ĩ": 248,
      "ĩ": 249,
      "Ī": 250,
      "ī": 251,
      "Ĭ": 252,
      "ĭ": 253,
      "Į": 254,
      "į": 255,
      "İ": 256,
      "ı": 257,
      "Ĳ": 258,
      "ĳ": 259,
      "Ĵ": 260,
      "ĵ": 261,
      "Ķ": 262,
      "ķ": 263,
      "ĸ": 264,
      "Ĺ": 265,
      "ĺ": 266,
      "Ļ": 267,
      "ļ": 268,
      "Ľ": 269,
      "ľ": 270,
      "Ŀ": 271,
      "ŀ": 272,
      "Ł": 273,
      "ł": 274,
      "Ń": 275,
      "en": 276,
      "er": 277,
      "Ġt": 278,
      "an": 279,
      "he": 280,
      "in": 281,
      "Ġd": 282,
      "Ġw": 283,
      "at": 284,
      "Ġo": 285,
      "Ġs": 286,
      "Ġm": 287,
      "Ġa": 288,
      "Ġ.": 289,
      "ä¸": 290,
      "Ġb": 291,
      "ou": 292,
      "is": 293,
      "et": 294,
      "ar": 295,
      "or": 296,
      "Ġh": 297,
      "Ġg": 298,
      "el": 299,
      "it": 300,
      "Ġv": 301,
      "Ġthe": 302,
      "ij": 303,
      "Ġn": 304,
      "on": 305,
      "es": 306,
      "Ġhe": 307,
      "ed": 308,
      "äº": 309,
      "ing": 310,
      "and": 311,
      "ch": 312,
      "Ġz": 313,
      "Ġde": 314,
      "Ġl": 315,
      "Ġp": 316,
      "Ġe": 317,
      "çļ": 318,
      "çļĦ": 319,
      "al": 320,
      "Ġin": 321,
      "Ġj": 322,
      "Ġth": 323,
      "re": 324,
      "Ġf": 325,
      "Ġc": 326,
      "Ġk": 327,
      "as": 328,
      "ä»": 329,
      "Ġto": 330,
      "om": 331,
      "æĪ": 332,
      "ie": 333,
      "OT": 334,
      "MOT": 335,
      "Ġis": 336,
      "ä½": 337,
      "Ġy": 338,
      "aar": 339,
      "è¿": 340,
      "æĪĳ": 341,
      "CH": 342,
      "æĺ": 343,
      "CHI": 344,
      "ll": 345,
      "Ġyou": 346,
      "Ġof": 347,
      "Ġ,": 348,
      "Ġand": 349,
      "st": 350,
      "æĺ¯": 351,
      "ot": 352,
      "Ġje": 353,
      "ig": 354,
      "Ġon": 355,
      "ä½ł": 356,
      "le": 357,
      "ik": 358,
      "ĠI": 359,
      "Ġeen": 360,
      "äºĨ": 361,
      "å¤": 362,
      "Ġhet": 363,
      "oor": 364,
      "ä¹": 365,
      "æľ": 366,
      "oo": 367,
      "ad": 368,
      "id": 369,
      "åı": 370,
      "Ġu": 371,
      "åĲ": 372,
      "ere": 373,
      "å°": 374,
      "ow": 375,
      "'s": 376,
      "ä¸į": 377,
      "Ġ?": 378,
      "Ġbe": 379,
      "ä¸Ģ": 380,
      "iet": 381,
      "Ġr": 382,
      "am": 383,
      "Ġst": 384,
      "..": 385,
      "Ġen": 386,
      "ut": 387,
      "Ġvan": 388,
      "ve": 389,
      "Ġme": 390,
      "ur": 391,
      "Ġwe": 392,
      "Ġge": 393,
      "ak": 394,
      "è¯": 395,
      "Ġit": 396,
      "ay": 397,
      "il": 398,
      "è¿Ļ": 399,
      "ent": 400,
      "å®": 401,
      "ic": 402,
      "Ġwas": 403,
      "ver": 404,
      "åľ": 405,
      "ijn": 406,
      "åĪ": 407,
      "Ġthat": 408,
      "ag": 409,
      "ro": 410,
      "Ġop": 411,
      "Ġdat": 412,
      "Ġwh": 413,
      "å¥": 414,
      "Ġver": 415,
      "Ġniet": 416,
      "cht": 417,
      "ee": 418,
      "åħ": 419,
      "im": 420,
      "Ġdo": 421,
      "æĿ": 422,
      "ĠS": 423,
      "se": 424,
      "un": 425,
      "ä¸ª": 426,
      "Ik": 427,
      "Ġte": 428,
      "de": 429,
      "ĠM": 430,
      "Ġik": 431,
      "æľī": 432,
      "ol": 433,
      "ra": 434,
      "th": 435,
      "ĠD": 436,
      "den": 437,
      "å°±": 438,
      "est": 439,
      "ĠT": 440,
      "ĠA": 441,
      "Ġal": 442,
      "ãĢ": 443,
      "oe": 444,
      "Ġ'": 445,
      "gen": 446,
      "ĠH": 447,
      "ir": 448,
      "der": 449,
      "Ġer": 450,
      "ijk": 451,
      "'t": 452,
      "åĳ": 453,
      "ĥ½": 454,
      "ion": 455,
      "åľ¨": 456,
      "ä»¬": 457,
      "åŃ": 458,
      "å¾": 459,
      "ĠB": 460,
      "ly": 461,
      "ç»": 462,
      "ant": 463,
      "ãĢĤ": 464,
      "ac": 465,
      "ter": 466,
      "æī": 467,
      "Ġfor": 468,
      "ä»ĸ": 469,
      "åķ": 470,
      "ven": 471,
      "Ġgo": 472,
      "Ġre": 473,
      "ap": 474,
      "ä¹Ī": 475,
      "äºº": 476,
      "op": 477,
      "æĿ¥": 478,
      "Ġze": 479,
      "ht": 480,
      "ĠæĪĳ": 481,
      "us": 482,
      "Ġvoor": 483,
      "ell": 484,
      "Ġå": 485,
      "çĶ": 486,
      "æĹ": 487,
      "ĠC": 488,
      "çľ": 489,
      "Ġmo": 490,
      "è¯´": 491,
      "Ġzijn": 492,
      "ld": 493,
      "Ġheb": 494,
      "ill": 495,
      "ken": 496,
      "Ġmet": 497,
      "ith": 498,
      "éĤ": 499,
      "ier": 500,
      "åķĬ": 501,
      "ä¼": 502,
      "Ġall": 503,
      "åĽ": 504,
      "Ġha": 505,
      "éĤ£": 506,
      "ft": 507,
      "ers": 508,
      "å¥½": 509,
      "ct": 510,
      "Ġ...": 511,
      "Ġ1": 512,
      "Ġno": 513,
      "ge": 514,
      "ĠW": 515,
      "aat": 516,
      "ight": 517,
      "Ġan": 518,
      "æĢ": 519,
      "ok": 520,
      "åİ": 521,
      "Ġwor": 522,
      "ome": 523,
      "æ²": 524,
      "Ġwith": 525,
      "Ġä½ł": 526,
      "ien": 527,
      "æĥ": 528,
      "Ġdie": 529,
      "¦ģ": 530,
      "èµ": 531,
      "è¦ģ": 532,
      "um": 533,
      "ĠP": 534,
      "em": 535,
      "Ġas": 536,
      "éĩ": 537,
      "è®": 538,
      "hat": 539,
      "Ġle": 540,
      "all": 541,
      "ĠE": 542,
      "aan": 543,
      "åĬ": 544,
      "å¿": 545,
      "Ġaan": 546,
      "ust": 547,
      "å¤§": 548,
      "ĠG": 549,
      "Ġ\"": 550,
      "åį": 551,
      "èĢ": 552,
      "åĩ": 553,
      "ĠN": 554,
      "if": 555,
      "è§": 556,
      "xx": 557,
      "nd": 558,
      "ĠJ": 559,
      "Ġat": 560,
      "åĪ°": 561,
      "je": 562,
      "ul": 563,
      "Ġhad": 564,
      "Ġwat": 565,
      "Ġover": 566,
      "Ġsp": 567,
      "ä¸Ĭ": 568,
      "ce": 569,
      "IN": 570,
      "Ġnot": 571,
      "ah": 572,
      "ind": 573,
      "åŃĲ": 574,
      "ist": 575,
      "æĬ": 576,
      "Ġkn": 577,
      "ze": 578,
      "Ġom": 579,
      "Ġhave": 580,
      "ĠL": 581,
      "ould": 582,
      "å·": 583,
      "çİ": 584,
      "AR": 585,
      "å¼": 586,
      "å¸": 587,
      "Ġthis": 588,
      "å¹": 589,
      "AT": 590,
      "æ²¡": 591,
      "ä¹Ł": 592,
      "Ġuit": 593,
      "ĠR": 594,
      "åĨ": 595,
      "INV": 596,
      "Ġals": 597,
      "éĥ½": 598,
      "å¯": 599,
      "ast": 600,
      "Ġpl": 601,
      "ook": 602,
      "Ġare": 603,
      "eer": 604,
      "Ġsh": 605,
      "åİ»": 606,
      "art": 607,
      "è¿ĺ": 608,
      "ood": 609,
      "çľĭ": 610,
      "å¾Ĺ": 611,
      "...": 612,
      "Ġ2": 613,
      "ab": 614,
      "ug": 615,
      "eld": 616,
      "æł": 617,
      "Ġfr": 618,
      "Ġzo": 619,
      "ĠO": 620,
      "å°ı": 621,
      "éĹ": 622,
      "æĸ": 623,
      "ä¼ļ": 624,
      "åĵ": 625,
      "Ġne": 626,
      "ess": 627,
      "åı¯": 628,
      "os": 629,
      "èĥ½": 630,
      "ĠF": 631,
      "rou": 632,
      "è·": 633,
      "ang": 634,
      "ä¸º": 635,
      "ink": 636,
      "Ġthey": 637,
      "Ħ¿": 638,
      "Ġmaar": 639,
      "ri": 640,
      "Ġhis": 641,
      "æŃ": 642,
      "æĹ¶": 643,
      "Ġone": 644,
      "We": 645,
      "Ġcan": 646,
      "Ġher": 647,
      "çĿ": 648,
      "Ġ(": 649,
      "ET": 650,
      "een": 651,
      "out": 652,
      "Ġnaar": 653,
      "nen": 654,
      "ond": 655,
      "ain": 656,
      "Ġyour": 657,
      "LD": 658,
      "ard": 659,
      "Ġknow": 660,
      "ä»¥": 661,
      "Ġup": 662,
      "Ġthere": 663,
      "Ġ!": 664,
      "CHILD": 665,
      "ä»Ģ": 666,
      "ĠK": 667,
      "ä»Ģä¹Ī": 668,
      "Ġdan": 669,
      "å¦": 670,
      "Ġdon": 671,
      "å¤©": 672,
      "ru": 673,
      "Het": 674,
      "åĦ¿": 675,
      "TAR": 676,
      "GET": 677,
      "eah": 678,
      "TARGET": 679,
      "rij": 680,
      "ich": 681,
      "aal": 682,
      "Ġ-": 683,
      "åĴ": 684,
      "ry": 685,
      "Ġaf": 686,
      "Ġmoet": 687,
      "ike": 688,
      "Ġsch": 689,
      "å®¶": 690,
      "éĿ": 691,
      "her": 692,
      "ck": 693,
      "sen": 694,
      "Ġman": 695,
      "è¿ĩ": 696,
      "ä¸ĭ": 697,
      "oh": 698,
      "Ġwhat": 699,
      "éģ": 700,
      "åº": 701,
      "åĲİ": 702,
      "we": 703,
      "è¡": 704,
      "be": 705,
      "te": 706,
      "Ġor": 707,
      "Ġbl": 708,
      "Je": 709,
      "èĩ": 710,
      "æĥ³": 711,
      "éĢ": 712,
      "Ġpro": 713,
      "elijk": 714,
      "Ġhij": 715,
      "Ġmy": 716,
      "äºĭ": 717,
      "Ġshe": 718,
      "ĠV": 719,
      "ull": 720,
      "Ġso": 721,
      "ten": 722,
      "Ġch": 723,
      "ation": 724,
      "Ġben": 725,
      "çĽ": 726,
      "You": 727,
      "pen": 728,
      "Ġget": 729,
      "ore": 730,
      "çĪ": 731,
      "åĳ¢": 732,
      "ack": 733,
      "çĿĢ": 734,
      "Ġwer": 735,
      "ä¸Ģä¸ª": 736,
      "ake": 737,
      "å¯¹": 738,
      "ies": 739,
      "ER": 740,
      "Ġout": 741,
      "Ã©": 742,
      "æķ": 743,
      "Ġab": 744,
      "eel": 745,
      "Ġsa": 746,
      "è¿Ļä¸ª": 747,
      "Ġwel": 748,
      "ank": 749,
      "ong": 750,
      "Ġbij": 751,
      "Ġook": 752,
      "è°": 753,
      "æ¯": 754,
      "éĩĮ": 755,
      "'re": 756,
      "ip": 757,
      "Ġkan": 758,
      "æĦ": 759,
      "Ġtw": 760,
      "æĭ": 761,
      "ĠDe": 762,
      "Ġlike": 763,
      "åĩº": 764,
      "acht": 765,
      "Ġpr": 766,
      "Ġwil": 767,
      "Wat": 768,
      "sch": 769,
      "åĲ§": 770,
      "Ġhim": 771,
      "ĠThe": 772,
      "åĲĹ": 773,
      "å¤ļ": 774,
      "qu": 775,
      "çī": 776,
      "Ġfrom": 777,
      "eft": 778,
      "The": 779,
      "De": 780,
      "ber": 781,
      "ine": 782,
      "çĶŁ": 783,
      "Ġnog": 784,
      "Ġcom": 785,
      "å½": 786,
      "aak": 787,
      "Ġwaar": 788,
      "åľ°": 789,
      "æ°": 790,
      "çŁ": 791,
      "Ġhier": 792,
      "Ġbut": 793,
      "Ġdoor": 794,
      "æĪĳä»¬": 795,
      "elf": 796,
      "od": 797,
      "og": 798,
      "one": 799,
      "na": 800,
      "æŀ": 801,
      "ç§": 802,
      "å°±æĺ¯": 803,
      "ame": 804,
      "ç»Ļ": 805,
      "Ġsu": 806,
      "éģĵ": 807,
      "ide": 808,
      "Ze": 809,
      "çİ°": 810,
      "FAT": 811,
      "Ġcon": 812,
      "au": 813,
      "Ġkun": 814,
      "00": 815,
      "ort": 816,
      "you": 817,
      "Ġex": 818,
      "Ġse": 819,
      "çĤ": 820,
      "çĦ": 821,
      "Ġby": 822,
      "èĩª": 823,
      "Ġwere": 824,
      "Dat": 825,
      "ben": 826,
      "ive": 827,
      "no": 828,
      "che": 829,
      "what": 830,
      "xxx": 831,
      "ä¸Ń": 832,
      "Ġthem": 833,
      "Ġsee": 834,
      "åģ": 835,
      "çĦ¶": 836,
      "Ġbo": 837,
      "è¾": 838,
      "æĶ": 839,
      "'m": 840,
      "Ġkom": 841,
      "æ¬": 842,
      "Ġheeft": 843,
      "ep": 844,
      "here": 845,
      "our": 846,
      "å¿ĥ": 847,
      "åĢ": 848,
      "æł·": 849,
      "En": 850,
      "own": 851,
      "Ġgot": 852,
      "Ġdid": 853,
      "Ġwant": 854,
      "HER": 855,
      "Ġmijn": 856,
      "ek": 857,
      "åĴĮ": 858,
      "Ġè¿Ļ": 859,
      "è·Ł": 860,
      "Ġdit": 861,
      "Ġmen": 862,
      "Ġgoed": 863,
      "å¾Ī": 864,
      "ls": 865,
      "Ġel": 866,
      "uur": 867,
      "ste": 868,
      "Ġhebben": 869,
      "Ġabout": 870,
      "eren": 871,
      "Ġsome": 872,
      "ally": 873,
      "èĢģ": 874,
      "itt": 875,
      "'ll": 876,
      "iv": 877,
      "æİ": 878,
      "è´": 879,
      "ä¿": 880,
      "Ġbet": 881,
      "çĤ¹": 882,
      "Ġbr": 883,
      "ijd": 884,
      "æĬĬ": 885,
      "å¥¹": 886,
      "Ġthink": 887,
      "Ġwill": 888,
      "å§": 889,
      "Ġword": 890,
      "Ġun": 891,
      "çŁ¥": 892,
      "Ġhem": 893,
      "Ġ19": 894,
      "ke": 895,
      "åĮ": 896,
      "Ġgr": 897,
      "ff": 898,
      "æĢİ": 899,
      "ite": 900,
      ".\"": 901,
      "æ²¡æľī": 902,
      "å±": 903,
      "ä¸įæĺ¯": 904,
      "aten": 905,
      "ice": 906,
      "Ġhere": 907,
      "æĢİä¹Ī": 908,
      "Ġgeen": 909,
      "åī": 910,
      "ingen": 911,
      "ick": 912,
      "éĻ": 913,
      "pp": 914,
      "èµ·": 915,
      "].": 916,
      "oug": 917,
      "uit": 918,
      "Ġjust": 919,
      "ied": 920,
      "ate": 921,
      "Ġlook": 922,
      "MOTHER": 923,
      "He": 924,
      "åĳĢ": 925,
      "æĮ": 926,
      "Ġsaid": 927,
      "ĠIn": 928,
      "ĠéĤ£": 929,
      "çľŁ": 930,
      "åĪ«": 931,
      "oon": 932,
      "æ³": 933,
      "to": 934,
      "yeah": 935,
      "ime": 936,
      "ia": 937,
      "la": 938,
      "Ġwould": 939,
      "uis": 940,
      "Ġhaar": 941,
      "oed": 942,
      "Ġdeze": 943,
      "orm": 944,
      "uk": 945,
      "å¹´": 946,
      "çŃ": 947,
      "Ġdr": 948,
      "Ġmeer": 949,
      "eg": 950,
      "ect": 951,
      "Ġter": 952,
      "åĽ½": 953,
      "éķ": 954,
      "Hij": 955,
      "aken": 956,
      "Ġif": 957,
      "Ġwho": 958,
      "hing": 959,
      "å¼Ģ": 960,
      "è¡Į": 961,
      "per": 962,
      ",\"": 963,
      "åĽŀ": 964,
      "eten": 965,
      "éĿ¢": 966,
      "è¯Ŀ": 967,
      "Ġsay": 968,
      "mer": 969,
      "Ġdaar": 970,
      "oord": 971,
      "pl": 972,
      "Ġthen": 973,
      "Ġus": 974,
      "ings": 975,
      "Ġgaan": 976,
      "elen": 977,
      "è½": 978,
      "éĺ": 979,
      "çº": 980,
      "é¢": 981,
      "Ġjij": 982,
      "Ġany": 983,
      "'ve": 984,
      "bl": 985,
      "æĤ": 986,
      "Ġnow": 987,
      "Ġright": 988,
      "Ġnu": 989,
      "æ´": 990,
      "zen": 991,
      "ä¹ĭ": 992,
      "æĥħ": 993,
      "åıĳ": 994,
      "ĠHe": 995,
      "land": 996,
      "çŁ¥éģĵ": 997,
      "that": 998,
      "pt": 999,
      "Ġwhen": 1000,
      "are": 1001,
      "av": 1002,
      "Ġar": 1003,
      "Ġonder": 1004,
      "Ġdoen": 1005,
      "ous": 1006,
      "åĸ": 1007,
      "ost": 1008,
      "ound": 1009,
      "Ġag": 1010,
      "è®©": 1011,
      "lijk": 1012,
      "Ġgeb": 1013,
      "Ġbeg": 1014,
      "çĲ": 1015,
      "åıª": 1016,
      "icht": 1017,
      "èµ°": 1018,
      "çĻ": 1019,
      "å®ļ": 1020,
      "It": 1021,
      "æīĢ": 1022,
      "ç»ı": 1023,
      "ose": 1024,
      "æĪĲ": 1025,
      "æĦı": 1026,
      "ther": 1027,
      "oll": 1028,
      "éķ¿": 1029,
      "Ġweet": 1030,
      "å®ŀ": 1031,
      "ud": 1032,
      "ES": 1033,
      "OR": 1034,
      "Ġdown": 1035,
      "å·±": 1036,
      "Ġzou": 1037,
      "ige": 1038,
      "è§ī": 1039,
      "æµ": 1040,
      "Ġwordt": 1041,
      "Ġbeen": 1042,
      "Ġoff": 1043,
      "Ġcl": 1044,
      "ker": 1045,
      "çĶ¨": 1046,
      "ittle": 1047,
      "èĩªå·±": 1048,
      "nt": 1049,
      "way": 1050,
      "Ġhand": 1051,
      "ĠCh": 1052,
      "Ġkl": 1053,
      "Ġworden": 1054,
      "other": 1055,
      "Ġsl": 1056,
      "Ġhou": 1057,
      "Ġbed": 1058,
      "åģļ": 1059,
      "ool": 1060,
      "Ġback": 1061,
      "ear": 1062,
      "ä½Ĩ": 1063,
      "åĢĻ": 1064,
      "ause": 1065,
      "ity": 1066,
      "ach": 1067,
      "Ġzeg": 1068,
      "Ġgoing": 1069,
      "Ġgaat": 1070,
      "ree": 1071,
      "Ġ20": 1072,
      "ullie": 1073,
      "Waar": 1074,
      "Ġbel": 1075,
      "men": 1076,
      "ass": 1077,
      "Ġhas": 1078,
      "Ġä»ĸ": 1079,
      "æľĢ": 1080,
      "ĠIt": 1081,
      "Ġga": 1082,
      "çİ°åľ¨": 1083,
      "ĠSt": 1084,
      "iets": 1085,
      "Ġtime": 1086,
      "jes": 1087,
      "ble": 1088,
      "Ġput": 1089,
      "yl": 1090,
      "äºĽ": 1091,
      "ĠU": 1092,
      "ç¬": 1093,
      "æĹ¶åĢĻ": 1094,
      "ele": 1095,
      "agen": 1096,
      "Ġeven": 1097,
      "Ġhoe": 1098,
      "Ġgew": 1099,
      "als": 1100,
      "ç®": 1101,
      "ew": 1102,
      "åįģ": 1103,
      "Ġbest": 1104,
      "IG": 1105,
      "å¦Ī": 1106,
      "rouw": 1107,
      "Ġwhich": 1108,
      "Ġcould": 1109,
      "Ġbent": 1110,
      "age": 1111,
      "Ġtheir": 1112,
      "Ġlittle": 1113,
      "Ġvol": 1114,
      "æīĵ": 1115,
      "åīį": 1116,
      "ans": 1117,
      "Ġvery": 1118,
      "ĠZ": 1119,
      "ace": 1120,
      "æĸ¹": 1121,
      "ure": 1122,
      "ish": 1123,
      "å½ĵ": 1124,
      "uw": 1125,
      "In": 1126,
      "Ġmore": 1127,
      "EST": 1128,
      "Ġgood": 1129,
      "Ġmij": 1130,
      "eder": 1131,
      "ne": 1132,
      "èĬ": 1133,
      "oek": 1134,
      "dat": 1135,
      "ire": 1136,
      "iss": 1137,
      "åĿ": 1138,
      "Ġ[": 1139,
      "els": 1140,
      "my": 1141,
      "ATOR": 1142,
      "ESTIG": 1143,
      "INVESTIG": 1144,
      "INVESTIGATOR": 1145,
      "Ġqu": 1146,
      "éĴ": 1147,
      "cause": 1148,
      "yes": 1149,
      "alk": 1150,
      "ade": 1151,
      "Maar": 1152,
      "æ¸": 1153,
      "Ġvr": 1154,
      "Ġxxx": 1155,
      "Oh": 1156,
      "ç«": 1157,
      "Als": 1158,
      "ä¸ī": 1159,
      "Ġjou": 1160,
      "è§ģ": 1161,
      "the": 1162,
      "Ġkunnen": 1163,
      "å¤ª": 1164,
      "Ġons": 1165,
      "enk": 1166,
      "åŃ¦": 1167,
      "Ġpe": 1168,
      "Ġtwo": 1169,
      "Ġgel": 1170,
      "Ġont": 1171,
      "Ġhel": 1172,
      "éĽ": 1173,
      "oc": 1174,
      "åĬ¨": 1175,
      "åĪĨ": 1176,
      "And": 1177,
      "atie": 1178,
      "æĻ": 1179,
      "mand": 1180,
      "ment": 1181,
      "ä¸¤": 1182,
      "èĤ": 1183,
      "Ġsom": 1184,
      "æĤ¨": 1185,
      "éĹ®": 1186,
      "Ġmin": 1187,
      "Ġro": 1188,
      "æīĭ": 1189,
      "åĲĥ": 1190,
      "What": 1191,
      "Ja": 1192,
      "Nee": 1193,
      "--": 1194,
      "æĺİ": 1195,
      "æ±": 1196,
      "Ġhebt": 1197,
      "igen": 1198,
      "äºĮ": 1199,
      "ert": 1200,
      "èĢĮ": 1201,
      "Th": 1202,
      "Ġgen": 1203,
      "iend": 1204,
      "onder": 1205,
      "æŀľ": 1206,
      "old": 1207,
      "ç§į": 1208,
      "äºİ": 1209,
      "Ġzal": 1210,
      "aren": 1211,
      "omen": 1212,
      "æĽ": 1213,
      "int": 1214,
      "Ġsn": 1215,
      "é¡": 1216,
      "éĹ´": 1217,
      "Ġfl": 1218,
      "heid": 1219,
      "uh": 1220,
      "orn": 1221,
      "Ġhun": 1222,
      "è¢": 1223,
      "Een": 1224,
      "ĠFr": 1225,
      "Ġgev": 1226,
      "ark": 1227,
      "Ġ3": 1228,
      "racht": 1229,
      "åı¯ä»¥": 1230,
      "Ġplay": 1231,
      "éļ": 1232,
      "Ġeer": 1233,
      "raag": 1234,
      "wh": 1235,
      "wer": 1236,
      "oof": 1237,
      "Ġveel": 1238,
      "èº": 1239,
      "Ġweg": 1240,
      "åĲ¬": 1241,
      "Ġjullie": 1242,
      "Ġiets": 1243,
      "ord": 1244,
      "ian": 1245,
      "é£": 1246,
      "åĨį": 1247,
      "è¶": 1248,
      "Ġper": 1249,
      "Ġna": 1250,
      "reat": 1251,
      "ä»İ": 1252,
      "æŃ£": 1253,
      "eden": 1254,
      "Ġtot": 1255,
      "åıĪ": 1256,
      "end": 1257,
      "ase": 1258,
      "oot": 1259,
      "ä»ĸä»¬": 1260,
      "ä½ľ": 1261,
      "sh": 1262,
      "å®ĥ": 1263,
      "å¥³": 1264,
      "ç¾": 1265,
      "åħ¬": 1266,
      "Ġever": 1267,
      "Ġother": 1268,
      "ief": 1269,
      "Ġzit": 1270,
      "oel": 1271,
      "ople": 1272,
      "Ġinto": 1273,
      "ob": 1274,
      "æģ": 1275,
      "ng": 1276,
      "Ġged": 1277,
      "æ¯Ķ": 1278,
      "urn": 1279,
      "Ġä¸į": 1280,
      "Ġtr": 1281,
      "Ġpart": 1282,
      "Ġcome": 1283,
      "Ġgro": 1284,
      "ĠHet": 1285,
      "Ġzien": 1286,
      "pr": 1287,
      "ater": 1288,
      "me": 1289,
      "ĠTh": 1290,
      "Ġcar": 1291,
      "do": 1292,
      "irst": 1293,
      "Ã«": 1294,
      "åħ¶": 1295,
      "Ġmu": 1296,
      "åĲĮ": 1297,
      "ary": 1298,
      "aakt": 1299,
      "act": 1300,
      "amen": 1301,
      "è¿Ľ": 1302,
      "å¤´": 1303,
      "Ġweer": 1304,
      "åħ³": 1305,
      "onna": 1306,
      "Ġway": 1307,
      "man": 1308,
      "ough": 1309,
      "?\"": 1310,
      "æī¾": 1311,
      "ys": 1312,
      "ount": 1313,
      "åħĪ": 1314,
      "åĺ": 1315,
      "ely": 1316,
      "ä¸»": 1317,
      "æľ¬": 1318,
      "æ¬¡": 1319,
      "éĶ": 1320,
      "innen": 1321,
      "Hoe": 1322,
      "Er": 1323,
      "è§īå¾Ĺ": 1324,
      "æīį": 1325,
      "Ġagain": 1326,
      "iek": 1327,
      "Yeah": 1328,
      "Ġlet": 1329,
      "ä¾": 1330,
      "Ġterug": 1331,
      "æ³ķ": 1332,
      "Ġwater": 1333,
      "ild": 1334,
      "Ġpeople": 1335,
      "Ġsc": 1336,
      "Ġwork": 1337,
      "af": 1338,
      "èĦ": 1339,
      "Ġtegen": 1340,
      "çĭ": 1341,
      "Ġmensen": 1342,
      "Ġmoeten": 1343,
      "!\"": 1344,
      "No": 1345,
      "Ġam": 1346,
      "åĽł": 1347,
      "Ġgonna": 1348,
      "chter": 1349,
      "esch": 1350,
      "èº«": 1351,
      "Ġwell": 1352,
      "ä»Ĭ": 1353,
      "å¦Ĥ": 1354,
      "è°¢": 1355,
      "é«": 1356,
      "Ġstr": 1357,
      "çŃī": 1358,
      "Ġhow": 1359,
      "å¹²": 1360,
      "Ġmake": 1361,
      "Ġvert": 1362,
      "ance": 1363,
      "Ġdoes": 1364,
      "é«ĺ": 1365,
      "Ġmee": 1366,
      "æĦŁ": 1367,
      "Ġeens": 1368,
      "Ġsm": 1369,
      "Ġnie": 1370,
      "sp": 1371,
      "Kom": 1372,
      "Ġtwee": 1373,
      "ult": 1374,
      "è¿Ļä¹Ī": 1375,
      "ä½łä»¬": 1376,
      "è¢«": 1377,
      "Ġmaken": 1378,
      "èĥ": 1379,
      "of": 1380,
      "åĬĽ": 1381,
      "éĤ£ä¸ª": 1382,
      "Ġcall": 1383,
      "amp": 1384,
      "Ġad": 1385,
      "Ġwhere": 1386,
      "ruik": 1387,
      "ale": 1388,
      "esp": 1389,
      "Ġfirst": 1390,
      "æĶ¾": 1391,
      "Wh": 1392,
      "cc": 1393,
      "ja": 1394,
      "air": 1395,
      "ç½": 1396,
      "Ġwerk": 1397,
      "Ġday": 1398,
      "å£": 1399,
      "ue": 1400,
      "ger": 1401,
      "oen": 1402,
      "Ġtell": 1403,
      "¥¿": 1404,
      "ann": 1405,
      "ile": 1406,
      "Ġkon": 1407,
      "ock": 1408,
      "Ġalleen": 1409,
      "ise": 1410,
      "è¾¹": 1411,
      "æ°Ķ": 1412,
      "Ġsomet": 1413,
      "å·²": 1414,
      "gens": 1415,
      "Ġtijd": 1416,
      "æį": 1417,
      "Ġgez": 1418,
      "Ġtoo": 1419,
      "Ġtake": 1420,
      "ĠÂ": 1421,
      "hm": 1422,
      "oren": 1423,
      "åŃ©": 1424,
      "å¿«": 1425,
      "Ġland": 1426,
      "é©": 1427,
      "Ġneed": 1428,
      "iz": 1429,
      "åħ¨": 1430,
      "çĦ¶åĲİ": 1431,
      "Ġkomt": 1432,
      "è¿Ļæł·": 1433,
      "ç©": 1434,
      "ĥı": 1435,
      "ty": 1436,
      "ote": 1437,
      "èĭ": 1438,
      "çķ": 1439,
      "cl": 1440,
      "app": 1441,
      "Ġecht": 1442,
      "Dit": 1443,
      "ĠMr": 1444,
      "ĠæĪĳä»¬": 1445,
      "èģ": 1446,
      "Ġleven": 1447,
      "Ġcont": 1448,
      "ci": 1449,
      "æ¡": 1450,
      "çĥ": 1451,
      "çģ": 1452,
      "Ġsec": 1453,
      "Ġzich": 1454,
      "æĪĳçļĦ": 1455,
      "Ġlaat": 1456,
      "ren": 1457,
      "éĥ": 1458,
      "Ġkw": 1459,
      "over": 1460,
      "çĲĨ": 1461,
      "Ġtoch": 1462,
      "Ġie": 1463,
      "åºĶ": 1464,
      "erd": 1465,
      "oop": 1466,
      "Ġact": 1467,
      "é¢ĺ": 1468,
      "Ġonly": 1469,
      "çĶµ": 1470,
      "ave": 1471,
      "wn": 1472,
      "çĪ¸": 1473,
      "dig": 1474,
      "Ġwerd": 1475,
      "Ġple": 1476,
      "éĩį": 1477,
      "æŁ": 1478,
      "çļĦæĹ¶åĢĻ": 1479,
      "That": 1480,
      "Ġlang": 1481,
      "Ġafter": 1482,
      "Is": 1483,
      "ellen": 1484,
      "ef": 1485,
      "å¸¸": 1486,
      "ather": 1487,
      "St": 1488,
      "Ġjaar": 1489,
      "Ġkrij": 1490,
      "Ġtra": 1491,
      "Ġour": 1492,
      "ict": 1493,
      "ä½Ĩæĺ¯": 1494,
      "åĥı": 1495,
      "è¥¿": 1496,
      "alen": 1497,
      "ub": 1498,
      "ugh": 1499,
      "ç¥": 1500,
      "ove": 1501,
      "roug": 1502,
      "æĹł": 1503,
      "è¯¥": 1504,
      "ä¸ľ": 1505,
      "æĹ¥": 1506,
      "uck": 1507,
      "Ġkomen": 1508,
      "ooit": 1509,
      "èī": 1510,
      "iver": 1511,
      "Ġim": 1512,
      "æ°´": 1513,
      "çĽ¸": 1514,
      "ath": 1515,
      "Ĺ¯": 1516,
      "ĠJe": 1517,
      "ç³": 1518,
      "ç´": 1519,
      "åŁ": 1520,
      "elt": 1521,
      "ä½ĵ": 1522,
      "okay": 1523,
      "Ġhele": 1524,
      "èĪ": 1525,
      "è¿ĺæĺ¯": 1526,
      "gt": 1527,
      "ons": 1528,
      "åĵª": 1529,
      "hed": 1530,
      "éĴ±": 1531,
      "where": 1532,
      "çĽ´": 1533,
      "çī©": 1534,
      "çĻ½": 1535,
      "But": 1536,
      "å¤ĸ": 1537,
      "Ġkle": 1538,
      "inn": 1539,
      "Well": 1540,
      "du": 1541,
      "å¨": 1542,
      "appen": 1543,
      "Ġapp": 1544,
      "Ġgek": 1545,
      "Ġmuch": 1546,
      "ens": 1547,
      "ting": 1548,
      "çī¹": 1549,
      "Ġ4": 1550,
      "able": 1551,
      "æīĢä»¥": 1552,
      "Ġandere": 1553,
      "Ġblij": 1554,
      "Yes": 1555,
      "ady": 1556,
      "ader": 1557,
      "æ´»": 1558,
      "è§£": 1559,
      "Ġdis": 1560,
      "Ġthese": 1561,
      "æĸ°": 1562,
      "ç¦": 1563,
      "Ġdenk": 1564,
      "round": 1565,
      "çĮ": 1566,
      "Ġmag": 1567,
      "æ¬¢": 1568,
      "ving": 1569,
      "there": 1570,
      "çĪ±": 1571,
      "Ġæĺ¯": 1572,
      "åı«": 1573,
      "oud": 1574,
      "fore": 1575,
      "Ġyear": 1576,
      "ory": 1577,
      "Ġsle": 1578,
      "åĸľ": 1579,
      "iff": 1580,
      "ought": 1581,
      "æı": 1582,
      "Ġlong": 1583,
      "Ġdidn": 1584,
      "Ġ201": 1585,
      "Ã©n": 1586,
      "Ġevery": 1587,
      "æľº": 1588,
      "Ġthan": 1589,
      "oorden": 1590,
      "Ġmade": 1591,
      "get": 1592,
      "æŃ»": 1593,
      "Ġcomp": 1594,
      "èĬ±": 1595,
      "inder": 1596,
      "Ġla": 1597,
      "Ġwr": 1598,
      "èĻ": 1599,
      "çļĦäºº": 1600,
      "è°ģ": 1601,
      "Ġnooit": 1602,
      "ont": 1603,
      "Ġheel": 1604,
      "ated": 1605,
      "Ġopen": 1606,
      "å·¥": 1607,
      "ä½į": 1608,
      "ions": 1609,
      "ix": 1610,
      "'d": 1611,
      "Ġinter": 1612,
      "uid": 1613,
      "up": 1614,
      "arl": 1615,
      "Ġshould": 1616,
      "ife": 1617,
      "oog": 1618,
      "All": 1619,
      "kay": 1620,
      "Ġbig": 1621,
      "ische": 1622,
      "voor": 1623,
      "åıĭ": 1624,
      "çİĭ": 1625,
      "Ġå°±": 1626,
      "åĵ¥": 1627,
      "Ġsomething": 1628,
      "Ġelk": 1629,
      "åĩł": 1630,
      "ä¿¡": 1631,
      "å©": 1632,
      "ĠBr": 1633,
      "çľŁçļĦ": 1634,
      "å¸Ī": 1635,
      "Ġgebruik": 1636,
      "Ġ5": 1637,
      "éľ": 1638,
      "day": 1639,
      "Ġtalk": 1640,
      "ä½łçļĦ": 1641,
      "Ġzelf": 1642,
      "zelf": 1643,
      "thing": 1644,
      "èį": 1645,
      "åĪļ": 1646,
      "Ġalles": 1647,
      "Ġverd": 1648,
      "Ġvl": 1649,
      "Ġkijk": 1650,
      "right": 1651,
      "orry": 1652,
      "å®ī": 1653,
      "oet": 1654,
      "ãĢĤ\"": 1655,
      "Ġbecause": 1656,
      "ouw": 1657,
      "ody": 1658,
      "å®Į": 1659,
      "Ġspe": 1660,
      "onden": 1661,
      "ov": 1662,
      "æİ¥": 1663,
      "Ġpol": 1664,
      "é»": 1665,
      "Ġunder": 1666,
      "Ġaway": 1667,
      "å·²ç»ı": 1668,
      "ç¡": 1669,
      "ph": 1670,
      "self": 1671,
      "Ġfe": 1672,
      "open": 1673,
      "ail": 1674,
      "Ġstaat": 1675,
      "æĿ¥äºĨ": 1676,
      "é©¬": 1677,
      "Ġvind": 1678,
      "ç¬¬": 1679,
      "ĠÂ·": 1680,
      "Ġschool": 1681,
      "unt": 1682,
      "å°ĳ": 1683,
      "aby": 1684,
      "æ¶": 1685,
      "å¸¦": 1686,
      ").": 1687,
      "ward": 1688,
      "åĲĪ": 1689,
      "Ġste": 1690,
      "ç¾İ": 1691,
      "tijd": 1692,
      "è¿ĺæľī": 1693,
      "Ġgem": 1694,
      "form": 1695,
      "gel": 1696,
      "Ġwon": 1697,
      "æ¼": 1698,
      "ä¸Ģä¸ĭ": 1699,
      "ember": 1700,
      "åı¯èĥ½": 1701,
      "Ġmean": 1702,
      "Ġmom": 1703,
      "Ġbefore": 1704,
      "Ġreally": 1705,
      "è½¦": 1706,
      "Ġgl": 1707,
      "issch": 1708,
      "Ġzei": 1709,
      "ä½ı": 1710,
      "ä¸įèĥ½": 1711,
      "åŃ©åŃĲ": 1712,
      "Waarom": 1713,
      "éħ": 1714,
      "ĠMar": 1715,
      "Ġrem": 1716,
      "Ġalso": 1717,
      "åĳĬ": 1718,
      "Ġzw": 1719,
      "Ġpers": 1720,
      "woord": 1721,
      "urt": 1722,
      "sl": 1723,
      "çĹ": 1724,
      "ç»ĵ": 1725,
      "arm": 1726,
      "ijf": 1727,
      ":\"": 1728,
      "Ġwent": 1729,
      "Ġlast": 1730,
      "iÃ«": 1731,
      "çĸ": 1732,
      "orgen": 1733,
      "ange": 1734,
      "eep": 1735,
      "Ġgu": 1736,
      "dy": 1737,
      "row": 1738,
      "anna": 1739,
      "ä»Ĭå¤©": 1740,
      "æĽ´": 1741,
      "ãĢģ": 1742,
      "aking": 1743,
      "åıĺ": 1744,
      "åľº": 1745,
      "æĢĿ": 1746,
      "Ġpre": 1747,
      "isschien": 1748,
      "åĪ°äºĨ": 1749,
      "Ġser": 1750,
      "Ġnodig": 1751,
      "vol": 1752,
      "æľĪ": 1753,
      "å§Ĳ": 1754,
      "é¦": 1755,
      "oss": 1756,
      "ors": 1757,
      "ins": 1758,
      "ign": 1759,
      "çĻ¾": 1760,
      "bij": 1761,
      "éĥ½æĺ¯": 1762,
      "éª": 1763,
      "idd": 1764,
      "rough": 1765,
      "Ġkunt": 1766,
      "äºĶ": 1767,
      "ussen": 1768,
      "åĽłä¸º": 1769,
      "eef": 1770,
      "ĠY": 1771,
      "Ġkind": 1772,
      "rek": 1773,
      "Ġbeh": 1774,
      "éĥ¨": 1775,
      "Ġdoing": 1776,
      "åĹ¯": 1777,
      "AN": 1778,
      "Ġeigen": 1779,
      "Ġgebe": 1780,
      "io": 1781,
      "Ġåĵ": 1782,
      "allen": 1783,
      "enn": 1784,
      "Ġthree": 1785,
      "Ġâ": 1786,
      "ĠÃ©": 1787,
      "but": 1788,
      "Ġvrouw": 1789,
      "ç¤": 1790,
      "éĹ¨": 1791,
      "Ġbu": 1792,
      "Ġmay": 1793,
      "å±±": 1794,
      "look": 1795,
      "éĿŀ": 1796,
      "Ġma": 1797,
      "éļ¾": 1798,
      "Ġstart": 1799,
      "Ġask": 1800,
      "rijk": 1801,
      "é¥": 1802,
      "Ġgir": 1803,
      "So": 1804,
      "$$": 1805,
      "ets": 1806,
      "Ġjon": 1807,
      "äº²": 1808,
      "éĶĻ": 1809,
      "igh": 1810,
      "Ġhelp": 1811,
      "ĠIk": 1812,
      "off": 1813,
      "ĠZe": 1814,
      "oem": 1815,
      "Ġ200": 1816,
      "Ġhuis": 1817,
      "èĲ": 1818,
      "Ġnever": 1819,
      "æ»": 1820,
      "red": 1821,
      "ĠYou": 1822,
      "æĢ»": 1823,
      "Ġthose": 1824,
      "oy": 1825,
      "beeld": 1826,
      "Ġnet": 1827,
      "æŃ¤": 1828,
      "Ġthought": 1829,
      "Ġdag": 1830,
      "ederland": 1831,
      "ister": 1832,
      "gr": 1833,
      "amil": 1834,
      "åı£": 1835,
      "è¯·": 1836,
      "Ġverl": 1837,
      "stand": 1838,
      "well": 1839,
      "ĠÃ©Ã©n": 1840,
      "Ġthrough": 1841,
      "Ga": 1842,
      "åĨĽ": 1843,
      "PAR": 1844,
      "uren": 1845,
      "ĠAmer": 1846,
      "Ġhead": 1847,
      "ma": 1848,
      "Ġkeer": 1849,
      "Ġerm": 1850,
      "Ġcame": 1851,
      "ç¨": 1852,
      "ss": 1853,
      "Ġaltijd": 1854,
      "Ġold": 1855,
      "äºĭåĦ¿": 1856,
      "Ġonze": 1857,
      "br": 1858,
      "xt": 1859,
      "port": 1860,
      "éĢļ": 1861,
      "van": 1862,
      "åĬŀ": 1863,
      "Ġmil": 1864,
      "ever": 1865,
      "ĠShe": 1866,
      "ait": 1867,
      "akes": 1868,
      "ful": 1869,
      "oint": 1870,
      "oofd": 1871,
      "Ġbro": 1872,
      "èĢħ": 1873,
      "åĽĽ": 1874,
      "Ġgra": 1875,
      "ious": 1876,
      "æľĭ": 1877,
      "Jij": 1878,
      "ces": 1879,
      "Ġmany": 1880,
      "Ġgreat": 1881,
      "åĵĪ": 1882,
      "Ġthing": 1883,
      "æ·": 1884,
      "Ġnew": 1885,
      "Ġzeggen": 1886,
      "oort": 1887,
      "Ġalle": 1888,
      "Ġweten": 1889,
      "emaal": 1890,
      "ders": 1891,
      "æ¯ı": 1892,
      "Ġachter": 1893,
      "åıĹ": 1894,
      "çľ¼": 1895,
      "Ġstop": 1896,
      "Ġthings": 1897,
      "ieren": 1898,
      "ç²": 1899,
      "ä¸Ģå®ļ": 1900,
      "è·¯": 1901,
      "Ġdoe": 1902,
      "etje": 1903,
      "erk": 1904,
      "Ġbot": 1905,
      "Ġbit": 1906,
      "Ġant": 1907,
      "æľĭåıĭ": 1908,
      "ä¸ļ": 1909,
      "å¤§å®¶": 1910,
      "æħ": 1911,
      "Ġæľī": 1912,
      "atuur": 1913,
      "Ġche": 1914,
      "ä¹Łä¸į": 1915,
      "can": 1916,
      "Ġhome": 1917,
      "Ġå¦": 1918,
      "åĲį": 1919,
      "ĠNederland": 1920,
      "åĬł": 1921,
      "å¹³": 1922,
      "ĠUn": 1923,
      "Ġiemand": 1924,
      "è®¤": 1925,
      "Ġhouse": 1926,
      "ved": 1927,
      "å°Ĩ": 1928,
      "ars": 1929,
      "ĠåĽ": 1930,
      "Ġanother": 1931,
      "åĸľæ¬¢": 1932,
      "Ġå¥½": 1933,
      "Ġmust": 1934,
      "Ġwaren": 1935,
      "åĺĽ": 1936,
      "Ġbaby": 1937,
      "ried": 1938,
      "éĺŁ": 1939,
      "ijden": 1940,
      "kÃ©": 1941,
      "åĴ±": 1942,
      "Ġminut": 1943,
      "Ġtoe": 1944,
      "vel": 1945,
      "Ġelkaar": 1946,
      "åĲĳ": 1947,
      "Ġverk": 1948,
      "Daar": 1949,
      "Ġfind": 1950,
      "Ġstill": 1951,
      "Ġreg": 1952,
      "æĭ¿": 1953,
      "aam": 1954,
      "Ġnum": 1955,
      "Goed": 1956,
      "Ġpres": 1957,
      "Ġnou": 1958,
      "eerd": 1959,
      "ident": 1960,
      "Ġgive": 1961,
      "æĹ¶éĹ´": 1962,
      "ullen": 1963,
      "Ġturn": 1964,
      "Ġtoen": 1965,
      "çł": 1966,
      "Ġdus": 1967,
      "veel": 1968,
      "ç¡®": 1969,
      "ilm": 1970,
      "Ġwanna": 1971,
      "Ġdood": 1972,
      "ende": 1973,
      "è¡¨": 1974,
      "ä¹Łæĺ¯": 1975,
      "ä»»": 1976,
      "å¸®": 1977,
      "esl": 1978,
      "ĠSp": 1979,
      "ç®Ĺ": 1980,
      "Ġdone": 1981,
      "Ġaut": 1982,
      "ç³»": 1983,
      "Ġcalled": 1984,
      "ä¸ĩ": 1985,
      "Ġlaten": 1986,
      "Ġzie": 1987,
      "cent": 1988,
      "Ġniets": 1989,
      "inden": 1990,
      "Ġkinder": 1991,
      "Ġeat": 1992,
      "æĸĩ": 1993,
      "wij": 1994,
      "è®°": 1995,
      "ina": 1996,
      "éĢī": 1997,
      "ä¿Ŀ": 1998,
      "Ġlot": 1999,
      "äºĨä¸Ģ": 2000,
      "åº¦": 2001,
      "les": 2002,
      "let": 2003,
      "geven": 2004,
      "ä»¶": 2005,
      "Ġzegt": 2006,
      "eds": 2007,
      "ubl": 2008,
      "Ġgewoon": 2009,
      "Ġbre": 2010,
      "Ġgeh": 2011,
      "Heb": 2012,
      "ĠHij": 2013,
      "iden": 2014,
      "åħ¶å®ŀ": 2015,
      "Ġversch": 2016,
      "é¸": 2017,
      "Ġshow": 2018,
      "åı¯æĺ¯": 2019,
      "Ġ18": 2020,
      "å£°": 2021,
      "ude": 2022,
      "Ġbook": 2023,
      "org": 2024,
      "Die": 2025,
      "çļĦè¯Ŀ": 2026,
      "Ġcr": 2027,
      "äºĭæĥħ": 2028,
      "ates": 2029,
      "oeg": 2030,
      "amer": 2031,
      "elijke": 2032,
      "çĶ·": 2033,
      "come": 2034,
      "ç®¡": 2035,
      "Ġeerste": 2036,
      "uc": 2037,
      "Ġvast": 2038,
      "Ġits": 2039,
      "çĲĥ": 2040,
      "è±": 2041,
      "Ġ6": 2042,
      "dracht": 2043,
      "Ġfamil": 2044,
      "Ġdiff": 2045,
      "æĹ©": 2046,
      "Ġnee": 2047,
      "Ġres": 2048,
      "å¤Ħ": 2049,
      "å²": 2050,
      "They": 2051,
      "Ġfound": 2052,
      "ical": 2053,
      "unn": 2054,
      "uiten": 2055,
      "gende": 2056,
      "EN": 2057,
      "ually": 2058,
      "æĢ§": 2059,
      "ope": 2060,
      "å¼ł": 2061,
      "ĠWe": 2062,
      "Ġgrote": 2063,
      "isch": 2064,
      "by": 2065,
      "æµ·": 2066,
      "Ġbinnen": 2067,
      "Ġboy": 2068,
      "EX": 2069,
      "ä¸Ģèµ·": 2070,
      "éĵ": 2071,
      "ĠSch": 2072,
      "Ġplaat": 2073,
      "Ġred": 2074,
      "Ġwij": 2075,
      "åĮĸ": 2076,
      "ĠGod": 2077,
      "ĠAl": 2078,
      "Ġhappen": 2079,
      "Ġallemaal": 2080,
      "éĩı": 2081,
      "ib": 2082,
      "Ġåľ¨": 2083,
      "éĤ£ä¹Ī": 2084,
      "eter": 2085,
      "Ġvo": 2086,
      "Ġchild": 2087,
      "ĠEng": 2088,
      "kend": 2089,
      "Ġnight": 2090,
      "Ġmight": 2091,
      "çĪ·": 2092,
      "Ġproble": 2093,
      "ama": 2094,
      "Ġerg": 2095,
      "ç¦»": 2096,
      "æıĲ": 2097,
      "Ġgroot": 2098,
      "bo": 2099,
      "apt": 2100,
      "Ġdoet": 2101,
      "ww": 2102,
      "Ġsamen": 2103,
      "æĴ": 2104,
      "She": 2105,
      "åĶ": 2106,
      "æľĽ": 2107,
      "EXP": 2108,
      "ooi": 2109,
      "uwe": 2110,
      "Ġzitten": 2111,
      "æĳ": 2112,
      "çĽ®": 2113,
      "ç»ĻæĪĳ": 2114,
      "ereen": 2115,
      "ummy": 2116,
      "åĩºæĿ¥": 2117,
      "sel": 2118,
      "pro": 2119,
      "Ġmon": 2120,
      "åĳ½": 2121,
      "åħī": 2122,
      "ĠBe": 2123,
      "æĻļ": 2124,
      "On": 2125,
      "Ġhal": 2126,
      "ents": 2127,
      "atter": 2128,
      "è¯ī": 2129,
      "æ¸ħ": 2130,
      "æĬ¥": 2131,
      "Mijn": 2132,
      "åıį": 2133,
      "æ¢": 2134,
      "imes": 2135,
      "Ġhard": 2136,
      "Ġname": 2137,
      "ä¸İ": 2138,
      "éĩĳ": 2139,
      "ĠAn": 2140,
      "Ġvader": 2141,
      ".'": 2142,
      "æ®": 2143,
      "Ġweek": 2144,
      "åİŁ": 2145,
      "ucht": 2146,
      "Ġfriend": 2147,
      "Ġpap": 2148,
      "ster": 2149,
      "Ġfeel": 2150,
      "oney": 2151,
      "ä¸įä¼ļ": 2152,
      "æ¡Ī": 2153,
      "Ġä½Ĩæĺ¯": 2154,
      "Ġown": 2155,
      "ä¸ľè¥¿": 2156,
      "Ġcount": 2157,
      "Ġrest": 2158,
      "ĠEen": 2159,
      "fr": 2160,
      "ä»ĸçļĦ": 2161,
      "laugh": 2162,
      "éĹ®é¢ĺ": 2163,
      "Ġgeld": 2164,
      "Ġisn": 2165,
      "æĪĺ": 2166,
      "æ°ĳ": 2167,
      "çļĦæĺ¯": 2168,
      "ä½ķ": 2169,
      "çŃĶ": 2170,
      "çħ": 2171,
      "Ġbus": 2172,
      "Ġä¸Ģ": 2173,
      "ç±": 2174,
      "åĳĺ": 2175,
      "Ġlater": 2176,
      "å¦Īå¦Ī": 2177,
      "mhm": 2178,
      "Ġdes": 2179,
      "Ġmost": 2180,
      "oos": 2181,
      "This": 2182,
      "Ġtry": 2183,
      "ä¸ºä»Ģä¹Ī": 2184,
      "Ġkinderen": 2185,
      "å§ĭ": 2186,
      "isten": 2187,
      "è¶Ĭ": 2188,
      "Ġrec": 2189,
      "ple": 2190,
      "æĪĳå°±": 2191,
      ",'": 2192,
      "Ġzoals": 2193,
      "ĠEn": 2194,
      "æĢķ": 2195,
      "Ġvragen": 2196,
      "arn": 2197,
      "Ġmoeder": 2198,
      "åºĶè¯¥": 2199,
      "Ġyears": 2200,
      "Ġbeing": 2201,
      "Ġied": 2202,
      "Ġplace": 2203,
      "ĠThey": 2204,
      "aard": 2205,
      "body": 2206,
      "Niet": 2207,
      "å¥½çļĦ": 2208,
      "There": 2209,
      "çª": 2210,
      "Ġcomm": 2211,
      "Ġmoment": 2212,
      "åħ«": 2213,
      "æķħ": 2214,
      "Laat": 2215,
      "ijt": 2216,
      "Ġwereld": 2217,
      "Ġbetter": 2218,
      "æ£": 2219,
      "Ġgirl": 2220,
      "çı": 2221,
      "å¢": 2222,
      "000": 2223,
      "Ġgedaan": 2224,
      "æĲ": 2225,
      "gelijk": 2226,
      "Ġå¯": 2227,
      "ä»£": 2228,
      "emen": 2229,
      "ä¸ĸ": 2230,
      "ms": 2231,
      "Ġfin": 2232,
      "Ġå°ı": 2233,
      "åħ¥": 2234,
      "ition": 2235,
      "ä½łè¯´": 2236,
      "ä¸ŃåĽ½": 2237,
      "IS": 2238,
      "äº¤": 2239,
      "ĠWh": 2240,
      "ĠAnd": 2241,
      "Zo": 2242,
      "é£İ": 2243,
      "Ġcour": 2244,
      "Ġuw": 2245,
      "ç¼": 2246,
      "éŁ": 2247,
      "Ġdrie": 2248,
      "Ġvraag": 2249,
      "Ġlig": 2250,
      "Ġaround": 2251,
      "oeken": 2252,
      "Ġdra": 2253,
      "Ġå°±æĺ¯": 2254,
      "pe": 2255,
      "çİ©": 2256,
      "Ġused": 2257,
      "Ġja": 2258,
      "outh": 2259,
      "maal": 2260,
      "Ġstaan": 2261,
      "side": 2262,
      "Ġmeest": 2263,
      "aart": 2264,
      "èµ·æĿ¥": 2265,
      "Ġprob": 2266,
      "rijf": 2267,
      "ĠçĦ¶åĲİ": 2268,
      "Ġplan": 2269,
      "so": 2270,
      "oten": 2271,
      "20": 2272,
      "ited": 2273,
      "éĢģ": 2274,
      "ift": 2275,
      "ieve": 2276,
      "Ġsit": 2277,
      "Ġsuch": 2278,
      "uister": 2279,
      "Ġhoofd": 2280,
      "iel": 2281,
      "Ġ7": 2282,
      "æ¥": 2283,
      "æĿ¡": 2284,
      "Ġsupp": 2285,
      "åĳĬè¯ī": 2286,
      "ations": 2287,
      "åĨħ": 2288,
      "Ġrel": 2289,
      "ĠLe": 2290,
      "Ġbez": 2291,
      "å½±": 2292,
      "æĪ¿": 2293,
      "å¤Ł": 2294,
      "ä¹Ĳ": 2295,
      "Op": 2296,
      "Ġging": 2297,
      "Ġvinden": 2298,
      "Ġend": 2299,
      "val": 2300,
      "Ġå¦Ĥ": 2301,
      "Ġlife": 2302,
      "AD": 2303,
      "Ġvriend": 2304,
      "èī²": 2305,
      "Voor": 2306,
      "è£": 2307,
      "Ġru": 2308,
      "Ġä½łä»¬": 2309,
      "Ġfilm": 2310,
      "ames": 2311,
      "ways": 2312,
      "è¿ĳ": 2313,
      "ince": 2314,
      "Ġwillen": 2315,
      "äº§": 2316,
      "å¨ĺ": 2317,
      "Ġè¿Ļä¸ª": 2318,
      "Ġtussen": 2319,
      "ĠæīĢä»¥": 2320,
      "erg": 2321,
      "Ġfour": 2322,
      "ĠEr": 2323,
      "ĠAr": 2324,
      "ä»¥åĲİ": 2325,
      "Wie": 2326,
      "Ġju": 2327,
      "æľį": 2328,
      "ohn": 2329,
      "hes": 2330,
      "Ġkeep": 2331,
      "å¾Īå¤ļ": 2332,
      "ps": 2333,
      "ial": 2334,
      "Ġsame": 2335,
      "çĨ": 2336,
      "ĠGr": 2337,
      "ruk": 2338,
      "ä¸Ķ": 2339,
      "è¿ĻäºĽ": 2340,
      "Ġsnel": 2341,
      "è®²": 2342,
      "Ġwie": 2343,
      "Ġsteeds": 2344,
      "addy": 2345,
      "Ġpolit": 2346,
      "ters": 2347,
      "å¼Ł": 2348,
      "this": 2349,
      "Ġå¯¹": 2350,
      "\".": 2351,
      "),": 2352,
      "Ġlove": 2353,
      "kom": 2354,
      "med": 2355,
      "è°¢è°¢": 2356,
      "ä¹°": 2357,
      "aw": 2358,
      "Ġwhy": 2359,
      "Ġanders": 2360,
      "ves": 2361,
      "ä¸Ģæł·": 2362,
      "æľŁ": 2363,
      "Ġnice": 2364,
      "åı¸": 2365,
      "ç»Ļä½ł": 2366,
      "ced": 2367,
      "vent": 2368,
      "oun": 2369,
      "ä¸ĢçĤ¹": 2370,
      "Ġverh": 2371,
      "ern": 2372,
      "æĮº": 2373,
      "Ġzij": 2374,
      "äººçļĦ": 2375,
      "rist": 2376,
      "Ġelse": 2377,
      "å»": 2378,
      "å®³": 2379,
      "èİ": 2380,
      "è¿ľ": 2381,
      "oes": 2382,
      "anden": 2383,
      "åĳĥ": 2384,
      "Ġatt": 2385,
      "Ġvolgende": 2386,
      "ç¥ŀ": 2387,
      "çī¹åĪ«": 2388,
      "Ġwilde": 2389,
      "ĠåĴ": 2390,
      "Kijk": 2391,
      "æķĻ": 2392,
      "èĩªå·±çļĦ": 2393,
      "Dan": 2394,
      "How": 2395,
      "Ġ8": 2396,
      "ĠPr": 2397,
      "room": 2398,
      ".]": 2399,
      "ĠAls": 2400,
      "Ġcol": 2401,
      "Ġnext": 2402,
      "eek": 2403,
      "åºķ": 2404,
      "If": 2405,
      "Ġten": 2406,
      "Ġdoesn": 2407,
      "çĪ¶": 2408,
      "Ġomdat": 2409,
      "ä¸¤ä¸ª": 2410,
      "ä¿©": 2411,
      "Ġve": 2412,
      "èĢĥ": 2413,
      "å¼º": 2414,
      "omm": 2415,
      "ä¹Ŀ": 2416,
      "ork": 2417,
      "Ġlie": 2418,
      "ctor": 2419,
      "Ġnieuwe": 2420,
      "Ġsche": 2421,
      "ird": 2422,
      "æķ°": 2423,
      "éĿŀå¸¸": 2424,
      "Ġpop": 2425,
      "ower": 2426,
      "ĠDat": 2427,
      "Ġpar": 2428,
      "Ġnaam": 2429,
      "Ġinform": 2430,
      "Ġsy": 2431,
      "åĪ©": 2432,
      "æ±Ĥ": 2433,
      "å¾Ģ": 2434,
      "Ġjouw": 2435,
      "Ġmar": 2436,
      "Ġbesch": 2437,
      "mm": 2438,
      "æĶ¶": 2439,
      "æ¼Ķ": 2440,
      "é£ŀ": 2441,
      "Ġwhile": 2442,
      "è·ĳ": 2443,
      "Ġmed": 2444,
      "aag": 2445,
      "å¼Ģå§ĭ": 2446,
      "ta": 2447,
      "they": 2448,
      "OkÃ©": 2449,
      "ash": 2450,
      "è¿ŀ": 2451,
      "ject": 2452,
      "Ġsur": 2453,
      "bs": 2454,
      "æł¹": 2455,
      "Ġco": 2456,
      "å©ļ": 2457,
      "part": 2458,
      "aad": 2459,
      "laughs": 2460,
      "è¿Ļæĺ¯": 2461,
      "Ġhoor": 2462,
      "now": 2463,
      "Ġbeter": 2464,
      "åŁİ": 2465,
      "çĬ": 2466,
      "Ġstand": 2467,
      "ä¹¦": 2468,
      "nee": 2469,
      "arly": 2470,
      "eng": 2471,
      "éľĢ": 2472,
      "erm": 2473,
      "Ġ10": 2474,
      "é¼": 2475,
      "Ġhalf": 2476,
      "ä¾¿": 2477,
      "vo": 2478,
      "çĹħ": 2479,
      "Ġac": 2480,
      "Ġanything": 2481,
      "ĠIs": 2482,
      "ese": 2483,
      "ç©º": 2484,
      "ican": 2485,
      "Ġbelang": 2486,
      "Ġsays": 2487,
      "Ġball": 2488,
      "çº¢": 2489,
      "Ġph": 2490,
      "Ġokay": 2491,
      "Ġliv": 2492,
      "Ġdacht": 2493,
      "é¥Ń": 2494,
      "its": 2495,
      "iks": 2496,
      "æŀĹ": 2497,
      "alt": 2498,
      "Ġmoest": 2499,
      "uss": 2500,
      "Weet": 2501,
      "she": 2502,
      "åĩĨ": 2503,
      "åħŃ": 2504,
      "Ġid": 2505,
      "çħ§": 2506,
      "ole": 2507,
      "MA": 2508,
      "Ġuse": 2509,
      "Ġleuk": 2510,
      "gest": 2511,
      "Ġacc": 2512,
      "å¥½äºĨ": 2513,
      "Ġåĵİ": 2514,
      "vis": 2515,
      "ĠèĢĮ": 2516,
      "ĠâĢ": 2517,
      "Ġalways": 2518,
      "ĠSh": 2519,
      "Ġwind": 2520,
      "ield": 2521,
      "ç¬ĳ": 2522,
      "aur": 2523,
      "Ġem": 2524,
      "Ġmaak": 2525,
      "è·ŁæĪĳ": 2526,
      "Ġperson": 2527,
      "è®¡": 2528,
      "Ġleft": 2529,
      "Ġsure": 2530,
      "Ġcent": 2531,
      "Ġå¦Ĥæŀľ": 2532,
      "komen": 2533,
      "Al": 2534,
      "ä¸įçŁ¥éģĵ": 2535,
      "put": 2536,
      "ream": 2537,
      "Ġstad": 2538,
      "not": 2539,
      "åİ»äºĨ": 2540,
      "Ġroom": 2541,
      "Ġset": 2542,
      "åĪ¶": 2543,
      "åľ¨è¿Ļ": 2544,
      "Ġkijken": 2545,
      "ĠWat": 2546,
      "éĻ¢": 2547,
      "Ġleg": 2548,
      "Ġkrijgen": 2549,
      "æģ¯": 2550,
      "Ġvrij": 2551,
      "any": 2552,
      "Ġstra": 2553,
      "ĠBut": 2554,
      "å¤«": 2555,
      "zo": 2556,
      "ç´§": 2557,
      "Ġgone": 2558,
      "akken": 2559,
      "å¸Ĥ": 2560,
      "Ġuur": 2561,
      "Ġcle": 2562,
      "oman": 2563,
      "aut": 2564,
      "Ġyeah": 2565,
      "Ġsaw": 2566,
      "Ġcat": 2567,
      "ä¸ºäºĨ": 2568,
      "Ġfather": 2569,
      "ouden": 2570,
      "æľīä¸Ģ": 2571,
      "Ġtold": 2572,
      "Ġgemaakt": 2573,
      "çľĭçľĭ": 2574,
      "èĽ": 2575,
      "åĲĦ": 2576,
      "Wil": 2577,
      "Ġsk": 2578,
      "roeg": 2579,
      "erent": 2580,
      "Ġprodu": 2581,
      "etten": 2582,
      "Hier": 2583,
      "Ġkwam": 2584,
      "ä¸įè¦ģ": 2585,
      "Ġdog": 2586,
      "Ġziet": 2587,
      "log": 2588,
      "led": 2589,
      "ieft": 2590,
      "ots": 2591,
      "Ġbad": 2592,
      "ä¼ł": 2593,
      "Ġzeker": 2594,
      "reen": 2595,
      "ĠOp": 2596,
      "Ġcons": 2597,
      "Ġtru": 2598,
      "reek": 2599,
      "Ġwacht": 2600,
      "çķĻ": 2601,
      "çļĦä¸Ģ": 2602,
      "Ġmaakt": 2603,
      "ween": 2604,
      "Ġret": 2605,
      "è¿Ļç§į": 2606,
      "åĴ±ä»¬": 2607,
      "æĦıæĢĿ": 2608,
      "çĶ±": 2609,
      "Ġeten": 2610,
      "eb": 2611,
      "ence": 2612,
      "çģ«": 2613,
      "å¤ĩ": 2614,
      "Ġè¦ģ": 2615,
      "Ġopdracht": 2616,
      "åĨ³": 2617,
      "iteit": 2618,
      "Ġgeven": 2619,
      "assen": 2620,
      "die": 2621,
      "å®Ŀ": 2622,
      "arr": 2623,
      "å·¥ä½ľ": 2624,
      "æµģ": 2625,
      "cy": 2626,
      "Ġå¥¹": 2627,
      "eling": 2628,
      "åĸĿ": 2629,
      "èĬĤ": 2630,
      "æŁ¥": 2631,
      "Ch": 2632,
      "ç«ĭ": 2633,
      "Ġgezien": 2634,
      "ational": 2635,
      "æļ": 2636,
      "¿½": 2637,
      "chten": 2638,
      "èħ": 2639,
      "æķ´": 2640,
      "Ġtre": 2641,
      "Ġverm": 2642,
      "ä¸ĥ": 2643,
      "ĠNew": 2644,
      "Ġform": 2645,
      "Ġä¹Ł": 2646,
      "ede": 2647,
      "Ġpaar": 2648,
      "åıĳçİ°": 2649,
      "atuurlijk": 2650,
      "Mm": 2651,
      "Ġmis": 2652,
      "Ġå¤§": 2653,
      "ĠåĽł": 2654,
      "uff": 2655,
      "Ġbelangrijk": 2656,
      "ijkt": 2657,
      "Ġverb": 2658,
      "fect": 2659,
      "åĿĹ": 2660,
      "Ġmother": 2661,
      "ai": 2662,
      "Ġke": 2663,
      "ped": 2664,
      "Ġreal": 2665,
      "Ġind": 2666,
      "Ġpoint": 2667,
      "Ġgoede": 2668,
      "Dus": 2669,
      "åķ¦": 2670,
      "å¿ħ": 2671,
      "èµ¶": 2672,
      "Ġpass": 2673,
      "ton": 2674,
      "èı": 2675,
      "Ġ199": 2676,
      "å¤§çļĦ": 2677,
      "Ġmoney": 2678,
      "Ġdec": 2679,
      "Ġhelemaal": 2680,
      "ä¼¤": 2681,
      "ï¿½": 2682,
      "orning": 2683,
      "Why": 2684,
      "vl": 2685,
      "Ġfig": 2686,
      "çķĮ": 2687,
      "ged": 2688,
      "Ġvis": 2689,
      "\",": 2690,
      "Ġgest": 2691,
      "aps": 2692,
      "å¤±": 2693,
      "é¡¹": 2694,
      "til": 2695,
      "Ġbedoel": 2696,
      "Ġyes": 2697,
      "Ġcoming": 2698,
      "çĶŁæ´»": 2699,
      "è®¸": 2700,
      "èĢģå¸Ī": 2701,
      "ĠæĢİä¹Ī": 2702,
      "Ġenough": 2703,
      "Ben": 2704,
      "Ġdire": 2705,
      "rew": 2706,
      "é¾": 2707,
      "olog": 2708,
      "cies": 2709,
      "Ġtele": 2710,
      "å®¹": 2711,
      "Ġå½": 2712,
      "æ¯į": 2713,
      "Don": 2714,
      "Ã¨": 2715,
      "åĮ»": 2716,
      "Ġquite": 2717,
      "Ġdist": 2718,
      "iding": 2719,
      "Ġtook": 2720,
      "ush": 2721,
      "Ġmeis": 2722,
      "19": 2723,
      "ä¸ĢçĽ´": 2724,
      "åįĥ": 2725,
      "geb": 2726,
      "Ġread": 2727,
      "è¯Ĩ": 2728,
      "æĪĸ": 2729,
      "how": 2730,
      "Ġwilt": 2731,
      "baar": 2732,
      "ness": 2733,
      "Ġ9": 2734,
      "orth": 2735,
      "Ġsw": 2736,
      "ĠBl": 2737,
      "An": 2738,
      "who": 2739,
      "Ġbas": 2740,
      "è¯ģ": 2741,
      "ĠMaar": 2742,
      "Ġfive": 2743,
      "ellow": 2744,
      "ĠâĢ¢": 2745,
      "izen": 2746,
      "eeft": 2747,
      "èĮ": 2748,
      "åĿĲ": 2749,
      "Nu": 2750,
      "GMA": 2751,
      "åı¥": 2752,
      "uring": 2753,
      "Ġcourse": 2754,
      "æĿ¥çļĦ": 2755,
      "Ġstud": 2756,
      "åŃĹ": 2757,
      "åĮħ": 2758,
      "ollow": 2759,
      "door": 2760,
      "Ġkill": 2761,
      "eth": 2762,
      "èµĦ": 2763,
      "Ġvand": 2764,
      "cept": 2765,
      "ium": 2766,
      "Ġhouden": 2767,
      "æĮģ": 2768,
      "Ġeerst": 2769,
      "èµ°äºĨ": 2770,
      "Ġzullen": 2771,
      "Now": 2772,
      "Ġster": 2773,
      "ä¹ĭåĲİ": 2774,
      "Ġdingen": 2775,
      "aring": 2776,
      "gaan": 2777,
      "Ġplaats": 2778,
      "çĿ¡": 2779,
      "äº®": 2780,
      "ĠThis": 2781,
      "Wel": 2782,
      "Ġbuiten": 2783,
      "è¿Ĳ": 2784,
      "æĿĢ": 2785,
      "éŁ³": 2786,
      "Ġfar": 2787,
      "ç¢": 2788,
      "az": 2789,
      "Ġbloed": 2790,
      "åįķ": 2791,
      "çīĩ": 2792,
      "è½»": 2793,
      "æħ¢": 2794,
      "Ġcare": 2795,
      "åı·": 2796,
      "è¾ĥ": 2797,
      "ä¸įå¥½": 2798,
      "çľĭåĪ°": 2799,
      "èĤ¯": 2800,
      "Ġwalk": 2801,
      "åħ³ç³»": 2802,
      "anneer": 2803,
      "åĮĹ": 2804,
      "ross": 2805,
      "ĠæĤ¨": 2806,
      "ĠåĽłä¸º": 2807,
      "don": 2808,
      "ract": 2809,
      "Ġplease": 2810,
      "ids": 2811,
      "Do": 2812,
      "æ»¡": 2813,
      "Ġverschill": 2814,
      "æĮĩ": 2815,
      "Om": 2816,
      "Ġwait": 2817,
      "ĠJohn": 2818,
      "Ġaant": 2819,
      "uld": 2820,
      "éľĢè¦ģ": 2821,
      "å¹¶": 2822,
      "ron": 2823,
      "Ġass": 2824,
      "æį®": 2825,
      "Be": 2826,
      "ĠåĨ": 2827,
      "ling": 2828,
      "Ġmorning": 2829,
      "åħ´": 2830,
      "huh": 2831,
      "ä½¿": 2832,
      "att": 2833,
      "æĺ¯ä¸įæĺ¯": 2834,
      "Ġniks": 2835,
      "Ġdifferent": 2836,
      "ĠDit": 2837,
      "Ġside": 2838,
      "ished": 2839,
      "ible": 2840,
      "Ver": 2841,
      "Ġtop": 2842,
      "Ġ15": 2843,
      "Ġseen": 2844,
      "ider": 2845,
      "Ġblijven": 2846,
      "Sorry": 2847,
      "Ġthough": 2848,
      "Ġsing": 2849,
      "Ġtrain": 2850,
      "ikk": 2851,
      "Ġhelpen": 2852,
      "Ġfew": 2853,
      "Ġbev": 2854,
      "Ġbeetje": 2855,
      "Ġuntil": 2856,
      "go": 2857,
      "åĵİ": 2858,
      "Ġklaar": 2859,
      "å¦Ĥæŀľ": 2860,
      "ĠEur": 2861,
      "ivers": 2862,
      "Ġart": 2863,
      "åħ±": 2864,
      "Ġoor": 2865,
      "Ġden": 2866,
      "éħĴ": 2867,
      "ä¸Ģæ¬¡": 2868,
      "Ġåį": 2869,
      "ankt": 2870,
      "Ġsecond": 2871,
      "Ġwaarom": 2872,
      "æĭľ": 2873,
      "Ġhaven": 2874,
      "ĠOn": 2875,
      "wat": 2876,
      "ics": 2877,
      "ç¨ĭ": 2878,
      "Ġlief": 2879,
      "æĦ¿": 2880,
      "Ġeind": 2881,
      "Ġgoes": 2882,
      "ony": 2883,
      "æĺŁ": 2884,
      "Ġbetween": 2885,
      "Ġface": 2886,
      "åĵģ": 2887,
      "Ġlooks": 2888,
      "Ġround": 2889,
      "Ġsmall": 2890,
      "æ¶Ī": 2891,
      "Ġmoe": 2892,
      "waar": 2893,
      "Ġsix": 2894,
      "Ġeyes": 2895,
      "Misschien": 2896,
      "ĠAll": 2897,
      "è°ĥ": 2898,
      "Ġteam": 2899,
      "è½¬": 2900,
      "Ġgewe": 2901,
      "Ġexc": 2902,
      "ye": 2903,
      "ĠDaar": 2904,
      "åĳ¨": 2905,
      "angen": 2906,
      "Ġsleep": 2907,
      "ries": 2908,
      "Ġgenoeg": 2909,
      "Ġasked": 2910,
      "Ġgesch": 2911,
      "å¥¶": 2912,
      "Ġpie": 2913,
      "ane": 2914,
      "vie": 2915,
      "æłĳ": 2916,
      "Ġè¿ĺ": 2917,
      "Ġzonder": 2918,
      "gether": 2919,
      "è®©æĪĳ": 2920,
      "Let": 2921,
      "Ġtogether": 2922,
      "Ġlight": 2923,
      "Ġhold": 2924,
      "åķ¥": 2925,
      "Ġlaatste": 2926,
      "cle": 2927,
      "ball": 2928,
      "aster": 2929,
      "Ġiedereen": 2930,
      "Ġæ²¡": 2931,
      "èĩ³": 2932,
      "aden": 2933,
      "ĠInd": 2934,
      "Ġrecht": 2935,
      "Ġworld": 2936,
      "Ġknown": 2937,
      "æĭī": 2938,
      "Ġkant": 2939,
      "Ġeach": 2940,
      "Ġspr": 2941,
      "æĿİ": 2942,
      "Ġverg": 2943,
      "Ġfun": 2944,
      "Ġvoel": 2945,
      "äºĨæĪĳ": 2946,
      "åı°": 2947,
      "ction": 2948,
      "allo": 2949,
      "RO": 2950,
      "åįĬ": 2951,
      "apen": 2952,
      "Ġauto": 2953,
      "Mr": 2954,
      "åĬ¡": 2955,
      "Ġnothing": 2956,
      "Ġjongen": 2957,
      "Ġnieuw": 2958,
      "æº": 2959,
      "Ġgebeur": 2960,
      "åľ°æĸ¹": 2961,
      "Ġdoll": 2962,
      "Ġverand": 2963,
      "ustr": 2964,
      "une": 2965,
      "åĽŀæĿ¥": 2966,
      "Ġremember": 2967,
      "Ġnam": 2968,
      "Ġlooking": 2969,
      "Ġsort": 2970,
      "åįĹ": 2971,
      "ips": 2972,
      "ax": 2973,
      "Ġä½Ĩ": 2974,
      "Ġinst": 2975,
      "è±¡": 2976,
      "Ġnumber": 2977,
      "è¦ģæĺ¯": 2978,
      "cial": 2979,
      "æĶ¹": 2980,
      "wo": 2981,
      "å»º": 2982,
      "Ġdisc": 2983,
      "ants": 2984,
      "éĽ¶": 2985,
      "ures": 2986,
      "Ġstuk": 2987,
      "éĿĴ": 2988,
      "çº¿": 2989,
      "zelfde": 2990,
      "ĠQ": 2991,
      "æĢ¥": 2992,
      "Ġken": 2993,
      "çĪ¸çĪ¸": 2994,
      "tje": 2995,
      "ä½łå¥½": 2996,
      "ĠWhat": 2997,
      "æ®µ": 2998,
      "Ġverder": 2999,
      "ably": 3000,
      "SIS": 3001,
      "ung": 3002,
      "æĺĵ": 3003,
      "Ġslecht": 3004,
      "Ġsorry": 3005,
      "ily": 3006,
      "ulp": 3007,
      "Ġåıª": 3008,
      "Ġbang": 3009,
      "Ġå½ĵ": 3010,
      "åĨµ": 3011,
      "æ¸¸": 3012,
      "å¯¼": 3013,
      "éĩĮéĿ¢": 3014,
      "Ã¯": 3015,
      "elde": 3016,
      "Ġbox": 3017,
      "æĪĳæĺ¯": 3018,
      "æĦŁè§ī": 3019,
      "Ġgeweest": 3020,
      "Ġboven": 3021,
      "Come": 3022,
      "Ġboth": 3023,
      "Ġide": 3024,
      "ç«Ļ": 3025,
      "nie": 3026,
      "èµĽ": 3027,
      "ĠRe": 3028,
      "omas": 3029,
      "ape": 3030,
      "Ġstay": 3031,
      "Ġvier": 3032,
      "Ġpraten": 3033,
      "use": 3034,
      "aas": 3035,
      "äºĨåĲĹ": 3036,
      "ught": 3037,
      "Ġhot": 3038,
      "Ġyoung": 3039,
      "Ġtek": 3040,
      "Bl": 3041,
      "Ġhear": 3042,
      "Ġsound": 3043,
      "Ġdeel": 3044,
      "ica": 3045,
      "ating": 3046,
      "Ġint": 3047,
      "å±ķ": 3048,
      "why": 3049,
      "Ġçİ°åľ¨": 3050,
      "Ġfoot": 3051,
      "Geef": 3052,
      "rijven": 3053,
      "ĠWill": 3054,
      "Ġmiss": 3055,
      "Ġfire": 3056,
      "å¿Ļ": 3057,
      "Ġmisschien": 3058,
      "ç¿": 3059,
      "Ġspijt": 3060,
      "Ġyet": 3061,
      "Ġlar": 3062,
      "Ġtoday": 3063,
      "æĶ¿": 3064,
      "Doe": 3065,
      "auw": 3066,
      "ĮæľĽ": 3067,
      "oit": 3068,
      "mp": 3069,
      "ley": 3070,
      "æķĳ": 3071,
      "Ġdrink": 3072,
      "Ġfollow": 3073,
      "ement": 3074,
      "Ġgetting": 3075,
      "æŃ¥": 3076,
      "ason": 3077,
      "Ġsla": 3078,
      "æķ¢": 3079,
      "æĪĳè§īå¾Ĺ": 3080,
      "par": 3081,
      "Ġrun": 3082,
      "Geen": 3083,
      "Nou": 3084,
      "Ġantwoord": 3085,
      "é»Ħ": 3086,
      "Ġbec": 3087,
      "ual": 3088,
      "åĨĻ": 3089,
      "è§Ĥ": 3090,
      "ç½ĳ": 3091,
      "ennis": 3092,
      "Ġvroeg": 3093,
      "ired": 3094,
      "?'": 3095,
      "aald": 3096,
      "Ġè¿Ļæĺ¯": 3097,
      "Dank": 3098,
      "omme": 3099,
      "Hey": 3100,
      "mber": 3101,
      "Ġwist": 3102,
      "æīĢæľī": 3103,
      "Ġkleine": 3104,
      "ä¹ī": 3105,
      "Ġdri": 3106,
      "ĠåĴ±": 3107,
      "åħĦ": 3108,
      "åĢĴ": 3109,
      "ĠChrist": 3110,
      "Ġhor": 3111,
      "Ġonce": 3112,
      "ĠHoe": 3113,
      "å®ĺ": 3114,
      "Ġum": 3115,
      "é»ĳ": 3116,
      "åķĨ": 3117,
      "ific": 3118,
      "Ġhadden": 3119,
      "wel": 3120,
      "werk": 3121,
      "æ³¨": 3122,
      "éļı": 3123,
      "åĮº": 3124,
      "ump": 3125,
      "reken": 3126,
      "å¥½å¥½": 3127,
      "anks": 3128,
      "Ġè¯´": 3129,
      "é±": 3130,
      "Ġä½łè¯´": 3131,
      "Ġans": 3132,
      "çŀ": 3133,
      "ĠèĢģ": 3134,
      "é±¼": 3135,
      "Ġwonder": 3136,
      "è¯ķ": 3137,
      "ĠGe": 3138,
      "ĨĴ": 3139,
      "Ġwoorden": 3140,
      "èĤ¯å®ļ": 3141,
      "Ġwithout": 3142,
      "FATHER": 3143,
      "Bed": 3144,
      "å¦¹": 3145,
      "è¨": 3146,
      "avond": 3147,
      "æ·±": 3148,
      "å¼ı": 3149,
      "ijna": 3150,
      "ä¸ĭæĿ¥": 3151,
      "Ġmind": 3152,
      "Ġext": 3153,
      "Ġinformatie": 3154,
      "çĥŃ": 3155,
      "åĵĪåĵĪ": 3156,
      "Ġsoon": 3157,
      "Ġbeste": 3158,
      "Ġheen": 3159,
      "Ġpresent": 3160,
      "æİĴ": 3161,
      "Met": 3162,
      "Ġvaak": 3163,
      "è§Ĩ": 3164,
      "ines": 3165,
      "Le": 3166,
      "ĠThere": 3167,
      "Ġ198": 3168,
      "Ġheet": 3169,
      "ç²¾": 3170,
      "Ġgraag": 3171,
      "Ġing": 3172,
      "éĺ¿": 3173,
      "uz": 3174,
      "æł¼": 3175,
      "enen": 3176,
      "Ġpick": 3177,
      "è¨Ģ": 3178,
      "æĩ": 3179,
      "oto": 3180,
      "Ġgener": 3181,
      "My": 3182,
      "etty": 3183,
      "Ġidee": 3184,
      "Ġä»ĸä»¬": 3185,
      "inner": 3186,
      "åĬŁ": 3187,
      "ĠBij": 3188,
      "å¾ħ": 3189,
      "Ġverschillende": 3190,
      "zeg": 3191,
      "did": 3192,
      "Wacht": 3193,
      "Ġair": 3194,
      "ress": 3195,
      "oven": 3196,
      "Ġger": 3197,
      "Hou": 3198,
      "ĠFrank": 3199,
      "ĠMe": 3200,
      "Ġhands": 3201,
      "Ġhaving": 3202,
      "zoek": 3203,
      "éĺ³": 3204,
      "ept": 3205,
      "ient": 3206,
      "osed": 3207,
      "Okay": 3208,
      "iam": 3209,
      "ç§ĳ": 3210,
      "ĠVoor": 3211,
      "ats": 3212,
      "æĢª": 3213,
      "urg": 3214,
      "Ġmove": 3215,
      "æİī": 3216,
      "ijdens": 3217,
      "Ġhigh": 3218,
      "äººå®¶": 3219,
      "Ġoh": 3220,
      "schap": 3221,
      "Ġgebruikt": 3222,
      "èĲ½": 3223,
      "ijs": 3224,
      "Ġbere": 3225,
      "åĭ": 3226,
      "Of": 3227,
      "å«": 3228,
      "Ġhoud": 3229,
      "è¿ĩæĿ¥": 3230,
      "ches": 3231,
      "Ġheard": 3232,
      "Ġcut": 3233,
      "åħĪçĶŁ": 3234,
      "Ġå¿": 3235,
      "Ġligt": 3236,
      "ks": 3237,
      "elling": 3238,
      "fta": 3239,
      "åħ¬åı¸": 3240,
      "æľ¯": 3241,
      "Ġsign": 3242,
      "èģĶ": 3243,
      "ows": 3244,
      "Ġtalking": 3245,
      "èĭ¦": 3246,
      "ç»Ī": 3247,
      "Sch": 3248,
      "erde": 3249,
      "Ġber": 3250,
      "Ġneem": 3251,
      "Ġleave": 3252,
      "Âł": 3253,
      "Ġdear": 3254,
      "woorden": 3255,
      "ages": 3256,
      "ä¸ĬçļĦ": 3257,
      "uil": 3258,
      "Ġwanted": 3259,
      "Ġupon": 3260,
      "ĠAs": 3261,
      "kken": 3262,
      "åıĸ": 3263,
      "å¤į": 3264,
      "Ġanim": 3265,
      "Ġshall": 3266,
      "akk": 3267,
      "leg": 3268,
      "Ġrond": 3269,
      "gan": 3270,
      "Ġmatter": 3271,
      "inc": 3272,
      "éĥ½ä¸į": 3273,
      "Ġgeluk": 3274,
      "stof": 3275,
      "fl": 3276,
      "å¿Ĺ": 3277,
      "Ġhimself": 3278,
      "ä¹ħ": 3279,
      "éº": 3280,
      "Ġboek": 3281,
      "è´¨": 3282,
      "æľīä»Ģä¹Ī": 3283,
      "çıŃ": 3284,
      "Ġmus": 3285,
      "Ġagainst": 3286,
      "Not": 3287,
      "Ġwerden": 3288,
      "ä¹ĭåīį": 3289,
      "Ġkoning": 3290,
      "Ġthuis": 3291,
      "åł": 3292,
      "èģĬ": 3293,
      "Ġboys": 3294,
      "onnen": 3295,
      "å½¢": 3296,
      "Ġwatch": 3297,
      "äºĨä½ł": 3298,
      "ĠNo": 3299,
      "Ġchildren": 3300,
      "è¾¾": 3301,
      "Ġtekst": 3302,
      "mb": 3303,
      "Ġincl": 3304,
      "å²ģ": 3305,
      "anger": 3306,
      "Ġdu": 3307,
      "Ġzorgen": 3308,
      "Ġdicht": 3309,
      "Ġob": 3310,
      "weg": 3311,
      "ĠåķĬ": 3312,
      "é¦ĸ": 3313,
      "Ġsir": 3314,
      "ä¸Ģä¸ªäºº": 3315,
      "Ġcoll": 3316,
      "ready": 3317,
      "itch": 3318,
      "HE": 3319,
      "åĤ": 3320,
      "ett": 3321,
      "Ġnat": 3322,
      "æľĢåĲİ": 3323,
      "Ġmooi": 3324,
      "Ġbew": 3325,
      "æŃĮ": 3326,
      "Ġelke": 3327,
      "çļĩ": 3328,
      "urs": 3329,
      "ched": 3330,
      "Ġå¹": 3331,
      "jebl": 3332,
      "con": 3333,
      "ison": 3334,
      "Ġdays": 3335,
      "ĠOok": 3336,
      "Ġnear": 3337,
      "Ġoffic": 3338,
      "het": 3339,
      "ä¸ĢäºĽ": 3340,
      "ijken": 3341,
      "èŃ": 3342,
      "ular": 3343,
      "Ġdro": 3344,
      "Ġnemen": 3345,
      "kker": 3346,
      "ities": 3347,
      "Ġlive": 3348,
      "ĠDeze": 3349,
      "è¡£": 3350,
      "æĪĳä»¬çļĦ": 3351,
      "Ġanswer": 3352,
      "Ġgeeft": 3353,
      "Ġ12": 3354,
      "Ġvertellen": 3355,
      "oth": 3356,
      "Ġsim": 3357,
      "Ġgeweld": 3358,
      "ä¸ĸçķĮ": 3359,
      "Ġklein": 3360,
      "Ġhafta": 3361,
      "Ġaantal": 3362,
      "Ġvlie": 3363,
      "Ġkrijgt": 3364,
      "ator": 3365,
      "ieden": 3366,
      "oke": 3367,
      "ober": 3368,
      "Ġlooked": 3369,
      "èŃ¦": 3370,
      "jeblieft": 3371,
      "ĠHier": 3372,
      "åĽ¢": 3373,
      "è·Łä½ł": 3374,
      "å®¢": 3375,
      "most": 3376,
      "åĻ": 3377,
      "ased": 3378,
      "Hallo": 3379,
      "ĠæĪĳæĺ¯": 3380,
      "è¶³": 3381,
      "ç»Ŀ": 3382,
      "Ġwerken": 3383,
      "èĦ¸": 3384,
      "è®º": 3385,
      "æ¯Ķè¾ĥ": 3386,
      "Ġdeed": 3387,
      "ĠUnited": 3388,
      "ha": 3389,
      "min": 3390,
      "åħ»": 3391,
      "Ġhappened": 3392,
      "eert": 3393,
      "å§ĳ": 3394,
      "Ġrust": 3395,
      "Ġwoord": 3396,
      "ĠåĪ«": 3397,
      "ĠSc": 3398,
      "ĠMiss": 3399,
      "Ġcir": 3400,
      "oemen": 3401,
      "gl": 3402,
      "Ġåı¯æĺ¯": 3403,
      "son": 3404,
      "ĠæĪĳå°±": 3405,
      "çļĦå°ı": 3406,
      "Ġlijkt": 3407,
      "å·®": 3408,
      "Ġchar": 3409,
      "âĳ": 3410,
      "Ġbreak": 3411,
      "Ġhour": 3412,
      "ĠAmerican": 3413,
      "und": 3414,
      "äºĮåįģ": 3415,
      "é¢Ĩ": 3416,
      "Ġtri": 3417,
      "Ġhen": 3418,
      "anten": 3419,
      "ideo": 3420,
      "é¹": 3421,
      "Jullie": 3422,
      "Ġfact": 3423,
      "very": 3424,
      "Ġstory": 3425,
      "å¥ĩ": 3426,
      "ertain": 3427,
      "½çĦ¶": 3428,
      "ĠAmerik": 3429,
      "Ġooit": 3430,
      "Ġzag": 3431,
      "Ġwelke": 3432,
      "Ġmeet": 3433,
      "net": 3434,
      "appy": 3435,
      "è£ħ": 3436,
      "ä¼ļåĦ¿": 3437,
      "bed": 3438,
      "Ġalong": 3439,
      "voorbeeld": 3440,
      "Ġwar": 3441,
      "illy": 3442,
      "éĩįè¦ģ": 3443,
      "aanse": 3444,
      "Ġ202": 3445,
      "Ġhart": 3446,
      "Ġmeneer": 3447,
      "ĠJack": 3448,
      "æĥħåĨµ": 3449,
      "igd": 3450,
      "æĬ¤": 3451,
      "çªģ": 3452,
      "Ġknew": 3453,
      "åıĬ": 3454,
      "æ¯Ľ": 3455,
      "enten": 3456,
      "åŁº": 3457,
      "ä»½": 3458,
      "Ġuh": 3459,
      "å¸ĮæľĽ": 3460,
      "Ġsub": 3461,
      "enty": 3462,
      "åħĥ": 3463,
      "Ġready": 3464,
      "Ġdel": 3465,
      "æ²»": 3466,
      "Ġpict": 3467,
      "è¿Ļä¸Ģ": 3468,
      "Ġ197": 3469,
      "aint": 3470,
      "Ġ17": 3471,
      "Ġquest": 3472,
      "Ġjuist": 3473,
      "ä¹ł": 3474,
      "Ġgelijk": 3475,
      "Ġhoog": 3476,
      "www": 3477,
      "æ¥ļ": 3478,
      "Ġty": 3479,
      "Ġmeisje": 3480,
      "éĢł": 3481,
      "è®¾": 3482,
      "ones": 3483,
      "Ġpubl": 3484,
      "çŁ³": 3485,
      "Ġsaying": 3486,
      "Ġgod": 3487,
      "ĠæĿ¥": 3488,
      "ä¸įäºĨ": 3489,
      "oopt": 3490,
      "ĠMrs": 3491,
      "ç»Ń": 3492,
      "HÃ©": 3493,
      "åį´": 3494,
      "Ġmanier": 3495,
      "Sh": 3496,
      "ither": 3497,
      "Ġbegrij": 3498,
      "ç±»": 3499,
      "Ġfall": 3500,
      "Ġheart": 3501,
      "Ġpos": 3502,
      "Ġgave": 3503,
      "ç»Ħ": 3504,
      "Ġkre": 3505,
      "Ġdied": 3506,
      "weet": 3507,
      "less": 3508,
      "èį¯": 3509,
      "Ġbijna": 3510,
      "Ġexp": 3511,
      "ï¿½ï¿½": 3512,
      "ĠPh": 3513,
      "æĺİçĻ½": 3514,
      "å¤ľ": 3515,
      "eerde": 3516,
      "Ġresp": 3517,
      "èĥ½å¤Ł": 3518,
      "rijd": 3519,
      "çľŁæĺ¯": 3520,
      "æĪĳä¹Ł": 3521,
      "Ġwin": 3522,
      "anc": 3523,
      "gram": 3524,
      "åĵªåĦ¿": 3525,
      "Ġverz": 3526,
      "Ġontst": 3527,
      "ury": 3528,
      "Ġkop": 3529,
      "uurt": 3530,
      "iness": 3531,
      "Ġcity": 3532,
      "æĢģ": 3533,
      "Ġfood": 3534,
      "è¯¯": 3535,
      "ommy": 3536,
      "çĶ»": 3537,
      "æĸŃ": 3538,
      "fe": 3539,
      "Ġcountry": 3540,
      "iter": 3541,
      "OU": 3542,
      "Ġfamily": 3543,
      "ĠCl": 3544,
      "Ġbren": 3545,
      "Ġmidd": 3546,
      "åĪĩ": 3547,
      "Ġdirect": 3548,
      "Ġmaking": 3549,
      "Van": 3550,
      "mon": 3551,
      "Ġpast": 3552,
      "Deze": 3553,
      "åŀ": 3554,
      "Ġletter": 3555,
      "Ġgi": 3556,
      "Ġou": 3557,
      "Ġhoren": 3558,
      "éĻ¤": 3559,
      "Ġä¸įæĺ¯": 3560,
      "raat": 3561,
      "æĪı": 3562,
      "è°Ī": 3563,
      "erst": 3564,
      "Ġav": 3565,
      "èľ": 3566,
      "åįĸ": 3567,
      "ç»Ĩ": 3568,
      "ocht": 3569,
      "ital": 3570,
      "akt": 3571,
      "arry": 3572,
      "Ġmogelijk": 3573,
      "ä½łå°±": 3574,
      "Ġenige": 3575,
      "Ġspeel": 3576,
      "éŃ": 3577,
      "opt": 3578,
      "Ġniemand": 3579,
      "wards": 3580,
      "åĪĺ": 3581,
      "roken": 3582,
      "çĶµè¯Ŀ": 3583,
      "Ġonge": 3584,
      "é¾Ļ": 3585,
      "ä¸įè¿ĩ": 3586,
      "Ġwhe": 3587,
      "Ġeff": 3588,
      "Ġverhaal": 3589,
      "ouse": 3590,
      "Ġaard": 3591,
      "Ġhum": 3592,
      "èĳ": 3593,
      "Ġbelieve": 3594,
      "When": 3595,
      "æĿ¿": 3596,
      "Ġtown": 3597,
      "Ġlucht": 3598,
      "Ġactually": 3599,
      "Ġlos": 3600,
      "ara": 3601,
      "Ġgebruiken": 3602,
      "æĬĵ": 3603,
      "ded": 3604,
      "Ġbring": 3605,
      "Ġborn": 3606,
      "Ġvindt": 3607,
      "å¸ĥ": 3608,
      "DS": 3609,
      "Ġwasn": 3610,
      "inyl": 3611,
      "Ġåİ": 3612,
      "Ġstem": 3613,
      "Ġeverything": 3614,
      "ON": 3615,
      "Ġwoman": 3616,
      "maar": 3617,
      "é£Ł": 3618,
      "weede": 3619,
      "Ġcontro": 3620,
      "ikt": 3621,
      "Ġbep": 3622,
      "ully": 3623,
      "åĩºåİ»": 3624,
      "Ġorgan": 3625,
      "Ġ0": 3626,
      "å©Ĩ": 3627,
      "Ġzin": 3628,
      "ester": 3629,
      "uin": 3630,
      "Ġbesl": 3631,
      "å°½": 3632,
      "Ġ16": 3633,
      "çĨĬ": 3634,
      "äºĨåĲ§": 3635,
      "res": 3636,
      "æľª": 3637,
      "Ġmannen": 3638,
      "airs": 3639,
      "ĠMummy": 3640,
      "Ġwhole": 3641,
      "Ġsoort": 3642,
      "Ġref": 3643,
      "èįī": 3644,
      "ieten": 3645,
      "ession": 3646,
      "Bedankt": 3647,
      "Ġgrond": 3648,
      "II": 3649,
      "Ġleer": 3650,
      "Ġåħ¶å®ŀ": 3651,
      "ilig": 3652,
      "ĠDuit": 3653,
      "æĻļä¸Ĭ": 3654,
      "Ġkr": 3655,
      "é¦Ļ": 3656,
      "Ġed": 3657,
      "inds": 3658,
      "åħµ": 3659,
      "åĵį": 3660,
      "ç«Ł": 3661,
      "åıĶ": 3662,
      "Ġunderstand": 3663,
      "æĿĳ": 3664,
      "Ġinterest": 3665,
      "ç©¿": 3666,
      "Ġsince": 3667,
      "zicht": 3668,
      "ç»Ł": 3669,
      "Ġmoo": 3670,
      "aul": 3671,
      "Ġgehe": 3672,
      "Ġjob": 3673,
      "olen": 3674,
      "ĠSam": 3675,
      "Ġsold": 3676,
      "irt": 3677,
      "ĠGer": 3678,
      "Ġexpl": 3679,
      "Ġå¸": 3680,
      "Ġgesp": 3681,
      "Ġgame": 3682,
      "Ġreturn": 3683,
      "åĪ°åºķ": 3684,
      "åĪļæīį": 3685,
      "ald": 3686,
      "werp": 3687,
      "Ġpun": 3688,
      "æ¹": 3689,
      "å¿ĥéĩĮ": 3690,
      "æĪĳä¸į": 3691,
      "Ġda": 3692,
      "Ġblack": 3693,
      "Ġä»Ģä¹Ī": 3694,
      "lo": 3695,
      "åĬŀæ³ķ": 3696,
      "è´¹": 3697,
      "vers": 3698,
      "read": 3699,
      "ĠAt": 3700,
      "EA": 3701,
      "unny": 3702,
      "è·³": 3703,
      "Wij": 3704,
      "Ġoorlog": 3705,
      "ards": 3706,
      "Ġhoop": 3707,
      "gy": 3708,
      "ĠVer": 3709,
      "æ²³": 3710,
      "ec": 3711,
      "åĪ»": 3712,
      "Ġgezeg": 3713,
      "Ġstarted": 3714,
      "ected": 3715,
      "orrow": 3716,
      "Ġposs": 3717,
      "Ġdenken": 3718,
      "Ġhers": 3719,
      "è¸": 3720,
      "Ġwhite": 3721,
      "æĸĻ": 3722,
      "æį¢": 3723,
      "Fr": 3724,
      "ding": 3725,
      "Ġ196": 3726,
      "ç¦ı": 3727,
      "æĶ¯": 3728,
      "Af": 3729,
      "itten": 3730,
      "mat": 3731,
      "ä¸įèµ·": 3732,
      "Ġverw": 3733,
      "èĦĳ": 3734,
      "Ġhalen": 3735,
      "æ¨": 3736,
      "çŃĶæ¡Ī": 3737,
      "å¾·": 3738,
      "ize": 3739,
      "ĠThomas": 3740,
      "ocal": 3741,
      "Ġvandaag": 3742,
      "lex": 3743,
      "Ġnoise": 3744,
      "åħļ": 3745,
      "ying": 3746,
      "Ġ:": 3747,
      "Ġjaren": 3748,
      "æĭħ": 3749,
      "ives": 3750,
      "ared": 3751,
      "Ġca": 3752,
      "Ġbecame": 3753,
      "ship": 3754,
      "Ġspelen": 3755,
      "ham": 3756,
      "å±Ģ": 3757,
      "Ġdagen": 3758,
      "Ġogen": 3759,
      "Ġvorm": 3760,
      "Where": 3761,
      "co": 3762,
      "Ġpri": 3763,
      "Ġzouden": 3764,
      "ç¤¾": 3765,
      "è¿Ļæł·çļĦ": 3766,
      "mee": 3767,
      "oemd": 3768,
      "ney": 3769,
      "ä»¤": 3770,
      "rekken": 3771,
      "Just": 3772,
      "Ġwrong": 3773,
      "Ġcur": 3774,
      "Ġéĥ½": 3775,
      "ev": 3776,
      "ari": 3777,
      "Who": 3778,
      "æĺ¯æĪĳ": 3779,
      "Ġi": 3780,
      "abel": 3781,
      "ienden": 3782,
      "åĩĨå¤ĩ": 3783,
      "ĠWik": 3784,
      "Ġcompl": 3785,
      "Ġtable": 3786,
      "ç±³": 3787,
      "è¯´äºĨ": 3788,
      "Ġpat": 3789,
      "ĠSte": 3790,
      "Ġcomes": 3791,
      "ule": 3792,
      "ĠDan": 3793,
      "Ġton": 3794,
      "Ġinv": 3795,
      "ised": 3796,
      "ĠFl": 3797,
      "tr": 3798,
      "å½ĵæĹ¶": 3799,
      "åįİ": 3800,
      "iger": 3801,
      "Ġjongens": 3802,
      "çĵ": 3803,
      "Ġcra": 3804,
      "ĠEl": 3805,
      "ĠJan": 3806,
      "Ġopge": 3807,
      "å£«": 3808,
      "oms": 3809,
      "ilijk": 3810,
      "å¾®": 3811,
      "ĠPar": 3812,
      "Ġidea": 3813,
      "Ġlov": 3814,
      "Ġpretty": 3815,
      "è¯´çļĦ": 3816,
      "Ġcontin": 3817,
      "Ġfeet": 3818,
      "Zeg": 3819,
      "æľīçĤ¹": 3820,
      "Ġgegeven": 3821,
      "çł´": 3822,
      "Ġzelfs": 3823,
      "Ġzoon": 3824,
      "Ġklas": 3825,
      "Ġgebeurt": 3826,
      "Ġgrou": 3827,
      "Ġlik": 3828,
      "ĠVan": 3829,
      "ret": 3830,
      "kel": 3831,
      "erv": 3832,
      "EL": 3833,
      "bel": 3834,
      "rie": 3835,
      "åĵ¦": 3836,
      "Ġprov": 3837,
      "ĠYork": 3838,
      "Ġlost": 3839,
      "Ġvers": 3840,
      "Ġåı¯": 3841,
      "Ġsil": 3842,
      "ijnen": 3843,
      "NAN": 3844,
      "Ġgeleden": 3845,
      "Ġimport": 3846,
      "Ġwouldn": 3847,
      "Ġeight": 3848,
      "Ġzoek": 3849,
      "idden": 3850,
      "aces": 3851,
      "è¯´ä½ł": 3852,
      "ekent": 3853,
      "çīĽ": 3854,
      "è¿ĻåĦ¿": 3855,
      "é¸¡": 3856,
      "Ġtimes": 3857,
      "Ġkans": 3858,
      "10": 3859,
      "èĻ½çĦ¶": 3860,
      "dag": 3861,
      "sc": 3862,
      "è´Ł": 3863,
      "heden": 3864,
      "Alles": 3865,
      "æĺ¯ä¸Ģ": 3866,
      "elden": 3867,
      "ĠStates": 3868,
      "äºĳ": 3869,
      "Ġgar": 3870,
      "ĠKing": 3871,
      "é¡¾": 3872,
      "lish": 3873,
      "Ġpolitie": 3874,
      "å®¶éĩĮ": 3875,
      "ĠæĬĬ": 3876,
      "Ġalready": 3877,
      "éģĩ": 3878,
      "è®©ä½ł": 3879,
      "dred": 3880,
      "Ġoude": 3881,
      "Ġvijf": 3882,
      "Ġmot": 3883,
      "Ġeng": 3884,
      "moet": 3885,
      "æ¢¦": 3886,
      "æĬĢ": 3887,
      "æĩĤ": 3888,
      "Ġson": 3889,
      "Ġarm": 3890,
      "Ġhundred": 3891,
      "Ġminute": 3892,
      "Ġcertain": 3893,
      "Ġgezegd": 3894,
      "åıĤ": 3895,
      "ĠDon": 3896,
      "Ġless": 3897,
      "æķħäºĭ": 3898,
      "Ġoud": 3899,
      "alan": 3900,
      "è§Ħ": 3901,
      "Ġbegan": 3902,
      "ç¤º": 3903,
      "æĴŃ": 3904,
      "ĠåĨį": 3905,
      "éĤ£äºĽ": 3906,
      "Ġteken": 3907,
      "ĠHow": 3908,
      "ĠOr": 3909,
      "å¯Ĩ": 3910,
      "ç¤¼": 3911,
      "roe": 3912,
      "åıĳçĶŁ": 3913,
      "oep": 3914,
      "èĴ": 3915,
      "Ġfamilie": 3916,
      "ner": 3917,
      "ined": 3918,
      "Ġpay": 3919,
      "aptain": 3920,
      "Ġpost": 3921,
      "Ġvideo": 3922,
      "Ġalmost": 3923,
      "Ġpot": 3924,
      "ä»·": 3925,
      "Ġmoeilijk": 3926,
      "åİĨ": 3927,
      "Look": 3928,
      "Ġsqu": 3929,
      "Ġband": 3930,
      "Ġprot": 3931,
      "äº¬": 3932,
      "æŀģ": 3933,
      "Ġhoeveel": 3934,
      "Laten": 3935,
      "Ġlich": 3936,
      "æľīä¸Ģä¸ª": 3937,
      "ä¸ªäºº": 3938,
      "ä¼Ĺ": 3939,
      "Ġorder": 3940,
      "Ġbetekent": 3941,
      "rag": 3942,
      "Ġbur": 3943,
      "esten": 3944,
      "vern": 3945,
      "str": 3946,
      "Ġmark": 3947,
      "Ġnacht": 3948,
      "Ġlekker": 3949,
      "unch": 3950,
      "ipp": 3951,
      "ä¸ĵ": 3952,
      "æĢİä¹Īæł·": 3953,
      "olly": 3954,
      "Ġsong": 3955,
      "Ġè¿ĺæľī": 3956,
      "Ġprobably": 3957,
      "Ġhair": 3958,
      "Ġfriends": 3959,
      "Ġmilj": 3960,
      "Ġvond": 3961,
      "é¡»": 3962,
      "çĭĹ": 3963,
      "Ġander": 3964,
      "Ġplayed": 3965,
      "itie": 3966,
      "Ġçľĭ": 3967,
      "Ġhoudt": 3968,
      "æİ¨": 3969,
      "Ġ..": 3970,
      "åĽŀåİ»": 3971,
      "é¼ł": 3972,
      "Ġgebeurd": 3973,
      "çļ®": 3974,
      "arde": 3975,
      "Ġmens": 3976,
      "omet": 3977,
      "èĭ±": 3978,
      "ox": 3979,
      "Ġkrijg": 3980,
      "Ġaange": 3981,
      "Ġfloor": 3982,
      "Ġgreen": 3983,
      "Ġtrans": 3984,
      "Ġeas": 3985,
      "ING": 3986,
      "åĺ´": 3987,
      "Ġduring": 3988,
      "!'": 3989,
      "å·´": 3990,
      "just": 3991,
      "åħ·": 3992,
      "Ġsucc": 3993,
      "ç¬¬ä¸Ģ": 3994,
      "Ġprof": 3995,
      "Ġfiguur": 3996,
      "äºī": 3997,
      "åľŁ": 3998,
      "kl": 3999,
      "lijke": 4000,
      "good": 4001,
      "Are": 4002,
      "Then": 4003,
      "Ġzon": 4004,
      "Ġval": 4005,
      "Maak": 4006,
      "Ġwarm": 4007,
      "ouch": 4008,
      "ises": 4009,
      "åĬ©": 4010,
      "éĿĻ": 4011,
      "Ġbeaut": 4012,
      "Ġminder": 4013,
      "king": 4014,
      "haps": 4015,
      "Ġ194": 4016,
      "ga": 4017,
      "åı¶": 4018,
      "Ġtrying": 4019,
      "reven": 4020,
      "Ġgroep": 4021,
      "olf": 4022,
      "åĪ«äºº": 4023,
      "rought": 4024,
      "ĠTe": 4025,
      "ç»§": 4026,
      "Ġwed": 4027,
      "Ġtrou": 4028,
      "Ġ_": 4029,
      "ming": 4030,
      "åĳ³": 4031,
      "Ġtaken": 4032,
      "ager": 4033,
      "Ġplaying": 4034,
      "Ġbuild": 4035,
      "Ġcolor": 4036,
      "çĽ¸ä¿¡": 4037,
      "åıªæĺ¯": 4038,
      "éĢĤ": 4039,
      "éĻĪ": 4040,
      "Ġsyst": 4041,
      "çº¦": 4042,
      "Ġparty": 4043,
      "Ġprom": 4044,
      "Ġmorgen": 4045,
      "Ġdenkt": 4046,
      "Ġsent": 4047,
      "ues": 4048,
      "lle": 4049,
      "éªĮ": 4050,
      "Ġdef": 4051,
      "ĠPl": 4052,
      "æ±Ł": 4053,
      "ience": 4054,
      "Ġdead": 4055,
      "Right": 4056,
      "rouwen": 4057,
      "ĠAf": 4058,
      "ĠPro": 4059,
      "ĠEd": 4060,
      "Ġbegin": 4061,
      "ĠFor": 4062,
      "Ġclose": 4063,
      "Ġeigenlijk": 4064,
      "hel": 4065,
      "Ġrock": 4066,
      "cess": 4067,
      "inde": 4068,
      "Ġä»İ": 4069,
      "æľĢè¿ĳ": 4070,
      "è´£": 4071,
      "ander": 4072,
      "Ġä»Ĭå¤©": 4073,
      "Ġcup": 4074,
      "åĿı": 4075,
      "ĠåĹ¯": 4076,
      "Ġ11": 4077,
      "aybe": 4078,
      "å¯Ł": 4079,
      "Ġbijvoorbeeld": 4080,
      "ç®Ģ": 4081,
      "é¬": 4082,
      "Ġconf": 4083,
      "Ġcamp": 4084,
      "Ġev": 4085,
      "äºĨä¸Ģä¸ª": 4086,
      "Ġmeans": 4087,
      "As": 4088,
      "itting": 4089,
      "ĠBob": 4090,
      "Ġaren": 4091,
      "èĦļ": 4092,
      "Ġbestaat": 4093,
      "é²": 4094,
      "éĻª": 4095,
      "Ġsat": 4096,
      "æ¸ħæ¥ļ": 4097,
      "åĦ¿åŃĲ": 4098,
      "DAD": 4099,
      "Ġpa": 4100,
      "è·Łä½łè¯´": 4101,
      "Ġmat": 4102,
      "see": 4103,
      "ruct": 4104,
      "Ġreact": 4105,
      "got": 4106,
      "èĥĮ": 4107,
      "è§Ĵ": 4108,
      "Ġble": 4109,
      "æĪĸèĢħ": 4110,
      "åģĩ": 4111,
      "ains": 4112,
      "è¿ĩåİ»": 4113,
      "more": 4114,
      "Ġfav": 4115,
      "Ġpersoon": 4116,
      "aks": 4117,
      "ç¬¬äºĮ": 4118,
      "ĠZo": 4119,
      "bank": 4120,
      "å¿µ": 4121,
      "çĸĳ": 4122,
      "Ġgotta": 4123,
      "åħĶ": 4124,
      "éĨĴ": 4125,
      "ĠAd": 4126,
      "Ġgeloof": 4127,
      "Mag": 4128,
      "rat": 4129,
      "æľĿ": 4130,
      "Ġ14": 4131,
      "Ġå¼": 4132,
      "Ġnatuurlijk": 4133,
      "æĬķ": 4134,
      "åī§": 4135,
      "Ġmonth": 4136,
      "æ±ī": 4137,
      "'.": 4138,
      "Ġappear": 4139,
      "å¤ļå°ĳ": 4140,
      "alanyl": 4141,
      "euw": 4142,
      "ummer": 4143,
      "Hel": 4144,
      "Ġzat": 4145,
      "Ġoften": 4146,
      "Ġblue": 4147,
      "Ġ)": 4148,
      "Ġlicht": 4149,
      "ç£": 4150,
      "reet": 4151,
      "ided": 4152,
      "Ġbrand": 4153,
      "Ex": 4154,
      "æĭį": 4155,
      "Ġwants": 4156,
      "CDS": 4157,
      "ä»¥åīį": 4158,
      "ler": 4159,
      "sten": 4160,
      "æĸ¯": 4161,
      "ogra": 4162,
      "æĥ³åĪ°": 4163,
      "ĠDo": 4164,
      "Ġfront": 4165,
      "Ġtijdens": 4166,
      "æł¡": 4167,
      "ists": 4168,
      "zer": 4169,
      "Ġfull": 4170,
      "è¯Ń": 4171,
      "ĠQu": 4172,
      "Ġzet": 4173,
      "Ġvrienden": 4174,
      "Stop": 4175,
      "arth": 4176,
      "åĲİæĿ¥": 4177,
      "Ġnorm": 4178,
      "Ġable": 4179,
      "ä¸¥": 4180,
      "iers": 4181,
      "å¥½åĥı": 4182,
      "Ġgevonden": 4183,
      "Ġdruk": 4184,
      "ained": 4185,
      "éĽĨ": 4186,
      "çĬ¶": 4187,
      "é¬¼": 4188,
      "Ġpull": 4189,
      "æŃ¦": 4190,
      "ĠEnglish": 4191,
      "omp": 4192,
      "ç»ĥ": 4193,
      "è¶ħ": 4194,
      "Ġoutside": 4195,
      "èıľ": 4196,
      "Ġfoto": 4197,
      "åŃĺ": 4198,
      "Ġplek": 4199,
      "Re": 4200,
      "ently": 4201,
      "éĻ©": 4202,
      "çļĦäºĭæĥħ": 4203,
      "Ġinc": 4204,
      "ĠThat": 4205,
      "Ġæ²¡æľī": 4206,
      "æŃ£ç¡®": 4207,
      "veer": 4208,
      "ĠCon": 4209,
      "Ġturned": 4210,
      "Ġpas": 4211,
      "æĽ¾": 4212,
      "Ġbar": 4213,
      "Ġbrought": 4214,
      "ides": 4215,
      "50": 4216,
      "Ġhope": 4217,
      "ä½łæĺ¯": 4218,
      "sn": 4219,
      "Good": 4220,
      "Ġgroe": 4221,
      "ä¸įåĪ°": 4222,
      "Ġ=": 4223,
      "ima": 4224,
      "è¿ĻéĩĮ": 4225,
      "Ġsoms": 4226,
      "Ġgeef": 4227,
      "ĠBrit": 4228,
      "ada": 4229,
      "æĢĢ": 4230,
      "deel": 4231,
      "Ġminutes": 4232,
      "ĠJap": 4233,
      "ĠCan": 4234,
      "yn": 4235,
      "èĹ": 4236,
      "Ġsuper": 4237,
      "åĪĻ": 4238,
      "slag": 4239,
      "met": 4240,
      "Ġyourself": 4241,
      "èĽĭ": 4242,
      "houd": 4243,
      "ĠCar": 4244,
      "Ġdeath": 4245,
      "Ġlink": 4246,
      "Ġdou": 4247,
      "æĺ¥": 4248,
      "Ġschat": 4249,
      "çİ¯": 4250,
      "Ġquick": 4251,
      "Ġjo": 4252,
      "Ġkap": 4253,
      "because": 4254,
      "Ġexper": 4255,
      "RA": 4256,
      "ene": 4257,
      "Ġcook": 4258,
      "è¿½": 4259,
      "midd": 4260,
      "irth": 4261,
      "Ġmovie": 4262,
      "ott": 4263,
      "ä¼Ļ": 4264,
      "Ġfight": 4265,
      "è®®": 4266,
      "To": 4267,
      "åĽ½å®¶": 4268,
      "orie": 4269,
      "Ġprobleem": 4270,
      "éĽª": 4271,
      "heen": 4272,
      "Ġblijft": 4273,
      "Ġaw": 4274,
      "çľĭè§ģ": 4275,
      "ĠDaddy": 4276,
      "Ġlichaam": 4277,
      "å¡": 4278,
      "selves": 4279,
      "Ġvoed": 4280,
      "åıĳå±ķ": 4281,
      "Ġminuten": 4282,
      "æĹ¢": 4283,
      "Ġbehind": 4284,
      "orp": 4285,
      "Ġprogram": 4286,
      "éĽ¨": 4287,
      "åģľ": 4288,
      "æĶ¾å¿ĥ": 4289,
      "Ġpresident": 4290,
      "Ġhappy": 4291,
      "ĠHer": 4292,
      "Ġneer": 4293,
      "Ġstick": 4294,
      "Ġåĩ": 4295,
      "ĠX": 4296,
      "Thank": 4297,
      "Ġwerkt": 4298,
      "ç©¶": 4299,
      "Ġadv": 4300,
      "ĠJim": 4301,
      "æ´¾": 4302,
      "Cl": 4303,
      "ä»¥ä¸º": 4304,
      "æĵ": 4305,
      "Ġhond": 4306,
      "Ġheld": 4307,
      "Did": 4308,
      "è¯´æĪĳ": 4309,
      "Ġrather": 4310,
      "ĠMet": 4311,
      "çļĦå¤§": 4312,
      "mo": 4313,
      "Ġvoice": 4314,
      "Ġbag": 4315,
      "plaat": 4316,
      "èĥ¡": 4317,
      "ging": 4318,
      "åĻ¨": 4319,
      "Ġvak": 4320,
      "æĺ¯ä»Ģä¹Ī": 4321,
      "Ġtem": 4322,
      "raak": 4323,
      "Tot": 4324,
      "akker": 4325,
      "Zijn": 4326,
      "çĮ«": 4327,
      "Ġ30": 4328,
      "åħĦå¼Ł": 4329,
      "çº§": 4330,
      "ande": 4331,
      "Ġcouldn": 4332,
      "Luister": 4333,
      "é©¬ä¸Ĭ": 4334,
      "Ġruim": 4335,
      "Ġlisten": 4336,
      "like": 4337,
      "Ġpower": 4338,
      "åĪĿ": 4339,
      "Ġdieren": 4340,
      "åĶ±": 4341,
      "Ġseemed": 4342,
      "ĠæĪĳè§īå¾Ĺ": 4343,
      "orge": 4344,
      "Ġcover": 4345,
      "Nog": 4346,
      "Can": 4347,
      "å°±ä¸į": 4348,
      "å§ĳå¨ĺ": 4349,
      "ana": 4350,
      "Ġdraw": 4351,
      "ĠMa": 4352,
      "Ġimportant": 4353,
      "åħĭ": 4354,
      "iful": 4355,
      "ĠHis": 4356,
      "Ġbekend": 4357,
      "ĠDie": 4358,
      "Men": 4359,
      "éĹ»": 4360,
      "Ġlearn": 4361,
      "å¿ĺ": 4362,
      "æłĩ": 4363,
      "Ġziek": 4364,
      "åĢ¼": 4365,
      "ĠhÃ¨": 4366,
      "ĠWaar": 4367,
      "Ġshop": 4368,
      "Ġmusic": 4369,
      "ĠMan": 4370,
      "hand": 4371,
      "Ġgun": 4372,
      "Ġenerg": 4373,
      "ately": 4374,
      "Ġles": 4375,
      "åĽŀå®¶": 4376,
      "dem": 4377,
      "åı¤": 4378,
      "iezen": 4379,
      "åľ¨ä¸Ģèµ·": 4380,
      "Ġlanden": 4381,
      "èµ¶ç´§": 4382,
      "Ġstuff": 4383,
      "ç»ĵæŀľ": 4384,
      "åı¦": 4385,
      "çªģçĦ¶": 4386,
      "ford": 4387,
      "Ġwife": 4388,
      "Ġtree": 4389,
      "å¢ĥ": 4390,
      "oul": 4391,
      "rip": 4392,
      "å¹¸": 4393,
      "Ġpoor": 4394,
      "Ġfine": 4395,
      "åıĮ": 4396,
      "å°Ķ": 4397,
      "head": 4398,
      "åºĹ": 4399,
      "Ġrad": 4400,
      "ĠOh": 4401,
      "Ġbra": 4402,
      "imed": 4403,
      "ized": 4404,
      "ĠSchrijf": 4405,
      "||": 4406,
      "Ġproduct": 4407,
      "Ġpur": 4408,
      "esh": 4409,
      "Ġding": 4410,
      "æľ¨": 4411,
      "éĿł": 4412,
      "ä¸½": 4413,
      "Denk": 4414,
      "Ġhon": 4415,
      "zet": 4416,
      "Ġkamer": 4417,
      "ĠåĴ±ä»¬": 4418,
      "åĪĽ": 4419,
      "Ġchair": 4420,
      "Ġduid": 4421,
      "Ġshort": 4422,
      "Ġpartic": 4423,
      "inken": 4424,
      "Ġwords": 4425,
      "ments": 4426,
      "å±ŀ": 4427,
      "Ġhurt": 4428,
      "Ġmouth": 4429,
      "éĤ£ç§į": 4430,
      "ured": 4431,
      "zij": 4432,
      "omin": 4433,
      "wee": 4434,
      "Ġelect": 4435,
      "Ġzee": 4436,
      "uth": 4437,
      "Ġ13": 4438,
      "Ġluister": 4439,
      "Ġmakes": 4440,
      "Ġlaugh": 4441,
      "Ġpopul": 4442,
      "Ġhuh": 4443,
      "Ġchange": 4444,
      "Ġvre": 4445,
      "idge": 4446,
      "Ġteach": 4447,
      "ument": 4448,
      "Ġclass": 4449,
      "çļĦä¸Ģä¸ª": 4450,
      "Ġmyself": 4451,
      "éĢļè¿ĩ": 4452,
      "æĦ¿æĦı": 4453,
      "Ġonderzoek": 4454,
      "wijl": 4455,
      "Ġlopen": 4456,
      "åĩ»": 4457,
      "Ġbek": 4458,
      "Ġserv": 4459,
      "éĴŁ": 4460,
      "Ġbott": 4461,
      "Ġè°¢è°¢": 4462,
      "é¡º": 4463,
      "Ã«n": 4464,
      "essed": 4465,
      "Ġpicture": 4466,
      "unning": 4467,
      "Ġzoeken": 4468,
      "Toen": 4469,
      "inger": 4470,
      "æ²¹": 4471,
      "kig": 4472,
      "Ġperfect": 4473,
      "Ġsun": 4474,
      "Ġline": 4475,
      "Ġfell": 4476,
      "Ġones": 4477,
      "thers": 4478,
      "Ġpaper": 4479,
      "ä¸Ģå¤©": 4480,
      "Br": 4481,
      "key": 4482,
      "éº»": 4483,
      "Ġtro": 4484,
      "Ġleren": 4485,
      "Ġspel": 4486,
      "ĠWest": 4487,
      "è¡Ģ": 4488,
      "LO": 4489,
      "ĠTom": 4490,
      "æ¸©": 4491,
      "Ġlarge": 4492,
      "isk": 4493,
      "Vol": 4494,
      "ĠIf": 4495,
      "ĠOm": 4496,
      "èĢĮä¸Ķ": 4497,
      "kt": 4498,
      "æĺ¯ä¸Ģä¸ª": 4499,
      "éĢŁ": 4500,
      "uig": 4501,
      "ä½łçľĭ": 4502,
      "Ġbes": 4503,
      "çİī": 4504,
      "æŀĲ": 4505,
      "Go": 4506,
      "Ġlate": 4507,
      "Ġpijn": 4508,
      "Ġcommun": 4509,
      "æĿ¾": 4510,
      "ä¸įè¡Į": 4511,
      "è®¤è¯Ĩ": 4512,
      "Ġuitge": 4513,
      "Ġeeuw": 4514,
      "Ġresult": 4515,
      "akkelijk": 4516,
      "ä¸Ģå®ļè¦ģ": 4517,
      "Ġwoon": 4518,
      "Ġdeal": 4519,
      "å±ħ": 4520,
      "Ġbusiness": 4521,
      "Ġwachten": 4522,
      "ourn": 4523,
      "ä¹±": 4524,
      "ilt": 4525,
      "åĩłä¸ª": 4526,
      "æĿĥ": 4527,
      "è¿Ľè¡Į": 4528,
      "Ġrecord": 4529,
      "Kan": 4530,
      "éħį": 4531,
      "Ġbrengen": 4532,
      "UR": 4533,
      "ĠThen": 4534,
      "ĠSpan": 4535,
      "Ġvar": 4536,
      "Ġgiven": 4537,
      "äºĨåķĬ": 4538,
      "ĠAm": 4539,
      "Ġstep": 4540,
      "Ġè®©": 4541,
      "Ah": 4542,
      "Ġgrot": 4543,
      "Ġbody": 4544,
      "Ġbeginnen": 4545,
      "ziek": 4546,
      "irty": 4547,
      "verd": 4548,
      "Ġhulp": 4549,
      "Echt": 4550,
      "ode": 4551,
      "Ġtaking": 4552,
      "Ġstrong": 4553,
      "Ġbal": 4554,
      "Ġjong": 4555,
      "Ġocc": 4556,
      "hey": 4557,
      "Ġchang": 4558,
      "for": 4559,
      "amb": 4560,
      "Ġmaybe": 4561,
      "æ¯ıå¤©": 4562,
      "zien": 4563,
      "ĠTo": 4564,
      "Ġgehad": 4565,
      "acter": 4566,
      "å®¤": 4567,
      "åİĭ": 4568,
      "çĶµå½±": 4569,
      "Ġago": 4570,
      "æĹ¥æľ¬": 4571,
      "huis": 4572,
      "ucyl": 4573,
      "esc": 4574,
      "band": 4575,
      "Ġra": 4576,
      "ĠBen": 4577,
      "18": 4578,
      "rying": 4579,
      "----": 4580,
      "iep": 4581,
      "Ġbrother": 4582,
      "conom": 4583,
      "ention": 4584,
      "Ġkreeg": 4585,
      "iving": 4586,
      "bye": 4587,
      "veral": 4588,
      "Ġreden": 4589,
      "ĠJapan": 4590,
      "arling": 4591,
      "æ¥¼": 4592,
      "Ġage": 4593,
      "ç½ª": 4594,
      "Sp": 4595,
      "ille": 4596,
      "zie": 4597,
      "ĠWhen": 4598,
      "Ġvoet": 4599,
      "Ġhoort": 4600,
      "beren": 4601,
      "used": 4602,
      "Ġpen": 4603,
      "Ġmine": 4604,
      "Ġbirth": 4605,
      "pos": 4606,
      "Ġho": 4607,
      "å®¹æĺĵ": 4608,
      "ĠEurop": 4609,
      "Ġzom": 4610,
      "Ġbird": 4611,
      "Ġground": 4612,
      "Ġè°ģ": 4613,
      "osp": 4614,
      "rab": 4615,
      "åĵŃ": 4616,
      "Ġliggen": 4617,
      "Ġrele": 4618,
      "éĻħ": 4619,
      "ĠGerman": 4620,
      "foon": 4621,
      "Ġfelt": 4622,
      "ä½İ": 4623,
      "Ġrepl": 4624,
      "ĠèĢĮä¸Ķ": 4625,
      "èģĮ": 4626,
      "Ġvrouwen": 4627,
      "æĭ©": 4628,
      "Ġhang": 4629,
      "ĠMay": 4630,
      "åŃĲçļĦ": 4631,
      "è¯´è¯Ŀ": 4632,
      "ç»Ļä»ĸ": 4633,
      "ä¼¼": 4634,
      "ĠAfr": 4635,
      "å¼Ħ": 4636,
      "Ġgeweldig": 4637,
      "aged": 4638,
      "eem": 4639,
      "ution": 4640,
      "ugust": 4641,
      "Ġmiljoen": 4642,
      "Ġstate": 4643,
      "Ġroad": 4644,
      "ĠFrance": 4645,
      "Ġbear": 4646,
      "ĠDr": 4647,
      "del": 4648,
      "æĪĳæĥ³": 4649,
      "Ġcomput": 4650,
      "ĠæĪĳä¸į": 4651,
      "æī¿": 4652,
      "åĳĬè¯īä½ł": 4653,
      "ĠéĤ£ä½ł": 4654,
      "reg": 4655,
      "åºľ": 4656,
      "Pro": 4657,
      "thank": 4658,
      "anen": 4659,
      "Ġhist": 4660,
      "Ġhorse": 4661,
      "æ´Ĺ": 4662,
      "åľ¨è¿ĻåĦ¿": 4663,
      "ijst": 4664,
      "Ġgovern": 4665,
      "Ġbrief": 4666,
      "zy": 4667,
      "Ġlady": 4668,
      "éĹ¹": 4669,
      "çĥ¦": 4670,
      "åģ·": 4671,
      "Ġtwenty": 4672,
      "ragen": 4673,
      "Ġveilig": 4674,
      "Neem": 4675,
      "è·Łä»ĸ": 4676,
      "Ġpiece": 4677,
      "glut": 4678,
      "For": 4679,
      "æ¯ĶèµĽ": 4680,
      "Ġguess": 4681,
      "Ġwomen": 4682,
      "ä¾Ŀ": 4683,
      "bare": 4684,
      "Ġlad": 4685,
      "que": 4686,
      "ĠWel": 4687,
      "Ġsitu": 4688,
      "åĩºäºĨ": 4689,
      "ouwen": 4690,
      "Ġcap": 4691,
      "Ġprecies": 4692,
      "æľºä¼ļ": 4693,
      "ente": 4694,
      "line": 4695,
      "Ġcase": 4696,
      "ius": 4697,
      "born": 4698,
      "å¿ħé¡»": 4699,
      "å¹¿": 4700,
      "Ġlaw": 4701,
      "Ġinside": 4702,
      "Ġ100": 4703,
      "sk": 4704,
      "Ġsug": 4705,
      "ç¡®å®ŀ": 4706,
      "At": 4707,
      "Ġthank": 4708,
      "ä¸ŃçļĦ": 4709,
      "Ġinclud": 4710,
      "æ¦": 4711,
      "Ġpark": 4712,
      "Ġoper": 4713,
      "æĥĬ": 4714,
      "ĠWor": 4715,
      "éĵģ": 4716,
      "Blijf": 4717,
      "ardon": 4718,
      "osten": 4719,
      "then": 4720,
      "ric": 4721,
      "ering": 4722,
      "Ġeither": 4723,
      "ative": 4724,
      "æĿ¨": 4725,
      "é«ĺåħ´": 4726,
      "Mummy": 4727,
      "çĭ¬": 4728,
      "Ġmount": 4729,
      "çĭ¼": 4730,
      "Kun": 4731,
      "Ġcold": 4732,
      "èĤ¡": 4733,
      "Ġothers": 4734,
      "Ġwanneer": 4735,
      "ism": 4736,
      "Ġgesl": 4737,
      "pril": 4738,
      "æ°¸": 4739,
      "åıªæľī": 4740,
      "åª": 4741,
      "Ġhit": 4742,
      "ç¦»å¼Ģ": 4743,
      "åĽŃ": 4744,
      "offen": 4745,
      "yy": 4746,
      "å¸Ŀ": 4747,
      "inning": 4748,
      "Ġice": 4749,
      "Ġjezelf": 4750,
      "Nie": 4751,
      "å§Ķ": 4752,
      "æ¯ķ": 4753,
      "shall": 4754,
      "Ġthrow": 4755,
      "Ġsister": 4756,
      "Ġextra": 4757,
      "sy": 4758,
      "ery": 4759,
      "Ġtelevis": 4760,
      "Ġzoveel": 4761,
      "åĨ²": 4762,
      "Ġhanden": 4763,
      "uizen": 4764,
      "God": 4765,
      "ĠMaak": 4766,
      "ram": 4767,
      "aties": 4768,
      "è®¤ä¸º": 4769,
      "Kl": 4770,
      "ĠItal": 4771,
      "Ġlezen": 4772,
      "ika": 4773,
      "èļ": 4774,
      "Ġdeur": 4775,
      "glutam": 4776,
      "æĪĲäºĨ": 4777,
      "ĠokÃ©": 4778,
      "igin": 4779,
      "ç¾¤": 4780,
      "Ġgere": 4781,
      "Ġquestion": 4782,
      "åĽ´": 4783,
      "æĲŀ": 4784,
      "ĠDuits": 4785,
      "ä¸¾": 4786,
      "Ġmill": 4787,
      "å®«": 4788,
      "ello": 4789,
      "iversity": 4790,
      "Ġbank": 4791,
      "Ġleast": 4792,
      "Ġfree": 4793,
      "è¿Ļæ¬¡": 4794,
      "ç¤¾ä¼ļ": 4795,
      "Ġverst": 4796,
      "Ġring": 4797,
      "ĠBel": 4798,
      "Omdat": 4799,
      "rit": 4800,
      "eland": 4801,
      "å¹´çļĦ": 4802,
      "çłĶ": 4803,
      "åĲĽ": 4804,
      "Ġlead": 4805,
      "æī¾åĪ°": 4806,
      "ete": 4807,
      "Ġgirls": 4808,
      "Ġang": 4809,
      "æĪĳæĪĳ": 4810,
      "chn": 4811,
      "igde": 4812,
      "Pr": 4813,
      "Ġouders": 4814,
      "ç¯": 4815,
      "zaam": 4816,
      "Ġbor": 4817,
      "ĠæĪĳæĥ³": 4818,
      "åŃĻ": 4819,
      "ä¹ĭéĹ´": 4820,
      "Ġbuy": 4821,
      "æĺ¾": 4822,
      "bit": 4823,
      "éĢīæĭ©": 4824,
      "llo": 4825,
      "iously": 4826,
      "èº«ä½ĵ": 4827,
      "Ġwee": 4828,
      "Ġeruit": 4829,
      "velop": 4830,
      "Ġæĥ³": 4831,
      "Ġstond": 4832,
      "å°±ä¼ļ": 4833,
      "Ġontw": 4834,
      "have": 4835,
      "Get": 4836,
      "Ġmess": 4837,
      "Was": 4838,
      "èĵ": 4839,
      "åº§": 4840,
      "è¿İ": 4841,
      "Ġtrue": 4842,
      "Ġduidelijk": 4843,
      "edereen": 4844,
      "æĹı": 4845,
      "Ġfur": 4846,
      "ĠSo": 4847,
      "Ġpage": 4848,
      "Ġä½łçľĭ": 4849,
      "Ġworking": 4850,
      "èĻİ": 4851,
      "Ġroll": 4852,
      "ä¸īåįģ": 4853,
      "reed": 4854,
      "Ġongeveer": 4855,
      "ĠNa": 4856,
      "schijn": 4857,
      "rict": 4858,
      "vallen": 4859,
      "å¼ķ": 4860,
      "Mar": 4861,
      "Ġkaart": 4862,
      "Ġnieuws": 4863,
      "åĳ¼": 4864,
      "Ġlangs": 4865,
      "achten": 4866,
      "å¥¹çļĦ": 4867,
      "Ġpunt": 4868,
      "ĠComm": 4869,
      "å¥³äºº": 4870,
      "ico": 4871,
      "ç½®": 4872,
      "æĮī": 4873,
      "com": 4874,
      "Ġwit": 4875,
      "Ġsometimes": 4876,
      "æ¨¡": 4877,
      "Ġconc": 4878,
      "ĠéĤ£ä¹Ī": 4879,
      "hal": 4880,
      "ousand": 4881,
      "Ġinde": 4882,
      "è¯»": 4883,
      "Ġacross": 4884,
      "Ġoef": 4885,
      "å®Ī": 4886,
      "ĠéĤ£ä¸ª": 4887,
      "does": 4888,
      "åĪĴ": 4889,
      "Ġrece": 4890,
      "æĸ¹éĿ¢": 4891,
      "Ġhy": 4892,
      "Ġtweede": 4893,
      "deren": 4894,
      "Ġalsof": 4895,
      "ey": 4896,
      "ç»§ç»Ń": 4897,
      "ÉĻ": 4898,
      "ç´¯": 4899,
      "Ġcor": 4900,
      "âĮ": 4901,
      "antwoord": 4902,
      "Ġearly": 4903,
      "TER": 4904,
      "Ġgezicht": 4905,
      "Ġarr": 4906,
      "çĮª": 4907,
      "Ġè¡Į": 4908,
      "Ġcreat": 4909,
      "rog": 4910,
      "Ġbeautiful": 4911,
      "fully": 4912,
      "Ġfout": 4913,
      "ä¼ĳ": 4914,
      "Ġ195": 4915,
      "Ġkilled": 4916,
      "ante": 4917,
      "èĲ¥": 4918,
      "Ġfuck": 4919,
      "Ġmain": 4920,
      "Ġuitleg": 4921,
      "åĲĮå¿Ĺ": 4922,
      "Ġsen": 4923,
      "Ġarea": 4924,
      "è¡£æľį": 4925,
      "è®°å¾Ĺ": 4926,
      "ä»»ä½ķ": 4927,
      "Ġ193": 4928,
      "Ġpak": 4929,
      "å¦ĩ": 4930,
      "éĢīé¡¹": 4931,
      "morrow": 4932,
      "bal": 4933,
      "olon": 4934,
      "ached": 4935,
      "Ġspeak": 4936,
      "Ġguy": 4937,
      "ĠAng": 4938,
      "æŀª": 4939,
      "12": 4940,
      "Ġhat": 4941,
      "ä»ħ": 4942,
      "Ġ2020": 4943,
      "15": 4944,
      "fort": 4945,
      "Ġonderwerp": 4946,
      "ADU": 4947,
      "niet": 4948,
      "åĬ¿": 4949,
      "å¹²ä»Ģä¹Ī": 4950,
      "Ġechte": 4951,
      "Ġgele": 4952,
      "æİ§": 4953,
      "Ġä½łæĺ¯": 4954,
      "è´µ": 4955,
      "when": 4956,
      "eur": 4957,
      "æĺİå¤©": 4958,
      "ä¸ĬäºĨ": 4959,
      "ench": 4960,
      "Ġalone": 4961,
      "Ġill": 4962,
      "ä¹İ": 4963,
      "Ġmach": 4964,
      "è¯¾": 4965,
      "inet": 4966,
      "Vert": 4967,
      "ĠJu": 4968,
      "eens": 4969,
      "aving": 4970,
      "çĪ¹": 4971,
      "cil": 4972,
      "Ġanimals": 4973,
      "èĤī": 4974,
      "åĨ·": 4975,
      "Ġsomeone": 4976,
      "Ġlay": 4977,
      "æĪĳè¦ģ": 4978,
      "çģµ": 4979,
      "AP": 4980,
      "Ġ25": 4981,
      "èĩ´": 4982,
      "éĥ½æ²¡æľī": 4983,
      "TEA": 4984,
      "Ġsystem": 4985,
      "aced": 4986,
      "Ġpunten": 4987,
      "Ġgroup": 4988,
      "vrouw": 4989,
      "ç»ĵå©ļ": 4990,
      "Ġopl": 4991,
      "ä¸įåĲĮ": 4992,
      "å¢ŀ": 4993,
      "Te": 4994,
      "Ġtien": 4995,
      "èĪŀ": 4996,
      "Ġlo": 4997,
      "Ġä½łæĢİä¹Ī": 4998,
      "Ġconst": 4999,
      "bum": 5000,
      "Ġwish": 5001,
      "Ġdarling": 5002,
      "zak": 5003,
      "Ġcompany": 5004,
      "umm": 5005,
      "ç¾İåĽ½": 5006,
      "Ġglad": 5007,
      "houden": 5008,
      "å°ıå§Ĳ": 5009,
      "Ġconsider": 5010,
      "ural": 5011,
      "åĲĥé¥Ń": 5012,
      "Zie": 5013,
      "æµİ": 5014,
      "æ½": 5015,
      "Ġmeteen": 5016,
      "Ġsweet": 5017,
      "èĹı": 5018,
      "åĩºçİ°": 5019,
      "kele": 5020,
      "Ġ&": 5021,
      "Ġdaarna": 5022,
      "avy": 5023,
      "å¥³åĦ¿": 5024,
      "Ġadd": 5025,
      "çļĦäºĭ": 5026,
      "éĩİ": 5027,
      "Ġmama": 5028,
      "alm": 5029,
      "Ġgevaar": 5030,
      "rijs": 5031,
      "Ġcond": 5032,
      "ĠMc": 5033,
      "Ġseveral": 5034,
      "Ġvill": 5035,
      "Me": 5036,
      "Ġvooral": 5037,
      "ians": 5038,
      "Ġvog": 5039,
      "Ġthousand": 5040,
      "Ġdark": 5041,
      "æ¼Ĥ": 5042,
      "Ġå·": 5043,
      "Ġyellow": 5044,
      "Ġmacht": 5045,
      "Ġmooie": 5046,
      "ĠCharl": 5047,
      "Ġvallen": 5048,
      "éĩĮçļĦ": 5049,
      "æĪ·": 5050,
      "çĬ¯": 5051,
      "æ¤": 5052,
      "çľ¼çĿ": 5053,
      "Ġfast": 5054,
      "Ġseven": 5055,
      "Ġleeft": 5056,
      "Ġclub": 5057,
      "IT": 5058,
      "Ġgrow": 5059,
      "Ġmer": 5060,
      "Ġlangu": 5061,
      "Ġnoemen": 5062,
      "Ġship": 5063,
      "Ġmilk": 5064,
      "orden": 5065,
      "oops": 5066,
      "æŃ¢": 5067,
      "upp": 5068,
      "åı²": 5069,
      "ris": 5070,
      "Ġgenoemd": 5071,
      "å·ŀ": 5072,
      "Ġspecial": 5073,
      "Ġrol": 5074,
      "ç½Ĺ": 5075,
      "è¾Ī": 5076,
      "Ġmogen": 5077,
      "æĭĽ": 5078,
      "vert": 5079,
      "åİī": 5080,
      "icks": 5081,
      "kende": 5082,
      "Ġåĳĥ": 5083,
      "Ġfair": 5084,
      "Ġå¿«": 5085,
      "Ġpakken": 5086,
      "éĺ²": 5087,
      "åĿļ": 5088,
      "burg": 5089,
      "Ġplant": 5090,
      "Your": 5091,
      "ä¸įå¾Ĺ": 5092,
      "Ġproberen": 5093,
      "æ¿": 5094,
      "å½±åĵį": 5095,
      "ĠWorld": 5096,
      "Ġfeest": 5097,
      "pers": 5098,
      "Ġol": 5099,
      "Ġbecome": 5100,
      "çľĭçĿĢ": 5101,
      "è¹": 5102,
      "cul": 5103,
      "ĠPaul": 5104,
      "bt": 5105,
      "Ġcre": 5106,
      "ĠRome": 5107,
      "åĽ¾": 5108,
      "çĶ°": 5109,
      "æºĲ": 5110,
      "aien": 5111,
      "èĪ¬": 5112,
      "even": 5113,
      "Ġå®ĥ": 5114,
      "æł¹æľ¬": 5115,
      "çļĦè¿Ļä¸ª": 5116,
      "Ġtest": 5117,
      "Ġfunny": 5118,
      "åĨ³å®ļ": 5119,
      "ĠPhil": 5120,
      "uary": 5121,
      "Ġsend": 5122,
      "Zij": 5123,
      "éĵ¶": 5124,
      "Ġgraf": 5125,
      "Ġfavor": 5126,
      "gas": 5127,
      "åı¥è¯Ŀ": 5128,
      "ĠYes": 5129,
      "æĺ¨": 5130,
      "ĠOl": 5131,
      "Ġimp": 5132,
      "Ġavond": 5133,
      "Ġgas": 5134,
      "æľīäºº": 5135,
      "Ġstation": 5136,
      "Ġgrootste": 5137,
      "Natuurlijk": 5138,
      "iting": 5139,
      "Ġblood": 5140,
      "èĤ²": 5141,
      "æĢİä¹ĪåĬŀ": 5142,
      "Ã¼": 5143,
      "å±ĭ": 5144,
      "Ġeffect": 5145,
      "cri": 5146,
      "water": 5147,
      "uke": 5148,
      "æĬĹ": 5149,
      "inig": 5150,
      "alth": 5151,
      "omb": 5152,
      "ĠNor": 5153,
      "Ġdiv": 5154,
      "æīĭæľº": 5155,
      "Ġkracht": 5156,
      "urch": 5157,
      "Ġgets": 5158,
      "One": 5159,
      "Ġäºº": 5160,
      "æĬ±": 5161,
      "èİ·": 5162,
      "ino": 5163,
      "Ġmeeste": 5164,
      "Ġtruck": 5165,
      "eph": 5166,
      "}$$": 5167,
      "partment": 5168,
      "ED": 5169,
      "Ġclot": 5170,
      "Ġbi": 5171,
      "Ġzetten": 5172,
      "äºĨè§£": 5173,
      "Here": 5174,
      "ĠKennis": 5175,
      "å¤ļçļĦ": 5176,
      "ral": 5177,
      "Ġder": 5178,
      "èī¯": 5179,
      "Ġafbeeld": 5180,
      "Ġamong": 5181,
      "åŀĭ": 5182,
      "ĠçŃī": 5183,
      "nou": 5184,
      "åĪĹ": 5185,
      "derd": 5186,
      "ĠCount": 5187,
      "gg": 5188,
      "Ġtill": 5189,
      "Ġä¸įè¿ĩ": 5190,
      "pje": 5191,
      "sche": 5192,
      "icult": 5193,
      "Over": 5194,
      "Ge": 5195,
      "iken": 5196,
      "çľ¼çĿĽ": 5197,
      "èĭı": 5198,
      "Ġclean": 5199,
      "BRO": 5200,
      "æĺ¯åĲ§": 5201,
      "nieuw": 5202,
      "ä¹Łæ²¡": 5203,
      "ä¿®": 5204,
      "Ã³": 5205,
      "Ġdi": 5206,
      "eeuw": 5207,
      "Ġbegint": 5208,
      "Ġguys": 5209,
      "Ġallow": 5210,
      "èµµ": 5211,
      "çĹĽ": 5212,
      "æĪĳè¿ĺ": 5213,
      "ä¸įéĶĻ": 5214,
      "é¢ĺå¹²": 5215,
      "stuk": 5216,
      "Ġfootball": 5217,
      "ĠRuss": 5218,
      "two": 5219,
      "Ġabs": 5220,
      "ute": 5221,
      "Ġobject": 5222,
      "Ġpound": 5223,
      "Ġhetzelfde": 5224,
      "Ġvanavond": 5225,
      "Ġenter": 5226,
      "äºİæĺ¯": 5227,
      "Ġvij": 5228,
      "ĠAb": 5229,
      "Ġfish": 5230,
      "Bij": 5231,
      "Ã¶": 5232,
      "Ġwet": 5233,
      "Ġran": 5234,
      "]?": 5235,
      "ä¸įçĶ¨": 5236,
      "ä¸ĭåİ»": 5237,
      "æĿ¥è¯´": 5238,
      "Ġmond": 5239,
      "Ġwou": 5240,
      "çĽ´æİ¥": 5241,
      "Ġgeloven": 5242,
      "was": 5243,
      "ereken": 5244,
      "Ġboat": 5245,
      "ically": 5246,
      "Ġervan": 5247,
      "tern": 5248,
      "ĠTr": 5249,
      "Ġalsjeblieft": 5250,
      "boek": 5251,
      "ĠMart": 5252,
      "Ġeinde": 5253,
      "Ġrunning": 5254,
      "ä¼ĺ": 5255,
      "ĠRep": 5256,
      "æĺ¯ä¸ª": 5257,
      "urk": 5258,
      "åĨľ": 5259,
      "æ¿Ģ": 5260,
      "Ġhol": 5261,
      "Ġnummer": 5262,
      "Ġvraagt": 5263,
      "Ġcommand": 5264,
      "Ġgehoord": 5265,
      "friend": 5266,
      "ices": 5267,
      "æĽ¿": 5268,
      "gend": 5269,
      "æĿĲ": 5270,
      "Ġmist": 5271,
      "indelijk": 5272,
      "Ġdet": 5273,
      "Ġzodat": 5274,
      "äºĴ": 5275,
      "hi": 5276,
      "éªĹ": 5277,
      "ĠSchool": 5278,
      "æĪĳè¯´": 5279,
      "ĠBar": 5280,
      "ola": 5281,
      "Ġtea": 5282,
      "Ġslapen": 5283,
      "Ġorde": 5284,
      "Ġproblemen": 5285,
      "Ġtel": 5286,
      "Ġcou": 5287,
      "ĠEx": 5288,
      "ç§°": 5289,
      "Ġwall": 5290,
      "å®īåħ¨": 5291,
      "åıįæŃ£": 5292,
      "Ġhop": 5293,
      "Ġnorth": 5294,
      "Ġä½łå°±": 5295,
      "Ġtoys": 5296,
      "ĠTHE": 5297,
      "é½": 5298,
      "Ġthinking": 5299,
      "Ġtemper": 5300,
      "Ġmuziek": 5301,
      "komt": 5302,
      "jor": 5303,
      "ç´ł": 5304,
      "Ġliefde": 5305,
      "Ġtried": 5306,
      "Ġdezelfde": 5307,
      "ĠKl": 5308,
      "Ġvergeten": 5309,
      "æĪĳéĥ½": 5310,
      "ĠEurope": 5311,
      "Ġtelefoon": 5312,
      "Ġvle": 5313,
      "çļĦåľ°æĸ¹": 5314,
      "Ġmam": 5315,
      "çĶ·äºº": 5316,
      "çºª": 5317,
      "Ġgrand": 5318,
      "mas": 5319,
      "ĠWar": 5320,
      "å½ĵçĦ¶": 5321,
      "é¸Ł": 5322,
      "Ġrep": 5323,
      "æľµ": 5324,
      "Ġschuld": 5325,
      "Ġcos": 5326,
      "åºŃ": 5327,
      "Ġergens": 5328,
      "Ġä¸ºä»Ģä¹Ī": 5329,
      "Ġsea": 5330,
      "æľīä¸ª": 5331,
      "Ġusually": 5332,
      "Ġsol": 5333,
      "æ¯Ķå¦Ĥ": 5334,
      "Ġgekomen": 5335,
      "èīº": 5336,
      "Ġsta": 5337,
      "èĬĤçĽ®": 5338,
      "cuse": 5339,
      "Ġwood": 5340,
      "æ¯Ĵ": 5341,
      "èĻĳ": 5342,
      "Ġgevangen": 5343,
      "ived": 5344,
      "ior": 5345,
      "Ġnoem": 5346,
      "Ġaand": 5347,
      "Ġvalt": 5348,
      "Ġreason": 5349,
      "Ġstap": 5350,
      "ales": 5351,
      "å§¨": 5352,
      "å¤ļäºĨ": 5353,
      "Ġappro": 5354,
      "åĲ¸": 5355,
      "ĠLord": 5356,
      "ances": 5357,
      "hor": 5358,
      "Verd": 5359,
      "Ġvia": 5360,
      "aalde": 5361,
      "è¿ĩäºĨ": 5362,
      "Ġ50": 5363,
      "unk": 5364,
      "å¼¹": 5365,
      "åłĤ": 5366,
      "Ġlaug": 5367,
      "Ġvolgens": 5368,
      "æĻ¯": 5369,
      "æĺ¯åķĬ": 5370,
      "æİĮ": 5371,
      "çĭĲ": 5372,
      "andy": 5373,
      "isme": 5374,
      "ĠPat": 5375,
      "Ġbezig": 5376,
      "inkt": 5377,
      "dom": 5378,
      "æł·çļĦ": 5379,
      "lease": 5380,
      "Ġstar": 5381,
      "æĪ¿åŃĲ": 5382,
      "ç¾Ĭ": 5383,
      "icken": 5384,
      "ague": 5385,
      "ooh": 5386,
      "Ġenkele": 5387,
      "çĮ´": 5388,
      "åį«": 5389,
      "çĨŁ": 5390,
      "Ġalright": 5391,
      "éĢĢ": 5392,
      "Ġrijk": 5393,
      "æķĪ": 5394,
      "gro": 5395,
      "Ġvi": 5396,
      "Ġmedic": 5397,
      "17": 5398,
      "annen": 5399,
      "Ar": 5400,
      "obert": 5401,
      "Ġins": 5402,
      "å£°éŁ³": 5403,
      "ping": 5404,
      "Ġvoorbij": 5405,
      "Ġliving": 5406,
      "çļĦä¸ľè¥¿": 5407,
      "èº«ä¸Ĭ": 5408,
      "aars": 5409,
      "Ġmeter": 5410,
      "Ġlog": 5411,
      "won": 5412,
      "Ġverkl": 5413,
      "Ġaarde": 5414,
      "genomen": 5415,
      "çº¸": 5416,
      "under": 5417,
      "Ġloopt": 5418,
      "aser": 5419,
      "èĪ¹": 5420,
      "Ġrug": 5421,
      "$$\\": 5422,
      "è¿ĲåĬ¨": 5423,
      "atten": 5424,
      "åĲ¦": 5425,
      "Ġspreken": 5426,
      "éĢĥ": 5427,
      "æīįèĥ½": 5428,
      "bles": 5429,
      "æµĭ": 5430,
      "å§ĵ": 5431,
      "æĪĲä¸º": 5432,
      "ĠHarry": 5433,
      "å®¶çļĦ": 5434,
      "è®©ä»ĸ": 5435,
      "goed": 5436,
      "ĠMarch": 5437,
      "å¦»": 5438,
      "ylalanyl": 5439,
      "Ġè¿ĺæĺ¯": 5440,
      "Ġroe": 5441,
      "éľ²": 5442,
      "å¾ĭ": 5443,
      "ĠBeeld": 5444,
      "Ġwrite": 5445,
      "Ġperhaps": 5446,
      "Ġbeneden": 5447,
      "Ġorigin": 5448,
      "ĠCal": 5449,
      "åĬ¨çī©": 5450,
      "Ġkru": 5451,
      "ä¸īä¸ª": 5452,
      "strijd": 5453,
      "Ġgaf": 5454,
      "èĥľ": 5455,
      "Ġanswered": 5456,
      "Ġdochter": 5457,
      "å®ĥä»¬": 5458,
      "pres": 5459,
      "æŃ»äºĨ": 5460,
      "Ġlived": 5461,
      "åĹ": 5462,
      "Ġfellow": 5463,
      "ĠFrench": 5464,
      "ges": 5465,
      "ĠOf": 5466,
      "Ġschrijven": 5467,
      "å¥¶å¥¶": 5468,
      "Ġ24": 5469,
      "Ġriv": 5470,
      "ç§Ģ": 5471,
      "Ġzes": 5472,
      "Iedereen": 5473,
      "Ġdinner": 5474,
      "Ġcult": 5475,
      "ĠMon": 5476,
      "Ġsport": 5477,
      "Na": 5478,
      "Ġontde": 5479,
      "Ġfly": 5480,
      "åİīå®³": 5481,
      "Ġdollar": 5482,
      "ä¸įå¯¹": 5483,
      "Ġcheck": 5484,
      "Ġåİ»": 5485,
      "Ġnine": 5486,
      "Ġeconom": 5487,
      "Ġbirthday": 5488,
      "uut": 5489,
      "åĨįè§ģ": 5490,
      "Niemand": 5491,
      "æŃ£åľ¨": 5492,
      "ĠStap": 5493,
      "Ġeerder": 5494,
      "Ġweinig": 5495,
      "Ġdevelop": 5496,
      "Ġalbum": 5497,
      "æ¼Ĥäº®": 5498,
      "ility": 5499,
      "pped": 5500,
      "ĠJanuary": 5501,
      "ä¸Ģç§į": 5502,
      "è´¢": 5503,
      "play": 5504,
      "åĪĨä¹ĭ": 5505,
      "ĠPeter": 5506,
      "za": 5507,
      "Ġwaarin": 5508,
      "uhhuh": 5509,
      "Ġmarried": 5510,
      "Ġhoeft": 5511,
      "å¼Ģå¿ĥ": 5512,
      "é¡¶": 5513,
      "Ġdien": 5514,
      "Ġslag": 5515,
      "Ġmass": 5516,
      "ask": 5517,
      "åį±": 5518,
      "åĮ»éĻ¢": 5519,
      "ä½łä¸į": 5520,
      "Ġsomebody": 5521,
      "uzz": 5522,
      "Ġvreem": 5523,
      "Ġzult": 5524,
      "æŁĲ": 5525,
      "ĠæĪĳä¹Ł": 5526,
      "ä½łè¦ģ": 5527,
      "Ġtakes": 5528,
      "ç»´": 5529,
      "Ġreport": 5530,
      "Ġdier": 5531,
      "Ġkept": 5532,
      "oken": 5533,
      "Beg": 5534,
      "ĠMin": 5535,
      "Ġacht": 5536,
      "Ġkijkt": 5537,
      "çĳ": 5538,
      "omst": 5539,
      "æ²¡äºĭ": 5540,
      "éĶĻè¯¯": 5541,
      "ĠNederlandse": 5542,
      "çľģ": 5543,
      "raid": 5544,
      "å½ĵä¸Ń": 5545,
      "Ġseries": 5546,
      "Will": 5547,
      "Ġ+": 5548,
      "ustral": 5549,
      "Ġterwijl": 5550,
      "Gaat": 5551,
      "å¯Į": 5552,
      "Ġexact": 5553,
      "Ġpublic": 5554,
      "oi": 5555,
      "Ġthemselves": 5556,
      "Ġges": 5557,
      "èĸ": 5558,
      "ç»ıæµİ": 5559,
      "Ġproblem": 5560,
      "stead": 5561,
      "Ġloc": 5562,
      "åĢŁ": 5563,
      "æ´ŀ": 5564,
      "Ġtouch": 5565,
      "ĠPer": 5566,
      "Ġpapa": 5567,
      "Ġtrouble": 5568,
      "Ġdaugh": 5569,
      "ST": 5570,
      "ring": 5571,
      "ä½łä¹Ł": 5572,
      "gie": 5573,
      "Ġdoden": 5574,
      "iest": 5575,
      "rokken": 5576,
      "Moet": 5577,
      "cer": 5578,
      "Ġbooks": 5579,
      "14": 5580,
      "Ġervoor": 5581,
      "Ġphone": 5582,
      "Ġvanaf": 5583,
      "ĠVol": 5584,
      "oorten": 5585,
      "ds": 5586,
      "Ġcomputer": 5587,
      "æł·åŃĲ": 5588,
      "ä»ĭ": 5589,
      "ä½ľä¸º": 5590,
      "Ġ/": 5591,
      "åįĪ": 5592,
      "Ġdrinken": 5593,
      "Ġdoel": 5594,
      "ĠDav": 5595,
      "éĩĩ": 5596,
      "Ġgeval": 5597,
      "éŀ": 5598,
      "ued": 5599,
      "Or": 5600,
      "Ġkil": 5601,
      "SI": 5602,
      "produ": 5603,
      "Ġli": 5604,
      "iment": 5605,
      "äºĮéĽ¶": 5606,
      "æĹ¢çĦ¶": 5607,
      "ĠBra": 5608,
      "emy": 5609,
      "ĠJoe": 5610,
      "Ġpartij": 5611,
      "å¥Ĺ": 5612,
      "çĪ¶äº²": 5613,
      "schijnlijk": 5614,
      "Ġongel": 5615,
      "ener": 5616,
      "è¿ĩç¨ĭ": 5617,
      "ĠSe": 5618,
      "Ġcross": 5619,
      "Ġent": 5620,
      "ç´¢": 5621,
      "Ġbroer": 5622,
      "rey": 5623,
      "Aan": 5624,
      "Ġåģ": 5625,
      "å½©": 5626,
      "Ġsoft": 5627,
      "Ġ*": 5628,
      "ĠDec": 5629,
      "ä¹¡": 5630,
      "åĲ´": 5631,
      "ä¸ĢåĿĹ": 5632,
      "Ġhours": 5633,
      "Ġpracht": 5634,
      "Ġkent": 5635,
      "rum": 5636,
      "Ġtoy": 5637,
      "ĠJune": 5638,
      "Ġtit": 5639,
      "ĠOct": 5640,
      "Ġfield": 5641,
      "Ġfinished": 5642,
      "ĠWas": 5643,
      "elk": 5644,
      "æĺ¯ä½ł": 5645,
      "iÃ«n": 5646,
      "Ġregion": 5647,
      "Ġsitting": 5648,
      "Ġmaakte": 5649,
      "Ġvermoord": 5650,
      "ondon": 5651,
      "Ġdank": 5652,
      "èº«è¾¹": 5653,
      "Ġport": 5654,
      "owers": 5655,
      "ror": 5656,
      "ĠAlex": 5657,
      "åº·": 5658,
      "Ġgeworden": 5659,
      "Heeft": 5660,
      "Ġdifficult": 5661,
      "olle": 5662,
      "Meer": 5663,
      "ä¸ģ": 5664,
      "åĪļåĪļ": 5665,
      "Ġzwart": 5666,
      "Erm": 5667,
      "though": 5668,
      "æŀ¶": 5669,
      "Ġgebouw": 5670,
      "åĲ¬è¯´": 5671,
      "Ġbetalen": 5672,
      "AL": 5673,
      "oger": 5674,
      "rem": 5675,
      "Ġquiet": 5676,
      "Ġnational": 5677,
      "åıªè¦ģ": 5678,
      "bab": 5679,
      "ç»¿": 5680,
      "oom": 5681,
      "ç²ī": 5682,
      "Ġwink": 5683,
      "oer": 5684,
      "ç»Īäºİ": 5685,
      "Ġchance": 5686,
      "IJ": 5687,
      "ality": 5688,
      "Ġfift": 5689,
      "åį³": 5690,
      "kk": 5691,
      "ĠII": 5692,
      "Ġrij": 5693,
      "ctie": 5694,
      "ĠåıĪ": 5695,
      "æĸ¹å¼ı": 5696,
      "Ġstoppen": 5697,
      "Ġtomorrow": 5698,
      "ĠDoor": 5699,
      "ĠEngland": 5700,
      "æĺ¨å¤©": 5701,
      "æĺ¯åľ¨": 5702,
      "Ġkwamen": 5703,
      "åħ¶ä»ĸ": 5704,
      "Ġevent": 5705,
      "ĠæĪĳçļĦ": 5706,
      "Ġclim": 5707,
      "Heel": 5708,
      "åħ³æ³¨": 5709,
      "ä»ĺ": 5710,
      "berg": 5711,
      "igheid": 5712,
      "Ġx": 5713,
      "èĨ": 5714,
      "Ġstat": 5715,
      "ä¼´": 5716,
      "çİĩ": 5717,
      "16": 5718,
      "Ġproper": 5719,
      "ç¥¨": 5720,
      "çĪ¶æ¯į": 5721,
      "è¿ĺæ²¡": 5722,
      "å¤ı": 5723,
      "erence": 5724,
      "wijs": 5725,
      "Ġsurpr": 5726,
      "ç§ĺ": 5727,
      "Ġshot": 5728,
      "åıªèĥ½": 5729,
      "Ġir": 5730,
      "ä¸Ŀ": 5731,
      "æľīæ²¡æľī": 5732,
      "Ġgebied": 5733,
      "çĽĳ": 5734,
      "ĠOne": 5735,
      "åĲĮåŃ¦": 5736,
      "aire": 5737,
      "Ġanderen": 5738,
      "issen": 5739,
      "ĠæĪĳçŁ¥éģĵ": 5740,
      "Ã¡": 5741,
      "ãĢĭ": 5742,
      "ãĢĬ": 5743,
      "æĹ¥åŃĲ": 5744,
      "Ġwonen": 5745,
      "ogen": 5746,
      "ĠSouth": 5747,
      "Ġsingle": 5748,
      "æīĢæľīçļĦ": 5749,
      "arch": 5750,
      "13": 5751,
      "ijl": 5752,
      "Ġspeci": 5753,
      "çĥ§": 5754,
      "åĪ¤": 5755,
      "aker": 5756,
      "ample": 5757,
      "Ġet": 5758,
      "æĿ¥æĿ¥": 5759,
      "Ġbegon": 5760,
      "Ġlives": 5761,
      "ĠAustral": 5762,
      "ube": 5763,
      "Ġafraid": 5764,
      "æģĭ": 5765,
      "è´Ŀ": 5766,
      "Ġgebeuren": 5767,
      "uze": 5768,
      "ç§ĭ": 5769,
      "ining": 5770,
      "ĠAugust": 5771,
      "Ġwithin": 5772,
      "aves": 5773,
      "åŃ¦ä¹ł": 5774,
      "å¤§åĵ¥": 5775,
      "Ġsuppose": 5776,
      "Ġverdw": 5777,
      "ĠBlack": 5778,
      "Ġschoon": 5779,
      "Ġverteld": 5780,
      "åĲĵ": 5781,
      "umb": 5782,
      "Ġcannot": 5783,
      "Ġhowever": 5784,
      "ĠIr": 5785,
      "oph": 5786,
      "åĹ¯åĹ¯": 5787,
      "Ġrain": 5788,
      "ĠAnt": 5789,
      "Ġclos": 5790,
      "Ġè¯·": 5791,
      "Ġwindow": 5792,
      "leven": 5793,
      "Ġsterven": 5794,
      "Ġmaat": 5795,
      "isc": 5796,
      "ç¿»": 5797,
      "æ³¢": 5798,
      "æĭľæĭľ": 5799,
      "Ġnose": 5800,
      "å±Ĥ": 5801,
      "iging": 5802,
      "amera": 5803,
      "gem": 5804,
      "Ġwhether": 5805,
      "ĠMag": 5806,
      "Ġclear": 5807,
      "dra": 5808,
      "Ġegg": 5809,
      "Ġontwikk": 5810,
      "å®ĮäºĨ": 5811,
      "icro": 5812,
      "ĠGl": 5813,
      "Ġneemt": 5814,
      "éĤ£åĦ¿": 5815,
      "oenen": 5816,
      "Ġgarden": 5817,
      "ĠCity": 5818,
      "Ġmoved": 5819,
      "èĭ¥": 5820,
      "æ¶Īæģ¯": 5821,
      "è¿·": 5822,
      "ĠNot": 5823,
      "ĠLondon": 5824,
      "Ġfa": 5825,
      "entle": 5826,
      "ĠEm": 5827,
      "gev": 5828,
      "åį¡": 5829,
      "åºĬ": 5830,
      "weer": 5831,
      "æķ£": 5832,
      "çŁŃ": 5833,
      "Ġantwoorden": 5834,
      "Ġwild": 5835,
      "çĸ¼": 5836,
      "æĮĳ": 5837,
      "Ġattack": 5838,
      "åĬª": 5839,
      "Ġdoctor": 5840,
      "æĭħå¿ĥ": 5841,
      "makes": 5842,
      "Ġå¤§å®¶": 5843,
      "Ġfix": 5844,
      "Ġner": 5845,
      "æĸĹ": 5846,
      "want": 5847,
      "Ġlift": 5848,
      "å¹´è½»": 5849,
      "Ġletters": 5850,
      "å®Įåħ¨": 5851,
      "Ġcatch": 5852,
      "Ġrot": 5853,
      "Ġsnap": 5854,
      "ĠMary": 5855,
      "Ġtrouw": 5856,
      "Ġsinds": 5857,
      "Ġleger": 5858,
      "ĠéĤ£æĪĳ": 5859,
      "ograph": 5860,
      "Ġvor": 5861,
      "èĢ³": 5862,
      "æ²Ļ": 5863,
      "æķĮ": 5864,
      "Ġbru": 5865,
      "çĶļ": 5866,
      "Ġmonths": 5867,
      "ael": 5868,
      "Ġcool": 5869,
      "å¯¹å¯¹": 5870,
      "El": 5871,
      "Ġest": 5872,
      "ex": 5873,
      "Ġoog": 5874,
      "Ġvie": 5875,
      "ĠSw": 5876,
      "sing": 5877,
      "å¹²åĲĹ": 5878,
      "schapp": 5879,
      "äº«": 5880,
      "press": 5881,
      "Ġactiv": 5882,
      "asure": 5883,
      "ĠEll": 5884,
      "è¯Ħ": 5885,
      "ĠNorth": 5886,
      "æĬĬæĪĳ": 5887,
      "åĽłæŃ¤": 5888,
      "æ¬¾": 5889,
      "Ġvoordat": 5890,
      "æĭ¬": 5891,
      "Ġya": 5892,
      "Ġstil": 5893,
      "Ġgovernment": 5894,
      "Please": 5895,
      "Ġlach": 5896,
      "Ġå¦Ī": 5897,
      "Ġpossible": 5898,
      "åįĩ": 5899,
      "Ġä¸Ģä¸ª": 5900,
      "Ġequ": 5901,
      "Ġmaanden": 5902,
      "Help": 5903,
      "åľĪ": 5904,
      "Ġcow": 5905,
      "ays": 5906,
      "å¤§äºº": 5907,
      "ĠGra": 5908,
      "fer": 5909,
      "Ġzeer": 5910,
      "Ġafg": 5911,
      "Ġtrad": 5912,
      "è±Ĩ": 5913,
      "Because": 5914,
      "ä½łäºĨ": 5915,
      "Ġhar": 5916,
      "ĠDecember": 5917,
      "kn": 5918,
      "Ġeraan": 5919,
      "Ġä½łè¦ģ": 5920,
      "æĥ³è¦ģ": 5921,
      "åħħ": 5922,
      "ç§¯": 5923,
      "åĸĦ": 5924,
      "Ġtype": 5925,
      "ĠGu": 5926,
      "è¿Ļä¹Īå¤ļ": 5927,
      "hello": 5928,
      "Ġvergelijk": 5929,
      "thern": 5930,
      "Ġkennen": 5931,
      "eding": 5932,
      "Ġzorg": 5933,
      "Ġkonden": 5934,
      "Ġliet": 5935,
      "èĢģæĿ¿": 5936,
      "onde": 5937,
      "ĠLaur": 5938,
      "åĪº": 5939,
      "âĢ": 5940,
      "Ġabove": 5941,
      "Ġvliegt": 5942,
      "Ġheer": 5943,
      "alright": 5944,
      "Ġfit": 5945,
      "kening": 5946,
      "Ġä¸Ĭ": 5947,
      "å°ģ": 5948,
      "Ġvoort": 5949,
      "ä¼¯": 5950,
      "vin": 5951,
      "Alleen": 5952,
      "Ġlijn": 5953,
      "ä¸Ģåıª": 5954,
      "æ´ĭ": 5955,
      "Ġdad": 5956,
      "ä¸´": 5957,
      "Ġpraat": 5958,
      "Ġhur": 5959,
      "çļĦéĤ£": 5960,
      "ä½łè¿Ļ": 5961,
      "Ġrespect": 5962,
      "aven": 5963,
      "Ġnamed": 5964,
      "è¾Ľ": 5965,
      "Ġhung": 5966,
      "æĦŁæĥħ": 5967,
      "repen": 5968,
      "Ġkopen": 5969,
      "Ġren": 5970,
      "Gew": 5971,
      "maken": 5972,
      "ĠMil": 5973,
      "Ġdam": 5974,
      "ĠÃ": 5975,
      "äºļ": 5976,
      "è¿ĺä¸į": 5977,
      "åģ¥": 5978,
      "ĠNove": 5979,
      "Ġsex": 5980,
      "Ġhus": 5981,
      "ĠNovember": 5982,
      "ĠåĮ": 5983,
      "bert": 5984,
      "ĠCHI": 5985,
      "raagd": 5986,
      "å°±æĺ¯è¯´": 5987,
      "ç¬Ķ": 5988,
      "Ġstood": 5989,
      "vorm": 5990,
      "Ġdaughter": 5991,
      "æĹģ": 5992,
      "Ġworked": 5993,
      "èĥ½ä¸įèĥ½": 5994,
      "å®ĭ": 5995,
      "stellen": 5996,
      "Ġopg": 5997,
      "Ġcirc": 5998,
      "lingen": 5999,
      "point": 6000,
      "eptember": 6001,
      "Ġmember": 6002,
      "itter": 6003,
      "è¶ĬæĿ¥": 6004,
      "åŃ¦çĶŁ": 6005,
      "ories": 6006,
      "åĪĢ": 6007,
      "ukt": 6008,
      "ills": 6009,
      "ç»ĩ": 6010,
      "Ġwest": 6011,
      "ĠSm": 6012,
      "çĻ¾åĪĨä¹ĭ": 6013,
      "Ġruimte": 6014,
      "è®¨": 6015,
      "pel": 6016,
      "stairs": 6017,
      "Ġknows": 6018,
      "ä¿ĿæĬ¤": 6019,
      "èŀ": 6020,
      "Ġpriv": 6021,
      "Ġlovely": 6022,
      "Ġgep": 6023,
      "Ġwaarde": 6024,
      "ength": 6025,
      "gegeven": 6026,
      "Ġclothes": 6027,
      "åģļçļĦ": 6028,
      "Ġfear": 6029,
      "ĠSu": 6030,
      "Ġmaand": 6031,
      "ĠVeren": 6032,
      "Some": 6033,
      "ection": 6034,
      "Ġlange": 6035,
      "Ġbegrijp": 6036,
      "LA": 6037,
      "Ġdaarom": 6038,
      "ĠPres": 6039,
      "åŃ¦æł¡": 6040,
      "ebru": 6041,
      "Ġlunch": 6042,
      "ĠSun": 6043,
      "dern": 6044,
      "è¶ĬæĿ¥è¶Ĭ": 6045,
      "dden": 6046,
      "lijn": 6047,
      "æĪĳåľ¨": 6048,
      "MCH": 6049,
      "Ġain": 6050,
      "æĸĩåĮĸ": 6051,
      "æ£Ģ": 6052,
      "ĠPart": 6053,
      "eller": 6054,
      "ä»Ļ": 6055,
      "oose": 6056,
      "ĠTer": 6057,
      "ĠOctober": 6058,
      "ä¸Ģä¼ļåĦ¿": 6059,
      "æĿ¯": 6060,
      "ĠæĪĳè¯´": 6061,
      "rift": 6062,
      "éĥ¨åĪĨ": 6063,
      "Ġpain": 6064,
      "dan": 6065,
      "Ġforward": 6066,
      "kant": 6067,
      "é¦Ĩ": 6068,
      "uigen": 6069,
      "éĥ½ä¼ļ": 6070,
      "Wanneer": 6071,
      "Ġpig": 6072,
      "Ġshoes": 6073,
      "Ġzak": 6074,
      "recht": 6075,
      "Ġformule": 6076,
      "sta": 6077,
      "ĠGeorge": 6078,
      "Ġkoff": 6079,
      "è´§": 6080,
      "Ġhuman": 6081,
      "rop": 6082,
      "åĴĭ": 6083,
      "éĩĬ": 6084,
      "Ġåº": 6085,
      "Ġboom": 6086,
      "view": 6087,
      "Ġverr": 6088,
      "ç§ģ": 6089,
      "Ġgang": 6090,
      "Ġschip": 6091,
      "¤Ĳ": 6092,
      "ľçļĦ": 6093,
      "Ġjuiste": 6094,
      "Ġvillage": 6095,
      "å´": 6096,
      "aa": 6097,
      "Ġbath": 6098,
      "Ġpassed": 6099,
      "Ġbab": 6100,
      "Ġsnow": 6101,
      "åįļ": 6102,
      "Ġesc": 6103,
      "éĻį": 6104,
      "Ġgingen": 6105,
      "Ġherself": 6106,
      "Ġkiss": 6107,
      "Every": 6108,
      "ä¹Łæ²¡æľī": 6109,
      "ä¾Ľ": 6110,
      "è´¥": 6111,
      "ĠLeg": 6112,
      "Ġcommon": 6113,
      "ä¸Ģå®ļä¼ļ": 6114,
      "ĠBritish": 6115,
      "Ġyours": 6116,
      "zonder": 6117,
      "ĠLees": 6118,
      "ision": 6119,
      "Ġafbeelding": 6120,
      "åľ°è¯´": 6121,
      "astic": 6122,
      "which": 6123,
      "Ġbuurt": 6124,
      "ublieft": 6125,
      "ç¢°": 6126,
      "æĿ¥åĪ°": 6127,
      "bers": 6128,
      "ekijk": 6129,
      "Ġvlucht": 6130,
      "ĠMy": 6131,
      "Ġcried": 6132,
      "æĪĳçľĭ": 6133,
      "ĠUniversity": 6134,
      "Ġcorn": 6135,
      "Ġelek": 6136,
      "ebruary": 6137,
      "åĬªåĬĽ": 6138,
      "æ¸¸æĪı": 6139,
      "Sn": 6140,
      "Ġmater": 6141,
      "æĪĳåİ»": 6142,
      "èĿ": 6143,
      "Ġlist": 6144,
      "Ġlots": 6145,
      "é½Ĳ": 6146,
      "ĠYeah": 6147,
      "Ġeasy": 6148,
      "gly": 6149,
      "Ġexamen": 6150,
      "stublieft": 6151,
      "Ġsudden": 6152,
      "Ġdest": 6153,
      "ĠGeef": 6154,
      "Ġspreek": 6155,
      "Ġgevol": 6156,
      "è¡¥": 6157,
      "eltje": 6158,
      "éģį": 6159,
      "cel": 6160,
      "ĠAfter": 6161,
      "è¿ĺè¦ģ": 6162,
      "Ġsand": 6163,
      "ases": 6164,
      "è¢ĭ": 6165,
      "OM": 6166,
      "ä¸¢": 6167,
      "Ġlonger": 6168,
      "Ġontmoet": 6169,
      "æħ¢æħ¢": 6170,
      "iod": 6171,
      "Ġkor": 6172,
      "ĠApril": 6173,
      "nemen": 6174,
      "è¯į": 6175,
      "Ġrode": 6176,
      "ocol": 6177,
      "Ġfort": 6178,
      "åĸĬ": 6179,
      "ĠFran": 6180,
      "iny": 6181,
      "Ġsterk": 6182,
      "Alsjeblieft": 6183,
      "hold": 6184,
      "æģĲ": 6185,
      "Ġvoedsel": 6186,
      "oning": 6187,
      "your": 6188,
      "onk": 6189,
      "Ġå§": 6190,
      "kenen": 6191,
      "æĬĺ": 6192,
      "åĲµ": 6193,
      "ä½łçŁ¥éģĵ": 6194,
      "èī²çļĦ": 6195,
      "hoog": 6196,
      "Ġluck": 6197,
      "éĥ½åľ¨": 6198,
      "Ġcoun": 6199,
      "Ġsuggest": 6200,
      "ĠNe": 6201,
      "è¿Ľåİ»": 6202,
      "ä¸įæĥ³": 6203,
      "Ġhors": 6204,
      "Ġkids": 6205,
      "Ġtoek": 6206,
      "Ġreis": 6207,
      "Ġcop": 6208,
      "Ġdress": 6209,
      "ered": 6210,
      "UN": 6211,
      "Ġmakkelijk": 6212,
      "Gr": 6213,
      "nam": 6214,
      "wegen": 6215,
      "è§£æŀĲ": 6216,
      "Ġweken": 6217,
      "Ġreleased": 6218,
      "Ġsuff": 6219,
      "çľŁçļĦæĺ¯": 6220,
      "Ġblijf": 6221,
      "Ġ21": 6222,
      "ĠCounty": 6223,
      "ĠGel": 6224,
      "æķ´ä¸ª": 6225,
      "åĲįåŃĹ": 6226,
      "éŃĶ": 6227,
      "Ġpolice": 6228,
      "Bel": 6229,
      "Ġtechn": 6230,
      "ĠRob": 6231,
      "ç»ıå¸¸": 6232,
      "Ġhusband": 6233,
      "è¿Ļä»¶": 6234,
      "Ġwaardoor": 6235,
      "çĭ¸": 6236,
      "é¤Ĳ": 6237,
      "åıĺæĪĲ": 6238,
      "Pl": 6239,
      "æİ¢": 6240,
      "æ³¨æĦı": 6241,
      "Ġverwacht": 6242,
      "geet": 6243,
      "will": 6244,
      "Ġijs": 6245,
      "iedenis": 6246,
      "Ġlow": 6247,
      "Hello": 6248,
      "Ġdream": 6249,
      "å¼ĥ": 6250,
      "Ġ192": 6251,
      "Ġcontrol": 6252,
      "æ¹ĸ": 6253,
      "Ġdig": 6254,
      "Ġvent": 6255,
      "ä»ĸä»¬çļĦ": 6256,
      "dien": 6257,
      "Ġthird": 6258,
      "eeg": 6259,
      "éĥ½æ²¡": 6260,
      "åĩłå¤©": 6261,
      "Ġbroken": 6262,
      "ĠCaptain": 6263,
      "Ġnad": 6264,
      "Ġpract": 6265,
      "æŀĦ": 6266,
      "Ġerop": 6267,
      "å¾ĹåĪ°": 6268,
      "ĠRepubl": 6269,
      "æµª": 6270,
      "Ġstof": 6271,
      "ikken": 6272,
      "åħ°": 6273,
      "è®Ń": 6274,
      "Ġmilit": 6275,
      "uist": 6276,
      "zin": 6277,
      "Ġkost": 6278,
      "åĨ°": 6279,
      "Ġnaast": 6280,
      "Ġexample": 6281,
      "æģ©": 6282,
      "ä¸»è¦ģ": 6283,
      "Ġkleur": 6284,
      "Ġmm": 6285,
      "Ġspl": 6286,
      "Ġtrein": 6287,
      "ĠPol": 6288,
      "Ġfant": 6289,
      "Ġseems": 6290,
      "genoot": 6291,
      "Zoals": 6292,
      "æľīäºĽ": 6293,
      "éĺµ": 6294,
      "ä½łæĢİä¹Ī": 6295,
      "Ġwear": 6296,
      "ustig": 6297,
      "Ġè¿Ļæł·": 6298,
      "Ġneeds": 6299,
      "å¸¦çĿĢ": 6300,
      "æ£®": 6301,
      "Ġredden": 6302,
      "Ġsick": 6303,
      "gelopen": 6304,
      "çľŁæŃ£": 6305,
      "çĲĨè§£": 6306,
      "æ¬¢è¿İ": 6307,
      "Bereken": 6308,
      "ĠZijn": 6309,
      "Ġvoelt": 6310,
      "Ġdaddy": 6311,
      "Ġvechten": 6312,
      "Ġ22": 6313,
      "ĠåĪ°": 6314,
      "Ġtrek": 6315,
      "lean": 6316,
      "èĮ¶": 6317,
      "æĬ¢": 6318,
      "bouw": 6319,
      "IE": 6320,
      "ĠIN": 6321,
      "é¢Ħ": 6322,
      "æĻ®": 6323,
      "uel": 6324,
      "çŃĶåºĶ": 6325,
      "ology": 6326,
      "ĠMen": 6327,
      "Ġgast": 6328,
      "Ġorganis": 6329,
      "Have": 6330,
      "antie": 6331,
      "Ġreger": 6332,
      "ĠOnder": 6333,
      "fast": 6334,
      "este": 6335,
      "æĻº": 6336,
      "ĠWil": 6337,
      "Door": 6338,
      "èĪĴ": 6339,
      "zus": 6340,
      "çĩ": 6341,
      "Ġontstaan": 6342,
      "druk": 6343,
      "åĽŀæĿ¥äºĨ": 6344,
      "Ġvuur": 6345,
      "ĠAan": 6346,
      "Ġwinter": 6347,
      "with": 6348,
      "Ġsight": 6349,
      "æ¦Ĥ": 6350,
      "èĥ½åĬĽ": 6351,
      "ĠAmerikaanse": 6352,
      "iety": 6353,
      "vangen": 6354,
      "ĠåĽŀ": 6355,
      "Ġblock": 6356,
      "Ġenorm": 6357,
      "IC": 6358,
      "Ġbaas": 6359,
      "èĩ£": 6360,
      "kijk": 6361,
      "ĠBer": 6362,
      "ĠæĪĳè¦ģ": 6363,
      "Ġåĸ": 6364,
      "éĻĨ": 6365,
      "Ġè¿Ļä¹Ī": 6366,
      "Ġcouple": 6367,
      "åħ¬ä¸»": 6368,
      "ette": 6369,
      "åĵ¥åĵ¥": 6370,
      "Ġmiddel": 6371,
      "çłĶç©¶": 6372,
      "Ġeating": 6373,
      "Ġsupport": 6374,
      "Ġhell": 6375,
      "çĥŁ": 6376,
      "Ġdiscover": 6377,
      "Ġrijden": 6378,
      "ĠLet": 6379,
      "å¦Ĥä½ķ": 6380,
      "ipe": 6381,
      "Ġslow": 6382,
      "Ġprobeer": 6383,
      "ĠJuly": 6384,
      "gar": 6385,
      "çĭĲçĭ¸": 6386,
      "Ġfijn": 6387,
      "åħį": 6388,
      "å½Ĵ": 6389,
      "lymp": 6390,
      "itty": 6391,
      "Ġarri": 6392,
      "éª¨": 6393,
      "',": 6394,
      "Ġdelen": 6395,
      "Ġèµ°": 6396,
      "Ġgister": 6397,
      "ĠSeptember": 6398,
      "æĹħ": 6399,
      "Ġhuid": 6400,
      "Ġgeboren": 6401,
      "èĮĥ": 6402,
      "ĠLa": 6403,
      "å½ķ": 6404,
      "Vertel": 6405,
      "ozen": 6406,
      "Ġbos": 6407,
      "Ġcontact": 6408,
      "Ġtonight": 6409,
      "Ġvolk": 6410,
      "Ġbow": 6411,
      "Ġdeep": 6412,
      "toe": 6413,
      "Ġsounds": 6414,
      "imin": 6415,
      "wood": 6416,
      "Ġwaiting": 6417,
      "Ġwakker": 6418,
      "çļĦäºĭåĦ¿": 6419,
      "Ġhaal": 6420,
      "eh": 6421,
      "aling": 6422,
      "ĠFebruary": 6423,
      "Ġspeelt": 6424,
      "espe": 6425,
      "Dag": 6426,
      "æĸ°éĹ»": 6427,
      "çĶļèĩ³": 6428,
      "Ġ40": 6429,
      "Dr": 6430,
      "Gel": 6431,
      "ä¸įä½ı": 6432,
      "éĥ½æľī": 6433,
      "Ġsail": 6434,
      "æĬĢæľ¯": 6435,
      "ya": 6436,
      "Ġomge": 6437,
      "Ġgevoel": 6438,
      "ĠRobert": 6439,
      "é¡¿": 6440,
      "phen": 6441,
      "Ġthr": 6442,
      "Ġarms": 6443,
      "Ġmid": 6444,
      "Ġlid": 6445,
      "è¦ģæ±Ĥ": 6446,
      "è·ŁçĿĢ": 6447,
      "eddy": 6448,
      "Ġann": 6449,
      "ening": 6450,
      "Ġtreat": 6451,
      "Ġshut": 6452,
      "apa": 6453,
      "Ġgentle": 6454,
      "Ġdok": 6455,
      "åĲĮæĹ¶": 6456,
      "night": 6457,
      "Ġboard": 6458,
      "Ġfeeling": 6459,
      "onen": 6460,
      "ature": 6461,
      "Ġschree": 6462,
      "Ġstraight": 6463,
      "Ġspir": 6464,
      "Ġsal": 6465,
      "Ġlied": 6466,
      "Ġrelig": 6467,
      "Ġtired": 6468,
      "esterd": 6469,
      "æĸ½": 6470,
      "ĠHen": 6471,
      "Ġopnieuw": 6472,
      "å¾Īå¥½": 6473,
      "ĠPort": 6474,
      "ules": 6475,
      "Ġdepartment": 6476,
      "æĪĳè¿Ļ": 6477,
      "Ġzwaar": 6478,
      "Ġplaces": 6479,
      "çļĦéĤ£ä¸ª": 6480,
      "Ġjuice": 6481,
      "itein": 6482,
      "æĻĵ": 6483,
      "dr": 6484,
      "alle": 6485,
      "Ġpoints": 6486,
      "Ġå¤ª": 6487,
      "Ġmemb": 6488,
      "Ġforget": 6489,
      "uwen": 6490,
      "Ġtelevision": 6491,
      "ĠMad": 6492,
      "Ġfrog": 6493,
      "ichael": 6494,
      "30": 6495,
      "éĿ©": 6496,
      "Ġcost": 6497,
      "Ġboot": 6498,
      "ĠMark": 6499,
      "Ġschrij": 6500,
      "çīĮ": 6501,
      "Ġsuccess": 6502,
      "ira": 6503,
      "åĬ²": 6504,
      "Ġgelukkig": 6505,
      "ç¼º": 6506,
      "æľ¬æĿ¥": 6507,
      "reng": 6508,
      "å°±è¦ģ": 6509,
      "dam": 6510,
      "Ġdanger": 6511,
      "regen": 6512,
      "çģ°": 6513,
      "åį°": 6514,
      "æĸ°çļĦ": 6515,
      "Ġriver": 6516,
      "Ġmillion": 6517,
      "gang": 6518,
      "æĪĲåĬŁ": 6519,
      "Ġker": 6520,
      "ising": 6521,
      "Ġshoot": 6522,
      "Ġcaught": 6523,
      "agina": 6524,
      "éĤ£è¾¹": 6525,
      "ç³ĸ": 6526,
      "Ġputting": 6527,
      "arg": 6528,
      "Ġeil": 6529,
      "bor": 6530,
      "cing": 6531,
      "è¯Ĺ": 6532,
      "Ġkwijt": 6533,
      "ĠCent": 6534,
      "ĠCol": 6535,
      "èĵĿ": 6536,
      "work": 6537,
      "Ġobs": 6538,
      "æł¹æį®": 6539,
      "Ġä½łçļĦ": 6540,
      "rible": 6541,
      "cks": 6542,
      "èĥĸ": 6543,
      "Ġheavy": 6544,
      "thre": 6545,
      "å®ŀåľ¨": 6546,
      "Ġfollowing": 6547,
      "enny": 6548,
      "Ġadm": 6549,
      "ts": 6550,
      "Ġgevraagd": 6551,
      "åĲ¬åĪ°": 6552,
      "attle": 6553,
      "See": 6554,
      "åĨ¬": 6555,
      "ä¸ĭçļĦ": 6556,
      "ç®Ģåįķ": 6557,
      "esterday": 6558,
      "èĦ±": 6559,
      "Ġveranderen": 6560,
      "Per": 6561,
      "å·¦": 6562,
      "Ġled": 6563,
      "åľĨ": 6564,
      "Ġmeestal": 6565,
      "Ġplane": 6566,
      "æļĹ": 6567,
      "Ġbellen": 6568,
      "æĺ¯è°ģ": 6569,
      "ç¨³": 6570,
      "xim": 6571,
      "Ġprison": 6572,
      "ogn": 6573,
      "Ġcamera": 6574,
      "Ġdik": 6575,
      "å°Ħ": 6576,
      "Ġevening": 6577,
      "ĠIndian": 6578,
      "Ġposition": 6579,
      "Ġsett": 6580,
      "åķĬä½ł": 6581,
      "MAR": 6582,
      "ella": 6583,
      "Ġbete": 6584,
      "11": 6585,
      "Ġcry": 6586,
      "Ġfarm": 6587,
      "Ġanyway": 6588,
      "beer": 6589,
      "Ġvisit": 6590,
      "ume": 6591,
      "Ġbroke": 6592,
      "Ġenergie": 6593,
      "Her": 6594,
      "Ġpassen": 6595,
      "åľ¨æĪĳ": 6596,
      "ĠGrand": 6597,
      "çħ§é¡¾": 6598,
      "Ġreactie": 6599,
      "è§£åĨ³": 6600,
      "Ġæĺ¯ä¸įæĺ¯": 6601,
      "Ġmur": 6602,
      "Ġbaan": 6603,
      "oft": 6604,
      "åŃĲéĩĮ": 6605,
      "Ġmeisjes": 6606,
      "çĺ": 6607,
      "å¿į": 6608,
      "oppen": 6609,
      "åĽ°": 6610,
      "Ġduur": 6611,
      "Ġnamelijk": 6612,
      "ĠEuropa": 6613,
      "ĠæľĢ": 6614,
      "æĶ¹åıĺ": 6615,
      "blad": 6616,
      "ĠMOT": 6617,
      "Ġoveral": 6618,
      "Ġmeester": 6619,
      "Ġnamen": 6620,
      "llustr": 6621,
      "Ġpan": 6622,
      "Naar": 6623,
      "çĶŁæ°Ķ": 6624,
      "inter": 6625,
      "Ġkast": 6626,
      "æī¹": 6627,
      "æĽ¾ç»ı": 6628,
      "Ġmidden": 6629,
      "ĠWilliam": 6630,
      "çİ¯å¢ĥ": 6631,
      "ket": 6632,
      "åķĬæĪĳ": 6633,
      "ebruik": 6634,
      "åĳĹ": 6635,
      "ingers": 6636,
      "Ġeh": 6637,
      "å¹¸ç¦ı": 6638,
      "ä½Ļ": 6639,
      "lands": 6640,
      "Ġcal": 6641,
      "Ġrequ": 6642,
      "naam": 6643,
      "æ¢ħ": 6644,
      "ĠChristmas": 6645,
      "é¢ĳ": 6646,
      "Ġboos": 6647,
      "Want": 6648,
      "Ġtrees": 6649,
      "ĠDuitsland": 6650,
      "ä¼ĳæģ¯": 6651,
      "ospital": 6652,
      "din": 6653,
      "afel": 6654,
      "Ġmevrouw": 6655,
      "ĠDE": 6656,
      "Ġeet": 6657,
      "aste": 6658,
      "Ġhotel": 6659,
      "Ġricht": 6660,
      "Ġknock": 6661,
      "æ°¸è¿ľ": 6662,
      "With": 6663,
      "å°ıå¿ĥ": 6664,
      "éĻ¤äºĨ": 6665,
      "Ġcarry": 6666,
      "vloed": 6667,
      "å³": 6668,
      "Ġmembers": 6669,
      "Ġwinnen": 6670,
      "èĢĥèĻĳ": 6671,
      "åİ»æī¾": 6672,
      "çīĻ": 6673,
      "æĳĨ": 6674,
      "ĠPe": 6675,
      "John": 6676,
      "Ġreached": 6677,
      "Ġnor": 6678,
      "Ġformer": 6679,
      "osaur": 6680,
      "Ġeye": 6681,
      "åĩı": 6682,
      "çĪ·çĪ·": 6683,
      "Ġlanguage": 6684,
      "Ġquickly": 6685,
      "Ġzus": 6686,
      "ĠæĪĳçİ°åľ¨": 6687,
      "uken": 6688,
      "Ġmachine": 6689,
      "Ġ#": 6690,
      "ĠSome": 6691,
      "Ġworks": 6692,
      "Ġforgot": 6693,
      "Ġminister": 6694,
      "empt": 6695,
      "Ġslim": 6696,
      "Ġmeth": 6697,
      "è¡Ĺ": 6698,
      "è¶£": 6699,
      "otte": 6700,
      "æĳĩ": 6701,
      "Ġkort": 6702,
      "Ġwaarheid": 6703,
      "å§Ĳå§Ĳ": 6704,
      "èģª": 6705,
      "çļĩä¸Ĭ": 6706,
      "Ġbreat": 6707,
      "å®Ĺ": 6708,
      "aalt": 6709,
      "Ġsouth": 6710,
      "ersch": 6711,
      "Ġreplied": 6712,
      "Even": 6713,
      "å¼Ĥ": 6714,
      "å¯¹æĪĳ": 6715,
      "ä»»åĬ¡": 6716,
      "edia": 6717,
      "Ġshout": 6718,
      "laag": 6719,
      "Ġabsol": 6720,
      "Ġking": 6721,
      "eech": 6722,
      "å¸Ĥåľº": 6723,
      "Ġnearly": 6724,
      "Ġstorm": 6725,
      "ĠMommy": 6726,
      "å¥³åŃ©": 6727,
      "hij": 6728,
      "sm": 6729,
      "åıĤåĬł": 6730,
      "ala": 6731,
      "Ġvandaan": 6732,
      "ym": 6733,
      "ä¾ĭ": 6734,
      "åª³": 6735,
      "ieke": 6736,
      "éº»çĥ¦": 6737,
      "Ġmajor": 6738,
      "Ġbuilding": 6739,
      "å¤§äºĨ": 6740,
      "çĽĺ": 6741,
      "Ġamb": 6742,
      "Ġweeks": 6743,
      "ĠZuid": 6744,
      "Ġhield": 6745,
      "Ġwhatever": 6746,
      "stad": 6747,
      "GRA": 6748,
      "Ġlab": 6749,
      "ĠGa": 6750,
      "AS": 6751,
      "Ġhom": 6752,
      "æĿŁ": 6753,
      "ĠReg": 6754,
      "After": 6755,
      "äººä»¬": 6756,
      "ĠåĴĮ": 6757,
      "éĹ®ä½ł": 6758,
      "ioen": 6759,
      "Ġveroor": 6760,
      "ified": 6761,
      "è¾ĵ": 6762,
      "æİ¥åıĹ": 6763,
      "ĠSan": 6764,
      "Ġoffice": 6765,
      "åĮ»çĶŁ": 6766,
      "Ġgeneral": 6767,
      "zijn": 6768,
      "ubb": 6769,
      "åĳĬè¯īæĪĳ": 6770,
      "zel": 6771,
      "uch": 6772,
      "Ġaccept": 6773,
      "å¯»": 6774,
      "Ġmoesten": 6775,
      "ossing": 6776,
      "ucy": 6777,
      "Ġtoekomst": 6778,
      "Ġeverybody": 6779,
      "Ġcast": 6780,
      "Ġregel": 6781,
      "Ġseem": 6782,
      "éļ¾éģĵ": 6783,
      "uurd": 6784,
      "å®ĥçļĦ": 6785,
      "Ġåıªè¦ģ": 6786,
      "Ġnoises": 6787,
      "Ã¯n": 6788,
      "ä¸ĬéĿ¢": 6789,
      "Ġsupposed": 6790,
      "Ġchanged": 6791,
      "ĠStaten": 6792,
      "Ġsad": 6793,
      "Ġkeek": 6794,
      "æīĺ": 6795,
      "æĽ²": 6796,
      "Ġperform": 6797,
      "rodu": 6798,
      "èĩªçĦ¶": 6799,
      "Ġdoubt": 6800,
      "Ġzaken": 6801,
      "zoeken": 6802,
      "åı³": 6803,
      "ĠNational": 6804,
      "Ġcertainly": 6805,
      "Ġradio": 6806,
      "Ġtick": 6807,
      "Ġzuur": 6808,
      "ä¼ļæľī": 6809,
      "Ġview": 6810,
      "Ġregen": 6811,
      "ĠOlymp": 6812,
      "iot": 6813,
      "Ġlim": 6814,
      "ç¥Ŀ": 6815,
      "Ġreturned": 6816,
      "laimed": 6817,
      "æļĸ": 6818,
      "erecht": 6819,
      "Ġperiod": 6820,
      "è¿Ľåħ¥": 6821,
      "Ġverv": 6822,
      "field": 6823,
      "Ġcell": 6824,
      "Ġintern": 6825,
      "åİŁæĿ¥": 6826,
      "some": 6827,
      "åĬ³": 6828,
      "ui": 6829,
      "esse": 6830,
      "Ġmun": 6831,
      "Ġarg": 6832,
      "uro": 6833,
      "Ġtowards": 6834,
      "Ġregering": 6835,
      "æ¾": 6836,
      "Ġkennis": 6837,
      "Ġerin": 6838,
      "èİ«": 6839,
      "Ġdroom": 6840,
      "Ġdescri": 6841,
      "zichtig": 6842,
      "ĠWelke": 6843,
      "leanor": 6844,
      "ĠNow": 6845,
      "Ġspace": 6846,
      "çĿĢæĢ¥": 6847,
      "ĠJo": 6848,
      "å·§": 6849,
      "ippen": 6850,
      "clus": 6851,
      "halen": 6852,
      "Ġ$": 6853,
      "Ġworry": 6854,
      "emand": 6855,
      "æ¤į": 6856,
      "Ġninet": 6857,
      "Ġcake": 6858,
      "å¸®æĪĳ": 6859,
      "Ġdrive": 6860,
      "Ġinsp": 6861,
      "æĬĬä½ł": 6862,
      "Ġstraat": 6863,
      "Ġboeken": 6864,
      "veren": 6865,
      "Ġusing": 6866,
      "ĠMartin": 6867,
      "joy": 6868,
      "Ġwritten": 6869,
      "Ġzichzelf": 6870,
      "Rustig": 6871,
      "Ġtoward": 6872,
      "è®¾è®¡": 6873,
      "ĠHeb": 6874,
      "oogle": 6875,
      "å°Ŀ": 6876,
      "å¯¹åķĬ": 6877,
      "Ġkid": 6878,
      "Ġsecret": 6879,
      "Ġglass": 6880,
      "ĠSl": 6881,
      "oci": 6882,
      "Ġhuil": 6883,
      "è¾ĪåŃĲ": 6884,
      "Ġinstead": 6885,
      "FCH": 6886,
      "Ġrace": 6887,
      "Ġbuilt": 6888,
      "Ġdw": 6889,
      "åī¯": 6890,
      "Onze": 6891,
      "å¤ĸéĿ¢": 6892,
      "Ġahead": 6893,
      "kens": 6894,
      "åĶĲ": 6895,
      "å®ģ": 6896,
      "å¦ĤæŃ¤": 6897,
      "Ġmix": 6898,
      "egd": 6899,
      "ux": 6900,
      "ĠJer": 6901,
      "æģ¶": 6902,
      "Excuse": 6903,
      "ä»Ģä¹ĪæĹ¶åĢĻ": 6904,
      "å¿«ä¹Ĳ": 6905,
      "Ġpieces": 6906,
      "zetten": 6907,
      "ä»Ģä¹ĪåĳĢ": 6908,
      "Ġbedrijf": 6909,
      "ida": 6910,
      "æł¸": 6911,
      "Ġ23": 6912,
      "Ġpreten": 6913,
      "laas": 6914,
      "å¸ħ": 6915,
      "Ġbehulp": 6916,
      "å¥ĸ": 6917,
      "Ġcompet": 6918,
      "æĮ¥": 6919,
      "reden": 6920,
      "Maybe": 6921,
      "Ġgiving": 6922,
      "Ġpack": 6923,
      "éķ¿çļĦ": 6924,
      "Ġjonge": 6925,
      "Ġ2018": 6926,
      "æĪĳçŁ¥éģĵ": 6927,
      "Ġseat": 6928,
      "åŁİå¸Ĥ": 6929,
      "Ġgrafiek": 6930,
      "aff": 6931,
      "ĠHar": 6932,
      "ĠLou": 6933,
      "Ġsomm": 6934,
      "Ġneg": 6935,
      "achte": 6936,
      "Ġexcept": 6937,
      "rian": 6938,
      "Ġfruit": 6939,
      "Hoi": 6940,
      "æ²ī": 6941,
      "ĠGro": 6942,
      "bei": 6943,
      "ĠChina": 6944,
      "Ġverloren": 6945,
      "organ": 6946,
      "ä½ľçĶ¨": 6947,
      "éĽ·": 6948,
      "Ġtelling": 6949,
      "åĵªéĩĮ": 6950,
      "isper": 6951,
      "åŃ£": 6952,
      "ugd": 6953,
      "éķľ": 6954,
      "å¤ªéĺ³": 6955,
      "Ġjump": 6956,
      "Ġblad": 6957,
      "éŁ³ä¹Ĳ": 6958,
      "gene": 6959,
      "äººæ°ĳ": 6960,
      "iday": 6961,
      "çĸĹ": 6962,
      "Twee": 6963,
      "äºĨä»ĸ": 6964,
      "essie": 6965,
      "zier": 6966,
      "arah": 6967,
      "Ġhig": 6968,
      "anny": 6969,
      "Ġhoorde": 6970,
      "rent": 6971,
      "etjes": 6972,
      "åİŁåĽł": 6973,
      "Ġdistrict": 6974,
      "Ġ2021": 6975,
      "æ¸Ĳ": 6976,
      "PO": 6977,
      "å±ŀäºİ": 6978,
      "çŀ§": 6979,
      "åĭĩ": 6980,
      "kan": 6981,
      "å°¾": 6982,
      "Welke": 6983,
      "leiding": 6984,
      "rijden": 6985,
      "æĢ»æĺ¯": 6986,
      "Ġstemmen": 6987,
      "Ġè·Ł": 6988,
      "Ġbeide": 6989,
      "ä¸ĢèĪ¬": 6990,
      "ĠCarl": 6991,
      "åħ³äºİ": 6992,
      "Ġdokter": 6993,
      "noise": 6994,
      "ç«¯": 6995,
      "Ġservice": 6996,
      "åİĤ": 6997,
      "Ġwaarbij": 6998,
      "oorlog": 6999,
      "Volgens": 7000,
      "Ġchem": 7001,
      "Ġè¿ĻäºĽ": 7002,
      "è¡ĮäºĨ": 7003,
      "å®¶äºº": 7004,
      "Ġkunst": 7005,
      "çļĦåĲĹ": 7006,
      "Ġwrote": 7007,
      "Ġfollowed": 7008,
      "Ġwedstrijd": 7009,
      "Ġkat": 7010,
      "board": 7011,
      "Ġproject": 7012,
      "zil": 7013,
      "Ġpolitic": 7014,
      "ä¿¡æģ¯": 7015,
      "Daarom": 7016,
      "ĠZij": 7017,
      "è§ģè¿ĩ": 7018,
      "ula": 7019,
      "Ġbreakfast": 7020,
      "Ġliter": 7021,
      "ĠSim": 7022,
      "Any": 7023,
      "Ġcareful": 7024,
      "å¯¹äºİ": 7025,
      "æĹłæ³ķ": 7026,
      "Ġhappens": 7027,
      "Ġnatuur": 7028,
      "Daddy": 7029,
      "å°Ĭ": 7030,
      "uses": 7031,
      "åª³å¦ĩ": 7032,
      "nem": 7033,
      "Ġincluding": 7034,
      "çĤ¹åĦ¿": 7035,
      "Ġauthor": 7036,
      "ammer": 7037,
      "ĠåĬ": 7038,
      "ä»İæĿ¥": 7039,
      "Ġdoc": 7040,
      "okken": 7041,
      "Vooruit": 7042,
      "Ġbepaalde": 7043,
      "LE": 7044,
      "ĠRich": 7045,
      "ä¸¤ä¸ªäºº": 7046,
      "æ¯ķç«Ł": 7047,
      "say": 7048,
      "uts": 7049,
      "ictor": 7050,
      "Ġä¸ī": 7051,
      "...\"": 7052,
      "beelden": 7053,
      "reep": 7054,
      "Ġterm": 7055,
      "Ġcentury": 7056,
      "ĠRo": 7057,
      "wezen": 7058,
      "å°±åľ¨": 7059,
      "è½®": 7060,
      "Ġstanding": 7061,
      "çļĦåķĬ": 7062,
      "Ġliever": 7063,
      "Ġpress": 7064,
      "Ġindeed": 7065,
      "stelling": 7066,
      "åĽŀäºĭ": 7067,
      "èħ¿": 7068,
      "ä¸Ĭæµ·": 7069,
      "æŁĵ": 7070,
      "Ġaardig": 7071,
      "Ġgeheim": 7072,
      "æĪĳçİ°åľ¨": 7073,
      "ä¹Į": 7074,
      "Ġlanger": 7075,
      "è·ŁæĪĳè¯´": 7076,
      "çģ¯": 7077,
      "uwelijk": 7078,
      "sterd": 7079,
      "elijkheid": 7080,
      "AND": 7081,
      "Uit": 7082,
      "Ġdisapp": 7083,
      "Ġfill": 7084,
      "åºĨ": 7085,
      "Ġhistory": 7086,
      "Ġappar": 7087,
      "maybe": 7088,
      "Ġrustig": 7089,
      "ä»ĸæĺ¯": 7090,
      "ĠJames": 7091,
      "åĩĢ": 7092,
      "idence": 7093,
      "åĲ¹": 7094,
      "Ġæ¯ı": 7095,
      "æī§": 7096,
      "itchen": 7097,
      "Ġearth": 7098,
      "ĠZw": 7099,
      "Ġseason": 7100,
      "Pak": 7101,
      "heb": 7102,
      "ä¸Ģè¾¹": 7103,
      "ĠäºĮ": 7104,
      "Ġwand": 7105,
      "Ġslaap": 7106,
      "Ġmeant": 7107,
      "offee": 7108,
      "Ġreach": 7109,
      "ä¼ģ": 7110,
      "Ġ(\"": 7111,
      "elingen": 7112,
      "Ġrob": 7113,
      "Ġplayer": 7114,
      "Ġdecided": 7115,
      "Ġgeluid": 7116,
      "Ġdesign": 7117,
      "ny": 7118,
      "ribut": 7119,
      "çĿ¡è§ī": 7120,
      "å®¶åºŃ": 7121,
      "would": 7122,
      "ĠRoy": 7123,
      "çŃĸ": 7124,
      "Net": 7125,
      "Ġpuzz": 7126,
      "é»ĺ": 7127,
      "Ġexpect": 7128,
      "lleucyl": 7129,
      "Meneer": 7130,
      "Ġafterno": 7131,
      "éŁ©": 7132,
      "Ġå¤©": 7133,
      "ä¸¤å¤©": 7134,
      "Ġverdomme": 7135,
      "Ġnews": 7136,
      "æĿ¡ä»¶": 7137,
      "icip": 7138,
      "Ġwaarschijnlijk": 7139,
      "Uh": 7140,
      "tjes": 7141,
      "èĶ": 7142,
      "ĠRiver": 7143,
      "ording": 7144,
      "æĪ´": 7145,
      "Ġyesterday": 7146,
      "æĬĬä»ĸ": 7147,
      "è·¯ä¸Ĭ": 7148,
      "Ġburn": 7149,
      "Ġanyone": 7150,
      "ĠToen": 7151,
      "edig": 7152,
      "Ġaller": 7153,
      "staan": 7154,
      "Ġmezelf": 7155,
      "Ġmoving": 7156,
      "éĢı": 7157,
      "Ġbelangrijke": 7158,
      "Ġgroter": 7159,
      "éŀĭ": 7160,
      "Ġstroom": 7161,
      "ĠDen": 7162,
      "iefd": 7163,
      "Ġleerlingen": 7164,
      "å°ĨåĨĽ": 7165,
      "Amer": 7166,
      "Ġur": 7167,
      "Ġ2019": 7168,
      "å®ĮæĪĲ": 7169,
      "Ġregels": 7170,
      "ĠDaarna": 7171,
      "Ġsense": 7172,
      "Ġmeen": 7173,
      "Ġopened": 7174,
      "Ġsilly": 7175,
      "å°ıæĹ¶": 7176,
      "ĠDoctor": 7177,
      "ugs": 7178,
      "åĽŀçŃĶ": 7179,
      "å¾ĹäºĨ": 7180,
      "Ġprins": 7181,
      "Ġmiles": 7182,
      "Ġdin": 7183,
      "Ġpaard": 7184,
      "Ġåī": 7185,
      "Ġblow": 7186,
      "elly": 7187,
      "Ġpil": 7188,
      "å®£": 7189,
      "ĠSat": 7190,
      "iller": 7191,
      "çĪ±çļĦ": 7192,
      "Ġplanten": 7193,
      "brand": 7194,
      "Ġcareer": 7195,
      "Ġvriendin": 7196,
      "Ġè¦ģä¸į": 7197,
      "Ġbeeld": 7198,
      "ĠMer": 7199,
      "Ġfre": 7200,
      "Ġkiezen": 7201,
      "iders": 7202,
      "illen": 7203,
      "Ġsucces": 7204,
      "Illustr": 7205,
      "å¨ģ": 7206,
      "çĽĬ": 7207,
      "åĲİéĿ¢": 7208,
      "gaat": 7209,
      "ĠNoord": 7210,
      "åĮĹäº¬": 7211,
      "anning": 7212,
      "Ġzaak": 7213,
      "Ġä½łè¿Ļ": 7214,
      "give": 7215,
      "Ġlocal": 7216,
      "ba": 7217,
      "aper": 7218,
      "Ġworth": 7219,
      "Ġplat": 7220,
      "Ġswe": 7221,
      "ushed": 7222,
      "agon": 7223,
      "Ġvolg": 7224,
      "ç«¥": 7225,
      "ç»Ŀå¯¹": 7226,
      "Ġthirty": 7227,
      "èµ¢": 7228,
      "éģĹ": 7229,
      "æ¬§": 7230,
      "Ġprijs": 7231,
      "ĠCom": 7232,
      "ĠVerenigde": 7233,
      "ä¸Ģçľĭ": 7234,
      "æĵį": 7235,
      "å¥½å¤ļ": 7236,
      "Ġomhoog": 7237,
      "Ġbread": 7238,
      "Ġä¸įè¦ģ": 7239,
      "Mama": 7240,
      "ç»ıè¿ĩ": 7241,
      "Ġä¸ĭ": 7242,
      "æĿ¥çľĭ": 7243,
      "Ġstom": 7244,
      "ampion": 7245,
      "Ġhungry": 7246,
      "çĶŁçļĦ": 7247,
      "Ġbestaan": 7248,
      "Ġeerlijk": 7249,
      "èº²": 7250,
      "ails": 7251,
      "å«Į": 7252,
      "æĶ¯æĮģ": 7253,
      "back": 7254,
      "roy": 7255,
      "schappen": 7256,
      "ĠGoogle": 7257,
      "ĠJust": 7258,
      "é¢ľ": 7259,
      "Ġstraks": 7260,
      "äºĶåįģ": 7261,
      "yle": 7262,
      "ĠWell": 7263,
      "æĬĬå®ĥ": 7264,
      "Ġzwem": 7265,
      "åĤ»": 7266,
      "pes": 7267,
      "ermen": 7268,
      "ĠBy": 7269,
      "zz": 7270,
      "Ġta": 7271,
      "ache": 7272,
      "Ġposit": 7273,
      "ĠDavid": 7274,
      "kw": 7275,
      "Ġtape": 7276,
      "ä½łåľ¨": 7277,
      "Ġieder": 7278,
      "Ġdiscuss": 7279,
      "ees": 7280,
      "Ġzul": 7281,
      "Ġuitleggen": 7282,
      "Ġkerk": 7283,
      "ĠFrankrijk": 7284,
      "Ġä½łä¸į": 7285,
      "Ġquestions": 7286,
      "ĠYOU": 7287,
      "Ġfir": 7288,
      "icle": 7289,
      "Ġlaughs": 7290,
      "amm": 7291,
      "Ġcomb": 7292,
      "moeten": 7293,
      "Ġdiep": 7294,
      "arts": 7295,
      "æĳ¸": 7296,
      "æĶ¿åºľ": 7297,
      "ground": 7298,
      "arp": 7299,
      "åħ±äº§": 7300,
      "Ġvroeger": 7301,
      "ĠWaarom": 7302,
      "Ġmountain": 7303,
      "è¿Ļä¸ªäºº": 7304,
      "Ġhasn": 7305,
      "ID": 7306,
      "valyl": 7307,
      "leep": 7308,
      "ĠæĪĳè¿Ļ": 7309,
      "çļĦæĹ¶éĹ´": 7310,
      "ä¸Ĭåİ»": 7311,
      "èĪį": 7312,
      "ĠStan": 7313,
      "Hoeveel": 7314,
      "Ġongeluk": 7315,
      "Ġzeven": 7316,
      "çĶµè§Ĩ": 7317,
      "Ĥ¬": 7318,
      "Ġpopulation": 7319,
      "Ġèĥ½": 7320,
      "Ġkitchen": 7321,
      "ç¬¨": 7322,
      "Ġafternoon": 7323,
      "ç«ł": 7324,
      "Ġmad": 7325,
      "è¡¨çİ°": 7326,
      "ç£¨": 7327,
      "Ġspring": 7328,
      "æĿĤ": 7329,
      "Ġsomewhere": 7330,
      "æĹ©å°±": 7331,
      "é¼ĵ": 7332,
      "ĠEgy": 7333,
      "Ġmotor": 7334,
      "Ġdem": 7335,
      "Ġstrange": 7336,
      "200": 7337,
      "iste": 7338,
      "éħ¸": 7339,
      "åľ¨è¿ĻéĩĮ": 7340,
      "derdaad": 7341,
      "Ġforce": 7342,
      "Ġhaat": 7343,
      "ĠWer": 7344,
      "æĥľ": 7345,
      "pend": 7346,
      "Ġhole": 7347,
      "spraak": 7348,
      "ĠMex": 7349,
      "Ġapart": 7350,
      "å°±åı¯ä»¥": 7351,
      "éĤ£ä½ł": 7352,
      "æĶ»": 7353,
      "è®¡åĪĴ": 7354,
      "å·¨": 7355,
      "Ġbelong": 7356,
      "Ġgrapp": 7357,
      "punt": 7358,
      "Ġvoll": 7359,
      "å¸®åĬ©": 7360,
      "Ġgeschreven": 7361,
      "åı¦å¤ĸ": 7362,
      "ĠPresident": 7363,
      "ĠçľŁçļĦ": 7364,
      "Ġgames": 7365,
      "ç¯®": 7366,
      "Un": 7367,
      "Ġenjoy": 7368,
      "æĦŁè°¢": 7369,
      "ç»Ħç»ĩ": 7370,
      "volgens": 7371,
      "Ġreceived": 7372,
      "æĺ¯æľī": 7373,
      "ĠAmerica": 7374,
      "Ġmommy": 7375,
      "å¤ĦçĲĨ": 7376,
      "Mooi": 7377,
      "åİ¿": 7378,
      "çıł": 7379,
      "Ġbottom": 7380,
      "lin": 7381,
      "ston": 7382,
      "ĠThese": 7383,
      "Ġkwaad": 7384,
      "hier": 7385,
      "ĠMot": 7386,
      "ĠCr": 7387,
      "çĤ¸": 7388,
      "proly": 7389,
      "ugen": 7390,
      "Ġherinner": 7391,
      "åĽŀåĪ°": 7392,
      "bled": 7393,
      "US": 7394,
      "é¢Ĺ": 7395,
      "Ġrechts": 7396,
      "ä¹Łæľī": 7397,
      "ugg": 7398,
      "åĪ«çļĦ": 7399,
      "æķ¬": 7400,
      "ä»£è¡¨": 7401,
      "Ġbesp": 7402,
      "Ġdocent": 7403,
      "Ġklim": 7404,
      "Ġserie": 7405,
      "Ġzieken": 7406,
      "ç²¾ç¥ŀ": 7407,
      "ooien": 7408,
      "å¥½åķĬ": 7409,
      "ieved": 7410,
      "Ġprofession": 7411,
      "Zelf": 7412,
      "Ġchicken": 7413,
      "èĻ«": 7414,
      "åıĺåĮĸ": 7415,
      "ros": 7416,
      "æĬ½": 7417,
      "Ġstopped": 7418,
      "present": 7419,
      "ä¸įè§ģ": 7420,
      "Ġtaal": 7421,
      "Wees": 7422,
      "Ġdur": 7423,
      "ä¸ĢæĿ¡": 7424,
      "ests": 7425,
      "teren": 7426,
      "å®īæİĴ": 7427,
      "ekst": 7428,
      "Ġkoningin": 7429,
      "Ġcharacter": 7430,
      "Ġban": 7431,
      "Ġbull": 7432,
      "Ġdorp": 7433,
      "çĶŁåĳ½": 7434,
      "Ġlegs": 7435,
      "Ġstuck": 7436,
      "Ġverwij": 7437,
      "Ġ27": 7438,
      "delen": 7439,
      "Ġä½łè¿ĺ": 7440,
      "Ġä½łåĪ«": 7441,
      "Ġsoorten": 7442,
      "CHAP": 7443,
      "ĠIndia": 7444,
      "Ġåı¯ä»¥": 7445,
      "Ġcere": 7446,
      "åħ¨éĥ¨": 7447,
      "Ġstuur": 7448,
      "èĤļ": 7449,
      "ishing": 7450,
      "å®¡": 7451,
      "Ġcarried": 7452,
      "ä»ĸå°±": 7453,
      "æ¯įäº²": 7454,
      "Ġheren": 7455,
      "è¡ĮåĬ¨": 7456,
      "Ġrecogn": 7457,
      "Ġrid": 7458,
      "Ġuite": 7459,
      "ç¥ĸ": 7460,
      "ä¸ĢçĻ¾": 7461,
      "Ġorange": 7462,
      "Ġanybody": 7463,
      "aches": 7464,
      "éĺ¿å§¨": 7465,
      "Ġhospital": 7466,
      "åĪĨéĴŁ": 7467,
      "kamer": 7468,
      "ĠRock": 7469,
      "Ġinformation": 7470,
      "ä½łè¿ĺ": 7471,
      "Ġklinkt": 7472,
      "Ġallowed": 7473,
      "Ġverschil": 7474,
      "Ġ26": 7475,
      "éĻĲ": 7476,
      "ä¸ĭäºĨ": 7477,
      "Ġcomfort": 7478,
      "LOI": 7479,
      "Ġfurther": 7480,
      "uture": 7481,
      "Ġversl": 7482,
      "Ġzoiets": 7483,
      "è½¯": 7484,
      "Ġtabel": 7485,
      "ims": 7486,
      "Ġgrass": 7487,
      "æīĵå¼Ģ": 7488,
      "ened": 7489,
      "ç»į": 7490,
      "Ġlevel": 7491,
      "Ġcomplet": 7492,
      "Ġstellen": 7493,
      "Ġverdien": 7494,
      "Ġçİĭ": 7495,
      "Ġdom": 7496,
      "Ġsafe": 7497,
      "æ±¤": 7498,
      "çľĭäºĨ": 7499,
      "Ġafge": 7500,
      "ĠPark": 7501,
      "ĠWhy": 7502,
      "Veel": 7503,
      "Ġåĵª": 7504,
      "Ġä¼ļ": 7505,
      "apens": 7506,
      "Ġinternet": 7507,
      "sings": 7508,
      "å¤§åŃ¦": 7509,
      "Ġtrots": 7510,
      "èħ¾": 7511,
      "Ġerbij": 7512,
      "è¿ĽæĿ¥": 7513,
      "è¡¨ç¤º": 7514,
      "estig": 7515,
      "Ġtv": 7516,
      "Ġsou": 7517,
      "icy": 7518,
      "Ġbase": 7519,
      "isole": 7520,
      "Zet": 7521,
      "å¥½åĲ§": 7522,
      "éģĩåĪ°": 7523,
      "Ġprop": 7524,
      "å¸®ä½ł": 7525,
      "Ġbasis": 7526,
      "çĥĪ": 7527,
      "æ»ļ": 7528,
      "Ġstukje": 7529,
      "Ter": 7530,
      "Ġaccount": 7531,
      "cially": 7532,
      "Ġ2017": 7533,
      "amous": 7534,
      "Ġexactly": 7535,
      "Ġlag": 7536,
      "wez": 7537,
      "nes": 7538,
      "éĺŁéķ¿": 7539,
      "Ġzinnen": 7540,
      "wow": 7541,
      "Ġtuin": 7542,
      "Ġwhom": 7543,
      "ç§»": 7544,
      "æĺ¯åĽłä¸º": 7545,
      "Ġmiddle": 7546,
      "sterdam": 7547,
      "ils": 7548,
      "ĠAmerika": 7549,
      "èĳ£": 7550,
      "Ġmicro": 7551,
      "ĠWith": 7552,
      "éĽĦ": 7553,
      "ĠYouT": 7554,
      "Ġbrown": 7555,
      "EÃ©n": 7556,
      "Ġfat": 7557,
      "Ġsave": 7558,
      "èģĶç³»": 7559,
      "Ġsubject": 7560,
      "Ġ28": 7561,
      "ç§¦": 7562,
      "åĲĥçļĦ": 7563,
      "opdracht": 7564,
      "æĪĳäºĨ": 7565,
      "åŁºæľ¬": 7566,
      "ĠSer": 7567,
      "Ġfucking": 7568,
      "Ġweren": 7569,
      "Ġkool": 7570,
      "Ġinten": 7571,
      "Ġfinish": 7572,
      "essor": 7573,
      "wijk": 7574,
      "äº¿": 7575,
      "ĠAN": 7576,
      "æĢĿèĢĥ": 7577,
      "Ġlinks": 7578,
      "Ġstruct": 7579,
      "ilder": 7580,
      "Ġspot": 7581,
      "ĠVeel": 7582,
      "wassen": 7583,
      "Ġzen": 7584,
      "entie": 7585,
      "Ġcars": 7586,
      "æĥ¯": 7587,
      "Ġovert": 7588,
      "car": 7589,
      "å¾Ĺå¾Ī": 7590,
      "ĠBelg": 7591,
      "æ¡Į": 7592,
      "Ġpupp": 7593,
      "Ġcause": 7594,
      "ĠSir": 7595,
      "Ġermee": 7596,
      "ä¸įå¤ª": 7597,
      "Ġstars": 7598,
      "ĠHall": 7599,
      "Ġconvers": 7600,
      "Ġsus": 7601,
      "zeker": 7602,
      "éĿ¢åīį": 7603,
      "çłģ": 7604,
      "åĲĦä½į": 7605,
      "Ġcompan": 7606,
      "hank": 7607,
      "LT": 7608,
      "Ġprocess": 7609,
      "Ġwhose": 7610,
      "ç¬¬ä¸Ģæ¬¡": 7611,
      "ban": 7612,
      "åĲī": 7613,
      "ĠFred": 7614,
      "Ġhoef": 7615,
      "vere": 7616,
      "Ġwapen": 7617,
      "Ġbought": 7618,
      "Ġplezier": 7619,
      "è§£éĩĬ": 7620,
      "çļĦå°±æĺ¯": 7621,
      "Ġcab": 7622,
      "Ġgeleerd": 7623,
      "Ġparents": 7624,
      "anda": 7625,
      "Ġinvol": 7626,
      "Ġraak": 7627,
      "Ġprinc": 7628,
      "sit": 7629,
      "TUR": 7630,
      "Ġeuro": 7631,
      "çŃ¾": 7632,
      "éĢ¼": 7633,
      "Ġgekregen": 7634,
      "ĠOver": 7635,
      "åģļäºĨ": 7636,
      "Ġtrust": 7637,
      "ä»Ĭå¹´": 7638,
      "çģŃ": 7639,
      "ĠBekijk": 7640,
      "Ġwinkel": 7641,
      "da": 7642,
      "Ġmod": 7643,
      "Ġtruth": 7644,
      "ona": 7645,
      "æļ´": 7646,
      "æ®µæĹ¶éĹ´": 7647,
      "å°±åĥı": 7648,
      "æĮĤ": 7649,
      "woordig": 7650,
      "Ġputs": 7651,
      "Ġvlak": 7652,
      "åįĥä¸ĩ": 7653,
      "å¾Ĳ": 7654,
      "åľ°ä¸Ĭ": 7655,
      "name": 7656,
      "å¥½ä¸įå¥½": 7657,
      "iteiten": 7658,
      "Ġtrouwen": 7659,
      "Ġimag": 7660,
      "glutaminyl": 7661,
      "ĠNin": 7662,
      "ĠBrazil": 7663,
      "RE": 7664,
      "ĠJul": 7665,
      "Ġwelk": 7666,
      "èĢģå©Ĩ": 7667,
      "éĽħ": 7668,
      "zing": 7669,
      "éļĲ": 7670,
      "ĠâĤ¬": 7671,
      "æ²Ī": 7672,
      "Illustration": 7673,
      "Ġreag": 7674,
      "Ġagent": 7675,
      "è´£ä»»": 7676,
      "å¹³æĹ¶": 7677,
      "ä½ıäºĨ": 7678,
      "Ġride": 7679,
      "OO": 7680,
      "oming": 7681,
      "å¾ģ": 7682,
      "çĪ¬": 7683,
      "Ġgegaan": 7684,
      "Ne": 7685,
      "ites": 7686,
      "ĠChe": 7687,
      "oeder": 7688,
      "Ġbegonnen": 7689,
      "Verdomme": 7690,
      "Ġadem": 7691,
      "ĠYouTube": 7692,
      "Ġbedankt": 7693,
      "rad": 7694,
      "lser": 7695,
      "ç¡¬": 7696,
      "Ġvermoorden": 7697,
      "Ġdev": 7698,
      "æīĵçĶµè¯Ŀ": 7699,
      "Ġbased": 7700,
      "ĠåĲ¬": 7701,
      "çļĦåĳĢ": 7702,
      "ĠMel": 7703,
      "iforn": 7704,
      "ĠJa": 7705,
      "æĶ¾åľ¨": 7706,
      "Ġvanuit": 7707,
      "Ġmodel": 7708,
      "å¯¹ä¸įèµ·": 7709,
      "Ġinfl": 7710,
      "Ġweergegeven": 7711,
      "please": 7712,
      "æŃ£å¸¸": 7713,
      "Ġfail": 7714,
      "Ġverniet": 7715,
      "éĤ£ä¹Īå¤ļ": 7716,
      "Qu": 7717,
      "Ġimm": 7718,
      "Ġbouw": 7719,
      "Ġleaving": 7720,
      "Ġcoffee": 7721,
      "ä¸Ģå¹´": 7722,
      "Ġbegrijpen": 7723,
      "ipedia": 7724,
      "å¨ĥ": 7725,
      "Ġ2010": 7726,
      "çªĹ": 7727,
      "wege": 7728,
      "æĭ¼": 7729,
      "Ġdut": 7730,
      "ä½³": 7731,
      "ikel": 7732,
      "Ġopt": 7733,
      "cellen": 7734,
      "Ġbutter": 7735,
      "Ġå¹²": 7736,
      "åĿĹéĴ±": 7737,
      "Ġå¹¶": 7738,
      "inen": 7739,
      "igg": 7740,
      "Ġwilden": 7741,
      "ission": 7742,
      "ä½łä½ł": 7743,
      "itted": 7744,
      "Ġswim": 7745,
      "åħ±äº§åħļ": 7746,
      "CHAPTER": 7747,
      "Ġä¸º": 7748,
      "Ġå¾Ī": 7749,
      "lei": 7750,
      "çĮľ": 7751,
      "Ġduck": 7752,
      "eless": 7753,
      "ommen": 7754,
      "Ġnecess": 7755,
      "oost": 7756,
      "Ġbevol": 7757,
      "åĩºæĿ¥äºĨ": 7758,
      "ĠOliver": 7759,
      "ĠChi": 7760,
      "house": 7761,
      "Ġprima": 7762,
      "vocal": 7763,
      "Ġgeg": 7764,
      "Ġcommune": 7765,
      "é¥¿": 7766,
      "Ġvogel": 7767,
      "çĬ¶æĢģ": 7768,
      "gesteld": 7769,
      "bout": 7770,
      "æľīçļĦ": 7771,
      "Ġeduc": 7772,
      "Ġrap": 7773,
      "Ġvoorbeeld": 7774,
      "Ġsheep": 7775,
      "å«ģ": 7776,
      "tv": 7777,
      "Ġfil": 7778,
      "stel": 7779,
      "Ġneck": 7780,
      "æĢİä¹ĪäºĨ": 7781,
      "Ġbehand": 7782,
      "åĲĦç§į": 7783,
      "Niets": 7784,
      "Ġalthough": 7785,
      "å°ıçļĦ": 7786,
      "æ¬º": 7787,
      "æĻ¨": 7788,
      "staande": 7789,
      "Ġkm": 7790,
      "ĠUit": 7791,
      "vlak": 7792,
      "Ġsommige": 7793,
      "Ġsmell": 7794,
      "standig": 7795,
      "åĨĴ": 7796,
      "æĿ°": 7797,
      "Ġsocial": 7798,
      "ivil": 7799,
      "Ġleef": 7800,
      "ATT": 7801,
      "çİ°åľº": 7802,
      "ĠChin": 7803,
      "å¿ĥçļĦ": 7804,
      "ĠNu": 7805,
      "Ġvoelen": 7806,
      "ä¸įåı¯": 7807,
      "Ġanimal": 7808,
      "Ġroept": 7809,
      "len": 7810,
      "æĸ¹åĲĳ": 7811,
      "komst": 7812,
      "æĪĳæĿ¥": 7813,
      "ä¸ĢåĪĩ": 7814,
      "Ġrivier": 7815,
      "å¼±": 7816,
      "è°·": 7817,
      "ç¾İä¸½": 7818,
      "Ġmaxim": 7819,
      "bre": 7820,
      "hoe": 7821,
      "ĠAunt": 7822,
      "onger": 7823,
      "å®³æĢķ": 7824,
      "va": 7825,
      "mark": 7826,
      "uf": 7827,
      "ored": 7828,
      "rap": 7829,
      "Ġfigure": 7830,
      "hee": 7831,
      "å®ŀéĻħ": 7832,
      "ĠFraser": 7833,
      "ä½įç½®": 7834,
      "èĢģåħ¬": 7835,
      "lect": 7836,
      "åĨł": 7837,
      "Ġgemidd": 7838,
      "ç¼ĺ": 7839,
      "ita": 7840,
      "Ġtrap": 7841,
      "æĲ¬": 7842,
      "ieken": 7843,
      "ĠMor": 7844,
      "é¹¿": 7845,
      "ä½łåķĬ": 7846,
      "ams": 7847,
      "ç»ª": 7848,
      "ival": 7849,
      "é¸Ń": 7850,
      "oeld": 7851,
      "werken": 7852,
      "Ġfan": 7853,
      "Ġcel": 7854,
      "ĠæĪĳè¿ĺ": 7855,
      "Ġåı¯èĥ½": 7856,
      "Ġschrijf": 7857,
      "éģĵçĲĨ": 7858,
      "Ġslechts": 7859,
      "Ġtent": 7860,
      "Ġought": 7861,
      "clock": 7862,
      "Alle": 7863,
      "Ġnormaal": 7864,
      "Ġene": 7865,
      "Ġpad": 7866,
      "Ġblank": 7867,
      "uhoh": 7868,
      "ä¹Łä¸įçŁ¥éģĵ": 7869,
      "Ġassist": 7870,
      "rect": 7871,
      "Ġcard": 7872,
      "ĠRoman": 7873,
      "Ġpopular": 7874,
      "Ġ29": 7875,
      "Ġklopt": 7876,
      "Ġ2022": 7877,
      "åģı": 7878,
      "asting": 7879,
      "Ġwriting": 7880,
      "æľīäºĨ": 7881,
      "werpen": 7882,
      "Ġ2014": 7883,
      "ois": 7884,
      "leur": 7885,
      "lor": 7886,
      "time": 7887,
      "zingen": 7888,
      "ĠAct": 7889,
      "åŃĺåľ¨": 7890,
      "è¿°": 7891,
      "âĢķ": 7892,
      "iaal": 7893,
      "ĠæĪĳçľĭ": 7894,
      "èŀį": 7895,
      "gesch": 7896,
      "Ġvres": 7897,
      "gasps": 7898,
      "ffen": 7899,
      "éĩĮè¾¹": 7900,
      "ĠWikipedia": 7901,
      "åħ¶ä¸Ń": 7902,
      "èĥŀ": 7903,
      "oelen": 7904,
      "Ġcreated": 7905,
      "Ġkamp": 7906,
      "Ġä½łæĥ³": 7907,
      "èĢģé¼ł": 7908,
      "æ´»åĬ¨": 7909,
      "ĠBobby": 7910,
      "Ġwitte": 7911,
      "Ġzuid": 7912,
      "Ġteeth": 7913,
      "aans": 7914,
      "ä»Ģä¹Īåĳ¢": 7915,
      "Ġeleph": 7916,
      "ĠAmsterdam": 7917,
      "Ġä½łçŁ¥éģĵ": 7918,
      "æģ¨": 7919,
      "Ġtafel": 7920,
      "è¯ļ": 7921,
      "æ¸¯": 7922,
      "è®¸å¤ļ": 7923,
      "Ġtail": 7924,
      "Ġä»¥": 7925,
      "ĠéĤ£å°±": 7926,
      "Ġsilence": 7927,
      "Ġincre": 7928,
      "Ġgold": 7929,
      "Ġwatching": 7930,
      "stit": 7931,
      "Ġshape": 7932,
      "ffic": 7933,
      "Ġbelangrijkste": 7934,
      "Ġbleef": 7935,
      "åį±éĻ©": 7936,
      "ĠKar": 7937,
      "singing": 7938,
      "æ··": 7939,
      "éº¦": 7940,
      "ago": 7941,
      "æĸ¹æ³ķ": 7942,
      "fen": 7943,
      "Ġmeeting": 7944,
      "Ġåģļ": 7945,
      "Ġdansen": 7946,
      "woners": 7947,
      "RI": 7948,
      "uge": 7949,
      "Ġfuture": 7950,
      "aj": 7951,
      "Ġpush": 7952,
      "ĠDad": 7953,
      "Ġshirt": 7954,
      "Ġnon": 7955,
      "Ġplate": 7956,
      "Ġshit": 7957,
      "ä¸įç®¡": 7958,
      "plaats": 7959,
      "Ġchocol": 7960,
      "èį£": 7961,
      "ä½łåİ»": 7962,
      "ä½łæĥ³": 7963,
      "ively": 7964,
      "èµ·äºĨ": 7965,
      "Ġç»Ļ": 7966,
      "Ġderde": 7967,
      "rok": 7968,
      "ĠNet": 7969,
      "çıį": 7970,
      "ĠhÃ©": 7971,
      "Ġiss": 7972,
      "pect": 7973,
      "Ġah": 7974,
      "Ġitself": 7975,
      "Ġonderdeel": 7976,
      "ä¸ĢæŃ¥": 7977,
      "ĠèĻ½çĦ¶": 7978,
      "è§¦": 7979,
      "ĠCaliforn": 7980,
      "ijdt": 7981,
      "é²ľ": 7982,
      "Ġberg": 7983,
      "Ġvoorkomen": 7984,
      "çĪĨ": 7985,
      "éĶ®": 7986,
      "æĪ¿éĹ´": 7987,
      "cont": 7988,
      "ratie": 7989,
      "orgt": 7990,
      "ä»ĸè¯´": 7991,
      "overn": 7992,
      "icit": 7993,
      "éĹŃ": 7994,
      "Ġ2011": 7995,
      "éĴĪ": 7996,
      "æ£Ĵ": 7997,
      "Ġhoge": 7998,
      "Ġéĥ½æĺ¯": 7999,
      "åĽĽåįģ": 8000,
      "Ġallebei": 8001,
      "ĠåİŁ": 8002,
      "geld": 8003,
      "ĠBill": 8004,
      "Ġlaag": 8005,
      "Ġkoffie": 8006,
      "erson": 8007,
      "è¿ĺåľ¨": 8008,
      "hington": 8009,
      "olonel": 8010,
      "unde": 8011,
      "ĠAc": 8012,
      "å¤ªå¤ª": 8013,
      "Ġfifty": 8014,
      "Ġchurch": 8015,
      "ools": 8016,
      "Ġafgelopen": 8017,
      "æ¯Ķå¦Ĥè¯´": 8018,
      "Ġtoest": 8019,
      "ĠTO": 8020,
      "Iemand": 8021,
      "dro": 8022,
      "Ġhemel": 8023,
      "Ġbeginning": 8024,
      "Ġprepar": 8025,
      ".)": 8026,
      "achter": 8027,
      "rel": 8028,
      "ads": 8029,
      "ĠTony": 8030,
      "His": 8031,
      "tell": 8032,
      "Ġstreet": 8033,
      "ĠRed": 8034,
      "Ġintrodu": 8035,
      "threon": 8036,
      "åľ¨è¿Ļä¸ª": 8037,
      "Ġrevol": 8038,
      "Ġstel": 8039,
      "Ġwebs": 8040,
      "Ġlevens": 8041,
      "é¼»": 8042,
      "Ġvliegen": 8043,
      "çĵľ": 8044,
      "Ġmonster": 8045,
      "å¦¹å¦¹": 8046,
      "ç®Ĺæĺ¯": 8047,
      "ouder": 8048,
      "åįł": 8049,
      "ï¿½ï¿½ï¿½ï¿½": 8050,
      "hy": 8051,
      "Ġbusy": 8052,
      "Ste": 8053,
      "aardig": 8054,
      "Ġviel": 8055,
      "Ġspell": 8056,
      "athol": 8057,
      "èĻļ": 8058,
      "Ġoma": 8059,
      "å¤©å¤©": 8060,
      "å°¤": 8061,
      "çļĦå¿ĥ": 8062,
      "Ġ2000": 8063,
      "Ġpray": 8064,
      "Ġbeschermen": 8065,
      "å¥½åĲĹ": 8066,
      "Schiet": 8067,
      "ĠåºĶ": 8068,
      "å¥½çľĭ": 8069,
      "ĠOF": 8070,
      "ikker": 8071,
      "owel": 8072,
      "Ġquar": 8073,
      "ĠIsra": 8074,
      "Ġgeschiedenis": 8075,
      "ometimes": 8076,
      "å¸Ń": 8077,
      "bling": 8078,
      "Ġpounds": 8079,
      "ä½¿çĶ¨": 8080,
      "ivid": 8081,
      "sych": 8082,
      "çĻ»": 8083,
      "ĠHenry": 8084,
      "Ġident": 8085,
      "Ġtrack": 8086,
      "çļĦéĹ®é¢ĺ": 8087,
      "Ġcapital": 8088,
      "lement": 8089,
      "light": 8090,
      "Ġversp": 8091,
      "Ġcray": 8092,
      "Ġwalking": 8093,
      "Ġloop": 8094,
      "ĠRus": 8095,
      "cient": 8096,
      "ilar": 8097,
      "å¥ĩæĢª": 8098,
      "Ġweekend": 8099,
      "leed": 8100,
      "ĠTV": 8101,
      "Ġbescherm": 8102,
      "Ġcontrole": 8103,
      "Ġkloot": 8104,
      "Ġdragen": 8105,
      "iode": 8106,
      "Ġdistance": 8107,
      "èŃ¦å¯Ł": 8108,
      "ĠTekst": 8109,
      "è¾Ľèĭ¦": 8110,
      "oest": 8111,
      "Ġfab": 8112,
      "Ġafstand": 8113,
      "ä¸įåľ¨": 8114,
      "Ġadded": 8115,
      "Vind": 8116,
      "Ġveranderd": 8117,
      "Ġnaartoe": 8118,
      "medi": 8119,
      "gin": 8120,
      "çĿĢæĪĳ": 8121,
      "å¥¹ä»¬": 8122,
      "Ġappeared": 8123,
      "ä¸įä¸Ģæł·": 8124,
      "çĽĸ": 8125,
      "éªĤ": 8126,
      "ologie": 8127,
      "ĠAg": 8128,
      "Ġhuwelijk": 8129,
      "Con": 8130,
      "viously": 8131,
      "Ġå¤ļ": 8132,
      "ä¸¹": 8133,
      "åºĦ": 8134,
      "æĲľ": 8135,
      "Ġunivers": 8136,
      "Ġhous": 8137,
      "Ġbright": 8138,
      "Ġontstaat": 8139,
      "ĠSy": 8140,
      "Ġtrekken": 8141,
      "çĽĽ": 8142,
      "Ġå¸Ī": 8143,
      "Ġterecht": 8144,
      "Ġgoud": 8145,
      "40": 8146,
      "Hi": 8147,
      "Sl": 8148,
      "ĠæĿİ": 8149,
      "Ġanymore": 8150,
      "rouwd": 8151,
      "Ġflat": 8152,
      "åĤħ": 8153,
      "Zou": 8154,
      "è°ĵ": 8155,
      "Thanks": 8156,
      "Ġgrappig": 8157,
      "ÃŃ": 8158,
      "otter": 8159,
      "osh": 8160,
      "é¬¼åŃĲ": 8161,
      "äººéĥ½": 8162,
      "åİĨåı²": 8163,
      "ĠçľŁ": 8164,
      "Ġhealth": 8165,
      "Ġoverl": 8166,
      "Ġ2016": 8167,
      "Ġlachen": 8168,
      "Ġbatter": 8169,
      "ores": 8170,
      "çĶŁæĦı": 8171,
      "éķĩ": 8172,
      "Ġgezond": 8173,
      "Ġdol": 8174,
      "æĮºå¥½çļĦ": 8175,
      "Ġep": 8176,
      "ĠHouse": 8177,
      "Ġå±": 8178,
      "Ġconn": 8179,
      "Ġconcern": 8180,
      "Ġfinger": 8181,
      "Ġspecies": 8182,
      "Ġverliefd": 8183,
      "ĠGener": 8184,
      "Ġexclaimed": 8185,
      "ĠWiki": 8186,
      "erkt": 8187,
      "Ġsky": 8188,
      "Ġwol": 8189,
      "æ£®æŀĹ": 8190,
      "Ġhide": 8191,
      "éĤ£éĩĮ": 8192,
      "Jon": 8193,
      "ky": 8194,
      "ĠSant": 8195,
      "Ġontsn": 8196,
      "ĠFranc": 8197,
      "ĠDem": 8198,
      "Ġmoon": 8199,
      "Ġdue": 8200,
      "Ġpaint": 8201,
      "Ġrestaur": 8202,
      "ĠåĵİåĳĢ": 8203,
      "jaar": 8204,
      "ĠNed": 8205,
      "Ġiedere": 8206,
      "Ġattempt": 8207,
      "asc": 8208,
      "Ġut": 8209,
      "Ġparts": 8210,
      "daar": 8211,
      "Ġhout": 8212,
      "äº¡": 8213,
      "ĠKijk": 8214,
      "Wait": 8215,
      "Ġ2015": 8216,
      "Kids": 8217,
      "child": 8218,
      "è¯´æĺİ": 8219,
      "åĩ¶": 8220,
      "Ġhoney": 8221,
      "æĭ¥": 8222,
      "auwe": 8223,
      "hoek": 8224,
      "Ġpet": 8225,
      "çĸ«": 8226,
      "Ġvliegtuig": 8227,
      "Ġeiland": 8228,
      "Ġtax": 8229,
      "ometer": 8230,
      "ĠWereld": 8231,
      "Ġgeme": 8232,
      "Ġspullen": 8233,
      "Ġspend": 8234,
      "Ġvertrouwen": 8235,
      "Ġenkel": 8236,
      "oeien": 8237,
      "Ġvolgen": 8238,
      "IL": 8239,
      "iled": 8240,
      "Ġvertel": 8241,
      "idt": 8242,
      "Ġdance": 8243,
      "èľľ": 8244,
      "Ġdropped": 8245,
      "Ġbeweg": 8246,
      "åĲĪä½ľ": 8247,
      "Ġvertelt": 8248,
      "achtig": 8249,
      "Ġsituatie": 8250,
      "éĺ¶": 8251,
      "Ġhoogte": 8252,
      "Ġmatch": 8253,
      "Man": 8254,
      "Ġtong": 8255,
      "Ġkerst": 8256,
      "Ġzomaar": 8257,
      "\")": 8258,
      "NA": 8259,
      "ply": 8260,
      "Ken": 8261,
      "Ġsummer": 8262,
      "Ġechter": 8263,
      "åĮħæĭ¬": 8264,
      "roll": 8265,
      "Ġmodern": 8266,
      "å®ŀè¯Ŀ": 8267,
      "éģ¿": 8268,
      "ç»ĵæĿŁ": 8269,
      "voer": 8270,
      "Ġdecl": 8271,
      "ä¸įä¸Ĭ": 8272,
      "ĠBest": 8273,
      "åįı": 8274,
      "èµ°åĲ§": 8275,
      "Ġplays": 8276,
      "igt": 8277,
      "ĠTH": 8278,
      "Ġgebracht": 8279,
      "æĿĲæĸĻ": 8280,
      "Ġä»¥åĲİ": 8281,
      "plant": 8282,
      "ç¬¦": 8283,
      "izer": 8284,
      "Ġholding": 8285,
      "è¿ĽäºĨ": 8286,
      "Ġgehouden": 8287,
      "Ġprogramma": 8288,
      "Ġmurder": 8289,
      "onderd": 8290,
      "çħ§çīĩ": 8291,
      "Ġcla": 8292,
      "aining": 8293,
      "Ġviol": 8294,
      "Ġcream": 8295,
      "æŃ£å¥½": 8296,
      "Ġtoeg": 8297,
      "raad": 8298,
      "Ook": 8299,
      "ours": 8300,
      "Ġshouldn": 8301,
      "èı²": 8302,
      "ç§ĳåŃ¦": 8303,
      "åĺī": 8304,
      "SO": 8305,
      "ĠHelen": 8306,
      "æ±½": 8307,
      "Ġrab": 8308,
      "ĠNie": 8309,
      "Ġontmoeten": 8310,
      "Ġ60": 8311,
      "Ġuiteindelijk": 8312,
      "ĠHowever": 8313,
      "Ġidi": 8314,
      "Lees": 8315,
      "Ġfamous": 8316,
      "æĤĦ": 8317,
      "ä¸»ä»»": 8318,
      "ä¸»ä¹ī": 8319,
      "Ġneeded": 8320,
      "Ġpaid": 8321,
      "éĥ½è¦ģ": 8322,
      "ç»ıåİĨ": 8323,
      "é¦ĸåħĪ": 8324,
      "Ġcaptain": 8325,
      "oegen": 8326,
      "Ġerv": 8327,
      "Ġwoont": 8328,
      "isoleucyl": 8329,
      "Ġbelow": 8330,
      "Ġwalked": 8331,
      "Ġinterested": 8332,
      "ĠKen": 8333,
      "Ġdaarmee": 8334,
      "Ġcounty": 8335,
      "Haal": 8336,
      "Pardon": 8337,
      "bie": 8338,
      "Ġinf": 8339,
      "ĠLeague": 8340,
      "Ġinclude": 8341,
      "Ġprachtig": 8342,
      "Take": 8343,
      "Ġgevaarlijk": 8344,
      "bon": 8345,
      "Ġdraag": 8346,
      "leet": 8347,
      "ĠTweede": 8348,
      "Ġspoke": 8349,
      "Ġvertelde": 8350,
      "Ġjud": 8351,
      "çĶľ": 8352,
      "ç»ľ": 8353,
      "riek": 8354,
      "å¤®": 8355,
      "æ´²": 8356,
      "Ġremark": 8357,
      "é¢Ĩå¯¼": 8358,
      "isen": 8359,
      "dad": 8360,
      "Ġhieronder": 8361,
      "æīĵç®Ĺ": 8362,
      "åĩŃ": 8363,
      "Ġok": 8364,
      "Ġliep": 8365,
      "Ġteacher": 8366,
      "bing": 8367,
      "Ġshoul": 8368,
      "ĠMaria": 8369,
      "ä»ĭç»į": 8370,
      "Uw": 8371,
      "æľīä¸Ģå¤©": 8372,
      "coun": 8373,
      "ä¼°": 8374,
      "ĠCommons": 8375,
      "æ³ª": 8376,
      "çŃīçŃī": 8377,
      "ĠDuitse": 8378,
      "Mom": 8379,
      "ellig": 8380,
      "åĿļæĮģ": 8381,
      "Leg": 8382,
      "è¿¹": 8383,
      "æĪĳæľī": 8384,
      "èĥĨ": 8385,
      "Ġcountries": 8386,
      "Ġpagina": 8387,
      "æĹ§": 8388,
      "Ġneigh": 8389,
      "å¼ĢäºĨ": 8390,
      "Ġeveryone": 8391,
      "æĬ¥åĳĬ": 8392,
      "Ġslechte": 8393,
      "æĢĢçĸĳ": 8394,
      "Ġbrengt": 8395,
      "ruck": 8396,
      "voerd": 8397,
      "éĶĻäºĨ": 8398,
      "Ġvreemd": 8399,
      "åİ»åĲ§": 8400,
      "ä¼ģä¸ļ": 8401,
      "äººç±»": 8402,
      "SIB": 8403,
      "ä¸įå¤ļ": 8404,
      "ĠRay": 8405,
      "åĽ½çİĭ": 8406,
      "åħĪèµ°äºĨ": 8407,
      "roepen": 8408,
      "Ġloud": 8409,
      "Ġopper": 8410,
      "ĠAngel": 8411,
      "AK": 8412,
      "Ġlikes": 8413,
      "ĠåĲİæĿ¥": 8414,
      "ä¸Ģä½į": 8415,
      "Ġwash": 8416,
      "Ġgevolg": 8417,
      "Ġnest": 8418,
      "Ġkoud": 8419,
      "Ġtab": 8420,
      "èĭ¹": 8421,
      "Ġcharge": 8422,
      "Like": 8423,
      "Ġvict": 8424,
      "ĠæĪĳåľ¨": 8425,
      "parag": 8426,
      "Ġlose": 8427,
      "åĲĥäºĨ": 8428,
      "Ġhorses": 8429,
      "Ġexam": 8430,
      "ĠSal": 8431,
      "acing": 8432,
      "èº«ä»½": 8433,
      "Ġ2012": 8434,
      "Ġarch": 8435,
      "Ġfilms": 8436,
      "Ġpictures": 8437,
      "esus": 8438,
      "åıĺå¾Ĺ": 8439,
      "ceed": 8440,
      "è¿ĺèĥ½": 8441,
      "æı¡": 8442,
      "rs": 8443,
      "Ġbasket": 8444,
      "èĭ¹æŀľ": 8445,
      "Ġbezoek": 8446,
      "Ġwaarop": 8447,
      "åī©": 8448,
      "ĠNederlands": 8449,
      "ĠCanada": 8450,
      "Ġmelk": 8451,
      "ä½Ľ": 8452,
      "Ġmeat": 8453,
      "Ġways": 8454,
      "Zelfs": 8455,
      "threonyl": 8456,
      "åĽº": 8457,
      "inding": 8458,
      "ç§Ł": 8459,
      "Ġnergens": 8460,
      "ä¼Ł": 8461,
      "Ġaanb": 8462,
      "æįķ": 8463,
      "åįģäºĮ": 8464,
      "ommige": 8465,
      "Ġsuddenly": 8466,
      "å¯¹ä½ł": 8467,
      "Ġåĵ¦": 8468,
      "zuur": 8469,
      "atic": 8470,
      "ä¸įæķ¢": 8471,
      "è®©äºº": 8472,
      "Ġå½ĵæĹ¶": 8473,
      "Ġtall": 8474,
      "Ġalive": 8475,
      "Ġkapot": 8476,
      "andid": 8477,
      "ĠMal": 8478,
      "æ¡¥": 8479,
      "æİ¥ä¸ĭæĿ¥": 8480,
      "IR": 8481,
      "æĪĳä¼ļ": 8482,
      "Ġrood": 8483,
      "asant": 8484,
      "Ġseeing": 8485,
      "Ġ2013": 8486,
      "Ġself": 8487,
      "product": 8488,
      "mond": 8489,
      "Ġarrest": 8490,
      "asion": 8491,
      "äºı": 8492,
      "çļĦæķħäºĭ": 8493,
      "Ġslaan": 8494,
      "Ġverzam": 8495,
      "Ġgisteren": 8496,
      "æ¤įçī©": 8497,
      "ĠæĹł": 8498,
      "Ġziel": 8499,
      "ĠTim": 8500,
      "å¯¹æĸ¹": 8501,
      "Ġdry": 8502,
      "pot": 8503,
      "ä½łåĪ«": 8504,
      "Ġengine": 8505,
      "è¯´æĺ¯": 8506,
      "è·Ŀ": 8507,
      "è¾ŀ": 8508,
      "Ġpapier": 8509,
      "Ġmention": 8510,
      "ĠCa": 8511,
      "Ġaanwez": 8512,
      "ĠGreat": 8513,
      "åŃ¤": 8514,
      "ĠWashington": 8515,
      "åĽ½çļĦ": 8516,
      "Ġattention": 8517,
      "æ¢ģ": 8518,
      "iling": 8519,
      "rupt": 8520,
      "uy": 8521,
      "çĽ®åīį": 8522,
      "dit": 8523,
      "take": 8524,
      "rol": 8525,
      "çŁ¥éģĵäºĨ": 8526,
      "Ġdrop": 8527,
      "25": 8528,
      "ĠWie": 8529,
      "ĠNPO": 8530,
      "Ġsens": 8531,
      "Ġproblems": 8532,
      "åĩºçļĦ": 8533,
      "gers": 8534,
      "Ġtal": 8535,
      "Ġbeat": 8536,
      "Ġsel": 8537,
      "riage": 8538,
      "ray": 8539,
      "ĠSec": 8540,
      "iced": 8541,
      "Ġneus": 8542,
      "okk": 8543,
      "æĥħç»ª": 8544,
      "las": 8545,
      "æĥ³æ³ķ": 8546,
      "ationale": 8547,
      "Ġveroorz": 8548,
      "çĻ¾å§ĵ": 8549,
      "uten": 8550,
      "pens": 8551,
      "Ġbevat": 8552,
      "ä¸¥éĩį": 8553,
      "ä¿Ŀè¯ģ": 8554,
      "Welkom": 8555,
      "Mhm": 8556,
      "ĠåıįæŃ£": 8557,
      "Ġfol": 8558,
      "Ġwaard": 8559,
      "Ġå¼Ģ": 8560,
      "box": 8561,
      "Ġziekte": 8562,
      "Mam": 8563,
      "earch": 8564,
      "ADULT": 8565,
      "ĠAir": 8566,
      "Onder": 8567,
      "éĩįè¦ģçļĦ": 8568,
      "counter": 8569,
      "Ġlijst": 8570,
      "éĶĢ": 8571,
      "Ġfem": 8572,
      "å¯¹åĲ§": 8573,
      "æĹ¥æľ¬äºº": 8574,
      "ĠChinese": 8575,
      "Pas": 8576,
      "èµļ": 8577,
      "ĠGood": 8578,
      "Ġreading": 8579,
      "Ġearl": 8580,
      "åİħ": 8581,
      "Ġisland": 8582,
      "Ġfilmpje": 8583,
      "Ġflowers": 8584,
      "çĵ¶": 8585,
      "Ġcontinued": 8586,
      "itions": 8587,
      "å¯Ĵ": 8588,
      "çĪ±æĥħ": 8589,
      "Ġduurt": 8590,
      "ĠMichael": 8591,
      "å¿Ĩ": 8592,
      "baby": 8593,
      "esloten": 8594,
      "Ġå½ĵçĦ¶": 8595,
      "Ġlaughed": 8596,
      "ä»ĩ": 8597,
      "Ġate": 8598,
      "Ġzwarte": 8599,
      "Ġboer": 8600,
      "cious": 8601,
      "ization": 8602,
      "å¿ĺäºĨ": 8603,
      "GR": 8604,
      "Jack": 8605,
      "Ġij": 8606,
      "Ġä¸ºäºĨ": 8607,
      "Ġaud": 8608,
      "åĬĿ": 8609,
      "è¡Įä¸º": 8610,
      "Ġattract": 8611,
      "grond": 8612,
      "Ġbood": 8613,
      "æī¬": 8614,
      "ĠUS": 8615,
      "Ġgedrag": 8616,
      "æ¶²": 8617,
      "ĠVictor": 8618,
      "ĠWikiKids": 8619,
      "nis": 8620,
      "ĠBo": 8621,
      "arginyl": 8622,
      "Ġwid": 8623,
      "ichten": 8624,
      "æ¼«": 8625,
      "bet": 8626,
      "xide": 8627,
      "Ġlying": 8628,
      "ĠSunday": 8629,
      "stop": 8630,
      "spel": 8631,
      "Ġpink": 8632,
      "Ġgesproken": 8633,
      "ä¸Ī": 8634,
      "å°±èĥ½": 8635,
      "Ġannoun": 8636,
      "æįŁ": 8637,
      "èĪª": 8638,
      "è°ĥæŁ¥": 8639,
      "çĶ²": 8640,
      "gew": 8641,
      "æĮ£": 8642,
      "uct": 8643,
      "Ġlock": 8644,
      "Ġzuurstof": 8645,
      "å¾Īå¿«": 8646,
      "ĠVraag": 8647,
      "ruim": 8648,
      "ĠMinister": 8649,
      "AM": 8650,
      "éĿ¢å¯¹": 8651,
      "Ġcontract": 8652,
      "Ġkwal": 8653,
      "Ġsteden": 8654,
      "rib": 8655,
      "erve": 8656,
      "--------": 8657,
      "Ġnames": 8658,
      "Ġspoor": 8659,
      "çķ¥": 8660,
      "erste": 8661,
      "entje": 8662,
      "istan": 8663,
      "ora": 8664,
      "igs": 8665,
      "Ġenemy": 8666,
      "ĠMac": 8667,
      "ĠDaarom": 8668,
      "aft": 8669,
      "ville": 8670,
      "ä¸Ģä»¶": 8671,
      "isse": 8672,
      "ipped": 8673,
      "ä¸įçĿĢ": 8674,
      "Ġrout": 8675,
      "ĠMax": 8676,
      "Ġarmy": 8677,
      "Ġ2008": 8678,
      "è¯´æ³ķ": 8679,
      "Ġshare": 8680,
      "Ġbottle": 8681,
      "BC": 8682,
      "west": 8683,
      "ums": 8684,
      "Ġindust": 8685,
      "Ġnood": 8686,
      "illa": 8687,
      "ĠWal": 8688,
      "æŃī": 8689,
      "åĩºæĿ¥çļĦ": 8690,
      "lad": 8691,
      "åľ£": 8692,
      "Ġgevallen": 8693,
      "åĲĮæĦı": 8694,
      "Ġvarious": 8695,
      "ĠTra": 8696,
      "Ġfresh": 8697,
      "è§ģåĪ°": 8698,
      "æīįæĺ¯": 8699,
      "Ġoplossing": 8700,
      "ĠKennisbank": 8701,
      "isf": 8702,
      "Ġrechter": 8703,
      "åĩ¤": 8704,
      "ĠWillem": 8705,
      "ano": 8706,
      "Ġinwoners": 8707,
      "oeie": 8708,
      "elsel": 8709,
      "åŁŁ": 8710,
      "Ġturns": 8711,
      "ĠPal": 8712,
      "Ġleaves": 8713,
      "åħĶåŃĲ": 8714,
      "Ġmuur": 8715,
      "éĹª": 8716,
      "imedia": 8717,
      "Ġhistor": 8718,
      "åĲ«": 8719,
      "deeld": 8720,
      "éĤ£æĺ¯": 8721,
      "Ġsuit": 8722,
      "olland": 8723,
      "æľĪäº®": 8724,
      "è´Łè´£": 8725,
      "CAR": 8726,
      "Sc": 8727,
      "set": 8728,
      "Ġhonger": 8729,
      "Ġdate": 8730,
      "æĤ¨çļĦ": 8731,
      "ĠåºĶè¯¥": 8732,
      "Ġmarket": 8733,
      "60": 8734,
      "pty": 8735,
      "ç®±": 8736,
      "ureau": 8737,
      "ocrat": 8738,
      "Ġears": 8739,
      "Ġgewonnen": 8740,
      "Ġserious": 8741,
      "Car": 8742,
      "Ġdrank": 8743,
      "Ġmoed": 8744,
      "åĴĮä½ł": 8745,
      "åĲĪéĢĤ": 8746,
      "ĠæĢ»": 8747,
      "iker": 8748,
      "ä¸įåı¯èĥ½": 8749,
      "åĩ¡": 8750,
      "ĠHierdoor": 8751,
      "edy": 8752,
      "äºĮéĽ¶ä¸Ģ": 8753,
      "especially": 8754,
      "Ġgekozen": 8755,
      "ç¦»å©ļ": 8756,
      "elve": 8757,
      "udd": 8758,
      "ç¤¼çī©": 8759,
      "rom": 8760,
      "æĪĳèĩªå·±": 8761,
      "è´¦": 8762,
      "Ġhoek": 8763,
      "Ġseconden": 8764,
      "æķĻèĤ²": 8765,
      "Ġstore": 8766,
      "ĠEast": 8767,
      "Ġcheese": 8768,
      "ĠæĽ´": 8769,
      "ĠæĹ¢çĦ¶": 8770,
      "å®¾": 8771,
      "Ġphys": 8772,
      "åķĨéĩı": 8773,
      "Miss": 8774,
      "loos": 8775,
      "ipjes": 8776,
      "Ġgives": 8777,
      "ç«ŁçĦ¶": 8778,
      "Ġfiets": 8779,
      "opp": 8780,
      "astisch": 8781,
      "down": 8782,
      "Ġtap": 8783,
      "ä¸°": 8784,
      "æĪĳä¸Ģ": 8785,
      "Ġmocht": 8786,
      "ĠVal": 8787,
      "beeldingen": 8788,
      "CAT": 8789,
      "ĠGermany": 8790,
      "sw": 8791,
      "æİĪ": 8792,
      "Ġalstublieft": 8793,
      "æİ§åĪ¶": 8794,
      "äººåĳĺ": 8795,
      "ateg": 8796,
      "åĵĪåĵĪåĵĪ": 8797,
      "Ġå·²": 8798,
      "Ġluisteren": 8799,
      "Ġmem": 8800,
      "Ġsleut": 8801,
      "ĠGeluid": 8802,
      "Ġbekijken": 8803,
      "Ġdefin": 8804,
      "Zal": 8805,
      "Ġonbe": 8806,
      "åºĶè¯¥æĺ¯": 8807,
      "ç«Ļåľ¨": 8808,
      "Ġleeftijd": 8809,
      "Ġinvloed": 8810,
      "Ġgeest": 8811,
      "raft": 8812,
      "è¯´ä»Ģä¹Ī": 8813,
      "åħ³éĶ®": 8814,
      "Ġspirit": 8815,
      "Ġwound": 8816,
      "Ġbeer": 8817,
      "Ġtotaal": 8818,
      "çĭł": 8819,
      "Ġopdrachten": 8820,
      "Ġstudy": 8821,
      "ĠSchooltv": 8822,
      "ĠEngeland": 8823,
      "aid": 8824,
      "ĠMat": 8825,
      "ogel": 8826,
      "ĠParty": 8827,
      "Ġpock": 8828,
      "Ġbirds": 8829,
      "Ġhate": 8830,
      "ament": 8831,
      "Ġtraining": 8832,
      "Ġprobeerde": 8833,
      "lopen": 8834,
      "iber": 8835,
      "Ġgegevens": 8836,
      "Ġcapt": 8837,
      "Ġåĩº": 8838,
      "ummie": 8839,
      "ih": 8840,
      "è¦ģä¸į": 8841,
      "Ġparticular": 8842,
      "Ġrecent": 8843,
      ",--": 8844,
      "ĠGebruik": 8845,
      "Ġsepar": 8846,
      "æĴĴ": 8847,
      "ĠWikimedia": 8848,
      "Ġå¼ł": 8849,
      "Ġbacter": 8850,
      "stra": 8851,
      "è¸¢": 8852,
      "Ġdun": 8853,
      "Weg": 8854,
      "å²Ľ": 8855,
      "é¢Ŀ": 8856,
      "Ġgeldt": 8857,
      "lang": 8858,
      "Ġtwelve": 8859,
      "åĪ©çĶ¨": 8860,
      "èĴĻ": 8861,
      "ĠLaura": 8862,
      "order": 8863,
      "isted": 8864,
      "Thomas": 8865,
      "ploy": 8866,
      "Ġvormen": 8867,
      "Ġziekenhuis": 8868,
      "Ġbak": 8869,
      "Ġtoets": 8870,
      "Ġzorgt": 8871,
      "äºĨä¸ª": 8872,
      "ique": 8873,
      "Ġstub": 8874,
      "ç³Ĭ": 8875,
      "Ġraad": 8876,
      "è¯º": 8877,
      "Ġblind": 8878,
      "Ġåįģ": 8879,
      "ĠAz": 8880,
      "ĠSov": 8881,
      "rm": 8882,
      "ĠKon": 8883,
      "éļĶ": 8884,
      "Ġearn": 8885,
      "ĠMus": 8886,
      "stoffen": 8887,
      "Ġbijzonder": 8888,
      "ç¼ĸ": 8889,
      "Bob": 8890,
      "ination": 8891,
      "Ġhall": 8892,
      "Ġvolwassen": 8893,
      "Ġoce": 8894,
      "Ġstage": 8895,
      "åŃĶ": 8896,
      "Ġleggen": 8897,
      "å°ļ": 8898,
      "ĠTijd": 8899,
      "ĠEarth": 8900,
      "å«Ĥ": 8901,
      "Ġgenomen": 8902,
      "iction": 8903,
      "éªĳ": 8904,
      "Ġvir": 8905,
      "æĺł": 8906,
      "Ġmunicip": 8907,
      "dere": 8908,
      "Â·": 8909,
      "Ġclosed": 8910,
      "å¢Ļ": 8911,
      "Ġofficer": 8912,
      "åıĶåıĶ": 8913,
      "Ġvakantie": 8914,
      "ĠKe": 8915,
      "bra": 8916,
      "jar": 8917,
      "Ġwide": 8918,
      "Ġcijf": 8919,
      "å¥¥": 8920,
      "åıĹåĪ°": 8921,
      "Ġzingen": 8922,
      "Ġpsych": 8923,
      "Ġgetrouwd": 8924,
      "Ġhonden": 8925,
      "Ġnut": 8926,
      "å¥³æľĭåıĭ": 8927,
      "Ġbepaald": 8928,
      "Ġliked": 8929,
      "Ġzomer": 8930,
      "å¥Ķ": 8931,
      "antly": 8932,
      "ulf": 8933,
      "keken": 8934,
      "Ġkleren": 8935,
      "ae": 8936,
      "Ġkeuze": 8937,
      "ĠMama": 8938,
      "Ġhost": 8939,
      "Ġæīĵ": 8940,
      "å³°": 8941,
      "ĠæĪĸèĢħ": 8942,
      "å¥ĭ": 8943,
      "Ġgebeurde": 8944,
      "ä¹Łä¼ļ": 8945,
      "Ġverkopen": 8946,
      "mie": 8947,
      "omer": 8948,
      "æĨ": 8949,
      "Ġern": 8950,
      "äº§çĶŁ": 8951,
      "Ġconsidered": 8952,
      "Ġschiet": 8953,
      "Ġcircle": 8954,
      "Breng": 8955,
      "bes": 8956,
      "veld": 8957,
      "ĠMom": 8958,
      "Ġbloemen": 8959,
      "è°ĭ": 8960,
      "èģªæĺİ": 8961,
      "urday": 8962,
      "ä¹Łä¸įä¼ļ": 8963,
      "Mum": 8964,
      "Ġplaatsen": 8965,
      "æĴŀ": 8966,
      "Ġlaughing": 8967,
      "Ġjun": 8968,
      "Ġbeoord": 8969,
      "ĠæĪĳå°±æĺ¯": 8970,
      "Ġvoldo": 8971,
      "aarten": 8972,
      "Ġverliezen": 8973,
      "Ġvac": 8974,
      "Ġbran": 8975,
      "oemde": 8976,
      "Ġspoon": 8977,
      "Ġcrow": 8978,
      "Ġmuse": 8979,
      "Ġwapens": 8980,
      "Ġund": 8981,
      "Ġhelft": 8982,
      "ĠSpanish": 8983,
      "åģ¥åº·": 8984,
      "åĵĩ": 8985,
      "Ġbron": 8986,
      "Afbeeldingen": 8987,
      "Ġvijand": 8988,
      "By": 8989,
      "ä¼¸": 8990,
      "inks": 8991,
      "ĠÂ©": 8992,
      "Ġsac": 8993,
      "ä¸įçŁ¥": 8994,
      "Ġopening": 8995,
      "çĸ¯": 8996,
      "è¿Ļè¾¹": 8997,
      "Ġduizen": 8998,
      "ĠEuropese": 8999,
      "æ²¡æĥ³åĪ°": 9000,
      "assing": 9001,
      "åįģåĪĨ": 9002,
      "Ġasking": 9003,
      "ĠAlexander": 9004,
      "æĺ¯åĲĹ": 9005,
      "èµı": 9006,
      "ĠGo": 9007,
      "sters": 9008,
      "ä½łä»¬çļĦ": 9009,
      "ç©ºéĹ´": 9010,
      "Ġcovered": 9011,
      "mother": 9012,
      "Ġbrood": 9013,
      "æľªæĿ¥": 9014,
      "Ġklasgenoot": 9015,
      "Ġrepresent": 9016,
      "åİļ": 9017,
      "ĠLat": 9018,
      "ĠBeeldbank": 9019,
      "Ġseks": 9020,
      "yyy": 9021,
      "ongen": 9022,
      "Ġverkeerd": 9023,
      "pardon": 9024,
      "yond": 9025,
      "asparag": 9026,
      "æľ±": 9027,
      "Ġstrijd": 9028,
      "chtend": 9029,
      "æ¼Ķåĳĺ": 9030,
      "Ġaccident": 9031,
      "Ġwolf": 9032,
      "Clipjes": 9033,
      "Ġkey": 9034,
      "ĠæĪĳä¼ļ": 9035,
      "Ġsymb": 9036,
      "glyc": 9037,
      "Ġsite": 9038,
      "æ¡ĥ": 9039,
      "Ġverlaten": 9040,
      "Ġconversation": 9041,
      "Ġwonderful": 9042,
      "han": 9043,
      "sect": 9044,
      "pression": 9045,
      "Ġgeve": 9046,
      "sey": 9047,
      "ĠCO": 9048,
      "ĠGovern": 9049,
      "gemaakt": 9050,
      "ially": 9051,
      "ĠStone": 9052,
      "Ġinteresting": 9053,
      "Ġdienst": 9054,
      "XX": 9055,
      "Ġdeden": 9056,
      "å®ŀçİ°": 9057,
      "DE": 9058,
      "Pre": 9059,
      "ä½łèĩªå·±": 9060,
      "èĤ¥": 9061,
      "Ġthema": 9062,
      "æĭ¿çĿĢ": 9063,
      "gebied": 9064,
      "alo": 9065,
      "Ġchief": 9066,
      "RY": 9067,
      "ä»Ģä¹Īäºĭ": 9068,
      "Ġbegrip": 9069,
      "çī©ä½ĵ": 9070,
      "å¤«äºº": 9071,
      "ĠIII": 9072,
      "çĮİ": 9073,
      "æĲŃ": 9074,
      "Ġcourt": 9075,
      "âĳł": 9076,
      "big": 9077,
      "loop": 9078,
      "ä»ĸåľ¨": 9079,
      "eget": 9080,
      "è¯ģæį®": 9081,
      "Ġamount": 9082,
      "lk": 9083,
      "Ãł": 9084,
      "itude": 9085,
      "Ġsharp": 9086,
      "ipl": 9087,
      "actie": 9088,
      "çĶ±äºİ": 9089,
      "ä¼¼çļĦ": 9090,
      "Ġåīį": 9091,
      "Ġthanks": 9092,
      "ilige": 9093,
      "ĠDick": 9094,
      "åīĳ": 9095,
      "Ġmann": 9096,
      "æİ¥çĿĢ": 9097,
      "Ġsimilar": 9098,
      "Ġkick": 9099,
      "Ġperiode": 9100,
      "çŃīçĿĢ": 9101,
      "èģļ": 9102,
      "Ġ2009": 9103,
      "éĨ": 9104,
      "ç»Ĩèĥŀ": 9105,
      "THE": 9106,
      "è®¯": 9107,
      "é²ģ": 9108,
      "Ġvertrekken": 9109,
      "ä¸ĭåĪĹ": 9110,
      "Ġprobeert": 9111,
      "è¶³çĲĥ": 9112,
      "æĮīçħ§": 9113,
      "Ġsteek": 9114,
      "Ġbouwen": 9115,
      "Ġgrew": 9116,
      "ĠBed": 9117,
      "ĠSen": 9118,
      "Ġbridge": 9119,
      "ĠStreet": 9120,
      "éļıä¾¿": 9121,
      "ä¸Ģå£°": 9122,
      "roat": 9123,
      "ĠBilly": 9124,
      "ç»©": 9125,
      "Ġnumbers": 9126,
      "é¡¹çĽ®": 9127,
      "Ġvoelde": 9128,
      "Ġeast": 9129,
      "æ±ł": 9130,
      "efore": 9131,
      "utely": 9132,
      "æĹ¶ä»£": 9133,
      "æī¾æĪĳ": 9134,
      "inderen": 9135,
      "jo": 9136,
      "wit": 9137,
      "hah": 9138,
      "ijen": 9139,
      "Ġnogal": 9140,
      "Ġshowed": 9141,
      "arrow": 9142,
      "Ġä½łçİ°åľ¨": 9143,
      "Ġnatural": 9144,
      "mag": 9145,
      "åħ¸": 9146,
      "Ġthee": 9147,
      "Ġnobody": 9148,
      "æĭ¾": 9149,
      "éķ¿å¾Ĺ": 9150,
      "Ġfinally": 9151,
      "ĠKies": 9152,
      "çº·": 9153,
      "Ġdogs": 9154,
      "Ġopa": 9155,
      "ç¡®å®ļ": 9156,
      "ĠArt": 9157,
      "Ġenergy": 9158,
      "Ġvlees": 9159,
      "ĠNick": 9160,
      "Ġbegra": 9161,
      "pose": 9162,
      "æī«": 9163,
      "ato": 9164,
      "Ġwaarmee": 9165,
      "Ġoverw": 9166,
      "Ġsurprise": 9167,
      "æī°": 9168,
      "Ġdonker": 9169,
      "æĵ¦": 9170,
      "Ġmult": 9171,
      "alf": 9172,
      "three": 9173,
      "istory": 9174,
      "çº³": 9175,
      "erie": 9176,
      "åĶ¯": 9177,
      "Ġeentje": 9178,
      "ijnt": 9179,
      "å¾Īæľī": 9180,
      "æ³¡": 9181,
      "Ġä¸įç®¡": 9182,
      "è¯ģæĺİ": 9183,
      "Ġsoldiers": 9184,
      "Ġnauw": 9185,
      "OK": 9186,
      "Ġterrible": 9187,
      "Ġtravel": 9188,
      "Ġspec": 9189,
      "looks": 9190,
      "kijken": 9191,
      "ç»ĻæĪĳä»¬": 9192,
      "Ġverantwoord": 9193,
      "Ġdirection": 9194,
      "çļĦæĪĳ": 9195,
      "These": 9196,
      "è´´": 9197,
      "Mrs": 9198,
      "Ġcrying": 9199,
      "groep": 9200,
      "Gen": 9201,
      "ä¸įå®¹æĺĵ": 9202,
      "å¼Łå¼Ł": 9203,
      "Had": 9204,
      "è²": 9205,
      "Soms": 9206,
      "Ġstier": 9207,
      "éĩįæĸ°": 9208,
      "Ġfavorite": 9209,
      "Ġtim": 9210,
      "wait": 9211,
      "æ»ĳ": 9212,
      "ĠPri": 9213,
      "å¦ĸ": 9214,
      "Ġsturen": 9215,
      "ĠParijs": 9216,
      "Ġvergelijking": 9217,
      "points": 9218,
      "has": 9219,
      "Ġoverheid": 9220,
      "Ġeggs": 9221,
      "èºº": 9222,
      "åĨįè¯´": 9223,
      "æĶ¾å¿ĥåĲ§": 9224,
      "hem": 9225,
      "eltjes": 9226,
      "Ġstarts": 9227,
      "Ġjoined": 9228,
      "Ġbreng": 9229,
      "æĦıæĢĿåķĬ": 9230,
      "ĠÉĻ": 9231,
      "åĪĨäº«": 9232,
      "astern": 9233,
      "Ġprotect": 9234,
      "æĹģè¾¹": 9235,
      "film": 9236,
      "Ġimmedi": 9237,
      "Toe": 9238,
      "Ġrisk": 9239,
      "vragen": 9240,
      "Ġplaced": 9241,
      "Ġpercent": 9242,
      "Ġmor": 9243,
      "çĲ´": 9244,
      "Ġvolgt": 9245,
      "Ġbeloof": 9246,
      "rees": 9247,
      "urdie": 9248,
      "Ġphot": 9249,
      "schuld": 9250,
      "Ġrepe": 9251,
      "Ġslight": 9252,
      "omething": 9253,
      "otion": 9254,
      "ĠDis": 9255,
      "ĠCoun": 9256,
      "inkrijk": 9257,
      "iano": 9258,
      "Ġbell": 9259,
      "æĬĬè¿Ļ": 9260,
      "ä»Ĺ": 9261,
      "å¸ģ": 9262,
      "åºŁ": 9263,
      "Ġmonkey": 9264,
      "wanna": 9265,
      "boden": 9266,
      "Ġtemperatuur": 9267,
      "åĩī": 9268,
      "Ġfright": 9269,
      "Ġconcent": 9270,
      "Ok": 9271,
      "ä¹Ķ": 9272,
      "Ġhelpt": 9273,
      "ashed": 9274,
      "ĠSarah": 9275,
      "elijks": 9276,
      "Ġpeace": 9277,
      "æĹ©ä¸Ĭ": 9278,
      "âĳ¡": 9279,
      "iana": 9280,
      "Ġtalked": 9281,
      "Ġstoffen": 9282,
      "å¾Ĵ": 9283,
      "tered": 9284,
      "æĪĳä»¬å°±": 9285,
      "non": 9286,
      "Ġherinn": 9287,
      "Ġbye": 9288,
      "Ġvul": 9289,
      "è¯´ä¸į": 9290,
      "Ġspent": 9291,
      "æīĢè°ĵ": 9292,
      "åĵªä¸ª": 9293,
      "Ġtie": 9294,
      "Ġmole": 9295,
      "uster": 9296,
      "upid": 9297,
      "Ġstrip": 9298,
      "prob": 9299,
      "åļ": 9300,
      "Ġåħ¨": 9301,
      "utie": 9302,
      "åĪ·": 9303,
      "éĻĦ": 9304,
      "èĦ¾": 9305,
      "Give": 9306,
      "Ġbud": 9307,
      "éĤ£æł·": 9308,
      "ĠCharlie": 9309,
      "çļĦæĥħåĨµ": 9310,
      "etch": 9311,
      "Ġei": 9312,
      "Ġsevent": 9313,
      "ĠGeneral": 9314,
      "aped": 9315,
      "Ġserved": 9316,
      "Ġloved": 9317,
      "è¿ĺæ²¡æľī": 9318,
      "coh": 9319,
      "åĵİåĳĢ": 9320,
      "Ġåį´": 9321,
      "asing": 9322,
      "Ġrub": 9323,
      "...?": 9324,
      "Ġschieten": 9325,
      "Ġspeciale": 9326,
      "boy": 9327,
      "Ġgift": 9328,
      "èĩªçĶ±": 9329,
      "Hebben": 9330,
      "lseryl": 9331,
      "Ġrich": 9332,
      "è¾Ĩ": 9333,
      "Ġdemon": 9334,
      "è¦ģåİ»": 9335,
      "Ġå¯¹ä¸įèµ·": 9336,
      "åı¸ä»¤": 9337,
      "dog": 9338,
      "Ġstam": 9339,
      "Ġrose": 9340,
      "Ġsituation": 9341,
      "ĠåħĪ": 9342,
      "ç¬¬ä¸ī": 9343,
      "Ġcolle": 9344,
      "æĬķèµĦ": 9345,
      "Ġelephant": 9346,
      "Ġplastic": 9347,
      "izza": 9348,
      "åıįåºĶ": 9349,
      "éĢŁåº¦": 9350,
      "èĪĴæľį": 9351,
      "Ġlower": 9352,
      "aded": 9353,
      "æ¬ł": 9354,
      "å§»": 9355,
      "Ġpolitician": 9356,
      "vall": 9357,
      "ĠåĶ": 9358,
      "Ġallerlei": 9359,
      "Sam": 9360,
      "Ġterms": 9361,
      "ç³»ç»Ł": 9362,
      "Ġlees": 9363,
      "Ġziens": 9364,
      "éĶħ": 9365,
      "wed": 9366,
      "Ġanx": 9367,
      "åįģäºĶ": 9368,
      "Ġmedicine": 9369,
      "face": 9370,
      "rucht": 9371,
      "æŀĿ": 9372,
      "ias": 9373,
      "å®½": 9374,
      "Ġrespons": 9375,
      "nod": 9376,
      "Ġsize": 9377,
      "umenten": 9378,
      "åħ¬åŃĲ": 9379,
      "jaard": 9380,
      "Ġdocument": 9381,
      "ipper": 9382,
      "Ġshows": 9383,
      "Tell": 9384,
      "Ġ$$\\": 9385,
      "ushing": 9386,
      "izes": 9387,
      "ä»į": 9388,
      "olden": 9389,
      "Ġaffect": 9390,
      "ĠWho": 9391,
      "bere": 9392,
      "inct": 9393,
      "éĤ£æĪĳ": 9394,
      "å¹´åīį": 9395,
      "Ġaction": 9396,
      "anken": 9397,
      "kennen": 9398,
      "Ġcommunic": 9399,
      "book": 9400,
      "æīĶ": 9401,
      "å¯¹äºĨ": 9402,
      "å¹²åĺĽ": 9403,
      "Ġå¿ĥ": 9404,
      "Ġsleeping": 9405,
      "Geweld": 9406,
      "wise": 9407,
      "orde": 9408,
      "Ġsoci": 9409,
      "Ġvorige": 9410,
      "Mommy": 9411,
      "turn": 9412,
      "äº§åĵģ": 9413,
      "others": 9414,
      "chan": 9415,
      "Ġleek": 9416,
      "è®¿": 9417,
      "Ġscared": 9418,
      "ĠCalifornia": 9419,
      "ĠRusland": 9420,
      "Ġä¹Łæĺ¯": 9421,
      "anje": 9422,
      "Ġforty": 9423,
      "outs": 9424,
      "Ġcloud": 9425,
      "æĸ¹ä¾¿": 9426,
      "Ġcorrect": 9427,
      "ĠMed": 9428,
      "Ġmening": 9429,
      "è¿Ļä¹Īè¯´": 9430,
      "Ġeindelijk": 9431,
      "ĠSmith": 9432,
      "bren": 9433,
      "Ġbill": 9434,
      "Ġleeg": 9435,
      "å·Ŀ": 9436,
      "Ġgesloten": 9437,
      "kort": 9438,
      "lant": 9439,
      "Ġmaster": 9440,
      "Ġnone": 9441,
      "ĠWanneer": 9442,
      "Ġsmile": 9443,
      "Ġgesprek": 9444,
      "kin": 9445,
      "Ġbracht": 9446,
      "Ġraken": 9447,
      "éĹ²": 9448,
      "Ġelektr": 9449,
      "cohol": 9450,
      "Ġworse": 9451,
      "ä¸ĭéĿ¢": 9452,
      "å¦Ļ": 9453,
      "ography": 9454,
      "wing": 9455,
      "wagen": 9456,
      "Ġsell": 9457,
      "Ġzand": 9458,
      "Ġdans": 9459,
      "Ġå·²ç»ı": 9460,
      "spr": 9461,
      "Ġlength": 9462,
      "Ġcru": 9463,
      "ĠST": 9464,
      "èµĶ": 9465,
      "âĳ¢": 9466,
      "ares": 9467,
      "Ġä»ĸè¯´": 9468,
      "Ġgemeen": 9469,
      "Ġ~": 9470,
      "Ġvoetbal": 9471,
      "éĢĶ": 9472,
      "fin": 9473,
      "licht": 9474,
      "Ġcivil": 9475,
      "Ġgras": 9476,
      "æľĢå¥½çļĦ": 9477,
      "ĠPortug": 9478,
      "rik": 9479,
      "wil": 9480,
      "Ġcrew": 9481,
      "ĠZet": 9482,
      "ĠYour": 9483,
      "çŀİ": 9484,
      "Ġcollect": 9485,
      "hood": 9486,
      "indt": 9487,
      "watch": 9488,
      "Ġwheel": 9489,
      "Ġlearned": 9490,
      "ĠArab": 9491,
      "ĠBig": 9492,
      "ĠâĮ": 9493,
      "çĶŁçī©": 9494,
      "éĺ»": 9495,
      "Ġfighting": 9496,
      "Ġlijken": 9497,
      "åĿĲåľ¨": 9498,
      "Ġnature": 9499,
      "æĹ¦": 9500,
      "Ġsmart": 9501,
      "Mensen": 9502,
      "ĠAss": 9503,
      "Ġespecially": 9504,
      "ternational": 9505,
      "ç§ĺå¯Ĩ": 9506,
      "Papa": 9507,
      "ä½łæľī": 9508,
      "ĠKun": 9509,
      "Ġgered": 9510,
      "çĮ´åŃĲ": 9511,
      "ä¸įä»ħ": 9512,
      "çĶŁäº§": 9513,
      "Ġspeed": 9514,
      "é¾Ħ": 9515,
      "meester": 9516,
      "Ġappl": 9517,
      "Ġglas": 9518,
      "Ph": 9519,
      "raÃ¯": 9520,
      "æĬĬè¿Ļä¸ª": 9521,
      "æ·¡": 9522,
      "ios": 9523,
      "Ġax": 9524,
      "orence": 9525,
      "Ġformed": 9526,
      "Ġorders": 9527,
      "Ġgods": 9528,
      "ä½łèĥ½": 9529,
      "ĠHit": 9530,
      "æĤĶ": 9531,
      "AAR": 9532,
      "å®ĩ": 9533,
      "æĶ¾å¼ĥ": 9534,
      "ä¸ºä»Ģä¹Īè¦ģ": 9535,
      "Ġkorte": 9536,
      "uen": 9537,
      "ĠHere": 9538,
      "Ġleiden": 9539,
      "Ġfinal": 9540,
      "åĨħå®¹": 9541,
      "Ġlikely": 9542,
      "erc": 9543,
      "Ġgete": 9544,
      "å±ģ": 9545,
      "iant": 9546,
      "æľ«": 9547,
      "åĿĩ": 9548,
      "ç¬¬ä¸Ģä¸ª": 9549,
      "çļĦå¥½": 9550,
      "ä¸įæĩĤ": 9551,
      "æ²¡ä»Ģä¹Ī": 9552,
      "ĠWhite": 9553,
      "Ġstraw": 9554,
      "Ã¨re": 9555,
      "wich": 9556,
      "ĠAre": 9557,
      "Ġinterview": 9558,
      "Ġgebouwd": 9559,
      "ije": 9560,
      "rein": 9561,
      "abl": 9562,
      "éĥİ": 9563,
      "iles": 9564,
      "Ã«l": 9565,
      "Ġprotest": 9566,
      "ĠEllen": 9567,
      "ĠçĶ¨": 9568,
      "æĭĸ": 9569,
      "keur": 9570,
      "Ġfeit": 9571,
      "Ġbewegen": 9572,
      "ĠBru": 9573,
      "Ġ2006": 9574,
      "ĠCharles": 9575,
      "Mo": 9576,
      "éĺ´": 9577,
      "Ġcorner": 9578,
      "]!": 9579,
      "ä¸įåİ»": 9580,
      "ning": 9581,
      "å°ıåŃĲ": 9582,
      "ournal": 9583,
[...]
