{
  "version": "1.0",
  "truncation": null,
  "padding": null,
  "added_tokens": [
    {
      "id": 0,
      "content": "<unk>",
      "single_word": false,
      "lstrip": false,
      "rstrip": false,
      "normalized": false,
      "special": true
    },
    {
      "id": 1,
      "content": "<s>",
      "single_word": false,
      "lstrip": false,
      "rstrip": false,
      "normalized": false,
      "special": true
    },
    {
      "id": 2,
      "content": "</s>",
      "single_word": false,
      "lstrip": false,
      "rstrip": false,
      "normalized": false,
      "special": true
    },
    {
      "id": 3,
      "content": "<pad>",
      "single_word": false,
      "lstrip": false,
      "rstrip": false,
      "normalized": false,
      "special": true
    },
    {
      "id": 4,
      "content": "<mask>",
      "single_word": false,
      "lstrip": false,
      "rstrip": false,
      "normalized": false,
      "special": true
    },
    {
      "id": 5,
      "content": "，",
      "single_word": false,
      "lstrip": false,
      "rstrip": false,
      "normalized": false,
      "special": true
    },
    {
      "id": 6,
      "content": "。",
      "single_word": false,
      "lstrip": false,
      "rstrip": false,
      "normalized": false,
      "special": true
    },
    {
      "id": 7,
      "content": "、",
      "single_word": false,
      "lstrip": false,
      "rstrip": false,
      "normalized": false,
      "special": true
    },
    {
      "id": 8,
      "content": "！",
      "single_word": false,
      "lstrip": false,
      "rstrip": false,
      "normalized": false,
      "special": true
    },
    {
      "id": 9,
      "content": "？",
      "single_word": false,
      "lstrip": false,
      "rstrip": false,
      "normalized": false,
      "special": true
    },
    {
      "id": 10,
      "content": "：",
      "single_word": false,
      "lstrip": false,
      "rstrip": false,
      "normalized": false,
      "special": true
    },
    {
      "id": 11,
      "content": "；",
      "single_word": false,
      "lstrip": false,
      "rstrip": false,
      "normalized": false,
      "special": true
    },
    {
      "id": 12,
      "content": "「",
      "single_word": false,
      "lstrip": false,
      "rstrip": false,
      "normalized": false,
      "special": true
    },
    {
      "id": 13,
      "content": "」",
      "single_word": false,
      "lstrip": false,
      "rstrip": false,
      "normalized": false,
      "special": true
    },
    {
      "id": 14,
      "content": "（",
      "single_word": false,
      "lstrip": false,
      "rstrip": false,
      "normalized": false,
      "special": true
    },
    {
      "id": 15,
      "content": "）",
      "single_word": false,
      "lstrip": false,
      "rstrip": false,
      "normalized": false,
      "special": true
    },
    {
      "id": 16,
      "content": "《",
      "single_word": false,
      "lstrip": false,
      "rstrip": false,
      "normalized": false,
      "special": true
    },
    {
      "id": 17,
      "content": "》",
      "single_word": false,
      "lstrip": false,
      "rstrip": false,
      "normalized": false,
      "special": true
    },
    {
      "id": 18,
      "content": "【",
      "single_word": false,
      "lstrip": false,
      "rstrip": false,
      "normalized": false,
      "special": true
    },
    {
      "id": 19,
      "content": "】",
      "single_word": false,
      "lstrip": false,
      "rstrip": false,
      "normalized": false,
      "special": true
    }
  ],
  "normalizer": null,
  "pre_tokenizer": {
    "type": "ByteLevel",
    "add_prefix_space": false,
    "trim_offsets": true,
    "use_regex": true
  },
  "post_processor": {
    "type": "ByteLevel",
    "add_prefix_space": true,
    "trim_offsets": false,
    "use_regex": true
  },
  "decoder": {
    "type": "ByteLevel",
    "add_prefix_space": true,
    "trim_offsets": true,
    "use_regex": true
  },
  "model": {
    "type": "BPE",
    "dropout": null,
    "unk_token": null,
    "continuing_subword_prefix": null,
    "end_of_word_suffix": null,
    "fuse_unk": false,
    "byte_fallback": false,
    "ignore_merges": false,
    "vocab": {
      "<unk>": 0,
      "<s>": 1,
      "</s>": 2,
      "<pad>": 3,
      "<mask>": 4,
      "，": 5,
      "。": 6,
      "、": 7,
      "！": 8,
      "？": 9,
      "：": 10,
      "；": 11,
      "「": 12,
      "」": 13,
      "（": 14,
      "）": 15,
      "《": 16,
      "》": 17,
      "【": 18,
      "】": 19,
      "!": 20,
      "\"": 21,
      "#": 22,
      "$": 23,
      "%": 24,
      "&": 25,
      "'": 26,
      "(": 27,
      ")": 28,
      "*": 29,
      "+": 30,
      ",": 31,
      "-": 32,
      ".": 33,
      "/": 34,
      "0": 35,
      "1": 36,
      "2": 37,
      "3": 38,
      "4": 39,
      "5": 40,
      "6": 41,
      "7": 42,
      "8": 43,
      "9": 44,
      ":": 45,
      ";": 46,
      "<": 47,
      "=": 48,
      ">": 49,
      "?": 50,
      "@": 51,
      "A": 52,
      "B": 53,
      "C": 54,
      "D": 55,
      "E": 56,
      "F": 57,
      "G": 58,
      "H": 59,
      "I": 60,
      "J": 61,
      "K": 62,
      "L": 63,
      "M": 64,
      "N": 65,
      "O": 66,
      "P": 67,
      "Q": 68,
      "R": 69,
      "S": 70,
      "T": 71,
      "U": 72,
      "V": 73,
      "W": 74,
      "X": 75,
      "Y": 76,
      "Z": 77,
      "[": 78,
      "\\": 79,
      "]": 80,
      "^": 81,
      "_": 82,
      "`": 83,
      "a": 84,
      "b": 85,
      "c": 86,
      "d": 87,
      "e": 88,
      "f": 89,
      "g": 90,
      "h": 91,
      "i": 92,
      "j": 93,
      "k": 94,
      "l": 95,
      "m": 96,
      "n": 97,
      "o": 98,
      "p": 99,
      "q": 100,
      "r": 101,
      "s": 102,
      "t": 103,
      "u": 104,
      "v": 105,
      "w": 106,
      "x": 107,
      "y": 108,
      "z": 109,
      "{": 110,
      "|": 111,
      "}": 112,
      "~": 113,
      "¡": 114,
      "¢": 115,
      "£": 116,
      "¤": 117,
      "¥": 118,
      "¦": 119,
      "§": 120,
      "¨": 121,
      "©": 122,
      "ª": 123,
      "«": 124,
      "¬": 125,
      "®": 126,
      "¯": 127,
      "°": 128,
      "±": 129,
      "²": 130,
      "³": 131,
      "´": 132,
      "µ": 133,
      "¶": 134,
      "·": 135,
      "¸": 136,
      "¹": 137,
      "º": 138,
      "»": 139,
      "¼": 140,
      "½": 141,
      "¾": 142,
      "¿": 143,
      "À": 144,
      "Á": 145,
      "Â": 146,
      "Ã": 147,
      "Ä": 148,
      "Å": 149,
      "Æ": 150,
      "Ç": 151,
      "È": 152,
      "É": 153,
      "Ê": 154,
      "Ë": 155,
      "Ì": 156,
      "Í": 157,
      "Î": 158,
      "Ï": 159,
      "Ð": 160,
      "Ñ": 161,
      "Ò": 162,
      "Ó": 163,
      "Ô": 164,
      "Õ": 165,
      "Ö": 166,
      "×": 167,
      "Ø": 168,
      "Ù": 169,
      "Ú": 170,
      "Û": 171,
      "Ü": 172,
      "Ý": 173,
      "Þ": 174,
      "ß": 175,
      "à": 176,
      "á": 177,
      "â": 178,
      "ã": 179,
      "ä": 180,
      "å": 181,
      "æ": 182,
      "ç": 183,
      "è": 184,
      "é": 185,
      "ê": 186,
      "ë": 187,
      "ì": 188,
      "í": 189,
      "î": 190,
      "ï": 191,
      "ð": 192,
      "ñ": 193,
      "ò": 194,
      "ó": 195,
      "ô": 196,
      "õ": 197,
      "ö": 198,
      "÷": 199,
      "ø": 200,
      "ù": 201,
      "ú": 202,
      "û": 203,
      "ü": 204,
      "ý": 205,
      "þ": 206,
      "ÿ": 207,
      "Ā": 208,
      "ā": 209,
      "Ă": 210,
      "ă": 211,
      "Ą": 212,
      "ą": 213,
      "Ć": 214,
      "ć": 215,
      "Ĉ": 216,
      "ĉ": 217,
      "Ċ": 218,
      "ċ": 219,
      "Č": 220,
      "č": 221,
      "Ď": 222,
      "ď": 223,
      "Đ": 224,
      "đ": 225,
      "Ē": 226,
      "ē": 227,
      "Ĕ": 228,
      "ĕ": 229,
      "Ė": 230,
      "ė": 231,
      "Ę": 232,
      "ę": 233,
      "Ě": 234,
      "ě": 235,
      "Ĝ": 236,
      "ĝ": 237,
      "Ğ": 238,
      "ğ": 239,
      "Ġ": 240,
      "ġ": 241,
      "Ģ": 242,
      "ģ": 243,
      "Ĥ": 244,
      "ĥ": 245,
      "Ħ": 246,
      "ħ": 247,
      "Ĩ": 248,
      "ĩ": 249,
      "Ī": 250,
      "ī": 251,
      "Ĭ": 252,
      "ĭ": 253,
      "Į": 254,
      "į": 255,
      "İ": 256,
      "ı": 257,
      "Ĳ": 258,
      "ĳ": 259,
      "Ĵ": 260,
      "ĵ": 261,
      "Ķ": 262,
      "ķ": 263,
      "ĸ": 264,
      "Ĺ": 265,
      "ĺ": 266,
      "Ļ": 267,
      "ļ": 268,
      "Ľ": 269,
      "ľ": 270,
      "Ŀ": 271,
      "ŀ": 272,
      "Ł": 273,
      "ł": 274,
      "Ń": 275,
      "Ġt": 276,
      "he": 277,
      "Ġa": 278,
      "in": 279,
      "en": 280,
      "er": 281,
      "Ġw": 282,
      "ou": 283,
      "Ġs": 284,
      "Ġthe": 285,
      "an": 286,
      "Ġo": 287,
      "at": 288,
      "Ġd": 289,
      "re": 290,
      "Ġb": 291,
      "Ġm": 292,
      "it": 293,
      "is": 294,
      "on": 295,
      "Ġh": 296,
      "or": 297,
      "Ġc": 298,
      "ing": 299,
      "Ġg": 300,
      "ar": 301,
      "ll": 302,
      "ed": 303,
      "es": 304,
      "Ġf": 305,
      "nd": 306,
      "Ġp": 307,
      "Ġto": 308,
      "Ġn": 309,
      "et": 310,
      "Ġth": 311,
      "OT": 312,
      "MOT": 313,
      "Ġy": 314,
      "Ġl": 315,
      "Ġhe": 316,
      "Ġin": 317,
      "as": 318,
      "Ġyou": 319,
      "CH": 320,
      "CHI": 321,
      "om": 322,
      "Ġof": 323,
      "Ġand": 324,
      "el": 325,
      "Ġv": 326,
      "Ġ.": 327,
      "ĠI": 328,
      "ot": 329,
      "'s": 330,
      "ow": 331,
      "Ġe": 332,
      "al": 333,
      "ch": 334,
      "Ġis": 335,
      "Ġon": 336,
      "st": 337,
      "Ġit": 338,
      "le": 339,
      "Ġk": 340,
      "ij": 341,
      "Ġde": 342,
      "ay": 343,
      "ve": 344,
      "id": 345,
      "ig": 346,
      "ad": 347,
      "Ġbe": 348,
      "ic": 349,
      "Ġthat": 350,
      "oo": 351,
      "Ġu": 352,
      "hat": 353,
      "Ġj": 354,
      "ie": 355,
      "ut": 356,
      "ent": 357,
      "Ġwas": 358,
      "am": 359,
      "Ġz": 360,
      "se": 361,
      "ld": 362,
      "..": 363,
      "Ġst": 364,
      "im": 365,
      "ro": 366,
      "and": 367,
      "Ġre": 368,
      "Ġdo": 369,
      "'t": 370,
      "Ġwe": 371,
      "ver": 372,
      "ke": 373,
      "ion": 374,
      "Ġme": 375,
      "ac": 376,
      "ir": 377,
      "ht": 378,
      "ĠS": 379,
      "ur": 380,
      "Ġfor": 381,
      "Ġha": 382,
      "ĠT": 383,
      "Ġr": 384,
      "ĠA": 385,
      "ĠM": 386,
      "out": 387,
      "il": 388,
      "all": 389,
      "ter": 390,
      "aar": 391,
      "ith": 392,
      "ee": 393,
      "Ġan": 394,
      "ea": 395,
      "ight": 396,
      "her": 397,
      "Ġgo": 398,
      "Ġ,": 399,
      "ĠH": 400,
      "ly": 401,
      "ĠB": 402,
      "Ġwith": 403,
      "ĠC": 404,
      "ome": 405,
      "un": 406,
      "ag": 407,
      "ill": 408,
      "Ġen": 409,
      "ant": 410,
      "Ġhet": 411,
      "Ġas": 412,
      "if": 413,
      "Ġeen": 414,
      "ĠD": 415,
      "Ġvan": 416,
      "Ġwh": 417,
      "oor": 418,
      "ct": 419,
      "ell": 420,
      "um": 421,
      "Ġat": 422,
      "ol": 423,
      "Ġje": 424,
      "Ġnot": 425,
      "op": 426,
      "us": 427,
      "ak": 428,
      "ers": 429,
      "Ġmo": 430,
      "ould": 431,
      "Ġ1": 432,
      "ce": 433,
      "Ġal": 434,
      "Ġhave": 435,
      "Ġthis": 436,
      "ra": 437,
      "ust": 438,
      "Ġkn": 439,
      "Ġli": 440,
      "Ġ\"": 441,
      "here": 442,
      "Ġall": 443,
      "ä¸": 444,
      "est": 445,
      "Ġare": 446,
      "ri": 447,
      "ook": 448,
      "Ġver": 449,
      "em": 450,
      "iet": 451,
      "Ġ?": 452,
      "ik": 453,
      "ĠP": 454,
      "xx": 455,
      "Ġsh": 456,
      "Ġhis": 457,
      "th": 458,
      "pp": 459,
      "ere": 460,
      "au": 461,
      "eah": 462,
      "Ġone": 463,
      "ĠW": 464,
      "Ġthey": 465,
      "Ġcan": 466,
      "Ġknow": 467,
      "Ġne": 468,
      "Ġge": 469,
      "...": 470,
      "Ġthere": 471,
      "ind": 472,
      "Ġno": 473,
      "Ġup": 474,
      "end": 475,
      "Ġhad": 476,
      "Ġyour": 477,
      "Ġwor": 478,
      "Ġer": 479,
      "Ġdon": 480,
      "Ġop": 481,
      "Ġher": 482,
      "our": 483,
      "ain": 484,
      "ĠG": 485,
      "ĠN": 486,
      "ven": 487,
      "ul": 488,
      "ist": 489,
      "Ġfr": 490,
      "Ġwhat": 491,
      "Ġshe": 492,
      "ab": 493,
      "ijn": 494,
      "ge": 495,
      "Ġ'": 496,
      "Ġpl": 497,
      "IN": 498,
      "Ġso": 499,
      "art": 500,
      "ap": 501,
      "Ġ2": 502,
      "ink": 503,
      "Ġdat": 504,
      "Ġmy": 505,
      "ĠR": 506,
      "ood": 507,
      "ĠL": 508,
      "hen": 509,
      "ation": 510,
      "ard": 511,
      "Ġte": 512,
      "ack": 513,
      "ĠJ": 514,
      "ry": 515,
      "ĠF": 516,
      "oug": 517,
      "ĠE": 518,
      "INV": 519,
      "Ġlike": 520,
      "Ġor": 521,
      "Ġout": 522,
      "Ġch": 523,
      "Ġab": 524,
      "Ġsp": 525,
      "Ġget": 526,
      "os": 527,
      "ck": 528,
      "Ġsa": 529,
      "'re": 530,
      "ast": 531,
      "oh": 532,
      "Ġniet": 533,
      "ich": 534,
      "ake": 535,
      "You": 536,
      "Ġfrom": 537,
      "ong": 538,
      "The": 539,
      "den": 540,
      "ess": 541,
      "Ġbut": 542,
      "ĠThe": 543,
      "Ġhim": 544,
      "Ġsu": 545,
      "no": 546,
      "ound": 547,
      "qu": 548,
      "one": 549,
      "AT": 550,
      "ok": 551,
      "Ġby": 552,
      "Ġcom": 553,
      "Ġ(": 554,
      "itt": 555,
      "Ġwere": 556,
      "Ġsee": 557,
      "Ik": 558,
      "ame": 559,
      "Ġse": 560,
      "what": 561,
      "ft": 562,
      "you": 563,
      "'m": 564,
      "Ġover": 565,
      "na": 566,
      "äº": 567,
      "Ġcon": 568,
      "ĠO": 569,
      "res": 570,
      "de": 571,
      "Ġthem": 572,
      "Ġik": 573,
      "eg": 574,
      "Ġdid": 575,
      "Ġgot": 576,
      "own": 577,
      "Ġman": 578,
      "ort": 579,
      "cht": 580,
      "ally": 581,
      "Ġex": 582,
      "'ll": 583,
      "Ġabout": 584,
      "ine": 585,
      "Ġpro": 586,
      "ber": 587,
      "Ġsome": 588,
      "Ġtw": 589,
      "ies": 590,
      "Ġvoor": 591,
      "ang": 592,
      "yeah": 593,
      "ond": 594,
      "Ġbo": 595,
      "ive": 596,
      "Ġthink": 597,
      "ier": 598,
      "Ġmet": 599,
      "çļ": 600,
      "Ġwant": 601,
      "FAT": 602,
      "ep": 603,
      "çļĦ": 604,
      "ect": 605,
      ".\"": 606,
      "Ġaf": 607,
      "Ġhere": 608,
      "ijk": 609,
      "ek": 610,
      "ick": 611,
      "].": 612,
      "Ġbl": 613,
      "ice": 614,
      "Ġjust": 615,
      "Ġlook": 616,
      "Ġsaid": 617,
      "gen": 618,
      "ru": 619,
      "xxx": 620,
      "Ġzijn": 621,
      "are": 622,
      "Ġle": 623,
      "Ġwat": 624,
      "ank": 625,
      "Ġthen": 626,
      "Ġar": 627,
      "hing": 628,
      "be": 629,
      "Ġwould": 630,
      "we": 631,
      "Ġsay": 632,
      "ime": 633,
      "ore": 634,
      "Ġif": 635,
      "ide": 636,
      "to": 637,
      "Ġ20": 638,
      "ate": 639,
      "Ġwho": 640,
      "ough": 641,
      ",\"": 642,
      "ä»": 643,
      "od": 644,
      "ĠK": 645,
      "Ġbr": 646,
      "Ġright": 647,
      "Ġus": 648,
      "æĪ": 649,
      "ous": 650,
      "Ġ19": 651,
      "Ġany": 652,
      "Ġals": 653,
      "Ġgr": 654,
      "'ve": 655,
      "nt": 656,
      "Ġnow": 657,
      "Ġwill": 658,
      "We": 659,
      "Ġ...": 660,
      "Ġheb": 661,
      "Ġwhen": 662,
      "that": 663,
      "aat": 664,
      "ip": 665,
      "eld": 666,
      "other": 667,
      "Ġdown": 668,
      "ens": 669,
      "ĠHe": 670,
      "Ġdie": 671,
      "ther": 672,
      "It": 673,
      "ause": 674,
      "Ġag": 675,
      "ittle": 676,
      "ze": 677,
      "ite": 678,
      "ure": 679,
      "ose": 680,
      "Ġcl": 681,
      "way": 682,
      "Ġro": 683,
      "Ġput": 684,
      "Ġbeen": 685,
      "Ġback": 686,
      "è¿": 687,
      "nder": 688,
      "ity": 689,
      "Ġhas": 690,
      "ä½": 691,
      "Ġoff": 692,
      "ff": 693,
      "Ġwhich": 694,
      "He": 695,
      "ings": 696,
      "æĪĳ": 697,
      "Ġfe": 698,
      "ire": 699,
      "Ġgoing": 700,
      "iv": 701,
      "ĠIt": 702,
      "Ġtime": 703,
      "ia": 704,
      "my": 705,
      "Ġlittle": 706,
      "Ġcould": 707,
      "ish": 708,
      "æĺ": 709,
      "ree": 710,
      "Ġtheir": 711,
      "cause": 712,
      "Ġvery": 713,
      "ĠV": 714,
      "Ġmore": 715,
      "ass": 716,
      "Ġaan": 717,
      "ace": 718,
      "pl": 719,
      "ull": 720,
      "Ġlo": 721,
      "elf": 722,
      "Ġ[": 723,
      "che": 724,
      "Ġuit": 725,
      "iss": 726,
      "Ġze": 727,
      "ild": 728,
      "aug": 729,
      "te": 730,
      "Ġgood": 731,
      "aan": 732,
      "And": 733,
      "What": 734,
      "mer": 735,
      "Ġpe": 736,
      "Ġqu": 737,
      "Ġtwo": 738,
      "ans": 739,
      "ĠU": 740,
      "the": 741,
      "yes": 742,
      "Ġother": 743,
      "og": 744,
      "oe": 745,
      "Ġtr": 746,
      "alk": 747,
      "ken": 748,
      "æĺ¯": 749,
      "Ġbet": 750,
      "Ġel": 751,
      "ien": 752,
      "Ġxxx": 753,
      "Ġom": 754,
      "ars": 755,
      "age": 756,
      "Ġpr": 757,
      "Ġplay": 758,
      "AR": 759,
      "ment": 760,
      "ĠCh": 761,
      "Ġco": 762,
      "Ġsch": 763,
      "orn": 764,
      "reat": 765,
      "omet": 766,
      "ble": 767,
      "ĠIn": 768,
      "uh": 769,
      "Ġinto": 770,
      "ied": 771,
      "Ġcome": 772,
      "Ġever": 773,
      "bl": 774,
      "Oh": 775,
      "ud": 776,
      "ople": 777,
      "urn": 778,
      "00": 779,
      "act": 780,
      "ĠSt": 781,
      "ĠDe": 782,
      "hy": 783,
      "per": 784,
      "ade": 785,
      "Ġdoor": 786,
      "äºĨ": 787,
      "onna": 788,
      "irst": 789,
      "æľ": 790,
      "Ġzo": 791,
      "ase": 792,
      "av": 793,
      "Ġway": 794,
      "ought": 795,
      "å¤": 796,
      "ary": 797,
      "ug": 798,
      "No": 799,
      "ty": 800,
      "Yeah": 801,
      "ä½ł": 802,
      "Ġfl": 803,
      "Ġwork": 804,
      "ool": 805,
      "Ġagain": 806,
      "ance": 807,
      "Ġ-": 808,
      "Ġpeople": 809,
      "Ġgonna": 810,
      "åı": 811,
      "ne": 812,
      "ä¹": 813,
      "orm": 814,
      "ord": 815,
      "ho": 816,
      "Ġdoes": 817,
      "ount": 818,
      "Ġhow": 819,
      "åĲ": 820,
      "nen": 821,
      "Ġpart": 822,
      "je": 823,
      "Ġwell": 824,
      "cl": 825,
      "ian": 826,
      "å°": 827,
      "Ġcall": 828,
      "ah": 829,
      "Ġwhere": 830,
      "pt": 831,
      "eren": 832,
      "Ġword": 833,
      "Ġhand": 834,
      "Th": 835,
      "land": 836,
      "do": 837,
      "ue": 838,
      "Ġnaar": 839,
      "ä¸Ģ": 840,
      "Ġsomet": 841,
      "Ġmu": 842,
      "ely": 843,
      "Ġfirst": 844,
      "Ġtoo": 845,
      "ach": 846,
      "Ġam": 847,
      "Ġmake": 848,
      "Ġtake": 849,
      "Ã©": 850,
      "ting": 851,
      "sh": 852,
      "ä¸į": 853,
      "Ġsc": 854,
      "Ġtell": 855,
      "Ġsl": 856,
      "ise": 857,
      "Ġday": 858,
      "ng": 859,
      "rij": 860,
      "Ġlet": 861,
      "ark": 862,
      "ather": 863,
      "red": 864,
      "Ġmaar": 865,
      "Ġ!": 866,
      "Ġour": 867,
      "ob": 868,
      "Ġbij": 869,
      "That": 870,
      "ten": 871,
      "ving": 872,
      "Ġneed": 873,
      "aal": 874,
      "iz": 875,
      "Ġdan": 876,
      "Ġun": 877,
      "erd": 878,
      "ost": 879,
      "ys": 880,
      "een": 881,
      "Ġad": 882,
      "where": 883,
      "Ġhou": 884,
      "Ġonly": 885,
      "Ġthr": 886,
      "hed": 887,
      "ile": 888,
      "Ġafter": 889,
      "hm": 890,
      "okay": 891,
      "cc": 892,
      "?\"": 893,
      "ved": 894,
      "fore": 895,
      "wn": 896,
      "Ġwel": 897,
      "ĠFr": 898,
      "Ġper": 899,
      "Ġye": 900,
      "Ġ3": 901,
      "als": 902,
      "uck": 903,
      "Ġpre": 904,
      "Ġmoet": 905,
      "Ġcar": 906,
      "Het": 907,
      "int": 908,
      "Ġdr": 909,
      "riend": 910,
      "--": 911,
      "ress": 912,
      "sp": 913,
      "Ġsm": 914,
      "air": 915,
      "ert": 916,
      "Ġwaar": 917,
      "Well": 918,
      "able": 919,
      "self": 920,
      "Ġter": 921,
      "ated": 922,
      "ci": 923,
      "Ġbel": 924,
      "man": 925,
      "But": 926,
      "Ġben": 927,
      "oll": 928,
      "Ġmuch": 929,
      "Je": 930,
      "è¯": 931,
      "Ġdis": 932,
      "ory": 933,
      "Ġim": 934,
      "è¿Ļ": 935,
      "'d": 936,
      "ew": 937,
      "Ġhel": 938,
      "Ġdidn": 939,
      "Ġlong": 940,
      "Ġshould": 941,
      "day": 942,
      "Ġthese": 943,
      "get": 944,
      "åĪ": 945,
      "Ġevery": 946,
      "ions": 947,
      "ady": 948,
      "In": 949,
      "right": 950,
      "Ġsomething": 951,
      "dy": 952,
      "Yes": 953,
      "iver": 954,
      "Ġbu": 955,
      "Ġsec": 956,
      "åľ": 957,
      "ls": 958,
      "ave": 959,
      "kay": 960,
      "Ġact": 961,
      "Ġmade": 962,
      "ĠTh": 963,
      "there": 964,
      "De": 965,
      "ps": 966,
      "Ġeven": 967,
      "Ġhij": 968,
      "Ġbig": 969,
      "omen": 970,
      "ock": 971,
      "oed": 972,
      "iff": 973,
      "ict": 974,
      "ater": 975,
      "å®": 976,
      "ix": 977,
      "Ġthan": 978,
      "Ġmak": 979,
      "Ġbecause": 980,
      "Ġalso": 981,
      "ouw": 982,
      "Ġhapp": 983,
      "Ġwr": 984,
      "Ġbeg": 985,
      "elijk": 986,
      "Ġmean": 987,
      "Ġapp": 988,
      "thing": 989,
      "Ġcont": 990,
      "Ġkan": 991,
      "anna": 992,
      "Ġaway": 993,
      "Ġreally": 994,
      "aak": 995,
      "Ġtalk": 996,
      "Ġunder": 997,
      "Ġrem": 998,
      "augh": 999,
      "ons": 1000,
      "Wat": 1001,
      "ste": 1002,
      "Ġkun": 1003,
      "So": 1004,
      "ife": 1005,
      "ĠMr": 1006,
      "Ġook": 1007,
      "Ġgu": 1008,
      "Ġbefore": 1009,
      "åħ": 1010,
      "Ġmin": 1011,
      "Ġwent": 1012,
      "Ġdoing": 1013,
      "ĠZ": 1014,
      "eft": 1015,
      "ben": 1016,
      "Ġcomp": 1017,
      "Ġwater": 1018,
      "Ġold": 1019,
      "oot": 1020,
      "ren": 1021,
      "Ġbed": 1022,
      "ward": 1023,
      "du": 1024,
      "oc": 1025,
      "pe": 1026,
      "acht": 1027,
      "Ġgen": 1028,
      "ath": 1029,
      "Ġheeft": 1030,
      "å¥": 1031,
      "Ġask": 1032,
      "Ġdit": 1033,
      "look": 1034,
      "Ġ201": 1035,
      "Ġthree": 1036,
      "Ġnog": 1037,
      "eel": 1038,
      "ves": 1039,
      "der": 1040,
      "well": 1041,
      "amp": 1042,
      "Ġkind": 1043,
      "ER": 1044,
      "arl": 1045,
      "aw": 1046,
      "up": 1047,
      "Ġthose": 1048,
      "Ġhelp": 1049,
      "aby": 1050,
      "Ġhier": 1051,
      "Ġgir": 1052,
      "wer": 1053,
      "ende": 1054,
      "Ġmay": 1055,
      "ail": 1056,
      "PAR": 1057,
      "but": 1058,
      "ious": 1059,
      "Ġhouse": 1060,
      "elen": 1061,
      "Ġmany": 1062,
      "ĠShe": 1063,
      "ub": 1064,
      "Ġhebben": 1065,
      "oon": 1066,
      "Ġdeze": 1067,
      "Ġwon": 1068,
      "Ġeat": 1069,
      "æĿ": 1070,
      "ny": 1071,
      "ĠBr": 1072,
      "ult": 1073,
      "Ġnew": 1074,
      "Ġbest": 1075,
      "ful": 1076,
      "Ġcame": 1077,
      "Ġthings": 1078,
      "Ġthrough": 1079,
      "Ġthought": 1080,
      "Ġhome": 1081,
      "Ġthing": 1082,
      "Ġnever": 1083,
      "æľī": 1084,
      "ence": 1085,
      "ä¸ª": 1086,
      "ingen": 1087,
      "ãĢ": 1088,
      "els": 1089,
      "Ġmust": 1090,
      "old": 1091,
      "can": 1092,
      "ummy": 1093,
      "Ġhead": 1094,
      "ĠUn": 1095,
      "Ġple": 1096,
      "Ġinter": 1097,
      "Ġturn": 1098,
      "Ġcr": 1099,
      "ijd": 1100,
      "ign": 1101,
      "Ġlast": 1102,
      "!\"": 1103,
      "Ġbit": 1104,
      "En": 1105,
      "Ġfind": 1106,
      "Ġcomm": 1107,
      "Ġwanna": 1108,
      "oss": 1109,
      "ĠY": 1110,
      "Dat": 1111,
      "IS": 1112,
      "ody": 1113,
      "Ġstart": 1114,
      "Ġcalled": 1115,
      "aten": 1116,
      "Ġgreat": 1117,
      "Ġonder": 1118,
      "Ġdone": 1119,
      "ried": 1120,
      "oy": 1121,
      "xt": 1122,
      "les": 1123,
      "Ġanother": 1124,
      "arm": 1125,
      "ates": 1126,
      "Ġbook": 1127,
      "ents": 1128,
      "Ġsn": 1129,
      "igh": 1130,
      "Ġworden": 1131,
      "Ġdiff": 1132,
      "Ġhem": 1133,
      "Ġwordt": 1134,
      "ait": 1135,
      "Ġser": 1136,
      "Ġmom": 1137,
      "ical": 1138,
      "come": 1139,
      "Ġrec": 1140,
      "Ġtra": 1141,
      "Ġgive": 1142,
      "XP": 1143,
      "ces": 1144,
      "Ġstill": 1145,
      "å°±": 1146,
      "ister": 1147,
      "port": 1148,
      "ever": 1149,
      "inn": 1150,
      "Ġgoed": 1151,
      "eep": 1152,
      "ily": 1153,
      "Ġgl": 1154,
      "uur": 1155,
      "ually": 1156,
      "Ġwer": 1157,
      "Ġfound": 1158,
      "Ġmijn": 1159,
      "Ġche": 1160,
      "Ġits": 1161,
      "EXP": 1162,
      "me": 1163,
      "Ġgeen": 1164,
      "Ġerm": 1165,
      "Ġhu": 1166,
      "Ġwil": 1167,
      "Ġschool": 1168,
      "ãĢĤ": 1169,
      "Ġchild": 1170,
      "Ġ4": 1171,
      "They": 1172,
      "ors": 1173,
      "ww": 1174,
      "ember": 1175,
      "uss": 1176,
      "atie": 1177,
      "Ġmen": 1178,
      "Ġlea": 1179,
      "ale": 1180,
      "let": 1181,
      "body": 1182,
      "ened": 1183,
      "åľ¨": 1184,
      ".]": 1185,
      "ĠAmer": 1186,
      "Ġbot": 1187,
      "aughs": 1188,
      "ss": 1189,
      "Ġmight": 1190,
      "Ġgeb": 1191,
      "oord": 1192,
      "ont": 1193,
      "ele": 1194,
      "åĳ": 1195,
      "Ġpo": 1196,
      "AN": 1197,
      "uit": 1198,
      "ange": 1199,
      "Ġshow": 1200,
      "Ġcount": 1201,
      "Ġmeer": 1202,
      "Ġbaby": 1203,
      "oud": 1204,
      "ä»¬": 1205,
      "Ġlot": 1206,
      "Ġown": 1207,
      "Ġtry": 1208,
      "ms": 1209,
      "ige": 1210,
      "åŃ": 1211,
      "Ġnight": 1212,
      "ief": 1213,
      "onder": 1214,
      "Ġboy": 1215,
      "Ġ200": 1216,
      "urt": 1217,
      "app": 1218,
      "Ġhun": 1219,
      "She": 1220,
      "ç»": 1221,
      "ĥ½": 1222,
      "Ġstr": 1223,
      "Ġname": 1224,
      "Ġsuch": 1225,
      "ote": 1226,
      "å¾": 1227,
      "ye": 1228,
      "Ġisn": 1229,
      "akes": 1230,
      "orry": 1231,
      "Ġaround": 1232,
      "Ġpers": 1233,
      "Ġmost": 1234,
      "vol": 1235,
      "Ġnu": 1236,
      "ited": 1237,
      ").": 1238,
      "Ġend": 1239,
      "uk": 1240,
      "Ġpol": 1241,
      "This": 1242,
      "vel": 1243,
      "Ġatt": 1244,
      "Ġreg": 1245,
      "ĠAnd": 1246,
      "æī": 1247,
      "ĠMar": 1248,
      "Ġfriend": 1249,
      "Ġyears": 1250,
      "eder": 1251,
      "There": 1252,
      "imes": 1253,
      "so": 1254,
      "oney": 1255,
      "SIS": 1256,
      "Hij": 1257,
      "Ġsupp": 1258,
      "äºº": 1259,
      "ĠThey": 1260,
      "Ġfour": 1261,
      "Ġfeel": 1262,
      "Ġtot": 1263,
      "Er": 1264,
      "St": 1265,
      "Ġbetter": 1266,
      "Ġnum": 1267,
      "ins": 1268,
      "ike": 1269,
      "ĠæĪĳ": 1270,
      "Ġsle": 1271,
      "Ġplace": 1272,
      "men": 1273,
      "io": 1274,
      "elt": 1275,
      "Ġhaar": 1276,
      "Ġdes": 1277,
      "ĠYou": 1278,
      "outh": 1279,
      "åĽ": 1280,
      "Ġbeing": 1281,
      "gr": 1282,
      "ph": 1283,
      "Ġused": 1284,
      "Ġgirl": 1285,
      "æĿ¥": 1286,
      "Ġfam": 1287,
      "ä»ĸ": 1288,
      "Ġgro": 1289,
      "Ġdaar": 1290,
      "Ġres": 1291,
      "Ġwhy": 1292,
      "atter": 1293,
      "Ġbre": 1294,
      "she": 1295,
      "br": 1296,
      "Ġvo": 1297,
      "Ġgaan": 1298,
      "Ġont": 1299,
      "ird": 1300,
      "af": 1301,
      "side": 1302,
      "ican": 1303,
      "ations": 1304,
      "Ġ5": 1305,
      "arn": 1306,
      "Ġfin": 1307,
      "Ġcare": 1308,
      "over": 1309,
      "jes": 1310,
      "led": 1311,
      "med": 1312,
      "Ġminut": 1313,
      "ition": 1314,
      "Mm": 1315,
      "eer": 1316,
      "åķ": 1317,
      "Ġsays": 1318,
      "Ġmon": 1319,
      "Ġpres": 1320,
      "Ġlife": 1321,
      "Ġsit": 1322,
      "Ġland": 1323,
      "ways": 1324,
      "Ġsure": 1325,
      "unt": 1326,
      "Ġnext": 1327,
      "Ġdoesn": 1328,
      "arly": 1329,
      "mhm": 1330,
      "Ġpu": 1331,
      "Ġsame": 1332,
      "Ġyes": 1333,
      "this": 1334,
      "ä¹Ī": 1335,
      "Ã«": 1336,
      "addy": 1337,
      "Ġstop": 1338,
      "æĹ": 1339,
      "ets": 1340,
      "ced": 1341,
      "pr": 1342,
      "hes": 1343,
      "Ġhal": 1344,
      "Ġmil": 1345,
      "Ġnice": 1346,
      "Ġelse": 1347,
      "Ġroom": 1348,
      "ina": 1349,
      "gg": 1350,
      "çĶ": 1351,
      "Ġopen": 1352,
      "Is": 1353,
      "laughs": 1354,
      "ince": 1355,
      "Ġhard": 1356,
      "Ġbus": 1357,
      "All": 1358,
      "they": 1359,
      "è¯´": 1360,
      "Ġ18": 1361,
      "If": 1362,
      "çľ": 1363,
      "aken": 1364,
      "Ġcour": 1365,
      "Ġkunnen": 1366,
      "now": 1367,
      "ident": 1368,
      "ET": 1369,
      "Ġvol": 1370,
      "Ġokay": 1371,
      "ec": 1372,
      "Ġmother": 1373,
      "uw": 1374,
      "How": 1375,
      "Ġyeah": 1376,
      "Ġbro": 1377,
      "Ġcol": 1378,
      "form": 1379,
      "ä¼": 1380,
      "Ġfather": 1381,
      "ove": 1382,
      "Ġvers": 1383,
      "ib": 1384,
      "Ġkom": 1385,
      "Ġbeh": 1386,
      "Waar": 1387,
      "row": 1388,
      "Ġanything": 1389,
      "\".": 1390,
      "Ġrun": 1391,
      "Ġwhile": 1392,
      "ial": 1393,
      "ger": 1394,
      "Ġzou": 1395,
      "Ġjij": 1396,
      "agen": 1397,
      "Ġdoen": 1398,
      "oof": 1399,
      "Ġweek": 1400,
      "az": 1401,
      "ret": 1402,
      "Ġhoe": 1403,
      "Ġrel": 1404,
      "zo": 1405,
      "ower": 1406,
      "Ġzeg": 1407,
      "oun": 1408,
      "åİ": 1409,
      "ĠÂ": 1410,
      "Ġkeep": 1411,
      "Ġgaat": 1412,
      "Ġlove": 1413,
      "stand": 1414,
      "Ġleft": 1415,
      "Ze": 1416,
      "Ġexp": 1417,
      "Ġalways": 1418,
      "Ġweet": 1419,
      "aught": 1420,
      "ple": 1421,
      "éĤ": 1422,
      "wh": 1423,
      "LD": 1424,
      "Ġbent": 1425,
      "Ġcle": 1426,
      "Ġset": 1427,
      "Ġgone": 1428,
      "Ġkl": 1429,
      "not": 1430,
      "aren": 1431,
      "Ġmind": 1432,
      "vent": 1433,
      "rist": 1434,
      "Do": 1435,
      "who": 1436,
      "erent": 1437,
      "Ġgew": 1438,
      "eak": 1439,
      "mber": 1440,
      "ump": 1441,
      "mand": 1442,
      "Ġball": 1443,
      "Ġuse": 1444,
      "put": 1445,
      "Ġgoes": 1446,
      "ased": 1447,
      "beeld": 1448,
      "Ġsw": 1449,
      "Ġcat": 1450,
      "Ġfun": 1451,
      "how": 1452,
      "Ġacc": 1453,
      "ĠEng": 1454,
      "éĤ£": 1455,
      "ished": 1456,
      "åķĬ": 1457,
      "Ġcoming": 1458,
      "ness": 1459,
      "Ġå": 1460,
      "heid": 1461,
      "pen": 1462,
      "ma": 1463,
      "Ġsaw": 1464,
      "Ġfive": 1465,
      "bo": 1466,
      "Ġround": 1467,
      "ream": 1468,
      "rouw": 1469,
      "Ġsing": 1470,
      "ope": 1471,
      "ational": 1472,
      "iets": 1473,
      "æ²": 1474,
      "Ġread": 1475,
      "Ġpass": 1476,
      "ĠAl": 1477,
      "å¥½": 1478,
      "eten": 1479,
      "Ġons": 1480,
      "Ġlight": 1481,
      "Ġtold": 1482,
      "Ġac": 1483,
      "ĠHet": 1484,
      "ĠBut": 1485,
      "LO": 1486,
      "ta": 1487,
      "dat": 1488,
      "Ġden": 1489,
      "ash": 1490,
      "iek": 1491,
      "ĠAn": 1492,
      "of": 1493,
      "ween": 1494,
      "Ġret": 1495,
      "zen": 1496,
      "Ġsur": 1497,
      "Maar": 1498,
      "sel": 1499,
      "ĠGr": 1500,
      "ject": 1501,
      "Ġdifferent": 1502,
      "ellen": 1503,
      "Ġtook": 1504,
      "don": 1505,
      "Ġma": 1506,
      "Ġquite": 1507,
      "orth": 1508,
      "Ġwalk": 1509,
      "Ġgra": 1510,
      "ork": 1511,
      "lijk": 1512,
      "Ġplease": 1513,
      "Ġdist": 1514,
      "Why": 1515,
      "cial": 1516,
      "Ġpop": 1517,
      "ieve": 1518,
      "Ġmens": 1519,
      "tw": 1520,
      "gether": 1521,
      "Ġhear": 1522,
      "Ġcons": 1523,
      "Ġalleen": 1524,
      "æĢ": 1525,
      "ullie": 1526,
      "Ġworld": 1527,
      "èµ": 1528,
      "cy": 1529,
      "Ġveel": 1530,
      "Ġtwee": 1531,
      "Ġ202": 1532,
      "rew": 1533,
      "æĥ": 1534,
      "Ġunt": 1535,
      "ĠGod": 1536,
      "mm": 1537,
      "ters": 1538,
      "its": 1539,
      "amen": 1540,
      "Ġstand": 1541,
      "Ġsix": 1542,
      "Ġthough": 1543,
      "éĩ": 1544,
      "Ġob": 1545,
      "CHILD": 1546,
      "Ġperson": 1547,
      "Ġid": 1548,
      "Ġna": 1549,
      "orning": 1550,
      "Ġsk": 1551,
      "ows": 1552,
      "ush": 1553,
      "Now": 1554,
      "cent": 1555,
      "Ġenough": 1556,
      "Als": 1557,
      "Ġwait": 1558,
      "oman": 1559,
      "åį": 1560,
      "irect": 1561,
      "oop": 1562,
      "ton": 1563,
      "Ġmoney": 1564,
      "Ġkill": 1565,
      "aking": 1566,
      "Ġgev": 1567,
      "Ġasked": 1568,
      "bab": 1569,
      "ruik": 1570,
      "idd": 1571,
      "Ġint": 1572,
      "åĬ": 1573,
      "Ġsy": 1574,
      "Ġgez": 1575,
      "go": 1576,
      "raw": 1577,
      "Ġsecond": 1578,
      "Ġph": 1579,
      "ĠÂ·": 1580,
      "Ġrest": 1581,
      "Ġä½ł": 1582,
      "Ġlater": 1583,
      "Don": 1584,
      "Ġeyes": 1585,
      "Ġweer": 1586,
      "ey": 1587,
      "¦ģ": 1588,
      "Nee": 1589,
      "huh": 1590,
      "Ġzal": 1591,
      "Ġbetween": 1592,
      "åĩ": 1593,
      "Ġ6": 1594,
      "Ġyear": 1595,
      "Ġside": 1596,
      "ĠThis": 1597,
      "Ġlang": 1598,
      "uring": 1599,
      "isten": 1600,
      "Ġbes": 1601,
      "Ġseen": 1602,
      "Ġleg": 1603,
      "Ġhold": 1604,
      "Ġfire": 1605,
      "è¦ģ": 1606,
      "è®": 1607,
      "aakt": 1608,
      "Ġreal": 1609,
      "ible": 1610,
      "RA": 1611,
      "ann": 1612,
      "Ġremember": 1613,
      "Ġsmall": 1614,
      "TAR": 1615,
      "Ġsound": 1616,
      "Ġlooks": 1617,
      "why": 1618,
      "ese": 1619,
      "Ġpret": 1620,
      "Ġhalf": 1621,
      "),": 1622,
      "Ġent": 1623,
      "Ġface": 1624,
      "Ġnat": 1625,
      "Ġuntil": 1626,
      "Ġmiss": 1627,
      "aps": 1628,
      "Ġfew": 1629,
      "ipp": 1630,
      "Ġnumber": 1631,
      "any": 1632,
      "Ġpar": 1633,
      "ĠAr": 1634,
      "Ġmij": 1635,
      "ross": 1636,
      "Ġ199": 1637,
      "ating": 1638,
      "GET": 1639,
      "Ġtogether": 1640,
      "ics": 1641,
      "gan": 1642,
      "Ġwind": 1643,
      "Ġtru": 1644,
      "Ġknown": 1645,
      "Ġmorning": 1646,
      "TARGET": 1647,
      "è§": 1648,
      "Ġpie": 1649,
      "Ġem": 1650,
      "eed": 1651,
      "rop": 1652,
      "ures": 1653,
      "ered": 1654,
      "Ġlooking": 1655,
      "Ġbox": 1656,
      "Ġvind": 1657,
      "Ġged": 1658,
      "å¿": 1659,
      "ries": 1660,
      "Ġgel": 1661,
      "Ġcourse": 1662,
      "ohn": 1663,
      "Ġmar": 1664,
      "ijke": 1665,
      "åĪ°": 1666,
      "Ġeach": 1667,
      "fta": 1668,
      "und": 1669,
      "ĠWe": 1670,
      "ĠNew": 1671,
      "ames": 1672,
      "cle": 1673,
      "Ġcent": 1674,
      "Ġsort": 1675,
      "ane": 1676,
      "Een": 1677,
      "ollow": 1678,
      "Ġbad": 1679,
      "Ġyet": 1680,
      "Ġtoday": 1681,
      "Ġboth": 1682,
      "ling": 1683,
      "Ġdog": 1684,
      "racht": 1685,
      "Ġtre": 1686,
      "sch": 1687,
      "Ġmoment": 1688,
      "Ġfar": 1689,
      "Ġlar": 1690,
      "igen": 1691,
      "å¼": 1692,
      "olog": 1693,
      "ĠSh": 1694,
      "ische": 1695,
      "çİ": 1696,
      "Ġnothing": 1697,
      "Come": 1698,
      "Ġpoint": 1699,
      "Ġdisc": 1700,
      "Ġpap": 1701,
      "Ġproble": 1702,
      "LOI": 1703,
      "Ja": 1704,
      "Ġzien": 1705,
      "iÃ«": 1706,
      "å·": 1707,
      "Ġhafta": 1708,
      "ĠAmerican": 1709,
      "Ġzich": 1710,
      "chter": 1711,
      "Ġdec": 1712,
      "cept": 1713,
      "Ġgetting": 1714,
      "uff": 1715,
      "itten": 1716,
      "ual": 1717,
      "å¤§": 1718,
      "Ġind": 1719,
      "ama": 1720,
      "Ġfall": 1721,
      "Ġbec": 1722,
      "Ġstay": 1723,
      "apt": 1724,
      "Hoe": 1725,
      "HER": 1726,
      "reen": 1727,
      "Ġred": 1728,
      "Ġprodu": 1729,
      "uth": 1730,
      "000": 1731,
      "Ġass": 1732,
      "ertain": 1733,
      "Ġmag": 1734,
      "une": 1735,
      "ept": 1736,
      "åŃĲ": 1737,
      "æĬ": 1738,
      "Ġhebt": 1739,
      "by": 1740,
      "Ġum": 1741,
      "ĠInd": 1742,
      "æĸ": 1743,
      "eter": 1744,
      "ĠUnited": 1745,
      "æ²¡": 1746,
      "\",": 1747,
      "Ġcut": 1748,
      "eef": 1749,
      "Ġfact": 1750,
      "Ġiets": 1751,
      "ired": 1752,
      "vie": 1753,
      "EA": 1754,
      "ball": 1755,
      "Ġfell": 1756,
      "aster": 1757,
      "Ġdrink": 1758,
      "Ġdirect": 1759,
      "Ġchildren": 1760,
      "å¯": 1761,
      "åĨ": 1762,
      "ĠBe": 1763,
      "did": 1764,
      "Ġga": 1765,
      "Ġstud": 1766,
      "Ġhaven": 1767,
      "ivers": 1768,
      "Ġten": 1769,
      "ape": 1770,
      "å¸": 1771,
      "innen": 1772,
      "Ġfoot": 1773,
      "Ġeer": 1774,
      "Ġtop": 1775,
      "ĠThere": 1776,
      "ield": 1777,
      "Ġoh": 1778,
      "ently": 1779,
      "ader": 1780,
      "omm": 1781,
      "Ġwatch": 1782,
      "ason": 1783,
      "RO": 1784,
      "Ġmoeten": 1785,
      "tle": 1786,
      "Ġleave": 1787,
      "Ġonce": 1788,
      "Ġsleep": 1789,
      "ched": 1790,
      "Ġ7": 1791,
      "å¹": 1792,
      "most": 1793,
      "Ġdep": 1794,
      "èĢ": 1795,
      "ĠChrist": 1796,
      "ric": 1797,
      "Ġpick": 1798,
      "Ġans": 1799,
      "ular": 1800,
      "kt": 1801,
      "osed": 1802,
      "pro": 1803,
      "ä¸Ĭ": 1804,
      "Ġtegen": 1805,
      "Ġvert": 1806,
      "Ġhaving": 1807,
      "vis": 1808,
      "ared": 1809,
      "ts": 1810,
      "Ġjullie": 1811,
      "oren": 1812,
      "ĠNo": 1813,
      "Ġheard": 1814,
      "Okay": 1815,
      "ats": 1816,
      "ĠSp": 1817,
      "Ġhigh": 1818,
      "Ġtrain": 1819,
      "Ġair": 1820,
      "Ġnie": 1821,
      "ä¹Ł": 1822,
      "Ġtalking": 1823,
      "ches": 1824,
      "ober": 1825,
      "Ġju": 1826,
      "ony": 1827,
      "Ġsorry": 1828,
      "Ġchar": 1829,
      "Ġmove": 1830,
      "ĠAf": 1831,
      "ustr": 1832,
      "ific": 1833,
      "On": 1834,
      "ants": 1835,
      "Ġmus": 1836,
      "Ġweg": 1837,
      "ieren": 1838,
      "Ġterug": 1839,
      "Ġincl": 1840,
      "fect": 1841,
      "DS": 1842,
      "Let": 1843,
      "Ġwithout": 1844,
      "Ġbloed": 1845,
      "room": 1846,
      "ster": 1847,
      "vo": 1848,
      "ker": 1849,
      "ĠJe": 1850,
      "è¿ĺ": 1851,
      "Ġfollow": 1852,
      "Ġyoung": 1853,
      "oog": 1854,
      "Hey": 1855,
      "aur": 1856,
      "Ġalong": 1857,
      "ĠGer": 1858,
      "Ġboys": 1859,
      "Ġsoon": 1860,
      "Ġwanted": 1861,
      "Ġagainst": 1862,
      "enty": 1863,
      "ots": 1864,
      "Ġsub": 1865,
      "Be": 1866,
      "Ġ8": 1867,
      "raag": 1868,
      "icht": 1869,
      "MOTHER": 1870,
      "Ġlooked": 1871,
      "Ġhappened": 1872,
      "ready": 1873,
      "Ġandere": 1874,
      "åİ»": 1875,
      "Ġnoise": 1876,
      "éĥ½": 1877,
      "Not": 1878,
      "aul": 1879,
      "¿½": 1880,
      "ities": 1881,
      "ï¿½": 1882,
      "Ġmensen": 1883,
      "zoek": 1884,
      "Ġmed": 1885,
      "ĠBl": 1886,
      "oup": 1887,
      "Ġhands": 1888,
      "Ġgebruik": 1889,
      "Ġshall": 1890,
      "www": 1891,
      "ction": 1892,
      "Thank": 1893,
      "19": 1894,
      "Ġtijd": 1895,
      "Ġkomt": 1896,
      "ĠWhat": 1897,
      "My": 1898,
      "Ġbreak": 1899,
      "ax": 1900,
      "Ġquest": 1901,
      "æł": 1902,
      "Ġdel": 1903,
      "Ġpict": 1904,
      "ĠMiss": 1905,
      "çľĭ": 1906,
      "aring": 1907,
      "Ġborn": 1908,
      "Ġmatter": 1909,
      "Ġlaat": 1910,
      "ung": 1911,
      "less": 1912,
      "off": 1913,
      "Ġkle": 1914,
      "ĠIs": 1915,
      "Ġupon": 1916,
      "Ġanswer": 1917,
      "Ġdied": 1918,
      "very": 1919,
      "Ġteam": 1920,
      "Ġkw": 1921,
      "ither": 1922,
      "Ġmaken": 1923,
      "Ġwerd": 1924,
      "Ġdri": 1925,
      "Ġext": 1926,
      "aut": 1927,
      "Ġknew": 1928,
      "å¾Ĺ": 1929,
      "Ġgem": 1930,
      "Ġges": 1931,
      "ä¸º": 1932,
      "Ġmaking": 1933,
      "GRA": 1934,
      "Ġhimself": 1935,
      "ef": 1936,
      "HE": 1937,
      "Ġanim": 1938,
      "ctor": 1939,
      "mb": 1940,
      "gt": 1941,
      "Ġcur": 1942,
      "Ġ10": 1943,
      "Ã©n": 1944,
      "Ġdear": 1945,
      "ĠMummy": 1946,
      "Ġjaar": 1947,
      "NAN": 1948,
      "Ġdays": 1949,
      "ift": 1950,
      "ijf": 1951,
      "Dit": 1952,
      "ĠAll": 1953,
      "Ġnear": 1954,
      "Ġsaying": 1955,
      "ship": 1956,
      "Ġactually": 1957,
      "bably": 1958,
      "åı¯": 1959,
      "Ġgener": 1960,
      "ern": 1961,
      "Ġstory": 1962,
      "Ġvl": 1963,
      "ement": 1964,
      "Ġeens": 1965,
      "cess": 1966,
      "åĵ": 1967,
      "ering": 1968,
      "Ch": 1969,
      "van": 1970,
      "Ġ9": 1971,
      "Ġwild": 1972,
      "Ġwasn": 1973,
      "ĠEu": 1974,
      "å°ı": 1975,
      "Kom": 1976,
      "Mummy": 1977,
      "Ġsong": 1978,
      "oen": 1979,
      "Ġlive": 1980,
      "Ġfamily": 1981,
      "ĠFrank": 1982,
      "Ġcountry": 1983,
      "ined": 1984,
      "Ġheart": 1985,
      "Ġcoll": 1986,
      "When": 1987,
      "Ġkrij": 1988,
      "Ġconf": 1989,
      "ĠStates": 1990,
      "Ġfil": 1991,
      "Ġhot": 1992,
      "Ġref": 1993,
      "Ġtea": 1994,
      "Ġeight": 1995,
      "ĠJohn": 1996,
      "ex": 1997,
      "Ġ198": 1998,
      "Ġinterest": 1999,
      "ha": 2000,
      "èĥ½": 2001,
      "Ġready": 2002,
      "Ġcity": 2003,
      "erg": 2004,
      "Ġmeet": 2005,
      "Ġspeak": 2006,
      "Ġeff": 2007,
      "Ġwhe": 2008,
      "ederland": 2009,
      "ital": 2010,
      "ying": 2011,
      "Ġsince": 2012,
      "Ġcomes": 2013,
      "ĠAs": 2014,
      "æĹ¶": 2015,
      "ommy": 2016,
      "Ġbelieve": 2017,
      "see": 2018,
      "éĹ": 2019,
      "ages": 2020,
      "Ġwhole": 2021,
      "voor": 2022,
      "Ġkomen": 2023,
      "ĠQ": 2024,
      "onden": 2025,
      "ines": 2026,
      "ery": 2027,
      "Ġhair": 2028,
      "Ġbring": 2029,
      "eb": 2030,
      "ully": 2031,
      "enn": 2032,
      "Ġpolit": 2033,
      "||": 2034,
      "CDS": 2035,
      "Ġtri": 2036,
      "emen": 2037,
      "ussen": 2038,
      "Ġhour": 2039,
      "Ġresp": 2040,
      "ouse": 2041,
      "Ġmee": 2042,
      "iam": 2043,
      "oke": 2044,
      "Ġdef": 2045,
      "Ġswe": 2046,
      "Ġblack": 2047,
      "iden": 2048,
      "use": 2049,
      "Ġeverything": 2050,
      "Ġwhite": 2051,
      "ĠBob": 2052,
      "ron": 2053,
      "Ġgave": 2054,
      "ected": 2055,
      "ole": 2056,
      "Ġthank": 2057,
      "Ġreturn": 2058,
      "ives": 2059,
      "æŃ": 2060,
      "Ġwonder": 2061,
      "iness": 2062,
      "Where": 2063,
      "Ġjou": 2064,
      "Ġleven": 2065,
      "iding": 2066,
      "è·": 2067,
      "TEA": 2068,
      "Ġgek": 2069,
      "Ġversch": 2070,
      "atch": 2071,
      "ĠMrs": 2072,
      "ĠBrit": 2073,
      "çĿ": 2074,
      "ised": 2075,
      "tern": 2076,
      "Ġstarted": 2077,
      "Ġart": 2078,
      "Ġfeet": 2079,
      "Ġbuild": 2080,
      "ai": 2081,
      "ring": 2082,
      "Ħ¿": 2083,
      "door": 2084,
      "ĠNederland": 2085,
      "Ġadd": 2086,
      "Ġunderstand": 2087,
      "ä¼ļ": 2088,
      "airs": 2089,
      "Ġposs": 2090,
      "Ġru": 2091,
      "MCH": 2092,
      "Ġtable": 2093,
      "open": 2094,
      "Ġbecame": 2095,
      "Ġexpl": 2096,
      "Just": 2097,
      "beelding": 2098,
      "Ġsim": 2099,
      "Ġinst": 2100,
      "ooit": 2101,
      "dig": 2102,
      "Who": 2103,
      "ises": 2104,
      "ged": 2105,
      "Ġimport": 2106,
      "Ġsign": 2107,
      "ids": 2108,
      "Ġvis": 2109,
      "ĠAt": 2110,
      "orrow": 2111,
      "Ġfloor": 2112,
      "rom": 2113,
      "éĿ": 2114,
      "aint": 2115,
      "Ġgame": 2116,
      "amer": 2117,
      "Ġpubl": 2118,
      "EL": 2119,
      "Ġfood": 2120,
      "Ġcertain": 2121,
      "Ġorgan": 2122,
      "wards": 2123,
      "Ġjob": 2124,
      "Ġev": 2125,
      "Ġsil": 2126,
      "illy": 2127,
      "Ġalready": 2128,
      "Ġpay": 2129,
      "Ġplayed": 2130,
      "Right": 2131,
      "Ġhund": 2132,
      "bs": 2133,
      "åĴ": 2134,
      "ience": 2135,
      "Ġform": 2136,
      "geven": 2137,
      "Ġhundred": 2138,
      "Ġwoman": 2139,
      "Ġplaying": 2140,
      "oes": 2141,
      "Ġalmost": 2142,
      "Al": 2143,
      "Ġtimes": 2144,
      "Ġvrouw": 2145,
      "Ġidea": 2146,
      "ison": 2147,
      "eden": 2148,
      "Ġ197": 2149,
      "Ġelk": 2150,
      "Ġminute": 2151,
      "Ġwar": 2152,
      "ä»¥": 2153,
      "æķ": 2154,
      "aats": 2155,
      "Ġhor": 2156,
      "elijke": 2157,
      "oint": 2158,
      "Ġtrying": 2159,
      "good": 2160,
      "erk": 2161,
      "aces": 2162,
      "Ġtoch": 2163,
      "ov": 2164,
      "ists": 2165,
      "çĪ": 2166,
      "Ġpur": 2167,
      "Ġtown": 2168,
      "ĠSc": 2169,
      "ize": 2170,
      "bed": 2171,
      "just": 2172,
      "åĲİ": 2173,
      "Ġrep": 2174,
      "Ġeas": 2175,
      "omas": 2176,
      "haps": 2177,
      "Ġuh": 2178,
      "ient": 2179,
      "ĠDaddy": 2180,
      "jor": 2181,
      "Ġnet": 2182,
      "acter": 2183,
      "Ġpretty": 2184,
      "ury": 2185,
      "Ġecht": 2186,
      "aid": 2187,
      "Ġlost": 2188,
      "aam": 2189,
      "son": 2190,
      "Ġwouldn": 2191,
      "Ġwrong": 2192,
      "Ġhum": 2193,
      "key": 2194,
      "Ġsqu": 2195,
      "lish": 2196,
      "ator": 2197,
      "mp": 2198,
      "çĽ": 2199,
      "Ġinv": 2200,
      "Ġdoll": 2201,
      "ĠGerman": 2202,
      "uc": 2203,
      "Ġed": 2204,
      "Ġtree": 2205,
      "Ġ17": 2206,
      "eth": 2207,
      "Ġbrother": 2208,
      "Ġgotta": 2209,
      "Ġloc": 2210,
      "iven": 2211,
      "Ġduring": 2212,
      "Ġpat": 2213,
      "Ġoffic": 2214,
      "read": 2215,
      "è¿ĩ": 2216,
      "oel": 2217,
      "eng": 2218,
      "vers": 2219,
      "Ġzw": 2220,
      "II": 2221,
      "ä¸ĭ": 2222,
      "åº": 2223,
      "Ġprobably": 2224,
      "ĠPr": 2225,
      "ided": 2226,
      "aim": 2227,
      "å¤©": 2228,
      "Look": 2229,
      "Ġinc": 2230,
      "like": 2231,
      "Ġrecord": 2232,
      "Ġbegan": 2233,
      "Ġexc": 2234,
      "ues": 2235,
      "ouch": 2236,
      "Ġcompl": 2237,
      "åĦ¿": 2238,
      "Ġcontin": 2239,
      "Ġson": 2240,
      "Ġhele": 2241,
      "Ġwerk": 2242,
      "erv": 2243,
      "Ġhope": 2244,
      "Ġcir": 2245,
      "ĠSch": 2246,
      "Ġnooit": 2247,
      "icks": 2248,
      "Ġoften": 2249,
      "Ġaren": 2250,
      "ĠHow": 2251,
      "Ġrock": 2252,
      "Ġlik": 2253,
      "Ġpresent": 2254,
      "Ġspe": 2255,
      "Ġverd": 2256,
      "å¯¹": 2257,
      "Then": 2258,
      "fl": 2259,
      "Ġfight": 2260,
      "Ġie": 2261,
      "Ġwin": 2262,
      "Ġkon": 2263,
      "éģ": 2264,
      "Ġline": 2265,
      "ä»Ģ": 2266,
      "Did": 2267,
      "ude": 2268,
      "FCH": 2269,
      "Ã©Ã©n": 2270,
      "Ġturned": 2271,
      "ä»Ģä¹Ī": 2272,
      "Are": 2273,
      "Ġsun": 2274,
      "aybe": 2275,
      "ning": 2276,
      "ica": 2277,
      "ks": 2278,
      "itting": 2279,
      "Ġdead": 2280,
      "Ġsent": 2281,
      "ijden": 2282,
      "Ġ15": 2283,
      "å®¶": 2284,
      "anc": 2285,
      "eeft": 2286,
      "Ġfriends": 2287,
      "çĿĢ": 2288,
      "Ġzelf": 2289,
      "zz": 2290,
      "Ġseemed": 2291,
      "inner": 2292,
      "èĩ": 2293,
      "aag": 2294,
      "got": 2295,
      "Ġes": 2296,
      "alt": 2297,
      "ured": 2298,
      "Ġpaper": 2299,
      "ution": 2300,
      "äºĭ": 2301,
      "Ġmusic": 2302,
      "Ġverl": 2303,
      "rying": 2304,
      "æ¯": 2305,
      "vern": 2306,
      "because": 2307,
      "Ġblue": 2308,
      "Ġrele": 2309,
      "Ġblij": 2310,
      "ĠCl": 2311,
      "Ġvoice": 2312,
      "ĠÃ©Ã©n": 2313,
      "Ġyourself": 2314,
      "æĥ³": 2315,
      "zelf": 2316,
      "Ġless": 2317,
      "amed": 2318,
      "Ġparty": 2319,
      "Ġcouldn": 2320,
      "ä¸Ģä¸ª": 2321,
      "Ġinform": 2322,
      "Ġsat": 2323,
      "ized": 2324,
      "Ġimp": 2325,
      "net": 2326,
      "Ġmonth": 2327,
      "ium": 2328,
      "Ġaw": 2329,
      "Ġable": 2330,
      "Ġty": 2331,
      "åĩº": 2332,
      "çī": 2333,
      "éĢ": 2334,
      "ained": 2335,
      "Ġmeans": 2336,
      "tijd": 2337,
      "ĠOn": 2338,
      "Ġbrought": 2339,
      "Ġbird": 2340,
      "ides": 2341,
      "ï¿½ï¿½": 2342,
      "Ġplan": 2343,
      "Ġ196": 2344,
      "éĩĮ": 2345,
      "Ġstaat": 2346,
      "Ġoutside": 2347,
      "Ġpower": 2348,
      "Ġbas": 2349,
      "Sh": 2350,
      "Ġsir": 2351,
      "eem": 2352,
      "Ġmakes": 2353,
      "Ġbehind": 2354,
      "EN": 2355,
      "iter": 2356,
      "ones": 2357,
      "ĠHis": 2358,
      "Ġexper": 2359,
      "Ġrather": 2360,
      "Ġmine": 2361,
      "å½": 2362,
      "veel": 2363,
      "Ġimportant": 2364,
      "isch": 2365,
      "oort": 2366,
      "anger": 2367,
      "ism": 2368,
      "å¦": 2369,
      "Ġfront": 2370,
      "Ġorder": 2371,
      "org": 2372,
      "Ġcolor": 2373,
      "è¡": 2374,
      "gens": 2375,
      "Ġtem": 2376,
      "ouble": 2377,
      "ley": 2378,
      "kken": 2379,
      "stem": 2380,
      "reet": 2381,
      "å¤ļ": 2382,
      "rap": 2383,
      "ative": 2384,
      "Ġ16": 2385,
      "ards": 2386,
      "Ġshort": 2387,
      "ĠJan": 2388,
      "ĠEd": 2389,
      "Waarom": 2390,
      "unch": 2391,
      "Ġbron": 2392,
      "ev": 2393,
      "Ġelect": 2394,
      "Ġclose": 2395,
      "Ġpiece": 2396,
      "Ġlady": 2397,
      "æĦ": 2398,
      "Ġdeath": 2399,
      "oorden": 2400,
      "Ġfull": 2401,
      "ilt": 2402,
      "Ġ12": 2403,
      "Ġhappy": 2404,
      "Ġfine": 2405,
      "con": 2406,
      "ately": 2407,
      "Ġmovie": 2408,
      "Ġpartic": 2409,
      "Ġheel": 2410,
      "Ġwants": 2411,
      "Ġpicture": 2412,
      "Ġplant": 2413,
      "Ġeng": 2414,
      "Ġafbeelding": 2415,
      "Ġpull": 2416,
      "Ġalles": 2417,
      "Ġtele": 2418,
      "ĠHar": 2419,
      "Ġquick": 2420,
      "ba": 2421,
      "ains": 2422,
      "arch": 2423,
      "Ġpast": 2424,
      "åĳ¢": 2425,
      "irty": 2426,
      "ĠPh": 2427,
      "æĪĳä»¬": 2428,
      "ĠFrance": 2429,
      "Ġocc": 2430,
      "è¿Ļä¸ª": 2431,
      "æĭ": 2432,
      "for": 2433,
      "irth": 2434,
      "Ġtaken": 2435,
      "Ġwords": 2436,
      "ped": 2437,
      "Ġchair": 2438,
      "bit": 2439,
      "thank": 2440,
      "Ġgrote": 2441,
      "Ġgroup": 2442,
      "ES": 2443,
      "eken": 2444,
      "Wel": 2445,
      "ellow": 2446,
      "ĠFor": 2447,
      "Ġtwenty": 2448,
      "Ġmot": 2449,
      "Ġfore": 2450,
      "Ġlu": 2451,
      "Ġbeaut": 2452,
      "Ġaut": 2453,
      "more": 2454,
      "ubl": 2455,
      "Ġones": 2456,
      "erm": 2457,
      "Ġtrans": 2458,
      "As": 2459,
      "Ġdraw": 2460,
      "Ġfuck": 2461,
      "ĠZe": 2462,
      "ming": 2463,
      "arth": 2464,
      "Ġfur": 2465,
      "Ġgovern": 2466,
      "Ġprom": 2467,
      "Ġprot": 2468,
      "ner": 2469,
      "sl": 2470,
      "Mr": 2471,
      "bij": 2472,
      "uis": 2473,
      "inc": 2474,
      "Ġopp": 2475,
      "Ġlearn": 2476,
      "Ġjong": 2477,
      "ĠGe": 2478,
      "Ġminutes": 2479,
      "ĠEuro": 2480,
      "Ġâ": 2481,
      "Ġpri": 2482,
      "pped": 2483,
      "Ġfig": 2484,
      "ention": 2485,
      "Ġnodig": 2486,
      "Ġclass": 2487,
      "Ġcook": 2488,
      "Ġage": 2489,
      "orgen": 2490,
      "ragen": 2491,
      "ç§": 2492,
      "Ġmyself": 2493,
      "Ġhurt": 2494,
      "Ġchang": 2495,
      "ney": 2496,
      "Ġlarge": 2497,
      "ider": 2498,
      "ĠEen": 2499,
      "ott": 2500,
      "ald": 2501,
      "iversity": 2502,
      "Can": 2503,
      "Ġgreen": 2504,
      "Ġsever": 2505,
      "ĠEnglish": 2506,
      "Ġinclud": 2507,
      "Ġroad": 2508,
      "Ġzei": 2509,
      "ments": 2510,
      "Ġtussen": 2511,
      "Ġvill": 2512,
      "åĲĹ": 2513,
      "Ġstra": 2514,
      "Ġfelt": 2515,
      "åľ°": 2516,
      "arling": 2517,
      "ense": 2518,
      "ĠX": 2519,
      "Ġlaw": 2520,
      "çŁ": 2521,
      "ĠYork": 2522,
      "Ġvriend": 2523,
      "selves": 2524,
      "allen": 2525,
      "ĠDon": 2526,
      "Ġbag": 2527,
      "Ġtoen": 2528,
      "Ġtoys": 2529,
      "iel": 2530,
      "head": 2531,
      "Ġcold": 2532,
      "fess": 2533,
      "Ġhuh": 2534,
      "aus": 2535,
      "Ġdro": 2536,
      "ijken": 2537,
      "å°±æĺ¯": 2538,
      "cil": 2539,
      "Good": 2540,
      "Ġago": 2541,
      "ĠThomas": 2542,
      "fully": 2543,
      "uren": 2544,
      "An": 2545,
      "Ġshop": 2546,
      "alen": 2547,
      "iting": 2548,
      "Ġgiven": 2549,
      "ĠCar": 2550,
      "ç»Ļ": 2551,
      "Ġstuff": 2552,
      "Ġhappen": 2553,
      "Ġdag": 2554,
      "Ġmess": 2555,
      "ummer": 2556,
      "Ġeither": 2557,
      "Ġste": 2558,
      "ĠWill": 2559,
      "Ġhist": 2560,
      "Ġcontro": 2561,
      "Ġmaybe": 2562,
      "Ġmark": 2563,
      "Ġsister": 2564,
      "Ġworking": 2565,
      "Ġquestion": 2566,
      "Ġgebe": 2567,
      "rest": 2568,
      "Ġhit": 2569,
      "Ġpos": 2570,
      "Ġprov": 2571,
      "Ġguess": 2572,
      "iously": 2573,
      "ä¸Ń": 2574,
      "ĠKing": 2575,
      "llo": 2576,
      "born": 2577,
      "acher": 2578,
      "Ġgroot": 2579,
      "Ġpoor": 2580,
      "Ġchange": 2581,
      "åģ": 2582,
      "ĠCan": 2583,
      "uid": 2584,
      "Ġband": 2585,
      "Ġcup": 2586,
      "inging": 2587,
      "ĠCon": 2588,
      "Ġalle": 2589,
      "åĲ§": 2590,
      "Ġve": 2591,
      "ĠJap": 2592,
      "have": 2593,
      "urs": 2594,
      "igg": 2595,
      "cri": 2596,
      "Ġbirth": 2597,
      "Ġstrong": 2598,
      "Ġmouth": 2599,
      "Ġcor": 2600,
      "cher": 2601,
      "Ġlisten": 2602,
      "Ġseven": 2603,
      "OR": 2604,
      "urg": 2605,
      "Ġstate": 2606,
      "Ġspec": 2607,
      "egen": 2608,
      "ians": 2609,
      "æŀ": 2610,
      "Ġtaking": 2611,
      "Ġstick": 2612,
      "ĠJim": 2613,
      "ousand": 2614,
      "Ġonderzoek": 2615,
      "For": 2616,
      "Jij": 2617,
      "Ġvast": 2618,
      "Ġsweet": 2619,
      "Go": 2620,
      "mo": 2621,
      "ĠMay": 2622,
      "BRO": 2623,
      "Ġarea": 2624,
      "Ġdrie": 2625,
      "Ġdenk": 2626,
      "Ġlate": 2627,
      "eling": 2628,
      "ench": 2629,
      "Ġgets": 2630,
      "Ġbear": 2631,
      "geb": 2632,
      "Ġelkaar": 2633,
      "Ġachter": 2634,
      "Ġgun": 2635,
      "att": 2636,
      "Ġbody": 2637,
      "Ġzoals": 2638,
      "è°": 2639,
      "aart": 2640,
      ".'": 2641,
      "ĠSo": 2642,
      "Ġlead": 2643,
      "çĤ": 2644,
      "Ġvar": 2645,
      "Ġaltijd": 2646,
      "mas": 2647,
      "Ġinside": 2648,
      "Ġground": 2649,
      "Ġtoe": 2650,
      "rijk": 2651,
      "Ġfif": 2652,
      "ĠAd": 2653,
      "Ġgirls": 2654,
      "Ġvolg": 2655,
      "ges": 2656,
      "Ġpen": 2657,
      "çİ°": 2658,
      "Ġmill": 2659,
      "iful": 2660,
      "Ġheld": 2661,
      "owing": 2662,
      "Ġship": 2663,
      "osp": 2664,
      "nie": 2665,
      "Ġsold": 2666,
      "ham": 2667,
      "ford": 2668,
      "Ġsucc": 2669,
      "æ°": 2670,
      "Ġi": 2671,
      "kom": 2672,
      "åĢ": 2673,
      "Ġdress": 2674,
      "ĠIf": 2675,
      "Ġserv": 2676,
      "æ¬": 2677,
      "çĦ": 2678,
      "çĶŁ": 2679,
      "Ġonze": 2680,
      "Ġrepl": 2681,
      "ĠThat": 2682,
      "Ga": 2683,
      "Ġcamp": 2684,
      "20": 2685,
      "ĠWhen": 2686,
      "eph": 2687,
      "Ġpopul": 2688,
      "Ġwife": 2689,
      "gel": 2690,
      "Ġbusiness": 2691,
      "Ġothers": 2692,
      "å¥¹": 2693,
      "orld": 2694,
      "Ġearly": 2695,
      "eek": 2696,
      "ĠJack": 2697,
      "èĩª": 2698,
      "hey": 2699,
      "Ġbar": 2700,
      "idge": 2701,
      "Ġverk": 2702,
      "Ġgeno": 2703,
      "Ġcase": 2704,
      "éģĵ": 2705,
      "zy": 2706,
      "Ġcap": 2707,
      "Ġbinnen": 2708,
      "Ġthousand": 2709,
      "velop": 2710,
      "çĦ¶": 2711,
      "Ah": 2712,
      "Ġtom": 2713,
      "ĠPat": 2714,
      "ear": 2715,
      "ract": 2716,
      "ĠBritish": 2717,
      "gest": 2718,
      "Ġclot": 2719,
      "Ġleast": 2720,
      "ä¿": 2721,
      "Ġsometimes": 2722,
      "Ġlie": 2723,
      "Ġfree": 2724,
      "OU": 2725,
      "Ġwaren": 2726,
      "ĠPro": 2727,
      "æĶ": 2728,
      "Ġfunny": 2729,
      "ees": 2730,
      "ically": 2731,
      "Ġplaats": 2732,
      "Ġzeggen": 2733,
      "Ġsystem": 2734,
      "Ġzit": 2735,
      "è¾": 2736,
      "Ġdark": 2737,
      "Ġinde": 2738,
      "Ġbew": 2739,
      "Ġrece": 2740,
      "Ġdoe": 2741,
      "Ġfing": 2742,
      "Ġdi": 2743,
      "oos": 2744,
      "Ġaant": 2745,
      "inet": 2746,
      "reek": 2747,
      "olly": 2748,
      "Ġhuis": 2749,
      "artment": 2750,
      "Ġblood": 2751,
      "iving": 2752,
      "ĠEurope": 2753,
      "bum": 2754,
      "friend": 2755,
      "Ġdarling": 2756,
      "emaal": 2757,
      "ĠEr": 2758,
      "Ġlay": 2759,
      "oms": 2760,
      "æİ": 2761,
      "Ġ195": 2762,
      "è´": 2763,
      "lo": 2764,
      "uwe": 2765,
      "when": 2766,
      "ural": 2767,
      "Ġ194": 2768,
      "Daar": 2769,
      "To": 2770,
      "ĠEn": 2771,
      "uary": 2772,
      "Ġnine": 2773,
      "Ġkunt": 2774,
      "kÃ©": 2775,
      "Ġtill": 2776,
      "does": 2777,
      "zer": 2778,
      "Ġlaten": 2779,
      "Ġmilk": 2780,
      "AL": 2781,
      "Ġjo": 2782,
      "Ġkilled": 2783,
      "Ġmain": 2784,
      "Ġlaug": 2785,
      "aced": 2786,
      "ĠJapan": 2787,
      "bye": 2788,
      "Ġfav": 2789,
      "æł·": 2790,
      "Ġguy": 2791,
      "Ġzegt": 2792,
      "Ġcover": 2793,
      "Ġsomeone": 2794,
      "Ġletter": 2795,
      "gry": 2796,
      "Ġfish": 2797,
      "ullen": 2798,
      "Ġwish": 2799,
      "Ġwelke": 2800,
      "Ġkeer": 2801,
      "Get": 2802,
      "ional": 2803,
      "Ġ11": 2804,
      "vely": 2805,
      "Ġ2020": 2806,
      "Ġiemand": 2807,
      "rict": 2808,
      "Ġwood": 2809,
      "oops": 2810,
      "ocal": 2811,
      "oofd": 2812,
      "Ġacross": 2813,
      "Ġice": 2814,
      "ĠTo": 2815,
      "ING": 2816,
      "erde": 2817,
      "Ġsche": 2818,
      "Ġhat": 2819,
      "Ġsamen": 2820,
      "ĠIk": 2821,
      "Ġeffect": 2822,
      "At": 2823,
      "ara": 2824,
      "ached": 2825,
      "Ġamong": 2826,
      "Ġcreat": 2827,
      "ĠOl": 2828,
      "Ġ_": 2829,
      "band": 2830,
      "ĠThen": 2831,
      "Ġeerste": 2832,
      "Ġfair": 2833,
      "Ġspecial": 2834,
      "reed": 2835,
      "Ġniets": 2836,
      "gram": 2837,
      "åĴĮ": 2838,
      "Ġdeal": 2839,
      "teen": 2840,
      "Ġconc": 2841,
      "Ġfro": 2842,
      "Ġantw": 2843,
      "ijs": 2844,
      "ĠAls": 2845,
      "aard": 2846,
      "Ġresult": 2847,
      "eeds": 2848,
      "SO": 2849,
      "Ġhon": 2850,
      "lex": 2851,
      "Ġbuy": 2852,
      "Ġjuist": 2853,
      "chien": 2854,
      "Ġra": 2855,
      "Ġverschill": 2856,
      "ĠDr": 2857,
      "Ġwomen": 2858,
      "ijkt": 2859,
      "AD": 2860,
      "Ġpost": 2861,
      "Ġeigen": 2862,
      "Ġreport": 2863,
      "ager": 2864,
      "min": 2865,
      "Ġdood": 2866,
      "two": 2867,
      "'.": 2868,
      "Your": 2869,
      "ĠTHE": 2870,
      "elling": 2871,
      "Ġgeh": 2872,
      "Sorry": 2873,
      "Erm": 2874,
      "Here": 2875,
      "ĠOr": 2876,
      "Heb": 2877,
      "æ²¡æľī": 2878,
      "Ġarm": 2879,
      "ana": 2880,
      "Ġgrand": 2881,
      "avy": 2882,
      "igin": 2883,
      "Ġanimals": 2884,
      "Ġseveral": 2885,
      "makes": 2886,
      "Ġtruck": 2887,
      "Ġdus": 2888,
      "ument": 2889,
      "Ġalone": 2890,
      "Ġcommun": 2891,
      "ĠJu": 2892,
      "Ġerg": 2893,
      "çĤ¹": 2894,
      "ĠPl": 2895,
      "Ġcompany": 2896,
      "å¿ĥ": 2897,
      "Goed": 2898,
      "ĠTr": 2899,
      "Af": 2900,
      "ived": 2901,
      "Ġsea": 2902,
      "orge": 2903,
      "]?": 2904,
      "Ġain": 2905,
      "Ġbecome": 2906,
      "Ġ14": 2907,
      "ja": 2908,
      "éĻ": 2909,
      "ices": 2910,
      "ĠWorld": 2911,
      "Of": 2912,
      "ĠRe": 2913,
      "Ġwet": 2914,
      "Ġmidd": 2915,
      "inning": 2916,
      "ĠHer": 2917,
      "Ġbelang": 2918,
      "pril": 2919,
      "ility": 2920,
      "Ġins": 2921,
      "arden": 2922,
      "vision": 2923,
      "iten": 2924,
      "Ġperhaps": 2925,
      "Ġboat": 2926,
      "Ġtrue": 2927,
      "Ġtried": 2928,
      "è·Ł": 2929,
      "Ġalbum": 2930,
      "Ġphone": 2931,
      "ĠEl": 2932,
      "Ġwall": 2933,
      "aughter": 2934,
      "king": 2935,
      "Ġalright": 2936,
      "owed": 2937,
      "Ġstaan": 2938,
      "eared": 2939,
      "amb": 2940,
      "å¾Ī": 2941,
      "å±": 2942,
      "Ġsend": 2943,
      "fort": 2944,
      "ality": 2945,
      "umm": 2946,
      "Ġproblem": 2947,
      "å§": 2948,
      "æĤ": 2949,
      "Ġè¿Ļ": 2950,
      "rat": 2951,
      "Ġpot": 2952,
      "hel": 2953,
      "par": 2954,
      "then": 2955,
      "åĮ": 2956,
      "omin": 2957,
      "Ġwrite": 2958,
      "Ġfly": 2959,
      "Ġnorth": 2960,
      "ays": 2961,
      "iger": 2962,
      "aff": 2963,
      "Ġwij": 2964,
      "Ġwarm": 2965,
      "Ġpound": 2966,
      "Ġzie": 2967,
      "emy": 2968,
      "Ġexcl": 2969,
      "Ġsomebody": 2970,
      "com": 2971,
      "Ġbur": 2972,
      "Ġliving": 2973,
      "ĠSam": 2974,
      "eker": 2975,
      "alth": 2976,
      "Ġgewoon": 2977,
      "çŁ¥": 2978,
      "sc": 2979,
      "rit": 2980,
      "aptain": 2981,
      "Ġreason": 2982,
      "Ġfinished": 2983,
      "One": 2984,
      "owers": 2985,
      "Ġstru": 2986,
      "Ġbooks": 2987,
      "Ġclean": 2988,
      "ĠNor": 2989,
      "Ġfast": 2990,
      "Ġfamil": 2991,
      "Ġbev": 2992,
      "Ġguys": 2993,
      "Ġhorse": 2994,
      "Ġbeautiful": 2995,
      "oto": 2996,
      "Ġfootball": 2997,
      "ON": 2998,
      "Ġusually": 2999,
      "shall": 3000,
      "Zo": 3001,
      "Ġdevelop": 3002,
      "Ġroll": 3003,
      "Ġmount": 3004,
      "Ġcos": 3005,
      "Ġyellow": 3006,
      "ugust": 3007,
      "Ġmis": 3008,
      "Ġreleased": 3009,
      "Die": 3010,
      "ories": 3011,
      "Ġblock": 3012,
      "æĬĬ": 3013,
      "Laat": 3014,
      "ĠJanuary": 3015,
      "hi": 3016,
      "uhhuh": 3017,
      "çŃ": 3018,
      "val": 3019,
      "Ġya": 3020,
      "Ġlist": 3021,
      "Ġstar": 3022,
      "Ġsitting": 3023,
      "urch": 3024,
      "Ġthinking": 3025,
      "ended": 3026,
      "Ġconst": 3027,
      "Ġlived": 3028,
      "cer": 3029,
      "ram": 3030,
      "Ġvillage": 3031,
      "Re": 3032,
      "Ġap": 3033,
      "Ġvraag": 3034,
      "Wh": 3035,
      "åī": 3036,
      "Ġmid": 3037,
      "Ġclim": 3038,
      "Ġgovernment": 3039,
      "Ġdoctor": 3040,
      "ral": 3041,
      "Ġbra": 3042,
      "Ġgod": 3043,
      "ĠHij": 3044,
      "Ġsaf": 3045,
      "Ġattack": 3046,
      "Ġsteeds": 3047,
      "ĠChristmas": 3048,
      "10": 3049,
      "Ġhang": 3050,
      "oth": 3051,
      "stof": 3052,
      "Ġzij": 3053,
      "chen": 3054,
      "ĠDo": 3055,
      "Mijn": 3056,
      "Ġir": 3057,
      "ĠFrench": 3058,
      "Ã¯": 3059,
      "Ġvinden": 3060,
      "Ġegg": 3061,
      "Ġjump": 3062,
      "ping": 3063,
      "Ġverh": 3064,
      "Ġallemaal": 3065,
      "ĠWar": 3066,
      "Ġdra": 3067,
      "ĠCount": 3068,
      "ĠPhil": 3069,
      "Ġweten": 3070,
      "Ġgedaan": 3071,
      "hern": 3072,
      "Ġadv": 3073,
      "obert": 3074,
      "âĮ": 3075,
      "ances": 3076,
      "ada": 3077,
      "Ġtrouble": 3078,
      "å¹´": 3079,
      "Ġton": 3080,
      "Ġfix": 3081,
      "RI": 3082,
      "ĠWh": 3083,
      "Ġill": 3084,
      "Ġtouch": 3085,
      "Ġstad": 3086,
      "irt": 3087,
      "ued": 3088,
      "ĠMa": 3089,
      "Ġoper": 3090,
      "èµ·": 3091,
      "ĠMarch": 3092,
      "Ġfilm": 3093,
      "ample": 3094,
      "Ġanswered": 3095,
      "ĠMan": 3096,
      "Ġoor": 3097,
      "itch": 3098,
      "Ġ13": 3099,
      "Ġstep": 3100,
      "Ġabs": 3101,
      "Ġrad": 3102,
      "ene": 3103,
      "Ġdinner": 3104,
      "Ġmeest": 3105,
      "aged": 3106,
      "ĠNorth": 3107,
      "eptember": 3108,
      "gy": 3109,
      "Ġbang": 3110,
      "Ġhowever": 3111,
      "ler": 3112,
      "ustral": 3113,
      "Ġdiffic": 3114,
      "Ġseries": 3115,
      "Ġlangu": 3116,
      "æĮ": 3117,
      "etje": 3118,
      "åĽŀ": 3119,
      "ondon": 3120,
      "Ġvoed": 3121,
      "Miss": 3122,
      "co": 3123,
      "Ġdet": 3124,
      "Ġmoo": 3125,
      "Ġhur": 3126,
      "Ġnieuwe": 3127,
      "aimed": 3128,
      "æ³": 3129,
      "Ġcried": 3130,
      "ctober": 3131,
      "Ġsuppose": 3132,
      "ĠGrand": 3133,
      "Ġbirthday": 3134,
      "Ġmer": 3135,
      "unk": 3136,
      "Ġwereld": 3137,
      "though": 3138,
      "ĠOh": 3139,
      "Ġmommy": 3140,
      "Ġsingle": 3141,
      "Because": 3142,
      "éķ": 3143,
      "Ġtest": 3144,
      "Ġvragen": 3145,
      "cember": 3146,
      "Ġsuper": 3147,
      "æĢİ": 3148,
      "Ġtakes": 3149,
      "Ġnational": 3150,
      "ĠSouth": 3151,
      "Ġran": 3152,
      "Ġdou": 3153,
      "Ġied": 3154,
      "Ġlad": 3155,
      "ĠLe": 3156,
      "åĽ½": 3157,
      "Ġrunning": 3158,
      "éĿ¢": 3159,
      "PAT": 3160,
      "bt": 3161,
      "Ġnorm": 3162,
      "Ġpain": 3163,
      "Ġlig": 3164,
      "Ġcheck": 3165,
      "Ġsoft": 3166,
      "Ġpage": 3167,
      "que": 3168,
      "Ġglad": 3169,
      "Ġdiv": 3170,
      "water": 3171,
      "aser": 3172,
      "umb": 3173,
      "raid": 3174,
      "ardon": 3175,
      ",'": 3176,
      "çĲ": 3177,
      "Ġtomorrow": 3178,
      "Ġequ": 3179,
      "Ġaantal": 3180,
      "Ġwillen": 3181,
      "Ġkinderen": 3182,
      "Ġbi": 3183,
      "ĠAng": 3184,
      "ä¸įæĺ¯": 3185,
      "rijf": 3186,
      "Ġ0": 3187,
      "Ġhy": 3188,
      "çº": 3189,
      "Ġanders": 3190,
      "Ġproper": 3191,
      "ĠSw": 3192,
      "ĠApril": 3193,
      "ales": 3194,
      "Ġnoises": 3195,
      "Ġlovely": 3196,
      "Ġsol": 3197,
      "Ġwithin": 3198,
      "ijt": 3199,
      "ĠPar": 3200,
      "ereen": 3201,
      "sy": 3202,
      "ining": 3203,
      "Ġvader": 3204,
      "Ġteacher": 3205,
      "Ġquiet": 3206,
      "èĢģ": 3207,
      "Ġnamed": 3208,
      "Ġkept": 3209,
      "Ġprogram": 3210,
      "Ġclub": 3211,
      "Ġpublic": 3212,
      "Dan": 3213,
      "alright": 3214,
      "ikk": 3215,
      "Ġsitu": 3216,
      "Ex": 3217,
      "Ġdoet": 3218,
      "ĠAustral": 3219,
      "11": 3220,
      "Ġfield": 3221,
      "ĠCom": 3222,
      "die": 3223,
      "lease": 3224,
      "ĠDit": 3225,
      "æĢİä¹Ī": 3226,
      "Fr": 3227,
      "ĠAb": 3228,
      "Ġherself": 3229,
      "Ġcomplet": 3230,
      "dden": 3231,
      "ĠEngland": 3232,
      "asure": 3233,
      "Ġgeld": 3234,
      "Ġvolgende": 3235,
      "baar": 3236,
      "Ġknows": 3237,
      "Ġ30": 3238,
      "Ġcross": 3239,
      "ĠBij": 3240,
      "ection": 3241,
      "gelijk": 3242,
      "stead": 3243,
      "Ġfit": 3244,
      "Ġla": 3245,
      "ĠOp": 3246,
      "Ġsnel": 3247,
      "dracht": 3248,
      "Ġpress": 3249,
      "ĠSeptember": 3250,
      "Ġ193": 3251,
      "ello": 3252,
      "Ġsurpr": 3253,
      "Ġsuccess": 3254,
      "ature": 3255,
      "Ġrain": 3256,
      "erence": 3257,
      "SOA": 3258,
      "Ġcou": 3259,
      "Ġtoy": 3260,
      "Ġobject": 3261,
      "Ġninet": 3262,
      "bles": 3263,
      "Ġwindow": 3264,
      "Some": 3265,
      "Ġomdat": 3266,
      "Ġverand": 3267,
      "ĠUniversity": 3268,
      "uthor": 3269,
      "Ġsudden": 3270,
      "ĠLondon": 3271,
      "Ġwhether": 3272,
      "Ġverw": 3273,
      "ĠJune": 3274,
      "Ġafraid": 3275,
      "Ġhart": 3276,
      "iment": 3277,
      "Ġmoved": 3278,
      "Ġorigin": 3279,
      "Ġuw": 3280,
      "Ġontst": 3281,
      "å¼Ģ": 3282,
      "Tw": 3283,
      "mon": 3284,
      "é¢": 3285,
      "Ġbep": 3286,
      "gue": 3287,
      "ruary": 3288,
      "Ġfeeling": 3289,
      "Ġdru": 3290,
      "ebruary": 3291,
      "Ġring": 3292,
      "Ġmemb": 3293,
      "Ġeating": 3294,
      "Ġsupport": 3295,
      "gas": 3296,
      "singing": 3297,
      "ĠAm": 3298,
      "Ġverm": 3299,
      "Ġging": 3300,
      "Ġabove": 3301,
      "gro": 3302,
      "ox": 3303,
      "Ġcal": 3304,
      "Ġshot": 3305,
      "Ġworked": 3306,
      "Ġmonths": 3307,
      "ĠJuly": 3308,
      "chten": 3309,
      "Ġcommon": 3310,
      "ĠOctober": 3311,
      "Ġkrijgen": 3312,
      "Bl": 3313,
      "åĳĢ": 3314,
      "Ġmember": 3315,
      "Ġyours": 3316,
      "Ġwaarom": 3317,
      "Ġtape": 3318,
      "Ġsight": 3319,
      "Ġcorn": 3320,
      "oose": 3321,
      "Ġvlie": 3322,
      "iers": 3323,
      "Ġcannot": 3324,
      "ĠOne": 3325,
      "Ġthemselves": 3326,
      "Ġclear": 3327,
      "Ġsounds": 3328,
      "anden": 3329,
      "Ġdeep": 3330,
      "Ġzitten": 3331,
      "angen": 3332,
      "ising": 3333,
      "åĪ«": 3334,
      "Ġhuman": 3335,
      "Ġnose": 3336,
      "nam": 3337,
      "Ġstood": 3338,
      "ute": 3339,
      "Ġ25": 3340,
      "Ġclothes": 3341,
      "ending": 3342,
      "ĠLord": 3343,
      "Ġeasy": 3344,
      "ius": 3345,
      "Ġho": 3346,
      "Ġlives": 3347,
      "ĠFl": 3348,
      "Op": 3349,
      "oten": 3350,
      "ä¹ĭ": 3351,
      "ggest": 3352,
      "æĥħ": 3353,
      "say": 3354,
      "Ġspir": 3355,
      "Ġanyway": 3356,
      "Ġbath": 3357,
      "Ġstation": 3358,
      "Ġputting": 3359,
      "Ġpossible": 3360,
      "which": 3361,
      "ĠBar": 3362,
      "Ġpolice": 3363,
      "AP": 3364,
      "ases": 3365,
      "Ġmoeder": 3366,
      "Have": 3367,
      "Or": 3368,
      "TER": 3369,
      "Ġthird": 3370,
      "Ġclos": 3371,
      "hold": 3372,
      "Niet": 3373,
      "attle": 3374,
      "Ġeind": 3375,
      "Ġexample": 3376,
      "Ġappro": 3377,
      "Ġmajor": 3378,
      "ijdens": 3379,
      "Ġantwoord": 3380,
      "Ġgarden": 3381,
      "ology": 3382,
      "Ġmembers": 3383,
      "ding": 3384,
      "het": 3385,
      "hello": 3386,
      "ĠAugust": 3387,
      "ĠItal": 3388,
      "éķ¿": 3389,
      "ooh": 3390,
      "Ġsick": 3391,
      "Ġcop": 3392,
      "Ġsuggest": 3393,
      "Ġled": 3394,
      "Ġvide": 3395,
      "Ġvrij": 3396,
      "ouncil": 3397,
      "Ġverschillende": 3398,
      "è½": 3399,
      "Ġgrow": 3400,
      "Ġest": 3401,
      "Ġeld": 3402,
      "iew": 3403,
      "Ġcatch": 3404,
      "ĠOliver": 3405,
      "ĠPres": 3406,
      "Ġwilde": 3407,
      "Ġval": 3408,
      "stairs": 3409,
      "maal": 3410,
      "ino": 3411,
      "çľŁ": 3412,
      "Ġseems": 3413,
      "chn": 3414,
      "Ġchance": 3415,
      "Ġprofess": 3416,
      "Stop": 3417,
      "Ġmarried": 3418,
      "UR": 3419,
      "Ã¨": 3420,
      "Ġtired": 3421,
      "Ġtelevision": 3422,
      "ĠNove": 3423,
      "iteit": 3424,
      "æĪĲ": 3425,
      "play": 3426,
      "ĠDecember": 3427,
      "zet": 3428,
      "Ġsand": 3429,
      "Ġkiss": 3430,
      "ified": 3431,
      "ĠYes": 3432,
      "ashing": 3433,
      "Ġzet": 3434,
      "Ġdiscover": 3435,
      "UN": 3436,
      "Ġhus": 3437,
      "ĠNovember": 3438,
      "Ġaard": 3439,
      "Ġhoofd": 3440,
      "Ġlow": 3441,
      "Ġdeel": 3442,
      "Ġuur": 3443,
      "ĠCol": 3444,
      "Weet": 3445,
      "Ġwie": 3446,
      "Ġdu": 3447,
      "Ġmm": 3448,
      "è¯Ŀ": 3449,
      "cul": 3450,
      "Ġhop": 3451,
      "ĠFebruary": 3452,
      "offen": 3453,
      "ĠCounty": 3454,
      "Ġpract": 3455,
      "Ġdad": 3456,
      "ĠMc": 3457,
      "çĻ": 3458,
      "Ġav": 3459,
      "Ġmist": 3460,
      "ensch": 3461,
      "å®ļ": 3462,
      "Ġcommand": 3463,
      "Ġpassed": 3464,
      "Ġluck": 3465,
      "Ġmillion": 3466,
      "18": 3467,
      "entle": 3468,
      "ĠCal": 3469,
      "ĠWat": 3470,
      "actly": 3471,
      "anne": 3472,
      "ĠPe": 3473,
      "Ġbeter": 3474,
      "ieden": 3475,
      "Ġcow": 3476,
      "ĠRep": 3477,
      "Ġoffice": 3478,
      "ris": 3479,
      "Ġeten": 3480,
      "rek": 3481,
      "ask": 3482,
      "ĠAfter": 3483,
      "Every": 3484,
      "fast": 3485,
      "hal": 3486,
      "ior": 3487,
      "Ġgest": 3488,
      "gegeven": 3489,
      "Ġvier": 3490,
      "åģļ": 3491,
      "Ġmaakt": 3492,
      "Ġant": 3493,
      "Ġkit": 3494,
      "å®ŀ": 3495,
      "Wie": 3496,
      "åıª": 3497,
      "Ġlots": 3498,
      "Ġregion": 3499,
      "Ġhours": 3500,
      "Ġoud": 3501,
      "ills": 3502,
      "ips": 3503,
      "Ġmach": 3504,
      "Ġknock": 3505,
      "ĠPort": 3506,
      "ĠPaul": 3507,
      "Please": 3508,
      "Ġnou": 3509,
      "Ġformer": 3510,
      "Ġlonger": 3511,
      "Ġnaam": 3512,
      "OkÃ©": 3513,
      "ouden": 3514,
      "Ġearth": 3515,
      "ging": 3516,
      "elde": 3517,
      "Ġbek": 3518,
      "Ġstri": 3519,
      "ĠSte": 3520,
      "Ġdepartment": 3521,
      "joy": 3522,
      "åĸ": 3523,
      "Ġtreat": 3524,
      "Ġcry": 3525,
      "Ġsheep": 3526,
      "Ġsnow": 3527,
      "çĶ¨": 3528,
      "åįģ": 3529,
      "Ġmass": 3530,
      "your": 3531,
      "auw": 3532,
      "vl": 3533,
      "ĠMin": 3534,
      "è¡Į": 3535,
      "iety": 3536,
      "èµ°": 3537,
      "Ben": 3538,
      "ted": 3539,
      "Ġhol": 3540,
      "ĠCharl": 3541,
      "Ġshoes": 3542,
      "Ġtek": 3543,
      "Ġhistory": 3544,
      "ĠCHI": 3545,
      "ĠéĤ£": 3546,
      "åıĳ": 3547,
      "ospital": 3548,
      "Any": 3549,
      "dom": 3550,
      "éĺ": 3551,
      "Ġfarm": 3552,
      "Ġshout": 3553,
      "komen": 3554,
      "work": 3555,
      "reg": 3556,
      "Ġwear": 3557,
      "Ġtrees": 3558,
      "Ġbreat": 3559,
      "ĠPeter": 3560,
      "Ġlaughs": 3561,
      "ico": 3562,
      "Ġspr": 3563,
      "duct": 3564,
      "Ġforget": 3565,
      "Ġperform": 3566,
      "Ġeverybody": 3567,
      "empt": 3568,
      "iny": 3569,
      "Ġbroke": 3570,
      "è§ī": 3571,
      "ishing": 3572,
      "Ġcomput": 3573,
      "æĤ¨": 3574,
      "Ġauthor": 3575,
      "Ġcre": 3576,
      "å·±": 3577,
      "Ġjuice": 3578,
      "Mhm": 3579,
      "iant": 3580,
      "Ġvorm": 3581,
      "Ġbuiten": 3582,
      "Ġbank": 3583,
      "akken": 3584,
      "Ġsuff": 3585,
      "See": 3586,
      "enen": 3587,
      "Ġmat": 3588,
      "Ġeye": 3589,
      "icken": 3590,
      "fer": 3591,
      "Ġforward": 3592,
      "Ġperfect": 3593,
      "ä»ĸä»¬": 3594,
      "Ġhusband": 3595,
      "Voor": 3596,
      "æīĢ": 3597,
      "Ġstraight": 3598,
      "Ġbab": 3599,
      "æ´": 3600,
      "rab": 3601,
      "Ġshut": 3602,
      "Ġcost": 3603,
      "ç»ı": 3604,
      "æĦı": 3605,
      "eil": 3606,
      "sings": 3607,
      "Ġing": 3608,
      "Kijk": 3609,
      "MA": 3610,
      "Ġtemper": 3611,
      "conom": 3612,
      "iol": 3613,
      "arr": 3614,
      "andy": 3615,
      "raak": 3616,
      "Ġarms": 3617,
      "Ġexclaimed": 3618,
      "uld": 3619,
      "eral": 3620,
      "Ġhell": 3621,
      "æĸ¹": 3622,
      "Âł": 3623,
      "Ġdaughter": 3624,
      "Ġgeven": 3625,
      "ĠDav": 3626,
      "Ġcaught": 3627,
      "Ġadm": 3628,
      "Ġwaiting": 3629,
      "èĩªå·±": 3630,
      "Ġgeneral": 3631,
      "ĠMart": 3632,
      "cing": 3633,
      "rent": 3634,
      "Ġtel": 3635,
      "ĠMag": 3636,
      "Ġseem": 3637,
      "Ġthrow": 3638,
      "NA": 3639,
      "ror": 3640,
      "Ġview": 3641,
      "Ġke": 3642,
      "åĢĻ": 3643,
      "mat": 3644,
      "Ġdam": 3645,
      "Ġdacht": 3646,
      "Ġkids": 3647,
      "ieft": 3648,
      "ĠComm": 3649,
      "ancy": 3650,
      "ĠDat": 3651,
      "Ġnatuur": 3652,
      "Ġcouple": 3653,
      "ç®": 3654,
      "Ġstat": 3655,
      "Ġreached": 3656,
      "Ġnearly": 3657,
      "Ġpaar": 3658,
      "Ġsecret": 3659,
      "Ġcertainly": 3660,
      "even": 3661,
      "vocal": 3662,
      "Ġsouth": 3663,
      "Ġster": 3664,
      "resent": 3665,
      "ivil": 3666,
      "æľĢ": 3667,
      "ustration": 3668,
      "ĠRobert": 3669,
      "some": 3670,
      "ĠMe": 3671,
      "emd": 3672,
      "ĠVan": 3673,
      "Ġlocal": 3674,
      "Ġfavor": 3675,
      "cellen": 3676,
      "Ġann": 3677,
      "Ġactiv": 3678,
      "Ġgoede": 3679,
      "Ġdream": 3680,
      "Ġbroken": 3681,
      "çİ°åľ¨": 3682,
      "Ġ#": 3683,
      "esus": 3684,
      "äºĮ": 3685,
      "str": 3686,
      "Ġking": 3687,
      "Ġprop": 3688,
      "icro": 3689,
      "ä½Ĩ": 3690,
      "Ġslecht": 3691,
      "was": 3692,
      "rel": 3693,
      "night": 3694,
      "Ġmod": 3695,
      "Ġdistrict": 3696,
      "Ġengine": 3697,
      "ĠMy": 3698,
      "Ġgold": 3699,
      "ĠHier": 3700,
      "Ġshoot": 3701,
      "Ġweeks": 3702,
      "çŁ¥éģĵ": 3703,
      "éĽ": 3704,
      "Ġwhatever": 3705,
      "atuur": 3706,
      "terday": 3707,
      "aald": 3708,
      "Ġwilt": 3709,
      "ĠDeze": 3710,
      "Ġcompet": 3711,
      "Ġdecided": 3712,
      "Ġble": 3713,
      "ision": 3714,
      "Ġesc": 3715,
      "aven": 3716,
      "ĠYeah": 3717,
      "ored": 3718,
      "Ġpark": 3719,
      "ades": 3720,
      "ĠSome": 3721,
      "ĠPol": 3722,
      "lands": 3723,
      "isk": 3724,
      "Ġpupp": 3725,
      "Ġcharacter": 3726,
      "Ġgemaakt": 3727,
      "Ġreturned": 3728,
      "Ġzeker": 3729,
      "egd": 3730,
      "Ġevening": 3731,
      "with": 3732,
      "iday": 3733,
      "Ġproduct": 3734,
      "Ġzullen": 3735,
      "ĠGu": 3736,
      "æĹ¶åĢĻ": 3737,
      "Ġmur": 3738,
      "Ġjouw": 3739,
      "Ġworry": 3740,
      "Ġbell": 3741,
      "used": 3742,
      "zelfde": 3743,
      "wel": 3744,
      "Ġhig": 3745,
      "ille": 3746,
      "Ġfollowing": 3747,
      "Ġkitchen": 3748,
      "Ill": 3749,
      "Ġgentle": 3750,
      "Ġrequ": 3751,
      "ĠBen": 3752,
      "ala": 3753,
      "ĠStan": 3754,
      "ĠPer": 3755,
      "ĠWel": 3756,
      "Ġanyone": 3757,
      "Ġslow": 3758,
      "Ġsupposed": 3759,
      "Ġtonight": 3760,
      "12": 3761,
      "Maybe": 3762,
      "Ġpig": 3763,
      "ieved": 3764,
      "cially": 3765,
      "Ġvisit": 3766,
      "Ġfrog": 3767,
      "Ġdest": 3768,
      "Ġheavy": 3769,
      "aden": 3770,
      "Ġusing": 3771,
      "Ġneeds": 3772,
      "ĠIndian": 3773,
      "Ġbuilding": 3774,
      "Ġchanged": 3775,
      "za": 3776,
      "Ġ*": 3777,
      "Ġparents": 3778,
      "Ġsad": 3779,
      "Ġcake": 3780,
      "æīĵ": 3781,
      "ran": 3782,
      "Ġopened": 3783,
      "ĠGeorge": 3784,
      "Dus": 3785,
      "Ġtoward": 3786,
      "Ġinvol": 3787,
      "ĠDan": 3788,
      "ĠWest": 3789,
      "Ġplaces": 3790,
      "Ġworks": 3791,
      "Ġwritten": 3792,
      "Ġgroep": 3793,
      "ĠâĢ": 3794,
      "eh": 3795,
      "Ġwee": 3796,
      "Ġkwam": 3797,
      "Ġincluding": 3798,
      "Daddy": 3799,
      "centr": 3800,
      "MAR": 3801,
      "äºĽ": 3802,
      "iod": 3803,
      "Ġbought": 3804,
      "Ġgeeft": 3805,
      "ĠMommy": 3806,
      "Ġlich": 3807,
      "Ġlaatste": 3808,
      "IG": 3809,
      "ĠHelen": 3810,
      "Ġenerg": 3811,
      "point": 3812,
      "would": 3813,
      "ijl": 3814,
      "Ġziet": 3815,
      "iled": 3816,
      "Ġboven": 3817,
      "Ġwerden": 3818,
      "Ġhungry": 3819,
      "gu": 3820,
      "ç¬": 3821,
      "Ġdescri": 3822,
      "Ġextra": 3823,
      "With": 3824,
      "pes": 3825,
      "Ġmiddle": 3826,
      "è¢": 3827,
      "ĠAmerica": 3828,
      "Ġdanger": 3829,
      "Ġrust": 3830,
      "ĠAmerik": 3831,
      "Ġfollowed": 3832,
      "Ġ100": 3833,
      "Ġstanding": 3834,
      "Ġdifficult": 3835,
      "Ġfigure": 3836,
      "15": 3837,
      "Ġfill": 3838,
      "ĠSu": 3839,
      "anten": 3840,
      "Ġarri": 3841,
      "volution": 3842,
      "ends": 3843,
      "izen": 3844,
      "usp": 3845,
      "Ġboard": 3846,
      "ugh": 3847,
      "Ġcentury": 3848,
      "Ġcirc": 3849,
      "IT": 3850,
      "Ġthirty": 3851,
      "bers": 3852,
      "æµ": 3853,
      "ĠPart": 3854,
      "ender": 3855,
      "Ġvideo": 3856,
      "la": 3857,
      "idence": 3858,
      "Ġbuilt": 3859,
      "Ġbesch": 3860,
      "isper": 3861,
      "Ġinstead": 3862,
      "Ġplayer": 3863,
      "Ġblijven": 3864,
      "Ar": 3865,
      "Ġsense": 3866,
      "acy": 3867,
      "ĠGen": 3868,
      "ulp": 3869,
      "Ġafterno": 3870,
      "Ġbott": 3871,
      "Ġexpect": 3872,
      "Ġpieces": 3873,
      "ĠHarry": 3874,
      "åīį": 3875,
      "icip": 3876,
      "erl": 3877,
      "ĠAunt": 3878,
      "ĠDaar": 3879,
      "Ġseat": 3880,
      "Ġcond": 3881,
      "ogn": 3882,
      "Ġtrack": 3883,
      "Ġmedic": 3884,
      "Illustration": 3885,
      "sit": 3886,
      "itions": 3887,
      "roeg": 3888,
      "æĺİ": 3889,
      "ording": 3890,
      "æ±": 3891,
      "Ġvak": 3892,
      "åŃ¦": 3893,
      "Ġquickly": 3894,
      "Ġtowards": 3895,
      "Ġverder": 3896,
      "Ġdisapp": 3897,
      "pers": 3898,
      "zie": 3899,
      "Ġber": 3900,
      "Ġforgot": 3901,
      "Ġduck": 3902,
      "Ġzonder": 3903,
      "Ġsilence": 3904,
      "field": 3905,
      "por": 3906,
      "Ġmeant": 3907,
      "Ġgezien": 3908,
      "Ġdoubt": 3909,
      "log": 3910,
      "ä¸ī": 3911,
      "ĠNational": 3912,
      "Ġglass": 3913,
      "Ġtekst": 3914,
      "Ã¡": 3915,
      "Ġmix": 3916,
      "Ġhoor": 3917,
      "Ġseason": 3918,
      "åħ¬": 3919,
      "Ġcontrol": 3920,
      "Ġlanguage": 3921,
      "burg": 3922,
      "Ġobs": 3923,
      "After": 3924,
      "Ġreplied": 3925,
      "Ġdrive": 3926,
      "gar": 3927,
      "Ġevent": 3928,
      "Ġcareer": 3929,
      "bing": 3930,
      "maybe": 3931,
      "Ġbelangrijk": 3932,
      "Hier": 3933,
      "Ġcool": 3934,
      "Ġcaus": 3935,
      "roy": 3936,
      "Ġreden": 3937,
      "agon": 3938,
      "view": 3939,
      "Ġgebruikt": 3940,
      "Ġpopulation": 3941,
      "AS": 3942,
      "cuse": 3943,
      "laugh": 3944,
      "ipe": 3945,
      "Ġnews": 3946,
      "Ġmaak": 3947,
      "åĽł": 3948,
      "Ġeerst": 3949,
      "Cl": 3950,
      "Will": 3951,
      "Ġinformation": 3952,
      "Ġriver": 3953,
      "Ġexcept": 3954,
      "hys": 3955,
      "clock": 3956,
      "board": 3957,
      "Ġfucking": 3958,
      "waar": 3959,
      "Ġdaddy": 3960,
      "Ġfail": 3961,
      "Ġshit": 3962,
      "abel": 3963,
      "Ġhasn": 3964,
      "Ġwaardoor": 3965,
      "Ġtype": 3966,
      "Ġlichaam": 3967,
      "sn": 3968,
      "will": 3969,
      "Ġkid": 3970,
      "rik": 3971,
      "ground": 3972,
      "Ġbreakfast": 3973,
      "turn": 3974,
      "Ġgiving": 3975,
      "ĠCity": 3976,
      "å½ĵ": 3977,
      "Ġposition": 3978,
      "bre": 3979,
      "oit": 3980,
      "rem": 3981,
      "Ġstreet": 3982,
      "Ġriv": 3983,
      "ribut": 3984,
      "Ġeduc": 3985,
      "Ġafternoon": 3986,
      "give": 3987,
      "Ġgas": 3988,
      "icle": 3989,
      "Ġenjoy": 3990,
      "Ġcareful": 3991,
      "Hello": 3992,
      "achten": 3993,
      "ya": 3994,
      "Ġfoto": 3995,
      "Ġallowed": 3996,
      "assen": 3997,
      "aad": 3998,
      "Ġhospital": 3999,
      "Ġcult": 4000,
      "Ġstuck": 4001,
      "ization": 4002,
      "woord": 4003,
      "Ġtail": 4004,
      "ĠRuss": 4005,
      "Ġcarry": 4006,
      "Ġlucht": 4007,
      "Ġgenoeg": 4008,
      "iw": 4009,
      "Ġahead": 4010,
      "Ġreach": 4011,
      "inds": 4012,
      "overn": 4013,
      "è®©": 4014,
      "Ġfurther": 4015,
      "Ġbased": 4016,
      "ushed": 4017,
      "Ġgewe": 4018,
      "ounter": 4019,
      "Ġsoort": 4020,
      "isc": 4021,
      "Ġkijken": 4022,
      "ĠMary": 4023,
      "rible": 4024,
      "Ġtast": 4025,
      "Ġcast": 4026,
      "Ġneem": 4027,
      "Ġvand": 4028,
      "Ġleuk": 4029,
      "Ġquestions": 4030,
      "Ġservice": 4031,
      "Ġwed": 4032,
      "ĠDad": 4033,
      "Ġexactly": 4034,
      "Ġbelong": 4035,
      "Nu": 4036,
      "icy": 4037,
      "Ġ24": 4038,
      "Ġappear": 4039,
      "Ġstopped": 4040,
      "Ġcra": 4041,
      "Ġletters": 4042,
      "Ġaccept": 4043,
      "Ġgesch": 4044,
      "pper": 4045,
      "Mum": 4046,
      "Ġhors": 4047,
      "Ġtelling": 4048,
      "hand": 4049,
      "Ġanybody": 4050,
      "Ġbedoel": 4051,
      "è§ģ": 4052,
      "line": 4053,
      "ĠWith": 4054,
      "Ġworth": 4055,
      "Ġspace": 4056,
      "Ġreceived": 4057,
      "Ġhoney": 4058,
      "ĠCent": 4059,
      "ume": 4060,
      "ĠRoy": 4061,
      "Ġhole": 4062,
      "ĠMet": 4063,
      "Ġsport": 4064,
      "Ġwriting": 4065,
      "Ġinfl": 4066,
      "elve": 4067,
      "ĠRiver": 4068,
      "Ġcomb": 4069,
      "Ġought": 4070,
      "Ġverb": 4071,
      "ĠPresident": 4072,
      "14": 4073,
      "gaan": 4074,
      "iest": 4075,
      "Ġlos": 4076,
      "iks": 4077,
      "ĠLaur": 4078,
      "ĠFred": 4079,
      "åĬ¨": 4080,
      "Ġtour": 4081,
      "Ġport": 4082,
      "Ġspl": 4083,
      "Ġpuzz": 4084,
      "Ġpun": 4085,
      "ils": 4086,
      "ĠBel": 4087,
      "ä¸¤": 4088,
      "ĠVoor": 4089,
      "Ġbegin": 4090,
      "Ġyesterday": 4091,
      "bout": 4092,
      "Ġlink": 4093,
      "Ġmoest": 4094,
      "Ġhouden": 4095,
      "ighb": 4096,
      "Ġbez": 4097,
      "Wil": 4098,
      "ael": 4099,
      "gie": 4100,
      "Ġou": 4101,
      "Ġsusp": 4102,
      "Ġhen": 4103,
      "Ġquar": 4104,
      "æŀľ": 4105,
      "Ġmad": 4106,
      "estig": 4107,
      "Ġimag": 4108,
      "ĠGermany": 4109,
      "Ġhelemaal": 4110,
      "Ġindeed": 4111,
      "ege": 4112,
      "ively": 4113,
      "Ġsubject": 4114,
      "olf": 4115,
      "Ġhoeveel": 4116,
      "Ġ)": 4117,
      "eds": 4118,
      "äºİ": 4119,
      "Ġsomewhere": 4120,
      "Ġrelig": 4121,
      "Ġfinger": 4122,
      "ankt": 4123,
      "Ġminder": 4124,
      "Ġwatching": 4125,
      "OL": 4126,
      "ä¾": 4127,
      "leg": 4128,
      "Ġja": 4129,
      "Ġconvers": 4130,
      "Ġterm": 4131,
      "Met": 4132,
      "iot": 4133,
      "èº": 4134,
      "arp": 4135,
      "omes": 4136,
      "Ġwhose": 4137,
      "Ġcoff": 4138,
      "oul": 4139,
      "Ġnee": 4140,
      "Ġeconom": 4141,
      "Ġfort": 4142,
      "Ġperiod": 4143,
      "Ġincre": 4144,
      "Ġiss": 4145,
      "Ġprocess": 4146,
      "Ġuitsp": 4147,
      "ĠUS": 4148,
      "ampion": 4149,
      "Ġstrange": 4150,
      "Ġpriv": 4151,
      "time": 4152,
      "éļ": 4153,
      "Ġlim": 4154,
      "bled": 4155,
      "ĠâĢ¢": 4156,
      "want": 4157,
      "Ġpack": 4158,
      "met": 4159,
      "Ġken": 4160,
      "ula": 4161,
      "ocol": 4162,
      "Ġ2018": 4163,
      "Ġpoints": 4164,
      "Om": 4165,
      "Pro": 4166,
      "åĿ": 4167,
      "Ġride": 4168,
      "ĠMaar": 4169,
      "Ġburn": 4170,
      "Ġfut": 4171,
      "Ġkleine": 4172,
      "Ġtick": 4173,
      "Ġhappens": 4174,
      "Ġhelpen": 4175,
      "Ġswim": 4176,
      "17": 4177,
      "Ġbull": 4178,
      "ĠII": 4179,
      "Ġkaart": 4180,
      "Ġrecogn": 4181,
      "æ¸": 4182,
      "Ġcause": 4183,
      "Ġlunch": 4184,
      "Geef": 4185,
      "Mar": 4186,
      "Ġmater": 4187,
      "looks": 4188,
      "anneer": 4189,
      "Ġbere": 4190,
      "ĠReg": 4191,
      "Ġ192": 4192,
      "under": 4193,
      "ĠNot": 4194,
      "itted": 4195,
      "light": 4196,
      "Ġtit": 4197,
      "Ġweren": 4198,
      "Ġstars": 4199,
      "Ġut": 4200,
      "uts": 4201,
      "Ġsex": 4202,
      "Ġnieuw": 4203,
      "God": 4204,
      "aith": 4205,
      "Ġvict": 4206,
      "Ġtrad": 4207,
      "Thanks": 4208,
      "Ġbrown": 4209,
      "åĲĮ": 4210,
      "appen": 4211,
      "Ġmeeting": 4212,
      "éĴ": 4213,
      "Ġsocial": 4214,
      "reng": 4215,
      "Ġlegs": 4216,
      "Ġverz": 4217,
      "Ġappeared": 4218,
      "Ġorganis": 4219,
      "è¢«": 4220,
      "Ã³": 4221,
      "Ġfat": 4222,
      "ĠSy": 4223,
      "Ġwrote": 4224,
      "Ġpresident": 4225,
      "Ġmilit": 4226,
      "ç«": 4227,
      "ician": 4228,
      "ĠLo": 4229,
      "Ġtruth": 4230,
      "Ġconcern": 4231,
      "Ġbacter": 4232,
      "Ġopdracht": 4233,
      "Ġcommune": 4234,
      "Dr": 4235,
      "Ġleaving": 4236,
      "Ġattempt": 4237,
      "Ġexpress": 4238,
      "Ġcountries": 4239,
      "child": 4240,
      "lean": 4241,
      "ima": 4242,
      "Ġeveryone": 4243,
      "Ġfifty": 4244,
      "é£": 4245,
      "Ġbow": 4246,
      "Ġmoving": 4247,
      "ä»İ": 4248,
      "åĪĨ": 4249,
      "dr": 4250,
      "urd": 4251,
      "Ġintern": 4252,
      "uits": 4253,
      "viously": 4254,
      "ç§į": 4255,
      "Ġvia": 4256,
      "Ġalthough": 4257,
      "ĠChina": 4258,
      "Ġontw": 4259,
      "Ġholding": 4260,
      "ĠMOT": 4261,
      "Ġrub": 4262,
      "Ġ21": 4263,
      "Ġspijt": 4264,
      "Ġcarried": 4265,
      "Ġsky": 4266,
      "Ġteach": 4267,
      "Ġprec": 4268,
      "ĠRepubl": 4269,
      "Sp": 4270,
      "Wait": 4271,
      "Ġ$": 4272,
      "ĠMad": 4273,
      "Ġbusy": 4274,
      "Ġwest": 4275,
      "aper": 4276,
      "Ġbright": 4277,
      "Ġfinish": 4278,
      "osaur": 4279,
      "ande": 4280,
      "ĠLea": 4281,
      "Ġdesign": 4282,
      "Ġdiscuss": 4283,
      "Me": 4284,
      "Ġsac": 4285,
      "aas": 4286,
      "ato": 4287,
      "izes": 4288,
      "Ġwinter": 4289,
      "Br": 4290,
      "Ġdingen": 4291,
      "Ġcand": 4292,
      "Ġchurch": 4293,
      "ograp": 4294,
      "Ġ2021": 4295,
      "Ġiedereen": 4296,
      "wow": 4297,
      "stop": 4298,
      "ĠMon": 4299,
      "ploy": 4300,
      "Ġremark": 4301,
      "ĠUnion": 4302,
      "Ġtall": 4303,
      "Ġhoog": 4304,
      "Ġpock": 4305,
      "ĠThese": 4306,
      "Ġah": 4307,
      "Ġlift": 4308,
      "omb": 4309,
      "aves": 4310,
      "Ġgeweld": 4311,
      "Ġintro": 4312,
      "Ġlaughed": 4313,
      "baby": 4314,
      "CHAP": 4315,
      "Ġziek": 4316,
      "Ġmoder": 4317,
      "ĠJer": 4318,
      "Ġorange": 4319,
      "Ġpopular": 4320,
      "house": 4321,
      "sk": 4322,
      "Ġkans": 4323,
      "Ġur": 4324,
      "ceed": 4325,
      "Ġpraten": 4326,
      "åı¯ä»¥": 4327,
      "gasps": 4328,
      "Ġcomputer": 4329,
      "Sch": 4330,
      "Ġrespect": 4331,
      "ĠNow": 4332,
      "ĠSpan": 4333,
      "Ġmut": 4334,
      "estern": 4335,
      "leep": 4336,
      "alley": 4337,
      "ourn": 4338,
      "å¥³": 4339,
      "ray": 4340,
      "èĤ": 4341,
      "rect": 4342,
      "Ġvaak": 4343,
      "æŃ£": 4344,
      "enk": 4345,
      "ilar": 4346,
      "Ġneck": 4347,
      "Ġgrass": 4348,
      "Ġcrying": 4349,
      "omp": 4350,
      "ĠEx": 4351,
      "Ġsave": 4352,
      "Ġfear": 4353,
      "Ġconsider": 4354,
      "CHAPTER": 4355,
      "16": 4356,
      "Was": 4357,
      "Ġgroe": 4358,
      "Ġmachine": 4359,
      "Ġpush": 4360,
      "Ġmiles": 4361,
      "Take": 4362,
      "cel": 4363,
      "unicip": 4364,
      "Ġord": 4365,
      "Ġauto": 4366,
      "Ġspecies": 4367,
      "Ġgeweest": 4368,
      "Ġda": 4369,
      "Ġrecht": 4370,
      "ĠFraser": 4371,
      "Ġklaar": 4372,
      "Ġdecl": 4373,
      "ĠSat": 4374,
      "Ġneighb": 4375,
      "Ġklein": 4376,
      "yn": 4377,
      "unny": 4378,
      "Ġtechn": 4379,
      "åĨį": 4380,
      "Ġparticular": 4381,
      "Ġproblems": 4382,
      "âĢ": 4383,
      "Ġrab": 4384,
      "å¤ª": 4385,
      "Ġjongen": 4386,
      "ĠNorah": 4387,
      "ĠMartin": 4388,
      "kelijk": 4389,
      "é¡": 4390,
      "Ġ&": 4391,
      "Ġself": 4392,
      "Ġsilly": 4393,
      "aym": 4394,
      "ĠSe": 4395,
      "Ġ50": 4396,
      "æ¯Ķ": 4397,
      "gin": 4398,
      "oorten": 4399,
      "Ġlevel": 4400,
      "iÃ«n": 4401,
      "Ġdry": 4402,
      "ĠSm": 4403,
      "ĠTom": 4404,
      "Ġchicken": 4405,
      "ĠKen": 4406,
      "----": 4407,
      "Ġdagen": 4408,
      "oopt": 4409,
      "Ġmanier": 4410,
      "Ġprison": 4411,
      "æīĭ": 4412,
      "Ġfellow": 4413,
      "Ġsuddenly": 4414,
      "Ġbottom": 4415,
      "13": 4416,
      "Uh": 4417,
      "Ġloud": 4418,
      "Ġonge": 4419,
      "Ġrich": 4420,
      "allo": 4421,
      "Ġmogelijk": 4422,
      "anks": 4423,
      "èĢĮ": 4424,
      "Ġkrijgt": 4425,
      "Ġlief": 4426,
      "Ġprep": 4427,
      "Ġbeste": 4428,
      "éĹ´": 4429,
      "Ġfuture": 4430,
      "oom": 4431,
      "Ġmeis": 4432,
      "ĠHoe": 4433,
      "åĲ¬": 4434,
      "éĹ®": 4435,
      "heden": 4436,
      "ads": 4437,
      "ĠCO": 4438,
      "Ġwhom": 4439,
      "Ġchem": 4440,
      "Ġinterested": 4441,
      "Ġ=": 4442,
      "acing": 4443,
      "Ġ23": 4444,
      "Ġtrust": 4445,
      "ĠStone": 4446,
      "åıĪ": 4447,
      "Ġder": 4448,
      "Ġrese": 4449,
      "ĠMum": 4450,
      "Dank": 4451,
      "rey": 4452,
      "ĠWell": 4453,
      "åħ¶": 4454,
      "50": 4455,
      "Ġstage": 4456,
      "Ġstuk": 4457,
      "raph": 4458,
      "Ġspot": 4459,
      "Ġ2010": 4460,
      "Ġcreated": 4461,
      "Ġnecess": 4462,
      "Ġbutter": 4463,
      "round": 4464,
      "Ġdue": 4465,
      "Ġgames": 4466,
      "Ġfre": 4467,
      "ander": 4468,
      "oph": 4469,
      "ä½ľ": 4470,
      "Ġbread": 4471,
      "Ġtijdens": 4472,
      "raat": 4473,
      "Ġtwelve": 4474,
      "erder": 4475,
      "please": 4476,
      "ĠDavid": 4477,
      "æĽ": 4478,
      "Ġmention": 4479,
      "Ġcard": 4480,
      "ĠTw": 4481,
      "Ġrul": 4482,
      "Ġcoffee": 4483,
      "Ġbal": 4484,
      "Ġvroeg": 4485,
      "Ġdev": 4486,
      "ĠWhy": 4487,
      "Ġconn": 4488,
      "cient": 4489,
      "åħ³": 4490,
      "Ġanimal": 4491,
      "Ġadded": 4492,
      "Ġitself": 4493,
      "ĠHen": 4494,
      "itive": 4495,
      "Ġexam": 4496,
      "aughing": 4497,
      "Ġwalking": 4498,
      "ipped": 4499,
      "ĠIndia": 4500,
      "Ġcars": 4501,
      "bling": 4502,
      "medi": 4503,
      "Like": 4504,
      "Ġmam": 4505,
      "ruct": 4506,
      "å¤´": 4507,
      "Ġwalked": 4508,
      "ijna": 4509,
      "ijnen": 4510,
      "aanse": 4511,
      "Ġpray": 4512,
      "æī¾": 4513,
      "rag": 4514,
      "è¶": 4515,
      "Ġrond": 4516,
      "ĠGl": 4517,
      "Ġbeginning": 4518,
      "Ġbirds": 4519,
      "ination": 4520,
      "Ġpaid": 4521,
      "Ġjaren": 4522,
      "ĠPark": 4523,
      "apen": 4524,
      "Ġcapital": 4525,
      "èº«": 4526,
      "bes": 4527,
      "oring": 4528,
      "eech": 4529,
      "ĠGovern": 4530,
      "ĠRich": 4531,
      "Ġcomfort": 4532,
      "aj": 4533,
      "back": 4534,
      "ket": 4535,
      "Ġmel": 4536,
      "Ġnemen": 4537,
      "Ġbeetje": 4538,
      "Ġhers": 4539,
      "Ġparts": 4540,
      "åŁ": 4541,
      "Ġast": 4542,
      "Ġsummer": 4543,
      "Ġlab": 4544,
      "Ġ22": 4545,
      "issen": 4546,
      "Ġplays": 4547,
      "ĠSchool": 4548,
      "Ġgar": 4549,
      "Ġfeed": 4550,
      "Ġdistance": 4551,
      "Ġstudy": 4552,
      "Welke": 4553,
      "Ġhate": 4554,
      "ĠHouse": 4555,
      "isted": 4556,
      "Ġentire": 4557,
      "Ġvoedsel": 4558,
      "uin": 4559,
      "olut": 4560,
      "Ġ26": 4561,
      "berg": 4562,
      "Ġattention": 4563,
      "Ġvarious": 4564,
      "Ġradio": 4565,
      "Lu": 4566,
      "Ġwist": 4567,
      "Ġooit": 4568,
      "Ġinf": 4569,
      "Ġ(\"": 4570,
      "ivid": 4571,
      "iÃ«nt": 4572,
      "leanor": 4573,
      "Doe": 4574,
      "Leg": 4575,
      "Ġleng": 4576,
      "Ġdeed": 4577,
      "iller": 4578,
      "resh": 4579,
      "Ġarg": 4580,
      "Ġbrand": 4581,
      "Ġsmell": 4582,
      "His": 4583,
      "ashed": 4584,
      "ĠJames": 4585,
      "pecially": 4586,
      "Ġaccount": 4587,
      "Ġconsid": 4588,
      "Ġgebruiken": 4589,
      "Ġide": 4590,
      "Ġpaint": 4591,
      "ida": 4592,
      "Ġsevent": 4593,
      "ç¾": 4594,
      "Ġheen": 4595,
      "omer": 4596,
      "Ġkm": 4597,
      "Ġbod": 4598,
      "voorbeeld": 4599,
      "laughing": 4600,
      "Ġsal": 4601,
      "avond": 4602,
      "Ġcompan": 4603,
      "Ġmicro": 4604,
      "Ġpet": 4605,
      "Ġmeat": 4606,
      "Ġanymore": 4607,
      "Ġputs": 4608,
      "Ġsafe": 4609,
      "Ġgelijk": 4610,
      "Ġlying": 4611,
      "elp": 4612,
      "iling": 4613,
      "astic": 4614,
      "Ġproject": 4615,
      "åĲĥ": 4616,
      "Ġpolitical": 4617,
      "Pl": 4618,
      "nel": 4619,
      "uch": 4620,
      "aties": 4621,
      "Ġlaugh": 4622,
      "Ġflat": 4623,
      "Ġligt": 4624,
      "dam": 4625,
      "inting": 4626,
      "Ġkey": 4627,
      "ĠSec": 4628,
      "rian": 4629,
      "Ġä¸į": 4630,
      "Ġdrop": 4631,
      "isf": 4632,
      "Ġears": 4633,
      "erson": 4634,
      "Ġpictures": 4635,
      "sm": 4636,
      "Ġger": 4637,
      "Ġways": 4638,
      "Ġlaughing": 4639,
      "yle": 4640,
      "ĠIN": 4641,
      "rijven": 4642,
      "Ġrepresent": 4643,
      "pardon": 4644,
      "èĬ": 4645,
      "erve": 4646,
      "Ġ27": 4647,
      "Ġ2019": 4648,
      "Ġvertellen": 4649,
      "ED": 4650,
      "da": 4651,
      "dd": 4652,
      "ĠSund": 4653,
      "bert": 4654,
      "jebl": 4655,
      "Ġvindt": 4656,
      "åĺ": 4657,
      "vert": 4658,
      "æ¬¡": 4659,
      "Ġspirit": 4660,
      "Ġcamer": 4661,
      "Ġkick": 4662,
      "itty": 4663,
      "Ġblow": 4664,
      "Ġdropped": 4665,
      "Bed": 4666,
      "Ġcivil": 4667,
      "aches": 4668,
      "cks": 4669,
      "ĠOf": 4670,
      "Misschien": 4671,
      "ĠParty": 4672,
      "æĻ": 4673,
      "Ġlose": 4674,
      "Ġneeded": 4675,
      "lymp": 4676,
      "Ġteeth": 4677,
      "Ġbrief": 4678,
      "ä½ĵ": 4679,
      "UNK": 4680,
      ",--": 4681,
      "Wacht": 4682,
      "Ġhadden": 4683,
      "ĠLa": 4684,
      "Ġspeel": 4685,
      "è¿Ľ": 4686,
      "tered": 4687,
      "ĠQue": 4688,
      "down": 4689,
      "é«": 4690,
      "Ġä»ĸ": 4691,
      "isme": 4692,
      "Ġgives": 4693,
      "Ġalive": 4694,
      "Ġeleph": 4695,
      "Ġturns": 4696,
      "éĶ": 4697,
      "Ġmum": 4698,
      "Ġhous": 4699,
      "euw": 4700,
      "urse": 4701,
      "urday": 4702,
      "ĠAN": 4703,
      "ĠBra": 4704,
      "ĠLet": 4705,
      "ĠEll": 4706,
      "ichael": 4707,
      "Ġsuit": 4708,
      "appy": 4709,
      "Ġinclude": 4710,
      "Ġiron": 4711,
      "Ġmurder": 4712,
      "oet": 4713,
      "éĥ": 4714,
      "Ġmem": 4715,
      "Ġforce": 4716,
      "Ġinformatie": 4717,
      "Ġwid": 4718,
      "ĠMark": 4719,
      "olen": 4720,
      "Ġarr": 4721,
      "åħĪ": 4722,
      "Ġcharge": 4723,
      "Per": 4724,
      "Ġhealth": 4725,
      "ously": 4726,
      "urton": 4727,
      "Ã¼": 4728,
      "Ġzorgen": 4729,
      "ĠLeg": 4730,
      "ometimes": 4731,
      "uhoh": 4732,
      "é«ĺ": 4733,
      "Ġphys": 4734,
      "Ġgrond": 4735,
      "Ġmilj": 4736,
      "Ġindust": 4737,
      "å¦Ī": 4738,
      "Ġzee": 4739,
      "Ġ2014": 4740,
      "æĦŁ": 4741,
      "æ³ķ": 4742,
      "name": 4743,
      "Ġviol": 4744,
      "aling": 4745,
      "Ġdemand": 4746,
      "ĠTur": 4747,
      "ĠDNA": 4748,
      "Ġreading": 4749,
      "ĠAnn": 4750,
      "åĬĽ": 4751,
      "çŃī": 4752,
      "?'": 4753,
      "ially": 4754,
      "take": 4755,
      "Ġniks": 4756,
      "ĠMom": 4757,
      "ĠHugh": 4758,
      "Ġsimp": 4759,
      "jeblieft": 4760,
      "Hallo": 4761,
      "asant": 4762,
      "ĠMil": 4763,
      "ĠCarl": 4764,
      "Ġmannen": 4765,
      "Ġflowers": 4766,
      "Ġinteresting": 4767,
      "Gr": 4768,
      "aughty": 4769,
      "Ġpink": 4770,
      "ett": 4771,
      "Ġdem": 4772,
      "roll": 4773,
      "Ġseeing": 4774,
      "ission": 4775,
      "mee": 4776,
      "Ġsel": 4777,
      "onnen": 4778,
      "Ġ28": 4779,
      "oken": 4780,
      "ĠBobby": 4781,
      "Ġlikes": 4782,
      "è§īå¾Ĺ": 4783,
      "Ġbeat": 4784,
      "ĠLu": 4785,
      "rupt": 4786,
      "Ġsituation": 4787,
      "Nou": 4788,
      "yep": 4789,
      "Ġmunicip": 4790,
      "ä¸»": 4791,
      "Ġopt": 4792,
      "æľ¬": 4793,
      "Ġfinal": 4794,
      "Geen": 4795,
      "ĠMor": 4796,
      "ĠMex": 4797,
      "Ġfruit": 4798,
      "Ġchoo": 4799,
      "Ġhoud": 4800,
      "Ġleaves": 4801,
      "ä¿¡": 4802,
      "OK": 4803,
      "anen": 4804,
      "Ġbase": 4805,
      "ĠNa": 4806,
      "ĠRo": 4807,
      "ĠRoman": 4808,
      "Ġgraag": 4809,
      "jorie": 4810,
      "Ġliked": 4811,
      "EST": 4812,
      "Ġontwikk": 4813,
      "âĢķ": 4814,
      "IM": 4815,
      "ieten": 4816,
      "Ġ2011": 4817,
      "ledge": 4818,
      "ĠWilliam": 4819,
      "ziek": 4820,
      "eddy": 4821,
      "Ġheet": 4822,
      "ably": 4823,
      "ĠJesus": 4824,
      "Ġarmy": 4825,
      "Ġcontinued": 4826,
      "Ġontstaan": 4827,
      "Cos": 4828,
      "Ġwit": 4829,
      "Ġcell": 4830,
      "Ġ29": 4831,
      "Ġ2017": 4832,
      "Ġserious": 4833,
      "Ġexperience": 4834,
      "Ġpocket": 4835,
      "ĠSer": 4836,
      "Ġplate": 4837,
      "Ġsla": 4838,
      "Ġcheese": 4839,
      "\")": 4840,
      "pre": 4841,
      "yy": 4842,
      "ĠJust": 4843,
      "Ġspoke": 4844,
      "Ġcounty": 4845,
      "Ġfinally": 4846,
      "Ġannoun": 4847,
      "antie": 4848,
      "ĠLee": 4849,
      "Ġserved": 4850,
      "Ġmountain": 4851,
      "Ġinflu": 4852,
      "Ġhast": 4853,
      "Ġgrew": 4854,
      "alle": 4855,
      "ĠBy": 4856,
      "aining": 4857,
      "å®ĥ": 4858,
      "Ġidee": 4859,
      "Ġconversation": 4860,
      "rican": 4861,
      "Ġfamous": 4862,
      "nes": 4863,
      "uy": 4864,
      "å£": 4865,
      "ola": 4866,
      "Ġnobody": 4867,
      "istory": 4868,
      "Ġbelow": 4869,
      "ĠHowever": 4870,
      "çĲĨ": 4871,
      "VAL": 4872,
      "mie": 4873,
      "Ġgebied": 4874,
      "åºĶ": 4875,
      "points": 4876,
      "Ġintrodu": 4877,
      "mommy": 4878,
      "Ġkant": 4879,
      "Ġuitge": 4880,
      "Ġamount": 4881,
      "hood": 4882,
      "Ġbren": 4883,
      "ĠYOU": 4884,
      "ault": 4885,
      "eat": 4886,
      "Ġaunt": 4887,
      "Ġdin": 4888,
      "Ġwash": 4889,
      "ĠAc": 4890,
      "outhern": 4891,
      "John": 4892,
      "Tr": 4893,
      "ites": 4894,
      "Ġliter": 4895,
      "igd": 4896,
      "Ġstorm": 4897,
      "Ġrepe": 4898,
      "ppen": 4899,
      "Ġmisschien": 4900,
      "yl": 4901,
      "Ġwide": 4902,
      "ĠOF": 4903,
      "Ġappl": 4904,
      "Ġappar": 4905,
      "çĶµ": 4906,
      "Ġplanten": 4907,
      "incip": 4908,
      "Ã¶": 4909,
      "æģ": 4910,
      "Ġcust": 4911,
      "Ġfir": 4912,
      "Ġnurs": 4913,
      "stit": 4914,
      "iforn": 4915,
      "',": 4916,
      "Hou": 4917,
      "Ġident": 4918,
      "Ġcream": 4919,
      "Ġham": 4920,
      "Ġreact": 4921,
      "ĠTO": 4922,
      "ests": 4923,
      "ĠOok": 4924,
      "box": 4925,
      "Ġsimilar": 4926,
      "ĠPortug": 4927,
      "Ġsens": 4928,
      "Ġdut": 4929,
      "Ġnor": 4930,
      "Ġstem": 4931,
      "Ġlicht": 4932,
      "ours": 4933,
      "ĠEm": 4934,
      "Ġshowed": 4935,
      "Ġoccas": 4936,
      "$$": 4937,
      "Un": 4938,
      "Van": 4939,
      "kel": 4940,
      "Ġmatch": 4941,
      "ĠTe": 4942,
      "Ġrid": 4943,
      "Ġmeth": 4944,
      "ensus": 4945,
      "Ġzouden": 4946,
      "çĽ¸": 4947,
      "FRI": 4948,
      "hip": 4949,
      "tje": 4950,
      "Ġmoon": 4951,
      "omething": 4952,
      "Ġ2022": 4953,
      "ĠAustralia": 4954,
      "Ġnam": 4955,
      "ĠRob": 4956,
      "Ġconcl": 4957,
      "Ġbottle": 4958,
      "ashington": 4959,
      "ĠSunday": 4960,
      "Ġvijf": 4961,
      "Ġep": 4962,
      "Ġstub": 4963,
      "Ġrace": 4964,
      "rake": 4965,
      "ĠOlymp": 4966,
      "ä»Ĭ": 4967,
      "Ġclosed": 4968,
      "ouwen": 4969,
      "Ġcircle": 4970,
      "Ġzelfs": 4971,
      "ĠMinister": 4972,
      "åĽłä¸º": 4973,
      "ography": 4974,
      "Ge": 4975,
      "Le": 4976,
      "ires": 4977,
      "lijke": 4978,
      "Ġcer": 4979,
      "Ġlijkt": 4980,
      "Ġgevol": 4981,
      "Ġspelen": 4982,
      "Ġnature": 4983,
      "lim": 4984,
      "Ġdieren": 4985,
      "elden": 4986,
      "owel": 4987,
      "rijd": 4988,
      "Ġasking": 4989,
      "Ġwerken": 4990,
      "ĠQu": 4991,
      "ĠEuropean": 4992,
      "200": 4993,
      "pend": 4994,
      "é©": 4995,
      "opl": 4996,
      "Ġappe": 4997,
      "Ġlargest": 4998,
      "å¦Ĥ": 4999,
      "Ġaang": 5000,
      "ester": 5001,
      "Ġsepar": 5002,
      "ennis": 5003,
      "Ġjud": 5004,
      "Ġchocol": 5005,
      "æīį": 5006,
      "Ġemp": 5007,
      "uel": 5008,
      "Ġbijna": 5009,
      "Ġenemy": 5010,
      "aalde": 5011,
      "Ġespecially": 5012,
      "Ġfingers": 5013,
      "Ver": 5014,
      "ĠTony": 5015,
      "ĠMus": 5016,
      "ĠGreat": 5017,
      "ĠVol": 5018,
      "Ġ[?": 5019,
      "Ġmonkey": 5020,
      "çĭ": 5021,
      "oorz": 5022,
      "emon": 5023,
      "ĠNed": 5024,
      "cious": 5025,
      "æĶ¾": 5026,
      "ĠLeague": 5027,
      "arrow": 5028,
      "Ġfool": 5029,
      "Ġpan": 5030,
      "veer": 5031,
      "aded": 5032,
      "Ġsharp": 5033,
      "ĠGeef": 5034,
      "ĠOm": 5035,
      "Ġnatural": 5036,
      "Ġcorrect": 5037,
      "Ġhide": 5038,
      "ĠBill": 5039,
      "ĠCo": 5040,
      "ĠDoor": 5041,
      "Ġspent": 5042,
      "Ġelke": 5043,
      "bel": 5044,
      "inary": 5045,
      "anch": 5046,
      "Ġdance": 5047,
      "ĠAg": 5048,
      "Ġbegrij": 5049,
      "èĥ": 5050,
      "Ġet": 5051,
      "aker": 5052,
      "Ġshare": 5053,
      "arah": 5054,
      "Ġnames": 5055,
      "Ġkre": 5056,
      "pping": 5057,
      "Ġshouldn": 5058,
      "Ġshows": 5059,
      "Ġpounds": 5060,
      "Ġcorner": 5061,
      "tell": 5062,
      "æŁ": 5063,
      "èĭ": 5064,
      "Ġnon": 5065,
      "asing": 5066,
      "Ġear": 5067,
      "Ġstories": 5068,
      "three": 5069,
      "Ġprobe": 5070,
      "Ġimm": 5071,
      "å¹²": 5072,
      "Hi": 5073,
      "aa": 5074,
      "kn": 5075,
      "Ġban": 5076,
      "Ġthuis": 5077,
      "Ġeast": 5078,
      "Ġstore": 5079,
      "ikt": 5080,
      "inder": 5081,
      "Ġfeat": 5082,
      "å¸¸": 5083,
      "wait": 5084,
      "asons": 5085,
      "Ġbigger": 5086,
      "ibly": 5087,
      "Ġsleeping": 5088,
      "bal": 5089,
      "watch": 5090,
      "Ġhall": 5091,
      "Ġaffect": 5092,
      "Ġrole": 5093,
      "Ġeggs": 5094,
      "Give": 5095,
      "gs": 5096,
      "han": 5097,
      "lag": 5098,
      "Ġhost": 5099,
      "Ġearl": 5100,
      "Ġdeg": 5101,
      "ival": 5102,
      "Ġ2008": 5103,
      "Ġeffort": 5104,
      "ĠCaliforn": 5105,
      "Ġdun": 5106,
      "Ġhoren": 5107,
      "Ġisland": 5108,
      "igr": 5109,
      "ruk": 5110,
      "ï¿½ï¿½ï¿½ï¿½": 5111,
      "erst": 5112,
      "Ġkort": 5113,
      "iced": 5114,
      "ieke": 5115,
      "ĠBilly": 5116,
      "Ġ2000": 5117,
      "Ġpurp": 5118,
      "Bedankt": 5119,
      "Ġsize": 5120,
      "antly": 5121,
      "ĠEast": 5122,
      "çķ": 5123,
      "Ġbound": 5124,
      "ĠCaptain": 5125,
      "riage": 5126,
      "Ġspoon": 5127,
      "Ġgebeurt": 5128,
      "Ġelders": 5129,
      "Ġeducation": 5130,
      "ari": 5131,
      "Ġkop": 5132,
      "Ġterms": 5133,
      "Ġgeluk": 5134,
      "Ġfamilie": 5135,
      "æį": 5136,
      "Ġenc": 5137,
      "Ġgehe": 5138,
      "Ġbelieved": 5139,
      "!'": 5140,
      "Mom": 5141,
      "æı": 5142,
      "Ġbud": 5143,
      "noise": 5144,
      "upid": 5145,
      "Ġbestaat": 5146,
      "Ġjoined": 5147,
      "olutely": 5148,
      "book": 5149,
      "cast": 5150,
      "set": 5151,
      "Ġmedicine": 5152,
      "ampionship": 5153,
      "Ġhoop": 5154,
      "Ġfle": 5155,
      "Ġlower": 5156,
      "ĠMot": 5157,
      "ĠJwww": 5158,
      "Ġcho": 5159,
      "orthern": 5160,
      "ekker": 5161,
      "ails": 5162,
      "car": 5163,
      "worth": 5164,
      "èģ": 5165,
      "Ġdirty": 5166,
      "Ġinsp": 5167,
      "Ġate": 5168,
      "Ġscared": 5169,
      "Ġ2007": 5170,
      "rica": 5171,
      "Ġvac": 5172,
      "ental": 5173,
      "ĠNe": 5174,
      "ĠRed": 5175,
      "ĠRock": 5176,
      "Ġspring": 5177,
      "ortun": 5178,
      "Ġpolitician": 5179,
      "Ġsatisf": 5180,
      "æ¶": 5181,
      "Ġ:": 5182,
      "Ġfem": 5183,
      "å¤ĸ": 5184,
      "Ġbijvoorbeeld": 5185,
      "Ġ186": 5186,
      "å·¥": 5187,
      "Ġapart": 5188,
      "Ġfavorite": 5189,
      "maar": 5190,
      "æ¡": 5191,
      "onde": 5192,
      "esp": 5193,
      "Ġenige": 5194,
      "Ġgegeven": 5195,
      "çļĦæĹ¶åĢĻ": 5196,
      "Ġhistor": 5197,
      "Ġpuzzle": 5198,
      "Ġmodern": 5199,
      "Ġrabbit": 5200,
      "wise": 5201,
      "ĠHall": 5202,
      "ekt": 5203,
      "è¿Ļä¹Ī": 5204,
      "Ġindivid": 5205,
      "Ġcrazy": 5206,
      "pret": 5207,
      "Ġgele": 5208,
      "idden": 5209,
      "igs": 5210,
      "ĠSant": 5211,
      "ĠAnt": 5212,
      "ĠCouncil": 5213,
      "enda": 5214,
      "Ġloved": 5215,
      "Ġimmedi": 5216,
      "Ġcrack": 5217,
      "Does": 5218,
      "Ġdirection": 5219,
      "Ġniemand": 5220,
      "Ġmilitary": 5221,
      "Jullie": 5222,
      "Sure": 5223,
      "vin": 5224,
      "éĤ£ä¸ª": 5225,
      "Ġthanks": 5226,
      "è¾¹": 5227,
      "Ġlength": 5228,
      "ds": 5229,
      "inct": 5230,
      "Ġcellen": 5231,
      "uten": 5232,
      "ĠTV": 5233,
      "ĠBurton": 5234,
      "ffic": 5235,
      "Ġapple": 5236,
      "Ġcontact": 5237,
      "çİĭ": 5238,
      "Ġproduced": 5239,
      "Ġofficer": 5240,
      "Tot": 5241,
      "isy": 5242,
      "Ġeeuw": 5243,
      "Ġforty": 5244,
      "order": 5245,
      "Ġcray": 5246,
      "å¿«": 5247,
      "çī¹": 5248,
      "è°¢": 5249,
      "FA": 5250,
      "aign": 5251,
      "èĦ": 5252,
      "èī": 5253,
      "Ġnacht": 5254,
      "Ġformed": 5255,
      "ĠAlex": 5256,
      "ularly": 5257,
      "Ġexamen": 5258,
      "ä½łä»¬": 5259,
      "Ġwonderful": 5260,
      "Ġconsidered": 5261,
      "Mag": 5262,
      "ĠAz": 5263,
      "Ġvooral": 5264,
      "ĠIntern": 5265,
      "Ġ40": 5266,
      "åİŁ": 5267,
      "Ġbeide": 5268,
      "ooi": 5269,
      "Ġdogg": 5270,
      "Ġgrad": 5271,
      "ressed": 5272,
      "Ġcovered": 5273,
      "Pr": 5274,
      "Wij": 5275,
      "igheid": 5276,
      "ushing": 5277,
      "Ġ2016": 5278,
      "Ġsinging": 5279,
      "æĸ°": 5280,
      "ĠCanada": 5281,
      "By": 5282,
      "Zeg": 5283,
      "Ġcapt": 5284,
      "Ġshape": 5285,
      "aped": 5286,
      "åħ¨": 5287,
      "Ġdenken": 5288,
      "è¿ĺæĺ¯": 5289,
      "ĠBlack": 5290,
      "Ġpublished": 5291,
      "Ġmooi": 5292,
      "Ġsurprise": 5293,
      "rees": 5294,
      "Ġbru": 5295,
      "omme": 5296,
      "ĠLou": 5297,
      "Ġrode": 5298,
      "ĠChin": 5299,
      "å·²": 5300,
      "Ġhotel": 5301,
      "Ġsquare": 5302,
      "Even": 5303,
      "loop": 5304,
      "ĥı": 5305,
      "Ġfresh": 5306,
      "Ġweap": 5307,
      "ĠGra": 5308,
      "ĠæĪĳä»¬": 5309,
      "éĩį": 5310,
      "Ġtraining": 5311,
      "Ġdelight": 5312,
      "komst": 5313,
      "Over": 5314,
      "ç½": 5315,
      "Ġtax": 5316,
      "Ġwarn": 5317,
      "deel": 5318,
      "Ġschools": 5319,
      "Ġpersoon": 5320,
      "Ġskin": 5321,
      "Ġinvolved": 5322,
      "30": 5323,
      "Tell": 5324,
      "lect": 5325,
      "Ġkil": 5326,
      "Ġstoffen": 5327,
      "Ġopge": 5328,
      "Ġtalked": 5329,
      "Ġcamera": 5330,
      "wood": 5331,
      "æ¥": 5332,
      "Ġfol": 5333,
      "ĠTH": 5334,
      "Ġagreed": 5335,
      "Ġdogs": 5336,
      "Ġmarket": 5337,
      "çĦ¶åĲİ": 5338,
      "iar": 5339,
      "ode": 5340,
      "ç©": 5341,
      "Ġtiny": 5342,
      "Ġpit": 5343,
      "Ġnone": 5344,
      "ums": 5345,
      "æľº": 5346,
      "Ġscience": 5347,
      "ĠGeneral": 5348,
      "Aye": 5349,
      "HÃ©": 5350,
      "kl": 5351,
      "ç³": 5352,
      "atic": 5353,
      "itude": 5354,
      "antic": 5355,
      "hered": 5356,
      "ĠWik": 5357,
      "ĠWashington": 5358,
      "Ġcrow": 5359,
      "ĠHenry": 5360,
      "Ġcaptain": 5361,
      "Ġpal": 5362,
      "ĠMother": 5363,
      "Ġsearch": 5364,
      "Ġ2013": 5365,
      "Ġpretend": 5366,
      "Ġemploy": 5367,
      "Ġhigher": 5368,
      "uig": 5369,
      "eman": 5370,
      "Ġexist": 5371,
      "Ġgrot": 5372,
      "Ġpeace": 5373,
      "åĩł": 5374,
      "ĠEurop": 5375,
      "çĪ¸": 5376,
      "Amer": 5377,
      "wr": 5378,
      "ĠBo": 5379,
      "Ġplaced": 5380,
      "Ġwheel": 5381,
      "Ġverkl": 5382,
      "Ġsimply": 5383,
      "Ġogen": 5384,
      "Ġbite": 5385,
      "ĠSir": 5386,
      "ements": 5387,
      "Ġcrit": 5388,
      "Ġsongs": 5389,
      "Ġblocks": 5390,
      "Ġprofessional": 5391,
      "ae": 5392,
      "arry": 5393,
      "edia": 5394,
      "eless": 5395,
      "Ġbewer": 5396,
      "Ġworse": 5397,
      "arts": 5398,
      "aving": 5399,
      "Ġsmile": 5400,
      "Ġaction": 5401,
      "Ġsett": 5402,
      "ĠAnnie": 5403,
      "Really": 5404,
      "bouw": 5405,
      "Ġzag": 5406,
      "ĠNoord": 5407,
      "Ġ2012": 5408,
      "Ġtotal": 5409,
      "Ġcurrent": 5410,
      "Ġsoldiers": 5411,
      "é¢ĺ": 5412,
      "Ġbabies": 5413,
      "ä½Ĩæĺ¯": 5414,
      "éĴ±": 5415,
      "GMA": 5416,
      "vious": 5417,
      "ç¡": 5418,
      "onen": 5419,
      "edy": 5420,
      "Ġstreng": 5421,
      "eget": 5422,
      "Ġbridge": 5423,
      "è¯¥": 5424,
      "Deze": 5425,
      "Ġmiljoen": 5426,
      "Would": 5427,
      "face": 5428,
      "ucht": 5429,
      "inter": 5430,
      "Ġwoorden": 5431,
      "Ġeh": 5432,
      "aret": 5433,
      "Ġ2015": 5434,
      "Ġ2006": 5435,
      "Ġnumbers": 5436,
      "Ġforest": 5437,
      "èĲ": 5438,
      "Ġtone": 5439,
      "Ġnaughty": 5440,
      "essie": 5441,
      "Ġscient": 5442,
      "phone": 5443,
      "Ġdirected": 5444,
      "Am": 5445,
      "wanna": 5446,
      "çĥ": 5447,
      "æĹł": 5448,
      "Ġhardly": 5449,
      "Ġmotor": 5450,
      "Ġnineteen": 5451,
      "vocalizes": 5452,
      "Ġslowly": 5453,
      "ĠSaturday": 5454,
      "weg": 5455,
      "Ġoil": 5456,
      "Ġbatter": 5457,
      "ache": 5458,
      "Ġanx": 5459,
      "ante": 5460,
      "Ġtherefore": 5461,
      "arliam": 5462,
      "Ġmeneer": 5463,
      "Ġgevonden": 5464,
      "'?": 5465,
      "ocht": 5466,
      "ç¥": 5467,
      "oups": 5468,
      "Ġmaster": 5469,
      "onel": 5470,
      "istr": 5471,
      "ousin": 5472,
      "Ġbetek": 5473,
      "Ġkoning": 5474,
      "Ġdiag": 5475,
      "raken": 5476,
      "Ġaud": 5477,
      "ening": 5478,
      "Ġbill": 5479,
      "Ġstone": 5480,
      "ĠCr": 5481,
      "Ġbroad": 5482,
      "Ġgesl": 5483,
      "Ġmotion": 5484,
      "Ġoriginal": 5485,
      "Her": 5486,
      "ares": 5487,
      "aande": 5488,
      "Ġcab": 5489,
      "Ġvond": 5490,
      "Ġang": 5491,
      "Ġlock": 5492,
      "Ġhorses": 5493,
      "arliament": 5494,
      "pot": 5495,
      "åĥı": 5496,
      "Ġearn": 5497,
      "Ġsoc": 5498,
      "ession": 5499,
      "ective": 5500,
      "Ġhelped": 5501,
      "Ġturning": 5502,
      "è§£": 5503,
      "Ġrefer": 5504,
      "ijst": 5505,
      "Ġbey": 5506,
      "ĠSl": 5507,
      "ĠWaar": 5508,
      "Ġprof": 5509,
      "ruction": 5510,
      "Ġrespons": 5511,
      "lf": 5512,
      "ube": 5513,
      "çģ": 5514,
      "Ġsell": 5515,
      "Ġrug": 5516,
      "Ġveroorz": 5517,
      "ĠMarjorie": 5518,
      "Ã«n": 5519,
      "Ġdeliver": 5520,
      "æ°Ķ": 5521,
      "Pe": 5522,
      "Ġwound": 5523,
      "Ġwoord": 5524,
      "ĠOver": 5525,
      "ĠZo": 5526,
      "Ġ2009": 5527,
      "ĠCarol": 5528,
      "ĠCalifornia": 5529,
      "THE": 5530,
      "bu": 5531,
      "hin": 5532,
      "midd": 5533,
      "¥¿": 5534,
      "åĹ": 5535,
      "Ġthick": 5536,
      "Ġstream": 5537,
      "Ġasleep": 5538,
      "oger": 5539,
      "Ġprim": 5540,
      "ĠChi": 5541,
      "Ġfighting": 5542,
      "Ġestab": 5543,
      "oming": 5544,
      "opt": 5545,
      "Ġconcentr": 5546,
      "Ġaff": 5547,
      "Ġtrade": 5548,
      "è¿Ļæł·": 5549,
      "Ġminister": 5550,
      "brother": 5551,
      "azing": 5552,
      "Ġgeleden": 5553,
      "çī©": 5554,
      "Two": 5555,
      ".,": 5556,
      "akt": 5557,
      "Ġarch": 5558,
      "Ġterrible": 5559,
      "Ġlanden": 5560,
      "Ġlearned": 5561,
      "has": 5562,
      "Ġboek": 5563,
      "Ġcloud": 5564,
      "Ġmeaning": 5565,
      "Ġbekend": 5566,
      "Ġcaused": 5567,
      "Ġtong": 5568,
      "Ġdeter": 5569,
      "ĠGood": 5570,
      "Ġclaim": 5571,
      "AND": 5572,
      "mother": 5573,
      "Ġcru": 5574,
      "ago": 5575,
      "ĠFather": 5576,
      "Nothing": 5577,
      "Ġbeyond": 5578,
      "ST": 5579,
      "five": 5580,
      "hah": 5581,
      "erc": 5582,
      "Ġmult": 5583,
      "ora": 5584,
      "Ġlaid": 5585,
      "rib": 5586,
      "ĠJul": 5587,
      "Ġwelcome": 5588,
      "Ġrelation": 5589,
      "Ġindepend": 5590,
      "Ġongeveer": 5591,
      "Ġmeisje": 5592,
      "iles": 5593,
      "Ġneg": 5594,
      "ĠEgy": 5595,
      "ongress": 5596,
      "Ġslight": 5597,
      "Ġbedroom": 5598,
      "ocrat": 5599,
      "Ġclever": 5600,
      "Ġspeaking": 5601,
      "ĠJapanese": 5602,
      "Ġflying": 5603,
      "Ġverhaal": 5604,
      "Ġdestroy": 5605,
      "Ġmethod": 5606,
      "ban": 5607,
      "ÃŃ": 5608,
      "ĠMel": 5609,
      "Ġupstairs": 5610,
      "Ġplann": 5611,
      "Ġplane": 5612,
      "Ġcoat": 5613,
      "Ġzoon": 5614,
      "iana": 5615,
      "Ġstarts": 5616,
      "Ġmissing": 5617,
      "ĠAfrica": 5618,
      "ĠScot": 5619,
      "Ġbasket": 5620,
      "ĠAdam": 5621,
      "iber": 5622,
      "mark": 5623,
      "yon": 5624,
      "Ġaand": 5625,
      "Ġdarm": 5626,
      "Ġlion": 5627,
      "Ġander": 5628,
      "Ġangry": 5629,
      "Ġmoeil": 5630,
      "Ġblank": 5631,
      "Ġdifference": 5632,
      "Ġaccident": 5633,
      "ĠMaggie": 5634,
      "Ġarrang": 5635,
      "erved": 5636,
      "ĠTer": 5637,
      "ĠNan": 5638,
      "Ġadult": 5639,
      "Ġtravel": 5640,
      "Ġdriving": 5641,
      "èį": 5642,
      "ĠSan": 5643,
      "Ġoffer": 5644,
      "çĪ·": 5645,
      "æ°´": 5646,
      "another": 5647,
      "Ġnest": 5648,
      "Ġthreat": 5649,
      "alph": 5650,
      "Ġund": 5651,
      "Ġstates": 5652,
      "Ġcalling": 5653,
      "Ġwelk": 5654,
      "Ġjoin": 5655,
      "ID": 5656,
      "Ġow": 5657,
      "ify": 5658,
      "rain": 5659,
      "ĠVer": 5660,
      "udd": 5661,
      "ĠState": 5662,
      "ption": 5663,
      "Ġdefin": 5664,
      "LE": 5665,
      "Listen": 5666,
      "ique": 5667,
      "Ġbattle": 5668,
      "roat": 5669,
      "ĠChe": 5670,
      "ĠCup": 5671,
      "Ġlever": 5672,
      "ä½į": 5673,
      "ELA": 5674,
      "Ġlikely": 5675,
      "Ġelephant": 5676,
      "oured": 5677,
      "Ġlid": 5678,
      "ros": 5679,
      "ellig": 5680,
      "onds": 5681,
      "Ġleader": 5682,
      "Ġgroups": 5683,
      "Ġrose": 5684,
      "æĪĳçļĦ": 5685,
      "Ġpicked": 5686,
      "Ġdressed": 5687,
      "Ġoorlog": 5688,
      "åĸľ": 5689,
      "Ġenergy": 5690,
      "reden": 5691,
      "Ġzod": 5692,
      "umber": 5693,
      "Ġattract": 5694,
      "Ġjongens": 5695,
      "ĠConf": 5696,
      "Ġhoudt": 5697,
      "Qu": 5698,
      "reven": 5699,
      "ede": 5700,
      "ĠMama": 5701,
      "çĽ´": 5702,
      "Ġoccur": 5703,
      "Ġhappening": 5704,
      "éĥ¨": 5705,
      "big": 5706,
      "Ġsoul": 5707,
      "reken": 5708,
      "ĠDie": 5709,
      "Ġblind": 5710,
      "Ġhalen": 5711,
      "Ġgezegd": 5712,
      "Ġruim": 5713,
      "Ġvrouwen": 5714,
      "Excuse": 5715,
      "Ġdiscovered": 5716,
      "æ´»": 5717,
      "wich": 5718,
      "ijan": 5719,
      "ĠSim": 5720,
      "Ġrap": 5721,
      "ĠPet": 5722,
      "Ġchief": 5723,
      "ĠAngel": 5724,
      "Dad": 5725,
      "vir": 5726,
      "ç´": 5727,
      "Ġdust": 5728,
      "Ġgate": 5729,
      "Ġforces": 5730,
      "Ġthinks": 5731,
      "ĠBrown": 5732,
      "æ¬¢": 5733,
      "ĠParis": 5734,
      "ĠChinese": 5735,
      "Very": 5736,
      "pet": 5737,
      "ĠCat": 5738,
      "werp": 5739,
      "Ġentered": 5740,
      "å¸¦": 5741,
      "å±±": 5742,
      "Ġgeweldig": 5743,
      "ĠAcad": 5744,
      "po": 5745,
      "yr": 5746,
      "Ġlopen": 5747,
      "Ġstupid": 5748,
      "ĠColl": 5749,
      "Ġ2001": 5750,
      "Ġoppos": 5751,
      "ĠKingdom": 5752,
      "Which": 5753,
      "Ġbreath": 5754,
      "Ġhom": 5755,
      "Ġtower": 5756,
      "Ġvent": 5757,
      "Ġwhisper": 5758,
      "Ġfright": 5759,
      "Ġplat": 5760,
      "Ġclock": 5761,
      "Ġschat": 5762,
      "iction": 5763,
      "Ġninety": 5764,
      "Mama": 5765,
      "four": 5766,
      "zien": 5767,
      "Ġhond": 5768,
      "stelling": 5769,
      "iezen": 5770,
      "Ġcoast": 5771,
      "ĠYour": 5772,
      "gebied": 5773,
      "ups": 5774,
      "xim": 5775,
      "Ġhey": 5776,
      "ĠNet": 5777,
      "ĠJo": 5778,
      "These": 5779,
      "ittee": 5780,
      "Ġpercent": 5781,
      "Ġpromise": 5782,
      "æİ¥": 5783,
      "zerba": 5784,
      "Ġcircum": 5785,
      "Luister": 5786,
      "From": 5787,
      "Ġtap": 5788,
      "irgin": 5789,
      "emde": 5790,
      "Ġdate": 5791,
      "å°ĳ": 5792,
      "werk": 5793,
      "åŃ©": 5794,
      "zerbaijan": 5795,
      "Ġmorgen": 5796,
      "Ġvle": 5797,
      "Ġrout": 5798,
      "elly": 5799,
      "ä¸ľ": 5800,
      "Ġspend": 5801,
      "Ġminuten": 5802,
      "Ġassist": 5803,
      "ĠWhite": 5804,
      "Ġpool": 5805,
      "lem": 5806,
      "ication": 5807,
      "sey": 5808,
      "angers": 5809,
      "Ġimpro": 5810,
      "ĠWelke": 5811,
      "col": 5812,
      "é¦": 5813,
      "vell": 5814,
      "aks": 5815,
      "ĠStreet": 5816,
      "Ġolder": 5817,
      "schijn": 5818,
      "Ġexperiment": 5819,
      "Ġprotect": 5820,
      "father": 5821,
      "oven": 5822,
      "ule": 5823,
      "yer": 5824,
      "çĹ": 5825,
      "Ġteddy": 5826,
      "Ġhiding": 5827,
      "orst": 5828,
      "Ġvre": 5829,
      "Ġspeed": 5830,
      "Ġblad": 5831,
      "Ġwerkt": 5832,
      "Ġcheek": 5833,
      "uiten": 5834,
      "Ġsimple": 5835,
      "Ġstrength": 5836,
      "History": 5837,
      "Man": 5838,
      "Ġcro": 5839,
      "alf": 5840,
      "imin": 5841,
      "åĪ©": 5842,
      "Ġfalling": 5843,
      "astern": 5844,
      "Ġchanges": 5845,
      "BA": 5846,
      "Ġboss": 5847,
      "Ġgeef": 5848,
      "asc": 5849,
      "Ġeager": 5850,
      "icious": 5851,
      "ĠWil": 5852,
      "ĠWho": 5853,
      "Ġchap": 5854,
      "oughs": 5855,
      "ommige": 5856,
      "Ġdrawing": 5857,
      "uidelijk": 5858,
      "Ġmeeste": 5859,
      "Ġoude": 5860,
      "GE": 5861,
      "ights": 5862,
      "ĠDen": 5863,
      "æľĪ": 5864,
      "ciation": 5865,
      "Ġopportun": 5866,
      "Ġbepaalde": 5867,
      "zij": 5868,
      "æ¼": 5869,
      "éħ": 5870,
      "aled": 5871,
      "ĠLaw": 5872,
      "Ġaange": 5873,
      "Ġguard": 5874,
      "æĹ¥": 5875,
      "Ġpersonal": 5876,
      "Ġouders": 5877,
      "Ġoog": 5878,
      "eland": 5879,
      "ĠBig": 5880,
      "ĠGo": 5881,
      "these": 5882,
      "geten": 5883,
      "åĽĽ": 5884,
      "Ġrocks": 5885,
      "ĠCharles": 5886,
      "Ne": 5887,
      "RE": 5888,
      "Ġcases": 5889,
      "imm": 5890,
      "rol": 5891,
      "ograph": 5892,
      "Ġregard": 5893,
      "Ġbesl": 5894,
      "Ġblijft": 5895,
      "IL": 5896,
      "Ġæĺ¯": 5897,
      "Ġhadn": 5898,
      "åĲĪ": 5899,
      "çĻ¾": 5900,
      "Ġargument": 5901,
      "Ġanywhere": 5902,
      "Alles": 5903,
      "Ġdenkt": 5904,
      "èĪ": 5905,
      "Ġsoms": 5906,
      "Ġduur": 5907,
      "ette": 5908,
      "ĠAir": 5909,
      "ĠBru": 5910,
      "ä¸ļ": 5911,
      "ensive": 5912,
      "Ġprincip": 5913,
      "Ġ2004": 5914,
      "ashion": 5915,
      "Ġvandaag": 5916,
      "é©¬": 5917,
      "kele": 5918,
      "tr": 5919,
      "Ġforth": 5920,
      "ĠCome": 5921,
      "akker": 5922,
      "ephone": 5923,
      "Bob": 5924,
      "Ġdig": 5925,
      "Ġlines": 5926,
      "Ġvog": 5927,
      "Ġeiw": 5928,
      "icated": 5929,
      "Ġren": 5930,
      "Ġrough": 5931,
      "ĠBund": 5932,
      "Ġareas": 5933,
      "athol": 5934,
      "Ġopening": 5935,
      "åĨĽ": 5936,
      "Ġvrienden": 5937,
      "Ġpas": 5938,
      "Ġloss": 5939,
      "ammy": 5940,
      "ella": 5941,
      "those": 5942,
      "gency": 5943,
      "ãĢģ": 5944,
      "Ġontmo": 5945,
      "Ġmovement": 5946,
      "Ġdinosaur": 5947,
      "Our": 5948,
      "iens": 5949,
      "ĠÃ": 5950,
      "ety": 5951,
      "Ġthus": 5952,
      "Ġweather": 5953,
      "aud": 5954,
      "istan": 5955,
      "osh": 5956,
      "ATOR": 5957,
      "Ġtells": 5958,
      "Ġcolors": 5959,
      "Ġcampaign": 5960,
      "Ġcommunity": 5961,
      "Ġarrived": 5962,
      "ĠAre": 5963,
      "illa": 5964,
      "apa": 5965,
      "sych": 5966,
      "Mommy": 5967,
      "Ġ..": 5968,
      "ĠWhere": 5969,
      "berry": 5970,
      "Ġsnake": 5971,
      "Ġstrugg": 5972,
      "ĠFlor": 5973,
      "Ġmunicipality": 5974,
      "Kan": 5975,
      "bare": 5976,
      "Ġå°±": 5977,
      "Ġdrew": 5978,
      "Ġcouncil": 5979,
      "Ġcensus": 5980,
      "igde": 5981,
      "keep": 5982,
      "ĠDem": 5983,
      "uses": 5984,
      "ables": 5985,
      "Ġevidence": 5986,
      "Ġdevelopment": 5987,
      "çĻ½": 5988,
      "æīĢä»¥": 5989,
      "Ġtaste": 5990,
      "Laten": 5991,
      "vies": 5992,
      "Ġtro": 5993,
      "cean": 5994,
      "Ġallow": 5995,
      "Ġbutton": 5996,
      "itte": 5997,
      "ĠIts": 5998,
      "raagd": 5999,
      "åı¯èĥ½": 6000,
      "Ġcompletely": 6001,
      "ç¬¬": 6002,
      "ç¾İ": 6003,
      "make": 6004,
      "wijl": 6005,
      "zil": 6006,
      "è¥¿": 6007,
      "Ġding": 6008,
      "ĠSov": 6009,
      "eeuw": 6010,
      "Ġhuge": 6011,
      "Ġphot": 6012,
      "Ġprobleem": 6013,
      "è¿ĺæľī": 6014,
      "Ġpulled": 6015,
      "ky": 6016,
      "win": 6017,
      "ente": 6018,
      "ĠHere": 6019,
      "Ġsugar": 6020,
      "Ġtweed": 6021,
      "iode": 6022,
      "Ġcourt": 6023,
      "Ġsinger": 6024,
      "Ġpicks": 6025,
      "making": 6026,
      "tjes": 6027,
      "Ġpil": 6028,
      "Ġthrew": 6029,
      "otte": 6030,
      "Ġzat": 6031,
      "Ġverv": 6032,
      "Ġwatched": 6033,
      "å°Ĩ": 6034,
      "Ġpolic": 6035,
      "æĸĩ": 6036,
      "COL": 6037,
      "ĠAss": 6038,
      "inda": 6039,
      "ĠFirst": 6040,
      "cles": 6041,
      "Ġgenerally": 6042,
      "Ġoccup": 6043,
      "OM": 6044,
      "hest": 6045,
      "Ġwake": 6046,
      "Ġsides": 6047,
      "Ġsoorten": 6048,
      "itie": 6049,
      "itter": 6050,
      "Ġonto": 6051,
      "Ġzuur": 6052,
      "oland": 6053,
      "Ġmole": 6054,
      "ĠRose": 6055,
      "plant": 6056,
      "Ġstarting": 6057,
      "Ġrivier": 6058,
      "Maak": 6059,
      "oved": 6060,
      "èĻ": 6061,
      "Ġroof": 6062,
      "ĠMat": 6063,
      "...?": 6064,
      "oseph": 6065,
      "Ġcontract": 6066,
      "Ġtrip": 6067,
      "Ġearlier": 6068,
      "gress": 6069,
      "oned": 6070,
      "Ġpad": 6071,
      "Ġjack": 6072,
      "ĠMichael": 6073,
      "Ġnote": 6074,
      "Ġrob": 6075,
      "ĠPatty": 6076,
      "Ġjuiste": 6077,
      "Ġsuggested": 6078,
      "Ġbetekent": 6079,
      "IC": 6080,
      "Ġkijk": 6081,
      "elle": 6082,
      "rich": 6083,
      "Ġobviously": 6084,
      "Ġgebeurd": 6085,
      "ummie": 6086,
      "Ġresearch": 6087,
      "Ġredu": 6088,
      "INVEST": 6089,
      "blad": 6090,
      "Ġkunst": 6091,
      "åĵª": 6092,
      "Ġsilver": 6093,
      "IGATOR": 6094,
      "ĠAcademy": 6095,
      "INVESTIGATOR": 6096,
      "El": 6097,
      "iance": 6098,
      "sters": 6099,
      "ĠMany": 6100,
      "ĠLat": 6101,
      "Ġended": 6102,
      "Ġsymb": 6103,
      "Ġmissed": 6104,
      "ification": 6105,
      "Ġelectric": 6106,
      "fessor": 6107,
      "Ġquarter": 6108,
      "''": 6109,
      "fin": 6110,
      "Ġtoil": 6111,
      "ä¸ĩ": 6112,
      "ĠJane": 6113,
      "Ġslide": 6114,
      "Ġunless": 6115,
      "Ġexpected": 6116,
      "Ġarticle": 6117,
      "Ġwoods": 6118,
      "Ġgehad": 6119,
      "URS": 6120,
      "mans": 6121,
      "won": 6122,
      "çĮ": 6123,
      "onse": 6124,
      "Ġnomin": 6125,
      "Ġemer": 6126,
      "Ġwearing": 6127,
      "uno": 6128,
      "Ġ190": 6129,
      "Ġproud": 6130,
      "Ġcheer": 6131,
      "Ġmostly": 6132,
      "ĠJean": 6133,
      "Ġliggen": 6134,
      "Ġmoeilijk": 6135,
      "Ġach": 6136,
      "icans": 6137,
      "Ġzowel": 6138,
      "Ġdoc": 6139,
      "ĠAward": 6140,
      "Ġlips": 6141,
      "ĠLittle": 6142,
      "shire": 6143,
      "Ġlights": 6144,
      "Ġprivate": 6145,
      "enny": 6146,
      "Ġsumm": 6147,
      "ita": 6148,
      "Ġhill": 6149,
      "Ġfaith": 6150,
      "Ġleren": 6151,
      "oted": 6152,
      "Ġzon": 6153,
      "ĠMic": 6154,
      "outs": 6155,
      "Ġfounded": 6156,
      "Ġweergegeven": 6157,
      "Ġcollect": 6158,
      "Ġhonest": 6159,
      "VE": 6160,
      "dad": 6161,
      "ç¨": 6162,
      "éª": 6163,
      "ero": 6164,
      "Ġles": 6165,
      "ĠAzerbaijan": 6166,
      "ĠMaster": 6167,
      "ĠEarth": 6168,
      "Ġgrown": 6169,
      "Ġagree": 6170,
      "å®Į": 6171,
      "athan": 6172,
      "Ġsupper": 6173,
      "Ġmountains": 6174,
      "Ġescape": 6175,
      "Ġpuppet": 6176,
      "elet": 6177,
      "Ġvij": 6178,
      "ĠHigh": 6179,
      "ĠPri": 6180,
      "Ġplain": 6181,
      "Ġbackground": 6182,
      "åĵ¥": 6183,
      "Ġexplain": 6184,
      "ĠDoctor": 6185,
      "ĠbacteriÃ«n": 6186,
      "Ġnecessary": 6187,
      "Ġhouses": 6188,
      "Ġimmediately": 6189,
      "Ġtight": 6190,
      "ishes": 6191,
      "Ġcel": 6192,
      "Ġeleven": 6193,
      "åĪļ": 6194,
      "Ġsurv": 6195,
      "Ġexcited": 6196,
      "slag": 6197,
      "Ġannounced": 6198,
      "Ġnursery": 6199,
      "Help": 6200,
      "arc": 6201,
      "ieu": 6202,
      "Ġstret": 6203,
      "Ġshoulder": 6204,
      "annel": 6205,
      "å§Ĳ": 6206,
      "aymond": 6207,
      "23": 6208,
      "ores": 6209,
      "ona": 6210,
      "Ġpath": 6211,
      "enth": 6212,
      "Ġ2005": 6213,
      "Ġklas": 6214,
      "Ġsteps": 6215,
      "kin": 6216,
      "atten": 6217,
      "Ġstraw": 6218,
      "Ġmovies": 6219,
      "Ġrol": 6220,
      "Ġsmoke": 6221,
      "Ġdollar": 6222,
      "Ġofficers": 6223,
      "ĠKenyon": 6224,
      "ville": 6225,
      "å¨": 6226,
      "ini": 6227,
      "Ġstre": 6228,
      "ĠTheir": 6229,
      "ounds": 6230,
      "çļĦäºº": 6231,
      "actually": 6232,
      "Ġscene": 6233,
      "Ġsmart": 6234,
      "ibility": 6235,
      "Ġveil": 6236,
      "Ġhurry": 6237,
      "Ġavail": 6238,
      "\"'": 6239,
      "sil": 6240,
      "Ġcart": 6241,
      "enden": 6242,
      "aine": 6243,
      "Ġbye": 6244,
      "Ġarrest": 6245,
      "Ġzoeken": 6246,
      "Ġscream": 6247,
      "Ġstudio": 6248,
      "Ġideas": 6249,
      "bird": 6250,
      "wat": 6251,
      "Ġharm": 6252,
      "Ġpijn": 6253,
      "Ġheat": 6254,
      "Ġrot": 6255,
      "Ġspread": 6256,
      "åı«": 6257,
      "every": 6258,
      "ĠpatiÃ«nt": 6259,
      "Ġchocolate": 6260,
      "huis": 6261,
      "zicht": 6262,
      "Ġcy": 6263,
      "arily": 6264,
      "usion": 6265,
      "wez": 6266,
      "ĠFrom": 6267,
      "ĠUncle": 6268,
      "Ġversion": 6269,
      "Ġkrijg": 6270,
      "Ġgrootste": 6271,
      "Ġlistening": 6272,
      "Ġpurpose": 6273,
      "onge": 6274,
      "Ġchoose": 6275,
      "Ġgevoel": 6276,
      "Ã¯n": 6277,
      "çĲĥ": 6278,
      "Ġlucky": 6279,
      "]!": 6280,
      "Ġtv": 6281,
      "aly": 6282,
      "ĠAB": 6283,
      "Ġknife": 6284,
      "ĠOld": 6285,
      "Ġleid": 6286,
      "Ġtrem": 6287,
      "Ġlocated": 6288,
      "Ġbloody": 6289,
      "Ġneemt": 6290,
      "Ġsociety": 6291,
      "åĹ¯": 6292,
      "pa": 6293,
      "orough": 6294,
      "istry": 6295,
      "Ġleer": 6296,
      "ä½ı": 6297,
      "Ġzoveel": 6298,
      "Ġuniversity": 6299,
      "Ġeasily": 6300,
      "ena": 6301,
      "Ġcijf": 6302,
      "Ġgang": 6303,
      "Ġkamer": 6304,
      "istics": 6305,
      "Ġtwice": 6306,
      "Ġrights": 6307,
      "Ġgeloof": 6308,
      "éļ¾": 6309,
      "ĠEgypt": 6310,
      "LA": 6311,
      "NN": 6312,
      "Ġtar": 6313,
      "Ġwoon": 6314,
      "Ġkracht": 6315,
      "Ġrail": 6316,
      "oking": 6317,
      "Ġvoort": 6318,
      "ĠFranc": 6319,
      "æĿ¥äºĨ": 6320,
      "Ġawful": 6321,
      "Mrs": 6322,
      "Ġsacr": 6323,
      "Ġtweede": 6324,
      "Ġtaught": 6325,
      "Ġyer": 6326,
      "igan": 6327,
      "ĠBet": 6328,
      "ĠGro": 6329,
      "izza": 6330,
      "è°ģ": 6331,
      "CAT": 6332,
      "Ġdelen": 6333,
      "orden": 6334,
      "Ġbeer": 6335,
      "Ġrare": 6336,
      "raft": 6337,
      "Ġplenty": 6338,
      "ĠRon": 6339,
      "Ġpleasure": 6340,
      "Ġdaarna": 6341,
      "puts": 6342,
      "Ġgevraagd": 6343,
      "ĠJeff": 6344,
      "Ġtie": 6345,
      "Ġsour": 6346,
      "Ġdicht": 6347,
      "Ġbike": 6348,
      "Ġcrew": 6349,
      "Ġcraw": 6350,
      "chan": 6351,
      "Ġstom": 6352,
      "essed": 6353,
      "Ġgenoemd": 6354,
      "Ġmistake": 6355,
      "Ġdangerous": 6356,
      "å·²ç»ı": 6357,
      "Got": 6358,
      "houd": 6359,
      "rekken": 6360,
      "Ġsterk": 6361,
      "urity": 6362,
      "ĠAct": 6363,
      "Ġshoe": 6364,
      "geant": 6365,
      "Ġspell": 6366,
      "ĠUit": 6367,
      "åĳĬ": 6368,
      "Ġziekte": 6369,
      "Ġbrengen": 6370,
      "Ooh": 6371,
      "dog": 6372,
      "å©": 6373,
      "Ġwand": 6374,
      "Ġduidelijk": 6375,
      "aked": 6376,
      "Ġshirt": 6377,
      "ĠRalph": 6378,
      "ĠJoe": 6379,
      "åıĺ": 6380,
      "Ġregular": 6381,
      "Ġfourth": 6382,
      "çĪ±": 6383,
      "Ġfixed": 6384,
      "Ġholiday": 6385,
      "Ġempty": 6386,
      "Ġdezelfde": 6387,
      "ĠSal": 6388,
      "Ġrange": 6389,
      "Ġorde": 6390,
      "beren": 6391,
      "ephen": 6392,
      "icked": 6393,
      "Ġlog": 6394,
      "Ġunc": 6395,
      "Ġbeside": 6396,
      "Ġholds": 6397,
      "groep": 6398,
      "Ġaarde": 6399,
      "ç®Ĺ": 6400,
      "Ġmaterial": 6401,
      "Ġduty": 6402,
      "Sc": 6403,
      "Ġhut": 6404,
      "Ġhero": 6405,
      "Ġstam": 6406,
      "Ġamb": 6407,
      "Ġ31": 6408,
      "Ġraised": 6409,
      "Ġpractice": 6410,
      "ĠLaurie": 6411,
      "Ġutter": 6412,
      "Ġconcerned": 6413,
      "Ġcrowd": 6414,
      "Could": 6415,
      "sw": 6416,
      "ateg": 6417,
      "Ġkr": 6418,
      "sect": 6419,
      "Ġenorm": 6420,
      "ĠDis": 6421,
      "Ġteken": 6422,
      "Ġplek": 6423,
      "Ġexpand": 6424,
      "Ġelection": 6425,
      "Ġfilled": 6426,
      "asy": 6427,
      "ols": 6428,
      "ĠAtl": 6429,
      "Ġvliegt": 6430,
      "Ġtelephone": 6431,
      "éĶĻ": 6432,
      "ĠBrazil": 6433,
      "Ġoccasion": 6434,
      "40": 6435,
      "Toen": 6436,
      "hum": 6437,
      "lor": 6438,
      "Ġaward": 6439,
      "Ġleeft": 6440,
      "rokken": 6441,
      "ĠBart": 6442,
      "Ġsav": 6443,
      "äºĶ": 6444,
      "izing": 6445,
      "Ġhuid": 6446,
      "going": 6447,
      "ĠJimmie": 6448,
      "ĠMexico": 6449,
      "ju": 6450,
      "ners": 6451,
      "west": 6452,
      "zaam": 6453,
      "road": 6454,
      "anda": 6455,
      "ĠSalle": 6456,
      "ĠSarah": 6457,
      "ĠDick": 6458,
      "abet": 6459,
      "genomen": 6460,
      "Ġneedta": 6461,
      "åľº": 6462,
      "Ġalsof": 6463,
      "ANN": 6464,
      "åĪ°äºĨ": 6465,
      "Ġpencil": 6466,
      "âĮĭ": 6467,
      "Ġsurprised": 6468,
      "ĠItaly": 6469,
      "picks": 6470,
      "ators": 6471,
      "Ġpill": 6472,
      "ieur": 6473,
      "Ġstof": 6474,
      "iaal": 6475,
      "Ġactor": 6476,
      "ĠBrad": 6477,
      "Ġontde": 6478,
      "Ġfallen": 6479,
      "Ġdeveloped": 6480,
      "ĠItalian": 6481,
      "Ġmixed": 6482,
      "Ġinternational": 6483,
      "åĺĽ": 6484,
      "Ho": 6485,
      "rum": 6486,
      "Ġess": 6487,
      "ĠhÃ¨": 6488,
      "Ġgat": 6489,
      "ĠTor": 6490,
      "Ġrate": 6491,
      "Ġasso": 6492,
      "ops": 6493,
      "ulf": 6494,
      "Ġgras": 6495,
      "Ġwilling": 6496,
      "Neem": 6497,
      "Ġabsolutely": 6498,
      "Ġimagine": 6499,
      "Ġtradition": 6500,
      "ios": 6501,
      "zing": 6502,
      "Ġdiam": 6503,
      "Ġmama": 6504,
      "itation": 6505,
      "Ġfund": 6506,
      "Ġweak": 6507,
      "ria": 6508,
      "Ġgrowing": 6509,
      "ĠChurch": 6510,
      "Ġheads": 6511,
      "ontin": 6512,
      "Ġnormal": 6513,
      "Ġdeclared": 6514,
      "Ġbuck": 6515,
      "utch": 6516,
      "Ġhetzelfde": 6517,
      "Ġadvent": 6518,
      "ipper": 6519,
      "product": 6520,
      "ĠEdna": 6521,
      "Ġeigenlijk": 6522,
      "Ġteachers": 6523,
      "utenant": 6524,
      "ç¦": 6525,
      "Ġtien": 6526,
      "Ġweight": 6527,
      "ĠMax": 6528,
      "aging": 6529,
      "raf": 6530,
      "Ġshr": 6531,
      "ĠLy": 6532,
      "ĠFin": 6533,
      "Ġwriter": 6534,
      "azine": 6535,
      "æĢ»": 6536,
      "Ġ1990": 6537,
      "Ġstruct": 6538,
      "Ġapproach": 6539,
      "Ġswimming": 6540,
      "cries": 6541,
      "rad": 6542,
      "Ġmaat": 6543,
      "Ġthroat": 6544,
      "Ġlekker": 6545,
      "aga": 6546,
      "ĠDel": 6547,
      "Ġnotice": 6548,
      "Ġknowledge": 6549,
      "Ġbrush": 6550,
      "Ġusual": 6551,
      "Ġqual": 6552,
      "ĠâĮ": 6553,
      "çľŁçļĦ": 6554,
      "ĠQueen": 6555,
      "gent": 6556,
      "Ġancient": 6557,
      "illed": 6558,
      "Ġhandle": 6559,
      "ä¸Ģä¸ĭ": 6560,
      "looking": 6561,
      "Ġ2003": 6562,
      "Ġeasier": 6563,
      "Ġedge": 6564,
      "Ġbasis": 6565,
      "Ġparticularly": 6566,
      "Ġfifteen": 6567,
      "Ġfemale": 6568,
      "Ġzodat": 6569,
      "uf": 6570,
      "inig": 6571,
      "Ġwacht": 6572,
      "Ġmir": 6573,
      "Ġfant": 6574,
      "Ġpair": 6575,
      "Ġinqu": 6576,
      "ĠBessie": 6577,
      "ĠOK": 6578,
      "Ġperm": 6579,
      "Ġtitle": 6580,
      "bank": 6581,
      "isa": 6582,
      "Ġhulp": 6583,
      "organ": 6584,
      "Ġpin": 6585,
      "ston": 6586,
      "ĠKl": 6587,
      "Ġwaarin": 6588,
      "Ġbehand": 6589,
      "Ġkeeping": 6590,
      "Ġsettle": 6591,
      "Ed": 6592,
      "May": 6593,
      "Ġwanneer": 6594,
      "atives": 6595,
      "Ġdouble": 6596,
      "Ġhug": 6597,
      "Ġtoast": 6598,
      "Ġvir": 6599,
      "ĠEric": 6600,
      "isha": 6601,
      "Ġcarefully": 6602,
      "æŃ»": 6603,
      "Ġincluded": 6604,
      "ĠAND": 6605,
      "Nog": 6606,
      "counter": 6607,
      "hib": 6608,
      "ĠSus": 6609,
      "Ġexplained": 6610,
      "Ġevents": 6611,
      "Ġfigures": 6612,
      "è½¦": 6613,
      "ĠStonewell": 6614,
      "Ġchoice": 6615,
      "ç¡®": 6616,
      "ses": 6617,
      "wan": 6618,
      "Ġwink": 6619,
      "ouder": 6620,
      "Ġsna": 6621,
      "Ġox": 6622,
      "aries": 6623,
      "Ġfishing": 6624,
      "elingen": 6625,
      "ĠMac": 6626,
      "Ġenkele": 6627,
      "Ġgep": 6628,
      "ĠNin": 6629,
      "onday": 6630,
      "ĠSpanish": 6631,
      "Ma": 6632,
      "yal": 6633,
      "heart": 6634,
      "Ġcities": 6635,
      "Ġpour": 6636,
      "Ġveget": 6637,
      "amm": 6638,
      "Ġflight": 6639,
      "ucky": 6640,
      "Ġbits": 6641,
      "Ġinvestig": 6642,
      "Ġmentioned": 6643,
      "Bij": 6644,
      "çł": 6645,
      "Ġfault": 6646,
      "Ġvoll": 6647,
      "enten": 6648,
      "Ġ()": 6649,
      "Ġflag": 6650,
      "ointed": 6651,
      "Ġzwart": 6652,
      "ĠGrandma": 6653,
      "Ġdruk": 6654,
      "uyu": 6655,
      "Ġbother": 6656,
      "ourt": 6657,
      "æĢĿ": 6658,
      "ĠArmy": 6659,
      "Ġresponse": 6660,
      "ĠScotland": 6661,
      "oons": 6662,
      "vallen": 6663,
      "Ġtou": 6664,
      "Ġtheory": 6665,
      "ika": 6666,
      "ikuyu": 6667,
      "Ġopin": 6668,
      "ä½łçļĦ": 6669,
      "rijke": 6670,
      "Ġtelef": 6671,
      "Ġleading": 6672,
      "Ġhoeveelheid": 6673,
      "Ġrapid": 6674,
      "Ġtun": 6675,
      "Ġbunny": 6676,
      "esc": 6677,
      "Ġlange": 6678,
      "staande": 6679,
      "think": 6680,
      "Ġplans": 6681,
      "Ġmanner": 6682,
      "ĠChild": 6683,
      "Ġ60": 6684,
      "komt": 6685,
      "Ġmodel": 6686,
      "Ġavailable": 6687,
      "bro": 6688,
      "eur": 6689,
      "lie": 6690,
      "isn": 6691,
      "Ġpor": 6692,
      "Ġstairs": 6693,
      "iken": 6694,
      "Ġsake": 6695,
      "Ġuncle": 6696,
      "Ġaccording": 6697,
      "ĠAfrican": 6698,
      "Ġprepared": 6699,
      "Ste": 6700,
      "could": 6701,
      "cream": 6702,
      "Ġtum": 6703,
      "Ġdomin": 6704,
      "vey": 6705,
      "sequ": 6706,
      "ĠDun": 6707,
      "Ġlev": 6708,
      "weer": 6709,
      "Ġdownstairs": 6710,
      "ugg": 6711,
      "ords": 6712,
      "host": 6713,
      "Ġcalls": 6714,
      "achter": 6715,
      "Ġbegins": 6716,
      "ĠMaria": 6717,
      "Ġmonster": 6718,
      "zocht": 6719,
      "III": 6720,
      "Ġsuccessful": 6721,
      "ĠRichard": 6722,
      "Fuck": 6723,
      "gem": 6724,
      "su": 6725,
      "heen": 6726,
      "ences": 6727,
      "lly": 6728,
      "Ġjour": 6729,
      "ĠTex": 6730,
      "Ġknee": 6731,
      "Ġshown": 6732,
      "Ġplants": 6733,
      "quar": 6734,
      "Ġfeest": 6735,
      "Ġaanwez": 6736,
      "ä¸įèĥ½": 6737,
      "ighs": 6738,
      "Ġ189": 6739,
      "Ġklim": 6740,
      "Ġrestaur": 6741,
      "enschap": 6742,
      "Ġrelationship": 6743,
      "Ġtoilet": 6744,
      "25": 6745,
      "Never": 6746,
      "æ·": 6747,
      "itely": 6748,
      "etch": 6749,
      "Ġhello": 6750,
      "steem": 6751,
      "ĠMal": 6752,
      "Ġactress": 6753,
      "Ġcrime": 6754,
      "Ġdriver": 6755,
      "ĠScott": 6756,
      "Ġdollars": 6757,
      "Ġshouted": 6758,
      "atory": 6759,
      "Ġcousin": 6760,
      "Ġpants": 6761,
      "Ġinj": 6762,
      "Ġrevol": 6763,
      "iland": 6764,
      "ä¸İ": 6765,
      "oses": 6766,
      "Ġprice": 6767,
      "Ġgevaar": 6768,
      "è®°": 6769,
      "Ġverdw": 6770,
      "Ġuitspraken": 6771,
      "Ġvictim": 6772,
      "Ġbowl": 6773,
      "Che": 6774,
      "ka": 6775,
      "vaten": 6776,
      "Ġ/": 6777,
      "Ġnation": 6778,
      "Ġmeal": 6779,
      "ĠAust": 6780,
      "ĠCam": 6781,
      "Ġterrit": 6782,
      "å®ī": 6783,
      "Ġnewsp": 6784,
      "Ġcentre": 6785,
      "199": 6786,
      "ĠBelg": 6787,
      "amin": 6788,
      "ĠMount": 6789,
      "Ġgoin": 6790,
      "indelijk": 6791,
      "Ġnovel": 6792,
      "Ġsaved": 6793,
      "Ġelected": 6794,
      "åĲĳ": 6795,
      "Ġourselves": 6796,
      "Ġpleasant": 6797,
      "Ġsurface": 6798,
      "Ġfellows": 6799,
      "éĹ¨": 6800,
      "Ġrule": 6801,
      "æķ°": 6802,
      "åĸľæ¬¢": 6803,
      "First": 6804,
      "bon": 6805,
      "rot": 6806,
      "éľ": 6807,
      "Ġbom": 6808,
      "Ġbump": 6809,
      "Ġhm": 6810,
      "Ġhar": 6811,
      "ifice": 6812,
      "Ġalarm": 6813,
      "osten": 6814,
      "ĠFriday": 6815,
      "åħī": 6816,
      "Ġacqu": 6817,
      "Ġsurround": 6818,
      "æŃ¤": 6819,
      "ĠRoyal": 6820,
      "ĠRepublic": 6821,
      "Ġcandid": 6822,
      "viron": 6823,
      "Kl": 6824,
      "nic": 6825,
      "rie": 6826,
      "Ġwachten": 6827,
      "Ġner": 6828,
      "Ġkap": 6829,
      "Ġzin": 6830,
      "ĠSen": 6831,
      "ples": 6832,
      "Ġphil": 6833,
      "Ġclimb": 6834,
      "Ġjumped": 6835,
      "Ġelder": 6836,
      "Gen": 6837,
      "mine": 6838,
      "ç¤": 6839,
      "Ġnut": 6840,
      "Ġkee": 6841,
      "Ġdey": 6842,
      "Ġstock": 6843,
      "alled": 6844,
      "æĪĺ": 6845,
      "Ġteams": 6846,
      "åĵĪ": 6847,
      "ĠBritain": 6848,
      "âĮī": 6849,
      "schijnlijk": 6850,
      "Ph": 6851,
      "iation": 6852,
      "jo": 6853,
      "ns": 6854,
      "va": 6855,
      "é»": 6856,
      "Ġtal": 6857,
      "Ġsen": 6858,
      "Ġbin": 6859,
      "Ġpsych": 6860,
      "Ġverg": 6861,
      "Ġspeech": 6862,
      "ĠVirgin": 6863,
      "erences": 6864,
      "Ġprevent": 6865,
      "iverse": 6866,
      "whoops": 6867,
      "Ġåĵ": 6868,
      "ĠIsland": 6869,
      "Ġshopping": 6870,
      "ministr": 6871,
      "Ind": 6872,
      "aire": 6873,
      "æ»": 6874,
      "Ġaver": 6875,
      "ĠokÃ©": 6876,
      "itz": 6877,
      "Ġfashion": 6878,
      "Ġinit": 6879,
      "Ġvet": 6880,
      "Ġvalt": 6881,
      "Ġkool": 6882,
      "Ġspoken": 6883,
      "Ġsail": 6884,
      "ĠChief": 6885,
      "Ġzoek": 6886,
      "Ġfinding": 6887,
      "Ġ188": 6888,
      "nemen": 6889,
      "sen": 6890,
      "incess": 6891,
      "icles": 6892,
      "ĠCook": 6893,
      "ellent": 6894,
      "ĠPal": 6895,
      "aws": 6896,
      "Ġluister": 6897,
      "Ġcookie": 6898,
      "Ġbrain": 6899,
      "Ġbrave": 6900,
      "Ġepis": 6901,
      "Ġkreeg": 6902,
      "Zijn": 6903,
      "lam": 6904,
      "Ġtid": 6905,
      "ĠIr": 6906,
      "Ġgoat": 6907,
      "ems": 6908,
      "Ġoverle": 6909,
      "Ġaged": 6910,
      "ĠNederlandse": 6911,
      "ĠPeople": 6912,
      "Ġnatuurlijk": 6913,
      "ä»Ĭå¤©": 6914,
      "Ġcrayon": 6915,
      "Ġtongue": 6916,
      "pat": 6917,
      "ata": 6918,
      "atoes": 6919,
      "Ġjoy": 6920,
      "inden": 6921,
      "Ġervan": 6922,
      "ĠRec": 6923,
      "Ġexec": 6924,
      "ĠHey": 6925,
      "Ġzeer": 6926,
      "Ġremain": 6927,
      "Ġpleased": 6928,
      "Ġsixty": 6929,
      "Ġbescher": 6930,
      "Ġdirector": 6931,
      "Ġcollege": 6932,
      "ADU": 6933,
      "his": 6934,
      "ji": 6935,
      "Ġtiger": 6936,
      "Ġdom": 6937,
      "Ġdik": 6938,
      "Ġmond": 6939,
      "elled": 6940,
      "Ġboot": 6941,
      "Ġomge": 6942,
      "iano": 6943,
      "elebr": 6944,
      "Ġbroer": 6945,
      "Ġweekend": 6946,
      "ĠChristian": 6947,
      "éĢļ": 6948,
      "Ġmessage": 6949,
      "Ġguns": 6950,
      "Ġstruck": 6951,
      "Ġsandwich": 6952,
      "Ġcondition": 6953,
      "Denk": 6954,
      "Jim": 6955,
      "cut": 6956,
      "dro": 6957,
      "ibr": 6958,
      "pop": 6959,
      "sure": 6960,
      "uz": 6961,
      "Ġtabel": 6962,
      "Ġodd": 6963,
      "Ġboo": 6964,
      "Ġmale": 6965,
      "ĠDay": 6966,
      "ushes": 6967,
      "Ġcancer": 6968,
      "ĠOnder": 6969,
      "Ġsmaller": 6970,
      "Ġcentral": 6971,
      "ĠEdward": 6972,
      "Ġbiolog": 6973,
      "Ġnieuws": 6974,
      "kig": 6975,
      "enuw": 6976,
      "Ġdier": 6977,
      "orp": 6978,
      "urry": 6979,
      "ĠDist": 6980,
      "Ġmeter": 6981,
      "uhuh": 6982,
      "blue": 6983,
      "åıĭ": 6984,
      "Ġbenef": 6985,
      "Ġnummer": 6986,
      "éĩı": 6987,
      "Ġseconds": 6988,
      "Ġlangs": 6989,
      "Ġstudents": 6990,
      "Ġgentleman": 6991,
      "Nie": 6992,
      "OS": 6993,
      "Vol": 6994,
      "takes": 6995,
      "inger": 6996,
      "Ġkru": 6997,
      "Ġregen": 6998,
      "acon": 6999,
      "ĠRome": 7000,
      "Ġunivers": 7001,
      "Ġkinds": 7002,
      "ç»ĵ": 7003,
      "Ġvoet": 7004,
      "å¸Ī": 7005,
      "ĠSchrijf": 7006,
      "Ġtransport": 7007,
      "Ġprotest": 7008,
      "Ġoorz": 7009,
      "ĠRussian": 7010,
      "ournal": 7011,
      "People": 7012,
      "Ġrisk": 7013,
      "ĠAmy": 7014,
      "aka": 7015,
      "Ġmyster": 7016,
      "ĠEmp": 7017,
      "weet": 7018,
      "Ġslag": 7019,
      "Ġruns": 7020,
      "Ġenter": 7021,
      "Echt": 7022,
      "ials": 7023,
      "Ġgift": 7024,
      "icate": 7025,
      "ĠSummer": 7026,
      "ĠDep": 7027,
      "ĠRuth": 7028,
      "Ġappre": 7029,
      "ooth": 7030,
      "Ġpapa": 7031,
      "ĠGeorg": 7032,
      "Ġappearance": 7033,
      "Ġgevolg": 7034,
      "Eleanor": 7035,
      "MEL": 7036,
      "ym": 7037,
      "å¢": 7038,
      "Ġobl": 7039,
      "Ġmor": 7040,
      "Ġnurse": 7041,
      "omed": 7042,
      "Ġevolution": 7043,
      "Ġbevol": 7044,
      "Ġweinig": 7045,
      "irl": 7046,
      "ĠMed": 7047,
      "ĠPur": 7048,
      "ĠParliament": 7049,
      "Ġlezen": 7050,
      "ension": 7051,
      "leden": 7052,
      "Ġmaag": 7053,
      "Ġmission": 7054,
      "Ġuitspraak": 7055,
      "Kun": 7056,
      "bra": 7057,
      "Ġbark": 7058,
      "ĠIII": 7059,
      "adi": 7060,
      "Ġrow": 7061,
      "asty": 7062,
      "ĠOkay": 7063,
      "åı£": 7064,
      "Ġstayed": 7065,
      "éĥ½æĺ¯": 7066,
      "Ġmicrophone": 7067,
      "Jack": 7068,
      "lk": 7069,
      "ogen": 7070,
      "sorry": 7071,
      "aning": 7072,
      "itor": 7073,
      "ispers": 7074,
      "edereen": 7075,
      "Ġnarrow": 7076,
      "Ġstyle": 7077,
      "Ġneither": 7078,
      "Ġvoorkomen": 7079,
      "Ġafford": 7080,
      "Ġgoodness": 7081,
      "Thomas": 7082,
      "schap": 7083,
      "ĠSpain": 7084,
      "Ġaddition": 7085,
      "romos": 7086,
      "ĠAustralian": 7087,
      "bar": 7088,
      "lin": 7089,
      "Ġbat": 7090,
      "Ġlif": 7091,
      "Ġdemon": 7092,
      "Ġmeasure": 7093,
      "ĠChampionship": 7094,
      "Ġvoel": 7095,
      "Ġdecision": 7096,
      "Ġservices": 7097,
      "Ġladies": 7098,
      "Ġveroorzaakt": 7099,
      "ĠConfeder": 7100,
      "Put": 7101,
      "nis": 7102,
      "och": 7103,
      "çª": 7104,
      "Ġtim": 7105,
      "agement": 7106,
      "Ġasp": 7107,
      "Ġnoticed": 7108,
      "ATT": 7109,
      "Ġclown": 7110,
      "ccording": 7111,
      "Ġdism": 7112,
      "Ġinterview": 7113,
      "ossible": 7114,
      "åĳĺ": 7115,
      "Ġcenter": 7116,
      "Ġechte": 7117,
      "Ġpromised": 7118,
      "Ġorders": 7119,
      "ĠGovernment": 7120,
      "Perhaps": 7121,
      "known": 7122,
      "Ġopportunity": 7123,
      "vironment": 7124,
      ":\"": 7125,
      "case": 7126,
      "fly": 7127,
      "little": 7128,
      "Ġsite": 7129,
      "ĠGreek": 7130,
      "Ġeverywhere": 7131,
      "Ġbeginnen": 7132,
      "Ġsnap": 7133,
      "Ġ2002": 7134,
      "Ġcomplete": 7135,
      "Ġvakantie": 7136,
      "Ġfirm": 7137,
      ".)": 7138,
      "hab": 7139,
      "¦Ĥ": 7140,
      "çĸ": 7141,
      "éĵ": 7142,
      "Ġheaven": 7143,
      "Ġris": 7144,
      "Ġmob": 7145,
      "Ġproberen": 7146,
      "åı¸": 7147,
      "should": 7148,
      "Ġproblemen": 7149,
      "Ġpossibly": 7150,
      "éĿŀ": 7151,
      "Ġevil": 7152,
      "Ġofficial": 7153,
      "cr": 7154,
      "try": 7155,
      "Ġgere": 7156,
      "Ġzout": 7157,
      "Ġzenuw": 7158,
      "throw": 7159,
      "Ġvoordat": 7160,
      "ĠKim": 7161,
      "Ġresist": 7162,
      "Ġ187": 7163,
      "Ġballs": 7164,
      "Ġdise": 7165,
      "esch": 7166,
      "Ġfaces": 7167,
      "Ġvanaf": 7168,
      "Ġmeteen": 7169,
      "Ġflower": 7170,
      "Ġhanden": 7171,
      "osta": 7172,
      "whisper": 7173,
      "Ġclearly": 7174,
      "ĠCanad": 7175,
      "Ġhighest": 7176,
      "Ġredenen": 7177,
      "ĠSecret": 7178,
      "Ġinsect": 7179,
      "otion": 7180,
      "ĠBest": 7181,
      "ĠNick": 7182,
      "Ġfrag": 7183,
      "Ġblo": 7184,
      "åĴ±": 7185,
      "åĮĸ": 7186,
      "Ġvraagt": 7187,
      "Ġactivity": 7188,
      "èĬ±": 7189,
      "Ġzuurstof": 7190,
      "AM": 7191,
      "Beg": 7192,
      "Say": 7193,
      "Ġwou": 7194,
      "Ġinfect": 7195,
      "stood": 7196,
      "iging": 7197,
      "ented": 7198,
      "Ġdoct": 7199,
      "ĠMen": 7200,
      "ĠCor": 7201,
      "Ġmoves": 7202,
      "ikel": 7203,
      "angle": 7204,
      "issa": 7205,
      "Ġschip": 7206,
      "Ġrecover": 7207,
      "Only": 7208,
      "Ġfairly": 7209,
      "Bel": 7210,
      "Paul": 7211,
      "cies": 7212,
      "ih": 7213,
      "pea": 7214,
      "uke": 7215,
      "Ġfoc": 7216,
      "Ġreasons": 7217,
      "ĠSandy": 7218,
      "antwoord": 7219,
      "okes": 7220,
      "Ġloves": 7221,
      "Ġremained": 7222,
      "Ġnative": 7223,
      "Ġpurple": 7224,
      "çĽ®": 7225,
      "äºĭåĦ¿": 7226,
      "Ġcalm": 7227,
      "Ġzetten": 7228,
      "silence": 7229,
      "Sir": 7230,
      "[.": 7231,
      "fall": 7232,
      "Ġfancy": 7233,
      "Ġpale": 7234,
      "Ġkitty": 7235,
      "icago": 7236,
      "Ġconv": 7237,
      "Ġboom": 7238,
      "ekijk": 7239,
      "Ġuitleg": 7240,
      "åıį": 7241,
      "ression": 7242,
      "è®¤": 7243,
      "Ġfilms": 7244,
      "æĹ¶éĹ´": 7245,
      "Ġartist": 7246,
      "Ġmidship": 7247,
      "ĠAmerikaanse": 7248,
      "ĠBruce": 7249,
      "21": 7250,
      "AY": 7251,
      "About": 7252,
      "aft": 7253,
      "boy": 7254,
      "delen": 7255,
      "Ġdank": 7256,
      "ira": 7257,
      "ĠGreen": 7258,
      "äºĨä¸Ģ": 7259,
      "Ġdancing": 7260,
      "Ġbegint": 7261,
      "Ġchest": 7262,
      "Ġevident": 7263,
      "Blijf": 7264,
      "æĽ´": 7265,
      "Ġestabl": 7266,
      "ocratic": 7267,
      "60": 7268,
      "Ġhi": 7269,
      "Ġnic": 7270,
      "omers": 7271,
      "Ġjam": 7272,
      "ĠHam": 7273,
      "Ġliber": 7274,
      "ĠLab": 7275,
      "icking": 7276,
      "after": 7277,
      "Ġcolour": 7278,
      "standig": 7279,
      "åŃ©åŃĲ": 7280,
      "ti": 7281,
      "uizen": 7282,
      "wij": 7283,
      "æħ": 7284,
      "Ġhoort": 7285,
      "lle": 7286,
      "Ġtoer": 7287,
      "Ġvallen": 7288,
      "acters": 7289,
      "achel": 7290,
      "ĠMist": 7291,
      "ĠMike": 7292,
      "Ġtext": 7293,
      "Ġmannet": 7294,
      "å¤Ħ": 7295,
      "volgens": 7296,
      "Ġprogramme": 7297,
      "Ġbepaald": 7298,
      "ĠSuper": 7299,
      "Ġkilomet": 7300,
      "itzer": 7301,
      "imp": 7302,
      "Ġmogen": 7303,
      "Ġverke": 7304,
      "ĠPost": 7305,
      "Ġmanaged": 7306,
      "ensen": 7307,
      "åĬŀ": 7308,
      "Ġdrinking": 7309,
      "è·¯": 7310,
      "Ġhoge": 7311,
      "åŁİ": 7312,
      "kle": 7313,
      "squ": 7314,
      "six": 7315,
      "Ã¤": 7316,
      "Ġta": 7317,
      "Ġsem": 7318,
      "recht": 7319,
      "Ġbos": 7320,
      "Ġcit": 7321,
      "Ġcards": 7322,
      "Ġheer": 7323,
      "Ġzes": 7324,
      "Ġreis": 7325,
      "ĠMost": 7326,
      "eau": 7327,
      "illiant": 7328,
      "opher": 7329,
      "ĠPolly": 7330,
      "Ġnoemen": 7331,
      "anker": 7332,
      "Ġalsjeblieft": 7333,
      "ĠHein": 7334,
      "Ġhelping": 7335,
      "ĠAndrew": 7336,
      "Ġrelated": 7337,
      "Ġ1980": 7338,
      "Ġgekomen": 7339,
      "Ġtyp": 7340,
      "Ġproperty": 7341,
      "Ġindustry": 7342,
      "ĠLouis": 7343,
      "ĠEuropa": 7344,
      "24": 7345,
      "Door": 7346,
      "ias": 7347,
      "Ġchat": 7348,
      "Ġvocal": 7349,
      "ĠMack": 7350,
      "ä¸ĸ": 7351,
      "Ġupset": 7352,
      "ĠGet": 7353,
      "acks": 7354,
      "ĠVict": 7355,
      "ilder": 7356,
      "Three": 7357,
      "show": 7358,
      "ĠBlunt": 7359,
      "Ġbringing": 7360,
      "Ġcontinue": 7361,
      "Ġlawyer": 7362,
      "RY": 7363,
      "Ġaer": 7364,
      "stad": 7365,
      "ĠHi": 7366,
      "ĠBird": 7367,
      "ĠDuits": 7368,
      "äº²": 7369,
      "ĠUk": 7370,
      "Ġcode": 7371,
      "ĠAmericans": 7372,
      "Ġshowing": 7373,
      "çľ¼": 7374,
      "Ġpainting": 7375,
      "Ġkeu": 7376,
      "Ġrepeated": 7377,
      "\"]": 7378,
      "gl": 7379,
      "hol": 7380,
      "Ġä¸Ģ": 7381,
      "Ġijs": 7382,
      "Ġwave": 7383,
      "Ġond": 7384,
      "Ġpred": 7385,
      "Ġloopt": 7386,
      "Ġinn": 7387,
      "ential": 7388,
      "ĠCongress": 7389,
      "eller": 7390,
      "Ġlied": 7391,
      "ĠJoseph": 7392,
      "Ġmetal": 7393,
      "Ġuses": 7394,
      "action": 7395,
      "åĲį": 7396,
      "Ġdrag": 7397,
      "while": 7398,
      "Ġintellig": 7399,
      "åĬł": 7400,
      "Ġaddress": 7401,
      "çŃĶ": 7402,
      "Ġproperly": 7403,
      "Ġpunten": 7404,
      "Aha": 7405,
      "Su": 7406,
      "bish": 7407,
      "nee": 7408,
      "sung": 7409,
      "uro": 7410,
      "Ġåľ¨": 7411,
      "Ġtent": 7412,
      "oning": 7413,
      "Ġcred": 7414,
      "Ġkol": 7415,
      "ications": 7416,
      "Ġstir": 7417,
      "ĠMonday": 7418,
      "ĠHun": 7419,
      "Ġworried": 7420,
      "äº§": 7421,
      "Ġblijkt": 7422,
      "odes": 7423,
      "åıĹ": 7424,
      "Ġcarrying": 7425,
      "Ġeaten": 7426,
      "ĠAndor": 7427,
      "Ġbecomes": 7428,
      "Ġsignific": 7429,
      "Frank": 7430,
      "æıĲ": 7431,
      "pill": 7432,
      "rans": 7433,
      "Ġå¥½": 7434,
      "Ġlap": 7435,
      "Ġschuld": 7436,
      "ĠYoung": 7437,
      "Ġresol": 7438,
      "59": 7439,
      "wing": 7440,
      "Ġcelebr": 7441,
      "Ġvote": 7442,
      "ilities": 7443,
      "ulty": 7444,
      "ĠRel": 7445,
      "ä»»": 7446,
      "Ġdoors": 7447,
      "æľĽ": 7448,
      "Ġactive": 7449,
      "oteer": 7450,
      "Ġfalls": 7451,
      "ä¹Łæĺ¯": 7452,
      "Ġrelease": 7453,
      "ĠProfessor": 7454,
      "Ġreported": 7455,
      "Ġpressure": 7456,
      "Ġprecies": 7457,
      "Ġdegree": 7458,
      ".[": 7459,
      "Hold": 7460,
      "wijk": 7461,
      "æĲ": 7462,
      "é¥": 7463,
      "reland": 7464,
      "Ġpak": 7465,
      "alea": 7466,
      "sex": 7467,
      "Ġeruit": 7468,
      "Ġtears": 7469,
      "Ġspreken": 7470,
      "Ġterwijl": 7471,
      "Ġwonen": 7472,
      "Ġsigned": 7473,
      "Ġreligious": 7474,
      "ĠInternational": 7475,
      "Con": 7476,
      "GER": 7477,
      "Ġmate": 7478,
      "ĠMur": 7479,
      "ĠMia": 7480,
      "aars": 7481,
      "Ġvanavond": 7482,
      "ĠRaymond": 7483,
      "ĠJew": 7484,
      "Ġterror": 7485,
      "Ġbelief": 7486,
      "Ġgenet": 7487,
      "inned": 7488,
      "åĳ½": 7489,
      "Ġpoet": 7490,
      "Ġfavour": 7491,
      "Ġforgotten": 7492,
      "Ġremarked": 7493,
      "KE": 7494,
      "OW": 7495,
      "zak": 7496,
      "enced": 7497,
      "isl": 7498,
      "Ġreck": 7499,
      "Ġproceed": 7500,
      "ipl": 7501,
      "Ġpartij": 7502,
      "Ġpartner": 7503,
      "Ġadvan": 7504,
      "ockey": 7505,
      "Ġgreater": 7506,
      "Ġfunction": 7507,
      "Ġordered": 7508,
      "Ġmemory": 7509,
      "ĠTurk": 7510,
      "ĠOlympics": 7511,
      "27": 7512,
      "best": 7513,
      "cos": 7514,
      "pull": 7515,
      "vrouw": 7516,
      "Ġtur": 7517,
      "ĠIreland": 7518,
      "Ġkonden": 7519,
      "Ġmeas": 7520,
      "ĠDar": 7521,
      "Ġvern": 7522,
      "ĠRoland": 7523,
      "Ġaangegeven": 7524,
      "Ġprevious": 7525,
      "Ġcontribut": 7526,
      "Ġfeelings": 7527,
      "Ġfarmer": 7528,
      "ĠIndians": 7529,
      "Ġshooting": 7530,
      "Ġfailed": 7531,
      "åħ¶å®ŀ": 7532,
      "Ġsettled": 7533,
      "Ġjourney": 7534,
      "Zie": 7535,
      "non": 7536,
      "part": 7537,
      "rid": 7538,
      "Ġdien": 7539,
      "Ġdread": 7540,
      "itan": 7541,
      "Ġpatter": 7542,
      "Ġinvent": 7543,
      "ĠSk": 7544,
      "ĠArab": 7545,
      "Ġmanager": 7546,
      "ects": 7547,
      "Ġdecide": 7548,
      "Ġproduction": 7549,
      "Ġwheels": 7550,
      "Ġexcuse": 7551,
      "enschapp": 7552,
      "Ġorganismen": 7553,
      "ĠTexas": 7554,
      "Na": 7555,
      "Te": 7556,
      "UT": 7557,
      "bin": 7558,
      "Ġpages": 7559,
      "Ġpaard": 7560,
      "oty": 7561,
      "Ġbeach": 7562,
      "imate": 7563,
      "ĠMer": 7564,
      "tering": 7565,
      "Ġcomment": 7566,
      "Ġboots": 7567,
      "ector": 7568,
      "toe": 7569,
      "Ġstands": 7570,
      "Ġproduce": 7571,
      "å¸®": 7572,
      "Before": 7573,
      "ĠSanta": 7574,
      "Helen": 7575,
      "US": 7576,
      "Vert": 7577,
      "Zij": 7578,
      "æĴ": 7579,
      "è±": 7580,
      "Ġsinds": 7581,
      "isher": 7582,
      "iform": 7583,
      "ĠDa": 7584,
      "ĠDid": 7585,
      "ĠEvery": 7586,
      "ĠVeren": 7587,
      "assing": 7588,
      "Those": 7589,
      "è¯·": 7590,
      "ĠZij": 7591,
      "Ġcurr": 7592,
      "Ġsilent": 7593,
      "Ġpatient": 7594,
      "ĠPlay": 7595,
      "Ġgarage": 7596,
      "bour": 7597,
      "Ġtip": 7598,
      "Ġwan": 7599,
      "Ġhorn": 7600,
      "umps": 7601,
      "Ġtrick": 7602,
      "ocks": 7603,
      "Ġgeworden": 7604,
      "éĩĳ": 7605,
      "Ġgeval": 7606,
      "Ġ1999": 7607,
      "Ġrecorder": 7608,
      "ä¿Ŀ": 7609,
      "Ġvalue": 7610,
      "ĠSmith": 7611,
      "ĠFlorida": 7612,
      "Moet": 7613,
      "hem": 7614,
      "omst": 7615,
      "ĠIS": 7616,
      "stuk": 7617,
      "igaret": 7618,
      "ĠDuring": 7619,
      "ĠRy": 7620,
      "aily": 7621,
      "Ġmagic": 7622,
      "èĢħ": 7623,
      "Ġcharacters": 7624,
      "ç®¡": 7625,
      "Ġkeeps": 7626,
      "bur": 7627,
      "Ġæľī": 7628,
      "Ġfout": 7629,
      "Ġpony": 7630,
      "strijd": 7631,
      "Ġwashing": 7632,
      "Ġwebs": 7633,
      "ĠST": 7634,
      "ĠBoy": 7635,
      "Ġshore": 7636,
      "ĠWas": 7637,
      "inding": 7638,
      "ĠNic": 7639,
      "about": 7640,
      "Ġexerc": 7641,
      "eps": 7642,
      "Ġdesp": 7643,
      "Alleen": 7644,
      "Ġfunct": 7645,
      "æĢķ": 7646,
      "Ġnaast": 7647,
      "Ġstudied": 7648,
      "Ġbrothers": 7649,
      "Ġprovince": 7650,
      "Ġvliegen": 7651,
      "Ġeinde": 7652,
      "Ġdescribed": 7653,
      "Omdat": 7654,
      "Ġastron": 7655,
      "Ġspeelt": 7656,
      "Ġinfluence": 7657,
      "Ġdiagram": 7658,
      "ç±": 7659,
      "Ġfac": 7660,
      "oma": 7661,
      "ĠRoss": 7662,
      "Ġsomewhat": 7663,
      "ä»¶": 7664,
      "ä¹°": 7665,
      "Ġthoughts": 7666,
      "Ġstoppen": 7667,
      "Ġbecoming": 7668,
      "æ¯ı": 7669,
      "Ġtypes": 7670,
      "Ġincludes": 7671,
      "Ġdivided": 7672,
      "fe": 7673,
      "zes": 7674,
      "æ¢": 7675,
      "Ġthin": 7676,
      "Ġprint": 7677,
      "ĠStephen": 7678,
      "Ġscrew": 7679,
      "Ġacting": 7680,
      "annah": 7681,
      "ãĢĤ\"": 7682,
      "Ġnucle": 7683,
      "Ġpolicy": 7684,
      "å¼ı": 7685,
      "Ġsucces": 7686,
      "Ġquietly": 7687,
      "æ¸ħ": 7688,
      "Ġteaching": 7689,
      "Act": 7690,
      "Rem": 7691,
      "nice": 7692,
      "Ġyum": 7693,
      "Ġeig": 7694,
      "Ġeerder": 7695,
      "Ġspel": 7696,
      "ĠOther": 7697,
      "Ġoffered": 7698,
      "ĠChicago": 7699,
      "actor": 7700,
      "Ġmuziek": 7701,
      "Ġinterrupt": 7702,
      "ĠAnna": 7703,
      "Ġlarger": 7704,
      "ä¹Łä¸į": 7705,
      "åı¯æĺ¯": 7706,
      "atuurlijk": 7707,
      "Ġencour": 7708,
      "ĠSoviet": 7709,
      "Bye": 7710,
      "oft": 7711,
      "Ġtor": 7712,
      "Ġbarn": 7713,
      "Ġgather": 7714,
      "Ġdozen": 7715,
      "ĠSqu": 7716,
      "Ġenvironment": 7717,
      "ĠNob": 7718,
      "oday": 7719,
      "ĠKikuyu": 7720,
      "plaats": 7721,
      "ĠBruno": 7722,
      "Ġcris": 7723,
      "ipping": 7724,
      "Ġgeloven": 7725,
      "ungle": 7726,
      "Ġkwamen": 7727,
      "Ġreply": 7728,
      "Ġmelk": 7729,
      "nesday": 7730,
      "è£": 7731,
      "Ġbug": 7732,
      "Ġgaf": 7733,
      "ading": 7734,
      "entie": 7735,
      "each": 7736,
      "gew": 7737,
      "Ġplus": 7738,
      "arsh": 7739,
      "ocr": 7740,
      "Ġresc": 7741,
      "Ġmarriage": 7742,
      "Ġdirectly": 7743,
      "ELL": 7744,
      "Ġissue": 7745,
      "coughs": 7746,
      "ients": 7747,
      "kant": 7748,
      "ĠTim": 7749,
      "ĠHot": 7750,
      "Ġjezelf": 7751,
      "Ġlibr": 7752,
      "Ġprogress": 7753,
      "Ġelement": 7754,
      "ouwd": 7755,
      "Ġtrail": 7756,
      "Fraser": 7757,
      "rika": 7758,
      "Ġliefde": 7759,
      "ĠTwo": 7760,
      "Ġopinion": 7761,
      "Sam": 7762,
      "cat": 7763,
      "Ġaim": 7764,
      "Ġdiss": 7765,
      "ili": 7766,
      "ĠBu": 7767,
      "ĠPak": 7768,
      "Ġworst": 7769,
      "Ġervoor": 7770,
      "ĠGold": 7771,
      "avi": 7772,
      "Ġbiggest": 7773,
      "Ġrecently": 7774,
      "Ġeighty": 7775,
      "äºĭæĥħ": 7776,
      "Ġlanguages": 7777,
      "Ġdamn": 7778,
      "åºĶè¯¥": 7779,
      "ç³»": 7780,
      "\"?": 7781,
      "Want": 7782,
      "lt": 7783,
      "tes": 7784,
      "uut": 7785,
      "ware": 7786,
      "Ġä½Ĩæĺ¯": 7787,
      "Ġax": 7788,
      "ingu": 7789,
      "Ġpizza": 7790,
      "otter": 7791,
      "igger": 7792,
      "ĠSea": 7793,
      "ĠWed": 7794,
      "Ġoverw": 7795,
      "Ġsmiled": 7796,
      "ederal": 7797,
      "éĤ£ä¹Ī": 7798,
      "Ġfired": 7799,
      "æĬ¥": 7800,
      "Ġliever": 7801,
      "éĻ¢": 7802,
      "Ġburied": 7803,
      "Ġmatches": 7804,
      "ĠHierdoor": 7805,
      "EC": 7806,
      "draw": 7807,
      "uil": 7808,
      "Ġduh": 7809,
      "Ġforced": 7810,
      "Ġrat": 7811,
      "Ġrang": 7812,
      "ĠHaw": 7813,
      "ĠWind": 7814,
      "Ġsocks": 7815,
      "äº¤": 7816,
      "aval": 7817,
      "Ġgreatest": 7818,
      "Ġfamilies": 7819,
      "Ġculture": 7820,
      "âĢķâĢķ": 7821,
      "Ġgradu": 7822,
      "iqu": 7823,
      "uart": 7824,
      "é¸": 7825,
      "Ġhook": 7826,
      "ĠIran": 7827,
      "Ġatm": 7828,
      "çļĦè¯Ŀ": 7829,
      "stein": 7830,
      "Ġ1970": 7831,
      "Ġhanging": 7832,
      "Ġrules": 7833,
      "Ġfeatures": 7834,
      "Ġindividual": 7835,
      "bet": 7836,
      "bie": 7837,
      "ca": 7838,
      "å²": 7839,
      "Ġavo": 7840,
      "erland": 7841,
      "Ġlit": 7842,
      "Ġstond": 7843,
      "Ġshake": 7844,
      "igned": 7845,
      "Ġcolon": 7846,
      "Ġmedia": 7847,
      "Alright": 7848,
      "Ġcontinues": 7849,
      "å½±": 7850,
      "æĭ¿": 7851,
      "Ġforever": 7852,
      "Ġdrove": 7853,
      "Ġadvant": 7854,
      "Ġfrequ": 7855,
      "fish": 7856,
      "ki": 7857,
      "long": 7858,
      "mers": 7859,
      "Ġ+": 7860,
      "ĠçĦ¶åĲİ": 7861,
      "Ġtrop": 7862,
      "Ġacht": 7863,
      "Ġwa": 7864,
      "Ġsouthern": 7865,
      "Ġfurn": 7866,
      "Ġyo": 7867,
      "Ġlatter": 7868,
      "stances": 7869,
      "Ġdebut": 7870,
      "Ġforms": 7871,
      "ĠCub": 7872,
      "Ġknowing": 7873,
      "ĠEleanor": 7874,
      "Ġsees": 7875,
      "çļĦæĺ¯": 7876,
      "--\"": 7877,
      "Ġwaarbij": 7878,
      "Ġcontain": 7879,
      "Ġcrash": 7880,
      "Ġtotally": 7881,
      "Ġbehulp": 7882,
      "Ġmaanden": 7883,
      "Ġgezond": 7884,
      "Ġemb": 7885,
      "voer": 7886,
      "Christ": 7887,
      "Ġaware": 7888,
      "Ġbeauty": 7889,
      "Ġapparently": 7890,
      "Ġaverage": 7891,
      "Great": 7892,
      "Iedereen": 7893,
      "rick": 7894,
      "Ġwolf": 7895,
      "Ġdare": 7896,
      "itar": 7897,
      "Ġfence": 7898,
      "Ġnorthern": 7899,
      "Ġstroom": 7900,
      "Ġsuc": 7901,
      "Ġfeels": 7902,
      "place": 7903,
      "Ġserve": 7904,
      "Ġwalks": 7905,
      "Ġ1994": 7906,
      "Ġmarry": 7907,
      "æ¯į": 7908,
      "Ġspecific": 7909,
      "Ġbathroom": 7910,
      "éĺŁ": 7911,
      "å£°": 7912,
      "BO": 7913,
      "IV": 7914,
      "TRA": 7915,
      "houden": 7916,
      "rift": 7917,
      "walk": 7918,
      "Ġsau": 7919,
      "orter": 7920,
      "Ġfought": 7921,
      "Ġeiland": 7922,
      "adow": 7923,
      "Ġjigs": 7924,
      "Ġstik": 7925,
      "Ġlies": 7926,
      "Ġverst": 7927,
      "ĠLin": 7928,
      "Ġcommer": 7929,
      "ĠHeb": 7930,
      "Ġotherwise": 7931,
      "Ġcoach": 7932,
      "ä¸Ģæł·": 7933,
      "ä¸Ģèµ·": 7934,
      "uckles": 7935,
      "Ġbedo": 7936,
      "Ġvertrouw": 7937,
      "Ġextrem": 7938,
      "Ġverwacht": 7939,
      "ç¦»": 7940,
      "Meer": 7941,
      "vy": 7942,
      "wart": 7943,
      "ĠĊ": 7944,
      "hee": 7945,
      "Ġwings": 7946,
      "reme": 7947,
      "Ġbon": 7948,
      "Ġdeb": 7949,
      "Ġstuur": 7950,
      "Ġstaff": 7951,
      "nods": 7952,
      "Ġrope": 7953,
      "Ġadem": 7954,
      "year": 7955,
      "Ġcute": 7956,
      "Ġconfir": 7957,
      "Ġautom": 7958,
      "Ġantwoorden": 7959,
      "Ok": 7960,
      "craft": 7961,
      "etjes": 7962,
      "Ġmechan": 7963,
      "Ġrib": 7964,
      "ĠDave": 7965,
      "umn": 7966,
      "estival": 7967,
      "inkt": 7968,
      "Ġboats": 7969,
      "Ġleiden": 7970,
      "Ġschimm": 7971,
      "ĠBeck": 7972,
      "Ġverschil": 7973,
      "Welk": 7974,
      "Ġships": 7975,
      "nieuw": 7976,
      "Ġreceive": 7977,
      "Ġequip": 7978,
      "Ġbegrijp": 7979,
      "Ġfrightened": 7980,
      "Ġestablished": 7981,
      "22": 7982,
      "happy": 7983,
      "kend": 7984,
      "Ġtummy": 7985,
      "Ġsalt": 7986,
      "Ġeet": 7987,
      "stoffen": 7988,
      "Ġdeur": 7989,
      "Ġreve": 7990,
      "Ġvanuit": 7991,
      "rip": 7992,
      "Ġergens": 7993,
      "Ġbub": 7994,
      "Ġonderwerp": 7995,
      "Ġowner": 7996,
      "beeldingen": 7997,
      "Ġdistribut": 7998,
      "Ġgevangen": 7999,
      "Ġ1996": 8000,
      "å¼º": 8001,
      "Ġrespond": 8002,
      "Ġimpossible": 8003,
      "Ġwalls": 8004,
      "Ġvoedings": 8005,
      "Ġwedding": 8006,
      "Ġreligion": 8007,
      "Ġcijfers": 8008,
      "from": 8009,
      "gn": 8010,
      "push": 8011,
      "Ġaft": 8012,
      "Ġmouse": 8013,
      "orie": 8014,
      "aron": 8015,
      "Ġyouth": 8016,
      "omba": 8017,
      "Ġbezoek": 8018,
      "iep": 8019,
      "ĠGil": 8020,
      "Ġperiode": 8021,
      "Ġbelt": 8022,
      "Ġdisp": 8023,
      "Ġcompos": 8024,
      "akespea": 8025,
      "Ġsymp": 8026,
      "Ġrealize": 8027,
      "å¤§å®¶": 8028,
      "Ġmagazine": 8029,
      "Ġdrinken": 8030,
      "åĨħ": 8031,
      "Ġbelangrijke": 8032,
      "ĠVictor": 8033,
      "Heeft": 8034,
      "fr": 8035,
      "Ġgit": 8036,
      "Ġnad": 8037,
      "Ġnerv": 8038,
      "sterd": 8039,
      "Ġrom": 8040,
      "Ġrif": 8041,
      "emony": 8042,
      "ĠPop": 8043,
      "inky": 8044,
      "Ġbutt": 8045,
      "Ġgebieden": 8046,
      "æķħ": 8047,
      "åĩºæĿ¥": 8048,
      "Ġfifth": 8049,
      "Ġsoldier": 8050,
      "Anyway": 8051,
      "ĠFrancis": 8052,
      "akespeare": 8053,
      "HT": 8054,
      "dis": 8055,
      "mes": 8056,
      "too": 8057,
      "wers": 8058,
      "Ġwire": 8059,
      "Ġleef": 8060,
      "ĠCathol": 8061,
      "ĠDutch": 8062,
      "Ġsore": 8063,
      "beelden": 8064,
      "Ġafterwards": 8065,
      "Ġbene": 8066,
      "Ġpresence": 8067,
      "gesl": 8068,
      "fortun": 8069,
      "ĠComp": 8070,
      "Com": 8071,
      "Ġmail": 8072,
      "Ġanderen": 8073,
      "stellen": 8074,
      "Ġune": 8075,
      "amn": 8076,
      "ĠApp": 8077,
      "usie": 8078,
      "osen": 8079,
      "ankelijk": 8080,
      "ishment": 8081,
      "iences": 8082,
      "Ġhearing": 8083,
      "Ġ80": 8084,
      "Ġpolitie": 8085,
      "Ġglasses": 8086,
      "Ġlifted": 8087,
      "Ġdunno": 8088,
      "ĠGraham": 8089,
      "Ġverklaring": 8090,
      "last": 8091,
      "anches": 8092,
      "only": 8093,
      "Ġpakken": 8094,
      "Ġlake": 8095,
      "Ġko": 8096,
      "Ġstap": 8097,
      "este": 8098,
      "Ġfriendly": 8099,
      "Ġwindows": 8100,
      "proken": 8101,
      "Ġconcert": 8102,
      "Ġgehoord": 8103,
      "Ġconstit": 8104,
      "è¶Ĭ": 8105,
      "Ġseventy": 8106,
      "ĠEllen": 8107,
      "Ġphilos": 8108,
      "rough": 8109,
      "æ®": 8110,
      "Ġdw": 8111,
      "Ġjun": 8112,
      "Ġzu": 8113,
      "irteen": 8114,
      "Ġram": 8115,
      "Ġaside": 8116,
      "Ġvergeten": 8117,
      "Ġshell": 8118,
      "ĠJac": 8119,
      "Ġspect": 8120,
      "aved": 8121,
      "Ġslapen": 8122,
      "iley": 8123,
      "ukt": 8124,
      "Ġcutting": 8125,
      "Ġdepart": 8126,
      "ç»ĻæĪĳ": 8127,
      "Ġmainly": 8128,
      "Ġenergie": 8129,
      "Ġbezig": 8130,
      "ĠJerry": 8131,
      "Ġmamma": 8132,
      "ĠGovernor": 8133,
      "Ġcompanies": 8134,
      "Ġwitness": 8135,
      "Ġpoliceman": 8136,
      "Other": 8137,
      "Verd": 8138,
      "druk": 8139,
      "gang": 8140,
      "ç²": 8141,
      "Ġtries": 8142,
      "Ġdying": 8143,
      "Ġmud": 8144,
      "ito": 8145,
      "Ġgall": 8146,
      "Ġnap": 8147,
      "abeth": 8148,
      "ĠKore": 8149,
      "Ġscreen": 8150,
      "Ġminor": 8151,
      "whispers": 8152,
      "whoa": 8153,
      "ception": 8154,
      "å¹³": 8155,
      "Ġplanet": 8156,
      "Ġprovide": 8157,
      "Ġspirits": 8158,
      "Ġscientific": 8159,
      "Ġklimaat": 8160,
      "ĠMackworth": 8161,
      "Peter": 8162,
      "Ġtask": 8163,
      "Ġcurt": 8164,
      "Ġpiano": 8165,
      "Ġkijkt": 8166,
      "Ġzorg": 8167,
      "ulk": 8168,
      "ĠEven": 8169,
      "Ġtroops": 8170,
      "rence": 8171,
      "Ġthroughout": 8172,
      "ussy": 8173,
      "Ġstring": 8174,
      "Ġ1995": 8175,
      "Ġ1960": 8176,
      "Ġcooking": 8177,
      "Ġbags": 8178,
      "ĠCommand": 8179,
      "Ġbodem": 8180,
      "Ġgroter": 8181,
      "Ġopposite": 8182,
      "Niemand": 8183,
      "Carl": 8184,
      "Since": 8185,
      "gain": 8186,
      "oly": 8187,
      "åĶ": 8188,
      "Ġdans": 8189,
      "Ġfold": 8190,
      "alo": 8191,
      "choo": 8192,
      "Ġjoke": 8193,
      "ĠSun": 8194,
      "uls": 8195,
      "ĠLand": 8196,
      "ĠFox": 8197,
      "ĠON": 8198,
      "Ġvoorbij": 8199,
      "Ġafge": 8200,
      "iteindelijk": 8201,
      "Ġunion": 8202,
      "oston": 8203,
      "ciale": 8204,
      "aterpill": 8205,
      "åħ«": 8206,
      "Isn": 8207,
      "Ġswing": 8208,
      "boom": 8209,
      "Ġdecor": 8210,
      "ursday": 8211,
      "affe": 8212,
      "Ġperformed": 8213,
      "Ġvormen": 8214,
      "Ġlinks": 8215,
      "é£İ": 8216,
      "Ġentirely": 8217,
      "Ġseparate": 8218,
      "ĠAzalea": 8219,
      "28": 8220,
      "29": 8221,
      "IE": 8222,
      "vorm": 8223,
      "Ġbomb": 8224,
      "Ġpracht": 8225,
      "eta": 8226,
      "stra": 8227,
      "Ġsta": 8228,
      "ĠBay": 8229,
      "Ġshock": 8230,
      "ĠJoy": 8231,
      "Ġseed": 8232,
      "Ġunderstood": 8233,
      "Ġdesert": 8234,
      "æĹ©": 8235,
      "Ġbush": 8236,
      "boek": 8237,
      "Ġ2023": 8238,
      "Ġyounger": 8239,
      "åºķ": 8240,
      "è¡¨": 8241,
      "æµ·": 8242,
      "ĠCentral": 8243,
      "Ġwhispered": 8244,
      "55": 8245,
      "Lees": 8246,
      "coh": 8247,
      "kins": 8248,
      "ani": 8249,
      "Ġbouw": 8250,
      "Ġechter": 8251,
      "Ġweken": 8252,
      "ĠAD": 8253,
      "ĠHon": 8254,
      "Ġalgen": 8255,
      "Ġbless": 8256,
      "Ġtrou": 8257,
      "è¿ĻäºĽ": 8258,
      "Ġremoved": 8259,
      "afbeelding": 8260,
      "Ġ500": 8261,
      "babbles": 8262,
      "Ġgeme": 8263,
      "reekt": 8264,
      "Ġdifficulty": 8265,
      "Ġknocked": 8266,
      "Ġtemperatuur": 8267,
      "Ġadmir": 8268,
      "ĠAmerika": 8269,
      "Ġceremony": 8270,
      "Ġsucceed": 8271,
      "Gu": 8272,
      "Siden": 8273,
      "ç¼": 8274,
      "Ġfart": 8275,
      "Ġriding": 8276,
      "ĠHerm": 8277,
      "ĠWestern": 8278,
      "Ġnoem": 8279,
      "Ġsupply": 8280,
      "Ġvolgens": 8281,
      "Ġå¯": 8282,
      "Ġwaited": 8283,
      "197": 8284,
      "Ġmatters": 8285,
      "Ġthousands": 8286,
      "iedenis": 8287,
      "Ġbelangrijkste": 8288,
      "Ġexpression": 8289,
      "Ġruimte": 8290,
      "Ġtelefoon": 8291,
      "ĠCanadian": 8292,
      "Sidenote": 8293,
      "BC": 8294,
      "CK": 8295,
      "past": 8296,
      "Ġbeast": 8297,
      "icient": 8298,
      "olan": 8299,
      "ĠLake": 8300,
      "ĠLuc": 8301,
      "Ġmanage": 8302,
      "ä½ķ": 8303,
      "Ġprem": 8304,
      "Ġprefer": 8305,
      "ciate": 8306,
      "Ġbeneden": 8307,
      "è¯ī": 8308,
      "Ġsuppl": 8309,
      "Ġå¦Ĥ": 8310,
      "Ġretired": 8311,
      "Ġobt": 8312,
      "Ġentertain": 8313,
      "Ġcontrole": 8314,
      "Ġvechten": 8315,
      "Ġonderzoekers": 8316,
      "Ġsystems": 8317,
      "å§ĭ": 8318,
      "Ġtemperature": 8319,
      "Ġsports": 8320,
      "ĠCollege": 8321,
      "Ġtarget": 8322,
      "Ġequipment": 8323,
      "Jesus": 8324,
      "Sm": 8325,
      "çħ": 8326,
      "Ġmap": 8327,
      "ĠBon": 8328,
      "ĠDrake": 8329,
      "richt": 8330,
      "Ġshel": 8331,
      "åĪ¶": 8332,
      "Ġbuurt": 8333,
      "Ġballoon": 8334,
      "Ġenth": 8335,
      "Ġmusical": 8336,
      "Ġdefe": 8337,
      "ELS": 8338,
      "åº¦": 8339,
      "Ġpowerful": 8340,
      "Ġresults": 8341,
      "Ġissues": 8342,
      "bell": 8343,
      "loed": 8344,
      "Ġwished": 8345,
      "Ġmacht": 8346,
      "Ġtoek": 8347,
      "Ġvold": 8348,
      "Ġjournal": 8349,
      "Ġgoal": 8350,
      "anties": 8351,
      "ĠPac": 8352,
      "ĠLos": 8353,
      "plaat": 8354,
      "ĠUt": 8355,
      "Ġunus": 8356,
      "Ġthrown": 8357,
      "Ġrelatie": 8358,
      "ĠNoem": 8359,
      "ĠIsra": 8360,
      "Ġinvloed": 8361,
      "éĢī": 8362,
      "Ġmidden": 8363,
      "Ġvlieg": 8364,
      "Ġpuppy": 8365,
      "Ġconditions": 8366,
      "Ġbodies": 8367,
      "Bet": 8368,
      "were": 8369,
      "Ġok": 8370,
      "Ġbare": 8371,
      "Ġpir": 8372,
      "Ġinno": 8373,
      "Ġvuur": 8374,
      "ura": 8375,
      "Ġrij": 8376,
      "ĠMont": 8377,
      "ĠBern": 8378,
      "ĠCourt": 8379,
      "ĠGal": 8380,
      "rucht": 8381,
      "ä¸Ģå®ļ": 8382,
      "Ġgrab": 8383,
      "å¼Ł": 8384,
      "Ġassum": 8385,
      "Ġmagnet": 8386,
      "è·Łä½ł": 8387,
      "Ġburst": 8388,
      "Ġsafety": 8389,
      "ĠAngola": 8390,
      "fa": 8391,
      "oer": 8392,
      "sing": 8393,
      "Ġhong": 8394,
      "Ġhorm": 8395,
      "Ġcant": 8396,
      "Ġstones": 8397,
      "rog": 8398,
      "ĠMun": 8399,
      "eag": 8400,
      "Ġknees": 8401,
      "Ġneer": 8402,
      "Ġerf": 8403,
      "ability": 8404,
      "egr": 8405,
      "epen": 8406,
      "Ġbrilliant": 8407,
      "ĠStaten": 8408,
      "Ġowned": 8409,
      "Ġshops": 8410,
      "Ġdrugs": 8411,
      "Ġauthority": 8412,
      "åħ¬åı¸": 8413,
      "ĠSecretary": 8414,
      "itzerland": 8415,
      "Gew": 8416,
      "Ten": 8417,
      "ei": 8418,
      "mined": 8419,
      "hemat": 8420,
      "Ġmile": 8421,
      "ota": 8422,
      "sten": 8423,
      "Ġjonge": 8424,
      "ĠMass": 8425,
      "ĠBang": 8426,
      "Ġash": 8427,
      "ĠGO": 8428,
      "istic": 8429,
      "ĠLie": 8430,
      "Ġbranch": 8431,
      "Ġplayers": 8432,
      "æľĭ": 8433,
      "Ġbegon": 8434,
      "äººçļĦ": 8435,
      "Ġvoelt": 8436,
      "Ġpapers": 8437,
      "Ġverteld": 8438,
      "Ġgemidd": 8439,
      "Ġdolly": 8440,
      "Ġmiddel": 8441,
      "Ġadvice": 8442,
      "Ġmeestal": 8443,
      "Ġflew": 8444,
      "æ¥ļ": 8445,
      "éħĴ": 8446,
      "ĠEmpire": 8447,
      "ĠWednesday": 8448,
      "Father": 8449,
      "Mother": 8450,
      "Se": 8451,
      "lak": 8452,
      "talk": 8453,
      "Ġwestern": 8454,
      "Ġbast": 8455,
      "Ġbisc": 8456,
      "Ġcounter": 8457,
      "Ġgrey": 8458,
      "Ġpowers": 8459,
      "Ġkerk": 8460,
      "Ġweird": 8461,
      "Ġrood": 8462,
      "Ġenzy": 8463,
      "Ġsprake": 8464,
      "Ġconduct": 8465,
      "thew": 8466,
      "arson": 8467,
      "ĠChair": 8468,
      "Ġadvert": 8469,
      "Ġtrap": 8470,
      "åĳ¨": 8471,
      "Ġconfl": 8472,
      "Ġverloren": 8473,
      "Ġveh": 8474,
      "Ġicecream": 8475,
      "Ġsolid": 8476,
      "Ġgentlemen": 8477,
      "Ġdisappeared": 8478,
      "Ġvictory": 8479,
      "Ġdemanded": 8480,
      "Ġtouched": 8481,
      "sterdam": 8482,
      "æľĭåıĭ": 8483,
      "New": 8484,
      "Ġbord": 8485,
      "Ġgingen": 8486,
      "aria": 8487,
      "Ġpump": 8488,
      "ĠIT": 8489,
      "Ġwaste": 8490,
      "Ġdoden": 8491,
      "ĠMore": 8492,
      "ĠWater": 8493,
      "Ġeraan": 8494,
      "ĠJoh": 8495,
      "Ġscore": 8496,
      "Ġsmiling": 8497,
      "åħ¥": 8498,
      "Ġhoeft": 8499,
      "idding": 8500,
      "Ġremembered": 8501,
      "Ġmagn": 8502,
      "Once": 8503,
      "ublieft": 8504,
      "Ġfamiliar": 8505,
      "Ġcopy": 8506,
      "Ġjigsaw": 8507,
      "Ad": 8508,
      "Aan": 8509,
      "Nin": 8510,
      "bow": 8511,
      "green": 8512,
      "rs": 8513,
      "uan": 8514,
      "Ġhoger": 8515,
      "stublieft": 8516,
      "ament": 8517,
      "teren": 8518,
      "agina": 8519,
      "Ġmoe": 8520,
      "aboo": 8521,
      "inks": 8522,
      "Ġprove": 8523,
      "Ġ35": 8524,
      "Didn": 8525,
      "ç»Ļä½ł": 8526,
      "playing": 8527,
      "Ġweapons": 8528,
      "Ġoorzaak": 8529,
      "cod": 8530,
      "hor": 8531,
      "hoog": 8532,
      "morrow": 8533,
      "woorden": 8534,
      "å»": 8535,
      "Ġwakker": 8536,
      "Ġgast": 8537,
      "Ġgiant": 8538,
      "Ġpow": 8539,
      "alm": 8540,
      "verb": 8541,
      "urance": 8542,
      "Ġneat": 8543,
      "rub": 8544,
      "æĪĳå°±": 8545,
      "Ġdrama": 8546,
      "çİ©": 8547,
      "Ġstudent": 8548,
      "ĠAllison": 8549,
      "Ġjobs": 8550,
      "Ġrecording": 8551,
      "Ġplaatsen": 8552,
      "ĠSwitzerland": 8553,
      "Ġobserved": 8554,
      "Ġordinary": 8555,
      "èī²": 8556,
      "å¨ĺ": 8557,
      "Ha": 8558,
      "Lea": 8559,
      "kk": 8560,
      "ua": 8561,
      "Ġfaster": 8562,
      "Ġpipe": 8563,
      "chair": 8564,
      "Ġkost": 8565,
      "sell": 8566,
      "Ġdochter": 8567,
      "ĠSpe": 8568,
      "ĠSouthern": 8569,
      "ĠAh": 8570,
      "ĠHoll": 8571,
      "Ġwhist": 8572,
      "olas": 8573,
      "Ġproef": 8574,
      "Ġbranches": 8575,
      "Ġschrijven": 8576,
      "Ġ37": 8577,
      "Ġasks": 8578,
      "Ġdesc": 8579,
      "Ġdaarom": 8580,
      "ĠGermans": 8581,
      "Ġspeaks": 8582,
      "Ġrecorded": 8583,
      "Ġforeign": 8584,
      "Ġeffects": 8585,
      "Ġbevat": 8586,
      "Ġoperation": 8587,
      "Ġeconomic": 8588,
      "éĹ®é¢ĺ": 8589,
      "Car": 8590,
      "Men": 8591,
      "dag": 8592,
      "pool": 8593,
      "sighs": 8594,
      "çı": 8595,
      "Ġwitte": 8596,
      "Ġboun": 8597,
      "Ġhout": 8598,
      "Ġzult": 8599,
      "Ġreview": 8600,
      "opter": 8601,
      "rier": 8602,
      "riet": 8603,
      "ĠFel": 8604,
      "çļĦä¸Ģ": 8605,
      "Ġwaters": 8606,
      "ä¹Ŀ": 8607,
      "Ġslim": 8608,
      "Ġcrown": 8609,
      "Ġfinan": 8610,
      "è®¡": 8611,
      "voerd": 8612,
      "Ġkleur": 8613,
      "Shit": 8614,
      "Ġkennen": 8615,
      "cohol": 8616,
      "Something": 8617,
      "bits": 8618,
      "zel": 8619,
      "Ġx": 8620,
      "Ġpause": 8621,
      "Ġtooth": 8622,
      "amba": 8623,
      "Ġrank": 8624,
      "ĠMas": 8625,
      "ĠBoston": 8626,
      "ä¸Ķ": 8627,
      "æĪ¿": 8628,
      "plane": 8629,
      "ĠUK": 8630,
      "Ġadministr": 8631,
      "Ġpresents": 8632,
      "Ġsits": 8633,
      "Ġsurely": 8634,
      "Ġpassage": 8635,
      "ĠShakespeare": 8636,
      "Ġprovided": 8637,
      "Ġreplaced": 8638,
      "Ġdrawn": 8639,
      "çº¢": 8640,
      "Ġvermoord": 8641,
      "Ġcloser": 8642,
      "ç«ĭ": 8643,
      "Ġcomfortable": 8644,
      "Ġintroduced": 8645,
      "Dav": 8646,
      "Keep": 8647,
      "LL": 8648,
      "cup": 8649,
      "las": 8650,
      "yellow": 8651,
      "Ġoef": 8652,
      "Ġghost": 8653,
      "Ġfreed": 8654,
      "icul": 8655,
      "entje": 8656,
      "aming": 8657,
      "Ġdoel": 8658,
      "ĠServ": 8659,
      "ĠTop": 8660,
      "herlands": 8661,
      "ĠBattle": 8662,
      "Ġagent": 8663,
      "æľŁ": 8664,
      "inton": 8665,
      "Ġactual": 8666,
      "Ġrecent": 8667,
      "æĢ§": 8668,
      "Ġlanger": 8669,
      "ĠArt": 8670,
      "å¯¼": 8671,
      "ĠBeeld": 8672,
      "198": 8673,
      "Ġtransl": 8674,
      "Ġperfectly": 8675,
      "Ġenjoyed": 8676,
      "æ¼Ķ": 8677,
      "Ġstikstof": 8678,
      "44": 8679,
      "Natuurlijk": 8680,
      "dan": 8681,
      "ux": 8682,
      "rell": 8683,
      "Ġcong": 8684,
      "Ġpraat": 8685,
      "Ġlack": 8686,
      "Ġrechter": 8687,
      "ĠTai": 8688,
      "Ġshook": 8689,
      "ĠRight": 8690,
      "è¿ĳ": 8691,
      "Ġbijz": 8692,
      "æľīä¸Ģ": 8693,
      "Ġdesper": 8694,
      "azen": 8695,
      "Alsjeblieft": 8696,
      "Ġ1997": 8697,
      "produ": 8698,
      "Ġzwem": 8699,
      "ENT": 8700,
      "Ġparticip": 8701,
      "Ġlaws": 8702,
      "ĠCarolina": 8703,
      "çĹħ": 8704,
      "Ġveilig": 8705,
      "ĠBradford": 8706,
      "Ġgathered": 8707,
      "IR": 8708,
      "filler": 8709,
      "sche": 8710,
      "Ġhills": 8711,
      "Ġloop": 8712,
      "Ġlaag": 8713,
      "Ġrings": 8714,
      "Ġanno": 8715,
      "ĠCle": 8716,
      "Ġplastic": 8717,
      "Ġsecurity": 8718,
      "Ġminim": 8719,
      "Ġends": 8720,
      "ĠGran": 8721,
      "Ġ1992": 8722,
      "Ġgedrag": 8723,
      "Ġstaying": 8724,
      "æķĻ": 8725,
      "ĠPrime": 8726,
      "ervation": 8727,
      "Zoals": 8728,
      "Ġcastle": 8729,
      "Ġvirus": 8730,
      "Ġcurrently": 8731,
      "Ġlibrary": 8732,
      "ko": 8733,
      "pie": 8734,
      "uous": 8735,
      "Ġwinnen": 8736,
      "Ġfal": 8737,
      "Ġpup": 8738,
      "Ġongel": 8739,
      "Ġstellen": 8740,
      "ĠMeg": 8741,
      "ĠMidd": 8742,
      "Ġverr": 8743,
      "ĠGina": 8744,
      "resp": 8745,
      "kening": 8746,
      "spraak": 8747,
      "Ġtalks": 8748,
      "azed": 8749,
      "å¼ł": 8750,
      "mbly": 8751,
      "Ġinstruct": 8752,
      "Ġlearning": 8753,
      "ĠJimmy": 8754,
      "Ġmooie": 8755,
      "Ġprofessor": 8756,
      "ĠCharlie": 8757,
      "Ġlosing": 8758,
      "ĠBundle": 8759,
      "Ġstreets": 8760,
      "Ġbeneath": 8761,
      "Uit": 8762,
      "Ġnood": 8763,
      "Ġlect": 8764,
      "leiding": 8765,
      "uther": 8766,
      "inking": 8767,
      "ĠFil": 8768,
      "ä»£": 8769,
      "ffen": 8770,
      "Ġuniform": 8771,
      "Ġwaarde": 8772,
      "Ġdesire": 8773,
      "å¥½çļĦ": 8774,
      "Ġmaxim": 8775,
      "Ġboxes": 8776,
      "ological": 8777,
      "Ġinstant": 8778,
      "uesday": 8779,
      "åĮĹ": 8780,
      "Ġstubs": 8781,
      "æ¡Ī": 8782,
      "Ġanxious": 8783,
      "ĠAngeles": 8784,
      "ä¸ľè¥¿": 8785,
      "ĠAsso": 8786,
      "],": 8787,
      "maken": 8788,
      "wa": 8789,
      "itect": 8790,
      "Ġpic": 8791,
      "Ġpeak": 8792,
      "Ġkat": 8793,
      "Ġsteden": 8794,
      "Ġaltern": 8795,
      "ĠRub": 8796,
      "Ġcharm": 8797,
      "Ġafgel": 8798,
      "ĠZuid": 8799,
      "åĳĥ": 8800,
      "åŃĹ": 8801,
      "ä»ĸçļĦ": 8802,
      "Ġairport": 8803,
      "Ġpopulatie": 8804,
      "Ġavond": 8805,
      "èĩªå·±çļĦ": 8806,
      "Ġhammer": 8807,
      "Ġweapon": 8808,
      "Ġoccurred": 8809,
      "ĠVirginia": 8810,
      "Ġdisease": 8811,
      "Robert": 8812,
      "Ġwore": 8813,
      "Ġwaves": 8814,
      "regen": 8815,
      "Ġvit": 8816,
      "stick": 8817,
      "adem": 8818,
      "sembly": 8819,
      "eeg": 8820,
      "uns": 8821,
      "Ġerachter": 8822,
      "Ġsposta": 8823,
      "ĠKe": 8824,
      "ousers": 8825,
      "Ġflo": 8826,
      "Ġtrains": 8827,
      "apped": 8828,
      "brand": 8829,
      "Ġgrave": 8830,
      "ĠBecause": 8831,
      "Ġ70": 8832,
      "Ġoriginally": 8833,
      "Twee": 8834,
      "holds": 8835,
      "halte": 8836,
      "Ġsterven": 8837,
      "Ġrequired": 8838,
      "Ġaccepted": 8839,
      "Grand": 8840,
      "Ġdefinitely": 8841,
      "Ġtoekomst": 8842,
      "Early": 8843,
      "Wow": 8844,
      "cest": 8845,
      "eens": 8846,
      "Ġocean": 8847,
      "athy": 8848,
      "Ġdere": 8849,
      "Ġhomes": 8850,
      "Ġcash": 8851,
      "Ġfond": 8852,
      "iders": 8853,
      "roken": 8854,
      "ĠSince": 8855,
      "ĠHave": 8856,
      "raine": 8857,
      "ĠLook": 8858,
      "Ġsequ": 8859,
      "Ġsection": 8860,
      "Ġbrings": 8861,
      "Ġdoordat": 8862,
      "ä¸įä¼ļ": 8863,
      "Ġthrowing": 8864,
      "Ġwaarschijnlijk": 8865,
      "çĶ·": 8866,
      "Ġuseful": 8867,
      "Ġ1993": 8868,
      "turns": 8869,
      "Ġkorte": 8870,
      "ĠNetherlands": 8871,
      "ĠVerenigde": 8872,
      "Has": 8873,
      "yay": 8874,
      "Ġthee": 8875,
      "Ġberg": 8876,
      "Ġgay": 8877,
      "Ġfoss": 8878,
      "idents": 8879,
      "ams": 8880,
      "kee": 8881,
      "ĠHim": 8882,
      "again": 8883,
      "...\"": 8884,
      "ĠJud": 8885,
      "weede": 8886,
      "avan": 8887,
      "Ġparties": 8888,
      "Ġamazing": 8889,
      "Ġterr": 8890,
      "åħŃ": 8891,
      "Ġbitter": 8892,
      "Ġgezicht": 8893,
      "Ġrealized": 8894,
      "Ġ1998": 8895,
      "Ġgebeuren": 8896,
      "Ġpositive": 8897,
      "æ°ĳ": 8898,
      "erlingen": 8899,
      "ĠRussia": 8900,
      "Ġlabor": 8901,
      "pointing": 8902,
      "Um": 8903,
      "iend": 8904,
      "uigen": 8905,
      "Ġtied": 8906,
      "Ġmummy": 8907,
      "Ġmaint": 8908,
      "Ġlag": 8909,
      "Ġdoin": 8910,
      "ĠCast": 8911,
      "ifer": 8912,
      "Ġnotes": 8913,
      "Ġsomehow": 8914,
      "Ġtrunk": 8915,
      "ahhah": 8916,
      "Ġmuse": 8917,
      "shakes": 8918,
      "è¿Ļæĺ¯": 8919,
      "Ġcats": 8920,
      "Ġpurse": 8921,
      "Ġexcellent": 8922,
      "ä¸ŃåĽ½": 8923,
      "ĠProv": 8924,
      "Ġperformance": 8925,
      "Ġlocked": 8926,
      "woners": 8927,
      "ĠABBA": 8928,
      "Ġstomach": 8929,
      "ĠDistrict": 8930,
      "26": 8931,
      "ION": 8932,
      "Ġinhab": 8933,
      "Ġkent": 8934,
      "Ġforgive": 8935,
      "ĠBE": 8936,
      "Heel": 8937,
      "åįĥ": 8938,
      "è®¸": 8939,
      "Ġ1991": 8940,
      "Ġsorts": 8941,
      "Ġhonor": 8942,
      "Ġjudge": 8943,
      "Ġdoggie": 8944,
      "åĳĬè¯ī": 8945,
      "Ġrapidly": 8946,
      "Ġrestaurant": 8947,
      "Ġexecut": 8948,
      "35": 8949,
      "Ol": 8950,
      "Ter": 8951,
      "inen": 8952,
      "esse": 8953,
      "Ġloose": 8954,
      "igers": 8955,
      "Ġhabit": 8956,
      "ersche": 8957,
      "rial": 8958,
      "ĠJones": 8959,
      "bey": 8960,
      "ĠKenn": 8961,
      "Ġcoal": 8962,
      "Ġcontr": 8963,
      "Ġpointing": 8964,
      "Ġpassing": 8965,
      "Ġdistant": 8966,
      "ĠBear": 8967,
      "Ġbloedcellen": 8968,
      "Ġbuildings": 8969,
      "ĠNederlanders": 8970,
      "Ġelectron": 8971,
      "attles": 8972,
      "Ġhurried": 8973,
      "Ġstrike": 8974,
      "Ġburning": 8975,
      "ç©º": 8976,
      "ĠPakistan": 8977,
      "Papa": 8978,
      "Ser": 8979,
      "hot": 8980,
      "mar": 8981,
      "ois": 8982,
      "ano": 8983,
      "Ġbum": 8984,
      "ingly": 8985,
      "ete": 8986,
      "iem": 8987,
      "Ġseeds": 8988,
      "ĠOut": 8989,
      "Ġcock": 8990,
      "Ġ38": 8991,
      "elijks": 8992,
      "Ġeats": 8993,
      "meer": 8994,
      "nothing": 8995,
      "Ġpassen": 8996,
      "Ġredden": 8997,
      "Ġpicking": 8998,
      "Ġfields": 8999,
      "Ġmathemat": 9000,
      "ĠPortugal": 9001,
      "ĠAndorra": 9002,
      "Malley": 9003,
      "Ġsoup": 9004,
      "repen": 9005,
      "Ġfox": 9006,
      "keys": 9007,
      "urk": 9008,
      "urally": 9009,
      "Ġrushed": 9010,
      "ĠAp": 9011,
      "erecht": 9012,
      "ĠFaith": 9013,
      "Ġtrouw": 9014,
      "innie": 9015,
      "Ġpersons": 9016,
      "bridge": 9017,
      "Ġstandard": 9018,
      "Ġpaying": 9019,
      "Ġexciting": 9020,
      "Ġgebeur": 9021,
      "Ġveranderen": 9022,
      "éĽ¶": 9023,
      "Ġeventually": 9024,
      "ĠLaura": 9025,
      "Ġceremon": 9026,
      "oplane": 9027,
      "Ġdetermined": 9028,
      "Ġplanning": 9029,
      "Ġimprove": 9030,
      "Ġdemonstr": 9031,
      "Ġå¦Ĥæŀľ": 9032,
      "Mia": 9033,
      "Ty": 9034,
      "Ġwitch": 9035,
      "Ġbone": 9036,
      "isions": 9037,
      "Ġcaterpill": 9038,
      "ado": 9039,
      "utie": 9040,
      "ĠME": 9041,
      "ĠBaby": 9042,
      "indy": 9043,
      "ureau": 9044,
      "å¤Ł": 9045,
      "Ġfles": 9046,
      "Ġworkers": 9047,
      "Ġ--": 9048,
      "Ġunits": 9049,
      "Ġprepar": 9050,
      "Ġattend": 9051,
      "Ġregering": 9052,
      "è®²": 9053,
      "Ġfactor": 9054,
      "Ġbloedvaten": 9055,
      "èµ·æĿ¥": 9056,
      "Ġcompetition": 9057,
      "Ġphysical": 9058,
      "ĠMuslim": 9059,
      "æ¥¼": 9060,
      "Ġplatform": 9061,
      "ĠDemocratic": 9062,
      "Ġemergency": 9063,
      "ĠCatholic": 9064,
      "45": 9065,
      "67": 9066,
      "ME": 9067,
      "mom": 9068,
      "press": 9069,
      "Ġsin": 9070,
      "Ġsommige": 9071,
      "Ġpra": 9072,
      "Ġpushed": 9073,
      "Ġhesit": 9074,
      "Ġbeeld": 9075,
      "ĠSis": 9076,
      "ĠSil": 9077,
      "ĠBekijk": 9078,
      "ĠCap": 9079,
      "Ġliqu": 9080,
      "ĠWales": 9081,
      "ĠNorm": 9082,
      "Ġ(;": 9083,
      "Ġoveral": 9084,
      "ekend": 9085,
      "ĠKennis": 9086,
      "è¿ŀ": 9087,
      "åĲĦ": 9088,
      "Ġscale": 9089,
      "apping": 9090,
      "Ġpresently": 9091,
      "Ġgrapp": 9092,
      "ä¸ºäºĨ": 9093,
      "Chi": 9094,
      "Ġobjects": 9095,
      "ĠAmsterdam": 9096,
      "Ġclosely": 9097,
      "Everything": 9098,
      "Ġdamage": 9099,
      "ĠCommittee": 9100,
      "Ġbelongs": 9101,
      "Ġrecognized": 9102,
      "aymouth": 9103,
      "Ġslaap": 9104,
      "Ġetc": 9105,
      "Ġaudience": 9106,
      "Ġcircumstances": 9107,
      "Ġsacrifice": 9108,
      "Wanneer": 9109,
      "ga": 9110,
      "hankelijk": 9111,
      "çĨ": 9112,
      "Ġå°ı": 9113,
      "ĠæīĢä»¥": 9114,
      "Ġwra": 9115,
      "Ġdim": 9116,
      "Ġdump": 9117,
      "really": 9118,
      "onia": 9119,
      "Ġlun": 9120,
      "aland": 9121,
      "urrent": 9122,
      "Ġrise": 9123,
      "Ġrush": 9124,
      "ĠAan": 9125,
      "ĠDor": 9126,
      "opper": 9127,
      "naam": 9128,
      "werkt": 9129,
      "ĠBefore": 9130,
      "Ġhighly": 9131,
      "Ġwetenschapp": 9132,
      "æĮº": 9133,
      "Ġsoftly": 9134,
      "Ġkeys": 9135,
      "çī¹åĪ«": 9136,
      "ĠLatin": 9137,
      "ç¨ĭ": 9138,
      "Ġtunnel": 9139,
      "Ġadvantage": 9140,
      "Most": 9141,
      "WE": 9142,
      "gonna": 9143,
      "kw": 9144,
      "listen": 9145,
      "nar": 9146,
      "zus": 9147,
      "Ġå°±æĺ¯": 9148,
      "Ġwine": 9149,
      "ati": 9150,
      "Ġdy": 9151,
      "Ġfoll": 9152,
      "Ġpp": 9153,
      "Ġker": 9154,
      "ĠSpr": 9155,
      "ĠMaak": 9156,
      "Ġplaat": 9157,
      "Ġbricks": 9158,
      "ĠStap": 9159,
      "onsieur": 9160,
      "Ġmighty": 9161,
      "Ġharder": 9162,
      "å¤§çļĦ": 9163,
      "Ġnetwork": 9164,
      "otted": 9165,
      "Ġieder": 9166,
      "Ġadmit": 9167,
      "é£ŀ": 9168,
      "é¡¹": 9169,
      "something": 9170,
      "æĳ": 9171,
      "Ġce": 9172,
      "aders": 9173,
      "rose": 9174,
      "ĠSee": 9175,
      "ĠTijdens": 9176,
      "Ġrent": 9177,
      "Ġrhy": 9178,
      "ĠMo": 9179,
      "ĠMah": 9180,
      "ila": 9181,
      "ilty": 9182,
      "uments": 9183,
      "ä¸ĥ": 9184,
      "ĠPas": 9185,
      "geet": 9186,
      "ĠLion": 9187,
      "Ġconsequ": 9188,
      "Ġvoorbeeld": 9189,
      "Ġarts": 9190,
      "Ġzeven": 9191,
      "ĠFran": 9192,
      "æĿ¡": 9193,
      "uurd": 9194,
      "Ġleaf": 9195,
      "Onze": 9196,
      "oogd": 9197,
      "ä¸ºä»Ģä¹Ī": 9198,
      "Ġtrial": 9199,
      "Ġraise": 9200,
      "æĻļ": 9201,
      "Ġappears": 9202,
      "Ġresponsible": 9203,
      "Ġindependent": 9204,
      "Ġdocument": 9205,
      "Ġnewspaper": 9206,
      "dle": 9207,
      "æ£": 9208,
      "iser": 9209,
      "Ġfaint": 9210,
      "Ġheav": 9211,
      "Ġmeester": 9212,
      "ĠHung": 9213,
      "ĠJenny": 9214,
      "osc": 9215,
      "Ġagre": 9216,
      "ĠStuart": 9217,
      "Ġcomplex": 9218,
      "Ġrecomm": 9219,
      "ANT": 9220,
      "Ġshower": 9221,
      "Ġregel": 9222,
      "Ġdistur": 9223,
      "Ġnormaal": 9224,
      "å¼Ģå§ĭ": 9225,
      "Ġmajority": 9226,
      "Ġshouting": 9227,
      "Ġbero": 9228,
      "Ġincrease": 9229,
      "Ġprobeer": 9230,
      "37": 9231,
      "Nice": 9232,
      "Pardon": 9233,
      "Sl": 9234,
      "Ġtin": 9235,
      "Ġtank": 9236,
      "Ġsum": 9237,
      "Ġdial": 9238,
      "Ġfully": 9239,
      "Ġpure": 9240,
      "Ġlamb": 9241,
      "omy": 9242,
      "Ġbee": 9243,
      "Ġstil": 9244,
      "oln": 9245,
      "ĠWin": 9246,
      "gehalte": 9247,
      "apes": 9248,
      "Ġexch": 9249,
      "Ġleerlingen": 9250,
      "wege": 9251,
      "Ġcontent": 9252,
      "Ġbitch": 9253,
      "å¾Ģ": 9254,
      "unts": 9255,
      "Ġaccess": 9256,
      "Ġlegal": 9257,
      "Ġexplos": 9258,
      "Ġrolled": 9259,
      "Ġmaakte": 9260,
      "ĠLois": 9261,
      "çķĮ": 9262,
      "Ġwounded": 9263,
      "é¦ĸ": 9264,
      "Ġleidt": 9265,
      "Ġnervous": 9266,
      "Ġå¯¹": 9267,
      "Out": 9268,
      "nope": 9269,
      "ties": 9270,
      "èı": 9271,
      "Ġtab": 9272,
      "Ġmug": 9273,
      "isse": 9274,
      "Ġpanc": 9275,
      "ĠCross": 9276,
      "ĠWal": 9277,
      "ĠNorthern": 9278,
      "Ġdata": 9279,
      "ĠRey": 9280,
      "ĠJess": 9281,
      "ĠOff": 9282,
      "together": 9283,
      "ĠInter": 9284,
      "oeder": 9285,
      "apper": 9286,
      "ĠMarie": 9287,
      "Ġdesk": 9288,
      "Ġvoices": 9289,
      "Ġtrekken": 9290,
      "Ġcurious": 9291,
      "ĠJohnny": 9292,
      "Ġsisters": 9293,
      "Ġ1950": 9294,
      "ĠSteve": 9295,
      "Ġslechts": 9296,
      "Ġslightly": 9297,
      "CE": 9298,
      "Care": 9299,
      "MAL": 9300,
      "vest": 9301,
      "zuur": 9302,
      "Ġbunch": 9303,
      "Ġdece": 9304,
      "ĠSing": 9305,
      "ilton": 9306,
      "ĠHal": 9307,
      "Ġshame": 9308,
      "indt": 9309,
      "ĠLisa": 9310,
      "Ġproved": 9311,
      "Ġ32": 9312,
      "Ġkinda": 9313,
      "Ġsixteen": 9314,
      "å¹¶": 9315,
      "æĶ¶": 9316,
      "å¾Īå¤ļ": 9317,
      "Ġontstaat": 9318,
      "GEO": 9319,
      "ĠâĮĪ": 9320,
      "Ġepisode": 9321,
      "Ġadvanced": 9322,
      "Fine": 9323,
      "Pres": 9324,
      "bly": 9325,
      "di": 9326,
      "ugen": 9327,
      "uip": 9328,
      "Ġwinning": 9329,
      "Ġoven": 9330,
      "orde": 9331,
      "Ġfier": 9332,
      "ching": 9333,
      "ooper": 9334,
      "Ġancest": 9335,
      "ĠBos": 9336,
      "Ġblijf": 9337,
      "Ġours": 9338,
      "å®Ŀ": 9339,
      "Ġstranger": 9340,
      "Ġrooms": 9341,
      "ĠAlan": 9342,
      "Ġkilling": 9343,
      "Ġsym": 9344,
      "Ġnearer": 9345,
      "Ġ1985": 9346,
      "Ġcookies": 9347,
      "ĠWhile": 9348,
      "Ġsacred": 9349,
      "Ġdestroyed": 9350,
      "Ġeiwit": 9351,
      ",...": 9352,
      "TV": 9353,
      "gh": 9354,
      "aned": 9355,
      "Ġanal": 9356,
      "ĠCivil": 9357,
      "aki": 9358,
      "ersch": 9359,
      "Ġopl": 9360,
      "Ġblame": 9361,
      "ĠUN": 9362,
      "Ġtrousers": 9363,
      "ciated": 9364,
      "ailed": 9365,
      "Ġmoments": 9366,
      "soft": 9367,
      "å¸Ĥ": 9368,
      "Ġmedical": 9369,
      "Ġleaders": 9370,
      "ĠAbout": 9371,
      "Ġwedstrijd": 9372,
      "Ġsplit": 9373,
      "Ġincreased": 9374,
      "Ġneighbor": 9375,
      "è°¢è°¢": 9376,
      "standigheden": 9377,
      "Ġfarther": 9378,
      "Tom": 9379,
      "daddy": 9380,
      "eight": 9381,
      "kiss": 9382,
      "uv": 9383,
      "Ġgal": 9384,
      "Ġgently": 9385,
      "lla": 9386,
      "olk": 9387,
      "thumb": 9388,
      "ulation": 9389,
      "ĠLike": 9390,
      "Ġspite": 9391,
      "Ġpeas": 9392,
      "Ġquality": 9393,
      "Ġtractor": 9394,
      "ä¹Ĳ": 9395,
      "ä¸ĢçĤ¹": 9396,
      "Ġ36": 9397,
      "Ġshoulders": 9398,
      "Ġsniff": 9399,
      "brush": 9400,
      "Ġentr": 9401,
      "Ġpointed": 9402,
      "Ġrefused": 9403,
      "Ġmarks": 9404,
      "iggles": 9405,
      "çĶŁæ´»": 9406,
      "Ġlistened": 9407,
      "ĠDaarna": 9408,
      "Ġdesigned": 9409,
      "Ġcompanion": 9410,
      "Ġwarning": 9411,
      "Ġfolks": 9412,
      "American": 9413,
      "arcely": 9414,
      "âĮĭ.": 9415,
      "ĠIrish": 9416,
      "90": 9417,
      "Eh": 9418,
      "TH": 9419,
      "goed": 9420,
      "san": 9421,
      "Ġdur": 9422,
      "aris": 9423,
      "arant": 9424,
      "Ġpa": 9425,
      "Ġtoes": 9426,
      "stal": 9427,
      "Ġkeen": 9428,
      "Ġrear": 9429,
      "Ġdok": 9430,
      "ĠTweede": 9431,
      "ilen": 9432,
      "ĠJon": 9433,
      "Ġchannel": 9434,
      "Ġspare": 9435,
      "Ġexhib": 9436,
      "Ġbetalen": 9437,
      "Ġguilty": 9438,
      "Ġaccomp": 9439,
      "Ġgesp": 9440,
      "Ġpulling": 9441,
      "ĠDona": 9442,
      "Ġadvance": 9443,
      "Ġbreathing": 9444,
      "ĠRobin": 9445,
      "Ġstructure": 9446,
      "Gel": 9447,
      "SC": 9448,
      "kamer": 9449,
      "nem": 9450,
      "wide": 9451,
      "ĠæĤ¨": 9452,
      "Ġsig": 9453,
      "asp": 9454,
      "ami": 9455,
[...]
