{
  "version": "1.0",
  "truncation": null,
  "padding": null,
  "added_tokens": [
    {
      "id": 0,
      "content": "<unk>",
      "single_word": false,
      "lstrip": false,
      "rstrip": false,
      "normalized": false,
      "special": true
    },
    {
      "id": 1,
      "content": "<s>",
      "single_word": false,
      "lstrip": false,
      "rstrip": false,
      "normalized": false,
      "special": true
    },
    {
      "id": 2,
      "content": "</s>",
      "single_word": false,
      "lstrip": false,
      "rstrip": false,
      "normalized": false,
      "special": true
    },
    {
      "id": 3,
      "content": "<pad>",
      "single_word": false,
      "lstrip": false,
      "rstrip": false,
      "normalized": false,
      "special": true
    },
    {
      "id": 4,
      "content": "<mask>",
      "single_word": false,
      "lstrip": false,
      "rstrip": false,
      "normalized": false,
      "special": true
    },
    {
      "id": 5,
      "content": "，",
      "single_word": false,
      "lstrip": false,
      "rstrip": false,
      "normalized": false,
      "special": true
    },
    {
      "id": 6,
      "content": "。",
      "single_word": false,
      "lstrip": false,
      "rstrip": false,
      "normalized": false,
      "special": true
    },
    {
      "id": 7,
      "content": "、",
      "single_word": false,
      "lstrip": false,
      "rstrip": false,
      "normalized": false,
      "special": true
    },
    {
      "id": 8,
      "content": "！",
      "single_word": false,
      "lstrip": false,
      "rstrip": false,
      "normalized": false,
      "special": true
    },
    {
      "id": 9,
      "content": "？",
      "single_word": false,
      "lstrip": false,
      "rstrip": false,
      "normalized": false,
      "special": true
    },
    {
      "id": 10,
      "content": "：",
      "single_word": false,
      "lstrip": false,
      "rstrip": false,
      "normalized": false,
      "special": true
    },
    {
      "id": 11,
      "content": "；",
      "single_word": false,
      "lstrip": false,
      "rstrip": false,
      "normalized": false,
      "special": true
    },
    {
      "id": 12,
      "content": "「",
      "single_word": false,
      "lstrip": false,
      "rstrip": false,
      "normalized": false,
      "special": true
    },
    {
      "id": 13,
      "content": "」",
      "single_word": false,
      "lstrip": false,
      "rstrip": false,
      "normalized": false,
      "special": true
    },
    {
      "id": 14,
      "content": "（",
      "single_word": false,
      "lstrip": false,
      "rstrip": false,
      "normalized": false,
      "special": true
    },
    {
      "id": 15,
      "content": "）",
      "single_word": false,
      "lstrip": false,
      "rstrip": false,
      "normalized": false,
      "special": true
    },
    {
      "id": 16,
      "content": "《",
      "single_word": false,
      "lstrip": false,
      "rstrip": false,
      "normalized": false,
      "special": true
    },
    {
      "id": 17,
      "content": "》",
      "single_word": false,
      "lstrip": false,
      "rstrip": false,
      "normalized": false,
      "special": true
    },
    {
      "id": 18,
      "content": "【",
      "single_word": false,
      "lstrip": false,
      "rstrip": false,
      "normalized": false,
      "special": true
    },
    {
      "id": 19,
      "content": "】",
      "single_word": false,
      "lstrip": false,
      "rstrip": false,
      "normalized": false,
      "special": true
    }
  ],
  "normalizer": null,
  "pre_tokenizer": {
    "type": "ByteLevel",
    "add_prefix_space": false,
    "trim_offsets": true,
    "use_regex": true
  },
  "post_processor": {
    "type": "ByteLevel",
    "add_prefix_space": true,
    "trim_offsets": false,
    "use_regex": true
  },
  "decoder": {
    "type": "ByteLevel",
    "add_prefix_space": true,
    "trim_offsets": true,
    "use_regex": true
  },
  "model": {
    "type": "BPE",
    "dropout": null,
    "unk_token": null,
    "continuing_subword_prefix": null,
    "end_of_word_suffix": null,
    "fuse_unk": false,
    "byte_fallback": false,
    "ignore_merges": false,
    "vocab": {
      "<unk>": 0,
      "<s>": 1,
      "</s>": 2,
      "<pad>": 3,
      "<mask>": 4,
      "，": 5,
      "。": 6,
      "、": 7,
      "！": 8,
      "？": 9,
      "：": 10,
      "；": 11,
      "「": 12,
      "」": 13,
      "（": 14,
      "）": 15,
      "《": 16,
      "》": 17,
      "【": 18,
      "】": 19,
      "!": 20,
      "\"": 21,
      "#": 22,
      "$": 23,
      "%": 24,
      "&": 25,
      "'": 26,
      "(": 27,
      ")": 28,
      "*": 29,
      "+": 30,
      ",": 31,
      "-": 32,
      ".": 33,
      "/": 34,
      "0": 35,
      "1": 36,
      "2": 37,
      "3": 38,
      "4": 39,
      "5": 40,
      "6": 41,
      "7": 42,
      "8": 43,
      "9": 44,
      ":": 45,
      ";": 46,
      "<": 47,
      "=": 48,
      ">": 49,
      "?": 50,
      "@": 51,
      "A": 52,
      "B": 53,
      "C": 54,
      "D": 55,
      "E": 56,
      "F": 57,
      "G": 58,
      "H": 59,
      "I": 60,
      "J": 61,
      "K": 62,
      "L": 63,
      "M": 64,
      "N": 65,
      "O": 66,
      "P": 67,
      "Q": 68,
      "R": 69,
      "S": 70,
      "T": 71,
      "U": 72,
      "V": 73,
      "W": 74,
      "X": 75,
      "Y": 76,
      "Z": 77,
      "[": 78,
      "\\": 79,
      "]": 80,
      "^": 81,
      "_": 82,
      "`": 83,
      "a": 84,
      "b": 85,
      "c": 86,
      "d": 87,
      "e": 88,
      "f": 89,
      "g": 90,
      "h": 91,
      "i": 92,
      "j": 93,
      "k": 94,
      "l": 95,
      "m": 96,
      "n": 97,
      "o": 98,
      "p": 99,
      "q": 100,
      "r": 101,
      "s": 102,
      "t": 103,
      "u": 104,
      "v": 105,
      "w": 106,
      "x": 107,
      "y": 108,
      "z": 109,
      "{": 110,
      "|": 111,
      "}": 112,
      "~": 113,
      "¡": 114,
      "¢": 115,
      "£": 116,
      "¤": 117,
      "¥": 118,
      "¦": 119,
      "§": 120,
      "¨": 121,
      "©": 122,
      "ª": 123,
      "«": 124,
      "¬": 125,
      "®": 126,
      "¯": 127,
      "°": 128,
      "±": 129,
      "²": 130,
      "³": 131,
      "´": 132,
      "µ": 133,
      "¶": 134,
      "·": 135,
      "¸": 136,
      "¹": 137,
      "º": 138,
      "»": 139,
      "¼": 140,
      "½": 141,
      "¾": 142,
      "¿": 143,
      "À": 144,
      "Á": 145,
      "Â": 146,
      "Ã": 147,
      "Ä": 148,
      "Å": 149,
      "Æ": 150,
      "Ç": 151,
      "È": 152,
      "É": 153,
      "Ê": 154,
      "Ë": 155,
      "Ì": 156,
      "Í": 157,
      "Î": 158,
      "Ï": 159,
      "Ð": 160,
      "Ñ": 161,
      "Ò": 162,
      "Ó": 163,
      "Ô": 164,
      "Õ": 165,
      "Ö": 166,
      "×": 167,
      "Ø": 168,
      "Ù": 169,
      "Ú": 170,
      "Û": 171,
      "Ü": 172,
      "Ý": 173,
      "Þ": 174,
      "ß": 175,
      "à": 176,
      "á": 177,
      "â": 178,
      "ã": 179,
      "ä": 180,
      "å": 181,
      "æ": 182,
      "ç": 183,
      "è": 184,
      "é": 185,
      "ê": 186,
      "ë": 187,
      "ì": 188,
      "í": 189,
      "î": 190,
      "ï": 191,
      "ð": 192,
      "ñ": 193,
      "ò": 194,
      "ó": 195,
      "ô": 196,
      "õ": 197,
      "ö": 198,
      "÷": 199,
      "ø": 200,
      "ù": 201,
      "ú": 202,
      "û": 203,
      "ü": 204,
      "ý": 205,
      "þ": 206,
      "ÿ": 207,
      "Ā": 208,
      "ā": 209,
      "Ă": 210,
      "ă": 211,
      "Ą": 212,
      "ą": 213,
      "Ć": 214,
      "ć": 215,
      "Ĉ": 216,
      "ĉ": 217,
      "Ċ": 218,
      "ċ": 219,
      "Č": 220,
      "č": 221,
      "Ď": 222,
      "ď": 223,
      "Đ": 224,
      "đ": 225,
      "Ē": 226,
      "ē": 227,
      "Ĕ": 228,
      "ĕ": 229,
      "Ė": 230,
      "ė": 231,
      "Ę": 232,
      "ę": 233,
      "Ě": 234,
      "ě": 235,
      "Ĝ": 236,
      "ĝ": 237,
      "Ğ": 238,
      "ğ": 239,
      "Ġ": 240,
      "ġ": 241,
      "Ģ": 242,
      "ģ": 243,
      "Ĥ": 244,
      "ĥ": 245,
      "Ħ": 246,
      "ħ": 247,
      "Ĩ": 248,
      "ĩ": 249,
      "Ī": 250,
      "ī": 251,
      "Ĭ": 252,
      "ĭ": 253,
      "Į": 254,
      "į": 255,
      "İ": 256,
      "ı": 257,
      "Ĳ": 258,
      "ĳ": 259,
      "Ĵ": 260,
      "ĵ": 261,
      "Ķ": 262,
      "ķ": 263,
      "ĸ": 264,
      "Ĺ": 265,
      "ĺ": 266,
      "Ļ": 267,
      "ļ": 268,
      "Ľ": 269,
      "ľ": 270,
      "Ŀ": 271,
      "ŀ": 272,
      "Ł": 273,
      "ł": 274,
      "Ń": 275,
      "en": 276,
      "er": 277,
      "Ġt": 278,
      "an": 279,
      "he": 280,
      "in": 281,
      "Ġd": 282,
      "Ġw": 283,
      "at": 284,
      "Ġo": 285,
      "Ġa": 286,
      "Ġs": 287,
      "Ġ.": 288,
      "Ġm": 289,
      "Ġb": 290,
      "ä¸": 291,
      "is": 292,
      "ou": 293,
      "et": 294,
      "or": 295,
      "ar": 296,
      "el": 297,
      "Ġg": 298,
      "Ġv": 299,
      "Ġh": 300,
      "it": 301,
      "ij": 302,
      "Ġthe": 303,
      "Ġn": 304,
      "on": 305,
      "es": 306,
      "ed": 307,
      "Ġhe": 308,
      "ing": 309,
      "Ġde": 310,
      "and": 311,
      "äº": 312,
      "ch": 313,
      "Ġz": 314,
      "Ġl": 315,
      "Ġp": 316,
      "Ġe": 317,
      "Ġin": 318,
      "al": 319,
      "çļ": 320,
      "çļĦ": 321,
      "Ġc": 322,
      "re": 323,
      "Ġf": 324,
      "Ġk": 325,
      "Ġj": 326,
      "as": 327,
      "Ġth": 328,
      "om": 329,
      "Ġto": 330,
      "ä»": 331,
      "ie": 332,
      "æĪ": 333,
      "OT": 334,
      "MOT": 335,
      "Ġis": 336,
      "aar": 337,
      "ä½": 338,
      "CH": 339,
      "è¿": 340,
      "you": 341,
      "CHI": 342,
      "æĪĳ": 343,
      "ll": 344,
      "æĺ": 345,
      "Ġof": 346,
      "st": 347,
      "Ġ,": 348,
      "Ġyou": 349,
      "Ġand": 350,
      "ot": 351,
      "æĺ¯": 352,
      "ig": 353,
      "Ġon": 354,
      "Ġje": 355,
      "oor": 356,
      "Ġeen": 357,
      "Ġhet": 358,
      "ik": 359,
      "ä½ł": 360,
      "le": 361,
      "ĠI": 362,
      "äºĨ": 363,
      "å¤": 364,
      "oo": 365,
      "ad": 366,
      "id": 367,
      "æľ": 368,
      "ä¹": 369,
      "Ġu": 370,
      "åĲ": 371,
      "Ġvan": 372,
      "ere": 373,
      "ro": 374,
      "åı": 375,
      "å°": 376,
      "Ġbe": 377,
      "am": 378,
      "'s": 379,
      "Ġen": 380,
      "ä¸į": 381,
      "Ġ?": 382,
      "ä¸Ģ": 383,
      "Ġst": 384,
      "iet": 385,
      "..": 386,
      "ow": 387,
      "ut": 388,
      "Ġge": 389,
      "ak": 390,
      "Ġme": 391,
      "ur": 392,
      "ve": 393,
      "il": 394,
      "ent": 395,
      "Ġr": 396,
      "ay": 397,
      "Ġit": 398,
      "Ġwe": 399,
      "è¯": 400,
      "ic": 401,
      "è¿Ļ": 402,
      "ver": 403,
      "Ġwas": 404,
      "ijn": 405,
      "å®": 406,
      "åľ": 407,
      "ag": 408,
      "åĪ": 409,
      "Ġver": 410,
      "ee": 411,
      "Ġop": 412,
      "cht": 413,
      "Ġdat": 414,
      "å¥": 415,
      "im": 416,
      "Ġthat": 417,
      "Ġniet": 418,
      "åħ": 419,
      "de": 420,
      "un": 421,
      "Ġwh": 422,
      "ĠA": 423,
      "ĠS": 424,
      "Ġdo": 425,
      "se": 426,
      "ä¸ª": 427,
      "Ġte": 428,
      "Ik": 429,
      "ĠM": 430,
      "æĿ": 431,
      "ĠD": 432,
      "ol": 433,
      "den": 434,
      "ĠT": 435,
      "ra": 436,
      "Ġik": 437,
      "ãĢ": 438,
      "est": 439,
      "æľī": 440,
      "der": 441,
      "gen": 442,
      "å°±": 443,
      "ĠH": 444,
      "th": 445,
      "Ġal": 446,
      "oe": 447,
      "ijk": 448,
      "ir": 449,
      "åĳ": 450,
      "Ġ'": 451,
      "ant": 452,
      "ĠB": 453,
      "ion": 454,
      "ãĢĤ": 455,
      "Ġer": 456,
      "ac": 457,
      "åŃ": 458,
      "'t": 459,
      "åľ¨": 460,
      "ĥ½": 461,
      "ter": 462,
      "åķ": 463,
      "ç»": 464,
      "å¾": 465,
      "ä»¬": 466,
      "Ġvoor": 467,
      "ly": 468,
      "us": 469,
      "ĠC": 470,
      "æī": 471,
      "ven": 472,
      "ä»ĸ": 473,
      "Ġre": 474,
      "Ġgo": 475,
      "Ġfor": 476,
      "ap": 477,
      "Ġ1": 478,
      "Ġze": 479,
      "äºº": 480,
      "ht": 481,
      "ä¹Ī": 482,
      "op": 483,
      "Ġzijn": 484,
      "ier": 485,
      "æĿ¥": 486,
      "ell": 487,
      "åĽ": 488,
      "ĠæĪĳ": 489,
      "Ġmet": 490,
      "Ġmo": 491,
      "æĹ": 492,
      "è¯´": 493,
      "ill": 494,
      "ers": 495,
      "çľ": 496,
      "ge": 497,
      "çĶ": 498,
      "ken": 499,
      "åķĬ": 500,
      "éĤ": 501,
      "ft": 502,
      "ct": 503,
      "ld": 504,
      "Ġheb": 505,
      "Ġall": 506,
      "ith": 507,
      "éĤ£": 508,
      "Ġ...": 509,
      "aat": 510,
      "Ġå": 511,
      "ä¼": 512,
      "Ġwor": 513,
      "å¥½": 514,
      "Ġno": 515,
      "um": 516,
      "Ġha": 517,
      "ight": 518,
      "ĠW": 519,
      "Ġan": 520,
      "ok": 521,
      "æĢ": 522,
      "ien": 523,
      "ome": 524,
      "æ²": 525,
      "Ġdie": 526,
      "em": 527,
      "ĠP": 528,
      "åİ": 529,
      "Ġ\"": 530,
      "Ġwith": 531,
      "Ġä½ł": 532,
      "Ġaan": 533,
      "ĠG": 534,
      "Ġle": 535,
      "æĥ": 536,
      "¦ģ": 537,
      "ĠN": 538,
      "hat": 539,
      "ĠE": 540,
      "éĩ": 541,
      "è¦ģ": 542,
      "aan": 543,
      "Ġ2": 544,
      "èµ": 545,
      "Ġas": 546,
      "all": 547,
      "xx": 548,
      "åį": 549,
      "ze": 550,
      "åĬ": 551,
      "ul": 552,
      "ust": 553,
      "è®": 554,
      "ist": 555,
      "if": 556,
      "å¤§": 557,
      "nd": 558,
      "Ġover": 559,
      "Ġsp": 560,
      "ah": 561,
      "åĩ": 562,
      "Ġwat": 563,
      "Ġuit": 564,
      "ce": 565,
      "Ġat": 566,
      "ind": 567,
      "å¿": 568,
      "Ġhad": 569,
      "åĪ°": 570,
      "Ġnot": 571,
      "è§": 572,
      "èĢ": 573,
      "åŃĲ": 574,
      "Ġom": 575,
      "ĠR": 576,
      "ä¸Ĭ": 577,
      "eld": 578,
      "Ġkn": 579,
      "ĠJ": 580,
      "Ġpl": 581,
      "Ġals": 582,
      "je": 583,
      "ĠL": 584,
      "å·": 585,
      "ook": 586,
      "å¹": 587,
      "æ²¡": 588,
      "æĬ": 589,
      "eer": 590,
      "Ġthis": 591,
      "çİ": 592,
      "ä¹Ł": 593,
      "ould": 594,
      "åĨ": 595,
      "art": 596,
      "ĠF": 597,
      "Ġhave": 598,
      "å¼": 599,
      "å¸": 600,
      "ast": 601,
      "ug": 602,
      "...": 603,
      "å¯": 604,
      "éĥ½": 605,
      "Ġare": 606,
      "Ġ(": 607,
      "ĠO": 608,
      "è¿ĺ": 609,
      "ab": 610,
      "os": 611,
      "rou": 612,
      "Ġfr": 613,
      "Ġzo": 614,
      "çľĭ": 615,
      "ood": 616,
      "åİ»": 617,
      "æĸ": 618,
      "AT": 619,
      "åĵ": 620,
      "å¾Ĺ": 621,
      "ye": 622,
      "ang": 623,
      "Ġsh": 624,
      "Ħ¿": 625,
      "Ġaf": 626,
      "ri": 627,
      "ess": 628,
      "Ġne": 629,
      "èĥ½": 630,
      "æł": 631,
      "te": 632,
      "we": 633,
      "å°ı": 634,
      "è·": 635,
      "Ġhis": 636,
      "We": 637,
      "nen": 638,
      "åı¯": 639,
      "IN": 640,
      "éĹ": 641,
      "Ġbl": 642,
      "æĹ¶": 643,
      "Ġnaar": 644,
      "Ġher": 645,
      "Ġcan": 646,
      "Ġmaar": 647,
      "be": 648,
      "ä¼ļ": 649,
      "ru": 650,
      "AR": 651,
      "ond": 652,
      "ä¸º": 653,
      "sen": 654,
      "Ġone": 655,
      "åĦ¿": 656,
      "ink": 657,
      "ä»¥": 658,
      "her": 659,
      "ĠK": 660,
      "Ġup": 661,
      "æŃ": 662,
      "Ġdan": 663,
      "aal": 664,
      "rij": 665,
      "çĿ": 666,
      "ten": 667,
      "ain": 668,
      "Ġknow": 669,
      "Ġman": 670,
      "Ġyour": 671,
      "Ġthere": 672,
      "ike": 673,
      "Het": 674,
      "å¤©": 675,
      "elijk": 676,
      "ard": 677,
      "Ġmoet": 678,
      "Ġthey": 679,
      "åĴ": 680,
      "Ġdon": 681,
      "out": 682,
      "Ġor": 683,
      "åĲİ": 684,
      "ry": 685,
      "å®¶": 686,
      "INV": 687,
      "ck": 688,
      "å¦": 689,
      "ä»Ģ": 690,
      "Ġpro": 691,
      "ä»Ģä¹Ī": 692,
      "Ġ!": 693,
      "ä¸ĭ": 694,
      "ation": 695,
      "een": 696,
      "ich": 697,
      "Je": 698,
      "Ġshe": 699,
      "Ġch": 700,
      "Ġ-": 701,
      "Ġsch": 702,
      "éĿ": 703,
      "åĳ¢": 704,
      "pen": 705,
      "00": 706,
      "è¿ĩ": 707,
      "Ġwhat": 708,
      "ĠV": 709,
      "oh": 710,
      "ies": 711,
      "Ġbij": 712,
      "èĩ": 713,
      "ĠDe": 714,
      "ĠThe": 715,
      "Ġwer": 716,
      "Ġhij": 717,
      "Ġben": 718,
      "éģ": 719,
      "Ã©": 720,
      "ank": 721,
      "sch": 722,
      "åº": 723,
      "ET": 724,
      "çĽ": 725,
      "æĥ³": 726,
      "ong": 727,
      "ack": 728,
      "Ġmy": 729,
      "Ġwel": 730,
      "éĢ": 731,
      "ore": 732,
      "è¡": 733,
      "Ġget": 734,
      "çĪ": 735,
      "eel": 736,
      "Ġtw": 737,
      "ake": 738,
      "ä¸Ģä¸ª": 739,
      "Ġso": 740,
      "ine": 741,
      "You": 742,
      "äºĭ": 743,
      "è¿Ļä¸ª": 744,
      "Ġkan": 745,
      "çĿĢ": 746,
      "Ġwaar": 747,
      "LD": 748,
      "eft": 749,
      "Ġsa": 750,
      "éĩĮ": 751,
      "Ġout": 752,
      "Ġdoor": 753,
      "å¯¹": 754,
      "æķ": 755,
      "ip": 756,
      "CHILD": 757,
      "Ġab": 758,
      "na": 759,
      "æ¯": 760,
      "ull": 761,
      "æĦ": 762,
      "De": 763,
      "The": 764,
      "Ġlike": 765,
      "ber": 766,
      "TAR": 767,
      "GET": 768,
      "Ġwil": 769,
      "TARGET": 770,
      "æĭ": 771,
      "åĲĹ": 772,
      "che": 773,
      "Ġook": 774,
      "Ġfrom": 775,
      "Ġcom": 776,
      "ame": 777,
      "å¤ļ": 778,
      "åĩº": 779,
      "Ġpr": 780,
      "Ġcon": 781,
      "no": 782,
      "Wat": 783,
      "aak": 784,
      "çī": 785,
      "è°": 786,
      "acht": 787,
      "ep": 788,
      "åĲ§": 789,
      "'re": 790,
      "Ġhim": 791,
      "Ġbo": 792,
      "å°±æĺ¯": 793,
      "å½": 794,
      "qu": 795,
      "Ġex": 796,
      "Ġnog": 797,
      "FAT": 798,
      "æ°": 799,
      "Ġkun": 800,
      "ide": 801,
      "çŁ": 802,
      "og": 803,
      "elf": 804,
      "Ġsu": 805,
      "one": 806,
      "ç»Ļ": 807,
      "ort": 808,
      "Ġhier": 809,
      "ben": 810,
      "what": 811,
      "åľ°": 812,
      "au": 813,
      "ç§": 814,
      "Ġbut": 815,
      "ke": 816,
      "Ze": 817,
      "æĪĳä»¬": 818,
      "ive": 819,
      "Ġse": 820,
      "çĤ": 821,
      "Ġby": 822,
      "xxx": 823,
      "yeah": 824,
      "èĩª": 825,
      "Ġheeft": 826,
      "çĶŁ": 827,
      "æŀ": 828,
      "oed": 829,
      "Ġwere": 830,
      "çĦ": 831,
      "éģĵ": 832,
      "here": 833,
      ".\"": 834,
      "iv": 835,
      "Ġ19": 836,
      "çİ°": 837,
      "æĶ": 838,
      "Ġkom": 839,
      "æ¬": 840,
      "Dat": 841,
      "ä¸Ń": 842,
      "çĦ¶": 843,
      "ele": 844,
      "ER": 845,
      "Ġhebben": 846,
      "eren": 847,
      "od": 848,
      "Ġdit": 849,
      "Ġbr": 850,
      "Ġsee": 851,
      "Ġword": 852,
      "åģ": 853,
      "åĢ": 854,
      "Ġmen": 855,
      "è¾": 856,
      "Ġwant": 857,
      "ste": 858,
      "Ġmijn": 859,
      "our": 860,
      "æł·": 861,
      "ied": 862,
      "Ġdid": 863,
      "è·Ł": 864,
      "En": 865,
      "'m": 866,
      "ingen": 867,
      "Ġthem": 868,
      "uur": 869,
      "Ġè¿Ļ": 870,
      "itt": 871,
      "Ġgot": 872,
      "ä¿": 873,
      "mer": 874,
      "å¥¹": 875,
      "ff": 876,
      "è´": 877,
      "çĤ¹": 878,
      "].": 879,
      "Ġgoed": 880,
      "æİ": 881,
      "pl": 882,
      "Ġhem": 883,
      "å¿ĥ": 884,
      "åĴĮ": 885,
      "Ġbet": 886,
      "Ġdeze": 887,
      "ijd": 888,
      "Ġabout": 889,
      "ĠIn": 890,
      "aten": 891,
      "Ġsome": 892,
      "ally": 893,
      "æĬĬ": 894,
      "Ġgr": 895,
      "ree": 896,
      ",\"": 897,
      "Ġwill": 898,
      "ia": 899,
      "å¾Ī": 900,
      "ls": 901,
      "Ġro": 902,
      "own": 903,
      "Ġgeen": 904,
      "'ll": 905,
      "ite": 906,
      "æĢİ": 907,
      "Ġhere": 908,
      "Ġun": 909,
      "per": 910,
      "å±": 911,
      "Ġlook": 912,
      "ick": 913,
      "ä¸įæĺ¯": 914,
      "çŁ¥": 915,
      "ate": 916,
      "èĢģ": 917,
      "æ²¡æľī": 918,
      "elen": 919,
      "å§": 920,
      "uit": 921,
      "He": 922,
      "ice": 923,
      "åĮ": 924,
      "æĢİä¹Ī": 925,
      "Ġonder": 926,
      "æĮ": 927,
      "åĳĢ": 928,
      "bl": 929,
      "Ġsaid": 930,
      "åī": 931,
      "ĠHe": 932,
      "Hij": 933,
      "orm": 934,
      "éĻ": 935,
      "Ġel": 936,
      "Ġsl": 937,
      "æ³": 938,
      "ings": 939,
      "oon": 940,
      "oug": 941,
      "Ġthink": 942,
      "Ġmeer": 943,
      "ĠéĤ£": 944,
      "åĽŀ": 945,
      "to": 946,
      "åĽ½": 947,
      "pe": 948,
      "eten": 949,
      "èµ·": 950,
      "aken": 951,
      "land": 952,
      "Ġthen": 953,
      "uis": 954,
      "éķ": 955,
      "åĪ«": 956,
      "å¹´": 957,
      "Ġgeb": 958,
      "Ġhaar": 959,
      "Ġdr": 960,
      "Ġjust": 961,
      "oord": 962,
      "çľŁ": 963,
      "Ġwould": 964,
      "hing": 965,
      "è¯Ŀ": 966,
      "çŃ": 967,
      "ime": 968,
      "Ġwordt": 969,
      "Ġar": 970,
      "Ġter": 971,
      "Ġworden": 972,
      "uk": 973,
      "Ġdaar": 974,
      "zen": 975,
      "éĿ¢": 976,
      "ĠU": 977,
      "éĺ": 978,
      "Ġgaan": 979,
      "Ġ3": 980,
      "Ġnu": 981,
      "çº": 982,
      "Ġif": 983,
      "HER": 984,
      "é¢": 985,
      "av": 986,
      "Ġus": 987,
      "Ġ20": 988,
      "Ġright": 989,
      "å¼Ģ": 990,
      "that": 991,
      "ige": 992,
      "icht": 993,
      "ä¹ĭ": 994,
      "ker": 995,
      "è½": 996,
      "Ġdown": 997,
      "Ġwho": 998,
      "åĸ": 999,
      "are": 1000,
      "ost": 1001,
      "atie": 1002,
      "Ġsay": 1003,
      "ĠIt": 1004,
      "Ġcl": 1005,
      "æĪĲ": 1006,
      "ound": 1007,
      "Ġhou": 1008,
      "eg": 1009,
      "Ġany": 1010,
      "lijk": 1011,
      "è¡Į": 1012,
      "éķ¿": 1013,
      "çĻ": 1014,
      "other": 1015,
      "æĤ": 1016,
      "yes": 1017,
      "Ġwhen": 1018,
      "ĠSt": 1019,
      "ittle": 1020,
      "åıĳ": 1021,
      "ne": 1022,
      "ud": 1023,
      "Ġnow": 1024,
      "å®ŀ": 1025,
      "pp": 1026,
      "age": 1027,
      "Ġjij": 1028,
      "Ġbeg": 1029,
      "æĥħ": 1030,
      "Ġag": 1031,
      "ass": 1032,
      "oek": 1033,
      "Ġzou": 1034,
      "çĲ": 1035,
      "æĦı": 1036,
      "men": 1037,
      "my": 1038,
      "ous": 1039,
      "ans": 1040,
      "Ġoff": 1041,
      "çŁ¥éģĵ": 1042,
      "ĠCh": 1043,
      "å·±": 1044,
      "It": 1045,
      "Ġkl": 1046,
      "ose": 1047,
      "Ġdoen": 1048,
      "ek": 1049,
      "Ġgro": 1050,
      "jes": 1051,
      "Ġbed": 1052,
      "nt": 1053,
      "Ġhand": 1054,
      "Waar": 1055,
      "way": 1056,
      "Ġ[": 1057,
      "Ġweet": 1058,
      "æīĢ": 1059,
      "èĩªå·±": 1060,
      "Ġback": 1061,
      "è®©": 1062,
      "uw": 1063,
      "Ġbel": 1064,
      "èµ°": 1065,
      "æ´": 1066,
      "åģļ": 1067,
      "ish": 1068,
      "ther": 1069,
      "å®ļ": 1070,
      "als": 1071,
      "Ġhas": 1072,
      "åĢĻ": 1073,
      "çĶ¨": 1074,
      "Ġbeen": 1075,
      "ç»ı": 1076,
      "pt": 1077,
      "Ġput": 1078,
      "åįģ": 1079,
      "è§ī": 1080,
      "Ġgen": 1081,
      "rouw": 1082,
      "Ġzeg": 1083,
      "åıª": 1084,
      "ity": 1085,
      "MOTHER": 1086,
      "ew": 1087,
      "dat": 1088,
      "agen": 1089,
      "Ġgaat": 1090,
      "'ve": 1091,
      "Ġgew": 1092,
      "æµ": 1093,
      "Ġont": 1094,
      "Ġlittle": 1095,
      "Ġbest": 1096,
      "ä½Ĩ": 1097,
      "Ġä»ĸ": 1098,
      "ach": 1099,
      "ĠZ": 1100,
      "æľĢ": 1101,
      "ool": 1102,
      "ç¬": 1103,
      "ause": 1104,
      "æĹ¶åĢĻ": 1105,
      "Ġga": 1106,
      "çİ°åľ¨": 1107,
      "Ġkunnen": 1108,
      "Ġhoe": 1109,
      "iets": 1110,
      "Ġgoing": 1111,
      "äºĽ": 1112,
      "Ġbent": 1113,
      "ç®": 1114,
      "els": 1115,
      "ace": 1116,
      "Ġtime": 1117,
      "eden": 1118,
      "æīĵ": 1119,
      "eder": 1120,
      "In": 1121,
      "ure": 1122,
      "ä¸ī": 1123,
      "Ġvol": 1124,
      "åŃ¦": 1125,
      "éĴ": 1126,
      "Ġcould": 1127,
      "oc": 1128,
      "åĿ": 1129,
      "æĸ¹": 1130,
      "oll": 1131,
      "åīį": 1132,
      "Ġmore": 1133,
      "Ġmin": 1134,
      "ob": 1135,
      "ire": 1136,
      "ade": 1137,
      "Ã«": 1138,
      "omen": 1139,
      "Ġhun": 1140,
      "ble": 1141,
      "Maar": 1142,
      "iss": 1143,
      "Ġeven": 1144,
      "Ġgev": 1145,
      "ĠFr": 1146,
      "ullie": 1147,
      "èĬ": 1148,
      "Ġtot": 1149,
      "Als": 1150,
      "la": 1151,
      "ment": 1152,
      "å½ĵ": 1153,
      "igen": 1154,
      "cause": 1155,
      "ater": 1156,
      "pr": 1157,
      "kt": 1158,
      "Ġons": 1159,
      "äºĮ": 1160,
      "å¦Ī": 1161,
      "Ġmij": 1162,
      "Ġplay": 1163,
      "Ġtheir": 1164,
      "heid": 1165,
      "Ġxxx": 1166,
      "åĽł": 1167,
      "the": 1168,
      "me": 1169,
      "aren": 1170,
      "ian": 1171,
      "wer": 1172,
      "mand": 1173,
      "Ġtwo": 1174,
      "alk": 1175,
      "Ġgood": 1176,
      "åħ¬": 1177,
      "Ġpe": 1178,
      "onder": 1179,
      "Ġfl": 1180,
      "æĻ": 1181,
      "æ¸": 1182,
      "ars": 1183,
      "æīĭ": 1184,
      "Ġvr": 1185,
      "åı¯ä»¥": 1186,
      "iend": 1187,
      "Ġjou": 1188,
      "ç«": 1189,
      "wh": 1190,
      "å¤ª": 1191,
      "Oh": 1192,
      "Ġsom": 1193,
      "Ġhel": 1194,
      "å¥³": 1195,
      "old": 1196,
      "Ġveel": 1197,
      "åĬ¨": 1198,
      "Ġvery": 1199,
      "éĽ": 1200,
      "Ġna": 1201,
      "Ġwater": 1202,
      "orn": 1203,
      "ä¸¤": 1204,
      "Ġqu": 1205,
      "Ġzal": 1206,
      "do": 1207,
      "Nee": 1208,
      "Ġwhich": 1209,
      "æĺİ": 1210,
      "åĲ¬": 1211,
      "åĪĨ": 1212,
      "Een": 1213,
      "ng": 1214,
      "Ġsn": 1215,
      "Ġper": 1216,
      "Th": 1217,
      "éĹ®": 1218,
      "What": 1219,
      "int": 1220,
      "å®ĥ": 1221,
      "ĠHet": 1222,
      "oof": 1223,
      "racht": 1224,
      "Ġgel": 1225,
      "è§ģ": 1226,
      "åĲĥ": 1227,
      "Ja": 1228,
      "èĤ": 1229,
      "amen": 1230,
      "æĤ¨": 1231,
      "raag": 1232,
      "oot": 1233,
      "ç§į": 1234,
      "ert": 1235,
      "man": 1236,
      "?\"": 1237,
      "äºİ": 1238,
      "æŀľ": 1239,
      "urn": 1240,
      "ellen": 1241,
      "Ġeer": 1242,
      "Ġzien": 1243,
      "èĢĮ": 1244,
      "Ye": 1245,
      "uh": 1246,
      "éļ": 1247,
      "Ġtr": 1248,
      "ote": 1249,
      "èº": 1250,
      "éĹ´": 1251,
      "Ġhebt": 1252,
      "Ġinto": 1253,
      "ä»İ": 1254,
      "Ġden": 1255,
      "è¢": 1256,
      "è¶": 1257,
      "oel": 1258,
      "åĨį": 1259,
      "Ġiets": 1260,
      "æŃ£": 1261,
      "af": 1262,
      "æ±": 1263,
      "Ġtwee": 1264,
      "iek": 1265,
      "And": 1266,
      "åĺ": 1267,
      "Ġalleen": 1268,
      "aakt": 1269,
      "æ¯Ķ": 1270,
      "Ġweg": 1271,
      "Ġweer": 1272,
      "ase": 1273,
      "irst": 1274,
      "Yeah": 1275,
      "é£": 1276,
      "of": 1277,
      "Hoe": 1278,
      "Ġged": 1279,
      "ief": 1280,
      "æĽ": 1281,
      "é¡": 1282,
      "ä½ľ": 1283,
      "ruik": 1284,
      "sh": 1285,
      "wn": 1286,
      "very": 1287,
      "reat": 1288,
      "Ġcome": 1289,
      "act": 1290,
      "åĲĮ": 1291,
      "ç¾": 1292,
      "Ġpart": 1293,
      "ople": 1294,
      "Ġcar": 1295,
      "å¤´": 1296,
      "innen": 1297,
      "ild": 1298,
      "end": 1299,
      "Ġ4": 1300,
      "Ġother": 1301,
      "éĶ": 1302,
      "onna": 1303,
      "æģ": 1304,
      "ä»ĸä»¬": 1305,
      "oen": 1306,
      "åıĪ": 1307,
      "ord": 1308,
      "ĠTh": 1309,
      "Ġzit": 1310,
      "Ġä¸į": 1311,
      "ark": 1312,
      "ary": 1313,
      "ount": 1314,
      "æī¾": 1315,
      "ale": 1316,
      "ult": 1317,
      "iz": 1318,
      "ys": 1319,
      "æ¬¡": 1320,
      "oren": 1321,
      "ough": 1322,
      "åħ³": 1323,
      "Ġmoeten": 1324,
      "cl": 1325,
      "chter": 1326,
      "ä¾": 1327,
      "è¿Ľ": 1328,
      "åħ¶": 1329,
      "Ġsm": 1330,
      "Ġmu": 1331,
      "Ġlet": 1332,
      "esch": 1333,
      "oop": 1334,
      "Er": 1335,
      "Ġjullie": 1336,
      "é«": 1337,
      "æľ¬": 1338,
      "Ġtegen": 1339,
      "Ġway": 1340,
      "æĦŁ": 1341,
      "du": 1342,
      "éĤ£ä¸ª": 1343,
      "Ġam": 1344,
      "æ³ķ": 1345,
      "é«ĺ": 1346,
      "Ġterug": 1347,
      "ren": 1348,
      "ance": 1349,
      "Ġy": 1350,
      "ä¸»": 1351,
      "Ġnie": 1352,
      "Ġagain": 1353,
      "Ġgonna": 1354,
      "åĬĽ": 1355,
      "beeld": 1356,
      "sp": 1357,
      "ely": 1358,
      "Ġhow": 1359,
      "Ġad": 1360,
      "Ġgez": 1361,
      "Ġvert": 1362,
      "cc": 1363,
      "ile": 1364,
      "Ġland": 1365,
      "Ġwhere": 1366,
      "Ġcall": 1367,
      "ue": 1368,
      "Ġwork": 1369,
      "åħĪ": 1370,
      "Ġdoes": 1371,
      "èº«": 1372,
      "Ġmensen": 1373,
      "Ġeens": 1374,
      "ä»Ĭ": 1375,
      "iver": 1376,
      "æīį": 1377,
      "--": 1378,
      "ci": 1379,
      "å¹²": 1380,
      "Ġpeople": 1381,
      "è§īå¾Ĺ": 1382,
      "Ġmee": 1383,
      "Ġfirst": 1384,
      "è°¢": 1385,
      "Kom": 1386,
      "rit": 1387,
      "çĭ": 1388,
      "Ġtake": 1389,
      "ische": 1390,
      "Ġzich": 1391,
      "Ġkomt": 1392,
      "çĦ¶åĲİ": 1393,
      "ä½łä»¬": 1394,
      "ub": 1395,
      "èĦ": 1396,
      "è¿Ļä¹Ī": 1397,
      "Ġsec": 1398,
      "erd": 1399,
      "åŃ©": 1400,
      "ise": 1401,
      "ugh": 1402,
      "è¾¹": 1403,
      "No": 1404,
      "çŃī": 1405,
      "è¢«": 1406,
      "Ġcont": 1407,
      "ock": 1408,
      "Ġtijd": 1409,
      "èĥ": 1410,
      "Ġkw": 1411,
      "å¦Ĥ": 1412,
      "¥¿": 1413,
      "æį": 1414,
      "Ġsc": 1415,
      "Dit": 1416,
      "Ġmake": 1417,
      "èĭ": 1418,
      "amp": 1419,
      "Ġleven": 1420,
      "Wh": 1421,
      "å£": 1422,
      "çļĦæĹ¶åĢĻ": 1423,
      "æ°Ķ": 1424,
      "æĶ¾": 1425,
      "Ġkon": 1426,
      "ef": 1427,
      "Ġsomet": 1428,
      "air": 1429,
      "ç½": 1430,
      "Ġmaken": 1431,
      "gens": 1432,
      "é©": 1433,
      "AN": 1434,
      "Ġstr": 1435,
      "éĴ±": 1436,
      "Ġwerd": 1437,
      "Ġres": 1438,
      "Ġlaat": 1439,
      "ens": 1440,
      "!\"": 1441,
      "åĽłä¸º": 1442,
      "Ġwell": 1443,
      "Ġact": 1444,
      "Ġtoo": 1445,
      "ty": 1446,
      "Ġ5": 1447,
      "ĠY": 1448,
      "Ġ201": 1449,
      "åĥ": 1450,
      "St": 1451,
      "iÃ«": 1452,
      "where": 1453,
      "Ġkrij": 1454,
      "Ġim": 1455,
      "okay": 1456,
      "gt": 1457,
      "ES": 1458,
      "ĠæĪĳä»¬": 1459,
      "éĥ": 1460,
      "kay": 1461,
      "Ġday": 1462,
      "Ġandere": 1463,
      "ijf": 1464,
      "hed": 1465,
      "ath": 1466,
      "ger": 1467,
      "çĲĨ": 1468,
      "elt": 1469,
      "éĩį": 1470,
      "Ġjaar": 1471,
      "è¿Ļæł·": 1472,
      "ather": 1473,
      "round": 1474,
      "Ġ200": 1475,
      "Ġlang": 1476,
      "ect": 1477,
      "Ġkle": 1478,
      "ave": 1479,
      "Ĺ¯": 1480,
      "ç©": 1481,
      "ann": 1482,
      "Ġie": 1483,
      "dig": 1484,
      "dy": 1485,
      "åħ¨": 1486,
      "over": 1487,
      "çģ": 1488,
      "çĶµ": 1489,
      "Ġtell": 1490,
      "ated": 1491,
      "OR": 1492,
      "Ġfe": 1493,
      "Ġtra": 1494,
      "Ġkomen": 1495,
      "å·²": 1496,
      "æ°´": 1497,
      "å¿«": 1498,
      "é¢ĺ": 1499,
      "çĥ": 1500,
      "oog": 1501,
      "ä½Ĩæĺ¯": 1502,
      "çķ": 1503,
      "ĠÂ": 1504,
      ").": 1505,
      "ieren": 1506,
      "Ġgebruik": 1507,
      "ader": 1508,
      "Ġafter": 1509,
      "get": 1510,
      "hm": 1511,
      "ç¥": 1512,
      "è¥¿": 1513,
      "æĹ¥": 1514,
      "ooit": 1515,
      "Ġtoch": 1516,
      "åºĶ": 1517,
      "ç³": 1518,
      "ä½ĵ": 1519,
      "app": 1520,
      "çĪ¸": 1521,
      "roug": 1522,
      "æ¡": 1523,
      "å¸¸": 1524,
      "ov": 1525,
      "æ¬¢": 1526,
      "ove": 1527,
      "åĥı": 1528,
      "Ġla": 1529,
      "Ã©n": 1530,
      "åĵª": 1531,
      "ĠMr": 1532,
      "Ġecht": 1533,
      "ouw": 1534,
      "ting": 1535,
      "arm": 1536,
      "èģ": 1537,
      "èī": 1538,
      "inn": 1539,
      "uid": 1540,
      "åĸľ": 1541,
      "å¨": 1542,
      "vol": 1543,
      "Ġonly": 1544,
      "ont": 1545,
      "çĽ¸": 1546,
      "That": 1547,
      "å©": 1548,
      "ons": 1549,
      "ç´": 1550,
      "Ġsle": 1551,
      "è¿ĺæĺ¯": 1552,
      "çī¹": 1553,
      "aby": 1554,
      "çĽ´": 1555,
      "Is": 1556,
      "Ġvl": 1557,
      "alen": 1558,
      "æĹł": 1559,
      "çĻ½": 1560,
      "Ġneed": 1561,
      "Ġgek": 1562,
      "appen": 1563,
      "Ġple": 1564,
      "æĪĳçļĦ": 1565,
      "åŁ": 1566,
      "çī©": 1567,
      "inder": 1568,
      "ict": 1569,
      "Ġour": 1570,
      "iff": 1571,
      "up": 1572,
      "Ġye": 1573,
      "ĠAmer": 1574,
      "æľº": 1575,
      "urt": 1576,
      "Ġgl": 1577,
      "io": 1578,
      "æĸ°": 1579,
      "Ġopen": 1580,
      "there": 1581,
      "Ġhele": 1582,
      "ä¸ľ": 1583,
      "è¯¥": 1584,
      "Ġlong": 1585,
      "ä¿¡": 1586,
      "å·¥": 1587,
      "éħ": 1588,
      "All": 1589,
      "Ġmade": 1590,
      "able": 1591,
      "Ġma": 1592,
      "æŁ": 1593,
      "çİĭ": 1594,
      "æ´»": 1595,
      "Ġinter": 1596,
      "åı«": 1597,
      "Ġnooit": 1598,
      "èĪ": 1599,
      "eef": 1600,
      "åĩł": 1601,
      "Ġspe": 1602,
      "ussen": 1603,
      "Ġcomp": 1604,
      "But": 1605,
      "ady": 1606,
      "uck": 1607,
      "Ġthese": 1608,
      "æİ¥": 1609,
      "çĪ±": 1610,
      "Ġzw": 1611,
      "fore": 1612,
      "sl": 1613,
      "voor": 1614,
      "Ġwon": 1615,
      "è§£": 1616,
      "çļĦäºº": 1617,
      "Ġdis": 1618,
      "ix": 1619,
      "Ġelk": 1620,
      "ders": 1621,
      "arl": 1622,
      "ende": 1623,
      "åĵ¥": 1624,
      "æīĢä»¥": 1625,
      "Ġmuch": 1626,
      "ma": 1627,
      "Ġbro": 1628,
      "Ġevery": 1629,
      "ought": 1630,
      "ory": 1631,
      "Ġzelf": 1632,
      "TI": 1633,
      "åıĭ": 1634,
      "Ġbig": 1635,
      "å¤ĸ": 1636,
      "Ġste": 1637,
      "Ġbeh": 1638,
      "ions": 1639,
      "oud": 1640,
      "Ġæĺ¯": 1641,
      "ç¦": 1642,
      "å°ĳ": 1643,
      "Ġaway": 1644,
      "è°ģ": 1645,
      "Ġmag": 1646,
      "Ġalso": 1647,
      "æı": 1648,
      "zelf": 1649,
      "ember": 1650,
      "é©¬": 1651,
      "Ġdidn": 1652,
      "ja": 1653,
      "Ġverd": 1654,
      "Ġå°±": 1655,
      "Ġrem": 1656,
      "right": 1657,
      "Ġgu": 1658,
      "Ġvrouw": 1659,
      "Ġsomething": 1660,
      "ina": 1661,
      "ving": 1662,
      "look": 1663,
      "èĬ±": 1664,
      "ife": 1665,
      "åŃ©åŃĲ": 1666,
      "Ġthan": 1667,
      "Ġversch": 1668,
      "cent": 1669,
      "å®Į": 1670,
      "Ġreg": 1671,
      "ä½į": 1672,
      "åĪļ": 1673,
      "ä½łçļĦ": 1674,
      "Ġwent": 1675,
      "äºĶ": 1676,
      "Ġwerk": 1677,
      "Ġpers": 1678,
      "Well": 1679,
      "æ¶": 1680,
      "ph": 1681,
      "æĿ¥äºĨ": 1682,
      "Ġgem": 1683,
      "Ġmom": 1684,
      "Ġmil": 1685,
      "Ġheel": 1686,
      "Ġzei": 1687,
      "çľŁçļĦ": 1688,
      "èĻ": 1689,
      "ä¸Ģä¸ĭ": 1690,
      "oem": 1691,
      "onden": 1692,
      "Ġalles": 1693,
      "tijd": 1694,
      "open": 1695,
      "Waarom": 1696,
      "ederland": 1697,
      "Ġstaat": 1698,
      "ç»ĵ": 1699,
      "anna": 1700,
      "day": 1701,
      "Ġvo": 1702,
      "ç¬¬": 1703,
      "Ġshould": 1704,
      "Ġvind": 1705,
      "Ġunder": 1706,
      "æľĪ": 1707,
      "Ġverl": 1708,
      "van": 1709,
      "oorden": 1710,
      "ange": 1711,
      "Ġpol": 1712,
      "thing": 1713,
      "ç¡": 1714,
      "ç¾İ": 1715,
      "oort": 1716,
      "åĳĬ": 1717,
      "Ġblij": 1718,
      "åĹ¯": 1719,
      "ward": 1720,
      "iden": 1721,
      "åıĺ": 1722,
      "oss": 1723,
      "çĻ¾": 1724,
      "rijk": 1725,
      "Ġkijk": 1726,
      "elijke": 1727,
      "So": 1728,
      "è¿ĺæľī": 1729,
      "åĽĽ": 1730,
      "è½¦": 1731,
      "akes": 1732,
      "æŃ»": 1733,
      "Ġkind": 1734,
      "Ġbloed": 1735,
      "orry": 1736,
      "åĲĪ": 1737,
      "é¦": 1738,
      "ĠShe": 1739,
      "Ġtalk": 1740,
      "'d": 1741,
      "self": 1742,
      "off": 1743,
      "çĮ": 1744,
      "AD": 1745,
      "ĠJe": 1746,
      "Ġbefore": 1747,
      "oy": 1748,
      "ĠUn": 1749,
      "æ·": 1750,
      "Ġpre": 1751,
      "Ġeigen": 1752,
      "ors": 1753,
      "åı¯èĥ½": 1754,
      "ãĢģ": 1755,
      "éľ": 1756,
      "eerd": 1757,
      "åĨĽ": 1758,
      "Ã©Ã©n": 1759,
      "woord": 1760,
      "port": 1761,
      "idd": 1762,
      "ijden": 1763,
      "ets": 1764,
      "atuur": 1765,
      "ä¸įèĥ½": 1766,
      "ĠÂ·": 1767,
      "ĠNederland": 1768,
      "åľº": 1769,
      "æĢĿ": 1770,
      "Ġbaby": 1771,
      "å·²ç»ı": 1772,
      "æ¼": 1773,
      "ä»Ĭå¤©": 1774,
      "orgen": 1775,
      "gr": 1776,
      "ign": 1777,
      "Ġhead": 1778,
      "ait": 1779,
      "aam": 1780,
      "Ġschool": 1781,
      "amil": 1782,
      "éĥ¨": 1783,
      "å¸¦": 1784,
      "sel": 1785,
      "kken": 1786,
      "ĠÃ©Ã©n": 1787,
      "Ġnet": 1788,
      "ãĢĤ\"": 1789,
      "igh": 1790,
      "éĥ½æĺ¯": 1791,
      "é»": 1792,
      "row": 1793,
      "Ġdoing": 1794,
      "Ġnodig": 1795,
      "unt": 1796,
      "ä½ı": 1797,
      "éª": 1798,
      "pro": 1799,
      "Ġreally": 1800,
      "Ġmis": 1801,
      "Ġmay": 1802,
      "ç¤": 1803,
      "Ġask": 1804,
      "rough": 1805,
      "Ġant": 1806,
      "Ġnum": 1807,
      "ww": 1808,
      "Ġgebe": 1809,
      "Ġhome": 1810,
      "Ġbecause": 1811,
      "å±±": 1812,
      "ĠAl": 1813,
      "Ġbu": 1814,
      "Ġlast": 1815,
      "aking": 1816,
      "geven": 1817,
      "eds": 1818,
      "èį": 1819,
      "èĲ": 1820,
      "åĵĪ": 1821,
      "ATOR": 1822,
      "uren": 1823,
      "TIG": 1824,
      ":\"": 1825,
      "br": 1826,
      "allen": 1827,
      "Ġhouse": 1828,
      "Ġthree": 1829,
      "Ġmean": 1830,
      "éļ¾": 1831,
      "éĶĻ": 1832,
      "çĹ": 1833,
      "INVES": 1834,
      "TIGATOR": 1835,
      "INVESTIGATOR": 1836,
      "Ġåĵ": 1837,
      "Ġser": 1838,
      "ces": 1839,
      "bij": 1840,
      "Ġweten": 1841,
      "but": 1842,
      "stand": 1843,
      "å®ī": 1844,
      "åĺĽ": 1845,
      "åĸľæ¬¢": 1846,
      "Ġhuis": 1847,
      "Ġjon": 1848,
      "Ġnew": 1849,
      "ious": 1850,
      "åĴ±": 1851,
      "å§Ĳ": 1852,
      "Ġgir": 1853,
      "enn": 1854,
      "Ġbot": 1855,
      "Ġstop": 1856,
      "veel": 1857,
      "Ġverk": 1858,
      "Ġalle": 1859,
      "ummy": 1860,
      "can": 1861,
      "Ġhelp": 1862,
      "Ġcame": 1863,
      "ĠMar": 1864,
      "Ġkunt": 1865,
      "åĪ°äºĨ": 1866,
      "Ġju": 1867,
      "Ġ6": 1868,
      "inden": 1869,
      "äºĭåĦ¿": 1870,
      "åĬŀ": 1871,
      "Ġä¸Ģ": 1872,
      "Ġstart": 1873,
      "Ġinf": 1874,
      "eep": 1875,
      "Ġaltijd": 1876,
      "come": 1877,
      "Ga": 1878,
      "é¥": 1879,
      "door": 1880,
      "ister": 1881,
      "ved": 1882,
      "Ġdoe": 1883,
      "æľĭ": 1884,
      "è·¯": 1885,
      "Ġgrote": 1886,
      "Ġdenk": 1887,
      "Ġcalled": 1888,
      "Ġtoen": 1889,
      "Ġold": 1890,
      "Ġdag": 1891,
      "ĠZe": 1892,
      "Ġthrough": 1893,
      "å¤§å®¶": 1894,
      "Ġmany": 1895,
      "æ»": 1896,
      "æĽ´": 1897,
      "oint": 1898,
      "eem": 1899,
      "schien": 1900,
      "oofd": 1901,
      "æĢ»": 1902,
      "å¸Ī": 1903,
      "Ġmust": 1904,
      "Ġche": 1905,
      "ubl": 1906,
      "æĹ¶éĹ´": 1907,
      "éĿŀ": 1908,
      "Jij": 1909,
      "æ¯ı": 1910,
      "æľĭåıĭ": 1911,
      "ç²": 1912,
      "Ġonze": 1913,
      "Ġtoe": 1914,
      "red": 1915,
      "éĢļ": 1916,
      "Ġachter": 1917,
      "Ġthought": 1918,
      "Ġiemand": 1919,
      "Ġwanna": 1920,
      "ss": 1921,
      "çĸ": 1922,
      "org": 1923,
      "æĸĩ": 1924,
      "ç¨": 1925,
      "erk": 1926,
      "Ġaut": 1927,
      "les": 1928,
      "zoek": 1929,
      "esl": 1930,
      "Ġthing": 1931,
      "kÃ©": 1932,
      "Ġzeggen": 1933,
      "Ġthings": 1934,
      "ried": 1935,
      "åĲį": 1936,
      "000": 1937,
      "äº²": 1938,
      "Daar": 1939,
      "Ġgra": 1940,
      "Ġelkaar": 1941,
      "vel": 1942,
      "Ġnever": 1943,
      "xt": 1944,
      "Ġwaren": 1945,
      "Ġbinnen": 1946,
      "çļĦè¯Ŀ": 1947,
      "Ġfind": 1948,
      "ents": 1949,
      "ä¹Łä¸į": 1950,
      "ĠIk": 1951,
      "ä¸ĩ": 1952,
      "Ġeat": 1953,
      "è¯·": 1954,
      "Ġplaat": 1955,
      "Yes": 1956,
      "çĪ·": 1957,
      "ä¸ļ": 1958,
      "æĭ¿": 1959,
      "wij": 1960,
      "Ġits": 1961,
      "ucht": 1962,
      "å¸®": 1963,
      "uwe": 1964,
      "Ġanother": 1965,
      "Ġæľī": 1966,
      "isch": 1967,
      "çľ¼": 1968,
      "ful": 1969,
      "æĪĺ": 1970,
      "åıĹ": 1971,
      "bo": 1972,
      "å°Ĩ": 1973,
      "ail": 1974,
      "ins": 1975,
      "ereen": 1976,
      "ates": 1977,
      "Ġzegt": 1978,
      "Ġturn": 1979,
      "etje": 1980,
      "fr": 1981,
      "Ġtre": 1982,
      "åĬł": 1983,
      "Ġthose": 1984,
      "aart": 1985,
      "Ġminut": 1986,
      "Goed": 1987,
      "Ġvast": 1988,
      "rop": 1989,
      "Ġgroot": 1990,
      "amer": 1991,
      "ama": 1992,
      "Ġgive": 1993,
      "Ġ18": 1994,
      "Ġkeer": 1995,
      "emaal": 1996,
      "éĹ¨": 1997,
      "ĠGod": 1998,
      "Ġfamil": 1999,
      "ç®Ĺ": 2000,
      "åı£": 2001,
      "uiten": 2002,
      "$$": 2003,
      "ters": 2004,
      "ullen": 2005,
      "Ġdood": 2006,
      "è¡¨": 2007,
      "Ġchild": 2008,
      "ical": 2009,
      "Ġsamen": 2010,
      "UL": 2011,
      "Ġdrie": 2012,
      "Heb": 2013,
      "Ġtussen": 2014,
      "ç¡®": 2015,
      "Ġå¦": 2016,
      "Ġshow": 2017,
      "let": 2018,
      "IS": 2019,
      "è®¤": 2020,
      "äºĨä¸Ģ": 2021,
      "EN": 2022,
      "Ġgeh": 2023,
      "ä¹Łæĺ¯": 2024,
      "é¸": 2025,
      "Ġgreat": 2026,
      "éĢī": 2027,
      "æħ": 2028,
      "ĠYou": 2029,
      "gende": 2030,
      "ç³»": 2031,
      "ä»»": 2032,
      "ĠEen": 2033,
      "Ġniets": 2034,
      "isten": 2035,
      "åĲĳ": 2036,
      "åħī": 2037,
      "Ġcount": 2038,
      "Ġfound": 2039,
      "åİŁ": 2040,
      "èĢħ": 2041,
      "ib": 2042,
      "Ġdiff": 2043,
      "Ġzie": 2044,
      "çł": 2045,
      "æŃ¤": 2046,
      "kom": 2047,
      "çĽ®": 2048,
      "Ġeerste": 2049,
      "Ġbook": 2050,
      "Ġâ": 2051,
      "Ġstill": 2052,
      "ĠBe": 2053,
      "åº¦": 2054,
      "well": 2055,
      "Ġbit": 2056,
      "å¹³": 2057,
      "Ġå¥½": 2058,
      "vo": 2059,
      "gel": 2060,
      "Ġlaten": 2061,
      "unn": 2062,
      "Ġrec": 2063,
      "ody": 2064,
      "éĺŁ": 2065,
      "è±": 2066,
      "ited": 2067,
      "Ġkinder": 2068,
      "çĶ·": 2069,
      "Ġwij": 2070,
      "ude": 2071,
      "Ġzoals": 2072,
      "Wel": 2073,
      "Ġbus": 2074,
      "ever": 2075,
      "Ġname": 2076,
      "Ġgewoon": 2077,
      "Ġpres": 2078,
      "Ġdus": 2079,
      "è®°": 2080,
      "ä»¶": 2081,
      "ms": 2082,
      "Ġfin": 2083,
      "åĶ": 2084,
      "Ġrel": 2085,
      "ĠEng": 2086,
      "ä¿Ŀ": 2087,
      "Ġåľ¨": 2088,
      "ĠçĦ¶åĲİ": 2089,
      "æľĽ": 2090,
      "çĲĥ": 2091,
      "ction": 2092,
      "ç®¡": 2093,
      "ä¸İ": 2094,
      "oeg": 2095,
      "Ġerg": 2096,
      "ĠThey": 2097,
      "éĵ": 2098,
      "imes": 2099,
      "æĴ": 2100,
      "ually": 2101,
      "aard": 2102,
      "ĠAnd": 2103,
      "Die": 2104,
      "She": 2105,
      "Ġproble": 2106,
      "Ġdone": 2107,
      "ULT": 2108,
      "å£°": 2109,
      "Ġsit": 2110,
      "ĠAn": 2111,
      "Ġnight": 2112,
      "Ġlot": 2113,
      "ican": 2114,
      "ĠHij": 2115,
      "å½±": 2116,
      "ADULT": 2117,
      "Ġmeest": 2118,
      "éĩı": 2119,
      "They": 2120,
      "æ®": 2121,
      "eter": 2122,
      "åĮĸ": 2123,
      "Mijn": 2124,
      "Ġwr": 2125,
      "åħ¶å®ŀ": 2126,
      "Ġ7": 2127,
      "æ¢": 2128,
      "ä¸ĸ": 2129,
      "ident": 2130,
      "å¤Ħ": 2131,
      "åĳ½": 2132,
      "åĩºæĿ¥": 2133,
      "ä»£": 2134,
      "Ġmight": 2135,
      "åıį": 2136,
      "éĤ£ä¹Ī": 2137,
      "Ġhard": 2138,
      "Ġaround": 2139,
      "Ġnou": 2140,
      "Ġred": 2141,
      "emen": 2142,
      "Ġpop": 2143,
      "ooi": 2144,
      "beelding": 2145,
      "æĢ§": 2146,
      "çª": 2147,
      "è¯ī": 2148,
      "On": 2149,
      "geb": 2150,
      "Ġap": 2151,
      "kend": 2152,
      "çħ": 2153,
      "çŃĶ": 2154,
      "Ġlater": 2155,
      "Ġvader": 2156,
      "ç»ĻæĪĳ": 2157,
      "Ġhappen": 2158,
      "ĠGr": 2159,
      "Laat": 2160,
      "dracht": 2161,
      "ĠAr": 2162,
      "æ¸ħ": 2163,
      "èİ": 2164,
      "Ġstaan": 2165,
      "Ġwereld": 2166,
      "äºĭæĥħ": 2167,
      "ese": 2168,
      "Ġdoet": 2169,
      "ä¸Ģèµ·": 2170,
      "åħ«": 2171,
      "Ġcomm": 2172,
      ".]": 2173,
      "å»": 2174,
      "oos": 2175,
      "This": 2176,
      "æĮº": 2177,
      "æĹ©": 2178,
      "è·Łä½ł": 2179,
      "æĳ": 2180,
      "laugh": 2181,
      "eling": 2182,
      "Ġ10": 2183,
      "Zo": 2184,
      "Ġbre": 2185,
      "æıĲ": 2186,
      "20": 2187,
      "å²": 2188,
      "Ġapp": 2189,
      "Ġuw": 2190,
      "æ°ĳ": 2191,
      "aw": 2192,
      "Ġ8": 2193,
      "Ġtry": 2194,
      "oeken": 2195,
      "Ġfil": 2196,
      "æµ·": 2197,
      "Ġhal": 2198,
      "æ¥": 2199,
      "Ġmon": 2200,
      "ä¸ŃåĽ½": 2201,
      "ç¦»": 2202,
      "Ġcol": 2203,
      "ift": 2204,
      "Ġgeld": 2205,
      "çļĦæĺ¯": 2206,
      "åħ¥": 2207,
      "æĬ¥": 2208,
      "she": 2209,
      "vl": 2210,
      "Ġallemaal": 2211,
      "äº¤": 2212,
      "åĪ©": 2213,
      "Ġgirl": 2214,
      "æĲ": 2215,
      "Ġend": 2216,
      "å¨ĺ": 2217,
      "ä»ĸçļĦ": 2218,
      "æĢķ": 2219,
      "anten": 2220,
      "Ġdes": 2221,
      "iteit": 2222,
      "iel": 2223,
      "è¶Ĭ": 2224,
      "Ġown": 2225,
      "Ġplace": 2226,
      "Ġgedaan": 2227,
      "Ġä½Ĩæĺ¯": 2228,
      "ition": 2229,
      "Ġboy": 2230,
      "æĻļ": 2231,
      "Ġvinden": 2232,
      "ĠSch": 2233,
      "å¥½çļĦ": 2234,
      "rijf": 2235,
      "Ġprodu": 2236,
      "Ġmost": 2237,
      "å©ļ": 2238,
      "ä½ķ": 2239,
      "ç¼": 2240,
      "Ġatt": 2241,
      "side": 2242,
      "å¢": 2243,
      "Ġisn": 2244,
      "Ġmed": 2245,
      "ĠWe": 2246,
      "Ġprob": 2247,
      "ai": 2248,
      "åĳĺ": 2249,
      "å¼ł": 2250,
      "arn": 2251,
      "ieve": 2252,
      "åı¸": 2253,
      "ial": 2254,
      "ĠEn": 2255,
      "Ġfour": 2256,
      "Ġverh": 2257,
      "Ġied": 2258,
      "Ġlig": 2259,
      "ced": 2260,
      "Ġsteeds": 2261,
      "Ġbetter": 2262,
      "Ġanders": 2263,
      "oney": 2264,
      "room": 2265,
      "ĠWh": 2266,
      "Ġokay": 2267,
      "åı¯æĺ¯": 2268,
      "\".": 2269,
      "Ġvraag": 2270,
      "ijt": 2271,
      "Ġweek": 2272,
      "Ġused": 2273,
      "Ġå°ı": 2274,
      "Ġå°±æĺ¯": 2275,
      "Ġpap": 2276,
      "Ġsuch": 2277,
      "é£İ": 2278,
      "),": 2279,
      "aag": 2280,
      "å§ĭ": 2281,
      "Ġ199": 2282,
      "åĳĬè¯ī": 2283,
      "ä¸įä¼ļ": 2284,
      "There": 2285,
      "hes": 2286,
      "anden": 2287,
      "Ġbelang": 2288,
      "ster": 2289,
      "éĩĳ": 2290,
      "ç±": 2291,
      "Ġfeel": 2292,
      "ä¸Ģå®ļ": 2293,
      "éĹ®é¢ĺ": 2294,
      "oet": 2295,
      "æĪĳå°±": 2296,
      "vent": 2297,
      "ĠBr": 2298,
      "alt": 2299,
      "Ġzitten": 2300,
      "Ġnieuwe": 2301,
      "æľŁ": 2302,
      "Ġfriend": 2303,
      "omm": 2304,
      "erg": 2305,
      "Ġten": 2306,
      "çı": 2307,
      "Ġrest": 2308,
      "ä¸ºä»Ģä¹Ī": 2309,
      "Ġkinderen": 2310,
      "æľį": 2311,
      "è£": 2312,
      "Ġmother": 2313,
      "ä¹°": 2314,
      "ĠEr": 2315,
      "med": 2316,
      "uister": 2317,
      "æ¡Ī": 2318,
      "RA": 2319,
      "Ġè¿Ļä¸ª": 2320,
      "Ġhoofd": 2321,
      "Ġzij": 2322,
      "æĪ¿": 2323,
      "æ£": 2324,
      "ä»¥åĲİ": 2325,
      "ç»Ļä½ł": 2326,
      "ä¿©": 2327,
      "pect": 2328,
      "Ġvriend": 2329,
      "ple": 2330,
      "äº§": 2331,
      "Ġyears": 2332,
      "Ġverm": 2333,
      "Ġve": 2334,
      "ations": 2335,
      "Ġvragen": 2336,
      "æĿ¡": 2337,
      "put": 2338,
      "Ġmoeder": 2339,
      "Ġomdat": 2340,
      "erm": 2341,
      "èī²": 2342,
      "Ġbesch": 2343,
      "Ġsnel": 2344,
      "ä¹Ŀ": 2345,
      "Op": 2346,
      "ork": 2347,
      "ĠLe": 2348,
      "Ġwillen": 2349,
      "åĨħ": 2350,
      "Ġru": 2351,
      "åķ¥": 2352,
      "Ġverschill": 2353,
      "Ġpar": 2354,
      "EL": 2355,
      "apt": 2356,
      "Ġdra": 2357,
      "Niet": 2358,
      "Ġwelke": 2359,
      "rist": 2360,
      "Ġcr": 2361,
      "az": 2362,
      "Ġwilde": 2363,
      "How": 2364,
      "Ġmar": 2365,
      "è¿ŀ": 2366,
      "æķħ": 2367,
      "æĶ¶": 2368,
      "ps": 2369,
      "çİ©": 2370,
      "èµ·æĿ¥": 2371,
      "Ġaant": 2372,
      "è¿ĳ": 2373,
      "Ġsame": 2374,
      "ä¸ľè¥¿": 2375,
      "oten": 2376,
      "Ġsche": 2377,
      "ared": 2378,
      "å¼Ł": 2379,
      "åºĶè¯¥": 2380,
      "Ġelse": 2381,
      "Ġmoment": 2382,
      "gan": 2383,
      "ĠSp": 2384,
      "Ġdog": 2385,
      "outh": 2386,
      "å¤Ł": 2387,
      "Ġging": 2388,
      "body": 2389,
      "Ġwie": 2390,
      "Ġsy": 2391,
      "ä¸ĢçĤ¹": 2392,
      "eek": 2393,
      "æķ°": 2394,
      "ways": 2395,
      "å¦Īå¦Ī": 2396,
      "ĠNew": 2397,
      "åħŃ": 2398,
      "Voor": 2399,
      "ä¸Ķ": 2400,
      "Ġstad": 2401,
      "assen": 2402,
      "Ġå¯": 2403,
      "ern": 2404,
      "è¿ĻäºĽ": 2405,
      "Ġå¦Ĥ": 2406,
      "äººçļĦ": 2407,
      "è®²": 2408,
      "Ġroom": 2409,
      "çī¹åĪ«": 2410,
      "ence": 2411,
      "gest": 2412,
      "Ġ9": 2413,
      "Ġbeing": 2414,
      "æķĻ": 2415,
      "addy": 2416,
      "ird": 2417,
      "ash": 2418,
      "oman": 2419,
      "ames": 2420,
      "ĠAll": 2421,
      "so": 2422,
      "Ġlife": 2423,
      "ett": 2424,
      "Ġwhy": 2425,
      "åºķ": 2426,
      "ased": 2427,
      "ä¸Ģæł·": 2428,
      "Ġverg": 2429,
      "è°¢è°¢": 2430,
      "Ġmat": 2431,
      "res": 2432,
      "mp": 2433,
      "cy": 2434,
      "ĠåĴ": 2435,
      "èĩªå·±çļĦ": 2436,
      "Ġvolgende": 2437,
      "If": 2438,
      "Ġnext": 2439,
      "Dan": 2440,
      "OkÃ©": 2441,
      "maal": 2442,
      "olog": 2443,
      "éŁ": 2444,
      "Ġbron": 2445,
      "åĳ¨": 2446,
      "they": 2447,
      "éħĴ": 2448,
      "orth": 2449,
      "å®Ŀ": 2450,
      "Ġpolit": 2451,
      "Ġbelangrijk": 2452,
      "ĠAls": 2453,
      "Wie": 2454,
      "mm": 2455,
      "ower": 2456,
      "this": 2457,
      "ĠWat": 2458,
      "Ġplan": 2459,
      "é¼": 2460,
      "Ġerm": 2461,
      "Ġsk": 2462,
      "ince": 2463,
      "Ġuur": 2464,
      "Ġafbeelding": 2465,
      "åĳĥ": 2466,
      "komen": 2467,
      "Ġbeter": 2468,
      "now": 2469,
      "ä¹Ĳ": 2470,
      "Ġbez": 2471,
      "Ġdoesn": 2472,
      "how": 2473,
      "Ġfather": 2474,
      "ikk": 2475,
      "Ġä½łä»¬": 2476,
      "Ġperson": 2477,
      "Ġcent": 2478,
      "Kijk": 2479,
      "å¾Ģ": 2480,
      "Weet": 2481,
      "Ġph": 2482,
      "Ġbev": 2483,
      "its": 2484,
      "åĪ¶": 2485,
      "Ġdacht": 2486,
      "\",": 2487,
      "Ġleft": 2488,
      "è·ĳ": 2489,
      "éĢģ": 2490,
      "è¿ľ": 2491,
      "Ġkrijgen": 2492,
      "ede": 2493,
      "Ġplaats": 2494,
      "ĠOp": 2495,
      "Al": 2496,
      "Ġjuist": 2497,
      "ept": 2498,
      "ĠFrank": 2499,
      "baar": 2500,
      "Ġeten": 2501,
      "Ġsays": 2502,
      "Ġacc": 2503,
      "ject": 2504,
      "ped": 2505,
      "Ġexc": 2506,
      "æĦıæĢĿ": 2507,
      "aad": 2508,
      "ĠEu": 2509,
      "æ¼Ķ": 2510,
      "Ġwhile": 2511,
      "arly": 2512,
      "Ġid": 2513,
      "å®³": 2514,
      "ĠBut": 2515,
      "Ġwaarom": 2516,
      "Ġke": 2517,
      "EX": 2518,
      "Ġele": 2519,
      "Ġvrij": 2520,
      "çĨ": 2521,
      "Ġstand": 2522,
      "erent": 2523,
      "Ġret": 2524,
      "è¿Ļæĺ¯": 2525,
      "ui": 2526,
      "ctor": 2527,
      "å¤«": 2528,
      "led": 2529,
      "iding": 2530,
      "Ġuse": 2531,
      "ica": 2532,
      "Ġverand": 2533,
      "åİ»äºĨ": 2534,
      "æł¹": 2535,
      "ational": 2536,
      "Ġnaam": 2537,
      "vis": 2538,
      "Ġleg": 2539,
      "mhm": 2540,
      "ves": 2541,
      "çĬ": 2542,
      "uss": 2543,
      "å¼Ģå§ĭ": 2544,
      "bs": 2545,
      "ton": 2546,
      "ä¸ĥ": 2547,
      "Ġsure": 2548,
      "aut": 2549,
      "ba": 2550,
      "å¾Īå¤ļ": 2551,
      "éľĢ": 2552,
      "roeg": 2553,
      "ocht": 2554,
      "ĠæīĢä»¥": 2555,
      "Ġco": 2556,
      "éĿŀå¸¸": 2557,
      "esp": 2558,
      "Ġkeep": 2559,
      "Ġsur": 2560,
      "ohn": 2561,
      "Ġå¯¹": 2562,
      "laughs": 2563,
      "ush": 2564,
      "ç¬ĳ": 2565,
      "Ġgre": 2566,
      "Ġliv": 2567,
      "ijkt": 2568,
      ",'": 2569,
      "PAR": 2570,
      "é¥Ń": 2571,
      "Ġhoor": 2572,
      "not": 2573,
      "Ġlie": 2574,
      "ç¥ŀ": 2575,
      "Dus": 2576,
      "ling": 2577,
      "akken": 2578,
      "Ġbox": 2579,
      "Ġac": 2580,
      "ä¸¤ä¸ª": 2581,
      "çº¢": 2582,
      "Ġyeah": 2583,
      "til": 2584,
      "Ġball": 2585,
      "Ġgone": 2586,
      "å¼º": 2587,
      "åįĥ": 2588,
      "Ġcour": 2589,
      "ots": 2590,
      "ç«ĭ": 2591,
      "Ġmaakt": 2592,
      "Ġlove": 2593,
      "ä¹¦": 2594,
      "raat": 2595,
      "Ġzet": 2596,
      "Ġind": 2597,
      "Ġkill": 2598,
      "åŃĹ": 2599,
      "Ġsupp": 2600,
      "åĴ±ä»¬": 2601,
      "Ġanything": 2602,
      "ĠDit": 2603,
      ".'": 2604,
      "Ġsw": 2605,
      "Ġnice": 2606,
      "éĻ¢": 2607,
      "Wil": 2608,
      "çļĦä¸Ģ": 2609,
      "EXP": 2610,
      "Ġpaar": 2611,
      "Ġlooks": 2612,
      "who": 2613,
      "Ġtele": 2614,
      "èĢĥ": 2615,
      "Ġsaw": 2616,
      "Ġkwam": 2617,
      "aring": 2618,
      "ream": 2619,
      "ç©º": 2620,
      "ats": 2621,
      "att": 2622,
      "ieft": 2623,
      "è®¡": 2624,
      "ä¾¿": 2625,
      "oun": 2626,
      "str": 2627,
      "oes": 2628,
      "ged": 2629,
      "ouden": 2630,
      "Ġcons": 2631,
      "ä¹ĭåĲİ": 2632,
      "åľ¨è¿Ļ": 2633,
      "Ġå¦Ĥæŀľ": 2634,
      "è·ŁæĪĳ": 2635,
      "Ã¯": 2636,
      "Ġtru": 2637,
      "Ġgeven": 2638,
      "Ġziet": 2639,
      "Ġja": 2640,
      "Ġspr": 2641,
      "èı": 2642,
      "åĽŀæĿ¥": 2643,
      "Ġsing": 2644,
      "ween": 2645,
      "Ġwait": 2646,
      "Ġmoest": 2647,
      "ä¸ºäºĨ": 2648,
      "ĠThis": 2649,
      "Ġalways": 2650,
      "Ġmaak": 2651,
      "Ġjouw": 2652,
      "åĲĦ": 2653,
      "ä¼ł": 2654,
      "æļ": 2655,
      "Ġpat": 2656,
      "iks": 2657,
      "Ġwind": 2658,
      "æ±Ĥ": 2659,
      "SIS": 2660,
      "Ġvis": 2661,
      "ĠOn": 2662,
      "ä¸įå¥½": 2663,
      "çħ§": 2664,
      "Ġart": 2665,
      "åĿĹ": 2666,
      "Ġvlie": 2667,
      "waar": 2668,
      "oto": 2669,
      "Hier": 2670,
      "Ġorgan": 2671,
      "ç´§": 2672,
      "Ġkijken": 2673,
      "Ġbedoel": 2674,
      "ĠDat": 2675,
      "èĬĤ": 2676,
      "åĮĹ": 2677,
      "çģ«": 2678,
      "Ġbuiten": 2679,
      "å¸Ĥ": 2680,
      "å¤§çļĦ": 2681,
      "Ġgoede": 2682,
      "é£ŀ": 2683,
      "Ġtook": 2684,
      "è¿Ĳ": 2685,
      "åı¥": 2686,
      "ific": 2687,
      "æĭī": 2688,
      "æģ¯": 2689,
      "ruk": 2690,
      "ium": 2691,
      "erman": 2692,
      "acter": 2693,
      "èĽ": 2694,
      "ĠMaar": 2695,
      "atuurlijk": 2696,
      "Ġhalf": 2697,
      "åĸĿ": 2698,
      "Ben": 2699,
      "è®¸": 2700,
      "æµģ": 2701,
      "don": 2702,
      "Ġcle": 2703,
      "Ġwilt": 2704,
      "å·¥ä½ľ": 2705,
      "Ġå¥¹": 2706,
      "Ġbad": 2707,
      "ung": 2708,
      "Ġleuk": 2709,
      "Ġtold": 2710,
      "ape": 2711,
      "schap": 2712,
      "ĠInd": 2713,
      "è¿Ļç§į": 2714,
      "Ġteam": 2715,
      "Ġwalk": 2716,
      "ustr": 2717,
      "Ġonderzoek": 2718,
      "net": 2719,
      "Ġdist": 2720,
      "Ġzeker": 2721,
      "ield": 2722,
      "An": 2723,
      "Ch": 2724,
      "ä½¿": 2725,
      "Ġåĵİ": 2726,
      "çĶŁæ´»": 2727,
      "ĠèĢĮ": 2728,
      "çľĭçľĭ": 2729,
      "çĹħ": 2730,
      "mb": 2731,
      "ĠQ": 2732,
      "ä¸Ģæ¬¡": 2733,
      "åĿĲ": 2734,
      "uring": 2735,
      "è¦ģæĺ¯": 2736,
      "åĩĨ": 2737,
      "ished": 2738,
      "çĶ±": 2739,
      "Ġgemaakt": 2740,
      "Ġside": 2741,
      "Ġster": 2742,
      "une": 2743,
      "Ġ15": 2744,
      "Ġgoes": 2745,
      "ta": 2746,
      "ä¸įçŁ¥éģĵ": 2747,
      "å¥½äºĨ": 2748,
      "NAN": 2749,
      "å»º": 2750,
      "ks": 2751,
      "uff": 2752,
      "Hey": 2753,
      "ä¸įè¦ģ": 2754,
      "èħ": 2755,
      "Ġdire": 2756,
      "Ġgest": 2757,
      "Ġopdracht": 2758,
      "val": 2759,
      "huh": 2760,
      "ĠAmerican": 2761,
      "Ġdeel": 2762,
      "Ġpopul": 2763,
      "ç¢": 2764,
      "Ġdifferent": 2765,
      "Ġzullen": 2766,
      "ries": 2767,
      "eeft": 2768,
      "Ġsound": 2769,
      "ĠBij": 2770,
      "ijdens": 2771,
      "Ġverschillende": 2772,
      "Ġtek": 2773,
      "Ġreal": 2774,
      "Ġass": 2775,
      "auw": 2776,
      "Ġround": 2777,
      "Ġboven": 2778,
      "Ġuntil": 2779,
      "ollow": 2780,
      "19": 2781,
      "enten": 2782,
      "Ġä¹Ł": 2783,
      "Ġvier": 2784,
      "æĪĸ": 2785,
      "åįķ": 2786,
      "èĮ": 2787,
      "Ġnumber": 2788,
      "gd": 2789,
      "cept": 2790,
      "HE": 2791,
      "ract": 2792,
      "Ġworld": 2793,
      "å¤ĩ": 2794,
      "çķĮ": 2795,
      "æ®µ": 2796,
      "åŁİ": 2797,
      "gaan": 2798,
      "Ġhart": 2799,
      "Ġgezien": 2800,
      "Ġinform": 2801,
      "Ġå¤§": 2802,
      "Ġfew": 2803,
      "çķĻ": 2804,
      "Nu": 2805,
      "isschien": 2806,
      "Ġzonder": 2807,
      "åĨ³": 2808,
      "Why": 2809,
      "Ġtrain": 2810,
      "GRA": 2811,
      "Ġslecht": 2812,
      "Ġnam": 2813,
      "Ġpass": 2814,
      "æŀĹ": 2815,
      "ĠBrit": 2816,
      "ley": 2817,
      "åı°": 2818,
      "Ġpie": 2819,
      "ä¼¤": 2820,
      "ĠSh": 2821,
      "cle": 2822,
      "Ġdec": 2823,
      "Ġbep": 2824,
      "è¯Ĩ": 2825,
      "Ġ17": 2826,
      "zelfde": 2827,
      "æ¯į": 2828,
      "Ġair": 2829,
      "Ġlight": 2830,
      "æķ´": 2831,
      "Okay": 2832,
      "è±¡": 2833,
      "aden": 2834,
      "ä¸ĢçĽ´": 2835,
      "arr": 2836,
      "Ġcoming": 2837,
      "DS": 2838,
      "eb": 2839,
      "ĠDaar": 2840,
      "Don": 2841,
      "gelijk": 2842,
      "Ã¨": 2843,
      "é¡¹": 2844,
      "Ġantwoord": 2845,
      "Ġaantal": 2846,
      "ony": 2847,
      "ness": 2848,
      "èµ¶": 2849,
      "Ġknown": 2850,
      "ieden": 2851,
      "ivers": 2852,
      "Ġeyes": 2853,
      "Ġpoint": 2854,
      "æĮģ": 2855,
      "Ġå½": 2856,
      "aald": 2857,
      "ole": 2858,
      "åĭ": 2859,
      "Ġvoed": 2860,
      "Ġhold": 2861,
      "ross": 2862,
      "achten": 2863,
      "ĠUnited": 2864,
      "Ġasked": 2865,
      "å®¹": 2866,
      "elling": 2867,
      "Ġeerst": 2868,
      "éľĢè¦ģ": 2869,
      "king": 2870,
      "èĤ¯": 2871,
      "æį®": 2872,
      "ĠæĢİä¹Ī": 2873,
      "Ġcare": 2874,
      "Ġtop": 2875,
      "Ġhelpen": 2876,
      "Ġsmall": 2877,
      "Be": 2878,
      "any": 2879,
      "Ġoor": 2880,
      "éĺ¿": 2881,
      "son": 2882,
      "Ġfive": 2883,
      "æĺ¯ä¸įæĺ¯": 2884,
      "Ġsecond": 2885,
      "Ġdi": 2886,
      "stof": 2887,
      "ope": 2888,
      "Ġenough": 2889,
      "çĪ¶": 2890,
      "æĦŁè§ī": 2891,
      "cial": 2892,
      "Ġbec": 2893,
      "è¾ĥ": 2894,
      "Ġmoney": 2895,
      "Ġvoel": 2896,
      "ĠPh": 2897,
      "Ġblijven": 2898,
      "vie": 2899,
      "Ġnieuw": 2900,
      "by": 2901,
      "Ġvand": 2902,
      "å¤±": 2903,
      "åķ¦": 2904,
      "çīĩ": 2905,
      "why": 2906,
      "Sorry": 2907,
      "æĺŁ": 2908,
      "Ġread": 2909,
      "uld": 2910,
      "ane": 2911,
      "Ġbetween": 2912,
      "Ġface": 2913,
      "Ġboth": 2914,
      "å¹¶": 2915,
      "åħ³ç³»": 2916,
      "æĶ¹": 2917,
      "cies": 2918,
      "enen": 2919,
      "Ġgesch": 2920,
      "Ġken": 2921,
      "ĠIs": 2922,
      "angen": 2923,
      "Ġthough": 2924,
      "æĮĩ": 2925,
      "äºĨåĲĹ": 2926,
      "èµĦ": 2927,
      "zet": 2928,
      "æĦ¿": 2929,
      "Ġæ²¡": 2930,
      "Ġfact": 2931,
      "Ver": 2932,
      "ids": 2933,
      "è¯ģ": 2934,
      "Ġhelemaal": 2935,
      "Ġfar": 2936,
      "åıĳçİ°": 2937,
      "æľīä¸Ģ": 2938,
      "fect": 2939,
      "åĵİ": 2940,
      "Ġdoll": 2941,
      "Ġ198": 2942,
      "åįĬ": 2943,
      "åħ¬åı¸": 2944,
      "Ġlaatste": 2945,
      "chten": 2946,
      "ĠRe": 2947,
      "go": 2948,
      "ĠThere": 2949,
      "Ġklaar": 2950,
      "Ġseen": 2951,
      "Ġstud": 2952,
      "ics": 2953,
      "æĶ¿": 2954,
      "gether": 2955,
      "Now": 2956,
      "Ġhot": 2957,
      "Ġtogether": 2958,
      "Ġhouden": 2959,
      "Ġgenoeg": 2960,
      "Ġsix": 2961,
      "eth": 2962,
      "Ġeach": 2963,
      "die": 2964,
      "Ġcur": 2965,
      "Ġverb": 2966,
      "allo": 2967,
      "con": 2968,
      "å¦Ĥæŀľ": 2969,
      "Ġtoday": 2970,
      "OU": 2971,
      "å¿ħ": 2972,
      "çľĭåĪ°": 2973,
      "Ġwerden": 2974,
      "Do": 2975,
      "Ġfun": 2976,
      "Ġfire": 2977,
      "Ġgewe": 2978,
      "çº¿": 2979,
      "æ¶Ī": 2980,
      "Ġmus": 2981,
      "Ġlar": 2982,
      "ankt": 2983,
      "æħ¢": 2984,
      "Ġbew": 2985,
      "Ġremember": 2986,
      "ĠâĢ": 2987,
      "Ġmoe": 2988,
      "Ġpraten": 2989,
      "Come": 2990,
      "Om": 2991,
      "è½¬": 2992,
      "orning": 2993,
      "éº": 2994,
      "Ġever": 2995,
      "Ġniks": 2996,
      "ĮæľĽ": 2997,
      "Ġtri": 2998,
      "æĭľ": 2999,
      "ating": 3000,
      "rek": 3001,
      "Ġint": 3002,
      "Ġmeis": 3003,
      "éĽ¶": 3004,
      "Ġiedereen": 3005,
      "apen": 3006,
      "wel": 3007,
      "èµ°äºĨ": 3008,
      "anneer": 3009,
      "Ġplease": 3010,
      "Ġè¿ĺ": 3011,
      "èµĽ": 3012,
      "Not": 3013,
      "oit": 3014,
      "Ġverder": 3015,
      "ider": 3016,
      "åı·": 3017,
      "ĠBob": 3018,
      "Ġ12": 3019,
      "Ġstay": 3020,
      "å¯¼": 3021,
      "ç¨ĭ": 3022,
      "ible": 3023,
      "åħ´": 3024,
      "ball": 3025,
      "Ġdingen": 3026,
      "elde": 3027,
      "æŁ¥": 3028,
      "Let": 3029,
      "ex": 3030,
      "Ġeff": 3031,
      "äººå®¶": 3032,
      "Ġing": 3033,
      "ĠHier": 3034,
      "aps": 3035,
      "fta": 3036,
      "aul": 3037,
      "Ġneem": 3038,
      "Ġlucht": 3039,
      "eng": 3040,
      "ijs": 3041,
      "ĠDeze": 3042,
      "www": 3043,
      "Ġauto": 3044,
      "Ġtekst": 3045,
      "tje": 3046,
      "ired": 3047,
      "Ġchar": 3048,
      "è®©æĪĳ": 3049,
      "æ»¡": 3050,
      "Met": 3051,
      "mber": 3052,
      "ĠåĽłä¸º": 3053,
      "enk": 3054,
      "Ġontst": 3055,
      "aur": 3056,
      "wo": 3057,
      "å¥¶": 3058,
      "åĬ¡": 3059,
      "ä½łå¥½": 3060,
      "ax": 3061,
      "ĠChrist": 3062,
      "ught": 3063,
      "Ġè¦ģ": 3064,
      "ĠæĤ¨": 3065,
      "Ġber": 3066,
      "Ġyear": 3067,
      "Le": 3068,
      "åķĨ": 3069,
      "èĩ³": 3070,
      "Ġlooking": 3071,
      "Bl": 3072,
      "erde": 3073,
      "bed": 3074,
      "Ġmiss": 3075,
      "Ġcat": 3076,
      "Ġçİ°åľ¨": 3077,
      "Ġgeeft": 3078,
      "yp": 3079,
      "æº": 3080,
      "çĵ": 3081,
      "Dank": 3082,
      "ha": 3083,
      "é±": 3084,
      "Ġstuk": 3085,
      "åĮħ": 3086,
      "uc": 3087,
      "æŃ¥": 3088,
      "é±¼": 3089,
      "äºĨæĪĳ": 3090,
      "Ġgeweld": 3091,
      "use": 3092,
      "Ġger": 3093,
      "çŁ³": 3094,
      "Ġdrink": 3095,
      "gro": 3096,
      "Ġspijt": 3097,
      "Ġjongen": 3098,
      "åħ±": 3099,
      "uz": 3100,
      "Ġ16": 3101,
      "Ġvroeg": 3102,
      "Ġfollow": 3103,
      "Ġnothing": 3104,
      "Ġcut": 3105,
      "Ġåį": 3106,
      "ches": 3107,
      "Ġeind": 3108,
      "ellow": 3109,
      "Ġä½łè¯´": 3110,
      "ips": 3111,
      "Misschien": 3112,
      "åįĹ": 3113,
      "Ġhafta": 3114,
      "ched": 3115,
      "æĿĢ": 3116,
      "èĢģå¸Ī": 3117,
      "æ³¨": 3118,
      "Ġgeweest": 3119,
      "¿½": 3120,
      "åľ°æĸ¹": 3121,
      "å¼ı": 3122,
      "é¦ĸ": 3123,
      "zer": 3124,
      "æĿİ": 3125,
      "ator": 3126,
      "ĠåĨ": 3127,
      "ĠAmerik": 3128,
      "wat": 3129,
      "Ġnee": 3130,
      "aas": 3131,
      "ual": 3132,
      "çŀ": 3133,
      "Ġvorm": 3134,
      "Geef": 3135,
      "åĽ¢": 3136,
      "Ġgener": 3137,
      "Ġgebruikt": 3138,
      "Ġyes": 3139,
      "dr": 3140,
      "ä¹ī": 3141,
      "ants": 3142,
      "ably": 3143,
      "Ġgebeur": 3144,
      "Ġpresent": 3145,
      "ĠåĴ±": 3146,
      "Ġlief": 3147,
      "Ġem": 3148,
      "raak": 3149,
      "Ġhaven": 3150,
      "æİĴ": 3151,
      "ump": 3152,
      "Ġbang": 3153,
      "ijken": 3154,
      "ï¿½": 3155,
      "Ġmorning": 3156,
      "Ġpick": 3157,
      "log": 3158,
      "ures": 3159,
      "Ġbeetje": 3160,
      "Ġrecht": 3161,
      "åĮº": 3162,
      "ç§ĳ": 3163,
      "Ġvaak": 3164,
      "åł": 3165,
      "Ġsoort": 3166,
      "Ġmove": 3167,
      "Ġdisc": 3168,
      "éŃ": 3169,
      "Ġcoll": 3170,
      "Ġfoot": 3171,
      "åĮ»": 3172,
      "äºĮåįģ": 3173,
      "Ġwin": 3174,
      "Ġum": 3175,
      "åĬŁ": 3176,
      "å¿Ļ": 3177,
      "éĩĮéĿ¢": 3178,
      "åĵģ": 3179,
      "Ġsleep": 3180,
      "é¾": 3181,
      "Ġsong": 3182,
      "anks": 3183,
      "Ġ197": 3184,
      "é»ĳ": 3185,
      "Ġide": 3186,
      "Doe": 3187,
      "Ġä½Ĩ": 3188,
      "æĪĳæĺ¯": 3189,
      "urg": 3190,
      "ĠHoe": 3191,
      "è¿ĩæĿ¥": 3192,
      "Ġsorry": 3193,
      "ulp": 3194,
      "Ġwatch": 3195,
      "Ġè¯´": 3196,
      "Ġincl": 3197,
      "ĠGerman": 3198,
      "åĨĻ": 3199,
      "ron": 3200,
      "çıŃ": 3201,
      "nee": 3202,
      "uil": 3203,
      "ines": 3204,
      "Ġwar": 3205,
      "reken": 3206,
      "ĠWhat": 3207,
      "lo": 3208,
      "Ġhear": 3209,
      "Ġfoto": 3210,
      "èĤ¯å®ļ": 3211,
      "Ġgetting": 3212,
      "Ġgroe": 3213,
      "Ġidee": 3214,
      "ĠJohn": 3215,
      "ä¸ĭæĿ¥": 3216,
      "iÃ«n": 3217,
      "çĪ¸çĪ¸": 3218,
      "Ġåıª": 3219,
      "oth": 3220,
      "Ġhadden": 3221,
      "çĿ¡": 3222,
      "Ġè¿Ļæĺ¯": 3223,
      "eert": 3224,
      "Geen": 3225,
      "æ¸¸": 3226,
      "å¦¹": 3227,
      "è´¨": 3228,
      "Ġklein": 3229,
      "æ·±": 3230,
      "Ġå½ĵ": 3231,
      "ering": 3232,
      "å¾·": 3233,
      "ç²¾": 3234,
      "CDS": 3235,
      "Ġalong": 3236,
      "è¯ķ": 3237,
      "ijna": 3238,
      "Ġmens": 3239,
      "Ġcourse": 3240,
      "è½»": 3241,
      "Mr": 3242,
      "ily": 3243,
      "Ġwist": 3244,
      "Ġext": 3245,
      "fess": 3246,
      "æĢ¥": 3247,
      "Ġlooked": 3248,
      "Mm": 3249,
      "LO": 3250,
      "Ġkant": 3251,
      "osed": 3252,
      "rijven": 3253,
      "åĵĪåĵĪ": 3254,
      "åĤ": 3255,
      "Ġbeste": 3256,
      "Ġkleine": 3257,
      "Ġou": 3258,
      "ä¼ļåĦ¿": 3259,
      "Ġä»ĸä»¬": 3260,
      "eerde": 3261,
      "åĢĴ": 3262,
      "Ġchildren": 3263,
      "Wacht": 3264,
      "water": 3265,
      "å¥½å¥½": 3266,
      "Ġset": 3267,
      "Ġhigh": 3268,
      "aster": 3269,
      "éĿĴ": 3270,
      "ĠCl": 3271,
      "éĺ³": 3272,
      "çĥŃ": 3273,
      "ding": 3274,
      "ä½łè¯´": 3275,
      "leg": 3276,
      "Ġquite": 3277,
      "Ġ0": 3278,
      "Ġnat": 3279,
      "å±ķ": 3280,
      "Of": 3281,
      "itch": 3282,
      "ott": 3283,
      "anger": 3284,
      "ison": 3285,
      "è§Ĩ": 3286,
      "Ġkrijgt": 3287,
      "Ġheen": 3288,
      "ĠPr": 3289,
      "rew": 3290,
      "Ġmind": 3291,
      "Ġgrou": 3292,
      "ctie": 3293,
      "ç«Ļ": 3294,
      "Ġcontro": 3295,
      "offen": 3296,
      "ĠâĢ¢": 3297,
      "PAT": 3298,
      "Ġooit": 3299,
      "aanse": 3300,
      "Ġdeed": 3301,
      "Ġlich": 3302,
      "ĠAt": 3303,
      "æİī": 3304,
      "é¹": 3305,
      "Ġrun": 3306,
      "å«": 3307,
      "ĠVoor": 3308,
      "Ġgraag": 3309,
      "ason": 3310,
      "Ġonce": 3311,
      "Ġ11": 3312,
      "ging": 3313,
      "äº®": 3314,
      "Ġrond": 3315,
      "æĺĵ": 3316,
      "æķ¢": 3317,
      "zo": 3318,
      "avond": 3319,
      "ä¸ĬçļĦ": 3320,
      "Ġshall": 3321,
      "æłĳ": 3322,
      "Ġagainst": 3323,
      "form": 3324,
      "åħĦ": 3325,
      "ĠSte": 3326,
      "å¸ĮæľĽ": 3327,
      "Sch": 3328,
      "Ġbas": 3329,
      "Ġlive": 3330,
      "Ġanim": 3331,
      "kker": 3332,
      "ement": 3333,
      "Ġwoman": 3334,
      "Ġvak": 3335,
      "ĠAs": 3336,
      "Hallo": 3337,
      "Ġå¹": 3338,
      "Ġwonder": 3339,
      "Ġnemen": 3340,
      "èģĶ": 3341,
      "åŁº": 3342,
      "Ġonge": 3343,
      "éŁ³": 3344,
      "è¡£": 3345,
      "ney": 3346,
      "Ġboys": 3347,
      "Ġsub": 3348,
      "Ġwanted": 3349,
      "Ġyet": 3350,
      "most": 3351,
      "Ġhoog": 3352,
      "æĪĳè§īå¾Ĺ": 3353,
      "dem": 3354,
      "Ġligt": 3355,
      "Ġthuis": 3356,
      "oopt": 3357,
      "ieten": 3358,
      "jebl": 3359,
      "é¢Ĩ": 3360,
      "ital": 3361,
      "ç¿": 3362,
      "å¤į": 3363,
      "Ġmanier": 3364,
      "æķĳ": 3365,
      "cess": 3366,
      "åħµ": 3367,
      "å¾ħ": 3368,
      "éĥ½ä¸į": 3369,
      "Ġnear": 3370,
      "Ġboek": 3371,
      "Ġdied": 3372,
      "æ¥ļ": 3373,
      "gegeven": 3374,
      "weede": 3375,
      "ĠStates": 3376,
      "Ġhands": 3377,
      "ç½ĳ": 3378,
      "åįĸ": 3379,
      "éĨ": 3380,
      "Ġstra": 3381,
      "ç»Ī": 3382,
      "Ġoffic": 3383,
      "Ġmisschien": 3384,
      "oven": 3385,
      "Ġdri": 3386,
      "Ġborn": 3387,
      "Ġhers": 3388,
      "Ġheard": 3389,
      "ĠMummy": 3390,
      "Ġsoon": 3391,
      "ennis": 3392,
      "nie": 3393,
      "Ġvill": 3394,
      "æľ¯": 3395,
      "Ġform": 3396,
      "Ġfilm": 3397,
      "etty": 3398,
      "Ġrust": 3399,
      "ĠJap": 3400,
      "å·®": 3401,
      "ä¹ĭåīį": 3402,
      "Ġges": 3403,
      "éĢł": 3404,
      "çīĽ": 3405,
      "Ġyoung": 3406,
      "Âł": 3407,
      "æĪĳä¹Ł": 3408,
      "ds": 3409,
      "æĩ": 3410,
      "oke": 3411,
      "æĢª": 3412,
      "æīĢæľī": 3413,
      "ocal": 3414,
      "æ²³": 3415,
      "Ġgebruiken": 3416,
      "uizen": 3417,
      "è°ĥ": 3418,
      "äºĨä½ł": 3419,
      "Ġminder": 3420,
      "Ġcir": 3421,
      "Nou": 3422,
      "å¿Ĺ": 3423,
      "akk": 3424,
      "Ġleave": 3425,
      "åĨµ": 3426,
      "ä¸ĸçķĮ": 3427,
      "Ġhoud": 3428,
      "Ġtree": 3429,
      "Ġzorgen": 3430,
      "Ġtalking": 3431,
      "Ġreturn": 3432,
      "jeblieft": 3433,
      "zie": 3434,
      "Ġdef": 3435,
      "vers": 3436,
      "ç»Ń": 3437,
      "Ġknew": 3438,
      "ä¹ł": 3439,
      "uurt": 3440,
      "æľĢåĲİ": 3441,
      "rom": 3442,
      "Ġheet": 3443,
      "åį´": 3444,
      "è¾¾": 3445,
      "Ġmooi": 3446,
      "HÃ©": 3447,
      "did": 3448,
      "æł¼": 3449,
      "Ġcountry": 3450,
      "inds": 3451,
      "Bed": 3452,
      "æ¯Ķè¾ĥ": 3453,
      "èĭ¦": 3454,
      "igd": 3455,
      "åĪĺ": 3456,
      "ä¸Ģä¸ªäºº": 3457,
      "å½¢": 3458,
      "Ġ202": 3459,
      "ĠèĢģ": 3460,
      "Ġhen": 3461,
      "ities": 3462,
      "Ġtrans": 3463,
      "Ġbere": 3464,
      "åıĬ": 3465,
      "èĲ½": 3466,
      "Ġfall": 3467,
      "èģĬ": 3468,
      "çļĦå°ı": 3469,
      "è®º": 3470,
      "ize": 3471,
      "åħ»": 3472,
      "Ġwerken": 3473,
      "Ġquest": 3474,
      "âĳ": 3475,
      "ĠåĪ«": 3476,
      "ober": 3477,
      "ĠåķĬ": 3478,
      "ä¸ĢäºĽ": 3479,
      "è·³": 3480,
      "å§ĳ": 3481,
      "æĺİçĻ½": 3482,
      "ives": 3483,
      "Ġsla": 3484,
      "Ġcity": 3485,
      "Ġgeluk": 3486,
      "min": 3487,
      "Ġkaart": 3488,
      "ikt": 3489,
      "Ġmogelijk": 3490,
      "Ġexpl": 3491,
      "éĻ¤": 3492,
      "çªģ": 3493,
      "Ġsort": 3494,
      "ari": 3495,
      "Ġsign": 3496,
      "ones": 3497,
      "ĠHow": 3498,
      "Ġgelijk": 3499,
      "å²ģ": 3500,
      "Ġlijkt": 3501,
      "ages": 3502,
      "Ġhimself": 3503,
      "Ġob": 3504,
      "è®¾": 3505,
      "unny": 3506,
      "omme": 3507,
      "Ġreden": 3508,
      "å¥ĩ": 3509,
      "è£ħ": 3510,
      "Ġlichaam": 3511,
      "Ġspeel": 3512,
      "Ġhappened": 3513,
      "Ġgame": 3514,
      "ager": 3515,
      "æĿĳ": 3516,
      "ç»Ł": 3517,
      "ĠOl": 3518,
      "Ġvindt": 3519,
      "Hou": 3520,
      "Ġpict": 3521,
      "çĶ»": 3522,
      "Ġvertellen": 3523,
      "Ġmidd": 3524,
      "Ġans": 3525,
      "Ġwithout": 3526,
      "onnen": 3527,
      "ijnen": 3528,
      "Ġhair": 3529,
      "Ġleer": 3530,
      "è¶³": 3531,
      "Ġverw": 3532,
      "Ġhaving": 3533,
      "Ġdagen": 3534,
      "Ġheart": 3535,
      "Ġinst": 3536,
      "ä¹ħ": 3537,
      "ĠæĪĳå°±": 3538,
      "Ġhor": 3539,
      "appy": 3540,
      "ying": 3541,
      "Ġbegrij": 3542,
      "co": 3543,
      "Ġbi": 3544,
      "elk": 3545,
      "åıĸ": 3546,
      "è§Ĥ": 3547,
      "Ġelke": 3548,
      "hal": 3549,
      "Ġsim": 3550,
      "slag": 3551,
      "æĪĳä»¬çļĦ": 3552,
      "ĠX": 3553,
      "iness": 3554,
      "æĸŃ": 3555,
      "ç»Ŀ": 3556,
      "éĩįè¦ģ": 3557,
      "Ġappe": 3558,
      "åĻ": 3559,
      "ĠEd": 3560,
      "Ġlicht": 3561,
      "ither": 3562,
      "Ġav": 3563,
      "ä¸įäºĨ": 3564,
      "åħĥ": 3565,
      "ĠSe": 3566,
      "ĠBl": 3567,
      "urs": 3568,
      "imed": 3569,
      "Ġready": 3570,
      "ĠFor": 3571,
      "weet": 3572,
      "Ġdirect": 3573,
      "EA": 3574,
      "ara": 3575,
      "å°½": 3576,
      "æľīçĤ¹": 3577,
      "opt": 3578,
      "ertain": 3579,
      "part": 3580,
      "zy": 3581,
      "Ġgar": 3582,
      "Ġpubl": 3583,
      "ON": 3584,
      "Ġ14": 3585,
      "åĵį": 3586,
      "èĦ¸": 3587,
      "gram": 3588,
      "Ġvers": 3589,
      "ĠOok": 3590,
      "Ġbecame": 3591,
      "inner": 3592,
      "å®¢": 3593,
      "å¾®": 3594,
      "å®ĺ": 3595,
      "æľīä»Ģä¹Ī": 3596,
      "?'": 3597,
      "ret": 3598,
      "ready": 3599,
      "åĩºåİ»": 3600,
      "Ġ196": 3601,
      "voorbeeld": 3602,
      "Ġfamily": 3603,
      "éļı": 3604,
      "Ġdays": 3605,
      "ĠæĿ¥": 3606,
      "Ġdieren": 3607,
      "Ġbijna": 3608,
      "Ġzag": 3609,
      "read": 3610,
      "Ġjaren": 3611,
      "å¤ľ": 3612,
      "Ġsucc": 3613,
      "½çĦ¶": 3614,
      "ised": 3615,
      "Ġstory": 3616,
      "ĠMiss": 3617,
      "Ġplayed": 3618,
      "woorden": 3619,
      "è¨": 3620,
      "ner": 3621,
      "Ġwrit": 3622,
      "Ġband": 3623,
      "ĠGe": 3624,
      "ĠJan": 3625,
      "è¨Ģ": 3626,
      "heden": 3627,
      "åħĭ": 3628,
      "å¸ĥ": 3629,
      "Ġfood": 3630,
      "dam": 3631,
      "Ġoh": 3632,
      "iam": 3633,
      "het": 3634,
      "ises": 3635,
      "ande": 3636,
      "ommy": 3637,
      "ä¸įè¿ĩ": 3638,
      "Ġlos": 3639,
      "ĠSc": 3640,
      "Ġå¿": 3641,
      "æĸ¯": 3642,
      "åĵªåĦ¿": 3643,
      "é»Ħ": 3644,
      "Ġbreak": 3645,
      "Van": 3646,
      "è¿Ļä¸Ģ": 3647,
      "åĪĩ": 3648,
      "omas": 3649,
      "æľª": 3650,
      "Deze": 3651,
      "When": 3652,
      "Ġdicht": 3653,
      "ä½łå°±": 3654,
      "ç»Ħ": 3655,
      "æŃĮ": 3656,
      "Ġhoeveel": 3657,
      "Ġaard": 3658,
      "ouse": 3659,
      "Ġbren": 3660,
      "Ġzelfs": 3661,
      "ently": 3662,
      "aint": 3663,
      "Ġcomes": 3664,
      "çŃĶæ¡Ī": 3665,
      "sk": 3666,
      "ury": 3667,
      "mat": 3668,
      "uin": 3669,
      "Ġdel": 3670,
      "æĢģ": 3671,
      "Ġfeet": 3672,
      "Sh": 3673,
      "Ġuh": 3674,
      "Ġfloor": 3675,
      "Ġwoord": 3676,
      "é¼ł": 3677,
      "Ġsil": 3678,
      "åįİ": 3679,
      "Ġmilj": 3680,
      "aties": 3681,
      "Ġvide": 3682,
      "Ġrock": 3683,
      "wit": 3684,
      "Ġgrond": 3685,
      "Ġgebeurt": 3686,
      "Ġinformatie": 3687,
      "My": 3688,
      "æĬĵ": 3689,
      "see": 3690,
      "åŀ": 3691,
      "Ġä¸įæĺ¯": 3692,
      "Ġmaking": 3693,
      "Ġhoren": 3694,
      "çļ®": 3695,
      "Ġkop": 3696,
      "ä»½": 3697,
      "Ġmeet": 3698,
      "Ġåİ": 3699,
      "ĠPar": 3700,
      "æĸĻ": 3701,
      "Ġgroep": 3702,
      "é£Ł": 3703,
      "zicht": 3704,
      "èŃ": 3705,
      "Ġexper": 3706,
      "mee": 3707,
      "Ġtijdens": 3708,
      "å¦ĩ": 3709,
      "Ġwaardoor": 3710,
      "è¯¯": 3711,
      "oemen": 3712,
      "è¯´äºĨ": 3713,
      "Ġkans": 3714,
      "Ġbring": 3715,
      "Ġimport": 3716,
      "Ġwhe": 3717,
      "Ġvijf": 3718,
      "Ġspelen": 3719,
      "Ġdear": 3720,
      "ĠNo": 3721,
      "II": 3722,
      "Ġwoorden": 3723,
      "Ġogen": 3724,
      "enty": 3725,
      "æĿ¥çļĦ": 3726,
      "ç±»": 3727,
      "èŃ¦": 3728,
      "ĠYork": 3729,
      "Ġposs": 3730,
      "Ġref": 3731,
      "Ġnoise": 3732,
      "Ġsince": 3733,
      "æ²»": 3734,
      "åĵ¦": 3735,
      "Ġcompl": 3736,
      "cellen": 3737,
      "Bedankt": 3738,
      "Ġhour": 3739,
      "Ġpos": 3740,
      "Ġmannen": 3741,
      "ĠVan": 3742,
      "Ġontw": 3743,
      "Ġsold": 3744,
      "Ġziek": 3745,
      "Ġrele": 3746,
      "ĠDr": 3747,
      "Ġ30": 3748,
      "Ġzouden": 3749,
      "ĠæĪĳæĺ¯": 3750,
      "æį¢": 3751,
      "isme": 3752,
      "ĠJapan": 3753,
      "Ġhoop": 3754,
      "èĥ½å¤Ł": 3755,
      "hel": 3756,
      "æĪı": 3757,
      "Ġwhite": 3758,
      "ĠFrance": 3759,
      "æĴŃ": 3760,
      "euw": 3761,
      "Ġlov": 3762,
      "æľĿ": 3763,
      "å©Ĩ": 3764,
      "Ġmusic": 3765,
      "é²": 3766,
      "Ġtimes": 3767,
      "Mummy": 3768,
      "Ġdenken": 3769,
      "ç¤¼": 3770,
      "Ġriv": 3771,
      "und": 3772,
      "ING": 3773,
      "Ġeverything": 3774,
      "Right": 3775,
      "fter": 3776,
      "Ġmeneer": 3777,
      "åĬŀæ³ķ": 3778,
      "Jullie": 3779,
      "Ġhum": 3780,
      "Ġverz": 3781,
      "centr": 3782,
      "èĳ": 3783,
      "Ġ)": 3784,
      "æĪĳä¸į": 3785,
      "Ġplant": 3786,
      "ded": 3787,
      "Ġupon": 3788,
      "Wij": 3789,
      "ouch": 3790,
      "Ġgeze": 3791,
      "Ġfamilie": 3792,
      "Ġ:": 3793,
      "Ġenige": 3794,
      "illy": 3795,
      "reek": 3796,
      "çľŁæĺ¯": 3797,
      "ram": 3798,
      "elden": 3799,
      "Ġbegan": 3800,
      "Ġgave": 3801,
      "Ġresult": 3802,
      "Ġstarted": 3803,
      "maar": 3804,
      "åĽŀåİ»": 3805,
      "Ġnorm": 3806,
      "Ġpast": 3807,
      "ilig": 3808,
      "æĿ¿": 3809,
      "ĠEl": 3810,
      "Zeg": 3811,
      "Where": 3812,
      "å¿ĥéĩĮ": 3813,
      "æ¢¦": 3814,
      "èıľ": 3815,
      "ĠPro": 3816,
      "rijd": 3817,
      "Ġletter": 3818,
      "airs": 3819,
      "Ġuitge": 3820,
      "Ġsaying": 3821,
      "Ġbelieve": 3822,
      "æķħäºĭ": 3823,
      "è°Ī": 3824,
      "Ġniemand": 3825,
      "Ġca": 3826,
      "åıĶ": 3827,
      "æł¡": 3828,
      "æ¯Ľ": 3829,
      "å¤ļå°ĳ": 3830,
      "vin": 3831,
      "onen": 3832,
      "ĠAfr": 3833,
      "ç»ĥ": 3834,
      "åĽ½å®¶": 3835,
      "éªĮ": 3836,
      "bel": 3837,
      "inde": 3838,
      "éĤ£äºĽ": 3839,
      "Ġconf": 3840,
      "Ġplaying": 3841,
      "Ġlost": 3842,
      "Ġsir": 3843,
      "arde": 3844,
      "ä½łæĺ¯": 3845,
      "ienden": 3846,
      "å¡": 3847,
      "ĠSam": 3848,
      "Ġanswer": 3849,
      "Ġmot": 3850,
      "Ġvia": 3851,
      "less": 3852,
      "è¸": 3853,
      "ene": 3854,
      "akt": 3855,
      "ester": 3856,
      "rying": 3857,
      "Ġåı¯æĺ¯": 3858,
      "good": 3859,
      "æ¨": 3860,
      "åĪ°åºķ": 3861,
      "gy": 3862,
      "Ġble": 3863,
      "åħļ": 3864,
      "çĶµè¯Ŀ": 3865,
      "Ġpri": 3866,
      "ides": 3867,
      "ipp": 3868,
      "Ġbrand": 3869,
      "è´¹": 3870,
      "LOI": 3871,
      "50": 3872,
      "Just": 3873,
      "kl": 3874,
      "Ġtable": 3875,
      "Ġmoo": 3876,
      "ç«Ł": 3877,
      "oemd": 3878,
      "anen": 3879,
      "Ġzoek": 3880,
      "Ġcra": 3881,
      "lex": 3882,
      "veer": 3883,
      "Ġwasn": 3884,
      "åħĶ": 3885,
      "esten": 3886,
      "Ġunderstand": 3887,
      "äºī": 3888,
      "Ġline": 3889,
      "éģĩ": 3890,
      "Ġgeleden": 3891,
      "Ġcontin": 3892,
      "Ġverhaal": 3893,
      "Ġinv": 3894,
      "ows": 3895,
      "Ġeng": 3896,
      "ists": 3897,
      "Ġmeisje": 3898,
      "Ġgehe": 3899,
      "Ġblack": 3900,
      "lish": 3901,
      "arry": 3902,
      "Ġtown": 3903,
      "Ġminute": 3904,
      "ĠPhil": 3905,
      "iers": 3906,
      "Ġvond": 3907,
      "oorten": 3908,
      "ĠAng": 3909,
      "åª": 3910,
      "oms": 3911,
      "Ġopge": 3912,
      "éĽĨ": 3913,
      "æĻļä¸Ĭ": 3914,
      "Ġåħ¶å®ŀ": 3915,
      "Ġnatuurlijk": 3916,
      "ç»§": 3917,
      "ourn": 3918,
      "é¦Ļ": 3919,
      "ziek": 3920,
      "éĤ£ç§į": 3921,
      "ype": 3922,
      "idden": 3923,
      "è¯´çļĦ": 3924,
      "press": 3925,
      "Ġhalen": 3926,
      "æĬ¤": 3927,
      "sc": 3928,
      "Ġzee": 3929,
      "NA": 3930,
      "Ġda": 3931,
      "Ġgi": 3932,
      "ĠCan": 3933,
      "ming": 3934,
      "ined": 3935,
      "ï¿½ï¿½": 3936,
      "IT": 3937,
      "Re": 3938,
      "ress": 3939,
      "icks": 3940,
      "wee": 3941,
      "Ġoften": 3942,
      "Ġenk": 3943,
      "é¬": 3944,
      "erst": 3945,
      "ĠMet": 3946,
      "Ġactually": 3947,
      "Alles": 3948,
      "Ġbehind": 3949,
      "Ġpost": 3950,
      "ä¸ªäºº": 3951,
      "å®¶éĩĮ": 3952,
      "Ġson": 3953,
      "ico": 3954,
      "ĠMay": 3955,
      "äºĨåĲ§": 3956,
      "werp": 3957,
      "è¿Ļæł·çļĦ": 3958,
      "èľ": 3959,
      "Ġduring": 3960,
      "Ġcor": 3961,
      "Ġcolor": 3962,
      "ĠIf": 3963,
      "åĳ³": 3964,
      "ully": 3965,
      "Ġtrying": 3966,
      "Ġval": 3967,
      "olen": 3968,
      "æĶ¯": 3969,
      "ĠMrs": 3970,
      "ç¤¾": 3971,
      "Ġbes": 3972,
      "aces": 3973,
      "plaat": 3974,
      "Ġidea": 3975,
      "Ġä»Ģä¹Ī": 3976,
      "å£«": 3977,
      "ç¦ı": 3978,
      "ç¤º": 3979,
      "ç©¿": 3980,
      "iger": 3981,
      "Ġzoon": 3982,
      "mon": 3983,
      "Ġsqu": 3984,
      "Ġgod": 3985,
      "å½ĵæĹ¶": 3986,
      "Ġinterest": 3987,
      "bum": 3988,
      "za": 3989,
      "Ġarm": 3990,
      "åĪļæīį": 3991,
      "rat": 3992,
      "ummer": 3993,
      "Ġwhole": 3994,
      "werk": 3995,
      "èĭ±": 3996,
      "anc": 3997,
      "ä»·": 3998,
      "æİ¨": 3999,
      "åıªæĺ¯": 4000,
      "èį¯": 4001,
      "ĠEuro": 4002,
      "just": 4003,
      "åĩ»": 4004,
      "Ġbuild": 4005,
      "Ġjongens": 4006,
      "Ġeffect": 4007,
      "och": 4008,
      "Ġwit": 4009,
      "æ¹": 4010,
      "Ġes": 4011,
      "èĻ½çĦ¶": 4012,
      "orrow": 4013,
      "Ġstem": 4014,
      "Ġtem": 4015,
      "åľ¨ä¸Ģèµ·": 4016,
      "Ġgotta": 4017,
      "æĢİä¹Īæł·": 4018,
      "ient": 4019,
      "Ġalmost": 4020,
      "è´Ł": 4021,
      "Ġoude": 4022,
      "åľŁ": 4023,
      "æĬĢ": 4024,
      "Then": 4025,
      "æĩĤ": 4026,
      "Ġnacht": 4027,
      "ä½łçľĭ": 4028,
      "è§Ħ": 4029,
      "çł´": 4030,
      "çĨĬ": 4031,
      "MCH": 4032,
      "da": 4033,
      "Ġinc": 4034,
      "Ġander": 4035,
      "Ġpersoon": 4036,
      "Ġhoudt": 4037,
      "å°Ķ": 4038,
      "å¥½åĥı": 4039,
      "Who": 4040,
      "ham": 4041,
      "Ġed": 4042,
      "Ġwarm": 4043,
      "ĠDaddy": 4044,
      "Ġkoning": 4045,
      "é¬¼": 4046,
      "more": 4047,
      "ĠæĬĬ": 4048,
      "Ġlink": 4049,
      "åıĤ": 4050,
      "ĠWaar": 4051,
      "Ġvillage": 4052,
      "10": 4053,
      "åħĪçĶŁ": 4054,
      "ĠWik": 4055,
      "Ġpretty": 4056,
      "åī§": 4057,
      "Ġaren": 4058,
      "é¡¾": 4059,
      "Ġwed": 4060,
      "Ġbesl": 4061,
      "Ġdenkt": 4062,
      "stem": 4063,
      "åĪĽ": 4064,
      "ring": 4065,
      "ric": 4066,
      "erv": 4067,
      "arth": 4068,
      "æĥħåĨµ": 4069,
      "wards": 4070,
      "'.": 4071,
      "äº¬": 4072,
      "deel": 4073,
      "åĺ´": 4074,
      "Ġgeweldig": 4075,
      "Ġéĥ½": 4076,
      "Ġins": 4077,
      "omin": 4078,
      "è¯Ń": 4079,
      "ĠTHE": 4080,
      "æĭħ": 4081,
      "rag": 4082,
      "Ġdro": 4083,
      "reet": 4084,
      "Stop": 4085,
      "Ġpur": 4086,
      "Ġbekend": 4087,
      "aks": 4088,
      "Ġeeuw": 4089,
      "è¿ĻåĦ¿": 4090,
      "Ġgevonden": 4091,
      "Welke": 4092,
      "æ¥¼": 4093,
      "abel": 4094,
      "éĻª": 4095,
      "upp": 4096,
      "çļĩ": 4097,
      "Ġjob": 4098,
      "ured": 4099,
      "åĪ»": 4100,
      "çĽ¸ä¿¡": 4101,
      "Ġvandaag": 4102,
      "like": 4103,
      "ä¸įèµ·": 4104,
      "rip": 4105,
      "çº¦": 4106,
      "Ġklas": 4107,
      "ç±³": 4108,
      "Ġdead": 4109,
      "Ġpower": 4110,
      "ided": 4111,
      "ente": 4112,
      "è®©ä½ł": 4113,
      "æľĢè¿ĳ": 4114,
      "åı¶": 4115,
      "Ġteken": 4116,
      "ument": 4117,
      "ĠWill": 4118,
      "ĠOr": 4119,
      "åĪ«äºº": 4120,
      "é¸¡": 4121,
      "Ġground": 4122,
      "Ġgeef": 4123,
      "Ġblue": 4124,
      "éĿĻ": 4125,
      "æĺ¯ä¸Ģ": 4126,
      "Ġstep": 4127,
      "Ġä»İ": 4128,
      "ä¸½": 4129,
      "Ġpay": 4130,
      "ĠHis": 4131,
      "Ġfront": 4132,
      "èĥĮ": 4133,
      "Ġkrijg": 4134,
      "Ġmatter": 4135,
      "Ġgezegd": 4136,
      "zien": 4137,
      "Ġheld": 4138,
      "Ġlik": 4139,
      "Ġcertain": 4140,
      "ä»¤": 4141,
      "Ġrad": 4142,
      "Ġ13": 4143,
      "å·´": 4144,
      "rought": 4145,
      "Maak": 4146,
      "Ġä»Ĭå¤©": 4147,
      "åĽŀå®¶": 4148,
      "Ġgroup": 4149,
      "Ġoud": 4150,
      "Ġmorgen": 4151,
      "Ġpaper": 4152,
      "ilijk": 4153,
      "vern": 4154,
      "Ġverst": 4155,
      "ler": 4156,
      "Ġschat": 4157,
      "Ġsitu": 4158,
      "Ġoutside": 4159,
      "rouwen": 4160,
      "Ġpolitie": 4161,
      "Ġho": 4162,
      "Ġcook": 4163,
      "omp": 4164,
      "äºĨä¸Ģä¸ª": 4165,
      "è¯´ä½ł": 4166,
      "ĠStan": 4167,
      "Ġbijvoorbeeld": 4168,
      "ogra": 4169,
      "Ã«n": 4170,
      "Ġvrienden": 4171,
      "ç¬¬ä¸Ģ": 4172,
      "Ġå¸": 4173,
      "ĠMe": 4174,
      "ĠAm": 4175,
      "itting": 4176,
      "Ġbestaat": 4177,
      "Ġeight": 4178,
      "Ġgegeven": 4179,
      "ĠJack": 4180,
      "çĶµå½±": 4181,
      "Ġvoedsel": 4182,
      "met": 4183,
      "Ġ194": 4184,
      "uits": 4185,
      "åıĳçĶŁ": 4186,
      "èįī": 4187,
      "oul": 4188,
      "åħ·": 4189,
      "âĢ": 4190,
      "ç£": 4191,
      "Ġè¿ĺæľī": 4192,
      "ä¸ĵ": 4193,
      "Ġeas": 4194,
      "ald": 4195,
      "ience": 4196,
      "åĬ©": 4197,
      "Ġsoms": 4198,
      "Laten": 4199,
      "Ġless": 4200,
      "Ġpot": 4201,
      "ä¼Ĺ": 4202,
      "æ²¹": 4203,
      "Ġwerkt": 4204,
      "Ġparty": 4205,
      "Ġprobably": 4206,
      "cul": 4207,
      "Ġbra": 4208,
      "ç½Ĺ": 4209,
      "Ġwrong": 4210,
      "ĠNa": 4211,
      "åĿı": 4212,
      "Luister": 4213,
      "ima": 4214,
      "å±Ģ": 4215,
      "Ġmiljoen": 4216,
      "Ġimportant": 4217,
      "arch": 4218,
      "itie": 4219,
      "Ġzom": 4220,
      "akker": 4221,
      "genomen": 4222,
      "æĬķ": 4223,
      "ĠéĤ£ä½ł": 4224,
      "Ġclub": 4225,
      "Ġpa": 4226,
      "éĹ»": 4227,
      "éĢĤ": 4228,
      "for": 4229,
      "æŀģ": 4230,
      "å§ĳå¨ĺ": 4231,
      "Ġzin": 4232,
      "è¿½": 4233,
      "deren": 4234,
      "Ġorder": 4235,
      "Ġwouldn": 4236,
      "lijke": 4237,
      "bouw": 4238,
      "rie": 4239,
      "Ġtaken": 4240,
      "ĠDan": 4241,
      "Ġalready": 4242,
      "ĠCar": 4243,
      "ĠVer": 4244,
      "Ġgebied": 4245,
      "åİĨ": 4246,
      "å¹¿": 4247,
      "Ġchair": 4248,
      "Ġwords": 4249,
      "Ġprobleem": 4250,
      "sy": 4251,
      "Ġmill": 4252,
      "æĺ¥": 4253,
      "éĻ©": 4254,
      "ç®Ģ": 4255,
      "çĬ¶": 4256,
      "Me": 4257,
      "Ġsat": 4258,
      "Ġlekker": 4259,
      "Ġfig": 4260,
      "Ġlaw": 4261,
      "Ġzon": 4262,
      "ä»¥åīį": 4263,
      "volut": 4264,
      "Ġturned": 4265,
      "Ġmoeilijk": 4266,
      "Ġgebeurd": 4267,
      "ino": 4268,
      "Ġbar": 4269,
      "amb": 4270,
      "ilt": 4271,
      "èĦļ": 4272,
      "Ġdu": 4273,
      "chn": 4274,
      "è¿ĻéĩĮ": 4275,
      "iment": 4276,
      "ained": 4277,
      "Ġclose": 4278,
      "Look": 4279,
      "Ġev": 4280,
      "antie": 4281,
      "sten": 4282,
      "cted": 4283,
      "Ġæ²¡æľī": 4284,
      "ana": 4285,
      "ika": 4286,
      "æĿ¾": 4287,
      "çľĭè§ģ": 4288,
      "åĦ¿åŃĲ": 4289,
      "Are": 4290,
      "Mag": 4291,
      "midd": 4292,
      "Ġpun": 4293,
      "reven": 4294,
      "Ġmeans": 4295,
      "åĵŃ": 4296,
      "Ġvideo": 4297,
      "!'": 4298,
      "èļ": 4299,
      "Ġmakes": 4300,
      "tern": 4301,
      "ç»Ĩ": 4302,
      "Ġbegin": 4303,
      "hand": 4304,
      "sn": 4305,
      "Ġpen": 4306,
      "Ġfight": 4307,
      "äºĨåķĬ": 4308,
      "aalde": 4309,
      "ains": 4310,
      "åĩĨå¤ĩ": 4311,
      "zij": 4312,
      "omet": 4313,
      "å¯Ĩ": 4314,
      "Ġdraw": 4315,
      "Ġåı¯": 4316,
      "Ġcover": 4317,
      "ĠFl": 4318,
      "key": 4319,
      "ekent": 4320,
      "band": 4321,
      "fe": 4322,
      "foon": 4323,
      "ĠPl": 4324,
      "æĭį": 4325,
      "Ġgreen": 4326,
      "Ġbacter": 4327,
      "Ġvar": 4328,
      "Ġblood": 4329,
      "éĽ¨": 4330,
      "çĭĹ": 4331,
      "ç¬¬äºĮ": 4332,
      "||": 4333,
      "ench": 4334,
      "Ġtest": 4335,
      "uth": 4336,
      "æĥ³åĪ°": 4337,
      "å¥³äºº": 4338,
      "Ġ25": 4339,
      "ç©¶": 4340,
      "ĠåĨį": 4341,
      "Ġprom": 4342,
      "Ġruim": 4343,
      "Ġton": 4344,
      "Ġgele": 4345,
      "æľīä¸Ģä¸ª": 4346,
      "Ġalbum": 4347,
      "Ġpas": 4348,
      "Ġstick": 4349,
      "Ġadv": 4350,
      "çĸĳ": 4351,
      "Ġdeath": 4352,
      "ĠThomas": 4353,
      "èĲ¥": 4354,
      "Ġouders": 4355,
      "Ġontwikk": 4356,
      "Ġseemed": 4357,
      "ship": 4358,
      "]?": 4359,
      "Ġlopen": 4360,
      "que": 4361,
      "Ġgehad": 4362,
      "Ġfriends": 4363,
      "Ġinclud": 4364,
      "Toen": 4365,
      "åĢ¼": 4366,
      "æĪĸèĢħ": 4367,
      "Ġduid": 4368,
      "å°±ä¸į": 4369,
      "Ġplanten": 4370,
      "è¯´æĪĳ": 4371,
      "weg": 4372,
      "Ġgrow": 4373,
      "ments": 4374,
      "èĦĳ": 4375,
      "Ġvoice": 4376,
      "èĽĭ": 4377,
      "èĴ": 4378,
      "Ġaand": 4379,
      "æĺ¯æĪĳ": 4380,
      "Ġoorlog": 4381,
      "Ġvooral": 4382,
      "ä»¥ä¸º": 4383,
      "åĻ¨": 4384,
      "Ġtro": 4385,
      "Ġbrought": 4386,
      "ĠåĹ¯": 4387,
      "Ġlanden": 4388,
      "Ex": 4389,
      "aybe": 4390,
      "å¿µ": 4391,
      "ED": 4392,
      "Ġleren": 4393,
      "urk": 4394,
      "Ġmovie": 4395,
      "Ġsun": 4396,
      "uig": 4397,
      "Ġtrou": 4398,
      "ĠCon": 4399,
      "ĠWel": 4400,
      "Ġontm": 4401,
      "æ±Ł": 4402,
      "arling": 4403,
      "Ġpiece": 4404,
      "éĨĴ": 4405,
      "iezen": 4406,
      "å¿ĺ": 4407,
      "ugust": 4408,
      "Ġongeveer": 4409,
      "Ġbor": 4410,
      "Ġfine": 4411,
      "irth": 4412,
      "Ġåĩ": 4413,
      "è¿ĩåİ»": 4414,
      "wijl": 4415,
      "Ġyourself": 4416,
      "æ¯ĶèµĽ": 4417,
      "ized": 4418,
      "spraak": 4419,
      "As": 4420,
      "çļĦå¤§": 4421,
      "ç»ĵæŀľ": 4422,
      "ĠWhen": 4423,
      "ues": 4424,
      "Ġbank": 4425,
      "Ġcold": 4426,
      "Ġcup": 4427,
      "Ġbeaut": 4428,
      "å¯Ł": 4429,
      "ĠKing": 4430,
      "åĶ±": 4431,
      "Ġkilled": 4432,
      "Ġå¼": 4433,
      "Ġwants": 4434,
      "è´£": 4435,
      "huis": 4436,
      "Ġsent": 4437,
      "Ġles": 4438,
      "æĹ¥æľ¬": 4439,
      "Ġguess": 4440,
      "produ": 4441,
      "éĵģ": 4442,
      "Hel": 4443,
      "äºĳ": 4444,
      "Ġris": 4445,
      "ĠMart": 4446,
      "Ġ100": 4447,
      "Ġaange": 4448,
      "because": 4449,
      "Ġontstaan": 4450,
      "inken": 4451,
      "onk": 4452,
      "æĢĢ": 4453,
      "Ġalsof": 4454,
      "ĠEnglish": 4455,
      "born": 4456,
      "Ġhit": 4457,
      "ä¼Ļ": 4458,
      "åĲİæĿ¥": 4459,
      "schijn": 4460,
      "å±ŀ": 4461,
      "Ġbal": 4462,
      "Ġzat": 4463,
      "çĮ«": 4464,
      "Ġeigenlijk": 4465,
      "å¢ĥ": 4466,
      "Kan": 4467,
      "got": 4468,
      "ode": 4469,
      "Ġwoon": 4470,
      "Ġfish": 4471,
      "è·Łä»ĸ": 4472,
      "ĠEurop": 4473,
      "éĿł": 4474,
      "Ġbetekent": 4475,
      "è¶ħ": 4476,
      "Ġblijft": 4477,
      "æ¸ħæ¥ļ": 4478,
      "Ġwife": 4479,
      "ç¾¤": 4480,
      "Ġminuten": 4481,
      "cri": 4482,
      "Ġbur": 4483,
      "Ġfur": 4484,
      "åı¤": 4485,
      "åģĩ": 4486,
      "friend": 4487,
      "Ġè°¢è°¢": 4488,
      "Ġzoeken": 4489,
      "Ġra": 4490,
      "ante": 4491,
      "Ġcommun": 4492,
      "houd": 4493,
      "vrouw": 4494,
      "ĠDoor": 4495,
      "Ġgesl": 4496,
      "Ġhappy": 4497,
      "Ġstate": 4498,
      "ĠDie": 4499,
      "èº«ä½ĵ": 4500,
      "Ġvrouwen": 4501,
      "Tot": 4502,
      "æĿĥ": 4503,
      "æĶ¾å¿ĥ": 4504,
      "Fr": 4505,
      "UN": 4506,
      "Ġage": 4507,
      "åıĮ": 4508,
      "ĠOm": 4509,
      "Ġmonth": 4510,
      "At": 4511,
      "é¡»": 4512,
      "é©¬ä¸Ĭ": 4513,
      "haps": 4514,
      "Ġpijn": 4515,
      "æĺ¯ä»Ģä¹Ī": 4516,
      "åŃĺ": 4517,
      "Ġzoveel": 4518,
      "Ġshort": 4519,
      "Thank": 4520,
      "ç»ĵå©ļ": 4521,
      "Ġminutes": 4522,
      "åħĦå¼Ł": 4523,
      "æ¦": 4524,
      "Ġhope": 4525,
      "æĭ©": 4526,
      "ĠItal": 4527,
      "reng": 4528,
      "åĪĿ": 4529,
      "irty": 4530,
      "Ġliggen": 4531,
      "God": 4532,
      "Ġbag": 4533,
      "Ġkamer": 4534,
      "ada": 4535,
      "æīĭæľº": 4536,
      "Ġgeloof": 4537,
      "åĩłä¸ª": 4538,
      "ĠBritish": 4539,
      "Did": 4540,
      "dag": 4541,
      "èĹ": 4542,
      "reed": 4543,
      "æĺ¯ä¸Ģä¸ª": 4544,
      "olon": 4545,
      "Ġgrot": 4546,
      "æ±ī": 4547,
      "èĭı": 4548,
      "Ġmaybe": 4549,
      "gg": 4550,
      "æĹı": 4551,
      "Ġgevol": 4552,
      "Ġmedic": 4553,
      "Can": 4554,
      "Ġocc": 4555,
      "Ġhond": 4556,
      "Ġhurt": 4557,
      "Ġable": 4558,
      "Ġrecord": 4559,
      "éº»": 4560,
      "é¾Ļ": 4561,
      "RO": 4562,
      "Ġtoys": 4563,
      "used": 4564,
      "è§Ĵ": 4565,
      "Ġmyself": 4566,
      "çªģçĦ¶": 4567,
      "Ġpicture": 4568,
      "igin": 4569,
      "Ġcouldn": 4570,
      "Ġbusiness": 4571,
      "è·Łä½łè¯´": 4572,
      "Ġtruck": 4573,
      "Ġlisten": 4574,
      "æŃ¦": 4575,
      "åģľ": 4576,
      "å±ħ": 4577,
      "Good": 4578,
      "ÉĻ": 4579,
      "Ġ..": 4580,
      "Ġprogram": 4581,
      "Ġ2020": 4582,
      "bare": 4583,
      "alm": 4584,
      "unch": 4585,
      "çº§": 4586,
      "èĤī": 4587,
      "inger": 4588,
      "ĠBel": 4589,
      "Leg": 4590,
      "zaam": 4591,
      "çļĦä¸Ģä¸ª": 4592,
      "Ġkap": 4593,
      "ĠDon": 4594,
      "ç»Ļä»ĸ": 4595,
      "Ġroad": 4596,
      "eptember": 4597,
      "Cl": 4598,
      "Ġtweede": 4599,
      "Ġdou": 4600,
      "reem": 4601,
      "Ġfell": 4602,
      "èµ¶ç´§": 4603,
      "del": 4604,
      "éĻħ": 4605,
      "ĠZo": 4606,
      "yn": 4607,
      "Ġè°ģ": 4608,
      "Ġtom": 4609,
      "Ġoog": 4610,
      "Ġmess": 4611,
      "ä¹±": 4612,
      "ĠBen": 4613,
      "åĽ´": 4614,
      "çİ¯": 4615,
      "Ġgrand": 4616,
      "Ã³": 4617,
      "Ġmine": 4618,
      "orld": 4619,
      "Ġlady": 4620,
      "ĠPat": 4621,
      "éĻĪ": 4622,
      "pril": 4623,
      "éĢļè¿ĩ": 4624,
      "Ġextra": 4625,
      "Ġhat": 4626,
      "ĠMan": 4627,
      "irt": 4628,
      "è¡Ģ": 4629,
      "ustral": 4630,
      "ä¸įè¡Į": 4631,
      "æī¿": 4632,
      "ards": 4633,
      "Ġsuper": 4634,
      "aves": 4635,
      "æ¸©": 4636,
      "èĢĮä¸Ķ": 4637,
      "FCH": 4638,
      "Nog": 4639,
      "aj": 4640,
      "line": 4641,
      "ately": 4642,
      "Ġfull": 4643,
      "Ġbrother": 4644,
      "bal": 4645,
      "dom": 4646,
      "pos": 4647,
      "eland": 4648,
      "æŀĲ": 4649,
      "Ġorganis": 4650,
      "ĠåĴ±ä»¬": 4651,
      "regen": 4652,
      "ular": 4653,
      "Ġbouw": 4654,
      "rog": 4655,
      "olf": 4656,
      "Ġquestion": 4657,
      "ä½İ": 4658,
      "Ġglad": 4659,
      "Ġè®©": 4660,
      "atten": 4661,
      "Ġmain": 4662,
      "iter": 4663,
      "owers": 4664,
      "vert": 4665,
      "veral": 4666,
      "åĳĬè¯īä½ł": 4667,
      "Pro": 4668,
      "Ġconc": 4669,
      "æĽ¾": 4670,
      "Ġplek": 4671,
      "è®¤è¯Ĩ": 4672,
      "Ġang": 4673,
      "æŃ£ç¡®": 4674,
      "Ġworking": 4675,
      "conom": 4676,
      "æĵ": 4677,
      "Ġlearn": 4678,
      "bye": 4679,
      "Ġwacht": 4680,
      "Ġeither": 4681,
      "åı¦": 4682,
      "Ġrepl": 4683,
      "ç¡®å®ŀ": 4684,
      "Ġproduct": 4685,
      "Ġwet": 4686,
      "orp": 4687,
      "reg": 4688,
      "rekken": 4689,
      "Ġfelt": 4690,
      "ä¸įåĲĮ": 4691,
      "ĠTr": 4692,
      "Ġeruit": 4693,
      "æłĩ": 4694,
      "åºĹ": 4695,
      "Ġnieuws": 4696,
      "Ġduidelijk": 4697,
      "Go": 4698,
      "Ġaw": 4699,
      "Ġgun": 4700,
      "Ġhulp": 4701,
      "Ġcap": 4702,
      "Ġchang": 4703,
      "ĠVol": 4704,
      "beren": 4705,
      "æĦ¿æĦı": 4706,
      "ĠOliver": 4707,
      "Echt": 4708,
      "heen": 4709,
      "atter": 4710,
      "Ġmouth": 4711,
      "åĪĻ": 4712,
      "çİī": 4713,
      "iously": 4714,
      "ç¯": 4715,
      "ery": 4716,
      "Ġfav": 4717,
      "æĺ¯åĲ§": 4718,
      "åĨ²": 4719,
      "reden": 4720,
      "onde": 4721,
      "çļĦäºĭæĥħ": 4722,
      "ä¸įåĪ°": 4723,
      "æĹ¢": 4724,
      "ĠPaul": 4725,
      "è´µ": 4726,
      "ĠThen": 4727,
      "åľ¨è¿ĻåĦ¿": 4728,
      "âĢķ": 4729,
      "Ġçľĭ": 4730,
      "thers": 4731,
      "æľºä¼ļ": 4732,
      "Denk": 4733,
      "aande": 4734,
      "Ġtien": 4735,
      "Ġhuh": 4736,
      "umm": 4737,
      "reeg": 4738,
      "Ġ50": 4739,
      "akkelijk": 4740,
      "hell": 4741,
      "Ġkracht": 4742,
      "Ġstuff": 4743,
      "å®¤": 4744,
      "Ġgovern": 4745,
      "å½±åĵį": 4746,
      "Ġmeeste": 4747,
      "Ġlarge": 4748,
      "Ġbrengen": 4749,
      "ĠEurope": 4750,
      "Ah": 4751,
      "ogen": 4752,
      "æĪĳæĪĳ": 4753,
      "ĠAustral": 4754,
      "è®®": 4755,
      "Ġperfect": 4756,
      "Ġguy": 4757,
      "Sp": 4758,
      "Ġbirth": 4759,
      "Ġlead": 4760,
      "å¹¸": 4761,
      "Ġwachten": 4762,
      "Ġpull": 4763,
      "Ġkr": 4764,
      "Ġenerg": 4765,
      "è¯´è¯Ŀ": 4766,
      "Ġdarling": 4767,
      "Ġbird": 4768,
      "ijst": 4769,
      "ille": 4770,
      "éĴŁ": 4771,
      "Vol": 4772,
      "head": 4773,
      "Ġvle": 4774,
      "ional": 4775,
      "ĠGeef": 4776,
      "ardon": 4777,
      "oops": 4778,
      "æĲŀ": 4779,
      "18": 4780,
      "Ġwanneer": 4781,
      "æľ¨": 4782,
      "Ġquick": 4783,
      "Neem": 4784,
      "Ġmach": 4785,
      "Ġlate": 4786,
      "iep": 4787,
      "ĠComm": 4788,
      "å¼Ħ": 4789,
      "èĥ¡": 4790,
      "Ġcomput": 4791,
      "Ġverkl": 4792,
      "sche": 4793,
      "edereen": 4794,
      "è¿İ": 4795,
      "Ġveroor": 4796,
      "çĭ¬": 4797,
      "Ġlaug": 4798,
      "Zijn": 4799,
      "Ġvog": 4800,
      "Ġjong": 4801,
      "thank": 4802,
      "Ġä½łçľĭ": 4803,
      "ĠJu": 4804,
      "æĪĲäºĨ": 4805,
      "åıĳå±ķ": 4806,
      "ĠèĢĮä¸Ķ": 4807,
      "uy": 4808,
      "Ġinside": 4809,
      "ä¸Ģå¤©": 4810,
      "ĠTe": 4811,
      "Ġbody": 4812,
      "Ġbott": 4813,
      "com": 4814,
      "orden": 4815,
      "å¹´çļĦ": 4816,
      "æµİ": 4817,
      "éĢīæĭ©": 4818,
      "Ġneer": 4819,
      "Ġluister": 4820,
      "ey": 4821,
      "hey": 4822,
      "Ġhetzelfde": 4823,
      "ĠæĪĳè§īå¾Ĺ": 4824,
      "ä¸ŃçļĦ": 4825,
      "ç½®": 4826,
      "ĠSchrijf": 4827,
      "have": 4828,
      "ä¼¼": 4829,
      "åİĭ": 4830,
      "Ġpartic": 4831,
      "çĶ·äºº": 4832,
      "³å¦ĩ": 4833,
      "ative": 4834,
      "Ġsister": 4835,
      "Ġmark": 4836,
      "Ġfree": 4837,
      "Ġthank": 4838,
      "aged": 4839,
      "ĠThat": 4840,
      "æ¯ķ": 4841,
      "berg": 4842,
      "é¡º": 4843,
      "éħį": 4844,
      "hi": 4845,
      "then": 4846,
      "æĥĬ": 4847,
      "ä¾Ŀ": 4848,
      "Kun": 4849,
      "Ã¡": 4850,
      "Ġkreeg": 4851,
      "Ġdaarna": 4852,
      "ousand": 4853,
      "ĠChina": 4854,
      "Erm": 4855,
      "é¸Ł": 4856,
      "Blijf": 4857,
      "Ġcase": 4858,
      "çģµ": 4859,
      "çłĶ": 4860,
      "iful": 4861,
      "Ġblad": 4862,
      "ä¿®": 4863,
      "ä¸¥": 4864,
      "Ġsometimes": 4865,
      "TEA": 4866,
      "ĠhÃ¨": 4867,
      "igde": 4868,
      "eeuw": 4869,
      "å¥¹çļĦ": 4870,
      "bank": 4871,
      "burg": 4872,
      "ural": 4873,
      "Ġseven": 4874,
      "Ġacross": 4875,
      "ention": 4876,
      "ĠHer": 4877,
      "Ġexamen": 4878,
      "iving": 4879,
      "Men": 4880,
      "ragen": 4881,
      "Ġcamp": 4882,
      "rokken": 4883,
      "ĠCal": 4884,
      "ä¸ĭåİ»": 4885,
      "ĠokÃ©": 4886,
      "Ġbecome": 4887,
      "åĩºäºĨ": 4888,
      "Nie": 4889,
      "Ġol": 4890,
      "Ġvij": 4891,
      "åı²": 4892,
      "ä¸įéĶĻ": 4893,
      "Ġring": 4894,
      "éĥ½æ²¡æľī": 4895,
      "éĢŁ": 4896,
      "aving": 4897,
      "laimed": 4898,
      "Ġresp": 4899,
      "ges": 4900,
      "Ġdruk": 4901,
      "Ġacht": 4902,
      "Ġbeide": 4903,
      "åĽŃ": 4904,
      "ĠWorld": 4905,
      "Ġgrootste": 4906,
      "Ġothers": 4907,
      "Ġsweet": 4908,
      "å°±ä¼ļ": 4909,
      "åĬ¿": 4910,
      "inc": 4911,
      "Ġding": 4912,
      "Ġopt": 4913,
      "è¿Ľè¡Į": 4914,
      "æ¯ıå¤©": 4915,
      "oom": 4916,
      "åĹ": 4917,
      "ete": 4918,
      "oep": 4919,
      "ĠæĪĳä¸į": 4920,
      "Ġarea": 4921,
      "Ġshop": 4922,
      "Ġgiven": 4923,
      "Ġwomen": 4924,
      "Ġpage": 4925,
      "ä½łä¸į": 4926,
      "ached": 4927,
      "Ġmilk": 4928,
      "Ġveilig": 4929,
      "kig": 4930,
      "ĠRep": 4931,
      "FATHER": 4932,
      "Ġ195": 4933,
      "Ġsomeone": 4934,
      "inning": 4935,
      "Kl": 4936,
      "yy": 4937,
      "æĺ¾": 4938,
      "Ġ24": 4939,
      "å¼ķ": 4940,
      "osp": 4941,
      "schapp": 4942,
      "Ġsug": 4943,
      "Ġbek": 4944,
      "å®Ī": 4945,
      "åĽ¾": 4946,
      "ĠNoord": 4947,
      "ä¸īåįģ": 4948,
      "ox": 4949,
      "sing": 4950,
      "Ġeinde": 4951,
      "aling": 4952,
      "Ġent": 4953,
      "Ġstond": 4954,
      "åĪĴ": 4955,
      "aced": 4956,
      "ä»»ä½ķ": 4957,
      "ism": 4958,
      "Ġvalt": 4959,
      "Ġjo": 4960,
      "Ġlezen": 4961,
      "éĹ¹": 4962,
      "åģ·": 4963,
      "does": 4964,
      "komt": 4965,
      "Ġreleased": 4966,
      "11": 4967,
      "ST": 4968,
      "æĺ¨": 4969,
      "Ġwee": 4970,
      "èĩ´": 4971,
      "æĥ³è¦ģ": 4972,
      "Ġtwenty": 4973,
      "éĺ²": 4974,
      "Ġimp": 4975,
      "çĥ¦": 4976,
      "ĠQu": 4977,
      "loop": 4978,
      "æ¿": 4979,
      "iland": 4980,
      "Ġgets": 4981,
      "Your": 4982,
      "komst": 4983,
      "ĠWelke": 4984,
      "æ¤": 4985,
      "Ġir": 4986,
      "Ġpark": 4987,
      "Ġkil": 4988,
      "Ġthrow": 4989,
      "Ġmeteen": 4990,
      "ĠWest": 4991,
      "Ġhund": 4992,
      "Ġgevaar": 4993,
      "Ġattack": 4994,
      "åĳ¼": 4995,
      "kende": 4996,
      "Ġklim": 4997,
      "Ġlangs": 4998,
      "Ġhundred": 4999,
      "For": 5000,
      "tjes": 5001,
      "idge": 5002,
      "Ġorde": 5003,
      "æĮī": 5004,
      "Ġtemper": 5005,
      "Br": 5006,
      "ĠCHI": 5007,
      "Ġdiv": 5008,
      "Ġaarde": 5009,
      "Ġhoort": 5010,
      "Ġkor": 5011,
      "Ġchange": 5012,
      "Ġago": 5013,
      "è®°å¾Ĺ": 5014,
      "houden": 5015,
      "Ġdezelfde": 5016,
      "zeker": 5017,
      "å¦»": 5018,
      "avy": 5019,
      "Ġbeginnen": 5020,
      "è¡£æľį": 5021,
      "ç»§ç»Ń": 5022,
      "Ge": 5023,
      "spr": 5024,
      "Ġrep": 5025,
      "Ġgebouw": 5026,
      "éĽª": 5027,
      "æĪ¿åŃĲ": 5028,
      "åª³å¦ĩ": 5029,
      "icro": 5030,
      "Ġrol": 5031,
      "Ġgezicht": 5032,
      "ians": 5033,
      "Ġarr": 5034,
      "åĿļ": 5035,
      "åĲĥé¥Ń": 5036,
      "é«ĺåħ´": 5037,
      "Ġhol": 5038,
      "Ġearly": 5039,
      "æĪĳè¿ĺ": 5040,
      "Ġleast": 5041,
      "çĪ¹": 5042,
      "æĭĽ": 5043,
      "Ġdress": 5044,
      "Ġstrong": 5045,
      "Ġlaugh": 5046,
      "unning": 5047,
      "To": 5048,
      "inig": 5049,
      "aker": 5050,
      "ä¼ĳ": 5051,
      "åĴĭ": 5052,
      "éĩĮçļĦ": 5053,
      "å±ĭ": 5054,
      "æ´¾": 5055,
      "Ġbroer": 5056,
      "Ġserv": 5057,
      "velop": 5058,
      "æ¨¡": 5059,
      "Over": 5060,
      "Ġsol": 5061,
      "orge": 5062,
      "Ġcreat": 5063,
      "Ġprofess": 5064,
      "Ġhanden": 5065,
      "å®ĥçļĦ": 5066,
      "Ġbuy": 5067,
      "point": 5068,
      "Ġbom": 5069,
      "Ġgere": 5070,
      "Ġhang": 5071,
      "Ġnorth": 5072,
      "æĪ·": 5073,
      "åĪĹ": 5074,
      "èĤ¡": 5075,
      "Ġtelefoon": 5076,
      "Ġdollar": 5077,
      "iot": 5078,
      "Ġhell": 5079,
      "Ġ193": 5080,
      "ç¾İåĽ½": 5081,
      "æ¿Ģ": 5082,
      "Ġrece": 5083,
      "indelijk": 5084,
      "ĠéĤ£ä¸ª": 5085,
      "vallen": 5086,
      "Ġdark": 5087,
      "ically": 5088,
      "å¤ļäºĨ": 5089,
      "Ġseveral": 5090,
      "Ġexclaimed": 5091,
      "Ġtelevis": 5092,
      "Ġneemt": 5093,
      "uary": 5094,
      "Ġ&": 5095,
      "Ġtaking": 5096,
      "Ġdier": 5097,
      "esh": 5098,
      "Ġegg": 5099,
      "igheid": 5100,
      "ays": 5101,
      "uhhuh": 5102,
      "vloed": 5103,
      "åı¥è¯Ŀ": 5104,
      "Here": 5105,
      "fl": 5106,
      "Ġtype": 5107,
      "æĿ¨": 5108,
      "Ġzodat": 5109,
      "Ġmaj": 5110,
      "bit": 5111,
      "fort": 5112,
      "ris": 5113,
      "Ġtill": 5114,
      "Ġdet": 5115,
      "Ġoper": 5116,
      "Ġä½łæĺ¯": 5117,
      "Ġconst": 5118,
      "Ġontde": 5119,
      "urton": 5120,
      "Ġi": 5121,
      "ette": 5122,
      "Ġmuziek": 5123,
      "ç´¯": 5124,
      "ç´ł": 5125,
      "Ġvliegt": 5126,
      "å®¹æĺĵ": 5127,
      "Ġvallen": 5128,
      "åĨ·": 5129,
      "ruct": 5130,
      "Ġvoet": 5131,
      "Ġrivier": 5132,
      "Ġmer": 5133,
      "Ġthousand": 5134,
      "ä¹¡": 5135,
      "icken": 5136,
      "ĠWar": 5137,
      "ä¸ĬäºĨ": 5138,
      "AL": 5139,
      "Bij": 5140,
      "Ġwall": 5141,
      "ä¹İ": 5142,
      "Ġmogen": 5143,
      "Ġorigin": 5144,
      "é¢ĺå¹²": 5145,
      "èĻİ": 5146,
      "Ġproblemen": 5147,
      "Ġnamed": 5148,
      "niet": 5149,
      "Ġpak": 5150,
      "Ġei": 5151,
      "Ġfast": 5152,
      "å¤ı": 5153,
      "æľīäºº": 5154,
      "won": 5155,
      "Ġill": 5156,
      "Ġcre": 5157,
      "æĺİå¤©": 5158,
      "Ġspecial": 5159,
      "gebied": 5160,
      "oer": 5161,
      "æĺ¯åķĬ": 5162,
      "æĢİä¹ĪåĬŀ": 5163,
      "Ġechte": 5164,
      "Ġguys": 5165,
      "Ġsystem": 5166,
      "Ġhuid": 5167,
      "Ġproberen": 5168,
      "åºľ": 5169,
      "Ġclim": 5170,
      "Ġmama": 5171,
      "ask": 5172,
      "Ġteach": 5173,
      "rijs": 5174,
      "çĮª": 5175,
      "Ġconsider": 5176,
      "Ġdepart": 5177,
      "ĠMin": 5178,
      "Ġwelk": 5179,
      "æ¯Ĵ": 5180,
      "Ġprecies": 5181,
      "schijnlijk": 5182,
      "kk": 5183,
      "ieke": 5184,
      "stelling": 5185,
      "Ġjezelf": 5186,
      "owel": 5187,
      "åħ°": 5188,
      "Ġtea": 5189,
      "åŃĻ": 5190,
      "æĿ¥è¯´": 5191,
      "Ġsoft": 5192,
      "Ġgenoemd": 5193,
      "æī¾åĪ°": 5194,
      "Ġnummer": 5195,
      "å¢ŀ": 5196,
      "Ġ*": 5197,
      "Ġmond": 5198,
      "Ġervan": 5199,
      "ĠKen": 5200,
      "å¹²ä»Ģä¹Ī": 5201,
      "èģĮ": 5202,
      "iversity": 5203,
      "stuk": 5204,
      "Ġones": 5205,
      "æľµ": 5206,
      "éĩİ": 5207,
      "å¸Ŀ": 5208,
      "Ġjuiste": 5209,
      "èĬĤçĽ®": 5210,
      "Ġbepaalde": 5211,
      "gele": 5212,
      "Ġleeft": 5213,
      "Ġpoor": 5214,
      "ä»ħ": 5215,
      "leven": 5216,
      "Ġbear": 5217,
      "è¯»": 5218,
      "derd": 5219,
      "åŃĲçļĦ": 5220,
      "ç§°": 5221,
      "Ġclass": 5222,
      "Ġverdw": 5223,
      "Ġanimals": 5224,
      "ä¸¾": 5225,
      "ander": 5226,
      "Ġkru": 5227,
      "äºĨè§£": 5228,
      "Ã¯n": 5229,
      "Te": 5230,
      "çļĦè¿Ļä¸ª": 5231,
      "Ġsterk": 5232,
      "ĠRoy": 5233,
      "Ġwaarin": 5234,
      "Ġbegint": 5235,
      "ĠFrench": 5236,
      "AP": 5237,
      "fully": 5238,
      "gas": 5239,
      "uze": 5240,
      "Ġdeur": 5241,
      "Ġstation": 5242,
      "æĸ¹éĿ¢": 5243,
      "Ġfunny": 5244,
      "Ġkost": 5245,
      "Ġstoffen": 5246,
      "Ġalsjeblieft": 5247,
      "iviteit": 5248,
      "Ġroll": 5249,
      "olle": 5250,
      "Ġfeest": 5251,
      "Ġveroorz": 5252,
      "reen": 5253,
      "Ġkm": 5254,
      "Ġä½łæĢİä¹Ī": 5255,
      "Ġspel": 5256,
      "ondon": 5257,
      "åĢŁ": 5258,
      "èĪ¬": 5259,
      "Ġzwart": 5260,
      "ç¦»å¼Ģ": 5261,
      "åŀĭ": 5262,
      "Get": 5263,
      "Pr": 5264,
      "æĬ±": 5265,
      "eens": 5266,
      "å®ĥä»¬": 5267,
      "Ġelect": 5268,
      "OM": 5269,
      "Ġran": 5270,
      "rab": 5271,
      "åıįæŃ£": 5272,
      "Was": 5273,
      "æĪĳè¦ģ": 5274,
      "æĿĲ": 5275,
      "å·ŀ": 5276,
      "ola": 5277,
      "ĠPort": 5278,
      "å½©": 5279,
      "Ġhorse": 5280,
      "Vert": 5281,
      "Ġmass": 5282,
      "Ġallow": 5283,
      "Ġsheep": 5284,
      "pped": 5285,
      "è®¤ä¸º": 5286,
      "iken": 5287,
      "Ġrug": 5288,
      "umb": 5289,
      "çļĦäºĭ": 5290,
      "Ġrather": 5291,
      "ĠDNA": 5292,
      "Ġalone": 5293,
      "Ġsea": 5294,
      "when": 5295,
      "selves": 5296,
      "Ar": 5297,
      "Zie": 5298,
      "cel": 5299,
      "pers": 5300,
      "rict": 5301,
      "ĠçŃī": 5302,
      "Ġlange": 5303,
      "aven": 5304,
      "two": 5305,
      "Ġ=": 5306,
      "Ġtape": 5307,
      "Ġnoem": 5308,
      "ales": 5309,
      "Ġcellen": 5310,
      "emy": 5311,
      "istory": 5312,
      "ç»ıæµİ": 5313,
      "æ¼Ĥ": 5314,
      "aptain": 5315,
      "çĬ¯": 5316,
      "cil": 5317,
      "ances": 5318,
      "Ġnational": 5319,
      "æĪĳæĥ³": 5320,
      "Ġdoctor": 5321,
      "tered": 5322,
      "Ġexpect": 5323,
      "Omdat": 5324,
      "Ġdik": 5325,
      "verd": 5326,
      "èĢ³": 5327,
      "ĠSpan": 5328,
      "cer": 5329,
      "iest": 5330,
      "Ġtried": 5331,
      "Ġner": 5332,
      "Ġloopt": 5333,
      "entie": 5334,
      "è¿Ļæ¬¡": 5335,
      "ĠTom": 5336,
      "Ġ21": 5337,
      "ĠRuss": 5338,
      "ĠCharl": 5339,
      "èī¯": 5340,
      "éĢīé¡¹": 5341,
      "Ġsingle": 5342,
      "å¿ħé¡»": 5343,
      "ining": 5344,
      "Ġrijk": 5345,
      "Ġamong": 5346,
      "çĽ´æİ¥": 5347,
      "Ġfinished": 5348,
      "ç¤¾ä¼ļ": 5349,
      "Ġweinig": 5350,
      "Ġslag": 5351,
      "Ġ_": 5352,
      "Ġdeal": 5353,
      "Ġergens": 5354,
      "çĶ°": 5355,
      "ctober": 5356,
      "Ġlever": 5357,
      "çľĭçĿĢ": 5358,
      "Ġboat": 5359,
      "clus": 5360,
      "Ġyellow": 5361,
      "èĪŀ": 5362,
      "Ġgirls": 5363,
      "Ġijs": 5364,
      "Ġdelen": 5365,
      "Ġmaat": 5366,
      "Ġcult": 5367,
      "ĠMad": 5368,
      "usband": 5369,
      "çŁŃ": 5370,
      "Ġphone": 5371,
      "Ġenkele": 5372,
      "ener": 5373,
      "ĠæĪĳæĥ³": 5374,
      "Ġleid": 5375,
      "ä¹ĭéĹ´": 5376,
      "ĠMarch": 5377,
      "Iedereen": 5378,
      "Ġheer": 5379,
      "åłĤ": 5380,
      "Ġfootball": 5381,
      "Ġsoorten": 5382,
      "Ġgep": 5383,
      "ãĢĬ": 5384,
      "ãĢĭ": 5385,
      "Ġuitleg": 5386,
      "ĠDec": 5387,
      "æŀª": 5388,
      "Ġbrief": 5389,
      "èĻĳ": 5390,
      "Ġvergeten": 5391,
      "nieuw": 5392,
      "zak": 5393,
      "ijl": 5394,
      "Ġnatuur": 5395,
      "ĠNorth": 5396,
      "ived": 5397,
      "Ġletters": 5398,
      "è¿ĲåĬ¨": 5399,
      "oft": 5400,
      "Ġder": 5401,
      "Ġwou": 5402,
      "Ġlay": 5403,
      "Ġfly": 5404,
      "Ġvanavond": 5405,
      "ä¸įå¾Ĺ": 5406,
      "antwoord": 5407,
      "Ġprot": 5408,
      "Ġonderz": 5409,
      "åĲĮå¿Ĺ": 5410,
      "gie": 5411,
      "ices": 5412,
      "ĠWas": 5413,
      "ĠPer": 5414,
      "åº§": 5415,
      "Ġabove": 5416,
      "Ġmaanden": 5417,
      "Ġavond": 5418,
      "rown": 5419,
      "gem": 5420,
      "ä¹Łæ²¡": 5421,
      "åĩºçİ°": 5422,
      "ĠYOU": 5423,
      "Ġcheck": 5424,
      "Ġzetten": 5425,
      "Ġbeautiful": 5426,
      "è¯¾": 5427,
      "Ġvoort": 5428,
      "Ġslapen": 5429,
      "raagd": 5430,
      "éĵ¶": 5431,
      "attle": 5432,
      "nemen": 5433,
      "ping": 5434,
      "Ã¼": 5435,
      "Ġmount": 5436,
      "Ġstoppen": 5437,
      "Ġliving": 5438,
      "recht": 5439,
      "ç»´": 5440,
      "åĨ°": 5441,
      "blad": 5442,
      "æĻ¯": 5443,
      "åĨįè§ģ": 5444,
      "æĦŁæĥħ": 5445,
      "Ġkwamen": 5446,
      "aien": 5447,
      "Ġè¡Į": 5448,
      "Ġwood": 5449,
      "Ġinde": 5450,
      "alth": 5451,
      "raid": 5452,
      "Ġsport": 5453,
      "ĠOh": 5454,
      "Ġwild": 5455,
      "åĨ³å®ļ": 5456,
      "ID": 5457,
      "Will": 5458,
      "Zij": 5459,
      "aars": 5460,
      "ĠMc": 5461,
      "åıªæľī": 5462,
      "Ġhowever": 5463,
      "Ġlangu": 5464,
      "Ġvraagt": 5465,
      "AS": 5466,
      "ira": 5467,
      "ague": 5468,
      "ä¼ĺ": 5469,
      "è¿ĩäºĨ": 5470,
      "æĪĲä¸º": 5471,
      "ued": 5472,
      "Ġhog": 5473,
      "å¾ĭ": 5474,
      "Ġmeter": 5475,
      "æ´Ĺ": 5476,
      "å½ĵçĦ¶": 5477,
      "Ġkonden": 5478,
      "Ġcompany": 5479,
      "å®ĮäºĨ": 5480,
      "Ġgehoord": 5481,
      "ĠOnder": 5482,
      "Ġfavor": 5483,
      "Ġnoemen": 5484,
      "éĻį": 5485,
      "èĤ²": 5486,
      "Ġmommy": 5487,
      "enny": 5488,
      "Verd": 5489,
      "ior": 5490,
      "vocal": 5491,
      "Ġlad": 5492,
      "Ġfield": 5493,
      "Ġnoises": 5494,
      "Ġbeneden": 5495,
      "è´¢": 5496,
      "ĠJanuary": 5497,
      "ĠMartin": 5498,
      "Na": 5499,
      "ral": 5500,
      "Ã¶": 5501,
      "Ġcond": 5502,
      "ĠCount": 5503,
      "Ġzeer": 5504,
      "achter": 5505,
      "æ°¸": 5506,
      "Ġtrue": 5507,
      "Ġmist": 5508,
      "æł·çļĦ": 5509,
      "Ġclot": 5510,
      "Ġgevangen": 5511,
      "æĽ¿": 5512,
      "çĭĲ": 5513,
      "ĠGrand": 5514,
      "èİ·": 5515,
      "12": 5516,
      "uut": 5517,
      "èĵ": 5518,
      "Ġåĳĥ": 5519,
      "Ġsac": 5520,
      "Ġmut": 5521,
      "Ġloc": 5522,
      "ello": 5523,
      "æķĪ": 5524,
      "æİ§": 5525,
      "èĹı": 5526,
      "goed": 5527,
      "uist": 5528,
      "Ġlift": 5529,
      "æŃ¢": 5530,
      "åĹ¯åĹ¯": 5531,
      "steem": 5532,
      "éĢĢ": 5533,
      "eph": 5534,
      "Ġarg": 5535,
      "åŃ¦æł¡": 5536,
      "pres": 5537,
      "wijs": 5538,
      "alright": 5539,
      "Ġcere": 5540,
      "Ġbewer": 5541,
      "æľīä¸ª": 5542,
      "åİī": 5543,
      "ĠLondon": 5544,
      "Ġschuld": 5545,
      "Ġwinter": 5546,
      "æĺ¨å¤©": 5547,
      "ense": 5548,
      "Ġ23": 5549,
      "Ġdrinken": 5550,
      "Ġterwijl": 5551,
      "Ġwrite": 5552,
      "éŀ": 5553,
      "Ġtakes": 5554,
      "Ġdien": 5555,
      "Ġmater": 5556,
      "æĺ¯ä¸ª": 5557,
      "ä¸Ģç§į": 5558,
      "åĨľ": 5559,
      "çºª": 5560,
      "æºĲ": 5561,
      "eur": 5562,
      "Ġbru": 5563,
      "Ġhusband": 5564,
      "Ġvanaf": 5565,
      "Ġvoordat": 5566,
      "æ²¡äºĭ": 5567,
      "å®¶çļĦ": 5568,
      "æł¹æľ¬": 5569,
      "uzz": 5570,
      "bt": 5571,
      "Ġdam": 5572,
      "Ġhop": 5573,
      "ases": 5574,
      "ä¸ĢåĿĹ": 5575,
      "play": 5576,
      "Ġonderwerp": 5577,
      "æĸ¹å¼ı": 5578,
      "Ġgeloven": 5579,
      "çĭ¼": 5580,
      "çĹĽ": 5581,
      "Ġzes": 5582,
      "Ġzuur": 5583,
      "Ġcou": 5584,
      "ĠDuits": 5585,
      "ĠOctober": 5586,
      "Ġkunst": 5587,
      "è´Ŀ": 5588,
      "äºĮéĽ¶": 5589,
      "å¥³åĦ¿": 5590,
      "èīº": 5591,
      "éŃĶ": 5592,
      "vorm": 5593,
      "Ġæĥ³": 5594,
      "issen": 5595,
      "Ġå·": 5596,
      "åį«": 5597,
      "wez": 5598,
      "ç§¯": 5599,
      "ukt": 5600,
      "Moet": 5601,
      "Ġsend": 5602,
      "ĠIN": 5603,
      "ĠMaak": 5604,
      "ĠéĤ£ä¹Ī": 5605,
      "ekijk": 5606,
      "AND": 5607,
      "Ġcontrol": 5608,
      "è¹": 5609,
      "Ġäºº": 5610,
      "elingen": 5611,
      "Ġtechn": 5612,
      "ĠPres": 5613,
      "Ġusually": 5614,
      "weer": 5615,
      "äºĴ": 5616,
      "Ġpracht": 5617,
      "Ġsta": 5618,
      "ĠSeptember": 5619,
      "èº«ä¸Ĭ": 5620,
      "Ġgekomen": 5621,
      "åĲ¸": 5622,
      "Ġspreken": 5623,
      "Ġgeworden": 5624,
      "Ġwonen": 5625,
      "Or": 5626,
      "Ġnad": 5627,
      "Ġpakken": 5628,
      "ä»ĺ": 5629,
      "ĠAb": 5630,
      "ĠOne": 5631,
      "ĠUit": 5632,
      "Ġeerder": 5633,
      "ĠYes": 5634,
      "iode": 5635,
      "ĠNederlandse": 5636,
      "Ġseries": 5637,
      "Ġmooie": 5638,
      "hor": 5639,
      "iber": 5640,
      "ories": 5641,
      "ĠAugust": 5642,
      "ĠSouth": 5643,
      "Ġafraid": 5644,
      "æķ£": 5645,
      "Ġelders": 5646,
      "Ġspeak": 5647,
      "çĨŁ": 5648,
      "Af": 5649,
      "Ġpaard": 5650,
      "ality": 5651,
      "Ġreis": 5652,
      "Ġgaf": 5653,
      "shall": 5654,
      "Ġkijkt": 5655,
      "izen": 5656,
      "Ġä¸Ģä¸ª": 5657,
      "Ġtit": 5658,
      "Ġbos": 5659,
      "orie": 5660,
      "Ġpupp": 5661,
      "ĠDo": 5662,
      "Ġalright": 5663,
      "Ġvoorbij": 5664,
      "Ġspir": 5665,
      "åĽłæŃ¤": 5666,
      "ĠEngland": 5667,
      "Ġliefde": 5668,
      "ĠDecember": 5669,
      "Ġtouch": 5670,
      "Ġbewe": 5671,
      "ĠApril": 5672,
      "ĠBurton": 5673,
      "ä¼´": 5674,
      "Ġchoo": 5675,
      "Ġabs": 5676,
      "æ¬¾": 5677,
      "RI": 5678,
      "cuse": 5679,
      "ford": 5680,
      "kant": 5681,
      "Ġwish": 5682,
      "omst": 5683,
      "ĠBar": 5684,
      "ĠGl": 5685,
      "å§ĵ": 5686,
      "Natuurlijk": 5687,
      "makes": 5688,
      "Ġwest": 5689,
      "Ġhon": 5690,
      "Ġequ": 5691,
      "å¼¹": 5692,
      "äºİæĺ¯": 5693,
      "çľ¼çĿ": 5694,
      "Ġsitting": 5695,
      "Ġevent": 5696,
      "æĪĳéĥ½": 5697,
      "åľĪ": 5698,
      "ĠSo": 5699,
      "ĠTH": 5700,
      "olly": 5701,
      "Ġgevoel": 5702,
      "ç½ª": 5703,
      "èİ«": 5704,
      "gra": 5705,
      "mas": 5706,
      "Ġä¸ºä»Ģä¹Ī": 5707,
      "Ġtel": 5708,
      "igr": 5709,
      "Ġya": 5710,
      "Ġgarden": 5711,
      "ĠRepubl": 5712,
      "El": 5713,
      "ror": 5714,
      "Ġ/": 5715,
      "Ġest": 5716,
      "Ġbuurt": 5717,
      "äº«": 5718,
      "aser": 5719,
      "stad": 5720,
      "strijd": 5721,
      "Ġmoved": 5722,
      "Ġshot": 5723,
      "Ġlived": 5724,
      "Niemand": 5725,
      "One": 5726,
      "nam": 5727,
      "Ġanderen": 5728,
      "under": 5729,
      "åħ¶ä»ĸ": 5730,
      "Ġjuice": 5731,
      "Ġtrees": 5732,
      "å¥¶å¥¶": 5733,
      "ael": 5734,
      "delen": 5735,
      "ĠDen": 5736,
      "though": 5737,
      "çľģ": 5738,
      "Ġä¸įè¿ĩ": 5739,
      "}$$": 5740,
      "Ġtoward": 5741,
      "oph": 5742,
      "15": 5743,
      "was": 5744,
      "Ġvi": 5745,
      "Ġnine": 5746,
      "çļĦåľ°æĸ¹": 5747,
      "Ġrain": 5748,
      "Ġvoorkomen": 5749,
      "åį¡": 5750,
      "inkt": 5751,
      "ä¸īä¸ª": 5752,
      "åĲ¬è¯´": 5753,
      "Ġbehand": 5754,
      "Ġobject": 5755,
      "Ġlist": 5756,
      "Ġeiland": 5757,
      "ä¸įå¯¹": 5758,
      "æľīæ²¡æľī": 5759,
      "å¤§åŃ¦": 5760,
      "plant": 5761,
      "Ġsurpr": 5762,
      "aire": 5763,
      "Ġmacht": 5764,
      "ä½łä¹Ł": 5765,
      "ĠæĪĳçŁ¥éģĵ": 5766,
      "è¿ĩç¨ĭ": 5767,
      "Ġcommand": 5768,
      "æİĮ": 5769,
      "åŃ¦ä¹ł": 5770,
      "Alleen": 5771,
      "Ġsinds": 5772,
      "Ġstap": 5773,
      "Ġervoor": 5774,
      "ĠåĮ": 5775,
      "å¤§åĵ¥": 5776,
      "æĸĹ": 5777,
      "ĠKennis": 5778,
      "å§Ķ": 5779,
      "Ġterm": 5780,
      "åħ¬ä¸»": 5781,
      "åĪļåĪļ": 5782,
      "Ġå¿«": 5783,
      "yl": 5784,
      "ĠIr": 5785,
      "åĽ°": 5786,
      "ä¼¯": 5787,
      "ĠJune": 5788,
      "Ġcannot": 5789,
      "Ġdank": 5790,
      "çĪ·çĪ·": 5791,
      "Ġbezig": 5792,
      "èĮĥ": 5793,
      "Aan": 5794,
      "åĲĵ": 5795,
      "ility": 5796,
      "eeg": 5797,
      "è¾Ī": 5798,
      "Ġrode": 5799,
      "çº¸": 5800,
      "Ġvermoord": 5801,
      "Heeft": 5802,
      "boek": 5803,
      "Ġå¤§å®¶": 5804,
      "åĳĹ": 5805,
      "Ġblock": 5806,
      "Ġhoeft": 5807,
      "ample": 5808,
      "Ġpublic": 5809,
      "Ġcomputer": 5810,
      "ĠJuly": 5811,
      "ä¸įçĶ¨": 5812,
      "Ġdoel": 5813,
      "Ġgevraagd": 5814,
      "æŃ»äºĨ": 5815,
      "Ġpresident": 5816,
      "Beg": 5817,
      "Door": 5818,
      "gesl": 5819,
      "Ġpig": 5820,
      "Ġcross": 5821,
      "Ġtoek": 5822,
      "ä»ĭ": 5823,
      "æĪĳè¯´": 5824,
      "Ġä½łå°±": 5825,
      "å®īåħ¨": 5826,
      "Ġmarried": 5827,
      "Ġwink": 5828,
      "Ġcow": 5829,
      "ills": 5830,
      "ĠNove": 5831,
      "åįĪ": 5832,
      "Ġbegon": 5833,
      "é¡¶": 5834,
      "æ¼Ĥäº®": 5835,
      "dden": 5836,
      "lingen": 5837,
      "Ġvuur": 5838,
      "unk": 5839,
      "ĠWil": 5840,
      "rift": 5841,
      "èº«è¾¹": 5842,
      "çĥ§": 5843,
      "èĪ¹": 5844,
      "Ġsuccess": 5845,
      "ĠNovember": 5846,
      "Ġvent": 5847,
      "Ġkent": 5848,
      "å®«": 5849,
      "Ġverr": 5850,
      "Ġthinking": 5851,
      "Ġpartij": 5852,
      "Ġziekte": 5853,
      "TER": 5854,
      "annen": 5855,
      "Ġbab": 5856,
      "Ġvreem": 5857,
      "Ġhar": 5858,
      "Ġongel": 5859,
      "urch": 5860,
      "åĪº": 5861,
      "ĠGro": 5862,
      "Ġprov": 5863,
      "èĥľ": 5864,
      "vangen": 5865,
      "ç»Īäºİ": 5866,
      "Ġgovernment": 5867,
      "Ġmajor": 5868,
      "17": 5869,
      "maken": 5870,
      "Ġdinner": 5871,
      "stellen": 5872,
      "æĿ¯": 5873,
      "ĠæĪĳçļĦ": 5874,
      "Ġomge": 5875,
      "æĬĹ": 5876,
      "å¯Į": 5877,
      "åģļçļĦ": 5878,
      "ä½ľä¸º": 5879,
      "lu": 5880,
      "oeten": 5881,
      "uigen": 5882,
      "Ġhur": 5883,
      "Ġeconom": 5884,
      "Ġkiss": 5885,
      "Ġrunning": 5886,
      "Ġweken": 5887,
      "Ġdoden": 5888,
      "åĪĨä¹ĭ": 5889,
      "Ġ40": 5890,
      "proken": 5891,
      "ts": 5892,
      "Ġain": 5893,
      "Ġcijf": 5894,
      "Ġcried": 5895,
      "staande": 5896,
      "Ġverv": 5897,
      "ĠPeter": 5898,
      "åį±": 5899,
      "ified": 5900,
      "æĪĲåĬŁ": 5901,
      "åħ³æ³¨": 5902,
      "ELA": 5903,
      "Ġsterven": 5904,
      "çľ¼çĿĽ": 5905,
      "Mar": 5906,
      "gang": 5907,
      "oi": 5908,
      "Ġgas": 5909,
      "Ġfair": 5910,
      "ute": 5911,
      "å¥Ĺ": 5912,
      "Ġreport": 5913,
      "Ġ22": 5914,
      "reekt": 5915,
      "Ġtrad": 5916,
      "Ġrespect": 5917,
      "ebru": 5918,
      "çĪ¶æ¯į": 5919,
      "Ġbegrijp": 5920,
      "æ¦Ĥ": 5921,
      "Gew": 5922,
      "fer": 5923,
      "ya": 5924,
      "Ġoef": 5925,
      "Ġsett": 5926,
      "ĠMag": 5927,
      "ĠæĪĳä¹Ł": 5928,
      "æĹ¥åŃĲ": 5929,
      "æ¶Īæģ¯": 5930,
      "Ġradio": 5931,
      "want": 5932,
      "Ġzowel": 5933,
      "Ġfarm": 5934,
      "Ġfix": 5935,
      "ä½Ľ": 5936,
      "ä¸Ģä¼ļåĦ¿": 5937,
      "ĠAfter": 5938,
      "è´¥": 5939,
      "å§¨": 5940,
      "éĶĻè¯¯": 5941,
      "Ġbirthday": 5942,
      "epen": 5943,
      "name": 5944,
      "Ġå®ĥ": 5945,
      "è¿ĺæ²¡": 5946,
      "Ġgeval": 5947,
      "ä¸Ģå®ļè¦ģ": 5948,
      "toe": 5949,
      "çĩ": 5950,
      "Ġbath": 5951,
      "ä¸´": 5952,
      "Ġpraat": 5953,
      "ä½łè¦ģ": 5954,
      "imin": 5955,
      "ĠHugh": 5956,
      "æ²Ļ": 5957,
      "åĬ¨çī©": 5958,
      "ç´¢": 5959,
      "Ġbooks": 5960,
      "view": 5961,
      "ĠAmerikaanse": 5962,
      "dra": 5963,
      "Ġzen": 5964,
      "ĠTO": 5965,
      "ĠNan": 5966,
      "Ġproper": 5967,
      "Ġcomb": 5968,
      "æĻ®": 5969,
      "Ġperform": 5970,
      "Ġregion": 5971,
      "agon": 5972,
      "Ġdochter": 5973,
      "ĠGu": 5974,
      "Ġsudden": 5975,
      "ç§Ģ": 5976,
      "ae": 5977,
      "oken": 5978,
      "Ġdevelop": 5979,
      "Ġcamer": 5980,
      "Ġriver": 5981,
      "ĠSw": 5982,
      "ç»¿": 5983,
      "oenen": 5984,
      "ä¾Ľ": 5985,
      "ç³ĸ": 5986,
      "Ġgebeuren": 5987,
      "Dr": 5988,
      "Meer": 5989,
      "ĠåıĪ": 5990,
      "Ġsight": 5991,
      "Ġtoy": 5992,
      "Ġstof": 5993,
      "Ġrot": 5994,
      "eller": 5995,
      "Ġåģ": 5996,
      "å°±æĺ¯è¯´": 5997,
      "è¿Ļä¹Īå¤ļ": 5998,
      "Ġkennen": 5999,
      "Ġcatch": 6000,
      "Some": 6001,
      "Ġgang": 6002,
      "ä½łè¿Ļ": 6003,
      "ĠæĪĳè¯´": 6004,
      "è®Ń": 6005,
      "Ġsomebody": 6006,
      "æŁĲ": 6007,
      "Ġeating": 6008,
      "RE": 6009,
      "èĿ": 6010,
      "Ġhom": 6011,
      "Ġbevol": 6012,
      "æł·åŃĲ": 6013,
      "sm": 6014,
      "Ġzult": 6015,
      "Ġport": 6016,
      "Ġcop": 6017,
      "ikel": 6018,
      "ĠStap": 6019,
      "Ġnaast": 6020,
      "åĩłå¤©": 6021,
      "Ġmilit": 6022,
      "Ġhuman": 6023,
      "kn": 6024,
      "Ġä¸Ĭ": 6025,
      "anor": 6026,
      "eding": 6027,
      "rem": 6028,
      "iging": 6029,
      "Ġricht": 6030,
      "imm": 6031,
      "Ġforward": 6032,
      "Ġnose": 6033,
      "çİĩ": 6034,
      "å¼ĥ": 6035,
      "è¡¥": 6036,
      "Ġoffice": 6037,
      "æŃ£åľ¨": 6038,
      "Ġtrack": 6039,
      "Ġspeci": 6040,
      "Ġclean": 6041,
      "GE": 6042,
      "Ġå¤ª": 6043,
      "Ġkept": 6044,
      "ç»ĩ": 6045,
      "Ġquiet": 6046,
      "gelopen": 6047,
      "Ġcommon": 6048,
      "Ġwindow": 6049,
      "éº¦": 6050,
      "Bel": 6051,
      "stubl": 6052,
      "æĺ¯ä½ł": 6053,
      "ĠMen": 6054,
      "Ġeraan": 6055,
      "lymp": 6056,
      "Ġåĸ": 6057,
      "Ġintern": 6058,
      "Ġcirc": 6059,
      "Ġ#": 6060,
      "Ġeet": 6061,
      "åĲ¦": 6062,
      "icult": 6063,
      "Ġregen": 6064,
      "Ġreact": 6065,
      "Ġpress": 6066,
      "stead": 6067,
      "å®Įåħ¨": 6068,
      "voer": 6069,
      "Ġmicro": 6070,
      "æĪĳçľĭ": 6071,
      "åį³": 6072,
      "æİ¢": 6073,
      "è®©ä»ĸ": 6074,
      "izza": 6075,
      "æīįèĥ½": 6076,
      "Ġmaakte": 6077,
      "Ġåİ»": 6078,
      "stublieft": 6079,
      "BA": 6080,
      "nel": 6081,
      "pel": 6082,
      "ule": 6083,
      "Ġduur": 6084,
      "Ġthird": 6085,
      "Ġstroom": 6086,
      "ĠCom": 6087,
      "æµª": 6088,
      "standig": 6089,
      "Ġproblem": 6090,
      "Ġsucces": 6091,
      "ebruary": 6092,
      "æ½": 6093,
      "etjes": 6094,
      "Ġgesp": 6095,
      "ĠOver": 6096,
      "æĭ¬": 6097,
      "ç§ģ": 6098,
      "Ġantwoorden": 6099,
      "spraken": 6100,
      "say": 6101,
      "ĠÃ": 6102,
      "Ġet": 6103,
      "ä½Ļ": 6104,
      "Ġmember": 6105,
      "ĠMommy": 6106,
      "å·¦": 6107,
      "èĭ¥": 6108,
      "Ġverschil": 6109,
      "Because": 6110,
      "Ġpossible": 6111,
      "Ġdepartment": 6112,
      "14": 6113,
      "Ġzorg": 6114,
      "Ġreason": 6115,
      "ĠPart": 6116,
      "ĠGra": 6117,
      "åĸĦ": 6118,
      "Ġclos": 6119,
      "thern": 6120,
      "ughter": 6121,
      "Ġmillion": 6122,
      "ĠbacteriÃ«n": 6123,
      "Ġmachine": 6124,
      "bor": 6125,
      "uro": 6126,
      "yon": 6127,
      "Ġbeeld": 6128,
      "Ġenorm": 6129,
      "ĠUS": 6130,
      "cient": 6131,
      "ç¼º": 6132,
      "Ġtrouble": 6133,
      "Ġ$": 6134,
      "Ġdest": 6135,
      "ala": 6136,
      "Ġrij": 6137,
      "ĠTer": 6138,
      "ĠPe": 6139,
      "ĠEx": 6140,
      "éĥ½æľī": 6141,
      "Ġknows": 6142,
      "åºŃ": 6143,
      "æŀ¶": 6144,
      "æµĭ": 6145,
      "Ġ2000": 6146,
      "Ġlives": 6147,
      "Ġhotel": 6148,
      "Ġcurr": 6149,
      "Amer": 6150,
      "ingers": 6151,
      "Ġled": 6152,
      "å°ģ": 6153,
      "Ġå§": 6154,
      "ĠPol": 6155,
      "ç¬Ķ": 6156,
      "Ġverteld": 6157,
      "Ġsuppose": 6158,
      "Ġspeelt": 6159,
      "Ġverwacht": 6160,
      "hello": 6161,
      "aith": 6162,
      "ature": 6163,
      "Ġgingen": 6164,
      "Ġleef": 6165,
      "æĪĳåİ»": 6166,
      "Ġstood": 6167,
      "Ġä½łçļĦ": 6168,
      "Ġaanwez": 6169,
      "ĠKl": 6170,
      "Ġschrijven": 6171,
      "å±Ĥ": 6172,
      "æĮĳ": 6173,
      "æ¬¢è¿İ": 6174,
      "Ġprep": 6175,
      "Ġjonge": 6176,
      "Ġä¸ī": 6177,
      "Ġkort": 6178,
      "ikken": 6179,
      "ĠAan": 6180,
      "ĠAnt": 6181,
      "èµµ": 6182,
      "ĠLeg": 6183,
      "ruce": 6184,
      "Ġarms": 6185,
      "åıªè¦ģ": 6186,
      "ĠEuropa": 6187,
      "åİīå®³": 6188,
      "Ġtrouw": 6189,
      "Ġdarm": 6190,
      "äºļ": 6191,
      "ĠMy": 6192,
      "Ġwithin": 6193,
      "Ġè¿Ļæł·": 6194,
      "Ġbetalen": 6195,
      "æ³¢": 6196,
      "ĠZij": 6197,
      "åĵ¥åĵ¥": 6198,
      "Ġclear": 6199,
      "Ġdiag": 6200,
      "Ġvakantie": 6201,
      "èĸ": 6202,
      "åĪ¤": 6203,
      "ĠHar": 6204,
      "ĠæĪĳè¦ģ": 6205,
      "æĹģ": 6206,
      "ĠZw": 6207,
      "Ġluck": 6208,
      "Ġearth": 6209,
      "çļĦéĤ£": 6210,
      "Ġcel": 6211,
      "Ġcos": 6212,
      "Ġcool": 6213,
      "Ġformer": 6214,
      "ĠEm": 6215,
      "éĩĩ": 6216,
      "Ġprote": 6217,
      "ĠZuid": 6218,
      "æ³¨æĦı": 6219,
      "èŀ": 6220,
      "itten": 6221,
      "Ġlo": 6222,
      "Ġ27": 6223,
      "Ġbijz": 6224,
      "erence": 6225,
      "lands": 6226,
      "Ġvoelt": 6227,
      "MAR": 6228,
      "é½": 6229,
      "rodu": 6230,
      "èĩªçĦ¶": 6231,
      "çĸ¼": 6232,
      "ĠBeeld": 6233,
      "çŃĶåºĶ": 6234,
      "Ġcaught": 6235,
      "ĠCounty": 6236,
      "Ġtoekomst": 6237,
      "çļĦä¸ľè¥¿": 6238,
      "Ġreached": 6239,
      "opl": 6240,
      "Ġ28": 6241,
      "ĠOf": 6242,
      "Ġshut": 6243,
      "Ġvechten": 6244,
      "Ġveranderen": 6245,
      "Ġreturned": 6246,
      "Ġpunten": 6247,
      "Ġeiwit": 6248,
      "will": 6249,
      "ising": 6250,
      "Ġshoot": 6251,
      "èĥ½åĬĽ": 6252,
      "å°ıå§Ĳ": 6253,
      "Ġschoon": 6254,
      "éĩĮè¾¹": 6255,
      "åĽŀæĿ¥äºĨ": 6256,
      "ocol": 6257,
      "Zoals": 6258,
      "Ġsounds": 6259,
      "Ġesc": 6260,
      "Ġclothes": 6261,
      "work": 6262,
      "Ġhyp": 6263,
      "Ġpract": 6264,
      "Ġkopen": 6265,
      "å°±è¦ģ": 6266,
      "Ġsex": 6267,
      "bles": 6268,
      "é¦Ĩ": 6269,
      "isper": 6270,
      "Ġ26": 6271,
      "éĥ½ä¼ļ": 6272,
      "Ġgrap": 6273,
      "Ġprobeer": 6274,
      "æĹ¢çĦ¶": 6275,
      "Ġgister": 6276,
      "Ġpound": 6277,
      "åĪĢ": 6278,
      "éĤ£åĦ¿": 6279,
      "è¿ĺè¦ģ": 6280,
      "åľ°è¯´": 6281,
      "avid": 6282,
      "æ´ŀ": 6283,
      "volgens": 6284,
      "ology": 6285,
      "Ġmonths": 6286,
      "çłĶç©¶": 6287,
      "Have": 6288,
      "Twee": 6289,
      "Ġsand": 6290,
      "Ġfit": 6291,
      "æĺ¯åľ¨": 6292,
      "ĠSome": 6293,
      "gev": 6294,
      "geet": 6295,
      "Ġyours": 6296,
      "åŃ¦çĶŁ": 6297,
      "ograph": 6298,
      "Ġdad": 6299,
      "Ġwakker": 6300,
      "Ġpassen": 6301,
      "Ġcorn": 6302,
      "ä½łäºĨ": 6303,
      "ĠAg": 6304,
      "ĠCol": 6305,
      "æĬ¢": 6306,
      "å¼Ģå¿ĥ": 6307,
      "ä»ĸä»¬çļĦ": 6308,
      "çĵľ": 6309,
      "Pl": 6310,
      "Ġice": 6311,
      "Ġkoff": 6312,
      "asure": 6313,
      "Ġur": 6314,
      "Ġerop": 6315,
      "ĠKe": 6316,
      "ĠVeren": 6317,
      "Ġhung": 6318,
      "Ġweergegeven": 6319,
      "Ġfeeling": 6320,
      "Ġstraight": 6321,
      "Ġtomorrow": 6322,
      "Ġvor": 6323,
      "Ġking": 6324,
      "ä¸Ģåıª": 6325,
      "è¯Ĺ": 6326,
      "Ġzwaar": 6327,
      "Ġpassed": 6328,
      "Ġhoge": 6329,
      "Ġmam": 6330,
      "ä½łæĢİä¹Ī": 6331,
      "ĠMich": 6332,
      "ĠOost": 6333,
      "çĤ¹åĦ¿": 6334,
      "åĲĮæĹ¶": 6335,
      "Ġvlucht": 6336,
      "ĠSchool": 6337,
      "ĠIndian": 6338,
      "centratie": 6339,
      "èĨ": 6340,
      "ĠYeah": 6341,
      "Ġè¿ĺæĺ¯": 6342,
      "Ġtabel": 6343,
      "inet": 6344,
      "repen": 6345,
      "kening": 6346,
      "Ġknock": 6347,
      "Ġship": 6348,
      "æķĮ": 6349,
      "noise": 6350,
      "Alsjeblieft": 6351,
      "Ġworked": 6352,
      "ĠUniversity": 6353,
      "éĥ¨åĪĨ": 6354,
      "Ġlots": 6355,
      "æĳĨ": 6356,
      "åĭĩ": 6357,
      "Help": 6358,
      "kw": 6359,
      "çĳ": 6360,
      "ä¸Ŀ": 6361,
      "Ġvie": 6362,
      "Ġdeep": 6363,
      "lease": 6364,
      "Ġstil": 6365,
      "Ġren": 6366,
      "uno": 6367,
      "ĠCity": 6368,
      "åĨ¬": 6369,
      "è§£æŀĲ": 6370,
      "åıĺæĪĲ": 6371,
      "æĭľæĭľ": 6372,
      "zerba": 6373,
      "30": 6374,
      "kel": 6375,
      "ening": 6376,
      "isc": 6377,
      "itter": 6378,
      "ijan": 6379,
      "Ġlow": 6380,
      "ä¸įæĥ³": 6381,
      "Ġstar": 6382,
      "ilder": 6383,
      "ĠFebruary": 6384,
      "ipe": 6385,
      "Ġexample": 6386,
      "Ġslow": 6387,
      "Ġarri": 6388,
      "Ġwaiting": 6389,
      "iedenis": 6390,
      "zerbaijan": 6391,
      "ec": 6392,
      "ius": 6393,
      "ĠMOT": 6394,
      "æĪĳåľ¨": 6395,
      "ĠMon": 6396,
      "Ġann": 6397,
      "Ġleger": 6398,
      "éĥ½æ²¡": 6399,
      "éªĹ": 6400,
      "Ġvliegen": 6401,
      "Heel": 6402,
      "fast": 6403,
      "night": 6404,
      "rad": 6405,
      "rans": 6406,
      "çļĦéĤ£ä¸ª": 6407,
      "ĠMex": 6408,
      "ĠCent": 6409,
      "åįļ": 6410,
      "å½ĵä¸Ń": 6411,
      "Ġsnap": 6412,
      "èĦ±": 6413,
      "ç²ī": 6414,
      "æĶ¹åıĺ": 6415,
      "Ġruimte": 6416,
      "Ġtelevision": 6417,
      "eddy": 6418,
      "Ġker": 6419,
      "Ġstreet": 6420,
      "Ġä½łè¦ģ": 6421,
      "ĠRob": 6422,
      "å¾ĹåĪ°": 6423,
      "åĲ¬åĪ°": 6424,
      "ç¥¨": 6425,
      "Every": 6426,
      "wijk": 6427,
      "Ġè¯·": 6428,
      "Ġtired": 6429,
      "anken": 6430,
      "åľĨ": 6431,
      "éĩĬ": 6432,
      "å¼Ĥ": 6433,
      "çĽĳ": 6434,
      "æ´ĭ": 6435,
      "çĻ¾åĪĨä¹ĭ": 6436,
      "Ġherself": 6437,
      "bers": 6438,
      "sit": 6439,
      "zaak": 6440,
      "Ġpain": 6441,
      "iled": 6442,
      "ĠSl": 6443,
      "ĠLet": 6444,
      "Ġwaarschijnlijk": 6445,
      "Ġsup": 6446,
      "ç§ĺ": 6447,
      "å®ŀåľ¨": 6448,
      "Ġbelong": 6449,
      "çľŁçļĦæĺ¯": 6450,
      "$$\\": 6451,
      "zetten": 6452,
      "Naar": 6453,
      "hoog": 6454,
      "ube": 6455,
      "Ġèĥ½": 6456,
      "Ġtaf": 6457,
      "edia": 6458,
      "Ġstorm": 6459,
      "ĠJim": 6460,
      "é¢ľ": 6461,
      "Ġrelig": 6462,
      "æĿ¡ä»¶": 6463,
      "Ġfollowing": 6464,
      "Ġbull": 6465,
      "Ġbreat": 6466,
      "ooh": 6467,
      "ĠNot": 6468,
      "Ġschip": 6469,
      "ffen": 6470,
      "Ġpriv": 6471,
      "Uit": 6472,
      "cing": 6473,
      "wassen": 6474,
      "zel": 6475,
      "Ġta": 6476,
      "Ġhig": 6477,
      "Ġhaal": 6478,
      "Ġplaces": 6479,
      "æĬĺ": 6480,
      "Ġputting": 6481,
      "åĲĮåŃ¦": 6482,
      "å£°éŁ³": 6483,
      "Ġbelangrijke": 6484,
      "èĮ¶": 6485,
      "Ġhoeveelheid": 6486,
      "å³": 6487,
      "ision": 6488,
      "Ġstom": 6489,
      "Ġmeth": 6490,
      "æŀĦ": 6491,
      "Ġ192": 6492,
      "Ġdaarom": 6493,
      "Ġvolg": 6494,
      "Ġsomm": 6495,
      "Ġlanger": 6496,
      "organ": 6497,
      "æł¹æį®": 6498,
      "æļĸ": 6499,
      "Ġcharacter": 6500,
      "Ġsouth": 6501,
      "your": 6502,
      "stairs": 6503,
      "Ġstat": 6504,
      "este": 6505,
      "ĠCO": 6506,
      "çĶļ": 6507,
      "å¤©å¤©": 6508,
      "çľŁæŃ£": 6509,
      "ä¾ĭ": 6510,
      "Ġpolice": 6511,
      "åİŁæĿ¥": 6512,
      "itchen": 6513,
      "é²ľ": 6514,
      "Ġenergie": 6515,
      "dan": 6516,
      "Ġmelk": 6517,
      "äº¿": 6518,
      "è¯į": 6519,
      "ĠBra": 6520,
      "å¤ļçļĦ": 6521,
      "åıªèĥ½": 6522,
      "Ġverloren": 6523,
      "åİŁåĽł": 6524,
      "ĠGermany": 6525,
      "16": 6526,
      "ered": 6527,
      "Ġcake": 6528,
      "eech": 6529,
      "ĠMil": 6530,
      "ĠNational": 6531,
      "éĥ½åľ¨": 6532,
      "éĢĥ": 6533,
      "ĠéĤ£æĪĳ": 6534,
      "çĭ¸": 6535,
      "èĥĸ": 6536,
      "Ġ2010": 6537,
      "èĢĥèĻĳ": 6538,
      "çĪ¶äº²": 6539,
      "nem": 6540,
      "Ġobs": 6541,
      "ieur": 6542,
      "leanor": 6543,
      "å°Ħ": 6544,
      "Ġfort": 6545,
      "æĶ»": 6546,
      "çŃĸ": 6547,
      "ç»ıå¸¸": 6548,
      "laag": 6549,
      "æĻĵ": 6550,
      "Ġperhaps": 6551,
      "Ġsleut": 6552,
      "Ġmeestal": 6553,
      "Ġapart": 6554,
      "ĠIndia": 6555,
      "ĠKenyon": 6556,
      "Mama": 6557,
      "Ġmun": 6558,
      "Ġhut": 6559,
      "oning": 6560,
      "Ġfellow": 6561,
      "ieved": 6562,
      "åĲĽ": 6563,
      "æīĺ": 6564,
      "ĠNe": 6565,
      "Ġblijf": 6566,
      "Ġkleur": 6567,
      "ä¿ĿæĬ¤": 6568,
      "åĮĹäº¬": 6569,
      "æīĢæľīçļĦ": 6570,
      "éĻ¤äºĨ": 6571,
      "Ġmiddel": 6572,
      "bing": 6573,
      "ny": 6574,
      "Ġmur": 6575,
      "åħħ": 6576,
      "æĿ¥åĪ°": 6577,
      "ĠJer": 6578,
      "éĿ©": 6579,
      "Ġmaand": 6580,
      "Ġsupport": 6581,
      "iny": 6582,
      "Ġnamen": 6583,
      "åı³": 6584,
      "estig": 6585,
      "Ġzeven": 6586,
      "aalt": 6587,
      "å¯¹åķĬ": 6588,
      "Ġexact": 6589,
      "æĬĬæĪĳ": 6590,
      "Ġusing": 6591,
      "ç¥Ŀ": 6592,
      "Ġdifficult": 6593,
      "Onze": 6594,
      "è¶ĬæĿ¥": 6595,
      "Ġslaap": 6596,
      "Ġlovely": 6597,
      "Gel": 6598,
      "Ġdrop": 6599,
      "Ġmidden": 6600,
      "Ġgast": 6601,
      "Ġcell": 6602,
      "æģ©": 6603,
      "ç¢°": 6604,
      "volution": 6605,
      "Ġsuggest": 6606,
      "Wanneer": 6607,
      "gesch": 6608,
      "Ġdream": 6609,
      "Ġfift": 6610,
      "teren": 6611,
      "Ġbedrijf": 6612,
      "æģĭ": 6613,
      "Ġopened": 6614,
      "èī²çļĦ": 6615,
      "çĭĲçĭ¸": 6616,
      "Gaat": 6617,
      "ªåĬĽ": 6618,
      "ĠåĪ°": 6619,
      "Ġèµ°": 6620,
      "roken": 6621,
      "Ġworry": 6622,
      "ç§ĭ": 6623,
      "izes": 6624,
      "Ġmaag": 6625,
      "Ġcompet": 6626,
      "åĲįåŃĹ": 6627,
      "ç¿»": 6628,
      "Daddy": 6629,
      "Gr": 6630,
      "Ġstraat": 6631,
      "ä¹Łæ²¡æľī": 6632,
      "å¯¹äºİ": 6633,
      "Ġsuff": 6634,
      "æ¬§": 6635,
      "Ġglass": 6636,
      "Ġsupposed": 6637,
      "çŀ§": 6638,
      "è¶ĬæĿ¥è¶Ĭ": 6639,
      "joy": 6640,
      "Ġmakkelijk": 6641,
      "Ġlach": 6642,
      "ĠMark": 6643,
      "Ġwaarbij": 6644,
      "åģ¥": 6645,
      "Ġvolgens": 6646,
      "gering": 6647,
      "Any": 6648,
      "Ġbepaald": 6649,
      "hold": 6650,
      "Ġwinnen": 6651,
      "Ġvanuit": 6652,
      "æĸ½": 6653,
      "ç§¦": 6654,
      "å¾Īå¥½": 6655,
      "clock": 6656,
      "beeldingen": 6657,
      "Ġgezond": 6658,
      "Ġ2018": 6659,
      "iÃ«nt": 6660,
      "ç¥ĸ": 6661,
      "æĸ°éĹ»": 6662,
      "looks": 6663,
      "Ġtrein": 6664,
      "Ġredden": 6665,
      "Ġstanding": 6666,
      "Ġhours": 6667,
      "æĭħå¿ĥ": 6668,
      "Ġeasy": 6669,
      "ishing": 6670,
      "Ġfuck": 6671,
      "Ġfrog": 6672,
      "ĠSer": 6673,
      "æľīäºĽ": 6674,
      "genoot": 6675,
      "åĬ³": 6676,
      "ĠOlymp": 6677,
      "osaur": 6678,
      "Ġfruit": 6679,
      "uwen": 6680,
      "Ġontmoet": 6681,
      "Ġcamera": 6682,
      "some": 6683,
      "å´": 6684,
      "Ġhors": 6685,
      "Ġlid": 6686,
      "è¿Ļä»¶": 6687,
      "åķĬä½ł": 6688,
      "éĤ£è¾¹": 6689,
      "ä¼ģ": 6690,
      "empt": 6691,
      "Ġboom": 6692,
      "æĻº": 6693,
      "Ġlonger": 6694,
      "ĠAmerika": 6695,
      "åĤ»": 6696,
      "Ġklimaat": 6697,
      "ä¼ĳæģ¯": 6698,
      "Ġzuurstof": 6699,
      "eken": 6700,
      "iod": 6701,
      "uken": 6702,
      "Ĥ¬": 6703,
      "Ġsteden": 6704,
      "å°ıæĹ¶": 6705,
      "beelden": 6706,
      "schappen": 6707,
      "éĺµ": 6708,
      "é¢Ħ": 6709,
      "è¢ĭ": 6710,
      "çĲĨè§£": 6711,
      "å¸¦çĿĢ": 6712,
      "æĳĩ": 6713,
      "Vooruit": 6714,
      "Ġchanged": 6715,
      "eh": 6716,
      "Ġä¸ĭ": 6717,
      "Ġsal": 6718,
      "ouder": 6719,
      "Ġvet": 6720,
      "Ġleng": 6721,
      "Ġkitchen": 6722,
      "Ġwear": 6723,
      "Ġdok": 6724,
      "ĠHen": 6725,
      "Ġshout": 6726,
      "åº·": 6727,
      "Ġplayer": 6728,
      "æ¯Ķå¦Ĥ": 6729,
      "sings": 6730,
      "ym": 6731,
      "Ġbellen": 6732,
      "Ġhong": 6733,
      "Ġzaken": 6734,
      "Ġmoder": 6735,
      "Ġchance": 6736,
      "èĢģé¼ł": 6737,
      "ĠChin": 6738,
      "ä¸»è¦ģ": 6739,
      "éľ²": 6740,
      "Ġchem": 6741,
      "æĸĩåĮĸ": 6742,
      "Ġrelatie": 6743,
      "Ġweeks": 6744,
      "Ġ2021": 6745,
      "Ġsilence": 6746,
      "ç®Ģåįķ": 6747,
      "200": 6748,
      "mers": 6749,
      "ä¸¢": 6750,
      "Ġmemb": 6751,
      "Ġopl": 6752,
      "oppen": 6753,
      "æĿ¥æĿ¥": 6754,
      "Ġneg": 6755,
      "çīĮ": 6756,
      "ĠZijn": 6757,
      "Ġcontact": 6758,
      "ĠAmerica": 6759,
      "John": 6760,
      "uch": 6761,
      "Ġadem": 6762,
      "Ġeye": 6763,
      "çļĦåķĬ": 6764,
      "çļĦæĹ¶éĹ´": 6765,
      "Ġtoer": 6766,
      "leiding": 6767,
      "Ġmeat": 6768,
      "ils": 6769,
      "ĠAd": 6770,
      "å¤§äºĨ": 6771,
      "åĩı": 6772,
      "wege": 6773,
      "åĲİéĿ¢": 6774,
      "è´§": 6775,
      "oci": 6776,
      "Ġpapa": 6777,
      "åĳĬè¯īæĪĳ": 6778,
      "Ġpopulation": 6779,
      "Ġgeneral": 6780,
      "Ġanswered": 6781,
      "Ġlanguage": 6782,
      "Ġcouple": 6783,
      "han": 6784,
      "Ġhuil": 6785,
      "Ġcand": 6786,
      "Ġfill": 6787,
      "gene": 6788,
      "æĹħ": 6789,
      "Ġoveral": 6790,
      "which": 6791,
      "Ġsecret": 6792,
      "Ġzwem": 6793,
      "Pap": 6794,
      "ä¸¹": 6795,
      "Ġpuzz": 6796,
      "Ġkid": 6797,
      "ĠII": 6798,
      "Ġstam": 6799,
      "Ġopnieuw": 6800,
      "sey": 6801,
      "å¿į": 6802,
      "ankelijk": 6803,
      "èĢģæĿ¿": 6804,
      "eget": 6805,
      "Ġspec": 6806,
      "Ġcountries": 6807,
      "Ġappro": 6808,
      "Ġbasis": 6809,
      "Ġincluding": 6810,
      "llustr": 6811,
      "otte": 6812,
      "ä½łåľ¨": 6813,
      "åĲµ": 6814,
      "ĠTo": 6815,
      "åĬªåĬĽ": 6816,
      "å·§": 6817,
      "åºĬ": 6818,
      "Ġgeboren": 6819,
      "ording": 6820,
      "åıĺåĮĸ": 6821,
      "ä»»åĬ¡": 6822,
      "ĠGeorge": 6823,
      "Ġwitte": 6824,
      "Pak": 6825,
      "gar": 6826,
      "zing": 6827,
      "Ġkids": 6828,
      "agina": 6829,
      "esterd": 6830,
      "ersch": 6831,
      "åįĩ": 6832,
      "Ġproject": 6833,
      "Ġwaarde": 6834,
      "Ġexp": 6835,
      "Ġanyone": 6836,
      "Ġappar": 6837,
      "æ£®": 6838,
      "Ġdaughter": 6839,
      "gin": 6840,
      "ato": 6841,
      "Ġbased": 6842,
      "vecht": 6843,
      "è¯Ħ": 6844,
      "ella": 6845,
      "ume": 6846,
      "å¸ħ": 6847,
      "Ġboot": 6848,
      "Ġthemselves": 6849,
      "å¥³åŃ©": 6850,
      "Ġgeluid": 6851,
      "å¸Ĥåľº": 6852,
      "Ġgroter": 6853,
      "13": 6854,
      "VE": 6855,
      "wa": 6856,
      "Ġtreat": 6857,
      "Ġnor": 6858,
      "Ġlag": 6859,
      "ieken": 6860,
      "entle": 6861,
      "ĠAzerbaijan": 6862,
      "åİĤ": 6863,
      "ĠGel": 6864,
      "Ġ29": 6865,
      "elijks": 6866,
      "Ġseat": 6867,
      "é¡¿": 6868,
      "ä»Ĭå¹´": 6869,
      "èħ¿": 6870,
      "æķ´ä¸ª": 6871,
      "ĠHierdoor": 6872,
      "bab": 6873,
      "druk": 6874,
      "Ġæ¯ı": 6875,
      "Ġliet": 6876,
      "Ġfant": 6877,
      "Ġfout": 6878,
      "å¥ĸ": 6879,
      "åĬ²": 6880,
      "è®¨": 6881,
      "Ġè¿Ļä¹Ī": 6882,
      "è¶£": 6883,
      "Ġ2017": 6884,
      "Ġbroken": 6885,
      "ç¦»å©ļ": 6886,
      "åĮ»éĻ¢": 6887,
      "OK": 6888,
      "Ġlied": 6889,
      "ä»Ļ": 6890,
      "ĠSun": 6891,
      "Ġforget": 6892,
      "ĠNor": 6893,
      "åŃĲéĩĮ": 6894,
      "ĠOF": 6895,
      "Ġgrass": 6896,
      "overn": 6897,
      "Ġæĺ¯ä¸įæĺ¯": 6898,
      "Ġå¦Ī": 6899,
      "æļĹ": 6900,
      "æħ¢æħ¢": 6901,
      "æ¸¸æĪı": 6902,
      "Ġredenen": 6903,
      "Ġmotor": 6904,
      "Ġwedstrijd": 6905,
      "Ġtonight": 6906,
      "ĠPresident": 6907,
      "Ġsus": 6908,
      "ĠAlex": 6909,
      "ustig": 6910,
      "Ġspace": 6911,
      "naam": 6912,
      "æģĲ": 6913,
      "Ġlaag": 6914,
      "èĪĴ": 6915,
      "ç¨³": 6916,
      "ĠLees": 6917,
      "éŁ©": 6918,
      "Her": 6919,
      "mar": 6920,
      "Ġverzeker": 6921,
      "ĠAN": 6922,
      "iller": 6923,
      "Ġleiden": 6924,
      "Ġblijkt": 6925,
      "Ġconvers": 6926,
      "è¾ĵ": 6927,
      "åĸĬ": 6928,
      "Ġ2019": 6929,
      "çģ¯": 6930,
      "éª¨": 6931,
      "åĶĲ": 6932,
      "Ġvandaan": 6933,
      "Ġcontrole": 6934,
      "ĠEdna": 6935,
      "esterday": 6936,
      "book": 6937,
      "Ġburn": 6938,
      "åĲ¹": 6939,
      "Ġåº": 6940,
      "Ġprocess": 6941,
      "Ġchicken": 6942,
      "è¾Ľ": 6943,
      "å¹²åĲĹ": 6944,
      "Ġbelangrijkste": 6945,
      "Ġsky": 6946,
      "Ġnon": 6947,
      "Ġcost": 6948,
      "ĠTurk": 6949,
      "ĠRiver": 6950,
      "Ġafge": 6951,
      "å½Ĵ": 6952,
      "æĽ²": 6953,
      "Ġ2014": 6954,
      "Ġdescri": 6955,
      "æ£Ģ": 6956,
      "é¹¿": 6957,
      "Ġgeheim": 6958,
      "Ġfurther": 6959,
      "Ġveroorzaakt": 6960,
      "Ġstellen": 6961,
      "uses": 6962,
      "rich": 6963,
      "ribut": 6964,
      "æĸ°çļĦ": 6965,
      "ses": 6966,
      "turn": 6967,
      "çĺ": 6968,
      "Ġéĺ¿": 6969,
      "itions": 6970,
      "appe": 6971,
      "ulk": 6972,
      "Ġuitspraken": 6973,
      "ä¸Ĭåİ»": 6974,
      "è¿ĺä¸į": 6975,
      "Ġpreten": 6976,
      "æĮ¥": 6977,
      "äºĶåįģ": 6978,
      "board": 6979,
      "ounter": 6980,
      "Ġmeisjes": 6981,
      "LE": 6982,
      "vaten": 6983,
      "Ġdanger": 6984,
      "Ġcal": 6985,
      "otter": 6986,
      "ä¸ĢèĪ¬": 6987,
      "Ġversp": 6988,
      "Ġrequ": 6989,
      "Ġreach": 6990,
      "umenten": 6991,
      "ä¸ĬéĿ¢": 6992,
      "Ġ2007": 6993,
      "èĪį": 6994,
      "Ġcollect": 6995,
      "product": 6996,
      "Maybe": 6997,
      "dien": 6998,
      "uke": 6999,
      "çļĦåĳĢ": 7000,
      "ĠLord": 7001,
      "Ġblow": 7002,
      "å½ķ": 7003,
      "Ġcarry": 7004,
      "è¿Ľåħ¥": 7005,
      "Ġadm": 7006,
      "uyu": 7007,
      "bre": 7008,
      "kle": 7009,
      "Ġdin": 7010,
      "å°Ĭ": 7011,
      "icle": 7012,
      "Ġschrij": 7013,
      "Ġseem": 7014,
      "Ġgebieden": 7015,
      "é¢ĳ": 7016,
      "Ġreplied": 7017,
      "Please": 7018,
      "Uh": 7019,
      "Ġbaas": 7020,
      "Ġhaat": 7021,
      "Ġzak": 7022,
      "Ġzus": 7023,
      "Ġlog": 7024,
      "rees": 7025,
      "æĪĳè¿Ļ": 7026,
      "ikuyu": 7027,
      "Ġrijden": 7028,
      "ĠAB": 7029,
      "ĠBart": 7030,
      "ä»Ģä¹ĪæĹ¶åĢĻ": 7031,
      "çĽĺ": 7032,
      "Ġslim": 7033,
      "éķĩ": 7034,
      "Ġbuilt": 7035,
      "Ġpoints": 7036,
      "ĠChristmas": 7037,
      "æĬĢæľ¯": 7038,
      "çİ¯å¢ĥ": 7039,
      "Wait": 7040,
      "yd": 7041,
      "âĮ": 7042,
      "ermen": 7043,
      "Ġtv": 7044,
      "Ġboos": 7045,
      "Ġcry": 7046,
      "aga": 7047,
      "Ġerin": 7048,
      "ĠRome": 7049,
      "å§Ĳå§Ĳ": 7050,
      "Ġvormen": 7051,
      "Ġmiddle": 7052,
      "éº»çĥ¦": 7053,
      "Dag": 7054,
      "Ġkerk": 7055,
      "Ġride": 7056,
      "å°±åı¯ä»¥": 7057,
      "Ġrechter": 7058,
      "éģį": 7059,
      "Ġwaarheid": 7060,
      "Ġseason": 7061,
      "Ġanyway": 7062,
      "ä½ľçĶ¨": 7063,
      "ç¾Ĭ": 7064,
      "è¿Ľåİ»": 7065,
      "Ġposition": 7066,
      "Vertel": 7067,
      "Hoi": 7068,
      "Ph": 7069,
      "Per": 7070,
      "With": 7071,
      "ga": 7072,
      "veld": 7073,
      "Ġtick": 7074,
      "Ġcast": 7075,
      "erecht": 7076,
      "icip": 7077,
      "åĽº": 7078,
      "å¸Ń": 7079,
      "ively": 7080,
      "éĹ®ä½ł": 7081,
      "å¦Ĥä½ķ": 7082,
      "Ġ2008": 7083,
      "çĶµè§Ĩ": 7084,
      "è±Ĩ": 7085,
      "Ġdistrict": 7086,
      "ebruik": 7087,
      "çĶļèĩ³": 7088,
      "back": 7089,
      "ozen": 7090,
      "¤Ĳ": 7091,
      "Ġliter": 7092,
      "ests": 7093,
      "ä¹Łæľī": 7094,
      "æķ¬": 7095,
      "Ġseems": 7096,
      "Ġgras": 7097,
      "ç¬¬ä¸Ģæ¬¡": 7098,
      "Ġmeester": 7099,
      "åĿĹéĴ±": 7100,
      "After": 7101,
      "nou": 7102,
      "hem": 7103,
      "Ġov": 7104,
      "Ġmm": 7105,
      "order": 7106,
      "edig": 7107,
      "Ġcrying": 7108,
      "othe": 7109,
      "åĲ´": 7110,
      "ĠæĪĳè¿Ļ": 7111,
      "éĤ£ä½ł": 7112,
      "Ġspl": 7113,
      "åºĨ": 7114,
      "ogn": 7115,
      "å®ŀéĻħ": 7116,
      "Ġgrapp": 7117,
      "Ġcommune": 7118,
      "Ġslechts": 7119,
      "Ġwhether": 7120,
      "beer": 7121,
      "uel": 7122,
      "Ġåı¯ä»¥": 7123,
      "Ġmad": 7124,
      "Ġpunt": 7125,
      "iday": 7126,
      "ĠHarry": 7127,
      "äººä»¬": 7128,
      "æĿ¥çľĭ": 7129,
      "è¯´ä»ĸ": 7130,
      "ä»Ģä¹ĪåĳĢ": 7131,
      "å¯¹å¯¹": 7132,
      "çĶŁåĳ½": 7133,
      "ä»İæĿ¥": 7134,
      "Ġdecided": 7135,
      "groep": 7136,
      "Ġleerlingen": 7137,
      "Ġbuilding": 7138,
      "å±ŀäºİ": 7139,
      "Ġmedicine": 7140,
      "singing": 7141,
      "PO": 7142,
      "with": 7143,
      "inter": 7144,
      "Ġwand": 7145,
      "çļĦåĲĹ": 7146,
      "ä¸Ģçľĭ": 7147,
      "ĠSm": 7148,
      "rap": 7149,
      "åİ»æī¾": 7150,
      "ä¼ļæľī": 7151,
      "ä¸¤å¤©": 7152,
      "Ġbroke": 7153,
      "lk": 7154,
      "Ġbaan": 7155,
      "å°±åľ¨": 7156,
      "è¦ģæ±Ĥ": 7157,
      "aste": 7158,
      "è¿ĺèĥ½": 7159,
      "ä¸ĭçļĦ": 7160,
      "æİ¥åıĹ": 7161,
      "Ġeverybody": 7162,
      "Ġcentury": 7163,
      "æĶ¿åºľ": 7164,
      "Ġfollowed": 7165,
      "Ġaardig": 7166,
      "kamer": 7167,
      "Ġident": 7168,
      "Ġsele": 7169,
      "Ġloop": 7170,
      "Ġinvloed": 7171,
      "Ġkool": 7172,
      "Ġkennis": 7173,
      "ĠTV": 7174,
      "ache": 7175,
      "emand": 7176,
      "Ġspot": 7177,
      "çĪ¬": 7178,
      "peci": 7179,
      "Ġvolgen": 7180,
      "æ··": 7181,
      "Ġstopped": 7182,
      "Ġvisit": 7183,
      "Ġgelukkig": 7184,
      "ĠChinese": 7185,
      "light": 7186,
      "zin": 7187,
      "Ġçİĭ": 7188,
      "Ġtyp": 7189,
      "Ġmix": 7190,
      "ament": 7191,
      "å®ģ": 7192,
      "äººæ°ĳ": 7193,
      "Ġä½łä¸į": 7194,
      "Ġä½łè¿Ļ": 7195,
      "Ġuitspraak": 7196,
      "ĠRober": 7197,
      "Ġshoes": 7198,
      "Ġneck": 7199,
      "æĬĬä½ł": 7200,
      "ocket": 7201,
      "Ġpolitic": 7202,
      "Ġhoorde": 7203,
      "Ġmoesten": 7204,
      "é½Ĳ": 7205,
      "Ġsommige": 7206,
      "Illustr": 7207,
      "best": 7208,
      "ugen": 7209,
      "yr": 7210,
      "Ġè·Ł": 7211,
      "Ġnut": 7212,
      "Ġheavy": 7213,
      "Ġstuur": 7214,
      "abet": 7215,
      "elfs": 7216,
      "uurd": 7217,
      "hington": 7218,
      "æľ¬æĿ¥": 7219,
      "Ġkwijt": 7220,
      "Ġplaatsen": 7221,
      "æļ´": 7222,
      "Ġcorre": 7223,
      "ç¯®": 7224,
      "åª³å¦ĩåĦ¿": 7225,
      "gasps": 7226,
      "worth": 7227,
      "xim": 7228,
      "zus": 7229,
      "ĠæľĢ": 7230,
      "anch": 7231,
      "Ġfijn": 7232,
      "sterd": 7233,
      "ĠåĬ": 7234,
      "å¥½åķĬ": 7235,
      "Ġdiep": 7236,
      "Ġ(\"": 7237,
      "Ġbegrip": 7238,
      "Ġperiode": 7239,
      "Ġfinish": 7240,
      "æĲ¬": 7241,
      "ç§ĳåŃ¦": 7242,
      "Ġdokter": 7243,
      "ĠäºĮ": 7244,
      "Ġenemy": 7245,
      "ä¸įä½ı": 7246,
      "ĠMa": 7247,
      "ĠToen": 7248,
      "å®¶äºº": 7249,
      "éĢ¼": 7250,
      "Ġsocial": 7251,
      "åħ³äºİ": 7252,
      "woordig": 7253,
      "Ġappl": 7254,
      "Ġnamelijk": 7255,
      "åıĤåĬł": 7256,
      "æ¤į": 7257,
      "Ste": 7258,
      "pa": 7259,
      "Ġdem": 7260,
      "Ġpil": 7261,
      "alley": 7262,
      "ĠSim": 7263,
      "Ġdocent": 7264,
      "irus": 7265,
      "æī¹": 7266,
      "Ġexcept": 7267,
      "éķ¿çļĦ": 7268,
      "Ġminister": 7269,
      "ç«¯": 7270,
      "ampion": 7271,
      "Ġåĵª": 7272,
      "Ġtrekken": 7273,
      "æĳ¸": 7274,
      "Ġieder": 7275,
      "ĠBelg": 7276,
      "ĠMinister": 7277,
      "Zet": 7278,
      "é¤Ĳ": 7279,
      "Ġbow": 7280,
      "å°ıå¿ĥ": 7281,
      "èĩ£": 7282,
      "Ġevening": 7283,
      "æ¸Ĳ": 7284,
      "iley": 7285,
      "Ġ2011": 7286,
      "ologie": 7287,
      "Ġanimal": 7288,
      "Ġwritten": 7289,
      "Ġbreakfast": 7290,
      "IJ": 7291,
      "Want": 7292,
      "Ġhosp": 7293,
      "Ġinstead": 7294,
      "ometer": 7295,
      "stel": 7296,
      "ĠBruce": 7297,
      "åľ¨æĪĳ": 7298,
      "okken": 7299,
      "ĠStaten": 7300,
      "åĪĨéĴŁ": 7301,
      "anning": 7302,
      "å¿«ä¹Ĳ": 7303,
      "çĥŁ": 7304,
      "Ġvlieg": 7305,
      "Ġnormaal": 7306,
      "Ġquickly": 7307,
      "kun": 7308,
      "ads": 7309,
      "ä¸Ģè¾¹": 7310,
      "å¥½å¤ļ": 7311,
      "ipper": 7312,
      "oeder": 7313,
      "Ġeerlijk": 7314,
      "Ġauthor": 7315,
      "baby": 7316,
      "ray": 7317,
      "Ġsou": 7318,
      "Ġzuid": 7319,
      "Ġfail": 7320,
      "äºĨä»ĸ": 7321,
      "ä¸ĢçĻ¾": 7322,
      "ushed": 7323,
      "åĨĴ": 7324,
      "ippen": 7325,
      "Ġsnow": 7326,
      "èº²": 7327,
      "athol": 7328,
      "Ġregel": 7329,
      "Ġmiles": 7330,
      "Lees": 7331,
      "è¾ĪåŃĲ": 7332,
      "Ġmembers": 7333,
      "Illustration": 7334,
      "nis": 7335,
      "Ġdw": 7336,
      "esse": 7337,
      "ä½³": 7338,
      "è¿·": 7339,
      "igan": 7340,
      "ooien": 7341,
      "ä¹Į": 7342,
      "åħį": 7343,
      "æĿŁ": 7344,
      "aper": 7345,
      "ustri": 7346,
      "Ġafgelopen": 7347,
      "èĢģåħ¬": 7348,
      "æģ¶": 7349,
      "æĦŁè°¢": 7350,
      "Ġstrange": 7351,
      "Ġbehulp": 7352,
      "Ġelekt": 7353,
      "Ġliever": 7354,
      "ĠDaarna": 7355,
      "æ¯ķç«Ł": 7356,
      "kan": 7357,
      "ä¸Ī": 7358,
      "ĠIS": 7359,
      "Ġenjoy": 7360,
      "Ġstuck": 7361,
      "Ġrub": 7362,
      "ago": 7363,
      "ĠAf": 7364,
      "Ġä½łåĪ«": 7365,
      "ugg": 7366,
      "Ġschree": 7367,
      "iefd": 7368,
      "anny": 7369,
      "è§£åĨ³": 7370,
      "ĠâĤ¬": 7371,
      "å¹³æĹ¶": 7372,
      "Welk": 7373,
      "Ġintrodu": 7374,
      "romos": 7375,
      "Ġexperiment": 7376,
      "Ġcomplet": 7377,
      "éģĩåĪ°": 7378,
      "Ġlinks": 7379,
      "ç£¨": 7380,
      "Ġhoger": 7381,
      "gaat": 7382,
      "iaal": 7383,
      "maybe": 7384,
      "oest": 7385,
      "Ġwapen": 7386,
      "Ġkolon": 7387,
      "iem": 7388,
      "stoffen": 7389,
      "Ġregering": 7390,
      "Ġaller": 7391,
      "ĠWith": 7392,
      "bert": 7393,
      "ival": 7394,
      "Ġvoldo": 7395,
      "Ġkwaad": 7396,
      "æ¡¥": 7397,
      "å®Ŀå®Ŀ": 7398,
      "Ġpieces": 7399,
      "Ġrustig": 7400,
      "Ġdoubt": 7401,
      "Ġlaughed": 7402,
      "wow": 7403,
      "Ġban": 7404,
      "child": 7405,
      "iker": 7406,
      "ugs": 7407,
      "æĬĬå®ĥ": 7408,
      "Ġgene": 7409,
      "--\"": 7410,
      "éļ¾éģĵ": 7411,
      "Daarom": 7412,
      "Ġsymb": 7413,
      "Ġfigure": 7414,
      "Ġtafel": 7415,
      "Hello": 7416,
      "Mooi": 7417,
      "ioen": 7418,
      "Ġzout": 7419,
      "Ġechter": 7420,
      "ammer": 7421,
      "ĠSant": 7422,
      "Ġvoorbeeld": 7423,
      "ĠJames": 7424,
      "ĠFran": 7425,
      "å¨ģ": 7426,
      "å°ĨåĨĽ": 7427,
      "æĵį": 7428,
      "Ġservice": 7429,
      "points": 7430,
      "Ġallowed": 7431,
      "time": 7432,
      "Ġä¸º": 7433,
      "ona": 7434,
      "Ġlab": 7435,
      "Ġpet": 7436,
      "icit": 7437,
      "ĠBekijk": 7438,
      "åį°": 7439,
      "Ġplat": 7440,
      "çĽĬ": 7441,
      "åĽŀåĪ°": 7442,
      "Ġworks": 7443,
      "Ġzichzelf": 7444,
      "åĵªéĩĮ": 7445,
      "Ġzieken": 7446,
      "Ġermee": 7447,
      "zichtig": 7448,
      "halen": 7449,
      "would": 7450,
      "ĠçľŁçļĦ": 7451,
      "ena": 7452,
      "Ġhield": 7453,
      "Ġinvol": 7454,
      "ä¸Ģå¹´": 7455,
      "Ġforce": 7456,
      "åİ¿": 7457,
      "ĠNin": 7458,
      "çľĭäºĨ": 7459,
      "Wees": 7460,
      "achte": 7461,
      "éĴĪ": 7462,
      "Ġä¸įè¦ģ": 7463,
      "çĮ´": 7464,
      "ç²¾ç¥ŀ": 7465,
      "è®¾è®¡": 7466,
      "å¹¸ç¦ı": 7467,
      "eneral": 7468,
      "Even": 7469,
      "Ġvoll": 7470,
      "ongen": 7471,
      "æĺ¯è°ģ": 7472,
      "ĠSov": 7473,
      "Ġforgot": 7474,
      "iforn": 7475,
      "è¡Ĺ": 7476,
      "å¹´è½»": 7477,
      "è¡ĮäºĨ": 7478,
      "æīĵçĶµè¯Ŀ": 7479,
      "è·¯ä¸Ĭ": 7480,
      "æ¢ħ": 7481,
      "Ġwatching": 7482,
      "Ġappear": 7483,
      "Ġappeared": 7484,
      "ĠWaarom": 7485,
      "ih": 7486,
      "çļĦäºĭåĦ¿": 7487,
      "Ġkeek": 7488,
      "Ġenter": 7489,
      "Ġrood": 7490,
      "ç»į": 7491,
      "Ġä½łè¿ĺ": 7492,
      "Ġparents": 7493,
      "Ġè¦ģä¸į": 7494,
      "ä¼ģä¸ļ": 7495,
      "40": 7496,
      "ket": 7497,
      "oeld": 7498,
      "rel": 7499,
      "ÃŃ": 7500,
      "Ġboeken": 7501,
      "Ġhole": 7502,
      "Ġfinger": 7503,
      "uten": 7504,
      "Ġverwij": 7505,
      "Ġmod": 7506,
      "okk": 7507,
      "arts": 7508,
      "ugd": 7509,
      "Ġproef": 7510,
      "çĿĢæĢ¥": 7511,
      "Ġpray": 7512,
      "åī¯": 7513,
      "è½¯": 7514,
      "Hoeveel": 7515,
      "Ġadd": 7516,
      "é»ĺ": 7517,
      "æĭ¿çĿĢ": 7518,
      "åĤħ": 7519,
      "Ġå¹²": 7520,
      "Ġdrive": 7521,
      "Ġzomer": 7522,
      "Excuse": 7523,
      "æ°¸è¿ľ": 7524,
      "Net": 7525,
      "bi": 7526,
      "lag": 7527,
      "wan": 7528,
      "æĪĳçİ°åľ¨": 7529,
      "Ġmezelf": 7530,
      "ĠMack": 7531,
      "ĠTweede": 7532,
      "æī§": 7533,
      "iste": 7534,
      "ĠJoe": 7535,
      "è½®": 7536,
      "Ġ2016": 7537,
      "brand": 7538,
      "Ġplane": 7539,
      "Ġpopular": 7540,
      "åħ±äº§": 7541,
      "Volgens": 7542,
      "rum": 7543,
      "uper": 7544,
      "ľçļĦ": 7545,
      "Ġdun": 7546,
      "Ġduck": 7547,
      "å¾ģ": 7548,
      "Ġåī": 7549,
      "æł¸": 7550,
      "åĩºæĿ¥äºĨ": 7551,
      "Ġcareer": 7552,
      "Ġlevens": 7553,
      "Ġstraks": 7554,
      "eltje": 7555,
      "Ġvriendin": 7556,
      "Ġdiscover": 7557,
      "Ġåıªè¦ģ": 7558,
      "æĽ¾ç»ı": 7559,
      "éŀĭ": 7560,
      "LL": 7561,
      "Rustig": 7562,
      "Veel": 7563,
      "wood": 7564,
      "Ġlim": 7565,
      "Ġlying": 7566,
      "çļĦå°±æĺ¯": 7567,
      "æĺ¯æľī": 7568,
      "Ġstreng": 7569,
      "gew": 7570,
      "å¯»": 7571,
      "rijden": 7572,
      "åįģäºĶ": 7573,
      "æĸ¹æ³ķ": 7574,
      "å¦ĤæŃ¤": 7575,
      "å¸®åĬ©": 7576,
      "Ġholding": 7577,
      "é¢Ĩå¯¼": 7578,
      "ĠCanada": 7579,
      "EÃ©n": 7580,
      "Ġdur": 7581,
      "Ġthirty": 7582,
      "ieu": 7583,
      "åĲī": 7584,
      "æĿĤ": 7585,
      "Ġbodem": 7586,
      "bled": 7587,
      "çŁ¥éģĵäºĨ": 7588,
      "Ġneeds": 7589,
      "Ġwrote": 7590,
      "ĠåĴĮ": 7591,
      "Ġlegs": 7592,
      "AY": 7593,
      "dad": 7594,
      "give": 7595,
      "house": 7596,
      "Ġtaal": 7597,
      "Ġvict": 7598,
      "Ġpan": 7599,
      "roy": 7600,
      "Ġmeant": 7601,
      "ĠAir": 7602,
      "Ġrepres": 7603,
      "illen": 7604,
      "anker": 7605,
      "Ġvolk": 7606,
      "æĹłæ³ķ": 7607,
      "Ġ60": 7608,
      "Ġrechts": 7609,
      "å«Į": 7610,
      "Ġkorte": 7611,
      "See": 7612,
      "ei": 7613,
      "Ġkast": 7614,
      "ĠChe": 7615,
      "ĠæĪĳçİ°åľ¨": 7616,
      "Ġleaving": 7617,
      "åįł": 7618,
      "Ġzoiets": 7619,
      "bei": 7620,
      "Ġmann": 7621,
      "éģĹ": 7622,
      "éĶ®": 7623,
      "Ġyesterday": 7624,
      "Ġveranderd": 7625,
      "ĠWashington": 7626,
      "èĶ": 7627,
      "Ġgames": 7628,
      "Ġgentle": 7629,
      "Ġcoff": 7630,
      "ä½łä½ł": 7631,
      "ida": 7632,
      "å°¾": 7633,
      "Ġaangegeven": 7634,
      "Ġputs": 7635,
      "Ġbestaan": 7636,
      "Ġcarried": 7637,
      "izer": 7638,
      "éĥİ": 7639,
      "Ġtelling": 7640,
      "Ġnews": 7641,
      "Ġkey": 7642,
      "æ®µæĹ¶éĹ´": 7643,
      "ummie": 7644,
      "Ġhungry": 7645,
      "ero": 7646,
      "Ġlunch": 7647,
      "å¥½ä¸įå¥½": 7648,
      "çĿĢæĪĳ": 7649,
      "ç»ıè¿ĩ": 7650,
      "å¤ĸéĿ¢": 7651,
      "idence": 7652,
      "å¸®ä½ł": 7653,
      "æĹ©å°±": 7654,
      "åľ¨è¿ĻéĩĮ": 7655,
      "Ġdistance": 7656,
      "æ¹ĸ": 7657,
      "Ġvliegtuig": 7658,
      "bout": 7659,
      "pat": 7660,
      "Ġsick": 7661,
      "Ġcars": 7662,
      "leep": 7663,
      "ä¸įå¤ļ": 7664,
      "ä¸įä¸Ģæł·": 7665,
      "Ġstage": 7666,
      "Ġerbij": 7667,
      "çĽĸ": 7668,
      "Ġconne": 7669,
      "assing": 7670,
      "ç«ł": 7671,
      "Ġverdomme": 7672,
      "å®ĮæĪĲ": 7673,
      "æĦıæĢĿåķĬ": 7674,
      "Ġspring": 7675,
      "ĠWilliam": 7676,
      "woners": 7677,
      "sterdam": 7678,
      "ban": 7679,
      "Ġkat": 7680,
      "ä¸ĢæŃ¥": 7681,
      "ura": 7682,
      "ĠJa": 7683,
      "ĠThese": 7684,
      "Ġwilden": 7685,
      "Ġflat": 7686,
      "Ġperiod": 7687,
      "ä½įç½®": 7688,
      "voerd": 7689,
      "Ġhappens": 7690,
      "gesteld": 7691,
      "ground": 7692,
      "Ġå¤ļ": 7693,
      "Ġtrouwen": 7694,
      "Ġdorp": 7695,
      "Ġahead": 7696,
      "Ġgiving": 7697,
      "alf": 7698,
      "ikker": 7699,
      "Ġene": 7700,
      "Ġgeme": 7701,
      "Ġversl": 7702,
      "olut": 7703,
      "å¥½åĲĹ": 7704,
      "Ġuite": 7705,
      "indt": 7706,
      "Ġomhoog": 7707,
      "Ġshoul": 7708,
      "Ġneigh": 7709,
      "Ġprison": 7710,
      "ivid": 7711,
      "Ġcontract": 7712,
      "åħ¨éĥ¨": 7713,
      "éĤ£ä¹Īå¤ļ": 7714,
      "iÃ«nten": 7715,
      "Mum": 7716,
      "ĠåĲ¬": 7717,
      "Ġdig": 7718,
      "Ġdaddy": 7719,
      "Ġfat": 7720,
      "Ġnearly": 7721,
      "èĥ½ä¸įèĥ½": 7722,
      "Ġprof": 7723,
      "åºĦ": 7724,
      "Ġcomfort": 7725,
      "çīĻ": 7726,
      "æģ¨": 7727,
      "æĢ»æĺ¯": 7728,
      "æĮºå¥½çļĦ": 7729,
      "ĠWhy": 7730,
      "Ġcareful": 7731,
      "Ġcertainly": 7732,
      "ĠVerenigde": 7733,
      "Ġdom": 7734,
      "ored": 7735,
      "Ġzaak": 7736,
      "æľīçļĦ": 7737,
      "geant": 7738,
      "ĠGovern": 7739,
      "ĠRoman": 7740,
      "pend": 7741,
      "ipedia": 7742,
      "ivil": 7743,
      "çŃ¾": 7744,
      "Ġimm": 7745,
      "Ġgemidd": 7746,
      "Ġdesign": 7747,
      "è·ŁæĪĳè¯´": 7748,
      "Ġbecom": 7749,
      "Ġorganismen": 7750,
      "Ġreceived": 7751,
      "èĵĿ": 7752,
      "Ġview": 7753,
      "',": 7754,
      "eless": 7755,
      "Ġfre": 7756,
      "Ġmeen": 7757,
      "Ġmevrouw": 7758,
      "Ġverniet": 7759,
      "æ²ī": 7760,
      "å¯¹æĪĳ": 7761,
      "è°ĵ": 7762,
      "éĻĨ": 7763,
      "Ġhasn": 7764,
      "uhoh": 7765,
      "Ġ2012": 7766,
      "æ¢ģ": 7767,
      "çĵ¶": 7768,
      "âĢķâĢķ": 7769,
      "Ġcreated": 7770,
      "Ġcijfers": 7771,
      "Ġ+": 7772,
      "Ġderde": 7773,
      "Ġlocal": 7774,
      "å®ĭ": 7775,
      "ims": 7776,
      "ĠBill": 7777,
      "ĠRose": 7778,
      "osh": 7779,
      "å¤ªéĺ³": 7780,
      "Ġamb": 7781,
      "oogle": 7782,
      "Ġfinal": 7783,
      "Ġbeschermen": 7784,
      "Ġdiscuss": 7785,
      "volutie": 7786,
      "Ġconversation": 7787,
      "hankelijk": 7788,
      "ique": 7789,
      "non": 7790,
      "Ġpush": 7791,
      "Ġkick": 7792,
      "oost": 7793,
      "è¯ļ": 7794,
      "å®Ĺ": 7795,
      "å¤§äºº": 7796,
      "...\"": 7797,
      "å¾ĹäºĨ": 7798,
      "Ġblank": 7799,
      "Ġè¿ĻäºĽ": 7800,
      "èĤļ": 7801,
      "æĢĿèĢĥ": 7802,
      "å®īæİĴ": 7803,
      "ä»£è¡¨": 7804,
      "ä¸¤ä¸ªäºº": 7805,
      "Ġvoedings": 7806,
      "Ġvroeger": 7807,
      "Ġgevolg": 7808,
      "Ġverklaring": 7809,
      "Ġtemperatuur": 7810,
      "Ġnergens": 7811,
      "\")": 7812,
      "akte": 7813,
      "ilar": 7814,
      "erson": 7815,
      "çĶŁæ°Ķ": 7816,
      "éķľ": 7817,
      "Ġbegonnen": 7818,
      "isha": 7819,
      "çī©ä½ĵ": 7820,
      "Alle": 7821,
      "box": 7822,
      "Ġaccept": 7823,
      "çħ§é¡¾": 7824,
      "ĠAngel": 7825,
      "Ġincre": 7826,
      "ĠCarol": 7827,
      "Ġzenuw": 7828,
      "Ġexactly": 7829,
      "IC": 7830,
      "aid": 7831,
      "bes": 7832,
      "lang": 7833,
      "Ġpizza": 7834,
      "Ġkiezen": 7835,
      "staan": 7836,
      "ä¸įç®¡": 7837,
      "iling": 7838,
      "ĠSar": 7839,
      "sect": 7840,
      "ĠBer": 7841,
      "ĠNet": 7842,
      "Ġspoon": 7843,
      "åİ»åĲ§": 7844,
      "Ġneus": 7845,
      "æ³½": 7846,
      "åĽŀçŃĶ": 7847,
      "onderd": 7848,
      "æĶ¾åľ¨": 7849,
      "Ġrestaur": 7850,
      "sych": 7851,
      "èŀį": 7852,
      "å³°": 7853,
      "viously": 7854,
      "ened": 7855,
      "Ġtail": 7856,
      "Ġdry": 7857,
      "esus": 7858,
      "ä½łçŁ¥éģĵ": 7859,
      "äºĨä¸ª": 7860,
      "Ġbezoek": 7861,
      "åŃ£": 7862,
      "Ġprocent": 7863,
      "Ġchocol": 7864,
      "Ġadult": 7865,
      "Ġinformation": 7866,
      "å«ģ": 7867,
      "åŁºæľ¬": 7868,
      "Ġzwarte": 7869,
      "Ġprotest": 7870,
      "IG": 7871,
      "lei": 7872,
      "Ġgevecht": 7873,
      "ä»ĸæĺ¯": 7874,
      "istor": 7875,
      "astic": 7876,
      "rucht": 7877,
      "æĭ¼": 7878,
      "éĿ¢åīį": 7879,
      "grond": 7880,
      "Ġgraf": 7881,
      "ĠLeague": 7882,
      "çĬ¶æĢģ": 7883,
      "derdaad": 7884,
      "ĠPortug": 7885,
      "Niets": 7886,
      "aus": 7887,
      "Ġbesp": 7888,
      "ora": 7889,
      "ites": 7890,
      "Ġlijn": 7891,
      "Ġep": 7892,
      "è¿°": 7893,
      "å°Ŀ": 7894,
      "kens": 7895,
      "èµ¢": 7896,
      "åĩĢ": 7897,
      "Ġnaartoe": 7898,
      "äºĭåķĬ": 7899,
      "Ġboer": 7900,
      "itted": 7901,
      "pervl": 7902,
      "ĠHeb": 7903,
      "é¢Ĺ": 7904,
      "Ġvertel": 7905,
      "Ġserie": 7906,
      "è¡¨çİ°": 7907,
      "çłģ": 7908,
      "æ£Ĵ": 7909,
      "Ġvermoorden": 7910,
      "Ġwalked": 7911,
      "Ġquestions": 7912,
      "Ġsacr": 7913,
      "Ġwinkel": 7914,
      "hol": 7915,
      "Ġdraag": 7916,
      "Ġdroom": 7917,
      "Ġinten": 7918,
      "Ġfir": 7919,
      "æĪĳäºĨ": 7920,
      "amous": 7921,
      "iety": 7922,
      "ĠHelen": 7923,
      "Ġerachter": 7924,
      "è¯´æĺ¯": 7925,
      "æĥľ": 7926,
      "ĠNie": 7927,
      "ĠJul": 7928,
      "éĻĲ": 7929,
      "Ġklinkt": 7930,
      "Ġactiv": 7931,
      "Ġvergelijk": 7932,
      "Ġengine": 7933,
      "Ġhonger": 7934,
      "Ġmum": 7935,
      "Ġcause": 7936,
      "amin": 7937,
      "isted": 7938,
      "Ġprovin": 7939,
      "è¿Ļä¸ªäºº": 7940,
      "noon": 7941,
      "ĠHein": 7942,
      "Ġtrots": 7943,
      "Ġgekregen": 7944,
      "ä¹Łä¸įçŁ¥éģĵ": 7945,
      "ommige": 7946,
      "è®¡åĪĴ": 7947,
      "ç»Ŀå¯¹": 7948,
      "ĠWikipedia": 7949,
      "FA": 7950,
      "Ne": 7951,
      "ini": 7952,
      "Ġtoest": 7953,
      "ĠSk": 7954,
      "oeien": 7955,
      "Ġä½łçŁ¥éģĵ": 7956,
      "Ġplate": 7957,
      "è¿ĺåľ¨": 7958,
      "åľ°ä¸Ĭ": 7959,
      "Ġgebracht": 7960,
      "ossing": 7961,
      "é¼ĵ": 7962,
      "Ġbevat": 7963,
      "Ġwriting": 7964,
      "åı¦å¤ĸ": 7965,
      "ĠCaliforn": 7966,
      "vocalizes": 7967,
      "Take": 7968,
      "Un": 7969,
      "Zou": 7970,
      "zier": 7971,
      "Ġåı¯èĥ½": 7972,
      "Ġä»¥åĲİ": 7973,
      "Ġpour": 7974,
      "Ġerf": 7975,
      "Ġwhatever": 7976,
      "ĠVeel": 7977,
      "Ġarmy": 7978,
      "Ġhoef": 7979,
      "werpen": 7980,
      "ç«¥": 7981,
      "è§ģè¿ĩ": 7982,
      "çĪ±çļĦ": 7983,
      "ç¡¬": 7984,
      "Ġgrappig": 7985,
      "pecially": 7986,
      "åħ±äº§åħļ": 7987,
      "down": 7988,
      "Ġtax": 7989,
      "Ġhoney": 7990,
      "Ġrace": 7991,
      "æľīäºĨ": 7992,
      "å¾Ĳ": 7993,
      "Ġaanb": 7994,
      "Ġoverle": 7995,
      "inding": 7996,
      "Ġsafe": 7997,
      "Ġconclus": 7998,
      "Ġklopt": 7999,
      "Ġvolwassen": 8000,
      "éĽĦ": 8001,
      "Ġgeleerd": 8002,
      "åħ¶ä¸Ń": 8003,
      "Ġtrap": 8004,
      "åįĥä¸ĩ": 8005,
      "åİĨåı²": 8006,
      "ĠDuitsland": 8007,
      "Ġongeluk": 8008,
      "Ġsuddenly": 8009,
      "Ġkoffie": 8010,
      "Man": 8011,
      "OO": 8012,
      "fact": 8013,
      "lijn": 8014,
      "Ġgold": 8015,
      "Ġhuw": 8016,
      "Ġcust": 8017,
      "aarten": 8018,
      "å¥¥": 8019,
      "ĠAdam": 8020,
      "oland": 8021,
      "è§¦": 8022,
      "Ġsomewhere": 8023,
      "æĮ£": 8024,
      "Ġarch": 8025,
      "éĶĢ": 8026,
      "Ġeveryone": 8027,
      "oemde": 8028,
      "Welkom": 8029,
      "ĠAnn": 8030,
      "Ġcapital": 8031,
      "Verdomme": 8032,
      "even": 8033,
      "fil": 8034,
      "las": 8035,
      "Ġpad": 8036,
      "Ġjump": 8037,
      "ä½łåķĬ": 8038,
      "Ġbeer": 8039,
      "Ġrul": 8040,
      "ĠTijdens": 8041,
      "Ġå±": 8042,
      "å¥½çľĭ": 8043,
      "åĩŃ": 8044,
      "ä»Ģä¹Īåĳ¢": 8045,
      "ä¸ĭäºĨ": 8046,
      "ontro": 8047,
      "Ġkeuze": 8048,
      "ä½¿çĶ¨": 8049,
      "Ġ2022": 8050,
      "Ġsituatie": 8051,
      "Mom": 8052,
      "RY": 8053,
      "lant": 8054,
      "oelen": 8055,
      "Ġkam": 8056,
      "Ġtoeg": 8057,
      "ĠMum": 8058,
      "äººç±»": 8059,
      "illa": 8060,
      "ĠKamer": 8061,
      "Ġschrijf": 8062,
      "Ġdoordat": 8063,
      "å±ģ": 8064,
      "åĽ½çİĭ": 8065,
      "éļĲ": 8066,
      "çķ¥": 8067,
      "Ġbusy": 8068,
      "Ġå¹¶": 8069,
      "èŃ¦å¯Ł": 8070,
      "Ġspirit": 8071,
      "Mhm": 8072,
      "bour": 8073,
      "heb": 8074,
      "heer": 8075,
      "oute": 8076,
      "CHAP": 8077,
      "adi": 8078,
      "olk": 8079,
      "ĠCup": 8080,
      "Ġmoving": 8081,
      "åķĬæĪĳ": 8082,
      "Ġoverl": 8083,
      "keur": 8084,
      "çĶŁçļĦ": 8085,
      "æĤĦ": 8086,
      "å®ŀéªĮ": 8087,
      "Ġbelow": 8088,
      "iance": 8089,
      "æŃ£å¸¸": 8090,
      "ization": 8091,
      "Ġ2001": 8092,
      "çģ°": 8093,
      "çĥĪ": 8094,
      "ä¿¡æģ¯": 8095,
      "ĠBruno": 8096,
      "Ġidi": 8097,
      "Ġsprake": 8098,
      "len": 8099,
      "ois": 8100,
      "Ġdomin": 8101,
      "Ġmid": 8102,
      "Ġzul": 8103,
      "ä¸ĢæĿ¡": 8104,
      "å®£": 8105,
      "ĠMus": 8106,
      "aches": 8107,
      "rible": 8108,
      "æĥ³æĥ³": 8109,
      "åģı": 8110,
      "éĽħ": 8111,
      "Ġ2004": 8112,
      "Ġ2005": 8113,
      "Ġ2009": 8114,
      "Ġafternoon": 8115,
      "éħ¸": 8116,
      "Ġinternet": 8117,
      "Ġprem": 8118,
      "Ġverschillen": 8119,
      "IK": 8120,
      "orde": 8121,
      "Ġtowards": 8122,
      "Ġrid": 8123,
      "ĠDE": 8124,
      "ĠTor": 8125,
      "ĠCook": 8126,
      "ula": 8127,
      "Ġheren": 8128,
      "ĠKikuyu": 8129,
      "Ġ190": 8130,
      "ç¾İä¸½": 8131,
      "ç®Ĺæĺ¯": 8132,
      "è¡¨ç¤º": 8133,
      "çªĹ": 8134,
      "Ġdiagram": 8135,
      "Ġhospital": 8136,
      "hoe": 8137,
      "ielen": 8138,
      "Ġhout": 8139,
      "ĠAmy": 8140,
      "å°±èĥ½": 8141,
      "Ġworth": 8142,
      "ĠNick": 8143,
      "Ġovert": 8144,
      "Ġorange": 8145,
      "æĮĤ": 8146,
      "Ġ2015": 8147,
      "Ġspecies": 8148,
      "åĲĦä½į": 8149,
      "èģĶç³»": 8150,
      "Ġverzam": 8151,
      "Ġleidt": 8152,
      "Ġuitleggen": 8153,
      "ially": 8154,
      "rust": 8155,
      "erland": 8156,
      "Ġtas": 8157,
      "Ġgives": 8158,
      "æĥ¯": 8159,
      "æĬ½": 8160,
      "ughing": 8161,
      "achtig": 8162,
      "Ġbutter": 8163,
      "ç¼ĸ": 8164,
      "Ġbescherm": 8165,
      "å¦¹å¦¹": 8166,
      "fessor": 8167,
      "ĠåİŁ": 8168,
      "è´Łè´£": 8169,
      "å¿ĺäºĨ": 8170,
      "Ġmurder": 8171,
      "din": 8172,
      "rest": 8173,
      "Ġterecht": 8174,
      "Ġdue": 8175,
      "Ġbought": 8176,
      "ita": 8177,
      "Ġdemand": 8178,
      "stop": 8179,
      "ä½łåĪ«": 8180,
      "oose": 8181,
      "ĠDis": 8182,
      "Ġgedrag": 8183,
      "æ´»åĬ¨": 8184,
      "Ġdropped": 8185,
      "ĠAustralia": 8186,
      "His": 8187,
      "Pe": 8188,
      "ores": 8189,
      "Ġkamp": 8190,
      "igg": 8191,
      "ĠNoem": 8192,
      "inda": 8193,
      "ä¸Ĭæµ·": 8194,
      "ĠLu": 8195,
      "Ġsoci": 8196,
      "Ġexpress": 8197,
      "ç¬¦": 8198,
      "ĠFraser": 8199,
      "Ġadded": 8200,
      "Ġrecogn": 8201,
      "Ġattempt": 8202,
      "å®³æĢķ": 8203,
      "Ġpaarden": 8204,
      "ometimes": 8205,
      "é¥¿": 8206,
      "Ġzinnen": 8207,
      "çļĦå¿ĥ": 8208,
      "ĠGa": 8209,
      "wezen": 8210,
      "cks": 8211,
      "Ġschimm": 8212,
      "Ġwaarop": 8213,
      "Ġgenomen": 8214,
      "Ġ2013": 8215,
      "èį£": 8216,
      "åŁİå¸Ĥ": 8217,
      "Ġstemmen": 8218,
      "æĿĲæĸĻ": 8219,
      "AM": 8220,
      "IE": 8221,
      "car": 8222,
      "zz": 8223,
      "Ġä»¥": 8224,
      "Ġsad": 8225,
      "Ġleeg": 8226,
      "Ġprijs": 8227,
      "Ġpocket": 8228,
      "stit": 8229,
      "adem": 8230,
      "Ġstub": 8231,
      "verb": 8232,
      "æĿ°": 8233,
      "ctions": 8234,
      "ĠReg": 8235,
      "Ġdaarvan": 8236,
      "è¡ĮåĬ¨": 8237,
      "Ġgewonnen": 8238,
      "æŃ£å¥½": 8239,
      "ouncil": 8240,
      "çĿ¡è§ī": 8241,
      "Ġrisico": 8242,
      "Ġkilometer": 8243,
      "Paul": 8244,
      "Ġnood": 8245,
      "ä¸ĢåĪĩ": 8246,
      "çĶ²": 8247,
      "ĠGoogle": 8248,
      "Ġoverw": 8249,
      "åĪ«çļĦ": 8250,
      "ousin": 8251,
      "æ¡Į": 8252,
      "è§£éĩĬ": 8253,
      "ĠNederlanders": 8254,
      "prob": 8255,
      "Ġcolon": 8256,
      "é¦ĸåħĪ": 8257,
      "ä»ĭç»į": 8258,
      "Ġuiteindelijk": 8259,
      "Sl": 8260,
      "kijk": 8261,
      "zil": 8262,
      "Ġok": 8263,
      "Ġviel": 8264,
      "Ġnak": 8265,
      "Ġut": 8266,
      "Ġbeat": 8267,
      "ä¸įåı¯": 8268,
      "ilet": 8269,
      "è¯º": 8270,
      "raal": 8271,
      "å®¶åºŃ": 8272,
      "Ġweren": 8273,
      "Ġseks": 8274,
      "èĢģå©Ĩ": 8275,
      "åįģäºĮ": 8276,
      "Ġkwal": 8277,
      "Ġimag": 8278,
      "Ġ2006": 8279,
      "æı¡": 8280,
      "éĶĻäºĨ": 8281,
      "æĬ¥åĳĬ": 8282,
      "Ġcharge": 8283,
      "Ġbleef": 8284,
      "ĠAmsterdam": 8285,
      "Ġontmoeten": 8286,
      "Ġvlees": 8287,
      "Ġlaughing": 8288,
      "CHAPTER": 8289,
      "Ġtent": 8290,
      "Ġnest": 8291,
      "Ġzand": 8292,
      "Ġlose": 8293,
      "Ġkust": 8294,
      "æĺ¯åĽłä¸º": 8295,
      "ä»ĸå°±": 8296,
      "è¯´æĺİ": 8297,
      "ĠRich": 8298,
      "abl": 8299,
      "teen": 8300,
      "åĴĮä½ł": 8301,
      "éĽ·": 8302,
      "phone": 8303,
      "ĠParis": 8304,
      "æĶ¯æĮģ": 8305,
      "Ġå¼Ģ": 8306,
      "sung": 8307,
      "ĠèĻ½çĦ¶": 8308,
      "Ġloud": 8309,
      "Ġfem": 8310,
      "icy": 8311,
      "ĠSan": 8312,
      "antly": 8313,
      "å¥½åĲ§": 8314,
      "istische": 8315,
      "çĿĢä½ł": 8316,
      "ipped": 8317,
      "aakte": 8318,
      "Ġhemel": 8319,
      "å§»": 8320,
      "æĢİä¹ĪäºĨ": 8321,
      "Ġagent": 8322,
      "åħ³éĶ®": 8323,
      "Ġfear": 8324,
      "oogd": 8325,
      "Ġplezier": 8326,
      "æĲľ": 8327,
      "å¼Łå¼Ł": 8328,
      "ĠAlleen": 8329,
      "Ġontstaat": 8330,
      "Ġstukje": 8331,
      "Ġåįģ": 8332,
      "Ġpaid": 8333,
      "dog": 8334,
      "lin": 8335,
      "Ġoce": 8336,
      "Ġsens": 8337,
      "ä¸ģ": 8338,
      "ĠhÃ©": 8339,
      "ä½łè¿ĺ": 8340,
      "Ġwebs": 8341,
      "Ġwash": 8342,
      "ĠMer": 8343,
      "ĠMic": 8344,
      "Ġalive": 8345,
      "ĠBilly": 8346,
      "asting": 8347,
      "æĬĬä»ĸ": 8348,
      "Ġunivers": 8349,
      "Ġanymore": 8350,
      "Ġbedankt": 8351,
      "Ġtrust": 8352,
      "Ġoorzaak": 8353,
      "Ġinclude": 8354,
      "Ġbrengt": 8355,
      "ĠAfrica": 8356,
      "plaats": 8357,
      "Ġzomaar": 8358,
      "standigheden": 8359,
      "ĠMexico": 8360,
      "Com": 8361,
      "wing": 8362,
      "Ġtour": 8363,
      "Ġaunt": 8364,
      "Ġpagina": 8365,
      "Ġcab": 8366,
      "ä¸įè§ģ": 8367,
      "Ġgegaan": 8368,
      "Ġalthough": 8369,
      "éĥ½è¦ģ": 8370,
      "ateg": 8371,
      "bling": 8372,
      "Ġdaarmee": 8373,
      "Ġwhose": 8374,
      "çĻ»": 8375,
      "Ġplays": 8376,
      "Ġverdien": 8377,
      "å¸®æĪĳ": 8378,
      "äºĮéĽ¶ä¸Ģ": 8379,
      "Ten": 8380,
      "di": 8381,
      "vang": 8382,
      "elly": 8383,
      "ije": 8384,
      "sters": 8385,
      "Ġgeg": 8386,
      "Ġrail": 8387,
      "raad": 8388,
      "ĠHun": 8389,
      "èµŀ": 8390,
      "ĠJust": 8391,
      "Ġschilder": 8392,
      "éĢĴ": 8393,
      "Ġprima": 8394,
      "Ġboard": 8395,
      "iveau": 8396,
      "ijdt": 8397,
      "åĽ½çļĦ": 8398,
      "laughing": 8399,
      "å¥³æľĭåıĭ": 8400,
      "Ġverliezen": 8401,
      "Ġleggen": 8402,
      "éŃĤ": 8403,
      "Ġbegrijpen": 8404,
      "Ġwoont": 8405,
      "Ġgevaarlijk": 8406,
      "Ter": 8407,
      "rig": 8408,
      "zijn": 8409,
      "Ġç»Ļ": 8410,
      "Ġä¸ºäºĨ": 8411,
      "Ġself": 8412,
      "Ġsilly": 8413,
      "oria": 8414,
      "Ġpack": 8415,
      "ä¸įä¸Ĭ": 8416,
      "ĠDavid": 8417,
      "opdracht": 8418,
      "åĵĩ": 8419,
      "éĢı": 8420,
      "éĺ¶": 8421,
      "çº·": 8422,
      "ocrat": 8423,
      "ission": 8424,
      "Ġvertrekken": 8425,
      "åŁŁ": 8426,
      "Ġallebei": 8427,
      "ä¸Ģå®ļä¼ļ": 8428,
      "medi": 8429,
      "Ġofficer": 8430,
      "Ġbottom": 8431,
      "gu": 8432,
      "omba": 8433,
      "roll": 8434,
      "Ġstik": 8435,
      "ĠMom": 8436,
      "ĠBy": 8437,
      "éĹŃ": 8438,
      "Ġprop": 8439,
      "Ġbrood": 8440,
      "å¾Īæľī": 8441,
      "Ġontsn": 8442,
      "ä¸»äºº": 8443,
      "efore": 8444,
      "Ġbrown": 8445,
      "çĮľ": 8446,
      "éªĤ": 8447,
      "Ġonderzoekers": 8448,
      "ĠFlor": 8449,
      "Ġprachtig": 8450,
      "Ġcurrent": 8451,
      "æ£®æŀĹ": 8452,
      "Ġverspre": 8453,
      "Ġcoffee": 8454,
      "col": 8455,
      "sil": 8456,
      "Ġtall": 8457,
      "Ġsep": 8458,
      "anda": 8459,
      "aardig": 8460,
      "è¿¹": 8461,
      "Ġrap": 8462,
      "Ġraken": 8463,
      "ĠNow": 8464,
      "Ġspell": 8465,
      "Ġshit": 8466,
      "schrift": 8467,
      "çĽĽ": 8468,
      "æ±ł": 8469,
      "Ġvoelen": 8470,
      "Ġverlaten": 8471,
      "boden": 8472,
      "Ġattract": 8473,
      "Ġprobeert": 8474,
      "Ġdikke": 8475,
      "ĠParty": 8476,
      "Zelfs": 8477,
      "fin": 8478,
      "lad": 8479,
      "ĠÉĻ": 8480,
      "Ġdut": 8481,
      "Ġdecl": 8482,
      "aly": 8483,
      "Ġcapt": 8484,
      "ĠAct": 8485,
      "ĠWer": 8486,
      "å·¨": 8487,
      "èµ·äºĨ": 8488,
      "Ġgenet": 8489,
      "Ġgevallen": 8490,
      "éĶģ": 8491,
      "çģŃ": 8492,
      "Ġfinally": 8493,
      "ä¿Ŀè¯ģ": 8494,
      "æĲŃ": 8495,
      "Ġswim": 8496,
      "Ġlargest": 8497,
      "åŃĺåľ¨": 8498,
      "Ġvogels": 8499,
      "Ġlaughs": 8500,
      "Ġåģļ": 8501,
      ".)": 8502,
      "bro": 8503,
      "ĠçľŁ": 8504,
      "ĠåĲİæĿ¥": 8505,
      "Ġswe": 8506,
      "etch": 8507,
      "çļĦéĹ®é¢ĺ": 8508,
      "Ġfut": 8509,
      "Ġisland": 8510,
      "Ġmem": 8511,
      "ĠAunt": 8512,
      "opp": 8513,
      "ĠæĪĳåľ¨": 8514,
      "Ġmoon": 8515,
      "Ġate": 8516,
      "Ġwaarmee": 8517,
      "éģĵçĲĨ": 8518,
      "Ġ31": 8519,
      "éķ¿å¾Ĺ": 8520,
      "Thanks": 8521,
      "Ġparts": 8522,
      "Ġvijand": 8523,
      "ĠSpanje": 8524,
      "Ġgisteren": 8525,
      "Pas": 8526,
      "ĠĊ": 8527,
      "Ġtuin": 8528,
      "orgt": 8529,
      "Ġgate": 8530,
      "itive": 8531,
      "çļĦæķħäºĭ": 8532,
      "Ġfamous": 8533,
      "ashed": 8534,
      "æĪĳæĿ¥": 8535,
      "ä½łæĥ³": 8536,
      "Ġstel": 8537,
      "Ġteeth": 8538,
      "ellig": 8539,
      "ĠPark": 8540,
      "ĠRo": 8541,
      "riage": 8542,
      "æ³ª": 8543,
      "Ġcla": 8544,
      "ekst": 8545,
      "æīĵå¼Ģ": 8546,
      "Ġsneeuw": 8547,
      "Ġfeat": 8548,
      "Ġremark": 8549,
      "Ġinflu": 8550,
      "åıįåºĶ": 8551,
      "Onder": 8552,
      "Ġattention": 8553,
      "Ġå½ĵæĹ¶": 8554,
      "Ġgesproken": 8555,
      "Ġbirds": 8556,
      "Am": 8557,
      "]!": 8558,
      "hij": 8559,
      "Ġéĥ½æĺ¯": 8560,
      "Ġwide": 8561,
      "Ġli": 8562,
      "alph": 8563,
      "Ġcard": 8564,
      "ampl": 8565,
      "genda": 8566,
      "Ġvoorbeelden": 8567,
      "ĠCarl": 8568,
      "åįı": 8569,
      "Ġwaard": 8570,
      "Ġbeteken": 8571,
      "åĲĥçļĦ": 8572,
      "Ġsmell": 8573,
      "å¢Ļ": 8574,
      "åĲĦç§į": 8575,
      "Ġvarious": 8576,
      "Ġbottle": 8577,
      "Ġweekend": 8578,
      "ĠMackworth": 8579,
      "Ġwa": 8580,
      "Ġnauw": 8581,
      "Ġinsect": 8582,
      "Ġcrow": 8583,
      "ä½łåİ»": 8584,
      "ĠåĶ": 8585,
      "ĠGeneral": 8586,
      "Ġleaves": 8587,
      "ĠFel": 8588,
      "elijkheid": 8589,
      "ç§»": 8590,
      "éĿ¢å¯¹": 8591,
      "æĻ¨": 8592,
      "åħĪèµ°äºĨ": 8593,
      "èģļ": 8594,
      "Ġcompan": 8595,
      "ĠUnion": 8596,
      "ä½ıäºĨ": 8597,
      "Ġä¸Ģå®ļ": 8598,
      "ologische": 8599,
      "Ġgeschreven": 8600,
      "åĮ»çĶŁ": 8601,
      "Ġsubject": 8602,
      "ç»Ħç»ĩ": 8603,
      "Ġcontinued": 8604,
      "Ook": 8605,
      "æ¾": 8606,
      "Ġtong": 8607,
      "arter": 8608,
      "Ġhistory": 8609,
      "rein": 8610,
      "igt": 8611,
      "igar": 8612,
      "Ġalgen": 8613,
      "oeie": 8614,
      "kennen": 8615,
      "ĠNu": 8616,
      "rupt": 8617,
      "çĪĨ": 8618,
      "çĤ®": 8619,
      "ĠéĤ£å°±": 8620,
      "åĽŀå¤´": 8621,
      "èĻ«": 8622,
      "Ġturns": 8623,
      "å¤ĦçĲĨ": 8624,
      "Ġgrew": 8625,
      "å«Ĥ": 8626,
      "Ġdefin": 8627,
      "Ġbevolking": 8628,
      "ĠMichael": 8629,
      "ĠHenry": 8630,
      "èĪĴæľį": 8631,
      "Ġziekenhuis": 8632,
      "Sn": 8633,
      "UR": 8634,
      "Ġdev": 8635,
      "Ġpsych": 8636,
      "Ġeh": 8637,
      "çļĦæĪĳ": 8638,
      "reep": 8639,
      "æĺ¯åĲĹ": 8640,
      "ä¸įåľ¨": 8641,
      "ä¸Ģä½į": 8642,
      "ĠSat": 8643,
      "Ġlevel": 8644,
      "æĹ¶ä»£": 8645,
      "aining": 8646,
      "schuw": 8647,
      "Ġwaarvan": 8648,
      "å¹´äºĨ": 8649,
      "è¿ĽäºĨ": 8650,
      "Ġvertrouwen": 8651,
      "æįŁ": 8652,
      "orspr": 8653,
      "Ġmatch": 8654,
      "Ġaccount": 8655,
      "èľľ": 8656,
      "Ġgegevens": 8657,
      "Bob": 8658,
      "Haal": 8659,
      "Uw": 8660,
      "uge": 8661,
      "Ġåĳ¨": 8662,
      "Ġpaint": 8663,
      "lement": 8664,
      "chtend": 8665,
      "èµļ": 8666,
      "ĠLa": 8667,
      "ĠLou": 8668,
      "Ġsave": 8669,
      "Ġroept": 8670,
      "ĠUt": 8671,
      "ç¬¨": 8672,
      "Ġtruth": 8673,
      "afbeelding": 8674,
      "å¹²åĺĽ": 8675,
      "èİī": 8676,
      "ç¼ĺ": 8677,
      "Ġindivid": 8678,
      "Ġtraining": 8679,
      "Ġslechte": 8680,
      "æ¯įäº²": 8681,
      "å¡Ķ": 8682,
      "ï¿½ï¿½ï¿½ï¿½": 8683,
      "Siden": 8684,
      "bie": 8685,
      "jaar": 8686,
      "pardon": 8687,
      "ĠæĹł": 8688,
      "Ġmor": 8689,
      "Ġbomen": 8690,
      "isen": 8691,
      "Ġhorm": 8692,
      "Ġkoud": 8693,
      "æĪ´": 8694,
      "Ġbeoord": 8695,
      "å¼±": 8696,
      "å¯¹ä¸įèµ·": 8697,
      "åĲĮæĦı": 8698,
      "éĩįæĸ°": 8699,
      "Ġ80": 8700,
      "Ġgeschiedenis": 8701,
      "Ġgroeien": 8702,
      "Ġvogel": 8703,
      "Sidenote": 8704,
      "Sam": 8705,
      "yer": 8706,
      "Ġä¼ļ": 8707,
      "ancy": 8708,
      "Ġdru": 8709,
      "Ġninet": 8710,
      "äº¡": 8711,
      "äºı": 8712,
      "Ġziel": 8713,
      "iders": 8714,
      "Ġram": 8715,
      "æ²¡æĥ³åĪ°": 8716,
      "Ġnecess": 8717,
      "Ġonderdeel": 8718,
      "æīĵç®Ĺ": 8719,
      "æ±½": 8720,
      "åĺī": 8721,
      "Ġscared": 8722,
      "Ġfeed": 8723,
      "ĠÂ©": 8724,
      "boom": 8725,
      "Ġfilmp": 8726,
      "Ġouder": 8727,
      "Ġtransport": 8728,
      "ournal": 8729,
      "Ġrepresent": 8730,
      "Hi": 8731,
      "field": 8732,
      "geld": 8733,
      "Ġå¤©": 8734,
      "Ġah": 8735,
      "Ġiss": 8736,
      "æĪĳæľī": 8737,
      "lever": 8738,
      "Ġgeest": 8739,
      "ĠgeÃ¯n": 8740,
      "Ġroof": 8741,
      "Ġerv": 8742,
      "ĠCub": 8743,
      "ĠJwww": 8744,
      "Ġshar": 8745,
      "å¿ĥçļĦ": 8746,
      "å®ŀçİ°": 8747,
      "Ġvertelt": 8748,
      "èĥĨ": 8749,
      "Ġverliefd": 8750,
      "åıĺå¾Ĺ": 8751,
      "Ġmonkey": 8752,
      "ELS": 8753,
      "Ġvissen": 8754,
      "Ġpictures": 8755,
      "Ġcommunic": 8756,
      "Ġfifty": 8757,
      "iat": 8758,
      "lor": 8759,
      "Ġkerst": 8760,
      "ä¸įå¤ª": 8761,
      "ĠAz": 8762,
      "Ġspoke": 8763,
      "åĨł": 8764,
      "itein": 8765,
      "Ġbelieved": 8766,
      "Ġ2003": 8767,
      "Ġvlak": 8768,
      "ELL": 8769,
      "Ġcray": 8770,
      "ĠVolgens": 8771,
      "Pardon": 8772,
      "Sc": 8773,
      "Ġjun": 8774,
      "ä»ĩ": 8775,
      "roat": 8776,
      "ä¸įæķ¢": 8777,
      "Ġstore": 8778,
      "Ġdoc": 8779,
      "ruck": 8780,
      "pens": 8781,
      "å¯¹åĲ§": 8782,
      "åī©": 8783,
      "Ġflowers": 8784,
      "ĠHowever": 8785,
      "Ġwheel": 8786,
      "Ken": 8787,
      "ault": 8788,
      "kracht": 8789,
      "nes": 8790,
      "Ġsummer": 8791,
      "Ġhate": 8792,
      "Ġhealth": 8793,
      "Ġlijst": 8794,
      "Ġeast": 8795,
      "æĪĳä¸Ģ": 8796,
      "aded": 8797,
      "uts": 8798,
      "ĠTot": 8799,
      "ĠTim": 8800,
      "ĠTony": 8801,
      "acy": 8802,
      "åŃĶ": 8803,
      "åľ¨è¿Ļä¸ª": 8804,
      "æī«": 8805,
      "ĠEll": 8806,
      "ĠEast": 8807,
      "æĭ¥": 8808,
      "Ġprinc": 8809,
      "Ġanybody": 8810,
      "æīĢè°ĵ": 8811,
      "éĶħ": 8812,
      "è¿ĽæĿ¥": 8813,
      "å¨ĥ": 8814,
      "Ġassist": 8815,
      "Ġå½ĵçĦ¶": 8816,
      "Ġenkel": 8817,
      "Geweld": 8818,
      "è¾Ľèĭ¦": 8819,
      "Jon": 8820,
      "Noem": 8821,
      "XX": 8822,
      "eat": 8823,
      "gent": 8824,
      "west": 8825,
      "erkt": 8826,
      "isk": 8827,
      "oring": 8828,
      "aders": 8829,
      "urr": 8830,
      "Ġvervolgens": 8831,
      "Ġopp": 8832,
      "Ġern": 8833,
      "acing": 8834,
      "Ġoma": 8835,
      "wegen": 8836,
      "erend": 8837,
      "å®ŀè¯Ŀ": 8838,
      "izoen": 8839,
      "ç²®": 8840,
      "çĽ®åīį": 8841,
      "ĠEngeland": 8842,
      "Ġ1990": 8843,
      "ĠSec": 8844,
      "æľªæĿ¥": 8845,
      "Ġprogramma": 8846,
      "åį±éĻ©": 8847,
      "IM": 8848,
      "kte": 8849,
      "kort": 8850,
      "tell": 8851,
      "Ġvac": 8852,
      "Ġveld": 8853,
      "Ġhide": 8854,
      "Ġinwoners": 8855,
      "ston": 8856,
      "Ġvanwege": 8857,
      "Ġitself": 8858,
      "oegen": 8859,
      "ĠæĪĳè¿ĺ": 8860,
      "Ġmole": 8861,
      "éĤ£æĺ¯": 8862,
      "åĩ¶": 8863,
      "å¯¹æĸ¹": 8864,
      "å¥¹ä»¬": 8865,
      "uitse": 8866,
      "éĿ¢çļĦ": 8867,
      "å¤«äºº": 8868,
      "halte": 8869,
      "å¾®ä¿¡": 8870,
      "æĢĢçĸĳ": 8871,
      "Ġaanwezig": 8872,
      "bra": 8873,
      "tra": 8874,
      "erve": 8875,
      "eloos": 8876,
      "Ġcy": 8877,
      "Ġjum": 8878,
      "æĪĳçŁ¥éģĵ": 8879,
      "ijnt": 8880,
      "ĠHel": 8881,
      "äººéĥ½": 8882,
      "éĤ£éĩĮ": 8883,
      "ĠFin": 8884,
      "æĬĬè¿Ļä¸ª": 8885,
      "åħ¬åŃĲ": 8886,
      "Ġhelft": 8887,
      "Ġserious": 8888,
      "æ»´": 8889,
      "æ»ļ": 8890,
      "please": 8891,
      "Ġskin": 8892,
      "ĠFrankrijk": 8893,
      "Ġwalking": 8894,
      "Ġsongs": 8895,
      "Ġnature": 8896,
      "ĠBlack": 8897,
      "ĠKingdom": 8898,
      "è®Ńç»ĥ": 8899,
      "Papa": 8900,
      "Soms": 8901,
      "[.": 8902,
      "ply": 8903,
      "Ġkregen": 8904,
      "åŃ¤": 8905,
      "aped": 8906,
      "Ġmocht": 8907,
      "è¦ģä¸į": 8908,
      "Ġsevent": 8909,
      "å¾Īå¿«": 8910,
      "Ġsnake": 8911,
      "Ġsneller": 8912,
      "çŃīçŃī": 8913,
      "ensus": 8914,
      "èİ±": 8915,
      "Ġdogs": 8916,
      "Ġsoldiers": 8917,
      "ç¤¼çī©": 8918,
      "Ġresultaten": 8919,
      "UNK": 8920,
      "ĠCharles": 8921,
      "OW": 8922,
      "Ġought": 8923,
      "elve": 8924,
      "Ġcrit": 8925,
      "ros": 8926,
      "ental": 8927,
      "anties": 8928,
      "ruim": 8929,
      "Ġdonker": 8930,
      "Ġcho": 8931,
      "è´¦": 8932,
      "Ġbetre": 8933,
      "werken": 8934,
      "Ġpercent": 8935,
      "ootzak": 8936,
      "ä¸»ä¹ī": 8937,
      "èĭ¹": 8938,
      "æŁĵ": 8939,
      "æİ¥çĿĢ": 8940,
      "åĲĪä½ľ": 8941,
      "Ġåĩº": 8942,
      "Ġarrest": 8943,
      "Ġviol": 8944,
      "ispered": 8945,
      "Ġpolitician": 8946,
      "Drie": 8947,
      "Â·": 8948,
      "Ġpink": 8949,
      "Ġpale": 8950,
      "å¤®": 8951,
      "ĠDem": 8952,
      "Ġrepe": 8953,
      "Ġä½łæĥ³": 8954,
      "åĬĿ": 8955,
      "éĹ²": 8956,
      "æĸ¹åĲĳ": 8957,
      "Ġvertelde": 8958,
      "ç»ĵæĿŁ": 8959,
      "Ġhoogte": 8960,
      "æ¹¾": 8961,
      "ä¼¼çļĦ": 8962,
      "åĿļæĮģ": 8963,
      "Ġcircum": 8964,
      "Ġmunicip": 8965,
      "Ġsepar": 8966,
      "wise": 8967,
      "ijen": 8968,
      "Ġtoilet": 8969,
      "ä½łèĩªå·±": 8970,
      "ĠIT": 8971,
      "Ġraad": 8972,
      "iced": 8973,
      "å¥ĭ": 8974,
      "ĠBest": 8975,
      "Ġrecent": 8976,
      "ĠJo": 8977,
      "éģ¿": 8978,
      "laas": 8979,
      "ç³Ĭ": 8980,
      "æİ¥ä¸ĭæĿ¥": 8981,
      "Ġguard": 8982,
      "Ġregels": 8983,
      "çĸĹ": 8984,
      "Ġvoelde": 8985,
      "Ġcircle": 8986,
      "Ġsimilar": 8987,
      "Ġsituation": 8988,
      "Ġoriginal": 8989,
      "Ġvreemd": 8990,
      "Ġovereen": 8991,
      "Like": 8992,
      "SE": 8993,
      "zuur": 8994,
      "Ġ%": 8995,
      "Ġgift": 8996,
      "Ġvele": 8997,
      "è¿ª": 8998,
      "äºĨåĳ¢": 8999,
      "ä¸įçĿĢ": 9000,
      "Ġstone": 9001,
      "Ġwhom": 9002,
      "ĠMun": 9003,
      "Ġalstublieft": 9004,
      "æī¬": 9005,
      "Ġleader": 9006,
      "ĠNPO": 9007,
      "ĠRel": 9008,
      "Ġblauw": 9009,
      "Ġdance": 9010,
      "çĤ¸": 9011,
      "çŁ¥è¯Ĩ": 9012,
      "Ġslide": 9013,
      "Ġdragen": 9014,
      "çº³": 9015,
      "rouwd": 9016,
      "Ġvres": 9017,
      "athan": 9018,
      "Ġmaxim": 9019,
      "Ġnummers": 9020,
      "Ġbread": 9021,
      "Ġprobeerde": 9022,
      "ĠAllison": 9023,
      "åĮħæĭ¬": 9024,
      "Schiet": 9025,
      "åħĶåŃĲ": 9026,
      "ĠAngola": 9027,
      "éĢŁåº¦": 9028,
      "å¦»åŃĲ": 9029,
      "Ġeggs": 9030,
      "èĭ¹æŀľ": 9031,
      "Iemand": 9032,
      "Qu": 9033,
      "UT": 9034,
      "cie": 9035,
      "Ġbood": 9036,
      "arken": 9037,
      "Ġveget": 9038,
      "Ġinstr": 9039,
      "amba": 9040,
      "ution": 9041,
      "ĠMur": 9042,
      "irgin": 9043,
      "ä»ĸè¯´": 9044,
      "apens": 9045,
      "ceed": 9046,
      "ĠON": 9047,
      "auwe": 9048,
      "keken": 9049,
      "Ġbright": 9050,
      "ç»ıåİĨ": 9051,
      "èģª": 9052,
      "æĪĺäºī": 9053,
      "Ġpersonen": 9054,
      "Ġliep": 9055,
      "ĠåĵİåĳĢ": 9056,
      "çĶ±äºİ": 9057,
      "Ġinterested": 9058,
      "èĴĻ": 9059,
      "Ġiron": 9060,
      "æİ§åĪ¶": 9061,
      "Ġstikstof": 9062,
      ",-": 9063,
      "Cos": 9064,
      "CAT": 9065,
      "ege": 9066,
      "juist": 9067,
      "yond": 9068,
      "Ġäººå®¶": 9069,
      "onken": 9070,
      "alo": 9071,
      "Ġcivil": 9072,
      "Ġrare": 9073,
      "icans": 9074,
      "ĠSir": 9075,
      "ĠToch": 9076,
      "ĠCaptain": 9077,
      "ĠWell": 9078,
      "Ġspullen": 9079,
      "å°ıåŃĲ": 9080,
      "Ġtwelve": 9081,
      "Ġdroog": 9082,
      "Ġä»ĸè¯´": 9083,
      "elsel": 9084,
      "Ġminim": 9085,
      "Ġinteress": 9086,
      "Ġcheese": 9087,
      "ç¡®å®ļ": 9088,
      "Ġcounty": 9089,
      "Ġiedere": 9090,
      "Ġpopulatie": 9091,
      "åķĨéĩı": 9092,
      "Ġmeeting": 9093,
      "è¸ı": 9094,
      "Ġgevolgen": 9095,
      "Ġbouwen": 9096,
      "Ġmountain": 9097,
      "bren": 9098,
      "counter": 9099,
      "rick": 9100,
      "Ġmention": 9101,
      "edy": 9102,
      "Ġpo": 9103,
      "Ġenzy": 9104,
      "Ġtemp": 9105,
      "three": 9106,
      "ĠæĪĳçľĭ": 9107,
      "åİħ": 9108,
      "Ġlees": 9109,
      "æĥ³æ³ķ": 9110,
      "è¾ŀ": 9111,
      "itty": 9112,
      "osten": 9113,
      "netjes": 9114,
      "åĵĪåĵĪåĵĪ": 9115,
      "Ġbasket": 9116,
      "æĹ¥æľ¬äºº": 9117,
      "Ġteacher": 9118,
      "Ġannoun": 9119,
      "ĠBrazil": 9120,
      "æ¤įçī©": 9121,
      "Gen": 9122,
      "licht": 9123,
      "loos": 9124,
      "ucc": 9125,
      "vat": 9126,
      "zingen": 9127,
      "ĠæĹ¢çĦ¶": 9128,
      "Ġaft": 9129,
      "Ġsense": 9130,
      "Ġmult": 9131,
      "etten": 9132,
      "Ġhey": 9133,
      "Ġdeg": 9134,
      "Ġzorgt": 9135,
      "Ġlijken": 9136,
      "ĠMary": 9137,
      "Ġreag": 9138,
      "ĠWE": 9139,
      "uster": 9140,
      "åĩī": 9141,
      "Ġherinn": 9142,
      "è°·": 9143,
      "è´´": 9144,
      "Ġeleph": 9145,
      "éļĶ": 9146,
      "Ġaction": 9147,
      "Ġkleuren": 9148,
      "Ġåĵ¦": 9149,
      "Ġserved": 9150,
      "ĠYouT": 9151,
      "æķĻèĤ²": 9152,
      "Ġcode": 9153,
      "è®¸å¤ļ": 9154,
      "èħ¾": 9155,
      "ç¢Ĺ": 9156,
      "Ġgroups": 9157,
      "Ġhersenen": 9158,
      "ĠJapanese": 9159,
      "Ġlikes": 9160,
      "ternational": 9161,
      "ĠEuropese": 9162,
      "Ġmilitary": 9163,
      "hood": 9164,
      "vall": 9165,
      "Ġä¹Łæĺ¯": 9166,
      "inct": 9167,
      "Ġduizen": 9168,
      "Ġduurt": 9169,
      "Ġvari": 9170,
      "çļĦå¥½": 9171,
      "ĠSal": 9172,
      "gend": 9173,
      "ĠKijk": 9174,
      "å¯¹ä¸įå¯¹": 9175,
      "Ġsuit": 9176,
      "æĪĳä»¬å°±": 9177,
      "Ġonderstaande": 9178,
      "æĤĶ": 9179,
      "Ġbedoeld": 9180,
      "æ¶²": 9181,
      "åĽĽåįģ": 9182,
      "ibly": 9183,
      "Ġfilms": 9184,
      "auto": 9185,
      "Ġstudio": 9186,
      "Ġgebeurde": 9187,
      "Mrs": 9188,
      "Ġrocks": 9189,
      "Ġadvoc": 9190,
      "Ġaandoen": 9191,
      "Ġkapot": 9192,
      "Ġjoined": 9193,
      "gelegd": 9194,
      "Ġpuzzle": 9195,
      "take": 9196,
      "wait": 9197,
      "Ãł": 9198,
      "Ġaud": 9199,
      "ä»į": 9200,
      "leur": 9201,
      "Ġstij": 9202,
      "ĠMijn": 9203,
      "ĠæĪĳå°±æĺ¯": 9204,
      "gehalte": 9205,
      "ĠRy": 9206,
      "ĠLuc": 9207,
      "åĦ¿åķĬ": 9208,
      "è·ŁçĿĢ": 9209,
      "ĠStreet": 9210,
      "åģļä»Ģä¹Ī": 9211,
      "ç¬¬ä¸ī": 9212,
      "åĽĽä¸ª": 9213,
      "gebracht": 9214,
      "å©ļå§»": 9215,
      "azine": 9216,
      "Ġluisteren": 9217,
      "èĢ³æľµ": 9218,
      "Ġbijzonder": 9219,
      "Ġhuwelijk": 9220,
      "Give": 9221,
      "Jack": 9222,
      "Tr": 9223,
      "Two": 9224,
      "VER": 9225,
      "tv": 9226,
      "ville": 9227,
      "Ġberg": 9228,
      "outen": 9229,
      "elicit": 9230,
      "Ġlock": 9231,
      "asc": 9232,
      "asons": 9233,
      "lem": 9234,
      "ä¸įçŁ¥": 9235,
      "Ġstories": 9236,
      "å®¡": 9237,
      "ä¼°": 9238,
      "å¿Ĩ": 9239,
      "Ġshirt": 9240,
      "å¦ĸ": 9241,
      "éĢĲ": 9242,
      "åģļäºĨ": 9243,
      "å¤ªå¤ª": 9244,
      "æīįæĺ¯": 9245,
      "inderen": 9246,
      "Ġshowed": 9247,
      "æķ°æį®": 9248,
      "é¡¹çĽ®": 9249,
      "Ġinge": 9250,
      "Ġproducten": 9251,
      "æĮīçħ§": 9252,
      "Ġsurprise": 9253,
      "60": 9254,
      "80": 9255,
      "bet": 9256,
      "dere": 9257,
      "moet": 9258,
      "Ġbase": 9259,
      "Ġzingen": 9260,
      "æĺ¯çļĦ": 9261,
      "ĠMama": 9262,
      "ĠTekst": 9263,
      "ĠCong": 9264,
      "Ġmodel": 9265,
      "ä¼¸": 9266,
      "aans": 9267,
      "ĠJane": 9268,
      "rib": 9269,
      "å½»": 9270,
      "Ġgrad": 9271,
      "Ġtotaal": 9272,
      "åĲĥäºĨ": 9273,
      "æĤ¨çļĦ": 9274,
      "Ġproblems": 9275,
      "åĨħå®¹": 9276,
      "Ġdiam": 9277,
      "Ġleerling": 9278,
      "Ġgarage": 9279,
      "åİĭåĬĽ": 9280,
      "Ġpuppet": 9281,
      "ĠYouTube": 9282,
      "hy": 9283,
      "ani": 9284,
      "ata": 9285,
      "ĠDor": 9286,
      "ights": 9287,
      "ĠGood": 9288,
      "ĠGerm": 9289,
      "ĠFirst": 9290,
      "Ġafstand": 9291,
      "aine": 9292,
      "æĭĸ": 9293,
      "Ġ35": 9294,
      "æĥħæĦŁ": 9295,
      "èµ°åĲ§": 9296,
      "Ġpeace": 9297,
      "Ġneeded": 9298,
      "Ġbloedvaten": 9299,
      "Ġåĵ¥": 9300,
      "Ġshows": 9301,
      "åĪ©çĶ¨": 9302,
      "Ġä½Ĩæĺ¯æĪĳ": 9303,
      "é¼»": 9304,
      "ĠCommons": 9305,
      "Meneer": 9306,
      "Miss": 9307,
      "mother": 9308,
      "Ġåħ¨": 9309,
      "ĠåıįæŃ£": 9310,
      "aris": 9311,
      "Ġthanks": 9312,
      "stig": 9313,
      "Ġonbe": 9314,
      "ĠST": 9315,
      "ĠME": 9316,
      "ĠBo": 9317,
      "çĶĺ": 9318,
      "éĤ£æĪĳ": 9319,
      "æĢ¨": 9320,
      "Ġplaced": 9321,
      "ĠLee": 9322,
      "æĹ¶æľŁ": 9323,
      "rijp": 9324,
      "çĶŁæĦı": 9325,
      "Ġslaan": 9326,
      "Ġarbe": 9327,
      "é¢Ŀ": 9328,
      "Ġclosed": 9329,
      "ously": 9330,
      "ç®Ń": 9331,
      "å¥³çļĦ": 9332,
      "åĪĨæīĭ": 9333,
      "è¿Ļä¹Īè¯´": 9334,
      "Ġseconden": 9335,
      "å£ģ": 9336,
      "Ġremov": 9337,
      "Ġbloedcellen": 9338,
      "çĸ¯": 9339,
      "å»¶": 9340,
      "æľįåĬ¡": 9341,
      "Ġklasgenoot": 9342,
      "ograf": 9343,
      "ĠEuropean": 9344,
      "Ġrichting": 9345,
      "Ġmodern": 9346,
      "ĠRobert": 9347,
      "silence": 9348,
      "Best": 9349,
      "ais": 9350,
      "bar": 9351,
      "Ġtal": 9352,
      "Ġwen": 9353,
      "Ġlukt": 9354,
      "Ġears": 9355,
      "Ġcream": 9356,
      "å°¤": 9357,
      "ĠTex": 9358,
      "ä»ĸåľ¨": 9359,
      "åİļ": 9360,
      "å¸½": 9361,
      "ä¸ĭåĪĹ": 9362,
      "Ġnogal": 9363,
      "è¾Ĩ": 9364,
      "stein": 9365,
      "Ġoffer": 9366,
      "Ġtotal": 9367,
      "Ġways": 9368,
      "ä¸»ä»»": 9369,
      "Ġopening": 9370,
      "Ġempl": 9371,
      "âĳ¢": 9372,
      "matig": 9373,
      "Ġespecially": 9374,
      "Ġconsidered": 9375,
      "Ġdestroy": 9376,
      "Ġcorner": 9377,
      "Ġsleutel": 9378,
      "Haar": 9379,
      "THE": 9380,
      "Vind": 9381,
      "cra": 9382,
      "riet": 9383,
      "vragen": 9384,
      "Ġsoul": 9385,
      "Ġbud": 9386,
      "Ġvro": 9387,
      "Ġnation": 9388,
      "Ġlower": 9389,
      "rey": 9390,
      "Ġfool": 9391,
      "rok": 9392,
      "ä¸įæĸŃ": 9393,
      "Ġgoat": 9394,
      "Ġä½łä¹Ł": 9395,
      "Ġspend": 9396,
      "ĠRed": 9397,
      "è·Ŀ": 9398,
      "cheiden": 9399,
      "çĶŁçī©": 9400,
      "ĠState": 9401,
      "ureau": 9402,
      "çĭł": 9403,
      "Ġbigger": 9404,
      "åĲĪéĢĤ": 9405,
      "Ġasking": 9406,
      "Ġverkeerd": 9407,
      "ç¨į": 9408,
      "ĠpatiÃ«nt": 9409,
      "Ġbereiken": 9410,
      "âĳ¡": 9411,
      "Ġliked": 9412,
      "Ġonderzoeken": 9413,
      "Ġhorses": 9414,
      "ka": 9415,
      "åļ": 9416,
      "ĠçĶ¨": 9417,
      "Ġhill": 9418,
      "Ġcru": 9419,
      "omb": 9420,
      "ä¹ĸ": 9421,
      "ĠDad": 9422,
      "ĠDuitse": 9423,
      "oef": 9424,
      "Ġformed": 9425,
      "ops": 9426,
      "iens": 9427,
      "Ġmyster": 9428,
      "å¯¹åĳĢ": 9429,
      "Ġrose": 9430,
      "Ġcloud": 9431,
      "æ´²": 9432,
      "Ġä¸įç®¡": 9433,
      "Ġ500": 9434,
      "Ġfeit": 9435,
      "å¥ĩæĢª": 9436,
      "Ġfighting": 9437,
      "gesloten": 9438,
      "Ġhigher": 9439,
      "Ġpretend": 9440,
      "ĠWereld": 9441,
      "Ed": 9442,
      "Malley": 9443,
      "Sir": 9444,
      "ras": 9445,
      "yle": 9446,
      "ç¦ģ": 9447,
      "Ġbill": 9448,
      "orpen": 9449,
      "åĲĲ": 9450,
      "Ġalarm": 9451,
      "äººåĳĺ": 9452,
      "å¾Ĺå¾Ī": 9453,
      "Ġchurch": 9454,
      "å¯¹ä½ł": 9455,
      "Ġ32": 9456,
      "å¼ĢäºĨ": 9457,
      "è½½": 9458,
      "è¶Ł": 9459,
      "spel": 9460,
      "æįķ": 9461,
      "Ġdisappe": 9462,
      "Ġmonster": 9463,
      "Ġartikel": 9464,
      "è¯ģæĺİ": 9465,
      "æľīä¸Ģå¤©": 9466,
      "Ġmissing": 9467,
      "others": 9468,
      "âĳł": 9469,
      "Ġfavorite": 9470,
      "Ġhuilen": 9471,
      "ĠABBA": 9472,
      "Heer": 9473,
      "lopen": 9474,
      "vle": 9475,
      "anje": 9476,
      "atic": 9477,
      "onse": 9478,
      "Ġstream": 9479,
      "ĠMel": 9480,
      "ĠMot": 9481,
      "ĠHA": 9482,
      "ĠBE": 9483,
      "ç»ª": 9484,
      "è¯´ä¸į": 9485,
      "emming": 9486,
      "ĠPet": 9487,
      "å½¼": 9488,
      "æ³¥": 9489,
      "èĤ¥": 9490,
      "Ġgekozen": 9491,
      "çĻ¾å§ĵ": 9492,
      "æ¼«": 9493,
      "Ġproduced": 9494,
      "ughty": 9495,
      "Ġfuture": 9496,
      "Geweldig": 9497,
      "Nin": 9498,
      "jar": 9499,
      "lop": 9500,
      "uderen": 9501,
      "Ġij": 9502,
      "Ġä¸Ń": 9503,
      "Ġtap": 9504,
      "Ġdirty": 9505,
      "Ġwol": 9506,
      "Ġfle": 9507,
      "Ġfingers": 9508,
      "Ġjan": 9509,
      "oorde": 9510,
      "akers": 9511,
      "ĠMother": 9512,
      "gency": 9513,
      "ç»£": 9514,
      "éĹª": 9515,
      "Ġschieten": 9516,
      "åºĵ": 9517,
      "åĩºçļĦ": 9518,
      "çİ°åľº": 9519,
      "å¹´åīį": 9520,
      "Ġagreed": 9521,
      "Ġziens": 9522,
      "onsieur": 9523,
      "Ġverkopen": 9524,
      "Ġgehouden": 9525,
      "åĩºæĿ¥çļĦ": 9526,
      "Ã¨re": 9527,
      "watch": 9528,
      "Ġloved": 9529,
      "gemaakt": 9530,
      "Ġargument": 9531,
      "Ġdienst": 9532,
      "ĠåºĶ": 9533,
      "Toe": 9534,
      "kings": 9535,
      "meer": 9536,
      "Ġwid": 9537,
      "Ġearl": 9538,
      "Ġjud": 9539,
      "Ġstars": 9540,
      "ĠMat": 9541,
      "ĠMac": 9542,
      "ç»©": 9543,
      "è¯´æ³ķ": 9544,
      "ĠWelk": 9545,
      "èµı": 9546,
      "æ¯«": 9547,
      "Ġconcentratie": 9548,
      "Ġelder": 9549,
      "éĺ»": 9550,
      "ouwd": 9551,
      "Goedem": 9552,
      "åĶ¯": 9553,
      "çıį": 9554,
      "Ġgroepen": 9555,
      "Ġkantoor": 9556,
      "ography": 9557,
      "Ġvorige": 9558,
      "Ġlachen": 9559,
      "Ġallerlei": 9560,
      "Had": 9561,
      "Kids": 9562,
      "azen": 9563,
      "Ġwarn": 9564,
      "cher": 9565,
      "Ġinsp": 9566,
      "reeft": 9567,
      "igs": 9568,
      "oorlog": 9569,
      "Ġoppos": 9570,
      "ĠæĪĳéĥ½": 9571,
      "erslag": 9572,
      "umn": 9573,
      "Ġä½łçİ°åľ¨": 9574,
      "Ġaanp": 9575,
      "å°ıçļĦ": 9576,
      "ĠKar": 9577,
      "ogel": 9578,
[...]
