{
  "version": "1.0",
  "truncation": null,
  "padding": null,
  "added_tokens": [
    {
      "id": 0,
      "content": "<unk>",
      "single_word": false,
      "lstrip": false,
      "rstrip": false,
      "normalized": false,
      "special": true
    },
    {
      "id": 1,
      "content": "<s>",
      "single_word": false,
      "lstrip": false,
      "rstrip": false,
      "normalized": false,
      "special": true
    },
    {
      "id": 2,
      "content": "</s>",
      "single_word": false,
      "lstrip": false,
      "rstrip": false,
      "normalized": false,
      "special": true
    },
    {
      "id": 3,
      "content": "<pad>",
      "single_word": false,
      "lstrip": false,
      "rstrip": false,
      "normalized": false,
      "special": true
    },
    {
      "id": 4,
      "content": "<mask>",
      "single_word": false,
      "lstrip": false,
      "rstrip": false,
      "normalized": false,
      "special": true
    }
  ],
  "normalizer": null,
  "pre_tokenizer": {
    "type": "ByteLevel",
    "add_prefix_space": false,
    "trim_offsets": true,
    "use_regex": true
  },
  "post_processor": {
    "type": "ByteLevel",
    "add_prefix_space": true,
    "trim_offsets": false,
    "use_regex": true
  },
  "decoder": {
    "type": "ByteLevel",
    "add_prefix_space": true,
    "trim_offsets": true,
    "use_regex": true
  },
  "model": {
    "type": "BPE",
    "dropout": null,
    "unk_token": null,
    "continuing_subword_prefix": null,
    "end_of_word_suffix": null,
    "fuse_unk": false,
    "byte_fallback": false,
    "ignore_merges": false,
    "vocab": {
      "<unk>": 0,
      "<s>": 1,
      "</s>": 2,
      "<pad>": 3,
      "<mask>": 4,
      "!": 5,
      "\"": 6,
      "#": 7,
      "$": 8,
      "%": 9,
      "&": 10,
      "'": 11,
      "(": 12,
      ")": 13,
      "*": 14,
      "+": 15,
      ",": 16,
      "-": 17,
      ".": 18,
      "/": 19,
      "0": 20,
      "1": 21,
      "2": 22,
      "3": 23,
      "4": 24,
      "5": 25,
      "6": 26,
      "7": 27,
      "8": 28,
      "9": 29,
      ":": 30,
      ";": 31,
      "<": 32,
      "=": 33,
      ">": 34,
      "?": 35,
      "@": 36,
      "A": 37,
      "B": 38,
      "C": 39,
      "D": 40,
      "E": 41,
      "F": 42,
      "G": 43,
      "H": 44,
      "I": 45,
      "J": 46,
      "K": 47,
      "L": 48,
      "M": 49,
      "N": 50,
      "O": 51,
      "P": 52,
      "Q": 53,
      "R": 54,
      "S": 55,
      "T": 56,
      "U": 57,
      "V": 58,
      "W": 59,
      "X": 60,
      "Y": 61,
      "Z": 62,
      "[": 63,
      "\\": 64,
      "]": 65,
      "^": 66,
      "_": 67,
      "`": 68,
      "a": 69,
      "b": 70,
      "c": 71,
      "d": 72,
      "e": 73,
      "f": 74,
      "g": 75,
      "h": 76,
      "i": 77,
      "j": 78,
      "k": 79,
      "l": 80,
      "m": 81,
      "n": 82,
      "o": 83,
      "p": 84,
      "q": 85,
      "r": 86,
      "s": 87,
      "t": 88,
      "u": 89,
      "v": 90,
      "w": 91,
      "x": 92,
      "y": 93,
      "z": 94,
      "{": 95,
      "|": 96,
      "}": 97,
      "~": 98,
      "¡": 99,
      "¢": 100,
      "£": 101,
      "¤": 102,
      "¥": 103,
      "¦": 104,
      "§": 105,
      "¨": 106,
      "©": 107,
      "ª": 108,
      "«": 109,
      "¬": 110,
      "®": 111,
      "¯": 112,
      "°": 113,
      "±": 114,
      "²": 115,
      "³": 116,
      "´": 117,
      "µ": 118,
      "¶": 119,
      "·": 120,
      "¸": 121,
      "¹": 122,
      "º": 123,
      "»": 124,
      "¼": 125,
      "½": 126,
      "¾": 127,
      "¿": 128,
      "À": 129,
      "Á": 130,
      "Â": 131,
      "Ã": 132,
      "Ä": 133,
      "Å": 134,
      "Æ": 135,
      "Ç": 136,
      "È": 137,
      "É": 138,
      "Ê": 139,
      "Ë": 140,
      "Ì": 141,
      "Í": 142,
      "Î": 143,
      "Ï": 144,
      "Ð": 145,
      "Ñ": 146,
      "Ò": 147,
      "Ó": 148,
      "Ô": 149,
      "Õ": 150,
      "Ö": 151,
      "×": 152,
      "Ø": 153,
      "Ù": 154,
      "Ú": 155,
      "Û": 156,
      "Ü": 157,
      "Ý": 158,
      "Þ": 159,
      "ß": 160,
      "à": 161,
      "á": 162,
      "â": 163,
      "ã": 164,
      "ä": 165,
      "å": 166,
      "æ": 167,
      "ç": 168,
      "è": 169,
      "é": 170,
      "ê": 171,
      "ë": 172,
      "ì": 173,
      "í": 174,
      "î": 175,
      "ï": 176,
      "ð": 177,
      "ñ": 178,
      "ò": 179,
      "ó": 180,
      "ô": 181,
      "õ": 182,
      "ö": 183,
      "÷": 184,
      "ø": 185,
      "ù": 186,
      "ú": 187,
      "û": 188,
      "ü": 189,
      "ý": 190,
      "þ": 191,
      "ÿ": 192,
      "Ā": 193,
      "ā": 194,
      "Ă": 195,
      "ă": 196,
      "Ą": 197,
      "ą": 198,
      "Ć": 199,
      "ć": 200,
      "Ĉ": 201,
      "ĉ": 202,
      "Ċ": 203,
      "ċ": 204,
      "Č": 205,
      "č": 206,
      "Ď": 207,
      "ď": 208,
      "Đ": 209,
      "đ": 210,
      "Ē": 211,
      "ē": 212,
      "Ĕ": 213,
      "ĕ": 214,
      "Ė": 215,
      "ė": 216,
      "Ę": 217,
      "ę": 218,
      "Ě": 219,
      "ě": 220,
      "Ĝ": 221,
      "ĝ": 222,
      "Ğ": 223,
      "ğ": 224,
      "Ġ": 225,
      "ġ": 226,
      "Ģ": 227,
      "ģ": 228,
      "Ĥ": 229,
      "ĥ": 230,
      "Ħ": 231,
      "ħ": 232,
      "Ĩ": 233,
      "ĩ": 234,
      "Ī": 235,
      "ī": 236,
      "Ĭ": 237,
      "ĭ": 238,
      "Į": 239,
      "į": 240,
      "İ": 241,
      "ı": 242,
      "Ĳ": 243,
      "ĳ": 244,
      "Ĵ": 245,
      "ĵ": 246,
      "Ķ": 247,
      "ķ": 248,
      "ĸ": 249,
      "Ĺ": 250,
      "ĺ": 251,
      "Ļ": 252,
      "ļ": 253,
      "Ľ": 254,
      "ľ": 255,
      "Ŀ": 256,
      "ŀ": 257,
      "Ł": 258,
      "ł": 259,
      "Ń": 260,
      "en": 261,
      "er": 262,
      "Ġt": 263,
      "an": 264,
      "he": 265,
      "in": 266,
      "Ġd": 267,
      "Ġw": 268,
      "at": 269,
      "Ġo": 270,
      "Ġs": 271,
      "Ġa": 272,
      "Ġm": 273,
      "Ġ.": 274,
      "Ġb": 275,
      "ä¸": 276,
      "ou": 277,
      "is": 278,
      "or": 279,
      "et": 280,
      "ar": 281,
      "Ġg": 282,
      "Ġh": 283,
      "el": 284,
      "it": 285,
      "Ġv": 286,
      "Ġthe": 287,
      "on": 288,
      "Ġn": 289,
      "ij": 290,
      "es": 291,
      "ed": 292,
      "Ġhe": 293,
      "ing": 294,
      "äº": 295,
      "and": 296,
      "Ġde": 297,
      "Ġc": 298,
      "Ġl": 299,
      "Ġp": 300,
      "Ġe": 301,
      "Ġz": 302,
      "çļ": 303,
      "Ġf": 304,
      "Ġin": 305,
      "Ġth": 306,
      "ch": 307,
      "çļĦ": 308,
      "al": 309,
      "re": 310,
      "as": 311,
      "Ġk": 312,
      "Ġj": 313,
      "Ġto": 314,
      "OT": 315,
      "MOT": 316,
      "om": 317,
      "ä»": 318,
      "ie": 319,
      "æĪ": 320,
      "CH": 321,
      "Ġy": 322,
      "CHI": 323,
      "Ġis": 324,
      "ä½": 325,
      "aar": 326,
      "è¿": 327,
      "æĪĳ": 328,
      "Ġyou": 329,
      "ll": 330,
      "æĺ": 331,
      "Ġof": 332,
      "st": 333,
      "Ġand": 334,
      "ot": 335,
      "Ġ,": 336,
      "ig": 337,
      "æĺ¯": 338,
      "Ġon": 339,
      "ĠI": 340,
      "Ġeen": 341,
      "le": 342,
      "Ġje": 343,
      "ik": 344,
      "oor": 345,
      "Ġhet": 346,
      "id": 347,
      "oo": 348,
      "ä½ł": 349,
      "äºĨ": 350,
      "ad": 351,
      "å¤": 352,
      "æľ": 353,
      "ere": 354,
      "'s": 355,
      "Ġu": 356,
      "ow": 357,
      "ä¹": 358,
      "åı": 359,
      "åĲ": 360,
      "Ġbe": 361,
      "Ġvan": 362,
      "å°": 363,
      "Ġr": 364,
      "ä¸Ģ": 365,
      "ä¸į": 366,
      "..": 367,
      "ut": 368,
      "Ġst": 369,
      "ve": 370,
      "Ġen": 371,
      "am": 372,
      "Ġit": 373,
      "Ġ?": 374,
      "ur": 375,
      "iet": 376,
      "ak": 377,
      "Ġme": 378,
      "ay": 379,
      "Ġge": 380,
      "Ġwe": 381,
      "ic": 382,
      "è¯": 383,
      "il": 384,
      "ent": 385,
      "è¿Ļ": 386,
      "å®": 387,
      "ver": 388,
      "åľ": 389,
      "Ġwas": 390,
      "ijn": 391,
      "åĪ": 392,
      "Ġthat": 393,
      "ag": 394,
      "ro": 395,
      "Ġop": 396,
      "Ġwh": 397,
      "Ġver": 398,
      "ee": 399,
      "im": 400,
      "un": 401,
      "cht": 402,
      "Ġdat": 403,
      "å¥": 404,
      "Ġdo": 405,
      "åħ": 406,
      "se": 407,
      "Ġniet": 408,
      "ĠS": 409,
      "æĿ": 410,
      "th": 411,
      "de": 412,
      "ä¸ª": 413,
      "Ġte": 414,
      "ra": 415,
      "ol": 416,
      "ĠD": 417,
      "ĠM": 418,
      "den": 419,
      "ĠA": 420,
      "æľī": 421,
      "ĠT": 422,
      "Ik": 423,
      "'t": 424,
      "est": 425,
      "oe": 426,
      "ir": 427,
      "å°±": 428,
      "Ġik": 429,
      "Ġal": 430,
      "ĠH": 431,
      "gen": 432,
      "der": 433,
      "ãĢ": 434,
      "ant": 435,
      "ac": 436,
      "ĠB": 437,
      "åĳ": 438,
      "ijk": 439,
      "ht": 440,
      "ion": 441,
      "ly": 442,
      "åľ¨": 443,
      "Ġfor": 444,
      "åŃ": 445,
      "Ġ'": 446,
      "å¾": 447,
      "ĥ½": 448,
      "ä»¬": 449,
      "ç»": 450,
      "æī": 451,
      "ãĢĤ": 452,
      "ter": 453,
      "Ġre": 454,
      "ven": 455,
      "Ġer": 456,
      "Ġgo": 457,
      "ä»ĸ": 458,
      "ap": 459,
      "Ġå": 460,
      "op": 461,
      "ell": 462,
      "us": 463,
      "äºº": 464,
      "ä¹Ī": 465,
      "æĿ¥": 466,
      "çĶ": 467,
      "Ġvoor": 468,
      "ĠæĪĳ": 469,
      "ld": 470,
      "Ġmet": 471,
      "æĹ": 472,
      "ĠC": 473,
      "åķ": 474,
      "Ġze": 475,
      "çľ": 476,
      "ken": 477,
      "ill": 478,
      "ith": 479,
      "Ġ1": 480,
      "ge": 481,
      "Ġmo": 482,
      "ier": 483,
      "Ġzijn": 484,
      "Ġha": 485,
      "è¯´": 486,
      "Ġwor": 487,
      "ight": 488,
      "Ġall": 489,
      "ft": 490,
      "åĽ": 491,
      "Ġheb": 492,
      "ä¼": 493,
      "ct": 494,
      "éĤ": 495,
      "ers": 496,
      "Ġno": 497,
      "Ġan": 498,
      "aat": 499,
      "ĠW": 500,
      "ome": 501,
      "å¥½": 502,
      "éĤ£": 503,
      "åķĬ": 504,
      "um": 505,
      "Ġwith": 506,
      "xx": 507,
      "æĢ": 508,
      "hat": 509,
      "ok": 510,
      "Ġdie": 511,
      "Ġ...": 512,
      "ĠP": 513,
      "åİ": 514,
      "æ²": 515,
      "ri": 516,
      "æĥ": 517,
      "èµ": 518,
      "¦ģ": 519,
      "ea": 520,
      "Ġas": 521,
      "Ġä½ł": 522,
      "è¦ģ": 523,
      "em": 524,
      "éĩ": 525,
      "ust": 526,
      "all": 527,
      "Ġaan": 528,
      "è®": 529,
      "ĠE": 530,
      "ul": 531,
      "nd": 532,
      "if": 533,
      "åĬ": 534,
      "åį": 535,
      "Ġnot": 536,
      "å¤§": 537,
      "ĠN": 538,
      "ĠG": 539,
      "aan": 540,
      "Ġ\"": 541,
      "å¿": 542,
      "Ġat": 543,
      "ce": 544,
      "åĩ": 545,
      "Ġsp": 546,
      "è§": 547,
      "èĢ": 548,
      "je": 549,
      "åĪ°": 550,
      "Ġkn": 551,
      "Ġhad": 552,
      "ind": 553,
      "ould": 554,
      "Ġwat": 555,
      "ze": 556,
      "Ġhave": 557,
      "Ġle": 558,
      "ä¸Ĭ": 559,
      "ist": 560,
      "ĠJ": 561,
      "æĬ": 562,
      "Ġover": 563,
      "Ġthis": 564,
      "Ġuit": 565,
      "...": 566,
      "Ġpl": 567,
      "åŃĲ": 568,
      "ook": 569,
      "ĠL": 570,
      "å·": 571,
      "Ġ2": 572,
      "å¸": 573,
      "å¼": 574,
      "Ġare": 575,
      "å¹": 576,
      "Ġom": 577,
      "åĨ": 578,
      "çİ": 579,
      "Ġsh": 580,
      "å¯": 581,
      "Ġals": 582,
      "ĠR": 583,
      "ast": 584,
      "ä¹Ł": 585,
      "AT": 586,
      "ood": 587,
      "æ²¡": 588,
      "os": 589,
      "ab": 590,
      "Ġne": 591,
      "ug": 592,
      "art": 593,
      "éĥ½": 594,
      "eld": 595,
      "è¿ĺ": 596,
      "çľĭ": 597,
      "å¾Ĺ": 598,
      "æł": 599,
      "åİ»": 600,
      "rou": 601,
      "ĠO": 602,
      "ess": 603,
      "Ġcan": 604,
      "æĸ": 605,
      "we": 606,
      "Ġone": 607,
      "ien": 608,
      "å°ı": 609,
      "ang": 610,
      "be": 611,
      "Ġzo": 612,
      "IN": 613,
      "ink": 614,
      "ru": 615,
      "ĠF": 616,
      "Ġhis": 617,
      "AR": 618,
      "éĹ": 619,
      "eah": 620,
      "ä¼ļ": 621,
      "Ġthey": 622,
      "Ġher": 623,
      "åı¯": 624,
      "Ġ(": 625,
      "Ġknow": 626,
      "è·": 627,
      "Ġbl": 628,
      "ä¸º": 629,
      "èĥ½": 630,
      "Ġyour": 631,
      "æŃ": 632,
      "Ġaf": 633,
      "åĵ": 634,
      "Ġup": 635,
      "out": 636,
      "æĹ¶": 637,
      "ain": 638,
      "çĿ": 639,
      "rom": 640,
      "Ġdon": 641,
      "Ħ¿": 642,
      "te": 643,
      "Ġthere": 644,
      "ike": 645,
      "nen": 646,
      "We": 647,
      "Ġdan": 648,
      "ond": 649,
      "Ġmaar": 650,
      "ck": 651,
      "ä»¥": 652,
      "å¦": 653,
      "Ġnaar": 654,
      "INV": 655,
      "oh": 656,
      "ard": 657,
      "ich": 658,
      "Ġshe": 659,
      "aal": 660,
      "her": 661,
      "Ġwhat": 662,
      "Ġ-": 663,
      "ry": 664,
      "Ġman": 665,
      "åĴ": 666,
      "end": 667,
      "ĠK": 668,
      "Ġor": 669,
      "ä»Ģ": 670,
      "Ġget": 671,
      "ä»Ģä¹Ī": 672,
      "å¤©": 673,
      "åĦ¿": 674,
      "sen": 675,
      "Ġso": 676,
      "rij": 677,
      "éģ": 678,
      "éĿ": 679,
      "LD": 680,
      "è¡": 681,
      "Ġmy": 682,
      "ET": 683,
      "ä¸ĭ": 684,
      "åĲİ": 685,
      "You": 686,
      "Ġch": 687,
      "Ġpro": 688,
      "CHILD": 689,
      "Ġsch": 690,
      "è¿ĩ": 691,
      "elijk": 692,
      "ake": 693,
      "åº": 694,
      "Ġ!": 695,
      "ore": 696,
      "å®¶": 697,
      "èĩ": 698,
      "ĠDe": 699,
      "Het": 700,
      "'re": 701,
      "eer": 702,
      "ĠV": 703,
      "ack": 704,
      "ation": 705,
      "Ġout": 706,
      "itt": 707,
      "éĢ": 708,
      "een": 709,
      "Ġmoet": 710,
      "äºĭ": 711,
      "çĽ": 712,
      "æĥ³": 713,
      "ies": 714,
      "Ġbij": 715,
      "çĪ": 716,
      "Ġab": 717,
      "Ġsa": 718,
      "ĠThe": 719,
      "Ã©": 720,
      "TAR": 721,
      "çĿĢ": 722,
      "Ġtw": 723,
      "GET": 724,
      "TARGET": 725,
      "Ġlike": 726,
      "ä¸Ģä¸ª": 727,
      "æķ": 728,
      "ull": 729,
      "ong": 730,
      "na": 731,
      "Ġdoor": 732,
      "ip": 733,
      "åĳ¢": 734,
      "å¯¹": 735,
      "Ġwaar": 736,
      "ank": 737,
      "Je": 738,
      "Ġwer": 739,
      "Ġhij": 740,
      "you": 741,
      "Ġben": 742,
      "ine": 743,
      "ep": 744,
      "Ġfrom": 745,
      "Ġwel": 746,
      "Ġkan": 747,
      "no": 748,
      "æĭ": 749,
      "éĩĮ": 750,
      "xxx": 751,
      "sch": 752,
      "eel": 753,
      "qu": 754,
      "æĦ": 755,
      "æ¯": 756,
      "Ġhim": 757,
      "è¿Ļä¸ª": 758,
      "åĩº": 759,
      "è°": 760,
      "eft": 761,
      "The": 762,
      "one": 763,
      "ER": 764,
      "Ġbut": 765,
      "Ġbo": 766,
      "å¤ļ": 767,
      "ber": 768,
      "aak": 769,
      "åĲ§": 770,
      "Ġook": 771,
      "åĲĹ": 772,
      "Ġcom": 773,
      "ç§": 774,
      "æŀ": 775,
      "pen": 776,
      "çĶŁ": 777,
      "Ġex": 778,
      "çī": 779,
      "what": 780,
      "FAT": 781,
      "çŁ": 782,
      "æ°": 783,
      "åľ°": 784,
      "å½": 785,
      "uur": 786,
      "ame": 787,
      "Ġcon": 788,
      "Ġwil": 789,
      "'m": 790,
      "acht": 791,
      "Wat": 792,
      "Ġsu": 793,
      "Ġgot": 794,
      "Ġpr": 795,
      "Ġword": 796,
      "ive": 797,
      "éģĵ": 798,
      "ort": 799,
      "Ġnog": 800,
      "De": 801,
      "Ġhier": 802,
      "here": 803,
      "Ġkun": 804,
      "own": 805,
      "å°±æĺ¯": 806,
      "che": 807,
      "elf": 808,
      "Ġwere": 809,
      "çİ°": 810,
      "æĪĳä»¬": 811,
      "Ġby": 812,
      "au": 813,
      "ide": 814,
      "Ġwant": 815,
      "og": 816,
      "çĦ": 817,
      "Ġsee": 818,
      "Ġse": 819,
      "ä¸Ń": 820,
      "00": 821,
      "èĩª": 822,
      "Ġdid": 823,
      "ç»Ļ": 824,
      "çĤ": 825,
      "Ġthem": 826,
      "Ġel": 827,
      "Ġsome": 828,
      "çĦ¶": 829,
      "æĶ": 830,
      "'ll": 831,
      "åģ": 832,
      "Dat": 833,
      "ek": 834,
      "æ¬": 835,
      "è¾": 836,
      "Ġkom": 837,
      "our": 838,
      "Ġheeft": 839,
      "ben": 840,
      "Ġdit": 841,
      "åĴĮ": 842,
      "ally": 843,
      "Ġabout": 844,
      "Ze": 845,
      "ff": 846,
      "ten": 847,
      "åĢ": 848,
      "Ġè¿Ļ": 849,
      "æł·": 850,
      "oed": 851,
      "od": 852,
      "Ġgr": 853,
      "å¿ĥ": 854,
      "è·Ł": 855,
      "iv": 856,
      "Ġmen": 857,
      "orm": 858,
      "Ġ19": 859,
      "å¾Ī": 860,
      "Ġmijn": 861,
      "Ġun": 862,
      "Ġthink": 863,
      "Ġbr": 864,
      "ke": 865,
      "æİ": 866,
      "ls": 867,
      "Ġhere": 868,
      "ice": 869,
      "ste": 870,
      "Ġgoed": 871,
      "En": 872,
      "HER": 873,
      "æĬĬ": 874,
      "ĠIn": 875,
      "ijd": 876,
      "åĮ": 877,
      "ä¿": 878,
      "ick": 879,
      "ite": 880,
      "çĤ¹": 881,
      "Ġhebben": 882,
      "yeah": 883,
      "çŁ¥": 884,
      "Ġbet": 885,
      "oug": 886,
      "è´": 887,
      "Ġlook": 888,
      "aten": 889,
      "eren": 890,
      "Ġwill": 891,
      "ia": 892,
      "æĢİ": 893,
      "å¥¹": 894,
      "pl": 895,
      "Ġjust": 896,
      "to": 897,
      "per": 898,
      "å§": 899,
      "æ²¡æľī": 900,
      "ings": 901,
      "å±": 902,
      "èĢģ": 903,
      "åī": 904,
      "Ġdeze": 905,
      "èµ·": 906,
      "Ġsaid": 907,
      "æĢİä¹Ī": 908,
      "ä¸įæĺ¯": 909,
      "Ġwordt": 910,
      "eg": 911,
      "Ġthen": 912,
      "ingen": 913,
      "Ġhem": 914,
      "that": 915,
      "].": 916,
      "ied": 917,
      "Ġsl": 918,
      "He": 919,
      "'ve": 920,
      "Ġgeen": 921,
      ".\"": 922,
      "Ġwould": 923,
      "éĻ": 924,
      "hing": 925,
      "oon": 926,
      "Ġif": 927,
      "Ġdr": 928,
      "æĮ": 929,
      "ate": 930,
      "åĳĢ": 931,
      "Ġworden": 932,
      "ĠHe": 933,
      "æ³": 934,
      "ime": 935,
      "çľŁ": 936,
      "åĪ«": 937,
      "çŃ": 938,
      "åĽ½": 939,
      "oord": 940,
      "è¡Į": 941,
      "Ġsay": 942,
      "å¼Ģ": 943,
      "Ġright": 944,
      "uk": 945,
      "uit": 946,
      "éķ": 947,
      "Ġnow": 948,
      "Ġonder": 949,
      "ose": 950,
      "Ġhaar": 951,
      "mer": 952,
      "pp": 953,
      "éĺ": 954,
      "è½": 955,
      "ect": 956,
      "MOTHER": 957,
      "ound": 958,
      "Ġany": 959,
      "Ġus": 960,
      "aken": 961,
      "Ġmeer": 962,
      "ĠéĤ£": 963,
      "éĿ¢": 964,
      "å¹´": 965,
      "are": 966,
      "åĽŀ": 967,
      "bl": 968,
      "uis": 969,
      "Ġwhen": 970,
      "Ġdown": 971,
      "é¢": 972,
      ",\"": 973,
      "Ġgeb": 974,
      "çº": 975,
      "Ġdaar": 976,
      "æĤ": 977,
      "ous": 978,
      "åıĳ": 979,
      "Ġcl": 980,
      "ä¹ĭ": 981,
      "ittle": 982,
      "æ´": 983,
      "It": 984,
      "Ġag": 985,
      "è¯Ŀ": 986,
      "æĥħ": 987,
      "Ġwho": 988,
      "elen": 989,
      "way": 990,
      "ost": 991,
      "ool": 992,
      "Ġgaan": 993,
      "Hij": 994,
      "Ġter": 995,
      "eten": 996,
      "Ġar": 997,
      "æīĢ": 998,
      "çŁ¥éģĵ": 999,
      "åĸ": 1000,
      "av": 1001,
      "ĠIt": 1002,
      "other": 1003,
      "ç»ı": 1004,
      "éķ¿": 1005,
      "Ġjij": 1006,
      "çĻ": 1007,
      "oll": 1008,
      "å®ļ": 1009,
      "ther": 1010,
      "Ġoff": 1011,
      "Ġgoing": 1012,
      "æĪĲ": 1013,
      "æĦı": 1014,
      "ige": 1015,
      "icht": 1016,
      "ass": 1017,
      "åıª": 1018,
      "Ġback": 1019,
      "oek": 1020,
      "ĠU": 1021,
      "å¦Ī": 1022,
      "èµ°": 1023,
      "Ġhas": 1024,
      "Ġhand": 1025,
      "ause": 1026,
      "Ġxxx": 1027,
      "è®©": 1028,
      "yes": 1029,
      "Ġbeen": 1030,
      "Ġlittle": 1031,
      "pt": 1032,
      "Ġput": 1033,
      "Ġ20": 1034,
      "Ġdoen": 1035,
      "zen": 1036,
      "ĠCh": 1037,
      "Ġcould": 1038,
      "lijk": 1039,
      "age": 1040,
      "Ġnu": 1041,
      "çĲ": 1042,
      "ree": 1043,
      "å®ŀ": 1044,
      "å·±": 1045,
      "è§ī": 1046,
      "jes": 1047,
      "ear": 1048,
      "Ġvery": 1049,
      "ud": 1050,
      "land": 1051,
      "æµ": 1052,
      "ach": 1053,
      "ew": 1054,
      "èĩªå·±": 1055,
      "ele": 1056,
      "nt": 1057,
      "Ġbeg": 1058,
      "ĠSt": 1059,
      "çĶ¨": 1060,
      "Ġbed": 1061,
      "Ġhou": 1062,
      "ian": 1063,
      "ity": 1064,
      "ä½Ĩ": 1065,
      "åģļ": 1066,
      "Ġweet": 1067,
      "æľĢ": 1068,
      "agen": 1069,
      "åĢĻ": 1070,
      "Ġä»ĸ": 1071,
      "atie": 1072,
      "ble": 1073,
      "In": 1074,
      "Ġmore": 1075,
      "Ġtime": 1076,
      "Ġvol": 1077,
      "els": 1078,
      "als": 1079,
      "Ġbel": 1080,
      "Ġkl": 1081,
      "Ġzou": 1082,
      "åįģ": 1083,
      "Ġga": 1084,
      "ĠZ": 1085,
      "ker": 1086,
      "Ġont": 1087,
      "çİ°åľ¨": 1088,
      "ish": 1089,
      "ç®": 1090,
      "Ġzeg": 1091,
      "my": 1092,
      "ace": 1093,
      "rouw": 1094,
      "Ġgaat": 1095,
      "Ġeven": 1096,
      "Ġbest": 1097,
      "ure": 1098,
      "iss": 1099,
      "Waar": 1100,
      "æīĵ": 1101,
      "Ġgood": 1102,
      "æĹ¶åĢĻ": 1103,
      "aug": 1104,
      "ullie": 1105,
      "Ġhoe": 1106,
      "åīį": 1107,
      "Ġwhich": 1108,
      "Ġro": 1109,
      "men": 1110,
      "äºĽ": 1111,
      "Ġsn": 1112,
      "Ġfl": 1113,
      "Ġ3": 1114,
      "cause": 1115,
      "alk": 1116,
      "Ġgew": 1117,
      "ç¬": 1118,
      "Ġtheir": 1119,
      "uw": 1120,
      "æĸ¹": 1121,
      "the": 1122,
      "èĬ": 1123,
      "iets": 1124,
      "ç«": 1125,
      "ire": 1126,
      "Ġkunnen": 1127,
      "Ġ[": 1128,
      "Ġsom": 1129,
      "Ġqu": 1130,
      "Ġmij": 1131,
      "åŃ¦": 1132,
      "ert": 1133,
      "act": 1134,
      "åĿ": 1135,
      "å½ĵ": 1136,
      "Ġbent": 1137,
      "dat": 1138,
      "Ġmin": 1139,
      "ne": 1140,
      "ah": 1141,
      "wh": 1142,
      "ade": 1143,
      "oc": 1144,
      "æ±": 1145,
      "eder": 1146,
      "ä¸ī": 1147,
      "Ġtwo": 1148,
      "ran": 1149,
      "æ¸": 1150,
      "Ġpe": 1151,
      "Ġgen": 1152,
      "Ġwater": 1153,
      "ment": 1154,
      "raag": 1155,
      "æŀľ": 1156,
      "éĴ": 1157,
      "åĬ¨": 1158,
      "è§ģ": 1159,
      "ç§į": 1160,
      "èĢĮ": 1161,
      "éĽ": 1162,
      "æīĭ": 1163,
      "heid": 1164,
      "of": 1165,
      "What": 1166,
      "Ġgev": 1167,
      "Ġhel": 1168,
      "Th": 1169,
      "Ġtot": 1170,
      "onder": 1171,
      "uh": 1172,
      "ren": 1173,
      "åĪĨ": 1174,
      "ase": 1175,
      "æĻ": 1176,
      "é¡": 1177,
      "Ġinto": 1178,
      "eden": 1179,
      "old": 1180,
      "äºİ": 1181,
      "Als": 1182,
      "æĽ": 1183,
      "è¢": 1184,
      "orn": 1185,
      "onna": 1186,
      "æĤ¨": 1187,
      "æĺİ": 1188,
      "int": 1189,
      "Oh": 1190,
      "And": 1191,
      "å¤ª": 1192,
      "Ġplay": 1193,
      "iek": 1194,
      "èĤ": 1195,
      "ä¸¤": 1196,
      "Ġjou": 1197,
      "Ġons": 1198,
      "Yeah": 1199,
      "éĹ´": 1200,
      "Ġhun": 1201,
      "ng": 1202,
      "éĹ®": 1203,
      "Ġgel": 1204,
      "Maar": 1205,
      "Ġper": 1206,
      "äºĮ": 1207,
      "ater": 1208,
      "Ġna": 1209,
      "é£": 1210,
      "ä»İ": 1211,
      "Nee": 1212,
      "éļ": 1213,
      "ç¾": 1214,
      "very": 1215,
      "ark": 1216,
      "åĲĥ": 1217,
      "Ġweg": 1218,
      "Ja": 1219,
      "ĠTh": 1220,
      "åı¯ä»¥": 1221,
      "Ġcome": 1222,
      "Ġcar": 1223,
      "ob": 1224,
      "amen": 1225,
      "Ġgro": 1226,
      "Ġeer": 1227,
      "èº": 1228,
      "racht": 1229,
      "do": 1230,
      "omen": 1231,
      "ä½ľ": 1232,
      "igen": 1233,
      "Ã«": 1234,
      "åıĪ": 1235,
      "mand": 1236,
      "Ġweer": 1237,
      "Een": 1238,
      "ĠHet": 1239,
      "aakt": 1240,
      "aren": 1241,
      "åĨį": 1242,
      "Ġhebt": 1243,
      "sp": 1244,
      "Ġother": 1245,
      "ord": 1246,
      "man": 1247,
      "ople": 1248,
      "Ġpart": 1249,
      "Ġgonna": 1250,
      "æŃ£": 1251,
      "è¶": 1252,
      "å®ĥ": 1253,
      "Ġtwee": 1254,
      "Ġsm": 1255,
      "Ġveel": 1256,
      "æģ": 1257,
      "ES": 1258,
      "Ġzal": 1259,
      "ough": 1260,
      "oof": 1261,
      "Ġway": 1262,
      "urn": 1263,
      "Ġmu": 1264,
      "oot": 1265,
      "åĲ¬": 1266,
      "Ġlet": 1267,
      "Ġged": 1268,
      "sh": 1269,
      "irst": 1270,
      "riend": 1271,
      "reat": 1272,
      "wer": 1273,
      "ief": 1274,
      "Ġsec": 1275,
      "enk": 1276,
      "Ġjullie": 1277,
      "ild": 1278,
      "åħ³": 1279,
      "ä»ĸä»¬": 1280,
      "OR": 1281,
      "Ġä¸į": 1282,
      "æľ¬": 1283,
      "me": 1284,
      "å¥³": 1285,
      "Ġiets": 1286,
      "Ġagain": 1287,
      "åħ¶": 1288,
      "åĲĮ": 1289,
      "è¿Ľ": 1290,
      "ely": 1291,
      "å¤´": 1292,
      "ary": 1293,
      "elt": 1294,
      "æ¬¡": 1295,
      "åħ¬": 1296,
      "éĶ": 1297,
      "ruik": 1298,
      "ue": 1299,
      "Ġhow": 1300,
      "ellen": 1301,
      "åħĪ": 1302,
      "Ġzien": 1303,
      "ä¾": 1304,
      "æ¯Ķ": 1305,
      "Ġpeople": 1306,
      "Ġwork": 1307,
      "Ġmake": 1308,
      "ount": 1309,
      "cl": 1310,
      "Ġtegen": 1311,
      "Ġdoes": 1312,
      "Ġwell": 1313,
      "è§īå¾Ĺ": 1314,
      "innen": 1315,
      "èĦ": 1316,
      "Ġam": 1317,
      "ult": 1318,
      "!\"": 1319,
      "Ġvo": 1320,
      "æī¾": 1321,
      "Ġalleen": 1322,
      "æīį": 1323,
      "Ġsc": 1324,
      "Ġwhere": 1325,
      "ys": 1326,
      "åĺ": 1327,
      "esch": 1328,
      "è¢«": 1329,
      "ä¸»": 1330,
      "Ġsomet": 1331,
      "Ġcall": 1332,
      "?\"": 1333,
      "èº«": 1334,
      "é©": 1335,
      "èĥ": 1336,
      "æ³ķ": 1337,
      "No": 1338,
      "Ġtake": 1339,
      "ock": 1340,
      "Ġtoo": 1341,
      "åĽł": 1342,
      "Er": 1343,
      "erd": 1344,
      "ç©": 1345,
      "Hoe": 1346,
      "gens": 1347,
      "çŃī": 1348,
      "å¦Ĥ": 1349,
      "ä»Ĭ": 1350,
      "iz": 1351,
      "air": 1352,
      "chter": 1353,
      "Ġfirst": 1354,
      "ç½": 1355,
      "ale": 1356,
      "åĬĽ": 1357,
      "app": 1358,
      "é«": 1359,
      "ile": 1360,
      "pr": 1361,
      "å¹²": 1362,
      "Ġzich": 1363,
      "af": 1364,
      "é«ĺ": 1365,
      "Ġneed": 1366,
      "EX": 1367,
      "right": 1368,
      "Ġmensen": 1369,
      "unt": 1370,
      "çķ": 1371,
      "Ġmean": 1372,
      "æĦŁ": 1373,
      "Ġmee": 1374,
      "éĤ£ä¸ª": 1375,
      "TI": 1376,
      "oren": 1377,
      "okay": 1378,
      "Ġmaken": 1379,
      "Ġterug": 1380,
      "cc": 1381,
      "EXP": 1382,
      "éĥ": 1383,
      "æĶ¾": 1384,
      "Wh": 1385,
      "çĭ": 1386,
      "ty": 1387,
      "Ġkomt": 1388,
      "Kom": 1389,
      "å·²": 1390,
      "åŃ©": 1391,
      "Ġvert": 1392,
      "--": 1393,
      "there": 1394,
      "Ġmoeten": 1395,
      "ving": 1396,
      "Ġtijd": 1397,
      "¥¿": 1398,
      "å£": 1399,
      "roug": 1400,
      "è°¢": 1401,
      "ote": 1402,
      "ä½łä»¬": 1403,
      "ci": 1404,
      "Ġeens": 1405,
      "æ°Ķ": 1406,
      "Ġwerk": 1407,
      "Ġtell": 1408,
      "Ġtra": 1409,
      "ise": 1410,
      "è¿Ļä¹Ī": 1411,
      "ger": 1412,
      "Ġad": 1413,
      "Ġday": 1414,
      "hm": 1415,
      "Ġonly": 1416,
      "åħ¨": 1417,
      "çģ": 1418,
      "æį": 1419,
      "çĦ¶åĲİ": 1420,
      "alen": 1421,
      "ç¥": 1422,
      "Ġim": 1423,
      "Ġ4": 1424,
      "èĭ": 1425,
      "çĪ¸": 1426,
      "That": 1427,
      "iemand": 1428,
      "æŁ": 1429,
      "Ġcont": 1430,
      "arl": 1431,
      "Ġlang": 1432,
      "æĹ¥": 1433,
      "éĩį": 1434,
      "ĥı": 1435,
      "form": 1436,
      "Ġact": 1437,
      "du": 1438,
      "Ġgez": 1439,
      "Ġple": 1440,
      "Ġland": 1441,
      "è¾¹": 1442,
      "æĹł": 1443,
      "TIG": 1444,
      "ove": 1445,
      "ĠÂ": 1446,
      "Ġkon": 1447,
      "ATOR": 1448,
      "ESTIG": 1449,
      "ĠæĪĳä»¬": 1450,
      "INVESTIG": 1451,
      "INVESTIGATOR": 1452,
      "hed": 1453,
      "esp": 1454,
      "oud": 1455,
      "èģ": 1456,
      "where": 1457,
      "çĶµ": 1458,
      "kay": 1459,
      "Ġkle": 1460,
      "Ġandere": 1461,
      "Ġecht": 1462,
      "æ¡": 1463,
      "wn": 1464,
      "å¿«": 1465,
      "ann": 1466,
      "iver": 1467,
      "amp": 1468,
      "uck": 1469,
      "ady": 1470,
      "è¿Ļæł·": 1471,
      "æĪĳçļĦ": 1472,
      "åºĶ": 1473,
      "fore": 1474,
      "oop": 1475,
      "çĲĨ": 1476,
      "èī": 1477,
      "Ġlaat": 1478,
      "é¢ĺ": 1479,
      "St": 1480,
      "ath": 1481,
      "up": 1482,
      "ather": 1483,
      "ä¸ľ": 1484,
      "Ġmuch": 1485,
      "round": 1486,
      "Ġafter": 1487,
      "æ°´": 1488,
      "Dit": 1489,
      "ub": 1490,
      "åŁ": 1491,
      "ç´": 1492,
      "Ġkw": 1493,
      "oog": 1494,
      "ting": 1495,
      "Ġtoch": 1496,
      "åĥı": 1497,
      "Ġdidn": 1498,
      "ĠY": 1499,
      "çļĦæĹ¶åĢĻ": 1500,
      "è¥¿": 1501,
      "sl": 1502,
      "oen": 1503,
      "Ĺ¯": 1504,
      "ä½ĵ": 1505,
      "çĥ": 1506,
      "Ġthese": 1507,
      "çĽ¸": 1508,
      "ç³": 1509,
      "ä½Ĩæĺ¯": 1510,
      "ict": 1511,
      "ought": 1512,
      "dy": 1513,
      "Ġleven": 1514,
      "red": 1515,
      "Ġour": 1516,
      "ix": 1517,
      "Ġkomen": 1518,
      "å¸¸": 1519,
      "Ã©n": 1520,
      "Ġtr": 1521,
      "ons": 1522,
      "Ġwerd": 1523,
      "over": 1524,
      "Ġkrij": 1525,
      "æĸ°": 1526,
      "Ġ201": 1527,
      "woord": 1528,
      "Ġdis": 1529,
      "Is": 1530,
      "æīĢä»¥": 1531,
      "Ġlong": 1532,
      "beeld": 1533,
      "Ġgebruik": 1534,
      "Ġ5": 1535,
      "çī¹": 1536,
      "èĪ": 1537,
      "dig": 1538,
      "get": 1539,
      ").": 1540,
      "å¤ĸ": 1541,
      "gt": 1542,
      "Well": 1543,
      "çĻ½": 1544,
      "Ġgek": 1545,
      "ont": 1546,
      "è¿ĺæĺ¯": 1547,
      "æľº": 1548,
      "ja": 1549,
      "Ġjaar": 1550,
      "ç¦": 1551,
      "Ġmade": 1552,
      "Ġgra": 1553,
      "Ġsomething": 1554,
      "'d": 1555,
      "Ġthan": 1556,
      "ens": 1557,
      "çĽ´": 1558,
      "eef": 1559,
      "ĠJe": 1560,
      "åĵª": 1561,
      "Ġbig": 1562,
      "Ġmag": 1563,
      "æ¬¢": 1564,
      "Ġevery": 1565,
      "able": 1566,
      "Ġcomp": 1567,
      "è¯¥": 1568,
      "èĬ±": 1569,
      "çĮ": 1570,
      "ooit": 1571,
      "çī©": 1572,
      "geven": 1573,
      "å·¥": 1574,
      "voor": 1575,
      "Ġaway": 1576,
      "åı«": 1577,
      "ef": 1578,
      "ory": 1579,
      "ader": 1580,
      "Ġstr": 1581,
      "åĸľ": 1582,
      "Ġsle": 1583,
      "iÃ«": 1584,
      "iff": 1585,
      "ance": 1586,
      "Ġwr": 1587,
      "ijf": 1588,
      "æ´»": 1589,
      "anna": 1590,
      "å®ī": 1591,
      "inn": 1592,
      "ĠMr": 1593,
      "aby": 1594,
      "é©¬": 1595,
      "ated": 1596,
      "Ġvl": 1597,
      "appen": 1598,
      "Ġgl": 1599,
      "æı": 1600,
      "Ġtalk": 1601,
      "Ġhele": 1602,
      "å¨": 1603,
      "Ġshould": 1604,
      "çļĦäºº": 1605,
      "éĴ±": 1606,
      "è§£": 1607,
      "Ġfe": 1608,
      "But": 1609,
      "ions": 1610,
      "ische": 1611,
      "ife": 1612,
      "Ġå°±": 1613,
      "è½¦": 1614,
      "æŃ»": 1615,
      "Ġopen": 1616,
      "é»": 1617,
      "augh": 1618,
      "Ġbeh": 1619,
      "ä½į": 1620,
      "Ġelk": 1621,
      "Ġgem": 1622,
      "è°ģ": 1623,
      "ä¿¡": 1624,
      "çĪ±": 1625,
      "day": 1626,
      "uid": 1627,
      "Ġæĺ¯": 1628,
      "thing": 1629,
      "Ġapp": 1630,
      "å¸Ī": 1631,
      "ov": 1632,
      "oorden": 1633,
      "Ġunder": 1634,
      "ãĢĤ\"": 1635,
      "orry": 1636,
      "Ġbecause": 1637,
      "urt": 1638,
      "Ġstaat": 1639,
      "Ġinter": 1640,
      "arm": 1641,
      "inder": 1642,
      "idd": 1643,
      "ph": 1644,
      "Ġyear": 1645,
      "Ġant": 1646,
      "Ġma": 1647,
      "åĩł": 1648,
      "look": 1649,
      "Ġreally": 1650,
      "èĻ": 1651,
      "ward": 1652,
      "Ġdenk": 1653,
      "åĲĪ": 1654,
      "ember": 1655,
      "æ¶": 1656,
      "oem": 1657,
      "çľŁçļĦ": 1658,
      "All": 1659,
      "å¸¦": 1660,
      "ç¬¬": 1661,
      "oss": 1662,
      "gel": 1663,
      "Ġrem": 1664,
      "ä½łçļĦ": 1665,
      "ĠBr": 1666,
      "å·²ç»ı": 1667,
      "Ġpol": 1668,
      "Ġgu": 1669,
      "éľ": 1670,
      "åĳĬ": 1671,
      "Ġspe": 1672,
      "Ġnooit": 1673,
      "Ġbefore": 1674,
      "ç¾İ": 1675,
      "aking": 1676,
      "Ġalso": 1677,
      "eep": 1678,
      "åıĭ": 1679,
      "rough": 1680,
      ":\"": 1681,
      "åĵ¥": 1682,
      "Ġwon": 1683,
      "è¿ĺæľī": 1684,
      "bo": 1685,
      "zelf": 1686,
      "Ġwent": 1687,
      "Ġvrouw": 1688,
      "Ġverd": 1689,
      "bij": 1690,
      "So": 1691,
      "åĪļ": 1692,
      "ma": 1693,
      "io": 1694,
      "ouw": 1695,
      "off": 1696,
      "Ġdoing": 1697,
      "Ġschool": 1698,
      "self": 1699,
      "èį": 1700,
      "itten": 1701,
      "ç¡": 1702,
      "å®Į": 1703,
      "Ġheel": 1704,
      "çİĭ": 1705,
      "æ¼": 1706,
      "ĠÃ©": 1707,
      "Ġzelf": 1708,
      "æĿ¥äºĨ": 1709,
      "Ġkijk": 1710,
      "ragen": 1711,
      "AN": 1712,
      "Ġid": 1713,
      "ä¸Ģä¸ĭ": 1714,
      "onden": 1715,
      "åŃ©åŃĲ": 1716,
      "æİ¥": 1717,
      "ĠShe": 1718,
      "Ġhead": 1719,
      "ins": 1720,
      "æĽ´": 1721,
      "well": 1722,
      "Ġmom": 1723,
      "éĥ¨": 1724,
      "Ġpers": 1725,
      "ende": 1726,
      "Ġnie": 1727,
      "ä½ı": 1728,
      "Ġmis": 1729,
      "ieren": 1730,
      "å°ĳ": 1731,
      "ign": 1732,
      "å©": 1733,
      "çĸ": 1734,
      "Ġzw": 1735,
      "Ġvind": 1736,
      "tijd": 1737,
      "br": 1738,
      "Ġthrough": 1739,
      "ĠMar": 1740,
      "å±±": 1741,
      "äºĶ": 1742,
      "Ġblij": 1743,
      "but": 1744,
      "éª": 1745,
      "ders": 1746,
      "æľĪ": 1747,
      "Ġkind": 1748,
      "ans": 1749,
      "ets": 1750,
      "ces": 1751,
      "çĹ": 1752,
      "çĻ¾": 1753,
      "Ġmay": 1754,
      "é¦": 1755,
      "Ġthree": 1756,
      "åĪ°äºĨ": 1757,
      "ave": 1758,
      "vol": 1759,
      "åľº": 1760,
      "Ġpre": 1761,
      "ä¸įèĥ½": 1762,
      "ĠÃ©Ã©n": 1763,
      "oel": 1764,
      "åı¯èĥ½": 1765,
      "row": 1766,
      "Ġthought": 1767,
      "Ġste": 1768,
      "Ġbit": 1769,
      "Waarom": 1770,
      "by": 1771,
      "ussen": 1772,
      "åĨĽ": 1773,
      "åıĺ": 1774,
      "Ġbu": 1775,
      "æĢĿ": 1776,
      "stand": 1777,
      "ç»ĵ": 1778,
      "Ġalles": 1779,
      "veel": 1780,
      "open": 1781,
      "åĹ¯": 1782,
      "éħ": 1783,
      "ç¤": 1784,
      "ä»Ĭå¤©": 1785,
      "orgen": 1786,
      "ily": 1787,
      "Ġnever": 1788,
      "Ġjon": 1789,
      "Ġthings": 1790,
      "Ġlast": 1791,
      "Ġstart": 1792,
      "aam": 1793,
      "aw": 1794,
      "Ġbaby": 1795,
      "Ġmust": 1796,
      "Ġcame": 1797,
      "Ġnew": 1798,
      "Ġgir": 1799,
      "Ġold": 1800,
      "æ·": 1801,
      "Ġbot": 1802,
      "akes": 1803,
      "Ġ200": 1804,
      "ãĢģ": 1805,
      "ious": 1806,
      "æŃ¤": 1807,
      "ait": 1808,
      "atuur": 1809,
      "åĽłä¸º": 1810,
      "èĲ": 1811,
      "Ġanother": 1812,
      "Ġthing": 1813,
      "Ġthose": 1814,
      "rek": 1815,
      "Ġnodig": 1816,
      "ful": 1817,
      "Ġzei": 1818,
      "Ġåĵ": 1819,
      "Ġwanna": 1820,
      "æ»": 1821,
      "éļ¾": 1822,
      "äº²": 1823,
      "Ġser": 1824,
      "Ġkunt": 1825,
      "Ġeat": 1826,
      "è¯·": 1827,
      "gr": 1828,
      "Ġask": 1829,
      "åı£": 1830,
      "Ġdag": 1831,
      "ried": 1832,
      "ç²": 1833,
      "aag": 1834,
      "MA": 1835,
      "ss": 1836,
      "Ġtoe": 1837,
      "ina": 1838,
      "Yes": 1839,
      "let": 1840,
      "Ġmany": 1841,
      "éĹ¨": 1842,
      "schien": 1843,
      "èĢħ": 1844,
      "Ġeigen": 1845,
      "iden": 1846,
      "éĺŁ": 1847,
      "ĠZe": 1848,
      "Ġfind": 1849,
      "Ġâ": 1850,
      "ĠYou": 1851,
      "é¥": 1852,
      "Ġminut": 1853,
      "vel": 1854,
      "come": 1855,
      "can": 1856,
      "Ġhelp": 1857,
      "Ġbro": 1858,
      "Ġfam": 1859,
      "Ġfig": 1860,
      "esl": 1861,
      "Ġche": 1862,
      "ä¸Ģå®ļ": 1863,
      "allen": 1864,
      "ç¨": 1865,
      "Ġhome": 1866,
      "éĥ½æĺ¯": 1867,
      "Ġnet": 1868,
      "enn": 1869,
      "ved": 1870,
      "gelijk": 1871,
      "åĽĽ": 1872,
      "sel": 1873,
      "Ġverl": 1874,
      "æĢ»": 1875,
      "çł": 1876,
      "å§Ĳ": 1877,
      "ijden": 1878,
      "éĢļ": 1879,
      "Ġgive": 1880,
      "oort": 1881,
      "éĶĻ": 1882,
      "Ġmight": 1883,
      "åĲĳ": 1884,
      "å¹³": 1885,
      "Ġversch": 1886,
      "æĸĩ": 1887,
      "Ġå¦": 1888,
      "Ġits": 1889,
      "æ¯ı": 1890,
      "éĿŀ": 1891,
      "åĲį": 1892,
      "Ġbre": 1893,
      "å°Ĩ": 1894,
      "åĬŀ": 1895,
      "æħ": 1896,
      "ĠUn": 1897,
      "ors": 1898,
      "Ġbloed": 1899,
      "rijk": 1900,
      "ä»»": 1901,
      "Ġmil": 1902,
      "ummy": 1903,
      "Ga": 1904,
      "Ġstop": 1905,
      "Ġhouse": 1906,
      "van": 1907,
      "Ġonze": 1908,
      "Ġgebe": 1909,
      "Ġchild": 1910,
      "ĠåĽ": 1911,
      "Ġ6": 1912,
      "è·¯": 1913,
      "igh": 1914,
      "åĵĪ": 1915,
      "Ġzit": 1916,
      "etje": 1917,
      "äºĭåĦ¿": 1918,
      "xt": 1919,
      "oint": 1920,
      "Ġturn": 1921,
      "ĠAmer": 1922,
      "Ġstill": 1923,
      "çľ¼": 1924,
      "erk": 1925,
      "åĸľæ¬¢": 1926,
      "Ġachter": 1927,
      "Ġkeer": 1928,
      "kend": 1929,
      "oofd": 1930,
      "å¤§å®¶": 1931,
      "Ġæľī": 1932,
      "Ġlot": 1933,
      "ä¹Łä¸į": 1934,
      "ä¸ļ": 1935,
      "Ġbook": 1936,
      "Ġcalled": 1937,
      "Ġå¥½": 1938,
      "Ġverk": 1939,
      "Ġres": 1940,
      "Ġpres": 1941,
      "ib": 1942,
      "åĴ±": 1943,
      "IS": 1944,
      "kÃ©": 1945,
      "Ġfound": 1946,
      "Ġaltijd": 1947,
      "Ġreg": 1948,
      "She": 1949,
      "uren": 1950,
      "Ġalle": 1951,
      "Ġelkaar": 1952,
      "ail": 1953,
      "Goed": 1954,
      "Ġplaat": 1955,
      "ç®Ĺ": 1956,
      "Ġzeggen": 1957,
      "ister": 1958,
      "Ġrec": 1959,
      "Ġhuis": 1960,
      "Ġgreat": 1961,
      "åıĹ": 1962,
      "les": 1963,
      "åĬł": 1964,
      "Ġiemand": 1965,
      "æ¢": 1966,
      "inden": 1967,
      "ms": 1968,
      "Ġfun": 1969,
      "æľĭ": 1970,
      "ever": 1971,
      "è±": 1972,
      "Ġnum": 1973,
      "ä¸ĩ": 1974,
      "aughs": 1975,
      "$$": 1976,
      "æĹ¶éĹ´": 1977,
      "ww": 1978,
      "Ġdone": 1979,
      "Ġcr": 1980,
      "ĠÂ·": 1981,
      "They": 1982,
      "ĠIk": 1983,
      "pe": 1984,
      "Daar": 1985,
      "Ġ18": 1986,
      "ĠWe": 1987,
      "Ġzie": 1988,
      "ually": 1989,
      "ates": 1990,
      "ĠEen": 1991,
      "ç³»": 1992,
      "è®¤": 1993,
      "å¦Īå¦Ī": 1994,
      "æĭ¿": 1995,
      "Ġred": 1996,
      "ars": 1997,
      "æľĭåıĭ": 1998,
      "éĢī": 1999,
      "Ġboy": 2000,
      "Ġweten": 2001,
      "è®°": 2002,
      "ents": 2003,
      "å¸®": 2004,
      "Ġgeh": 2005,
      "ederland": 2006,
      "Ġdoe": 2007,
      "ç¡®": 2008,
      "Ġwaren": 2009,
      "åĺĽ": 2010,
      "äºĨä¸Ģ": 2011,
      "Ġvast": 2012,
      "ĠEng": 2013,
      "Ġtoen": 2014,
      "ä¿Ŀ": 2015,
      "ucht": 2016,
      "ody": 2017,
      "ĠSch": 2018,
      "gende": 2019,
      "ĠAl": 2020,
      "ĠAn": 2021,
      "è¡¨": 2022,
      "Ġhal": 2023,
      "ange": 2024,
      "emaal": 2025,
      "ä¹Łæĺ¯": 2026,
      "é¸": 2027,
      "wij": 2028,
      "ical": 2029,
      "oeg": 2030,
      "Jij": 2031,
      "Ġåľ¨": 2032,
      "Ġdood": 2033,
      "Ġdiff": 2034,
      "Ġgewoon": 2035,
      "Ġfr": 2036,
      "ude": 2037,
      "ç®¡": 2038,
      "Ġlaten": 2039,
      "Ġdus": 2040,
      "å£°": 2041,
      "Ġdes": 2042,
      "ä»¶": 2043,
      "åı¯æĺ¯": 2044,
      "æĳ": 2045,
      "Ġkinder": 2046,
      "oy": 2047,
      "äºĭæĥħ": 2048,
      "Ġeerste": 2049,
      "åħ¶å®ŀ": 2050,
      "eds": 2051,
      "imes": 2052,
      "å²": 2053,
      "Ġzegt": 2054,
      "GMA": 2055,
      "çĽ®": 2056,
      "æĹ©": 2057,
      "Ġbetter": 2058,
      "åĮĸ": 2059,
      "outh": 2060,
      "Ġmon": 2061,
      "Ġshow": 2062,
      "Ġaut": 2063,
      "elijke": 2064,
      "æĬ¥": 2065,
      "Ġproble": 2066,
      "ä¸İ": 2067,
      "ĠThey": 2068,
      "Ġbinnen": 2069,
      "Ġerm": 2070,
      "port": 2071,
      "åº¦": 2072,
      "Ġnee": 2073,
      "æĪĺ": 2074,
      "Ġvragen": 2075,
      "å¤Ħ": 2076,
      "Ġmoeder": 2077,
      "ĠNederland": 2078,
      "Ġisn": 2079,
      "Ġsamen": 2080,
      "è¯ī": 2081,
      "Ġhard": 2082,
      "åĳ½": 2083,
      "ple": 2084,
      "ubl": 2085,
      "isch": 2086,
      "atter": 2087,
      "æľĽ": 2088,
      "ope": 2089,
      "uiten": 2090,
      "Ġname": 2091,
      "Ġnight": 2092,
      "åĳĺ": 2093,
      "Ġniets": 2094,
      "ä½ķ": 2095,
      "Ġgroot": 2096,
      "amer": 2097,
      "Ġfeel": 2098,
      "ĠGod": 2099,
      "Ġgrote": 2100,
      "Ġown": 2101,
      "eter": 2102,
      "ä»ĸçļĦ": 2103,
      "ster": 2104,
      "Ġinform": 2105,
      "ä¸Ģèµ·": 2106,
      "so": 2107,
      "åİŁ": 2108,
      "å¼ł": 2109,
      "æĴ": 2110,
      "Ġnou": 2111,
      "Ġwij": 2112,
      "Die": 2113,
      "åıį": 2114,
      "çĶ·": 2115,
      "ç¦»": 2116,
      "ĠBe": 2117,
      "oney": 2118,
      "mhm": 2119,
      "çŃĶ": 2120,
      "æĢ§": 2121,
      "åĶ": 2122,
      "éĵ": 2123,
      "ullen": 2124,
      "Ġlig": 2125,
      "éĩĳ": 2126,
      "æıĲ": 2127,
      "Ġhappen": 2128,
      "åĩºæĿ¥": 2129,
      "dracht": 2130,
      "aard": 2131,
      "Ġlea": 2132,
      "çª": 2133,
      "Ġ7": 2134,
      "ieve": 2135,
      "Heb": 2136,
      "Ġzoals": 2137,
      "cent": 2138,
      "Ġrest": 2139,
      "Ġbeing": 2140,
      "Ġplace": 2141,
      "Ġfriend": 2142,
      "There": 2143,
      "Ġdra": 2144,
      "ĠAnd": 2145,
      "éĤ£ä¹Ī": 2146,
      "Ġvraag": 2147,
      "vl": 2148,
      "ä¸ŃåĽ½": 2149,
      "Ġdrie": 2150,
      "çļĦè¯Ŀ": 2151,
      "ift": 2152,
      "æ°ĳ": 2153,
      "çĲĥ": 2154,
      "æ¸ħ": 2155,
      "org": 2156,
      "Ġpap": 2157,
      "This": 2158,
      "Mijn": 2159,
      "ama": 2160,
      "æĻļ": 2161,
      "Ġfil": 2162,
      "ç»ĻæĪĳ": 2163,
      "oet": 2164,
      "Ġnice": 2165,
      "Ġcount": 2166,
      "mon": 2167,
      "Ġbev": 2168,
      "Ġmeest": 2169,
      "Ġbus": 2170,
      "Ġå¯": 2171,
      "Ġgirl": 2172,
      "éĩı": 2173,
      "ĠEn": 2174,
      "Ġatt": 2175,
      "Ġgeld": 2176,
      "åħī": 2177,
      ".]": 2178,
      "Ġru": 2179,
      "çļĦæĺ¯": 2180,
      "Ġweek": 2181,
      "Ġä¸Ģ": 2182,
      "this": 2183,
      "ereen": 2184,
      "Ġmost": 2185,
      "oos": 2186,
      "æµ·": 2187,
      "Ġä½Ĩæĺ¯": 2188,
      "Ġaround": 2189,
      "EN": 2190,
      "ĠHij": 2191,
      "side": 2192,
      "Ġtry": 2193,
      "arn": 2194,
      "Ġfin": 2195,
      "Ġvader": 2196,
      "body": 2197,
      "åĨħ": 2198,
      "Ġcol": 2199,
      "ves": 2200,
      "è¶Ĭ": 2201,
      "Ġsit": 2202,
      "ä¸ºä»Ģä¹Ī": 2203,
      "ial": 2204,
      "stof": 2205,
      "ä¸ĸ": 2206,
      "å½±": 2207,
      "Ġju": 2208,
      "ĠAls": 2209,
      "rijf": 2210,
      "isten": 2211,
      "å¢": 2212,
      "æ®": 2213,
      "éŁ": 2214,
      "Ġsays": 2215,
      "æ£": 2216,
      "åħ¥": 2217,
      "ĠEr": 2218,
      "ç¥ŀ": 2219,
      "çħ": 2220,
      "ways": 2221,
      "å§ĭ": 2222,
      "æ¡Ī": 2223,
      "oten": 2224,
      "emen": 2225,
      "åħ«": 2226,
      "Ġallemaal": 2227,
      "Ġå°ı": 2228,
      "uwe": 2229,
      "Ġlater": 2230,
      "æĲ": 2231,
      "çĪ·": 2232,
      "Ġrun": 2233,
      "ä¸įä¼ļ": 2234,
      "Ġdoet": 2235,
      "room": 2236,
      "erg": 2237,
      "æľį": 2238,
      "On": 2239,
      "Ġsuch": 2240,
      "ps": 2241,
      "çı": 2242,
      "äº¤": 2243,
      "èµ·æĿ¥": 2244,
      "eerd": 2245,
      "é£İ": 2246,
      "Ġstaan": 2247,
      "åĳĬè¯ī": 2248,
      "ta": 2249,
      "Ġzitten": 2250,
      "ĠFr": 2251,
      "éĹ®é¢ĺ": 2252,
      "Ġkeep": 2253,
      "Ġå¦Ĥ": 2254,
      "ĠæīĢä»¥": 2255,
      "Ġend": 2256,
      "æĢķ": 2257,
      "apt": 2258,
      "ç¼": 2259,
      "Ġå°±æĺ¯": 2260,
      "addy": 2261,
      "ooi": 2262,
      "è£": 2263,
      "æĪĳå°±": 2264,
      "Ġplan": 2265,
      "Ġ8": 2266,
      "med": 2267,
      "æķħ": 2268,
      "ĠWh": 2269,
      "ä¸ľè¥¿": 2270,
      "æĪ¿": 2271,
      "aart": 2272,
      "Ġpar": 2273,
      "ç±": 2274,
      "ited": 2275,
      "Ġkinderen": 2276,
      "If": 2277,
      "Ġtussen": 2278,
      "Ġfour": 2279,
      "Ġmoment": 2280,
      "hes": 2281,
      "pro": 2282,
      "Ġyears": 2283,
      "Ġzij": 2284,
      "Ġied": 2285,
      "20": 2286,
      "Ġokay": 2287,
      "Ġerg": 2288,
      "Ġfiguur": 2289,
      "ĠçĦ¶åĲİ": 2290,
      "oeken": 2291,
      "rist": 2292,
      "Ġgre": 2293,
      "ream": 2294,
      "anden": 2295,
      "æľŁ": 2296,
      "now": 2297,
      "åºĶè¯¥": 2298,
      "Ġ10": 2299,
      "oes": 2300,
      "å¾Īå¤ļ": 2301,
      "Ġelse": 2302,
      "Ġmed": 2303,
      "ä»£": 2304,
      "æĿ¡": 2305,
      "Ġused": 2306,
      "mp": 2307,
      "Ġå¯¹": 2308,
      "Ġmar": 2309,
      "æķĻ": 2310,
      "Ġgedaan": 2311,
      "ijt": 2312,
      "Ġsnel": 2313,
      "Ġvolgende": 2314,
      "Ġlove": 2315,
      "Ġcour": 2316,
      "å¥½çļĦ": 2317,
      "Ġsame": 2318,
      "ash": 2319,
      "Wie": 2320,
      "ä½łè¯´": 2321,
      "Ġuw": 2322,
      "Ġnaam": 2323,
      "not": 2324,
      "Niet": 2325,
      "èİ": 2326,
      "èī²": 2327,
      "çĪ¶": 2328,
      "é£ŀ": 2329,
      "åĳĥ": 2330,
      "put": 2331,
      "Ġwhy": 2332,
      "Ġrel": 2333,
      "ition": 2334,
      "aad": 2335,
      "kel": 2336,
      "ĠSp": 2337,
      "kom": 2338,
      "laughs": 2339,
      "Ġlife": 2340,
      "äº§": 2341,
      "Ġco": 2342,
      "000": 2343,
      "maal": 2344,
      "Ġè¿Ļä¸ª": 2345,
      "æ¥": 2346,
      "Ġhalf": 2347,
      "Ġdog": 2348,
      "Ġhoofd": 2349,
      "oman": 2350,
      "è®²": 2351,
      "ations": 2352,
      "uister": 2353,
      "Ġä½łä»¬": 2354,
      "æķ°": 2355,
      "å¤Ł": 2356,
      "å»": 2357,
      "è¿ĳ": 2358,
      "Ġpolit": 2359,
      "Ġac": 2360,
      "iel": 2361,
      "zoek": 2362,
      "ower": 2363,
      "EA": 2364,
      "ced": 2365,
      "Voor": 2366,
      "Ġyeah": 2367,
      "alt": 2368,
      "ä¸Ģæł·": 2369,
      "Ġten": 2370,
      "å¼Ł": 2371,
      "äººçļĦ": 2372,
      "ese": 2373,
      "Ġbesch": 2374,
      "its": 2375,
      "ä¹Ĳ": 2376,
      "ident": 2377,
      "è¿ľ": 2378,
      "ä¸Ķ": 2379,
      "Ġsche": 2380,
      "ç©º": 2381,
      "Ġgone": 2382,
      "Ġging": 2383,
      "\".": 2384,
      "ĠAf": 2385,
      "Op": 2386,
      "eng": 2387,
      "How": 2388,
      "Ġsy": 2389,
      "led": 2390,
      "çİ©": 2391,
      "ruk": 2392,
      "æ±Ĥ": 2393,
      ",'": 2394,
      "ett": 2395,
      "ird": 2396,
      "Laat": 2397,
      "SIS": 2398,
      "åºķ": 2399,
      "ä»¥åĲİ": 2400,
      "Ġleft": 2401,
      "Ġdoesn": 2402,
      "vo": 2403,
      "Ġvinden": 2404,
      "vis": 2405,
      "ny": 2406,
      "ä¹¦": 2407,
      "Ġcent": 2408,
      ".'": 2409,
      "door": 2410,
      "Ġroom": 2411,
      "),": 2412,
      "è·ĳ": 2413,
      "res": 2414,
      "Ġpop": 2415,
      "Ġcle": 2416,
      "they": 2417,
      "Zo": 2418,
      "vent": 2419,
      "cy": 2420,
      "Ġcat": 2421,
      "èĩªå·±çļĦ": 2422,
      "Ġuse": 2423,
      "Ġalways": 2424,
      "ence": 2425,
      "ium": 2426,
      "she": 2427,
      "ters": 2428,
      "OkÃ©": 2429,
      "PAR": 2430,
      "Ġball": 2431,
      "ĠåĴ": 2432,
      "éĢģ": 2433,
      "mm": 2434,
      "ĠBut": 2435,
      "eb": 2436,
      "åħŃ": 2437,
      "Ġvriend": 2438,
      "aas": 2439,
      "ĠOp": 2440,
      "Ġwillen": 2441,
      "Ġsk": 2442,
      "ctor": 2443,
      "Ġwind": 2444,
      "åı¸": 2445,
      "bs": 2446,
      "Ġwhile": 2447,
      "Ġanders": 2448,
      "åŁİ": 2449,
      "Ġwie": 2450,
      "æŀĹ": 2451,
      "ican": 2452,
      "ince": 2453,
      "erm": 2454,
      "ron": 2455,
      "åĩĨ": 2456,
      "Ġcons": 2457,
      "aught": 2458,
      "æĮº": 2459,
      "arly": 2460,
      "Ġprodu": 2461,
      "Ġå¦Ĥæŀľ": 2462,
      "uff": 2463,
      "çĹħ": 2464,
      "è¿ĻäºĽ": 2465,
      "ä¸¤ä¸ª": 2466,
      "æľīä¸Ģ": 2467,
      "Ġsur": 2468,
      "ames": 2469,
      "èĢĥ": 2470,
      "don": 2471,
      "Ġph": 2472,
      "aring": 2473,
      "å¾Ģ": 2474,
      "æł¹": 2475,
      "ĠFran": 2476,
      "Ġanything": 2477,
      "å¨ĺ": 2478,
      "ĠSh": 2479,
      "Ġwereld": 2480,
      "ern": 2481,
      "Ġtold": 2482,
      "Ġstra": 2483,
      "ush": 2484,
      "å¸Ĥ": 2485,
      "è°¢è°¢": 2486,
      "ots": 2487,
      "Ġverh": 2488,
      "æĶ¶": 2489,
      "Ġomdat": 2490,
      "ĠLe": 2491,
      "Ġstand": 2492,
      "ject": 2493,
      "Ġgemaakt": 2494,
      "Kijk": 2495,
      "Ġacc": 2496,
      "Ġnext": 2497,
      "ĠèĢĮ": 2498,
      "Ġsure": 2499,
      "Ġlie": 2500,
      "Ġjouw": 2501,
      "omm": 2502,
      "eek": 2503,
      "ç»Ļä½ł": 2504,
      "å¼Ģå§ĭ": 2505,
      "å¼º": 2506,
      "è®¡": 2507,
      "Ġsteeds": 2508,
      "reek": 2509,
      "çº¢": 2510,
      "éĿŀå¸¸": 2511,
      "gest": 2512,
      "uss": 2513,
      "Ġrecht": 2514,
      "é¼": 2515,
      "Dan": 2516,
      "ereken": 2517,
      "è¿Ļæĺ¯": 2518,
      "Mm": 2519,
      "Ġliv": 2520,
      "çī¹åĪ«": 2521,
      "assen": 2522,
      "éĻ¢": 2523,
      "Ġantwoord": 2524,
      "Ġja": 2525,
      "Ġsaw": 2526,
      "çĬ": 2527,
      "åĪ©": 2528,
      "Ġve": 2529,
      "çĨ": 2530,
      "ä¾¿": 2531,
      "ged": 2532,
      "zo": 2533,
      "geb": 2534,
      "ä¹°": 2535,
      "çĶ±": 2536,
      "ä¼ł": 2537,
      "Ġsupp": 2538,
      "æļ": 2539,
      "ç«ĭ": 2540,
      "åĲĦ": 2541,
      "ork": 2542,
      "åĪ¶": 2543,
      "Ġvrij": 2544,
      "Ġåĵİ": 2545,
      "Ġcoming": 2546,
      "è·ŁæĪĳ": 2547,
      "Ġleuk": 2548,
      "Ġperson": 2549,
      "ĠAr": 2550,
      "é¥Ń": 2551,
      "å©ļ": 2552,
      "Ġleg": 2553,
      "å¥½äºĨ": 2554,
      "ä¿©": 2555,
      "Ġtru": 2556,
      "åľ¨è¿Ļ": 2557,
      "å®³": 2558,
      "eth": 2559,
      "Ġform": 2560,
      "aps": 2561,
      "çķĻ": 2562,
      "æ¼Ķ": 2563,
      "Ġnieuwe": 2564,
      "ased": 2565,
      "Ġontst": 2566,
      "ç´§": 2567,
      "Ġinformatie": 2568,
      "Ġind": 2569,
      "ä¹Ŀ": 2570,
      "å¤§çļĦ": 2571,
      "ç¬ĳ": 2572,
      "Ġtre": 2573,
      "éľĢ": 2574,
      "Ġbad": 2575,
      "æģ¯": 2576,
      "ween": 2577,
      "Ġfather": 2578,
      "ows": 2579,
      "Ġwilde": 2580,
      "Ġplaats": 2581,
      "å·¥ä½ľ": 2582,
      "åİ»äºĨ": 2583,
      "Al": 2584,
      "ä¸įè¦ģ": 2585,
      "Ch": 2586,
      "ä¸įçŁ¥éģĵ": 2587,
      "Ġmoest": 2588,
      "ield": 2589,
      "ä¸ºäºĨ": 2590,
      "oun": 2591,
      "ĠQ": 2592,
      "Ġverschill": 2593,
      "çļĦä¸Ģ": 2594,
      "åĮĹ": 2595,
      "az": 2596,
      "Ġvis": 2597,
      "nee": 2598,
      "erent": 2599,
      "ĠDat": 2600,
      "Ġmother": 2601,
      "akken": 2602,
      "ling": 2603,
      "çķĮ": 2604,
      "Ġ199": 2605,
      "è¿ŀ": 2606,
      "ijkt": 2607,
      "åıĳçİ°": 2608,
      "Ġplease": 2609,
      "çľĭçľĭ": 2610,
      "who": 2611,
      "åĨ³": 2612,
      "Ġeten": 2613,
      "çħ§": 2614,
      "æµģ": 2615,
      "Ġtrain": 2616,
      "å®Ŀ": 2617,
      "Ġdec": 2618,
      "ĠAll": 2619,
      "å¤ĩ": 2620,
      "Ġhoor": 2621,
      "Ġ9": 2622,
      "Ġä¹Ł": 2623,
      "å¿ħ": 2624,
      "ĠGr": 2625,
      "ĠâĢ": 2626,
      "Ġeyes": 2627,
      "ĠIs": 2628,
      "Ġlight": 2629,
      "Ġkrijgen": 2630,
      "å¤±": 2631,
      "die": 2632,
      "Ġbeter": 2633,
      "Ġoor": 2634,
      "ness": 2635,
      "eling": 2636,
      "Ġyes": 2637,
      "Ġdeel": 2638,
      "aur": 2639,
      "Ġwacht": 2640,
      "ai": 2641,
      "Ġcare": 2642,
      "go": 2643,
      "Ġkill": 2644,
      "Geef": 2645,
      "Ġdacht": 2646,
      "Ġverb": 2647,
      "AD": 2648,
      "è¿Ļç§į": 2649,
      "Weet": 2650,
      "\",": 2651,
      "fect": 2652,
      "komen": 2653,
      "æį®": 2654,
      "atuurlijk": 2655,
      "Ġmeis": 2656,
      "Ġquite": 2657,
      "Ġbelang": 2658,
      "Ġsw": 2659,
      "olog": 2660,
      "Why": 2661,
      "Ġplant": 2662,
      "çģ«": 2663,
      "ton": 2664,
      "èĬĤ": 2665,
      "é¡¹": 2666,
      "Ġpass": 2667,
      "æĦıæĢĿ": 2668,
      "Ġkijken": 2669,
      "Ġmaak": 2670,
      "ider": 2671,
      "Ã¨": 2672,
      "ĠWat": 2673,
      "ĠThis": 2674,
      "ids": 2675,
      "ä¸ĢçĤ¹": 2676,
      "Ġfew": 2677,
      "Ġreal": 2678,
      "Ġuur": 2679,
      "bab": 2680,
      "Ġround": 2681,
      "Ġsound": 2682,
      "ung": 2683,
      "ouden": 2684,
      "Ġcomm": 2685,
      "ä¸ĥ": 2686,
      "Ġhaven": 2687,
      "how": 2688,
      "ä¸ĢçĽ´": 2689,
      "åĸĿ": 2690,
      "ross": 2691,
      "Ġenough": 2692,
      "Ġlooks": 2693,
      "part": 2694,
      "è®¸": 2695,
      "èĽ": 2696,
      "çĿ¡": 2697,
      "iding": 2698,
      "iteit": 2699,
      "Ġmaakt": 2700,
      "Ġè¦ģ": 2701,
      "Ġwait": 2702,
      "Ġread": 2703,
      "ĠInd": 2704,
      "Ġsleep": 2705,
      "ĠDit": 2706,
      "åįĥ": 2707,
      "åı·": 2708,
      "Ġfar": 2709,
      "Ġret": 2710,
      "Ġtop": 2711,
      "ĠNew": 2712,
      "Ġever": 2713,
      "etten": 2714,
      "uring": 2715,
      "è¯ģ": 2716,
      "Ġair": 2717,
      "Ġseen": 2718,
      "Ġzeker": 2719,
      "ational": 2720,
      "Wil": 2721,
      "Ġsmall": 2722,
      "ĠåĽł": 2723,
      "Ġthough": 2724,
      "Ġface": 2725,
      "ieft": 2726,
      "Ġunt": 2727,
      "ump": 2728,
      "çĶŁæ´»": 2729,
      "åĴ±ä»¬": 2730,
      "Ġem": 2731,
      "æķ´": 2732,
      "èµĦ": 2733,
      "aald": 2734,
      "any": 2735,
      "æŁ¥": 2736,
      "Ġå½": 2737,
      "Ġpoint": 2738,
      "æĪĸ": 2739,
      "Ġeerst": 2740,
      "ished": 2741,
      "Ġpie": 2742,
      "Ġ15": 2743,
      "å®¹": 2744,
      "Ġdist": 2745,
      "ĠBij": 2746,
      "é¾": 2747,
      "äº®": 2748,
      "iks": 2749,
      "èĢģå¸Ī": 2750,
      "Hier": 2751,
      "Ġfive": 2752,
      "Ġsix": 2753,
      "Ġkwam": 2754,
      "Ġziet": 2755,
      "çľĭåĪ°": 2756,
      "Ġgeven": 2757,
      "åħ³ç³»": 2758,
      "omas": 2759,
      "åĮħ": 2760,
      "Ġvier": 2761,
      "Ġverm": 2762,
      "Ġsecond": 2763,
      "å¤«": 2764,
      "èµ¶": 2765,
      "Ġgest": 2766,
      "elde": 2767,
      "Be": 2768,
      "Don": 2769,
      "TEA": 2770,
      "ĠWhat": 2771,
      "Ġmiss": 2772,
      "ivers": 2773,
      "Ġpaar": 2774,
      "Now": 2775,
      "åįķ": 2776,
      "cle": 2777,
      "Ġtek": 2778,
      "Ġaant": 2779,
      "roeg": 2780,
      "åĿĹ": 2781,
      "Ã¯": 2782,
      "è½»": 2783,
      "Ġgezien": 2784,
      "ä¸įå¥½": 2785,
      "Ġwalk": 2786,
      "ica": 2787,
      "æ¶Ī": 2788,
      "Ġcir": 2789,
      "èµ°äºĨ": 2790,
      "Wel": 2791,
      "æħ¢": 2792,
      "why": 2793,
      "anneer": 2794,
      "åŃĹ": 2795,
      "ĠVoor": 2796,
      "orning": 2797,
      "att": 2798,
      "orth": 2799,
      "èı": 2800,
      "Ġmoney": 2801,
      "aut": 2802,
      "Ġstad": 2803,
      "ract": 2804,
      "åķ¦": 2805,
      "Ben": 2806,
      "ĠæĢİä¹Ī": 2807,
      "Ġopdracht": 2808,
      "gaan": 2809,
      "è¯Ĩ": 2810,
      "Ġing": 2811,
      "Ġgoede": 2812,
      "Ġint": 2813,
      "Ġtook": 2814,
      "Ġknown": 2815,
      "å¹¶": 2816,
      "åįĹ": 2817,
      "ĠThere": 2818,
      "æł¼": 2819,
      "æ»¡": 2820,
      "èĮ": 2821,
      "co": 2822,
      "Ġpret": 2823,
      "Ġdifferent": 2824,
      "Dus": 2825,
      "Ġåį": 2826,
      "baar": 2827,
      "Ġbuiten": 2828,
      "ley": 2829,
      "cies": 2830,
      "Do": 2831,
      "èħ": 2832,
      "Ġsort": 2833,
      "aden": 2834,
      "Ġwilt": 2835,
      "åı¥": 2836,
      "Ġstud": 2837,
      "gegeven": 2838,
      "ulp": 2839,
      "æĮĩ": 2840,
      "tje": 2841,
      "Ġtele": 2842,
      "ä¸Ģæ¬¡": 2843,
      "aster": 2844,
      "åĬ¡": 2845,
      "erde": 2846,
      "ĠEur": 2847,
      "Ġworld": 2848,
      "Ġdrink": 2849,
      "Ġnat": 2850,
      "Ġtoget": 2851,
      "Ġbez": 2852,
      "Ġtri": 2853,
      "ä¹ĭåĲİ": 2854,
      "Ġsorry": 2855,
      "ä½¿": 2856,
      "åĮ»": 2857,
      "Ġtogether": 2858,
      "wo": 2859,
      "Ġuntil": 2860,
      "Ġhouden": 2861,
      "19": 2862,
      "ĠæĤ¨": 2863,
      "wat": 2864,
      "Ġside": 2865,
      "eeft": 2866,
      "Ġlar": 2867,
      "åħ´": 2868,
      "ĠDeze": 2869,
      "ips": 2870,
      "æĿ¥çļĦ": 2871,
      "Ġgoes": 2872,
      "Let": 2873,
      "Nu": 2874,
      "ĠOn": 2875,
      "åħ±": 2876,
      "æĿĢ": 2877,
      "Ġhelemaal": 2878,
      "Ġvand": 2879,
      "æĺŁ": 2880,
      "ĠDaar": 2881,
      "Okay": 2882,
      "åĳ¨": 2883,
      "æĭľ": 2884,
      "ye": 2885,
      "Ġsing": 2886,
      "Ġå¥¹": 2887,
      "Ġbetween": 2888,
      "é»Ħ": 2889,
      "Ġbelangrijk": 2890,
      "Ġhot": 2891,
      "ĠåĽłä¸º": 2892,
      "isschien": 2893,
      "åĿĲ": 2894,
      "Ġeach": 2895,
      "ustr": 2896,
      "ept": 2897,
      "Ġgewe": 2898,
      "æĺĵ": 2899,
      "Ġremember": 2900,
      "å¦Ĥæŀľ": 2901,
      "ä¼¤": 2902,
      "æĮģ": 2903,
      "ĠHoe": 2904,
      "èĩ³": 2905,
      "Ġhold": 2906,
      "æĺ¯ä¸įæĺ¯": 2907,
      "Ġhear": 2908,
      "Ġnothing": 2909,
      "ole": 2910,
      "Ġverschillende": 2911,
      "Ġ0": 2912,
      "Ġlooking": 2913,
      "ç«Ļ": 2914,
      "zelfde": 2915,
      "Ġke": 2916,
      "log": 2917,
      "æ¯į": 2918,
      "Ġverand": 2919,
      "fta": 2920,
      "Ġå¤§": 2921,
      "ĠâĢ¢": 2922,
      "Ġafbeeld": 2923,
      "chten": 2924,
      "rag": 2925,
      "Ġext": 2926,
      "å»º": 2927,
      "éŁ³": 2928,
      "uld": 2929,
      "Ġhor": 2930,
      "Ġspr": 2931,
      "è½¬": 2932,
      "cial": 2933,
      "è±¡": 2934,
      "Ġdri": 2935,
      "ics": 2936,
      "ating": 2937,
      "Ġstay": 2938,
      "Ġdingen": 2939,
      "æĭī": 2940,
      "èĤ¯": 2941,
      "cept": 2942,
      "Ġfoot": 2943,
      "Ġblijven": 2944,
      "waar": 2945,
      "Ġgebruikt": 2946,
      "ĠåĨ": 2947,
      "unten": 2948,
      "Ġcourse": 2949,
      "Ġboth": 2950,
      "Ġè¿ĺ": 2951,
      "Ġdire": 2952,
      "ollow": 2953,
      "use": 2954,
      "Ġfire": 2955,
      "éľĢè¦ģ": 2956,
      "Ġmorning": 2957,
      "çīĩ": 2958,
      "arr": 2959,
      "éĽ¶": 2960,
      "Ġyet": 2961,
      "une": 2962,
      "ohn": 2963,
      "Ġkleine": 2964,
      "Ġboven": 2965,
      "åįĬ": 2966,
      "Ġart": 2967,
      "Ġä½Ĩ": 2968,
      "Ġden": 2969,
      "è®©æĪĳ": 2970,
      "éħĴ": 2971,
      "ible": 2972,
      "ual": 2973,
      "ç¢": 2974,
      "ç¨ĭ": 2975,
      "Ġnam": 2976,
      "Ġinst": 2977,
      "Ġhelpen": 2978,
      "æĢ¥": 2979,
      "Ġass": 2980,
      "son": 2981,
      "æĶ¿": 2982,
      "Om": 2983,
      "ijs": 2984,
      "Ġbec": 2985,
      "Ġeind": 2986,
      "OU": 2987,
      "Ġbep": 2988,
      "Ġwaarom": 2989,
      "Ġçİ°åľ¨": 2990,
      "ages": 2991,
      "æłĳ": 2992,
      "çĪ¸çĪ¸": 2993,
      "Sorry": 2994,
      "Ġlaatste": 2995,
      "äºĨæĪĳ": 2996,
      "allo": 2997,
      "çº¿": 2998,
      "ane": 2999,
      "å¯¼": 3000,
      "angen": 3001,
      "Ġverg": 3002,
      "ape": 3003,
      "Ġlief": 3004,
      "åĨµ": 3005,
      "åĵģ": 3006,
      "Ġtekst": 3007,
      "åĵİ": 3008,
      "èµĽ": 3009,
      "auw": 3010,
      "Ġjongen": 3011,
      "Ġcut": 3012,
      "ç½ĳ": 3013,
      "Ġå½ĵ": 3014,
      "Ġzonder": 3015,
      "è¿Ĳ": 3016,
      "Ġgesch": 3017,
      "æº": 3018,
      "Come": 3019,
      "ellow": 3020,
      "Ġhafta": 3021,
      "Ġauto": 3022,
      "CD": 3023,
      "ction": 3024,
      "ures": 3025,
      "Ġklaar": 3026,
      "Ġkant": 3027,
      "ax": 3028,
      "Ġgetting": 3029,
      "åľ°æĸ¹": 3030,
      "æĶ¹": 3031,
      "Ġster": 3032,
      "Ġtoday": 3033,
      "éĩĮéĿ¢": 3034,
      "ĠMaar": 3035,
      "Ġreact": 3036,
      "Ver": 3037,
      "ijdens": 3038,
      "éĿĴ": 3039,
      "Ġdoll": 3040,
      "äºĨåĲĹ": 3041,
      "ks": 3042,
      "Ġligt": 3043,
      "Ġbox": 3044,
      "ĠMe": 3045,
      "Ġnumber": 3046,
      "è¾ĥ": 3047,
      "é»ĳ": 3048,
      "Ġniks": 3049,
      "Ġpresent": 3050,
      "ç¿": 3051,
      "åĽŀæĿ¥": 3052,
      "Ġchildren": 3053,
      "ries": 3054,
      "ress": 3055,
      "Ġgeeft": 3056,
      "Ġmoe": 3057,
      "Ġæ²¡": 3058,
      "apen": 3059,
      "Bl": 3060,
      "Ġwonder": 3061,
      "æķĳ": 3062,
      "ball": 3063,
      "Ġgraf": 3064,
      "Ġasked": 3065,
      "åı°": 3066,
      "æĦŁè§ī": 3067,
      "vie": 3068,
      "æ·±": 3069,
      "gan": 3070,
      "val": 3071,
      "ĠNo": 3072,
      "Ġcoll": 3073,
      "Ġè¿Ļæĺ¯": 3074,
      "è¦ģæĺ¯": 3075,
      "æĦ¿": 3076,
      "Hey": 3077,
      "Ġhigh": 3078,
      "Ġbedoel": 3079,
      "Ġåıª": 3080,
      "Ġdisc": 3081,
      "did": 3082,
      "Ġzullen": 3083,
      "è¨": 3084,
      "Ġbeetje": 3085,
      "éļı": 3086,
      "Ġset": 3087,
      "Ġuh": 3088,
      "Ġhoeveel": 3089,
      "osed": 3090,
      "ankt": 3091,
      "Ġleave": 3092,
      "Ġletter": 3093,
      "ui": 3094,
      "æķ¢": 3095,
      "oemen": 3096,
      "Ġmove": 3097,
      "ç§ĳ": 3098,
      "Ġiedereen": 3099,
      "è§Ĩ": 3100,
      "è¨Ģ": 3101,
      "Ġsign": 3102,
      "Ġwanted": 3103,
      "æ³¨": 3104,
      "Ġmus": 3105,
      "Ġgener": 3106,
      "åĨĻ": 3107,
      "ient": 3108,
      "ony": 3109,
      "æĪĳè§īå¾Ĺ": 3110,
      "å¦¹": 3111,
      "Ġmisschien": 3112,
      "Ġgenoeg": 3113,
      "ede": 3114,
      "æ®µ": 3115,
      "Hou": 3116,
      "æĩ": 3117,
      "fl": 3118,
      "enen": 3119,
      "å¿Ļ": 3120,
      "æīĢæľī": 3121,
      "ped": 3122,
      "Ġbang": 3123,
      "Ġåķ": 3124,
      "ç²¾": 3125,
      "Ġverder": 3126,
      "Ġken": 3127,
      "ator": 3128,
      "æ¢¦": 3129,
      "het": 3130,
      "åħĦ": 3131,
      "ats": 3132,
      "Ġbur": 3133,
      "å¥ĩ": 3134,
      "huh": 3135,
      "Nou": 3136,
      "å¾ħ": 3137,
      "Ġhoog": 3138,
      "Ġwelke": 3139,
      "Ġnieuw": 3140,
      "æĪĳæĺ¯": 3141,
      "å±ķ": 3142,
      "ement": 3143,
      "Ġwoman": 3144,
      "å¥¶": 3145,
      "mber": 3146,
      "ĠåĴ±": 3147,
      "Misschien": 3148,
      "Ġgelijk": 3149,
      "è¯ķ": 3150,
      "rijven": 3151,
      "ä¸ĭæĿ¥": 3152,
      "è°ĥ": 3153,
      "ific": 3154,
      "NAN": 3155,
      "ĮæľĽ": 3156,
      "Ġgegeven": 3157,
      "ĠHier": 3158,
      "Ġhands": 3159,
      "Ġheard": 3160,
      "Ġgroep": 3161,
      "Ġafbeelding": 3162,
      "Ġheet": 3163,
      "anks": 3164,
      "ä½łå¥½": 3165,
      "è§Ĥ": 3166,
      "Ġpraten": 3167,
      "Ġ198": 3168,
      "Ġlucht": 3169,
      "Ġhaving": 3170,
      "ches": 3171,
      "Ġyoung": 3172,
      "ĠChrist": 3173,
      "FATHER": 3174,
      "èĭ¦": 3175,
      "most": 3176,
      "Ġtalking": 3177,
      "å¼ı": 3178,
      "æ¸¸": 3179,
      "çĥŃ": 3180,
      "elling": 3181,
      "Ġshall": 3182,
      "Ġnear": 3183,
      "ched": 3184,
      "Ġgebeur": 3185,
      "ä¹ī": 3186,
      "ired": 3187,
      "Ġdro": 3188,
      "Ġstuk": 3189,
      "ctie": 3190,
      "wel": 3191,
      "è¾¾": 3192,
      "Le": 3193,
      "ason": 3194,
      "uc": 3195,
      "Ġcur": 3196,
      "åıĸ": 3197,
      "æľ¯": 3198,
      "Ġgeweest": 3199,
      "Ġknew": 3200,
      "çŀ": 3201,
      "Ġelke": 3202,
      "Ġwatch": 3203,
      "woorden": 3204,
      "rew": 3205,
      "è®º": 3206,
      "anger": 3207,
      "åĢĴ": 3208,
      "çļĦå°ı": 3209,
      "Ġvaak": 3210,
      "iter": 3211,
      "Ġlooked": 3212,
      "Ġteam": 3213,
      "Ġspijt": 3214,
      "oth": 3215,
      "å¿Ĺ": 3216,
      "oven": 3217,
      "Mr": 3218,
      "Ġå¿": 3219,
      "Ġmidd": 3220,
      "Ġpick": 3221,
      "oit": 3222,
      "æİĴ": 3223,
      "Ġonce": 3224,
      "åĵĪåĵĪ": 3225,
      "mat": 3226,
      "Geen": 3227,
      "Ġhadden": 3228,
      "RO": 3229,
      "ĠRe": 3230,
      "Ġsir": 3231,
      "Ġvoed": 3232,
      "reken": 3233,
      "ĠAs": 3234,
      "Ġå¹": 3235,
      "Ġdear": 3236,
      "Ġdel": 3237,
      "offen": 3238,
      "ä¸ĬçļĦ": 3239,
      "avond": 3240,
      "Ġsoon": 3241,
      "åķĨ": 3242,
      "å®ĺ": 3243,
      "Ġä»ĸä»¬": 3244,
      "Ġslecht": 3245,
      "çıŃ": 3246,
      "Ġmind": 3247,
      "gd": 3248,
      "Ġ12": 3249,
      "net": 3250,
      "Ġè¯´": 3251,
      "Ġwerden": 3252,
      "ared": 3253,
      "Ġalong": 3254,
      "Ġwithout": 3255,
      "werk": 3256,
      "ĠMummy": 3257,
      "Ġkoning": 3258,
      "ĠGe": 3259,
      "åĬŁ": 3260,
      "bed": 3261,
      "Ġty": 3262,
      "å½¢": 3263,
      "aul": 3264,
      "schap": 3265,
      "ants": 3266,
      "å¥½å¥½": 3267,
      "Ġanim": 3268,
      "Ġfamil": 3269,
      "itch": 3270,
      "æŃ¥": 3271,
      "uz": 3272,
      "omme": 3273,
      "ä¸ĸçķĮ": 3274,
      "Ġfollow": 3275,
      "æİī": 3276,
      "Ġaantal": 3277,
      "weg": 3278,
      "Ġmogelijk": 3279,
      "www": 3280,
      "ines": 3281,
      "èĲ½": 3282,
      "Ġum": 3283,
      "ĠGer": 3284,
      "My": 3285,
      "Ġpunt": 3286,
      "Ġwar": 3287,
      "æĢª": 3288,
      "ones": 3289,
      "éº": 3290,
      "Ġfeet": 3291,
      "å²ģ": 3292,
      "Ġvorm": 3293,
      "åĮº": 3294,
      "Ġheen": 3295,
      "Wacht": 3296,
      "ä¹ĭåīį": 3297,
      "ĠBl": 3298,
      "ĠThomas": 3299,
      "voorbeeld": 3300,
      "HÃ©": 3301,
      "Ġwhite": 3302,
      "æŃĮ": 3303,
      "Ġhoud": 3304,
      "çĶ»": 3305,
      "ready": 3306,
      "ĠèĢģ": 3307,
      "abel": 3308,
      "çªģ": 3309,
      "Ġgraag": 3310,
      "Of": 3311,
      "Ġwist": 3312,
      "Ġbreak": 3313,
      "Ġready": 3314,
      "Ġvroeg": 3315,
      "éĺ¿": 3316,
      "Ġob": 3317,
      "ĠWill": 3318,
      "èģĶ": 3319,
      "ĠFrank": 3320,
      "Ġlive": 3321,
      "è¿ĩæĿ¥": 3322,
      "Âł": 3323,
      "Ġ17": 3324,
      "Doe": 3325,
      "Ġincl": 3326,
      "ç»Ī": 3327,
      "Ġfall": 3328,
      "ular": 3329,
      "åĻ": 3330,
      "ison": 3331,
      "èĤ¯å®ļ": 3332,
      "é±": 3333,
      "Ġjuist": 3334,
      "Ġnemen": 3335,
      "Ġneem": 3336,
      "Ġfact": 3337,
      "åķ¥": 3338,
      "inner": 3339,
      "Met": 3340,
      "é±¼": 3341,
      "èĴ": 3342,
      "Ġx": 3343,
      "Ġfood": 3344,
      "ijna": 3345,
      "Ġorgan": 3346,
      "gro": 3347,
      "Ġä½łè¯´": 3348,
      "å¤į": 3349,
      "Not": 3350,
      "weet": 3351,
      "ä¸Ģä¸ªäºº": 3352,
      "Ġexp": 3353,
      "Ġmatter": 3354,
      "airs": 3355,
      "åĽ¢": 3356,
      "ç©¿": 3357,
      "éĺ³": 3358,
      "kken": 3359,
      "Ġoh": 3360,
      "oke": 3361,
      "Dank": 3362,
      "Ġhart": 3363,
      "è¡£": 3364,
      "ule": 3365,
      "æľĢåĲİ": 3366,
      "oto": 3367,
      "ĠUnited": 3368,
      "Ġdays": 3369,
      "oemd": 3370,
      "kker": 3371,
      "ĠåķĬ": 3372,
      "Ġans": 3373,
      "nie": 3374,
      "Ġvertellen": 3375,
      "Ġmeisje": 3376,
      "ities": 3377,
      "äººå®¶": 3378,
      "appy": 3379,
      "aint": 3380,
      "çļĩ": 3381,
      "åĪĩ": 3382,
      "ner": 3383,
      "Ġlijn": 3384,
      "read": 3385,
      "åħļ": 3386,
      "ieden": 3387,
      "Ġwoorden": 3388,
      "Ġfamily": 3389,
      "Sch": 3390,
      "Ġgod": 3391,
      "mb": 3392,
      "Ġidee": 3393,
      "enty": 3394,
      "ç»Ŀ": 3395,
      "bably": 3396,
      "éĩįè¦ģ": 3397,
      "ä¹ł": 3398,
      "æĪĳä»¬çļĦ": 3399,
      "Ġstory": 3400,
      "Ġblack": 3401,
      "ox": 3402,
      "å¤ľ": 3403,
      "åŁº": 3404,
      "CDS": 3405,
      "Ġbew": 3406,
      "Hallo": 3407,
      "Ġrust": 3408,
      "Ġmeet": 3409,
      "iam": 3410,
      "æ²»": 3411,
      "ertain": 3412,
      "less": 3413,
      "Ġsil": 3414,
      "Ġref": 3415,
      "æĬ¤": 3416,
      "å«": 3417,
      "ĠAmerican": 3418,
      "Ġmaking": 3419,
      "ijken": 3420,
      "ç»Ħ": 3421,
      "Ġrond": 3422,
      "Ġger": 3423,
      "Ġpict": 3424,
      "ĠæĪĳæĺ¯": 3425,
      "é¹": 3426,
      "Ġber": 3427,
      "illy": 3428,
      "é¢Ĩ": 3429,
      "Ġsub": 3430,
      "Ġeff": 3431,
      "äºĨä½ł": 3432,
      "æĥħåĨµ": 3433,
      "Ġsaying": 3434,
      "æĿİ": 3435,
      "akk": 3436,
      "Ġagainst": 3437,
      "åħ¬åı¸": 3438,
      "é¦ĸ": 3439,
      "Bed": 3440,
      "Ġgar": 3441,
      "vin": 3442,
      "onnen": 3443,
      "åıĬ": 3444,
      "åħĥ": 3445,
      "Ġborn": 3446,
      "æ¯Ľ": 3447,
      "éĥ½ä¸į": 3448,
      "gev": 3449,
      "Ġklein": 3450,
      "Ġdicht": 3451,
      "è¶³": 3452,
      "è¿Ļä¸Ģ": 3453,
      "ideo": 3454,
      "åħĪçĶŁ": 3455,
      "uil": 3456,
      "Ġzorgen": 3457,
      "Ġgeluk": 3458,
      "An": 3459,
      "åĭ": 3460,
      "Ġie": 3461,
      "Ġpast": 3462,
      "?'": 3463,
      "ying": 3464,
      "å¸ĥ": 3465,
      "Ġrock": 3466,
      "ä¹ħ": 3467,
      "Ġoffic": 3468,
      "uin": 3469,
      "Ġkop": 3470,
      "Ġcomes": 3471,
      "èĦ¸": 3472,
      "èģĬ": 3473,
      "Af": 3474,
      "Ġmeneer": 3475,
      "UR": 3476,
      "ĠMiss": 3477,
      "cess": 3478,
      "Ġbas": 3479,
      "Ġnoise": 3480,
      "Ġdied": 3481,
      "Ġgrond": 3482,
      "Ġpos": 3483,
      "ĠVan": 3484,
      "igd": 3485,
      "åħµ": 3486,
      "ha": 3487,
      "Ġåı¯æĺ¯": 3488,
      "½çĦ¶": 3489,
      "Ġwasn": 3490,
      "Ġ16": 3491,
      "Ġhers": 3492,
      "Ġheart": 3493,
      "æľīä»Ģä¹Ī": 3494,
      "Ġlich": 3495,
      "ä»½": 3496,
      "Ġpat": 3497,
      "æĿĳ": 3498,
      "Ġmanier": 3499,
      "Jullie": 3500,
      "ennis": 3501,
      "min": 3502,
      "Ġtran": 3503,
      "II": 3504,
      "ither": 3505,
      "Ġexpl": 3506,
      "Ġ197": 3507,
      "Ġeverything": 3508,
      "Ġkrijgt": 3509,
      "Ġhimself": 3510,
      "åł": 3511,
      "Ġbeste": 3512,
      "Ġlijkt": 3513,
      "ä»¤": 3514,
      "rijd": 3515,
      "è®¾": 3516,
      "å·®": 3517,
      "ning": 3518,
      "ury": 3519,
      "con": 3520,
      "é¾Ļ": 3521,
      "Ġhour": 3522,
      "Ġactually": 3523,
      "å¸ĮæľĽ": 3524,
      "Ġed": 3525,
      "è£ħ": 3526,
      "ives": 3527,
      "Ġbring": 3528,
      "ĠæĪĳå°±": 3529,
      "èŃ": 3530,
      "Ġverz": 3531,
      "ĠæĿ¥": 3532,
      "Van": 3533,
      "Ġou": 3534,
      "ument": 3535,
      "ĠåĪ«": 3536,
      "Ġdeed": 3537,
      "å®¢": 3538,
      "åĵªåĦ¿": 3539,
      "Ġtree": 3540,
      "Ġhum": 3541,
      "orrow": 3542,
      "Ġaard": 3543,
      "Ġgave": 3544,
      "è·Łä½ł": 3545,
      "rie": 3546,
      "Ġgeweld": 3547,
      "Ġsim": 3548,
      "ä¸ĢäºĽ": 3549,
      "ĠPh": 3550,
      "Ġvlie": 3551,
      "rik": 3552,
      "Ġå¸": 3553,
      "äºĮåįģ": 3554,
      "Ġinterest": 3555,
      "Ġcountry": 3556,
      "Ġlos": 3557,
      "leg": 3558,
      "ott": 3559,
      "Ġonderzoek": 3560,
      "Ġbestaat": 3561,
      "Ġvar": 3562,
      "Sh": 3563,
      "èŃ¦": 3564,
      "HE": 3565,
      "èĥ½å¤Ł": 3566,
      "è´¨": 3567,
      "Ġhappened": 3568,
      "ç»Ń": 3569,
      "rat": 3570,
      "Ġziek": 3571,
      "åĪ»": 3572,
      "aid": 3573,
      "Ġooit": 3574,
      "éĨ": 3575,
      "éĢł": 3576,
      "idden": 3577,
      "jebl": 3578,
      "urs": 3579,
      "ç±»": 3580,
      "Ġgebruiken": 3581,
      "Ġcra": 3582,
      "åįİ": 3583,
      "åį´": 3584,
      "When": 3585,
      "é¦Ļ": 3586,
      "Ġthuis": 3587,
      "Ġposs": 3588,
      "Ġbren": 3589,
      "good": 3590,
      "èľ": 3591,
      "Ġwoord": 3592,
      "jeblieft": 3593,
      "Ġsoort": 3594,
      "raat": 3595,
      "acter": 3596,
      "çŁ³": 3597,
      "å§ĳ": 3598,
      "Ġunderstand": 3599,
      "Ġton": 3600,
      "æ¥ļ": 3601,
      "æĺİçĻ½": 3602,
      "ĠJohn": 3603,
      "Ġanswer": 3604,
      "ä¼ļåĦ¿": 3605,
      "ba": 3606,
      "iger": 3607,
      "Ġfilm": 3608,
      "und": 3609,
      "Ġboys": 3610,
      "kl": 3611,
      "æĬĵ": 3612,
      "å¾·": 3613,
      "ĠOok": 3614,
      "Ġ=": 3615,
      "ital": 3616,
      "Ġbelieve": 3617,
      "èĦĳ": 3618,
      "Ġgi": 3619,
      "Ġexc": 3620,
      "Ġblue": 3621,
      "Ġidea": 3622,
      "Ġupon": 3623,
      "Ġchar": 3624,
      "Ġ202": 3625,
      "Ġlost": 3626,
      "å¯Ĩ": 3627,
      "Ġonge": 3628,
      "ç«Ł": 3629,
      "Ġquest": 3630,
      "ised": 3631,
      "å°½": 3632,
      "çł´": 3633,
      "Ġvindt": 3634,
      "Ġzag": 3635,
      "åħ»": 3636,
      "just": 3637,
      "ler": 3638,
      "çĵ": 3639,
      "Ġwerken": 3640,
      "Ġåİ": 3641,
      "æľª": 3642,
      "fe": 3643,
      "ĠPr": 3644,
      "uurt": 3645,
      "ummer": 3646,
      "roken": 3647,
      "Ġhen": 3648,
      "æĸŃ": 3649,
      "ä¸įäºĨ": 3650,
      "wards": 3651,
      "éŃ": 3652,
      "Ġlov": 3653,
      "Ġ11": 3654,
      "ĠMrs": 3655,
      "MCH": 3656,
      "éĻ¤": 3657,
      "è¯¯": 3658,
      "æĬĢ": 3659,
      "Ġtimes": 3660,
      "heden": 3661,
      "æĸĻ": 3662,
      "Ġwin": 3663,
      "oopt": 3664,
      "aanse": 3665,
      "ully": 3666,
      "Ġä¸įæĺ¯": 3667,
      "Ġpri": 3668,
      "Ġgeze": 3669,
      "æ²³": 3670,
      "Ġmannen": 3671,
      "Ġsla": 3672,
      "Ġgotta": 3673,
      "èĳ": 3674,
      "è°Ī": 3675,
      "ober": 3676,
      "Ġbijna": 3677,
      "æĢģ": 3678,
      "Right": 3679,
      "Ġdu": 3680,
      "åĩºåİ»": 3681,
      "ected": 3682,
      "çľŁæĺ¯": 3683,
      "Ġgreen": 3684,
      "lish": 3685,
      "¿½": 3686,
      "ï¿½": 3687,
      "unch": 3688,
      "bel": 3689,
      "åįĸ": 3690,
      "Ġjongens": 3691,
      "ommy": 3692,
      "Ġtrou": 3693,
      "ĠPl": 3694,
      "opt": 3695,
      "Ġpunten": 3696,
      "Ġspeel": 3697,
      "Ġcontro": 3698,
      "è§Ħ": 3699,
      "èį¯": 3700,
      "Ġprobably": 3701,
      "ç»Ł": 3702,
      "mee": 3703,
      "åŀ": 3704,
      "æĪĳä¹Ł": 3705,
      "ently": 3706,
      "Ġ196": 3707,
      "Ġvill": 3708,
      "Ġlik": 3709,
      "æĶ¯": 3710,
      "Ġwhole": 3711,
      "çīĽ": 3712,
      "çĶµè¯Ŀ": 3713,
      "ON": 3714,
      "Ġkans": 3715,
      "gram": 3716,
      "zer": 3717,
      "Ġwrong": 3718,
      "å£«": 3719,
      "å±Ģ": 3720,
      "æ¨": 3721,
      "åıĶ": 3722,
      "ĠPar": 3723,
      "äºī": 3724,
      "ä½łå°±": 3725,
      "Ġarm": 3726,
      "lo": 3727,
      "Ġreturn": 3728,
      "ĠGerman": 3729,
      "Ġsun": 3730,
      "iness": 3731,
      "ience": 3732,
      "è·³": 3733,
      "Ġtem": 3734,
      "Ġminder": 3735,
      "ĠAt": 3736,
      "åĵį": 3737,
      "Ġlichaam": 3738,
      "lex": 3739,
      "Ġresp": 3740,
      "Ġhalen": 3741,
      "Ġcity": 3742,
      "Ġkre": 3743,
      "Where": 3744,
      "Ġsqu": 3745,
      "Ġboek": 3746,
      "aces": 3747,
      "ç»Ĩ": 3748,
      "Ġåħ¶å®ŀ": 3749,
      "Ġtable": 3750,
      "Just": 3751,
      "æ¯Ķè¾ĥ": 3752,
      "èįī": 3753,
      "Ġbecame": 3754,
      "Ġwhe": 3755,
      "æĩĤ": 3756,
      "Ġalmost": 3757,
      "inds": 3758,
      "åĪ°åºķ": 3759,
      "arry": 3760,
      "æ±ī": 3761,
      "Ġmooi": 3762,
      "ä¸įèµ·": 3763,
      "Ġgrafiek": 3764,
      "ara": 3765,
      "Ġbeaut": 3766,
      "ises": 3767,
      "äº¬": 3768,
      "åĤ": 3769,
      "because": 3770,
      "Ġimport": 3771,
      "Ġdagen": 3772,
      "ä¸įè¿ĩ": 3773,
      "æĿ¿": 3774,
      "Ġpull": 3775,
      "ession": 3776,
      "âĳ": 3777,
      "Ġvoice": 3778,
      "åĬŀæ³ķ": 3779,
      "Ġbijvoorbeeld": 3780,
      "rit": 3781,
      "ĠCl": 3782,
      "Ġjob": 3783,
      "erv": 3784,
      "å¿ĥéĩĮ": 3785,
      "Ġminute": 3786,
      "Ġadd": 3787,
      "Ġgehe": 3788,
      "Ġzin": 3789,
      "ĠDan": 3790,
      "Ġhoren": 3791,
      "Ġenige": 3792,
      "Ġbrand": 3793,
      "Ġwouldn": 3794,
      "Ġbegrij": 3795,
      "ING": 3796,
      "gy": 3797,
      "ç¦ı": 3798,
      "Ġverw": 3799,
      "è¸": 3800,
      "aybe": 3801,
      "met": 3802,
      "haps": 3803,
      "æĪĳä¸į": 3804,
      "é¬": 3805,
      "æĪı": 3806,
      "æľīä¸Ģä¸ª": 3807,
      "ains": 3808,
      "rought": 3809,
      "Wij": 3810,
      "Ġbesl": 3811,
      "ĠJack": 3812,
      "weede": 3813,
      "Ġgeleden": 3814,
      "Ġhair": 3815,
      "ç¤¼": 3816,
      "Ġogen": 3817,
      "Ġprobe": 3818,
      "ekt": 3819,
      "Ġjaren": 3820,
      "Ġleer": 3821,
      "ç¤º": 3822,
      "æľĿ": 3823,
      "sn": 3824,
      "åĪĺ": 3825,
      "rekken": 3826,
      "äºĨåĲ§": 3827,
      "ĠSte": 3828,
      "Deze": 3829,
      "åĪļæīį": 3830,
      "å¾®": 3831,
      "åİĨ": 3832,
      "ĠOh": 3833,
      "Ġeas": 3834,
      "ĠSchrijf": 3835,
      "ming": 3836,
      "ĠSc": 3837,
      "Ġaren": 3838,
      "Ġgame": 3839,
      "ç¤¾": 3840,
      "Ġappear": 3841,
      "Ġdraw": 3842,
      "zy": 3843,
      "ande": 3844,
      "Ġstem": 3845,
      "Ġcup": 3846,
      "ĠHow": 3847,
      "Ġä»Ģä¹Ī": 3848,
      "ç¬¬ä¸Ģ": 3849,
      "Ġcertain": 3850,
      "æ±Ł": 3851,
      "maar": 3852,
      "sc": 3853,
      "Look": 3854,
      "Ġsince": 3855,
      "Ġinv": 3856,
      "Ġcolor": 3857,
      "æĺ¯ä¸Ģ": 3858,
      "é¡»": 3859,
      "GR": 3860,
      "ocht": 3861,
      "æķħäºĭ": 3862,
      "Ġpay": 3863,
      "akt": 3864,
      "stem": 3865,
      "Ġconf": 3866,
      "Ġcontin": 3867,
      "Ġval": 3868,
      "oms": 3869,
      "ager": 3870,
      "æį¢": 3871,
      "èĭ±": 3872,
      "xc": 3873,
      "è¿ĻåĦ¿": 3874,
      "Ġpot": 3875,
      "Ġgrou": 3876,
      "è¯´çļĦ": 3877,
      "éģĩ": 3878,
      "æĻļä¸Ĭ": 3879,
      "more": 3880,
      "Ġvandaag": 3881,
      "ram": 3882,
      "ieten": 3883,
      "irth": 3884,
      "æĺ¯æĪĳ": 3885,
      "åĩĨå¤ĩ": 3886,
      "ĠBob": 3887,
      "icks": 3888,
      "ç®Ģ": 3889,
      "Ġniemand": 3890,
      "ĠAmerik": 3891,
      "arth": 3892,
      "Ġmark": 3893,
      "Ġlicht": 3894,
      "ĠPro": 3895,
      "æŀģ": 3896,
      "Ġpubl": 3897,
      "ĠJan": 3898,
      "é¬¼": 3899,
      "Ġpretty": 3900,
      "Ġbegan": 3901,
      "ĠIf": 3902,
      "æľīçĤ¹": 3903,
      "irt": 3904,
      "Ġåı¯": 3905,
      "esten": 3906,
      "çŃĶæ¡Ī": 3907,
      "Ġbar": 3908,
      "elden": 3909,
      "é£Ł": 3910,
      "Ġvideo": 3911,
      "Ġdead": 3912,
      "ĠLeg": 3913,
      "ĠStates": 3914,
      "midd": 3915,
      "Ġtown": 3916,
      "Ġwants": 3917,
      "ald": 3918,
      "Ġalready": 3919,
      "Ġplaying": 3920,
      "Ġhoop": 3921,
      "è´¹": 3922,
      "ode": 3923,
      "åľŁ": 3924,
      "10": 3925,
      "ouse": 3926,
      "Ġzoek": 3927,
      "Ġspelen": 3928,
      "Ġpolitie": 3929,
      "ĠæĬĬ": 3930,
      "omin": 3931,
      "Ġéĥ½": 3932,
      "Ġav": 3933,
      "ined": 3934,
      "åĳ³": 3935,
      "Are": 3936,
      "aus": 3937,
      "ouch": 3938,
      "Ġeng": 3939,
      "æ¹": 3940,
      "Ġ14": 3941,
      "Ġdirect": 3942,
      "Ġgesp": 3943,
      "Ġshop": 3944,
      "éªĮ": 3945,
      "ä¸ĵ": 3946,
      "ĠWik": 3947,
      "æĭħ": 3948,
      "Ġduring": 3949,
      "è´Ł": 3950,
      "Ġteach": 3951,
      "Ġmeans": 3952,
      "Ġson": 3953,
      "Ġcompl": 3954,
      "åģĩ": 3955,
      "ĠNor": 3956,
      "è¯´äºĨ": 3957,
      "Ġstarted": 3958,
      "Ġoften": 3959,
      "ĠEl": 3960,
      "ä¸ªäºº": 3961,
      "Me": 3962,
      "Ġmot": 3963,
      "Ġenerg": 3964,
      "Bedankt": 3965,
      "Ġverhaal": 3966,
      "got": 3967,
      "ize": 3968,
      "ret": 3969,
      "Ġmoo": 3970,
      "olen": 3971,
      "ester": 3972,
      "åıĳçĶŁ": 3973,
      "ĠZo": 3974,
      "Ġfloor": 3975,
      "zicht": 3976,
      "Ġcook": 3977,
      "oep": 3978,
      "Who": 3979,
      "Ġander": 3980,
      "vers": 3981,
      "Ġzelfs": 3982,
      "Ġpower": 3983,
      "reven": 3984,
      "Ġeight": 3985,
      "Ġteken": 3986,
      "æĬķ": 3987,
      "ĠVer": 3988,
      "werp": 3989,
      "Ġground": 3990,
      "Ġ)": 3991,
      "bur": 3992,
      "enden": 3993,
      "arde": 3994,
      "FCH": 3995,
      "zie": 3996,
      "ards": 3997,
      "Zeg": 3998,
      "æĹ¥æľ¬": 3999,
      "SO": 4000,
      "Ġsent": 4001,
      "Ġgezegd": 4002,
      "Ġä»İ": 4003,
      "Ġè¿ĺæľī": 4004,
      "Ġtijdens": 4005,
      "åıĤ": 4006,
      "å°Ķ": 4007,
      "å¯Ł": 4008,
      "Ġparty": 4009,
      "éĤ£äºĽ": 4010,
      "å¸Ŀ": 4011,
      "'.": 4012,
      "ä¼Ĺ": 4013,
      "Ġ194": 4014,
      "Ġloc": 4015,
      "åħĶ": 4016,
      "Ġgebeurt": 4017,
      "Ġmens": 4018,
      "com": 4019,
      "Ġfight": 4020,
      "Ġwife": 4021,
      "Ġdenken": 4022,
      "Ġhond": 4023,
      "Ġsoms": 4024,
      "è¿Ļæł·çļĦ": 4025,
      "Ġstuff": 4026,
      "deel": 4027,
      "èĻ½çĦ¶": 4028,
      "Ġminutes": 4029,
      "king": 4030,
      "ĠDon": 4031,
      "Ġbra": 4032,
      "Ġnorm": 4033,
      "Ġopl": 4034,
      "ĠOm": 4035,
      "Laten": 4036,
      "Ġexper": 4037,
      "èĦļ": 4038,
      "elk": 4039,
      "Ġseemed": 4040,
      "like": 4041,
      "ĠThat": 4042,
      "è®©ä½ł": 4043,
      "aks": 4044,
      "inger": 4045,
      "ĠAng": 4046,
      "æł¡": 4047,
      "iÃ«n": 4048,
      "zet": 4049,
      "Then": 4050,
      "Ġwarm": 4051,
      "Ġless": 4052,
      "ruct": 4053,
      "Ġtro": 4054,
      "Ġprot": 4055,
      "Ã¶": 4056,
      "Ġwed": 4057,
      "Ġruim": 4058,
      "æĭį": 4059,
      "Ġev": 4060,
      "Ġopge": 4061,
      "Ġçľĭ": 4062,
      "dred": 4063,
      "Ġclose": 4064,
      "æİ¨": 4065,
      "omet": 4066,
      "ĠHis": 4067,
      "see": 4068,
      "ĠDuit": 4069,
      "Ġble": 4070,
      "Ġsold": 4071,
      "Ġband": 4072,
      "äºĳ": 4073,
      "éĿĻ": 4074,
      "Ġcouldn": 4075,
      "åĦ¿åŃĲ": 4076,
      "ĠFor": 4077,
      "æĢİä¹Īæł·": 4078,
      "ĠFrance": 4079,
      "dem": 4080,
      "è¯´ä½ł": 4081,
      "Ġoutside": 4082,
      "Ġhundred": 4083,
      "Ġ13": 4084,
      "Ġlearn": 4085,
      "Ġhuh": 4086,
      "ç»§": 4087,
      "Ġturned": 4088,
      "Ġvijf": 4089,
      "Ġquick": 4090,
      "ric": 4091,
      "Ġlink": 4092,
      "Ġtaken": 4093,
      "ĠDaddy": 4094,
      "èĥ¡": 4095,
      "aj": 4096,
      "çĸĳ": 4097,
      "åī§": 4098,
      "é¼ł": 4099,
      "Bereken": 4100,
      "veer": 4101,
      "ander": 4102,
      "Ġnacht": 4103,
      "èĥĮ": 4104,
      "Ġplayed": 4105,
      "é¸¡": 4106,
      "ä¸ģ": 4107,
      "å½ĵæĹ¶": 4108,
      "slag": 4109,
      "ĠCan": 4110,
      "å¿µ": 4111,
      "Ġprof": 4112,
      "è´£": 4113,
      "ikt": 4114,
      "Ġmonth": 4115,
      "Ġsat": 4116,
      "åĺ´": 4117,
      "åĵ¦": 4118,
      "Ġbes": 4119,
      "Ġpur": 4120,
      "itting": 4121,
      "é¡¾": 4122,
      "Ġbrought": 4123,
      "ided": 4124,
      "ney": 4125,
      "Ġheld": 4126,
      "ijnen": 4127,
      "Ġlekker": 4128,
      "EL": 4129,
      "Ġlisten": 4130,
      "ipp": 4131,
      "dag": 4132,
      "Ġmine": 4133,
      "Ġprom": 4134,
      "éĽĨ": 4135,
      "Ġoorlog": 4136,
      "ekend": 4137,
      "Ġbuild": 4138,
      "Ġfriends": 4139,
      "Ġoude": 4140,
      "Ġåĩ": 4141,
      "Ġsitu": 4142,
      "æ´¾": 4143,
      "ç¬¬äºĮ": 4144,
      "Ġresult": 4145,
      "Maak": 4146,
      "Ġhoudt": 4147,
      "åı¶": 4148,
      "éĢĤ": 4149,
      "Ġgebeurd": 4150,
      "ec": 4151,
      "ilijk": 4152,
      "Ġmusic": 4153,
      "Ġbag": 4154,
      "arling": 4155,
      "ĠåĨį": 4156,
      "åĬ©": 4157,
      "vrouw": 4158,
      "Ġnatuurlijk": 4159,
      "ä¸½": 4160,
      "then": 4161,
      "Ġblood": 4162,
      "bye": 4163,
      "åħ·": 4164,
      "çĽ¸ä¿¡": 4165,
      "çĶµå½±": 4166,
      "Ġweergegeven": 4167,
      "Ġpersoon": 4168,
      "ĠJap": 4169,
      "Ġorder": 4170,
      "Ġä»Ĭå¤©": 4171,
      "Ġreden": 4172,
      "ä¸įåĪ°": 4173,
      "Ġfull": 4174,
      "Ġsuper": 4175,
      "åĽŀåİ»": 4176,
      "Mummy": 4177,
      "ilig": 4178,
      "æĢĢ": 4179,
      "Ġtrying": 4180,
      "Ġmorgen": 4181,
      "Ġbere": 4182,
      "Ġzon": 4183,
      "éĩĮçļĦ": 4184,
      "elp": 4185,
      "Ġgesl": 4186,
      "åŃĺ": 4187,
      "Ġzouden": 4188,
      "çļ®": 4189,
      "ĠAd": 4190,
      "Ġoud": 4191,
      "äºĨä¸Ģä¸ª": 4192,
      "è§Ĵ": 4193,
      "50": 4194,
      "ĠX": 4195,
      "olf": 4196,
      "ĠEnglish": 4197,
      "åĪĻ": 4198,
      "yd": 4199,
      "Ġminuten": 4200,
      "ĠTe": 4201,
      "ä»¥åīį": 4202,
      "hel": 4203,
      "éĩİ": 4204,
      "ä¸¥": 4205,
      "å¥½åĥı": 4206,
      "è¿ĩåİ»": 4207,
      "Ġfamilie": 4208,
      "Alles": 4209,
      "Ġdieren": 4210,
      "raak": 4211,
      "plaat": 4212,
      "Ġhurt": 4213,
      "Ġpost": 4214,
      "æłĩ": 4215,
      "band": 4216,
      "çº¦": 4217,
      "é²": 4218,
      "ĠåĹ¯": 4219,
      "Ġpopul": 4220,
      "Ġsong": 4221,
      "lijke": 4222,
      "æĺ¯ä»Ģä¹Ī": 4223,
      "Ġvergelijk": 4224,
      "Ġ:": 4225,
      "è¯Ń": 4226,
      "ists": 4227,
      "Ġkrijg": 4228,
      "Ġable": 4229,
      "åĲİæĿ¥": 4230,
      "ĠJim": 4231,
      "Mag": 4232,
      "Ġinc": 4233,
      "Cl": 4234,
      "æĽ¾": 4235,
      "Ġfell": 4236,
      "thank": 4237,
      "sche": 4238,
      "Ġones": 4239,
      "Ġmouth": 4240,
      "ä»·": 4241,
      "ĠBrit": 4242,
      "Ġfront": 4243,
      "inde": 4244,
      "ained": 4245,
      "houd": 4246,
      "ç»ĥ": 4247,
      "Ġwaarde": 4248,
      "ues": 4249,
      "ä»¥ä¸º": 4250,
      "Ġbott": 4251,
      "æľĢè¿ĳ": 4252,
      "uth": 4253,
      "Ġwords": 4254,
      "Ġrather": 4255,
      "åĿı": 4256,
      "water": 4257,
      "Ġgrot": 4258,
      "è·Łä½łè¯´": 4259,
      "Ġjo": 4260,
      "rienden": 4261,
      "Ġgenoemd": 4262,
      "Ġprobleem": 4263,
      "çļĦäºĭæĥħ": 4264,
      "Ġzoon": 4265,
      "ourn": 4266,
      "ç©¶": 4267,
      "Can": 4268,
      "Ġeigenlijk": 4269,
      "Ġmoeilijk": 4270,
      "Ġbirth": 4271,
      "Ġfav": 4272,
      "ilt": 4273,
      "ç£": 4274,
      "Ġyourself": 4275,
      "åĽŃ": 4276,
      "æŃ£ç¡®": 4277,
      "æĿĥ": 4278,
      "Ġreactie": 4279,
      "çªģçĦ¶": 4280,
      "åĪĽ": 4281,
      "Ġbehind": 4282,
      "æ¸ħæ¥ļ": 4283,
      "ga": 4284,
      "Ġmill": 4285,
      "Ġfine": 4286,
      "Ġ30": 4287,
      "Ġimportant": 4288,
      "çĬ¶": 4289,
      "As": 4290,
      "oul": 4291,
      "æĪĸèĢħ": 4292,
      "iers": 4293,
      "iful": 4294,
      "idge": 4295,
      "rying": 4296,
      "esh": 4297,
      "æĥ³åĪ°": 4298,
      "uig": 4299,
      "å¹¸": 4300,
      "moet": 4301,
      "å©Ĩ": 4302,
      "hey": 4303,
      "orp": 4304,
      "ogra": 4305,
      "ç±³": 4306,
      "ari": 4307,
      "å·´": 4308,
      "Ġlangu": 4309,
      "aptain": 4310,
      "Ġoper": 4311,
      "Thank": 4312,
      "åģľ": 4313,
      "ekent": 4314,
      "åĪ«äºº": 4315,
      "æĴŃ": 4316,
      "åĶ±": 4317,
      "kt": 4318,
      "Ġaw": 4319,
      "Ġlady": 4320,
      "åı¦": 4321,
      "ĠMet": 4322,
      "ians": 4323,
      "éĤ£ç§į": 4324,
      "To": 4325,
      "Ġrad": 4326,
      "Ġklas": 4327,
      "å¤ļå°ĳ": 4328,
      "ĠStan": 4329,
      "DAD": 4330,
      "kele": 4331,
      "ĠYes": 4332,
      "åıªæĺ¯": 4333,
      "Good": 4334,
      "é©¬ä¸Ĭ": 4335,
      "ĠYork": 4336,
      "yl": 4337,
      "Ġtrouw": 4338,
      "itie": 4339,
      "ured": 4340,
      "Ġå¼": 4341,
      "Ġbegin": 4342,
      "åİĭ": 4343,
      "Ġvog": 4344,
      "head": 4345,
      "ides": 4346,
      "vern": 4347,
      "æĿ¾": 4348,
      "Ġvrouwen": 4349,
      "Ġbal": 4350,
      "Ġexamen": 4351,
      "Ġzee": 4352,
      "èıľ": 4353,
      "Ġgun": 4354,
      "essed": 4355,
      "åĽ½å®¶": 4356,
      "çĨĬ": 4357,
      "Ġzet": 4358,
      "Ġdi": 4359,
      "è®®": 4360,
      "shall": 4361,
      "rench": 4362,
      "Ġpartic": 4363,
      "ship": 4364,
      "Ġcold": 4365,
      "anten": 4366,
      "ä½łæĺ¯": 4367,
      "Ġdou": 4368,
      "Ġinside": 4369,
      "Ġvillage": 4370,
      "éĹ»": 4371,
      "Ġlarge": 4372,
      "èĹ": 4373,
      "Ġmedic": 4374,
      "Ġvond": 4375,
      "iezen": 4376,
      "ene": 4377,
      "æŃ¦": 4378,
      "ardon": 4379,
      "Ġpiece": 4380,
      "heen": 4381,
      "Ġclass": 4382,
      "çº§": 4383,
      "Ġdenkt": 4384,
      "Ġcover": 4385,
      "irty": 4386,
      "hal": 4387,
      "Ġmakes": 4388,
      "åı¤": 4389,
      "éĻª": 4390,
      "Ġ+": 4391,
      "ola": 4392,
      "Ġblijft": 4393,
      "Ġ100": 4394,
      "rip": 4395,
      "Ġsucc": 4396,
      "Ġpen": 4397,
      "çİ¯": 4398,
      "ä¸Ģå®ļè¦ģ": 4399,
      "çļĦå¤§": 4400,
      "Ġmyself": 4401,
      "bare": 4402,
      "Ġgevonden": 4403,
      "Ġæ²¡æľī": 4404,
      "ziek": 4405,
      "Ġimp": 4406,
      "Ġpaper": 4407,
      "Ġpas": 4408,
      "è¯»": 4409,
      "Ah": 4410,
      "Ġho": 4411,
      "Ġdeath": 4412,
      "Ġthank": 4413,
      "uizen": 4414,
      "Ġhappy": 4415,
      "å§Ķ": 4416,
      "ring": 4417,
      "thers": 4418,
      "æĸ¯": 4419,
      "ĠPat": 4420,
      "euw": 4421,
      "ä¼Ļ": 4422,
      "ĠGeef": 4423,
      "Ġshort": 4424,
      "for": 4425,
      "ging": 4426,
      "have": 4427,
      "çľĭè§ģ": 4428,
      "å¢ĥ": 4429,
      "Ġacross": 4430,
      "ham": 4431,
      "orge": 4432,
      "Ġbetekent": 4433,
      "Ġbird": 4434,
      "Ġcos": 4435,
      "Ġbekend": 4436,
      "æĹı": 4437,
      "ĠKing": 4438,
      "Ġchange": 4439,
      "Ġschat": 4440,
      "when": 4441,
      "åĻ¨": 4442,
      "zij": 4443,
      "éĨĴ": 4444,
      "Ġwit": 4445,
      "Ġplek": 4446,
      "Ġlate": 4447,
      "reng": 4448,
      "Ġcomput": 4449,
      "å§ĳå¨ĺ": 4450,
      "aties": 4451,
      "orie": 4452,
      "Ġice": 4453,
      "Ġang": 4454,
      "mo": 4455,
      "ĠItal": 4456,
      "éĽª": 4457,
      "bank": 4458,
      "Luister": 4459,
      "hand": 4460,
      "Ġpijn": 4461,
      "Ġrecord": 4462,
      "ution": 4463,
      "Ġpicture": 4464,
      "Ġmaybe": 4465,
      "æĺ¥": 4466,
      "ĠSam": 4467,
      "éĿł": 4468,
      "Ġbody": 4469,
      "Ġvak": 4470,
      "ä¸įè¡Į": 4471,
      "è¿ĻéĩĮ": 4472,
      "éĢļè¿ĩ": 4473,
      "Ġdarling": 4474,
      "verd": 4475,
      "æĶ¾å¿ĥ": 4476,
      "Ġocc": 4477,
      "èµ¶ç´§": 4478,
      "å¡": 4479,
      "åıĳå±ķ": 4480,
      "Stop": 4481,
      "!'": 4482,
      "cellen": 4483,
      "sten": 4484,
      "ima": 4485,
      "Ġbek": 4486,
      "Ġgeef": 4487,
      "Ġdef": 4488,
      "è¿½": 4489,
      "uy": 4490,
      "åıĮ": 4491,
      "ĠæĪĳè§īå¾Ĺ": 4492,
      "Ġbevat": 4493,
      "ately": 4494,
      "eem": 4495,
      "ç»ĵæŀľ": 4496,
      "Ġzat": 4497,
      "æ¸©": 4498,
      "iving": 4499,
      "Ġ193": 4500,
      "éĢŁ": 4501,
      "ized": 4502,
      "åħĦå¼Ł": 4503,
      "è¶ħ": 4504,
      "Ġmat": 4505,
      "ural": 4506,
      "Tot": 4507,
      "Ġroll": 4508,
      "Re": 4509,
      "çĮ«": 4510,
      "akker": 4511,
      "wee": 4512,
      "è¡Ģ": 4513,
      "åĩ»": 4514,
      "èĽĭ": 4515,
      "Ġthrow": 4516,
      "ĠMart": 4517,
      "Ġprogram": 4518,
      "éĻĪ": 4519,
      "ĠKl": 4520,
      "å±ħ": 4521,
      "ï¿½ï¿½": 4522,
      "Ġdruk": 4523,
      "ĠWaar": 4524,
      "æĹ¢": 4525,
      "aim": 4526,
      "Ġhope": 4527,
      "åĪĿ": 4528,
      "Ġliggen": 4529,
      "Ġage": 4530,
      "ä¹±": 4531,
      "Ġgrow": 4532,
      "isk": 4533,
      "ĠEd": 4534,
      "eert": 4535,
      "Ġtaking": 4536,
      "ĠHer": 4537,
      "Ġexact": 4538,
      "ense": 4539,
      "Ġmess": 4540,
      "Ġfelt": 4541,
      "Ġjong": 4542,
      "åĩºäºĨ": 4543,
      "Ġbrengen": 4544,
      "Did": 4545,
      "ĠhÃ¨": 4546,
      "å±ŀ": 4547,
      "Ġè°ģ": 4548,
      "Ġgele": 4549,
      "antwoord": 4550,
      "Ġsister": 4551,
      "Ġontw": 4552,
      "ĠThen": 4553,
      "Ġrele": 4554,
      "ĠNa": 4555,
      "eland": 4556,
      "Ġvrienden": 4557,
      "Ġstate": 4558,
      "å¿ĺ": 4559,
      "cul": 4560,
      "voc": 4561,
      "Men": 4562,
      "æ¦": 4563,
      "Ġding": 4564,
      "reen": 4565,
      "Ġ25": 4566,
      "selves": 4567,
      "Ġhang": 4568,
      "Ġtom": 4569,
      "aalde": 4570,
      "Ġles": 4571,
      "Ġago": 4572,
      "||": 4573,
      "åĽŀå®¶": 4574,
      "å¿ħé¡»": 4575,
      "æĵ": 4576,
      "olly": 4577,
      "Ġmilj": 4578,
      "ä¸ŃçļĦ": 4579,
      "åĢ¼": 4580,
      "ç¾Ĭ": 4581,
      "éħį": 4582,
      "Echt": 4583,
      "Ġchang": 4584,
      "ĠåĴ±ä»¬": 4585,
      "ments": 4586,
      "SOA": 4587,
      "Ġcal": 4588,
      "ĠAm": 4589,
      "çĶ°": 4590,
      "Ġgas": 4591,
      "å°±ä¸į": 4592,
      "Ġtemper": 4593,
      "iep": 4594,
      "Ġguess": 4595,
      "Ġbuy": 4596,
      "ending": 4597,
      "Ġontstaan": 4598,
      "Ġmam": 4599,
      "æľºä¼ļ": 4600,
      "çłĶ": 4601,
      "Ġpoor": 4602,
      "range": 4603,
      "æŀª": 4604,
      "é¡º": 4605,
      "èģĮ": 4606,
      "Ġstep": 4607,
      "Ġkool": 4608,
      "ĠWhen": 4609,
      "Ġhorse": 4610,
      "ey": 4611,
      "Ġhat": 4612,
      "ada": 4613,
      "ĠMay": 4614,
      "Ġlad": 4615,
      "Ġcase": 4616,
      "Ġluister": 4617,
      "ĠCarl": 4618,
      "Ġcap": 4619,
      "è¯´æĪĳ": 4620,
      "ford": 4621,
      "ĠSo": 4622,
      "rab": 4623,
      "åº§": 4624,
      "Ġè®©": 4625,
      "Ġgere": 4626,
      "éĻ©": 4627,
      "ana": 4628,
      "Ġline": 4629,
      "Ġkap": 4630,
      "åºĹ": 4631,
      "sk": 4632,
      "åĲĮå¿Ĺ": 4633,
      "Ġgiven": 4634,
      "Ġothers": 4635,
      "èĢĮä¸Ķ": 4636,
      "ention": 4637,
      "æĥĬ": 4638,
      "Ġder": 4639,
      "ĠÃ": 4640,
      "Ġkamer": 4641,
      "åĳĬè¯īä½ł": 4642,
      "ĠJapan": 4643,
      "Ġtill": 4644,
      "ugust": 4645,
      "chn": 4646,
      "ĠCon": 4647,
      "æĺ¯ä¸Ģä¸ª": 4648,
      "eerde": 4649,
      "Ġkilled": 4650,
      "Ġwomen": 4651,
      "ris": 4652,
      "iously": 4653,
      "Get": 4654,
      "Kan": 4655,
      "born": 4656,
      "Ġè°¢è°¢": 4657,
      "Ġeeuw": 4658,
      "Ġchair": 4659,
      "ikk": 4660,
      "Ġroad": 4661,
      "Ġconsider": 4662,
      "Ġongeveer": 4663,
      "Ġverkl": 4664,
      "å®¤": 4665,
      "Ġeither": 4666,
      "å¼Ħ": 4667,
      "Ġzoeken": 4668,
      "Ġcre": 4669,
      "ijst": 4670,
      "ĠFl": 4671,
      "å®¶éĩĮ": 4672,
      "inken": 4673,
      "Ġwanneer": 4674,
      "beren": 4675,
      "åıªæľī": 4676,
      "å®¹æĺĵ": 4677,
      "Vol": 4678,
      "ante": 4679,
      "osp": 4680,
      "pril": 4681,
      "ĠDie": 4682,
      "ä½łçľĭ": 4683,
      "å·ŀ": 4684,
      "18": 4685,
      "Ġgeloof": 4686,
      "aced": 4687,
      "Ġfoto": 4688,
      "ä¸īåįģ": 4689,
      "ĠèĢĮä¸Ķ": 4690,
      "Ġring": 4691,
      "ä¾Ŀ": 4692,
      "iversity": 4693,
      "Go": 4694,
      "ism": 4695,
      "Ġhon": 4696,
      "åľ¨ä¸Ģèµ·": 4697,
      "èļ": 4698,
      "Ġfish": 4699,
      "ello": 4700,
      "zaam": 4701,
      "sta": 4702,
      "æ¯ĶèµĽ": 4703,
      "llo": 4704,
      "ĠPaul": 4705,
      "è¿Ľè¡Į": 4706,
      "åĩłä¸ª": 4707,
      "esc": 4708,
      "ĠTo": 4709,
      "Ġmod": 4710,
      "å¹¿": 4711,
      "çĭĹ": 4712,
      "Ġcommun": 4713,
      "Ġsever": 4714,
      "Ġtwenty": 4715,
      "æĭ©": 4716,
      "Ġsweet": 4717,
      "Ġfree": 4718,
      "Ġmovie": 4719,
      "Ġvolgens": 4720,
      "æ¯ıå¤©": 4721,
      "ĠEurop": 4722,
      "inig": 4723,
      "akte": 4724,
      "TUR": 4725,
      "icro": 4726,
      "Ġsystem": 4727,
      "For": 4728,
      "Ġi": 4729,
      "åĨ·": 4730,
      "does": 4731,
      "Ġstrong": 4732,
      "æ¨¡": 4733,
      "Ġarea": 4734,
      "velop": 4735,
      "pos": 4736,
      "å¹´çļĦ": 4737,
      "Ġlead": 4738,
      "Ġsometimes": 4739,
      "Ġgehad": 4740,
      "éº»": 4741,
      "LA": 4742,
      "Ġenkele": 4743,
      "åģ·": 4744,
      "ç½ª": 4745,
      "Blijf": 4746,
      "Ġguy": 4747,
      "Ge": 4748,
      "Ġfro": 4749,
      "æĪĳæĥ³": 4750,
      "æĮī": 4751,
      "Ġwerkt": 4752,
      "çĮª": 4753,
      "Ġextra": 4754,
      "line": 4755,
      "Ġkr": 4756,
      "Ġstof": 4757,
      "åĪĴ": 4758,
      "æŀĲ": 4759,
      "Ġouders": 4760,
      "åľ¨è¿ĻåĦ¿": 4761,
      "Ġstick": 4762,
      "orld": 4763,
      "ĠMaak": 4764,
      "Ġleast": 4765,
      "åĩºçİ°": 4766,
      "aughter": 4767,
      "ior": 4768,
      "Ġbor": 4769,
      "Ġzuur": 4770,
      "akkelijk": 4771,
      "Pro": 4772,
      "Ġoef": 4773,
      "Ġbank": 4774,
      "Ġhulp": 4775,
      "Ġlo": 4776,
      "ente": 4777,
      "Ġmach": 4778,
      "Ġtelevis": 4779,
      "Ġinclud": 4780,
      "erst": 4781,
      "å°±ä¼ļ": 4782,
      "wijl": 4783,
      "bit": 4784,
      "eptember": 4785,
      "ruit": 4786,
      "èĤ¡": 4787,
      "Ġwachten": 4788,
      "Ġgeweldig": 4789,
      "Ġlay": 4790,
      "ĠWest": 4791,
      "Ġconst": 4792,
      "èº«ä½ĵ": 4793,
      "çĭ¬": 4794,
      "Ġfast": 4795,
      "åĨ²": 4796,
      "æİ§": 4797,
      "Ġfunny": 4798,
      "æ¥¼": 4799,
      "ĠQu": 4800,
      "gg": 4801,
      "schijn": 4802,
      "key": 4803,
      "èĵ": 4804,
      "Ġspel": 4805,
      "mie": 4806,
      "Ġsug": 4807,
      "ä¸¾": 4808,
      "åŃĲçļĦ": 4809,
      "inning": 4810,
      "æĿ¨": 4811,
      "Ġship": 4812,
      "éĴŁ": 4813,
      "Ġlanden": 4814,
      "ä¼¼": 4815,
      "Nog": 4816,
      "ering": 4817,
      "reem": 4818,
      "Ġyellow": 4819,
      "Ġperfect": 4820,
      "ç¦»å¼Ģ": 4821,
      "cks": 4822,
      "æĲŀ": 4823,
      "ico": 4824,
      "å¥¹çļĦ": 4825,
      "At": 4826,
      "Denk": 4827,
      "Ġvooral": 4828,
      "Ġtrue": 4829,
      "Ġvle": 4830,
      "Ġwaardoor": 4831,
      "Ġserv": 4832,
      "Ġbeautiful": 4833,
      "Ġhist": 4834,
      "åħĭ": 4835,
      "Kun": 4836,
      "Ġworking": 4837,
      "edia": 4838,
      "Ġ195": 4839,
      "è®°å¾Ĺ": 4840,
      "Ġamong": 4841,
      "é«ĺåħ´": 4842,
      "åĲĽ": 4843,
      "Ġåĳĥ": 4844,
      "Ġalone": 4845,
      "Ġhanden": 4846,
      "Ġbi": 4847,
      "æī¿": 4848,
      "æĺİå¤©": 4849,
      "Ġelekt": 4850,
      "ç§Ģ": 4851,
      "Ġzom": 4852,
      "ä»ħ": 4853,
      "éĻħ": 4854,
      "Ġsol": 4855,
      "Ġtea": 4856,
      "Ġgets": 4857,
      "Ġgarden": 4858,
      "conom": 4859,
      "è¿Ļæ¬¡": 4860,
      "ĠOr": 4861,
      "Ġseven": 4862,
      "çĭ¼": 4863,
      "è¿İ": 4864,
      "è®¤è¯Ĩ": 4865,
      "ĠDoor": 4866,
      "kig": 4867,
      "Ġ2020": 4868,
      "gas": 4869,
      "Ġdeal": 4870,
      "Ġkaart": 4871,
      "ä½İ": 4872,
      "æ¯Ĵ": 4873,
      "ĠéĤ£ä½ł": 4874,
      "zien": 4875,
      "Ġmass": 4876,
      "Zijn": 4877,
      "Ġæĥ³": 4878,
      "è¯¾": 4879,
      "éĺ²": 4880,
      "Mar": 4881,
      "Ġdezelfde": 4882,
      "Sp": 4883,
      "Ġvia": 4884,
      "stuk": 4885,
      "åĨ³å®ļ": 4886,
      "enten": 4887,
      "æĸ¹éĿ¢": 4888,
      "Ġtest": 4889,
      "Ġcult": 4890,
      "åĳ¼": 4891,
      "Ġechte": 4892,
      "Ġcamp": 4893,
      "æľ¨": 4894,
      "ĠMan": 4895,
      "è·Łä»ĸ": 4896,
      "æĺ¾": 4897,
      "Ġå·": 4898,
      "æ²¹": 4899,
      "Ã«n": 4900,
      "ç´¯": 4901,
      "æĦ¿æĦı": 4902,
      "Ġvoedsel": 4903,
      "Ġya": 4904,
      "fully": 4905,
      "two": 4906,
      "Ġkreeg": 4907,
      "Ġhoort": 4908,
      "ç½Ĺ": 4909,
      "Ġsoft": 4910,
      "è®¤ä¸º": 4911,
      "çĪ¹": 4912,
      "Ġbecome": 4913,
      "æĪĳè¦ģ": 4914,
      "çľĭçĿĢ": 4915,
      "Ġä½łæĢİä¹Ī": 4916,
      "æī¾åĪ°": 4917,
      "åŃĻ": 4918,
      "ä¹ĭéĹ´": 4919,
      "Ġdark": 4920,
      "ä¸ĬäºĨ": 4921,
      "å¼ķ": 4922,
      "deren": 4923,
      "æ¯ķ": 4924,
      "æ´Ĺ": 4925,
      "éĹ¹": 4926,
      "Ġprecies": 4927,
      "igde": 4928,
      "que": 4929,
      "èİ·": 4930,
      "Here": 4931,
      "å®Ī": 4932,
      "unk": 4933,
      "åĽ´": 4934,
      "Ġsomeone": 4935,
      "Ġglad": 4936,
      "komt": 4937,
      "ral": 4938,
      "ative": 4939,
      "Ġfair": 4940,
      "çļĦäºĭ": 4941,
      "æĪĲäºĨ": 4942,
      "èĤ²": 4943,
      "Ġmain": 4944,
      "åĵŃ": 4945,
      "æ¼Ĥ": 4946,
      "ä»»ä½ķ": 4947,
      "ä¸Ģå¤©": 4948,
      "Your": 4949,
      "huis": 4950,
      "åı²": 4951,
      "èĲ¥": 4952,
      "aged": 4953,
      "ection": 4954,
      "äºĨåķĬ": 4955,
      "éĢīæĭ©": 4956,
      "Ġfur": 4957,
      "è¡£æľį": 4958,
      "ĠBen": 4959,
      "bal": 4960,
      "yy": 4961,
      "Ġwoon": 4962,
      "èĩ´": 4963,
      "ousand": 4964,
      "Ġhit": 4965,
      "Ġleng": 4966,
      "Ġearly": 4967,
      "reg": 4968,
      "oorten": 4969,
      "ĠCar": 4970,
      "Ġtien": 4971,
      "reden": 4972,
      "Ġkru": 4973,
      "Ġtoys": 4974,
      "éĽ¨": 4975,
      "éĵģ": 4976,
      "TER": 4977,
      "din": 4978,
      "Ġill": 4979,
      "Ġnoemen": 4980,
      "Ġlaug": 4981,
      "Ġmeeste": 4982,
      "ä¸įåĲĮ": 4983,
      "ĠMag": 4984,
      "eph": 4985,
      "çĥ¦": 4986,
      "Toen": 4987,
      "Ġverst": 4988,
      "genomen": 4989,
      "åĬ¿": 4990,
      "Ġeffect": 4991,
      "ĠokÃ©": 4992,
      "derd": 4993,
      "BRO": 4994,
      "ä¹İ": 4995,
      "Ġbrother": 4996,
      "fort": 4997,
      "Ġvoet": 4998,
      "è¯´è¯Ŀ": 4999,
      "Ġclean": 5000,
      "Kl": 5001,
      "Ġå®ĥ": 5002,
      "Ġlopen": 5003,
      "Br": 5004,
      "nel": 5005,
      "Ġvij": 5006,
      "Ġanimals": 5007,
      "ç»§ç»Ń": 5008,
      "Ġtweede": 5009,
      "Ġkost": 5010,
      "Ġdaarna": 5011,
      "Ġla": 5012,
      "omp": 5013,
      "åĽ¾": 5014,
      "ĠéĤ£ä¸ª": 5015,
      "Ġlangs": 5016,
      "æ¤": 5017,
      "ç¯": 5018,
      "Ġrepl": 5019,
      "avy": 5020,
      "Ġwall": 5021,
      "ç¤¾ä¼ļ": 5022,
      "Ġvoort": 5023,
      "ç»Ļä»ĸ": 5024,
      "Ġvers": 5025,
      "æŃ¢": 5026,
      "Ġè¡Į": 5027,
      "Ġlaw": 5028,
      "çľ¼çĿ": 5029,
      "Bij": 5030,
      "Ġdiv": 5031,
      "Ġmount": 5032,
      "Ġä½łçľĭ": 5033,
      "çļĦä¸Ģä¸ª": 5034,
      "vert": 5035,
      "Ġbeginnen": 5036,
      "reet": 5037,
      "Ġgirls": 5038,
      "Ġet": 5039,
      "æµİ": 5040,
      "hoek": 5041,
      "æ¿": 5042,
      "Ġsea": 5043,
      "Ġwet": 5044,
      "Ġbusiness": 5045,
      "bt": 5046,
      "Ġwaarin": 5047,
      "Was": 5048,
      "foon": 5049,
      "gend": 5050,
      "God": 5051,
      "Ã¼": 5052,
      "Ġinde": 5053,
      "olon": 5054,
      "Ġap": 5055,
      "reed": 5056,
      "Ġveroor": 5057,
      "èĻİ": 5058,
      "å¢ŀ": 5059,
      "ĠAfr": 5060,
      "rif": 5061,
      "Ġstond": 5062,
      "è´µ": 5063,
      "Ġtrouble": 5064,
      "Ġcor": 5065,
      "Ġcreat": 5066,
      "äºĨè§£": 5067,
      "ĠCharl": 5068,
      "sing": 5069,
      "åºľ": 5070,
      "æĭĽ": 5071,
      "èĹı": 5072,
      "Ġnorth": 5073,
      "Ġdeur": 5074,
      "Ġvi": 5075,
      "ĠFrench": 5076,
      "sy": 5077,
      "Ġent": 5078,
      "æĬĹ": 5079,
      "Ġmarried": 5080,
      "Te": 5081,
      "houden": 5082,
      "Ġpark": 5083,
      "Ġalright": 5084,
      "Ġduid": 5085,
      "igin": 5086,
      "èī¯": 5087,
      "ossing": 5088,
      "Ġra": 5089,
      "eeuw": 5090,
      "è¾Ī": 5091,
      "Ġfavor": 5092,
      "raagd": 5093,
      "owers": 5094,
      "Ġwish": 5095,
      "Ġzetten": 5096,
      "æĬ±": 5097,
      "Ġseveral": 5098,
      "gie": 5099,
      "Ġpresident": 5100,
      "Ġthousand": 5101,
      "la": 5102,
      "ĠæĪĳæĥ³": 5103,
      "Ġboat": 5104,
      "12": 5105,
      "ä¼ĳ": 5106,
      "oops": 5107,
      "ĠDo": 5108,
      "Ġol": 5109,
      "Ġjezelf": 5110,
      "ĠWel": 5111,
      "Ġalsof": 5112,
      "Ġconc": 5113,
      "Ġcool": 5114,
      "ices": 5115,
      "ached": 5116,
      "Ġmeteen": 5117,
      "iken": 5118,
      "Ġuitleg": 5119,
      "pped": 5120,
      "CAT": 5121,
      "Ġbouw": 5122,
      "Ġabs": 5123,
      "Ġbrief": 5124,
      "One": 5125,
      "éĩĩ": 5126,
      "eens": 5127,
      "ility": 5128,
      "Ġspeak": 5129,
      "ç¡®å®ŀ": 5130,
      "ä¸įå¾Ĺ": 5131,
      "ĠJu": 5132,
      "Omdat": 5133,
      "Ġfuck": 5134,
      "Ġusually": 5135,
      "Neem": 5136,
      "Ġquestion": 5137,
      "Zie": 5138,
      "æł¹æľ¬": 5139,
      "rict": 5140,
      "æĪ·": 5141,
      "Ġclub": 5142,
      "éªĹ": 5143,
      "weer": 5144,
      "Ġgroup": 5145,
      "lease": 5146,
      "Ġgovern": 5147,
      "Ġguys": 5148,
      "ä¹¡": 5149,
      "Ġran": 5150,
      "Ġstar": 5151,
      "under": 5152,
      "produ": 5153,
      "Ġspir": 5154,
      "æĺ¯ä¸ª": 5155,
      "Ġallow": 5156,
      "å¤ļçļĦ": 5157,
      "å½±åĵį": 5158,
      "ute": 5159,
      "ĠPer": 5160,
      "zuur": 5161,
      "Ġhus": 5162,
      "ç¾¤": 5163,
      "Natuurlijk": 5164,
      "xim": 5165,
      "Ġkracht": 5166,
      "Ġrol": 5167,
      "Ġcond": 5168,
      "ille": 5169,
      "Ġmond": 5170,
      "Ġsta": 5171,
      "åĪĹ": 5172,
      "Ġbirthday": 5173,
      "äºĴ": 5174,
      "éĢīé¡¹": 5175,
      "Ġtried": 5176,
      "raid": 5177,
      "lijn": 5178,
      "ĠWorld": 5179,
      "Over": 5180,
      "æĻ¯": 5181,
      "ç½®": 5182,
      "åıįæŃ£": 5183,
      "Ġtouch": 5184,
      "Ġwood": 5185,
      "ically": 5186,
      "ĠDr": 5187,
      "icken": 5188,
      "Ġdepart": 5189,
      "ä¸įæĥ³": 5190,
      "Ġzoveel": 5191,
      "é¡¶": 5192,
      "Ġlezen": 5193,
      "çİī": 5194,
      "achten": 5195,
      "Ġleren": 5196,
      "æ°¸": 5197,
      "çģµ": 5198,
      "Vert": 5199,
      "çĽĳ": 5200,
      "friend": 5201,
      "åª": 5202,
      "Ġproberen": 5203,
      "eur": 5204,
      "str": 5205,
      "rijs": 5206,
      "Ġ24": 5207,
      "Ġä¸įè¿ĩ": 5208,
      "ustral": 5209,
      "çľ¼çĿĽ": 5210,
      "Ġkat": 5211,
      "Ġrece": 5212,
      "å¥³åĦ¿": 5213,
      "Ġhowever": 5214,
      "è¹": 5215,
      "Ġmist": 5216,
      "å¥Ĺ": 5217,
      "Ġwild": 5218,
      "uary": 5219,
      "éĥ½æ²¡æľī": 5220,
      "æĢİä¹ĪåĬŀ": 5221,
      "Ġrunning": 5222,
      "æ¿Ģ": 5223,
      "Ġaange": 5224,
      "Ġkleur": 5225,
      "ç¾İåĽ½": 5226,
      "Ġir": 5227,
      "andy": 5228,
      "Ġcere": 5229,
      "æĺ¨": 5230,
      "icult": 5231,
      "åį³": 5232,
      "Ġhop": 5233,
      "Ġclim": 5234,
      "Ġveilig": 5235,
      "Ġfield": 5236,
      "Ġmeth": 5237,
      "burg": 5238,
      "ino": 5239,
      "tern": 5240,
      "ete": 5241,
      "Ġpound": 5242,
      "bum": 5243,
      "Ã³": 5244,
      "åĲĥé¥Ń": 5245,
      "Ġpage": 5246,
      "Ġcompany": 5247,
      "Ġtomorrow": 5248,
      "ĠBel": 5249,
      "åĿļ": 5250,
      "Ġnieuws": 5251,
      "ED": 5252,
      "âĮ": 5253,
      "ask": 5254,
      "inc": 5255,
      "Ġneer": 5256,
      "Ġthinking": 5257,
      "èĪŀ": 5258,
      "åĲ´": 5259,
      "Ġdier": 5260,
      "ĠMc": 5261,
      "éĢĥ": 5262,
      "Ġ50": 5263,
      "ĠPhil": 5264,
      "Ġpakken": 5265,
      "æĪĳè¿ĺ": 5266,
      "Ġweinig": 5267,
      "ĠWar": 5268,
      "Ġclot": 5269,
      "Ġmiljoen": 5270,
      "even": 5271,
      "ery": 5272,
      "Ġdelen": 5273,
      "Ġbear": 5274,
      "ĠPort": 5275,
      "Ġtype": 5276,
      "aa": 5277,
      "æľīäºº": 5278,
      "Ġfly": 5279,
      "Ġstation": 5280,
      "äºİæĺ¯": 5281,
      "å®«": 5282,
      "iment": 5283,
      "æ´ĭ": 5284,
      "Ġgezicht": 5285,
      "Ġspecial": 5286,
      "Ġproblem": 5287,
      "Ġrode": 5288,
      "Ġgevaar": 5289,
      "èĪ¹": 5290,
      "Ġ&": 5291,
      "å§¨": 5292,
      "å¹²ä»Ģä¹Ī": 5293,
      "niet": 5294,
      "æĺ¯åĲ§": 5295,
      "Ġoog": 5296,
      "Ġmilk": 5297,
      "GRA": 5298,
      "Ġdochter": 5299,
      "Ġä½łæĺ¯": 5300,
      "15": 5301,
      "was": 5302,
      "ills": 5303,
      "ĠEurope": 5304,
      "uut": 5305,
      "urk": 5306,
      "ĠAustral": 5307,
      "Ġdesc": 5308,
      "ĠDuits": 5309,
      "Ġmeter": 5310,
      "æĪĲä¸º": 5311,
      "Ġleeft": 5312,
      "çĨŁ": 5313,
      "çĳ": 5314,
      "schapp": 5315,
      "æ½": 5316,
      "Ġfunctie": 5317,
      "nam": 5318,
      "Ġhol": 5319,
      "Ġdevelop": 5320,
      "ooh": 5321,
      "æľīä¸ª": 5322,
      "iting": 5323,
      "Ġvallen": 5324,
      "åĲ¦": 5325,
      "Ġvanavond": 5326,
      "Ġrain": 5327,
      "cil": 5328,
      "ä¿®": 5329,
      "Ġontstaat": 5330,
      "æĽ¿": 5331,
      "Ġvergeten": 5332,
      "xcuse": 5333,
      "AP": 5334,
      "Ġsport": 5335,
      "Ġgrootste": 5336,
      "Ġbru": 5337,
      "Ġzodat": 5338,
      "ç§°": 5339,
      "Ġgebied": 5340,
      "Ġhusband": 5341,
      "upp": 5342,
      "ä¸Ŀ": 5343,
      "edereen": 5344,
      "ges": 5345,
      "orden": 5346,
      "èīº": 5347,
      "ĠCount": 5348,
      "Ġå¿«": 5349,
      "åį«": 5350,
      "Ġgroe": 5351,
      "éľ²": 5352,
      "oom": 5353,
      "Ġdinner": 5354,
      "Ġequ": 5355,
      "ĠçŃī": 5356,
      "Ġbath": 5357,
      "Ġgekomen": 5358,
      "çĹĽ": 5359,
      "Ġfootball": 5360,
      "æĿĲ": 5361,
      "Ġblad": 5362,
      "Ġslapen": 5363,
      "æīĭæľº": 5364,
      "åĲ¸": 5365,
      "æ¼Ĥäº®": 5366,
      "æİĮ": 5367,
      "èĬĤçĽ®": 5368,
      "æºĲ": 5369,
      "ĠComm": 5370,
      "çļĦè¿Ļä¸ª": 5371,
      "Ġäºº": 5372,
      "å®ĥä»¬": 5373,
      "Ġmooie": 5374,
      "Ġonderwerp": 5375,
      "Ġgevraagd": 5376,
      "ç»ĵå©ļ": 5377,
      "Ġobject": 5378,
      "å¼¹": 5379,
      "Ġperhaps": 5380,
      "Ġwrite": 5381,
      "Ġ_": 5382,
      "Ġli": 5383,
      "alright": 5384,
      "æĿ¥è¯´": 5385,
      "ç²ī": 5386,
      "bers": 5387,
      "mas": 5388,
      "kende": 5389,
      "åĨľ": 5390,
      "Erm": 5391,
      "åŀĭ": 5392,
      "zak": 5393,
      "Ġacht": 5394,
      "Ġmacht": 5395,
      "Ġmama": 5396,
      "Ġcou": 5397,
      "ä½łä¸į": 5398,
      "ended": 5399,
      "arb": 5400,
      "æ²Ļ": 5401,
      "Ġbegint": 5402,
      "Ġclear": 5403,
      "groep": 5404,
      "Ġaarde": 5405,
      "Ġgevol": 5406,
      "çĬ¯": 5407,
      "Ġorganis": 5408,
      "æĪĳæĪĳ": 5409,
      "çºª": 5410,
      "Ġeinde": 5411,
      "Ġmogen": 5412,
      "Ġafraid": 5413,
      "plant": 5414,
      "çĪ¶äº²": 5415,
      "Ġhetzelfde": 5416,
      "ĠAunt": 5417,
      "pervl": 5418,
      "å½©": 5419,
      "Ġphone": 5420,
      "Ġhuid": 5421,
      "Ġmer": 5422,
      "Ġcel": 5423,
      "Ġrep": 5424,
      "ping": 5425,
      "ays": 5426,
      "ä¼ĺ": 5427,
      "Ġtakes": 5428,
      "ived": 5429,
      "Ġcirc": 5430,
      "çļĦåľ°æĸ¹": 5431,
      "ä¸ĭåİ»": 5432,
      "ĠStap": 5433,
      "èº«ä¸Ĭ": 5434,
      "åŃ¦çĶŁ": 5435,
      "kant": 5436,
      "çģ°": 5437,
      "å®īåħ¨": 5438,
      "Ġvergelijking": 5439,
      "Ġbeneden": 5440,
      "æīįèĥ½": 5441,
      "IT": 5442,
      "Ġeruit": 5443,
      "ĠRep": 5444,
      "Ġgehoord": 5445,
      "Ġcomputer": 5446,
      "Ġins": 5447,
      "éĵ¶": 5448,
      "ding": 5449,
      "want": 5450,
      "ĠTHE": 5451,
      "å°ıå§Ĳ": 5452,
      "Ġbepaalde": 5453,
      "}$$": 5454,
      "Ġlift": 5455,
      "ä¹Łæ²¡": 5456,
      "ç§ĺ": 5457,
      "Ġlived": 5458,
      "Ġbacter": 5459,
      "ijl": 5460,
      "ĠLet": 5461,
      "Ġfinished": 5462,
      "ror": 5463,
      "ç»ıæµİ": 5464,
      "Ġcheck": 5465,
      "Na": 5466,
      "zel": 5467,
      "dom": 5468,
      "Ġain": 5469,
      "Ġsomebody": 5470,
      "æĮĳ": 5471,
      "Ġgeval": 5472,
      "Ġbooks": 5473,
      "ĠCHI": 5474,
      "Ġliving": 5475,
      "Ġnamed": 5476,
      "Ġåİ»": 5477,
      "Ġroe": 5478,
      "Ġegg": 5479,
      "ĠNot": 5480,
      "é¸Ł": 5481,
      "Ġtel": 5482,
      "stairs": 5483,
      "ĠAb": 5484,
      "ç´ł": 5485,
      "Ġgebouw": 5486,
      "vorm": 5487,
      "Ġdien": 5488,
      "Ġvalt": 5489,
      "rokken": 5490,
      "åĨįè§ģ": 5491,
      "17": 5492,
      "æķĪ": 5493,
      "ĠMarch": 5494,
      "Ġenter": 5495,
      "Ġomge": 5496,
      "pers": 5497,
      "æķĮ": 5498,
      "æĪ¿åŃĲ": 5499,
      "Ġruimte": 5500,
      "onde": 5501,
      "Ġrij": 5502,
      "åı¥è¯Ŀ": 5503,
      "ĠBobby": 5504,
      "schijnlijk": 5505,
      "agina": 5506,
      "Ġsnow": 5507,
      "çĽ´æİ¥": 5508,
      "zig": 5509,
      "Ġner": 5510,
      "Ġnose": 5511,
      "Ġprov": 5512,
      "èĥľ": 5513,
      "Ġmaj": 5514,
      "Ġsac": 5515,
      "Ġquiet": 5516,
      "Ġdet": 5517,
      "aser": 5518,
      "rop": 5519,
      "avid": 5520,
      "å½ĵçĦ¶": 5521,
      "Pr": 5522,
      "Ġbereken": 5523,
      "Ġdoctor": 5524,
      "Ġduidelijk": 5525,
      "alth": 5526,
      "strijd": 5527,
      "Zij": 5528,
      "æĪĳè¯´": 5529,
      "gem": 5530,
      "Ġcannot": 5531,
      "å¼Ģå¿ĥ": 5532,
      "ĠSouth": 5533,
      "cing": 5534,
      "é¢ĺå¹²": 5535,
      "Ar": 5536,
      "æľµ": 5537,
      "Ġstap": 5538,
      "èĻĳ": 5539,
      "Ġest": 5540,
      "Ġmidden": 5541,
      "rem": 5542,
      "Ġtruck": 5543,
      "Ġabove": 5544,
      "Ġsounds": 5545,
      "Ġnine": 5546,
      "Ġgeloven": 5547,
      "æŃ£åľ¨": 5548,
      "nieuw": 5549,
      "Ġopt": 5550,
      "ĠSm": 5551,
      "åĬ¨çī©": 5552,
      "Ġdollar": 5553,
      "Ġbab": 5554,
      "Ã¡": 5555,
      "è¿ĩç¨ĭ": 5556,
      "Ġwou": 5557,
      "your": 5558,
      "ĠDec": 5559,
      "ä½ľä¸º": 5560,
      "ĠJune": 5561,
      "Ġelders": 5562,
      "å¥³äºº": 5563,
      "èĪ¬": 5564,
      "Ġbehulp": 5565,
      "Ġtoy": 5566,
      "Ġchoc": 5567,
      "æł·åŃĲ": 5568,
      "è´¢": 5569,
      "Ġä¸ºä»Ģä¹Ī": 5570,
      "indelijk": 5571,
      "Please": 5572,
      "Ġrijk": 5573,
      "ä¼´": 5574,
      "æŃ»äºĨ": 5575,
      "uke": 5576,
      "Ġorde": 5577,
      "ĠYeah": 5578,
      "anen": 5579,
      "oer": 5580,
      "è¿ĺä¸į": 5581,
      "å§ĵ": 5582,
      "Ġziekte": 5583,
      "annen": 5584,
      "æĪĳéĥ½": 5585,
      "Ġåģ": 5586,
      "ĠæĪĳçļĦ": 5587,
      "åİī": 5588,
      "ĠRuss": 5589,
      "æķ£": 5590,
      "Ġboom": 5591,
      "é½": 5592,
      "åį±": 5593,
      "ikkel": 5594,
      "ç»ĩ": 5595,
      "Ġmeestal": 5596,
      "Ġnoem": 5597,
      "Ġervan": 5598,
      "Ġregion": 5599,
      "rest": 5600,
      "thern": 5601,
      "Ġjuice": 5602,
      "Ġgrand": 5603,
      "ĠSchool": 5604,
      "Ġthr": 5605,
      "è¿·": 5606,
      "Ġmoved": 5607,
      "umb": 5608,
      "Ġsend": 5609,
      "ĠKe": 5610,
      "Ġcross": 5611,
      "Ġrug": 5612,
      "Ġsheep": 5613,
      "Ġè¿ĺæĺ¯": 5614,
      "Ġluck": 5615,
      "åıªè¦ģ": 5616,
      "ä¸Ģç§į": 5617,
      "Ġvoel": 5618,
      "cer": 5619,
      "Ġpak": 5620,
      "ç»¿": 5621,
      "ĠNe": 5622,
      "bert": 5623,
      "ales": 5624,
      "Ġreason": 5625,
      "oose": 5626,
      "Ġä½łå°±": 5627,
      "Ġneemt": 5628,
      "ĠJanuary": 5629,
      "Ġmm": 5630,
      "Ġschuld": 5631,
      "ä¿ĿæĬ¤": 5632,
      "Ġè¯·": 5633,
      "åŃ¦ä¹ł": 5634,
      "æĺ¯ä½ł": 5635,
      "ĠIndian": 5636,
      "Ġalsjeblieft": 5637,
      "stead": 5638,
      "Ġtit": 5639,
      "ĠMad": 5640,
      "Meer": 5641,
      "Ġkil": 5642,
      "ĠOne": 5643,
      "Ġgevangen": 5644,
      "æµĭ": 5645,
      "Ġsitting": 5646,
      "Ġavond": 5647,
      "Ġhell": 5648,
      "æĺ¯åľ¨": 5649,
      "å¾ĭ": 5650,
      "ality": 5651,
      "èĸ": 5652,
      "ä¸įå¯¹": 5653,
      "éĢĢ": 5654,
      "Ġwaarbij": 5655,
      "æł·çļĦ": 5656,
      "äºĮéĽ¶": 5657,
      "makes": 5658,
      "å®ĭ": 5659,
      "Ġalbum": 5660,
      "Ġvoordat": 5661,
      "ĠCal": 5662,
      "ĠWil": 5663,
      "ĠEm": 5664,
      "è´Ŀ": 5665,
      "bles": 5666,
      "dden": 5667,
      "oken": 5668,
      "Ġmaat": 5669,
      "berg": 5670,
      "Ġgaf": 5671,
      "é¦Ĩ": 5672,
      "aire": 5673,
      "å¹²åĲĹ": 5674,
      "ç»Īäºİ": 5675,
      "åĹ": 5676,
      "Ġfix": 5677,
      "Ġorigin": 5678,
      "Ġveroorz": 5679,
      "åįĪ": 5680,
      "Ġcatch": 5681,
      "fer": 5682,
      "nou": 5683,
      "å½ĵä¸Ń": 5684,
      "çº¸": 5685,
      "Ġliefde": 5686,
      "ining": 5687,
      "Ġriv": 5688,
      "Ġyours": 5689,
      "Ġdeep": 5690,
      "Ġlaughs": 5691,
      "Ġseries": 5692,
      "Ġvraagt": 5693,
      "åĪ¤": 5694,
      "Ġhoeft": 5695,
      "Gaat": 5696,
      "Ġwear": 5697,
      "è®©ä»ĸ": 5698,
      "Ġontde": 5699,
      "Ġnummer": 5700,
      "Ġvanaf": 5701,
      "Ġuitge": 5702,
      "Ġproper": 5703,
      "åºŃ": 5704,
      "åħ¶ä»ĸ": 5705,
      "Ġenergie": 5706,
      "kk": 5707,
      "Ġfeest": 5708,
      "astic": 5709,
      "olle": 5710,
      "èĭı": 5711,
      "æŁĲ": 5712,
      "Ġdifficult": 5713,
      "ĠBeeld": 5714,
      "sm": 5715,
      "uch": 5716,
      "hello": 5717,
      "Ġkor": 5718,
      "Ġshut": 5719,
      "å¤ļäºĨ": 5720,
      "]?": 5721,
      "kn": 5722,
      "aars": 5723,
      "Ġda": 5724,
      "Ġreag": 5725,
      "ATT": 5726,
      "Aan": 5727,
      "Ġcow": 5728,
      "Ġergens": 5729,
      "Ġproblemen": 5730,
      "Ġspreken": 5731,
      "ä¸īä¸ª": 5732,
      "çĭĲ": 5733,
      "Ġverdw": 5734,
      "Ġdam": 5735,
      "Ġstood": 5736,
      "æĸĹ": 5737,
      "æĬĬæĪĳ": 5738,
      "Ġtrad": 5739,
      "Ġhuman": 5740,
      "inet": 5741,
      "èĤī": 5742,
      "å£°éŁ³": 5743,
      "Ġtelefoon": 5744,
      "Ġdig": 5745,
      "inkt": 5746,
      "Ġpartij": 5747,
      "Ġplane": 5748,
      "11": 5749,
      "xide": 5750,
      "èĨ": 5751,
      "Ġä¸Ģä¸ª": 5752,
      "Ġloopt": 5753,
      "Ġfit": 5754,
      "Ġhur": 5755,
      "eding": 5756,
      "tjes": 5757,
      "Ġkept": 5758,
      "Ġjump": 5759,
      "Ġrot": 5760,
      "Ġslag": 5761,
      "ĠAlex": 5762,
      "æĿ¥æĿ¥": 5763,
      "çİĩ": 5764,
      "ä¹Łæ²¡æľī": 5765,
      "hi": 5766,
      "ä»Ļ": 5767,
      "ä¸įçĶ¨": 5768,
      "ĠæĪĳçŁ¥éģĵ": 5769,
      "Ġattack": 5770,
      "ç¿»": 5771,
      "ket": 5772,
      "Ġfa": 5773,
      "ĠMon": 5774,
      "èµµ": 5775,
      "æŀ¶": 5776,
      "pres": 5777,
      "Ġzwart": 5778,
      "ĠMin": 5779,
      "è¿ĺæ²¡": 5780,
      "Ġhours": 5781,
      "itter": 5782,
      "ils": 5783,
      "Ġsudden": 5784,
      "Ġlots": 5785,
      "Ġmonths": 5786,
      "AL": 5787,
      "æİ¢": 5788,
      "ances": 5789,
      "çľģ": 5790,
      "ç§¯": 5791,
      "Ġdrinken": 5792,
      "Ġmaxim": 5793,
      "å¦ĩ": 5794,
      "Ġeerder": 5795,
      "ä¼¯": 5796,
      "Ġschrijven": 5797,
      "åĹ¯åĹ¯": 5798,
      "æīĢæľīçļĦ": 5799,
      "boek": 5800,
      "çĮ´": 5801,
      "Ġsuppose": 5802,
      "ĠRome": 5803,
      "cten": 5804,
      "ä¸Ģå®ļä¼ļ": 5805,
      "âĢ": 5806,
      "ague": 5807,
      "åĬª": 5808,
      "éĶĻè¯¯": 5809,
      "oi": 5810,
      "Ġnational": 5811,
      "åº·": 5812,
      "Ġantwoorden": 5813,
      "èŀ": 5814,
      "Ġlunch": 5815,
      "ases": 5816,
      "å¯Į": 5817,
      "Ġplanten": 5818,
      "ĠDecember": 5819,
      "uze": 5820,
      "urch": 5821,
      "åħħ": 5822,
      "Ġmix": 5823,
      "Ġeconom": 5824,
      "æĺ¯åķĬ": 5825,
      "åĲĵ": 5826,
      "Ġafg": 5827,
      "Ġjuiste": 5828,
      "çļĦéĤ£": 5829,
      "ä½łè¦ģ": 5830,
      "è¿ĩäºĨ": 5831,
      "æ¶Īæģ¯": 5832,
      "Ġbeide": 5833,
      "Ġclos": 5834,
      "åŃ¦æł¡": 5835,
      "çĶ·äºº": 5836,
      "Ġtonight": 5837,
      "MAR": 5838,
      "ym": 5839,
      "oph": 5840,
      "åĲĮåŃ¦": 5841,
      "ael": 5842,
      "Ġlow": 5843,
      "ĠPeter": 5844,
      "itein": 5845,
      "å±ĭ": 5846,
      "recht": 5847,
      "ä¸ĢåĿĹ": 5848,
      "ç»´": 5849,
      "çŁŃ": 5850,
      "Ġvor": 5851,
      "gers": 5852,
      "rent": 5853,
      "Ġeil": 5854,
      "ĠPol": 5855,
      "Ġlog": 5856,
      "Ġfout": 5857,
      "åľĪ": 5858,
      "aste": 5859,
      "Ġformule": 5860,
      "Ġsingle": 5861,
      "Or": 5862,
      "UN": 5863,
      "ä½łä¹Ł": 5864,
      "Ġlives": 5865,
      "ä»ĭ": 5866,
      "Ġshot": 5867,
      "åĮ»éĻ¢": 5868,
      "Ġzuurstof": 5869,
      "Verd": 5870,
      "hold": 5871,
      "Ġopg": 5872,
      "cel": 5873,
      "¤Ĳ": 5874,
      "ĠOf": 5875,
      "è¡¥": 5876,
      "åĢŁ": 5877,
      "ĠéĤ£æĪĳ": 5878,
      "ç´¢": 5879,
      "Ġvie": 5880,
      "onen": 5881,
      "Ġpapa": 5882,
      "æ£Ģ": 5883,
      "ĠSpan": 5884,
      "ĠMartin": 5885,
      "ĠAugust": 5886,
      "Ġsupposed": 5887,
      "Ġeasy": 5888,
      "Ġgrap": 5889,
      "æĺ¨å¤©": 5890,
      "Ġsex": 5891,
      "æ¯Ķå¦Ĥ": 5892,
      "Ġkijkt": 5893,
      "Ġå¤§å®¶": 5894,
      "Ġnad": 5895,
      "Ġkids": 5896,
      "Ġcontact": 5897,
      "vloed": 5898,
      "zus": 5899,
      "Ġges": 5900,
      "Ġadv": 5901,
      "ĠAan": 5902,
      "Moet": 5903,
      "ĠVeren": 5904,
      "Ġbezig": 5905,
      "iod": 5906,
      "Ġshoes": 5907,
      "åħ³æ³¨": 5908,
      "èº«è¾¹": 5909,
      "za": 5910,
      "Ġmater": 5911,
      "Ġzes": 5912,
      "Ġkent": 5913,
      "åıªèĥ½": 5914,
      "æĸĩåĮĸ": 5915,
      "Ġdream": 5916,
      "Ġcaught": 5917,
      "Ġslow": 5918,
      "Ġmuziek": 5919,
      "Ġspeci": 5920,
      "ology": 5921,
      "Ġwest": 5922,
      "Ġdoden": 5923,
      "æĿ¥åĪ°": 5924,
      "æĹģ": 5925,
      "æĬĺ": 5926,
      "æģĲ": 5927,
      "Ġlovely": 5928,
      "dra": 5929,
      "è¯Ħ": 5930,
      "æ²¡äºĭ": 5931,
      "esterd": 5932,
      "ĠKennis": 5933,
      "Ġhung": 5934,
      "è¿Ľåİ»": 5935,
      "iest": 5936,
      "Ġwink": 5937,
      "Ġtechn": 5938,
      "ĠPart": 5939,
      "Ġdest": 5940,
      "Ġongel": 5941,
      "å°ģ": 5942,
      "Ġblock": 5943,
      "Ġdank": 5944,
      "Ġthemselves": 5945,
      "Ġletters": 5946,
      "hor": 5947,
      "è¯į": 5948,
      "rum": 5949,
      "éŀ": 5950,
      "Ġapart": 5951,
      "ision": 5952,
      "çļĦä¸ľè¥¿": 5953,
      "æĹ¥åŃĲ": 5954,
      "erecht": 5955,
      "èĢ³": 5956,
      "Ġterwijl": 5957,
      "ä¾Ľ": 5958,
      "çĥŁ": 5959,
      "ST": 5960,
      "Ġriver": 5961,
      "åį¡": 5962,
      "é¢Ħ": 5963,
      "Ġactiv": 5964,
      "ĠNorah": 5965,
      "Help": 5966,
      "é¤Ĳ": 5967,
      "Ġgetekend": 5968,
      "ograph": 5969,
      "ogen": 5970,
      "Ġzult": 5971,
      "ĠII": 5972,
      "éĥ½ä¼ļ": 5973,
      "åĽłæŃ¤": 5974,
      "Will": 5975,
      "some": 5976,
      "Ġobs": 5977,
      "Ġstil": 5978,
      "imin": 5979,
      "ĠæĪĳä¹Ł": 5980,
      "wegen": 5981,
      "Ġsouth": 5982,
      "äºļ": 5983,
      "Ġknows": 5984,
      "åĪļåĪļ": 5985,
      "ued": 5986,
      "ÉĻ": 5987,
      "Ġstat": 5988,
      "æĳĩ": 5989,
      "Ġsett": 5990,
      "ĠAg": 5991,
      "Ġ22": 5992,
      "ebru": 5993,
      "æĬĢæľ¯": 5994,
      "ĠWelke": 5995,
      "ĠåıĪ": 5996,
      "Ġervoor": 5997,
      "èī²çļĦ": 5998,
      "Ġpriv": 5999,
      "Ġport": 6000,
      "ĠæĪĳä¸į": 6001,
      "Per": 6002,
      "erence": 6003,
      "brand": 6004,
      "Ġlanguage": 6005,
      "hoog": 6006,
      "rift": 6007,
      "ĠOnder": 6008,
      "Heel": 6009,
      "äº«": 6010,
      "Ġlange": 6011,
      "though": 6012,
      "ctober": 6013,
      "OM": 6014,
      "Ġplat": 6015,
      "Ġwindow": 6016,
      "esterday": 6017,
      "Ġherself": 6018,
      "Ġregen": 6019,
      "Ġvoorbij": 6020,
      "Ġarms": 6021,
      "Ġanswered": 6022,
      "bouw": 6023,
      "Ġwithin": 6024,
      "Ġkwamen": 6025,
      "èĿ": 6026,
      "Ġworked": 6027,
      "ç¥¨": 6028,
      "å¯¹å¯¹": 6029,
      "åľ°è¯´": 6030,
      "eltje": 6031,
      "Ġbroer": 6032,
      "ĠNederlandse": 6033,
      "ube": 6034,
      "arch": 6035,
      "Ġ192": 6036,
      "Ġnut": 6037,
      "æ³¢": 6038,
      "ĠEngland": 6039,
      "Ġkiss": 6040,
      "play": 6041,
      "åłĤ": 6042,
      "Iedereen": 6043,
      "Ġfift": 6044,
      "clus": 6045,
      "Pap": 6046,
      "iot": 6047,
      "Ġled": 6048,
      "alm": 6049,
      "ĠWas": 6050,
      "Ġgeworden": 6051,
      "çĲĨè§£": 6052,
      "Ġ*": 6053,
      "Ġä¸Ĭ": 6054,
      "ä¸´": 6055,
      "elingen": 6056,
      "Ġpraat": 6057,
      "asure": 6058,
      "Ġmember": 6059,
      "iled": 6060,
      "Ġ21": 6061,
      "æģĭ": 6062,
      "æĭľæĭľ": 6063,
      "Ġmillion": 6064,
      "Ġdad": 6065,
      "ãĢĬ": 6066,
      "ãĢĭ": 6067,
      "è®Ń": 6068,
      "åĲ¬è¯´": 6069,
      "æĸ°çļĦ": 6070,
      "Ġå¦Ī": 6071,
      "Beg": 6072,
      "Ġsight": 6073,
      "æĪĳåľ¨": 6074,
      "çĶļ": 6075,
      "which": 6076,
      "oenen": 6077,
      "å®Įåħ¨": 6078,
      "ebruik": 6079,
      "åĪº": 6080,
      "ĠBra": 6081,
      "ĠVol": 6082,
      "è±Ĩ": 6083,
      "Ġtrees": 6084,
      "ebruary": 6085,
      "30": 6086,
      "Ġtired": 6087,
      "ä½łçŁ¥éģĵ": 6088,
      "ĠAfter": 6089,
      "Some": 6090,
      "Ġevent": 6091,
      "ľçļĦ": 6092,
      "Ġmur": 6093,
      "ĠBer": 6094,
      "èĭ¥": 6095,
      "Ġceremon": 6096,
      "Ġgep": 6097,
      "entle": 6098,
      "æĿ¯": 6099,
      "è¿ĺè¦ģ": 6100,
      "ĠBritish": 6101,
      "Ġclothes": 6102,
      "maken": 6103,
      "Ġliter": 6104,
      "æľīæ²¡æľī": 6105,
      "ĠNove": 6106,
      "Ġspl": 6107,
      "ĠRiver": 6108,
      "ĠéĤ£ä¹Ī": 6109,
      "Ġbroken": 6110,
      "éŁ©": 6111,
      "æ³¨æĦı": 6112,
      "ĠNovember": 6113,
      "Ġraak": 6114,
      "Ġåĸ": 6115,
      "ume": 6116,
      "å®¶çļĦ": 6117,
      "èĪĴ": 6118,
      "urton": 6119,
      "Ġ/": 6120,
      "Ġijs": 6121,
      "ening": 6122,
      "Ġcorn": 6123,
      "æĸ¹å¼ı": 6124,
      "Ġåº": 6125,
      "Ġä½łè¦ģ": 6126,
      "åįĩ": 6127,
      "Ġeating": 6128,
      "ublieft": 6129,
      "Ġvreem": 6130,
      "Ġfear": 6131,
      "åĪĨä¹ĭ": 6132,
      "press": 6133,
      "åĩłå¤©": 6134,
      "çłĶç©¶": 6135,
      "Fr": 6136,
      "Ġdaughter": 6137,
      "ĠåĮ": 6138,
      "æµª": 6139,
      "Ġwinter": 6140,
      "Ġdaddy": 6141,
      "Ġsick": 6142,
      "Ġnamen": 6143,
      "Ġlist": 6144,
      "druk": 6145,
      "æģ©": 6146,
      "ä»»åĬ¡": 6147,
      "uist": 6148,
      "éĺµ": 6149,
      "view": 6150,
      "point": 6151,
      "Ġchance": 6152,
      "Ġlonger": 6153,
      "å½Ĵ": 6154,
      "ondon": 6155,
      "nemen": 6156,
      "è¾Ľ": 6157,
      "stublieft": 6158,
      "Ġsterk": 6159,
      "ĠDen": 6160,
      "Heeft": 6161,
      "ĠApril": 6162,
      "Ġgeboren": 6163,
      "æĻº": 6164,
      "æħ¢æħ¢": 6165,
      "èĮĥ": 6166,
      "åģ¥": 6167,
      "å´": 6168,
      "Ġsinds": 6169,
      "Ġliet": 6170,
      "ä½Ļ": 6171,
      "ĠMOT": 6172,
      "Ġbom": 6173,
      "Ġvlucht": 6174,
      "Ġheavy": 6175,
      "ĠAB": 6176,
      "Ġwhether": 6177,
      "edig": 6178,
      "ample": 6179,
      "Ġpan": 6180,
      "Ġeye": 6181,
      "ĠUniversity": 6182,
      "Niemand": 6183,
      "oning": 6184,
      "Ġbetalen": 6185,
      "Ġearth": 6186,
      "Ġnoises": 6187,
      "éģį": 6188,
      "æĭ¬": 6189,
      "goed": 6190,
      "ĠSw": 6191,
      "éĤ£åĦ¿": 6192,
      "Ġschoon": 6193,
      "æ´ŀ": 6194,
      "è¿Ļä»¶": 6195,
      "Ġelect": 6196,
      "Ġgedrag": 6197,
      "Ġneeds": 6198,
      "Ġpossible": 6199,
      "Ġstroom": 6200,
      "Ġforward": 6201,
      "Ġappro": 6202,
      "åĵ¥åĵ¥": 6203,
      "ius": 6204,
      "éĻĨ": 6205,
      "Ġdress": 6206,
      "æļĸ": 6207,
      "Pl": 6208,
      "Ġesc": 6209,
      "æĸ½": 6210,
      "æķ´ä¸ª": 6211,
      "will": 6212,
      "iety": 6213,
      "Ġreport": 6214,
      "ĠOctober": 6215,
      "Ġfeeling": 6216,
      "Ġhy": 6217,
      "è´¥": 6218,
      "éĥ¨åĪĨ": 6219,
      "IJ": 6220,
      "æ¬¾": 6221,
      "Ġperform": 6222,
      "ä»ĸä»¬çļĦ": 6223,
      "Ġdrive": 6224,
      "ĠåĪ°": 6225,
      "Ġèĥ½": 6226,
      "Ġbaan": 6227,
      "ä¸Ģä¼ļåĦ¿": 6228,
      "Ġweken": 6229,
      "ules": 6230,
      "Ġplaces": 6231,
      "Ġmicro": 6232,
      "kens": 6233,
      "Ġnaast": 6234,
      "Ġverteld": 6235,
      "Ġsilence": 6236,
      "æĹ¢çĦ¶": 6237,
      "Ġlab": 6238,
      "Ġversl": 6239,
      "æĿ¥è¶Ĭ": 6240,
      "Ġboot": 6241,
      "æ¦Ĥ": 6242,
      "Ġfrog": 6243,
      "ĠMen": 6244,
      "staande": 6245,
      "Ġfort": 6246,
      "indt": 6247,
      "Ġcommand": 6248,
      "å¸¦çĿĢ": 6249,
      "åİīå®³": 6250,
      "yn": 6251,
      "è¶ĬæĿ¥è¶Ĭ": 6252,
      "Ġbow": 6253,
      "Ġpracht": 6254,
      "åºĬ": 6255,
      "Ġrespect": 6256,
      "åĪĢ": 6257,
      "Ġworry": 6258,
      "éĩĬ": 6259,
      "Ġstoffen": 6260,
      "Ġè¿Ļä¹Ī": 6261,
      "ula": 6262,
      "ĠVraag": 6263,
      "Ġè¿Ļæł·": 6264,
      "æĸ°éĹ»": 6265,
      "åĲįåŃĹ": 6266,
      "Ġgeldt": 6267,
      "Ġpassed": 6268,
      "Ġpublic": 6269,
      "æĭħå¿ĥ": 6270,
      "Ġaand": 6271,
      "æĮ¥": 6272,
      "Ġglass": 6273,
      "vangen": 6274,
      "ç®Ģåįķ": 6275,
      "ered": 6276,
      "ruce": 6277,
      "Ġcontrol": 6278,
      "Ġkoolstof": 6279,
      "blad": 6280,
      "Ġgingen": 6281,
      "Alleen": 6282,
      "$$\\": 6283,
      "Ġsurpr": 6284,
      "å¥¶å¥¶": 6285,
      "Ġdepartment": 6286,
      "dan": 6287,
      "dien": 6288,
      "pend": 6289,
      "Ġricht": 6290,
      "Ġoppervl": 6291,
      "çľŁçļĦæĺ¯": 6292,
      "æĹħ": 6293,
      "rible": 6294,
      "kan": 6295,
      "ä»ĺ": 6296,
      "Ġstorm": 6297,
      "Ġcentury": 6298,
      "ĠSeptember": 6299,
      "ipe": 6300,
      "Ġcommon": 6301,
      "åģļçļĦ": 6302,
      "ĠCounty": 6303,
      "16": 6304,
      "Ġdanger": 6305,
      "Ġhar": 6306,
      "regen": 6307,
      "ä¸Ģåıª": 6308,
      "æľīäºĽ": 6309,
      "Ġforget": 6310,
      "ĠFebruary": 6311,
      "Ġseat": 6312,
      "Ġprep": 6313,
      "amera": 6314,
      "Ġmachine": 6315,
      "Ġrub": 6316,
      "çľŁæŃ£": 6317,
      "çŃĶåºĶ": 6318,
      "Ġèµ°": 6319,
      "ĠTom": 6320,
      "Ġshout": 6321,
      "å¦»": 6322,
      "åĸĦ": 6323,
      "æĻ¨": 6324,
      "Ġmaakte": 6325,
      "Ġsand": 6326,
      "Ġbreat": 6327,
      "ising": 6328,
      "è®¨": 6329,
      "æĪĲåĬŁ": 6330,
      "ĠLees": 6331,
      "Ġstruct": 6332,
      "pel": 6333,
      "Ġdik": 6334,
      "Ġpract": 6335,
      "aling": 6336,
      "eller": 6337,
      "å¼ĥ": 6338,
      "ux": 6339,
      "won": 6340,
      "ĠLondon": 6341,
      "ĠGrand": 6342,
      "lymp": 6343,
      "Ġzeer": 6344,
      "Ġverwij": 6345,
      "ĠæĪĳè¦ģ": 6346,
      "Ġspot": 6347,
      "è¿ĲåĬ¨": 6348,
      "Every": 6349,
      "Gew": 6350,
      "Ġkoff": 6351,
      "Bel": 6352,
      "Ġcost": 6353,
      "å¾ĹåĪ°": 6354,
      "ĠOl": 6355,
      "elsel": 6356,
      "Ġ40": 6357,
      "would": 6358,
      "ingers": 6359,
      "ieved": 6360,
      "owel": 6361,
      "æĬ¢": 6362,
      "ffic": 6363,
      "Ġtelevision": 6364,
      "Ġfruit": 6365,
      "ĠSer": 6366,
      "çĪ¶æ¯į": 6367,
      "é½Ĳ": 6368,
      "åħ°": 6369,
      "ĠåĽŀ": 6370,
      "ener": 6371,
      "ories": 6372,
      "omst": 6373,
      "ä¸įéĶĻ": 6374,
      "Ġgrass": 6375,
      "Ġstoppen": 6376,
      "zoeken": 6377,
      "Ġvent": 6378,
      "Ġdoel": 6379,
      "ersch": 6380,
      "Ġoverle": 6381,
      "æŀĦ": 6382,
      "obert": 6383,
      "give": 6384,
      "Ġbuurt": 6385,
      "agon": 6386,
      "ĠHarry": 6387,
      "æī¹": 6388,
      "å°±æĺ¯è¯´": 6389,
      "èĥĸ": 6390,
      "ä¸įä½ı": 6391,
      "aker": 6392,
      "æļĹ": 6393,
      "Ġquickly": 6394,
      "Ġcake": 6395,
      "ĠAnt": 6396,
      "Ġformer": 6397,
      "Ġregel": 6398,
      "Ġmoder": 6399,
      "isc": 6400,
      "Ġlach": 6401,
      "Ġcry": 6402,
      "amb": 6403,
      "åĸĬ": 6404,
      "æĦŁæĥħ": 6405,
      "è¿Ļä¹Īå¤ļ": 6406,
      "åĳĬè¯īæĪĳ": 6407,
      "Ġmiddel": 6408,
      "éŃĶ": 6409,
      "Ġreleased": 6410,
      "Door": 6411,
      "Ġisland": 6412,
      "Ġhaal": 6413,
      "Ġsnap": 6414,
      "é¡¿": 6415,
      "åıĺæĪĲ": 6416,
      "Maybe": 6417,
      "Ġker": 6418,
      "ĠTer": 6419,
      "Ġdescri": 6420,
      "Ġbellen": 6421,
      "Ġeet": 6422,
      "Ġeraan": 6423,
      "ĠGel": 6424,
      "ç§ĭ": 6425,
      "Ġbread": 6426,
      "Ã¯n": 6427,
      "Ġfijn": 6428,
      "ĠSome": 6429,
      "æĥ³è¦ģ": 6430,
      "Ġbegon": 6431,
      "å¥³åŃ©": 6432,
      "ira": 6433,
      "Ġei": 6434,
      "éĥ½åľ¨": 6435,
      "åĲĮæĹ¶": 6436,
      "èĵĿ": 6437,
      "è¯Ĺ": 6438,
      "åķĬä½ł": 6439,
      "å¼Ĥ": 6440,
      "Ġblijf": 6441,
      "work": 6442,
      "Ġzorg": 6443,
      "emy": 6444,
      "ippen": 6445,
      "çĸ¼": 6446,
      "Ġtoward": 6447,
      "ç§ģ": 6448,
      "Ġseem": 6449,
      "Ġputting": 6450,
      "æ¤į": 6451,
      "ature": 6452,
      "ä½łäºĨ": 6453,
      "ä¾ĭ": 6454,
      "volgens": 6455,
      "Ġanderen": 6456,
      "ogn": 6457,
      "ffen": 6458,
      "æŁĵ": 6459,
      "ä»ĸæĺ¯": 6460,
      "Ġleger": 6461,
      "éĥ½æľī": 6462,
      "Ġseems": 6463,
      "åķĬæĪĳ": 6464,
      "ichael": 6465,
      "é¢ĳ": 6466,
      "Ġtabel": 6467,
      "Ġdaarom": 6468,
      "ç¢°": 6469,
      "èĢģæĿ¿": 6470,
      "ĠJuly": 6471,
      "æīĺ": 6472,
      "Ġbelong": 6473,
      "reekt": 6474,
      "Because": 6475,
      "Ġbegrijp": 6476,
      "Ġduur": 6477,
      "Ġzak": 6478,
      "Ġforgot": 6479,
      "okken": 6480,
      "éĻį": 6481,
      "Ġcouple": 6482,
      "Hello": 6483,
      "hij": 6484,
      "uwen": 6485,
      "Ġkonden": 6486,
      "resident": 6487,
      "åŁİå¸Ĥ": 6488,
      "ĠGeorge": 6489,
      "rucht": 6490,
      "gelopen": 6491,
      "Ġredden": 6492,
      "aien": 6493,
      "Ġsal": 6494,
      "stoffen": 6495,
      "ç¬Ķ": 6496,
      "Ġmeisjes": 6497,
      "ĠRepubl": 6498,
      "gar": 6499,
      "Ġur": 6500,
      "Ġbedo": 6501,
      "El": 6502,
      "ĠGa": 6503,
      "ç«¥": 6504,
      "ĠæĪĳçİ°åľ¨": 6505,
      "ording": 6506,
      "Ġbroke": 6507,
      "æĳĨ": 6508,
      "ADU": 6509,
      "eh": 6510,
      "Ġè·Ł": 6511,
      "Ġverr": 6512,
      "äººä»¬": 6513,
      "ä¸¢": 6514,
      "Ġlim": 6515,
      "Ġsmell": 6516,
      "dam": 6517,
      "ya": 6518,
      "zin": 6519,
      "omes": 6520,
      "igg": 6521,
      "å¤ı": 6522,
      "Ġä½łçļĦ": 6523,
      "wijs": 6524,
      "14": 6525,
      "See": 6526,
      "Ġyesterday": 6527,
      "Ġblow": 6528,
      "éĿ©": 6529,
      "è¡ĮåĬ¨": 6530,
      "Ġtowards": 6531,
      "Ġ23": 6532,
      "Ġvertrouw": 6533,
      "åĬªåĬĽ": 6534,
      "Ġcop": 6535,
      "Ġusing": 6536,
      "çĶŁæ°Ķ": 6537,
      "uper": 6538,
      "å±Ĥ": 6539,
      "Ġcars": 6540,
      "ĠYOU": 6541,
      "å®ĮäºĨ": 6542,
      "Ġgebeuren": 6543,
      "enry": 6544,
      "Ġtick": 6545,
      "Ġtail": 6546,
      "Ġsilly": 6547,
      "å°Ħ": 6548,
      "ionen": 6549,
      "ustig": 6550,
      "ĠNorth": 6551,
      "ç¥Ŀ": 6552,
      "Ġimm": 6553,
      "Ġij": 6554,
      "éĥ½æ²¡": 6555,
      "Ġsterven": 6556,
      "ae": 6557,
      "ĠCity": 6558,
      "è¦ģæ±Ĥ": 6559,
      "Ġmaanden": 6560,
      "Ġzwaar": 6561,
      "Ġkennen": 6562,
      "Ġwinnen": 6563,
      "Vertel": 6564,
      "antie": 6565,
      "Ġverdomme": 6566,
      "with": 6567,
      "Ġthird": 6568,
      "åİ»æī¾": 6569,
      "Ġhoeveelheid": 6570,
      "Ġgovernment": 6571,
      "Have": 6572,
      "fast": 6573,
      "joy": 6574,
      "ests": 6575,
      "ĠGra": 6576,
      "Ġschip": 6577,
      "Alsjeblieft": 6578,
      "æ¬¢è¿İ": 6579,
      "å¨ģ": 6580,
      "åĲµ": 6581,
      "ç»ıå¸¸": 6582,
      "Dr": 6583,
      "Ġhut": 6584,
      "Ġkid": 6585,
      "ieken": 6586,
      "Ġstrange": 6587,
      "Ġanyway": 6588,
      "Ġmum": 6589,
      "Ġlid": 6590,
      "Ġwelk": 6591,
      "Ġjonge": 6592,
      "åįļ": 6593,
      "Ġmommy": 6594,
      "å®Ĺ": 6595,
      "Ġpolice": 6596,
      "Ġsupport": 6597,
      "ĠSun": 6598,
      "Ġkunst": 6599,
      "13": 6600,
      "toe": 6601,
      "Ġå¤ª": 6602,
      "ä¸ĭçļĦ": 6603,
      "æĻ®": 6604,
      "enny": 6605,
      "èĮ¶": 6606,
      "Ġgeneral": 6607,
      "rodu": 6608,
      "Ġgram": 6609,
      "espe": 6610,
      "Ġ2014": 6611,
      "Ġwaiting": 6612,
      "ray": 6613,
      "Ġpain": 6614,
      "stelling": 6615,
      "Ġreken": 6616,
      "osaur": 6617,
      "Ġposit": 6618,
      "geet": 6619,
      "è¡Ĺ": 6620,
      "Ġexample": 6621,
      "èĦ±": 6622,
      "Ġrelig": 6623,
      "Ġverwacht": 6624,
      "night": 6625,
      "ĠRo": 6626,
      "ĠUit": 6627,
      "ç¼º": 6628,
      "issen": 6629,
      "Ġfill": 6630,
      "çĶļèĩ³": 6631,
      "otte": 6632,
      "å¹´è½»": 6633,
      "æ¹ĸ": 6634,
      "Ġabsol": 6635,
      "ĠæľĢ": 6636,
      "eeg": 6637,
      "Ġmoving": 6638,
      "Ġtrans": 6639,
      "Ġoplossing": 6640,
      "singing": 6641,
      "ds": 6642,
      "çļĦéĤ£ä¸ª": 6643,
      "Ġking": 6644,
      "æī§": 6645,
      "Ġbijz": 6646,
      "ictor": 6647,
      "Ġterecht": 6648,
      "Ġvuur": 6649,
      "naam": 6650,
      "Ġbrown": 6651,
      "ç³ĸ": 6652,
      "å°Ĭ": 6653,
      "Ġadm": 6654,
      "ĠEuropa": 6655,
      "ened": 6656,
      "Ġpack": 6657,
      "alle": 6658,
      "Ġprins": 6659,
      "ukt": 6660,
      "æĪĳçľĭ": 6661,
      "ĠSl": 6662,
      "rap": 6663,
      "Ġwonen": 6664,
      "please": 6665,
      "ĠChristmas": 6666,
      "ĠMil": 6667,
      "éķ¿çļĦ": 6668,
      "æģ¶": 6669,
      "Welke": 6670,
      "ugs": 6671,
      "ĠZijn": 6672,
      "Ġfollowing": 6673,
      "ä¼ĳæģ¯": 6674,
      "Gel": 6675,
      "izen": 6676,
      "alph": 6677,
      "Ġrijden": 6678,
      "veren": 6679,
      "æľ¬æĿ¥": 6680,
      "Ġhoek": 6681,
      "Ġaanwe": 6682,
      "oft": 6683,
      "Ġpassen": 6684,
      "ĠIN": 6685,
      "å·§": 6686,
      "çĻ¾åĪĨä¹ĭ": 6687,
      "å¹¸ç¦ı": 6688,
      "Ġtrek": 6689,
      "è¾ĵ": 6690,
      "egd": 6691,
      "Ġperiod": 6692,
      "ç¨³": 6693,
      "iedenis": 6694,
      "steem": 6695,
      "åĬ²": 6696,
      "Ġneg": 6697,
      "Ġvermoord": 6698,
      "gang": 6699,
      "lingen": 6700,
      "Ġboos": 6701,
      "stellen": 6702,
      "å¤§åĵ¥": 6703,
      "Ġvlak": 6704,
      "Uit": 6705,
      "Ġsoorten": 6706,
      "leep": 6707,
      "Ġreger": 6708,
      "å¤§äºĨ": 6709,
      "ä¸»è¦ģ": 6710,
      "ospital": 6711,
      "Ġbull": 6712,
      "Ġerop": 6713,
      "Ġarri": 6714,
      "repen": 6715,
      "ĠæĪĳè¯´": 6716,
      "Ġkwijt": 6717,
      "Ġvogel": 6718,
      "Ġvoelt": 6719,
      "Ġhoogte": 6720,
      "bing": 6721,
      "æ¾": 6722,
      "Ġcoun": 6723,
      "Ġmedicine": 6724,
      "eken": 6725,
      "å°±è¦ģ": 6726,
      "Ġreis": 6727,
      "ulf": 6728,
      "ĠOlymp": 6729,
      "Ġappar": 6730,
      "Gr": 6731,
      "Leg": 6732,
      "Ġpig": 6733,
      "Her": 6734,
      "used": 6735,
      "Ġpress": 6736,
      "Ġhors": 6737,
      "Ġkopen": 6738,
      "åĬ³": 6739,
      "ä½łè¿Ļ": 6740,
      "empt": 6741,
      "Ġontmoet": 6742,
      "è¶£": 6743,
      "Ġmeester": 6744,
      "Ġveranderen": 6745,
      "Ġsuggest": 6746,
      "hem": 6747,
      "Ġhole": 6748,
      "Ġnor": 6749,
      "Ġopnieuw": 6750,
      "ĠBurton": 6751,
      "Ġworks": 6752,
      "iders": 6753,
      "Ġbeweg": 6754,
      "æ¬§": 6755,
      "Ġcellen": 6756,
      "ĠMark": 6757,
      "åĽ°": 6758,
      "Ġhieronder": 6759,
      "ĠåĴĮ": 6760,
      "Ġbos": 6761,
      "ijdt": 6762,
      "è¢ĭ": 6763,
      "Ġmaand": 6764,
      "rel": 6765,
      "Ġhig": 6766,
      "alley": 6767,
      "Ġut": 6768,
      "Ġspace": 6769,
      "Ġradio": 6770,
      "las": 6771,
      "Ġnearly": 6772,
      "å°ıå¿ĥ": 6773,
      "beelden": 6774,
      "ĠChina": 6775,
      "Ġbuilt": 6776,
      "Ġrechts": 6777,
      "Ġpoints": 6778,
      "Ġprobeer": 6779,
      "maybe": 6780,
      "å³": 6781,
      "çĺ": 6782,
      "ache": 6783,
      "Ġslim": 6784,
      "Ġpopulation": 6785,
      "Ġmajor": 6786,
      "AS": 6787,
      "Ġcried": 6788,
      "Ġproject": 6789,
      "ekijk": 6790,
      "idence": 6791,
      "uzz": 6792,
      "Excuse": 6793,
      "ĠCent": 6794,
      "Ġexcl": 6795,
      "çŃĸ": 6796,
      "Ġregels": 6797,
      "ç»Ħç»ĩ": 6798,
      "oger": 6799,
      "Ġdisapp": 6800,
      "board": 6801,
      "lor": 6802,
      "Ġmakkelijk": 6803,
      "Ġstuck": 6804,
      "estig": 6805,
      "å¿į": 6806,
      "osten": 6807,
      "Ġbestaan": 6808,
      "å®£": 6809,
      "æĿŁ": 6810,
      "Ġweren": 6811,
      "å½ķ": 6812,
      "ishing": 6813,
      "Ġteeth": 6814,
      "genoot": 6815,
      "essor": 6816,
      "åĲİéĿ¢": 6817,
      "Ġcarry": 6818,
      "Ġcareful": 6819,
      "Ġhotel": 6820,
      "Daddy": 6821,
      "èĶ": 6822,
      "ikel": 6823,
      "çĭ¸": 6824,
      "Ġwitte": 6825,
      "æ¢ħ": 6826,
      "çĿĢæĪĳ": 6827,
      "è§£æŀĲ": 6828,
      "æĪ¿éĹ´": 6829,
      "Ġstraight": 6830,
      "Wanneer": 6831,
      "Ġfarm": 6832,
      "ä½łæĢİä¹Ī": 6833,
      "Ġren": 6834,
      "Ġtape": 6835,
      "åħį": 6836,
      "Ġtelling": 6837,
      "Ġvliegt": 6838,
      "uyu": 6839,
      "Ġgang": 6840,
      "Ġmevrouw": 6841,
      "beer": 6842,
      "çĽĺ": 6843,
      "Ġgroter": 6844,
      "Ġgiving": 6845,
      "Ġgentle": 6846,
      "Ġzen": 6847,
      "leiding": 6848,
      "åľ¨æĪĳ": 6849,
      "çģŃ": 6850,
      "æł¹æį®": 6851,
      "wassen": 6852,
      "agram": 6853,
      "ĠEx": 6854,
      "å¤§äºº": 6855,
      "itty": 6856,
      "Ġå¸Ī": 6857,
      "è¾ĪåŃĲ": 6858,
      "Ġæ¯ı": 6859,
      "Ġreached": 6860,
      "Ġmelk": 6861,
      "Ġvoorkomen": 6862,
      "åī¯": 6863,
      "standig": 6864,
      "åİŁåĽł": 6865,
      "Ġweeks": 6866,
      "Ġvisit": 6867,
      "Ġbepaald": 6868,
      "Ġvanuit": 6869,
      "åŃĲéĩĮ": 6870,
      "schappen": 6871,
      "æĬĬä½ł": 6872,
      "å®ŀåľ¨": 6873,
      "Ġsomm": 6874,
      "Ġspeelt": 6875,
      "isme": 6876,
      "ikuyu": 6877,
      "ä¸Ģè¾¹": 6878,
      "ĠDavid": 6879,
      "ĠLa": 6880,
      "Ġsnake": 6881,
      "Ġvechten": 6882,
      "Ġcream": 6883,
      "çļĦäºĭåĦ¿": 6884,
      "ught": 6885,
      "åĽŀæĿ¥äºĨ": 6886,
      "æ´²": 6887,
      "punt": 6888,
      "Ġburn": 6889,
      "å¯»": 6890,
      "ä½ľçĶ¨": 6891,
      "è¿Ľåħ¥": 6892,
      "Ġswe": 6893,
      "æ²ī": 6894,
      "ified": 6895,
      "Ġmoesten": 6896,
      "ç»Ŀå¯¹": 6897,
      "Ġgast": 6898,
      "Ġtin": 6899,
      "ette": 6900,
      "Ġkort": 6901,
      "Ġrob": 6902,
      "nem": 6903,
      "è´§": 6904,
      "ĠStaten": 6905,
      "å¦ĤæŃ¤": 6906,
      "Ġfinish": 6907,
      "Ġtrein": 6908,
      "uigen": 6909,
      "äºĨä»ĸ": 6910,
      "ĠJoe": 6911,
      "é¢ľ": 6912,
      "ĠChi": 6913,
      "æ£®": 6914,
      "Ġchicken": 6915,
      "Ġvolk": 6916,
      "èģª": 6917,
      "aimed": 6918,
      "say": 6919,
      "voud": 6920,
      "Ġsense": 6921,
      "anda": 6922,
      "Ġmemb": 6923,
      "ĠMor": 6924,
      "ĠNoord": 6925,
      "åĨ°": 6926,
      "çĪ¬": 6927,
      "éļ¾éģĵ": 6928,
      "Ġmilit": 6929,
      "Ġchanged": 6930,
      "Ġbaas": 6931,
      "èĩ£": 6932,
      "å®ĥçļĦ": 6933,
      "æĶ¹åıĺ": 6934,
      "Ġlanger": 6935,
      "sings": 6936,
      "uno": 6937,
      "åŃ£": 6938,
      "Ġtrack": 6939,
      "oppen": 6940,
      "å¥½åĲ§": 6941,
      "Ġbloemen": 6942,
      "å®ĮæĪĲ": 6943,
      "Ġmiles": 6944,
      "Ġbatter": 6945,
      "Ġpagina": 6946,
      "é¢Ĺ": 6947,
      "Ġsou": 6948,
      "ieke": 6949,
      "ston": 6950,
      "ads": 6951,
      "åį°": 6952,
      "ugen": 6953,
      "å°Ŀ": 6954,
      "rian": 6955,
      "ç«¯": 6956,
      "çĥ§": 6957,
      "ĠPortug": 6958,
      "Uh": 6959,
      "Ġthirty": 6960,
      "Ġboard": 6961,
      "ĠWilliam": 6962,
      "Ġcertainly": 6963,
      "ites": 6964,
      "æĺ¯è°ģ": 6965,
      "Ġsocial": 6966,
      "Ġchem": 6967,
      "iaal": 6968,
      "ĠWell": 6969,
      "halen": 6970,
      "zier": 6971,
      "Ġdry": 6972,
      "Ġcaus": 6973,
      "stelsel": 6974,
      "åľĨ": 6975,
      "ĠDE": 6976,
      "å¿«ä¹Ĳ": 6977,
      "Ġä¼ļ": 6978,
      "Ġsad": 6979,
      "Ġadem": 6980,
      "Ġknock": 6981,
      "Ġsecret": 6982,
      "å¦Ĥä½ķ": 6983,
      "After": 6984,
      "Any": 6985,
      "Even": 6986,
      "Naar": 6987,
      "ais": 6988,
      "Ġgister": 6989,
      "Ġeleph": 6990,
      "Ġverdien": 6991,
      "ozen": 6992,
      "llustr": 6993,
      "afel": 6994,
      "å¸®æĪĳ": 6995,
      "nes": 6996,
      "Ġenjoy": 6997,
      "Ġ28": 6998,
      "Ġomhoog": 6999,
      "Ġorange": 7000,
      "æĬĬä»ĸ": 7001,
      "åĲ¬åĪ°": 7002,
      "æ¡Į": 7003,
      "Meneer": 7004,
      "Ġdroom": 7005,
      "Ġnest": 7006,
      "Ġarg": 7007,
      "Ġcell": 7008,
      "Ġinstead": 7009,
      "æīĵå¼Ģ": 7010,
      "éĻ¤äºĨ": 7011,
      "Ã¶r": 7012,
      "çİ¯å¢ĥ": 7013,
      "ä½Ľ": 7014,
      "bled": 7015,
      "Ġstraat": 7016,
      "With": 7017,
      "time": 7018,
      "Ġcard": 7019,
      "å¥½çľĭ": 7020,
      "Ġwedstrijd": 7021,
      "Ġtv": 7022,
      "Ġvoll": 7023,
      "unic": 7024,
      "Ġdok": 7025,
      "emand": 7026,
      "ĠRob": 7027,
      "ĠFred": 7028,
      "è®¡åĪĴ": 7029,
      "Ġfollowed": 7030,
      "Ġtemperatuur": 7031,
      "ratie": 7032,
      "Ġreach": 7033,
      "Ġ(\"": 7034,
      "è§ģè¿ĩ": 7035,
      "ĠAmerica": 7036,
      "åıĤåĬł": 7037,
      "æĪ´": 7038,
      "stad": 7039,
      "lean": 7040,
      "Ġflat": 7041,
      "èİ«": 7042,
      "æĽ¾ç»ı": 7043,
      "å·¨": 7044,
      "Ġhasn": 7045,
      "ĠZij": 7046,
      "ĠZie": 7047,
      "cher": 7048,
      "åºĨ": 7049,
      "attle": 7050,
      "ĠMex": 7051,
      "arp": 7052,
      "este": 7053,
      "Ġann": 7054,
      "æĳ¸": 7055,
      "wijk": 7056,
      "Ġå¤©": 7057,
      "Ġstom": 7058,
      "ushed": 7059,
      "ĠCom": 7060,
      "èµ¢": 7061,
      "èĥ½åĬĽ": 7062,
      "Ġgevoel": 7063,
      "uhhuh": 7064,
      "Ġzul": 7065,
      "ĠDaarna": 7066,
      "Ġview": 7067,
      "uture": 7068,
      "ĠHeb": 7069,
      "åĽŀäºĭ": 7070,
      "æ¸Ĳ": 7071,
      "åĵªéĩĮ": 7072,
      "Ġåıªè¦ģ": 7073,
      "éĤ£è¾¹": 7074,
      "essie": 7075,
      "Ġè¿ĻäºĽ": 7076,
      "åĮ»çĶŁ": 7077,
      "ç²¾ç¥ŀ": 7078,
      "Ste": 7079,
      "Ġbought": 7080,
      "ĠZuid": 7081,
      "Ġdiscover": 7082,
      "leur": 7083,
      "aalt": 7084,
      "å¯¹åķĬ": 7085,
      "actie": 7086,
      "iefd": 7087,
      "æİ¥åıĹ": 7088,
      "Ġvandaan": 7089,
      "Ġmiddle": 7090,
      "Ġdoubt": 7091,
      "æ°¸è¿ľ": 7092,
      "æĪĳçŁ¥éģĵ": 7093,
      "çŃ¾": 7094,
      "åİŁæĿ¥": 7095,
      "aura": 7096,
      "æĶ¿åºľ": 7097,
      "Ġhield": 7098,
      "Ġforce": 7099,
      "ĠCol": 7100,
      "ugg": 7101,
      "Ġprison": 7102,
      "æĹłæ³ķ": 7103,
      "Ġgelukkig": 7104,
      "Ġpet": 7105,
      "Ġinsp": 7106,
      "æĬĬå®ĥ": 7107,
      "åĪ«çļĦ": 7108,
      "åĶĲ": 7109,
      "Vooruit": 7110,
      "Zoals": 7111,
      "Ġallowed": 7112,
      "Rustig": 7113,
      "Ġä¸ī": 7114,
      "Ġhout": 7115,
      "ĠTony": 7116,
      "å¾Ĺå¾Ī": 7117,
      "çĿĢæĢ¥": 7118,
      "Ġterm": 7119,
      "éĹ®ä½ł": 7120,
      "çħ§é¡¾": 7121,
      "itchen": 7122,
      "Ġenorm": 7123,
      "Ġdoc": 7124,
      "Ġappl": 7125,
      "Ġfant": 7126,
      "eltjes": 7127,
      "Ġinformation": 7128,
      "ĠWhy": 7129,
      "Ġchocol": 7130,
      "igheid": 7131,
      "Ġmeat": 7132,
      "ĠLou": 7133,
      "back": 7134,
      "è¯º": 7135,
      "Ġgeluid": 7136,
      "Ġ2018": 7137,
      "Ġsituatie": 7138,
      "Ġoppervlakte": 7139,
      "ooien": 7140,
      "Ġmeant": 7141,
      "ĠSim": 7142,
      "ĠGro": 7143,
      "åĽŀåĪ°": 7144,
      "Ġbottom": 7145,
      "éº»çĥ¦": 7146,
      "çĭĲçĭ¸": 7147,
      "å¸ħ": 7148,
      "Ġwaarschijnlijk": 7149,
      "Ġintern": 7150,
      "Ġfilmp": 7151,
      "Ġsky": 7152,
      "kw": 7153,
      "Ġnatuur": 7154,
      "roy": 7155,
      "æĿĤ": 7156,
      "å°±åľ¨": 7157,
      "ä¸ĬéĿ¢": 7158,
      "Ġevening": 7159,
      "å¸Ĥåľº": 7160,
      "Ġkoningin": 7161,
      "Ġexpect": 7162,
      "Ġneck": 7163,
      "rijden": 7164,
      "Ġprop": 7165,
      "èĩªçĦ¶": 7166,
      "Ġverloren": 7167,
      "ĠMy": 7168,
      "Ġrequ": 7169,
      "Ġpieces": 7170,
      "åĳĹ": 7171,
      "ĠChin": 7172,
      "ĠZw": 7173,
      "ioxide": 7174,
      "Ġcast": 7175,
      "å¾Ĳ": 7176,
      "Ġinfl": 7177,
      "Ġbeer": 7178,
      "åĴĭ": 7179,
      "æĶ»": 7180,
      "Â·": 7181,
      "æĪĳè¿Ļ": 7182,
      "ĠCaptain": 7183,
      "å¥½å¤ļ": 7184,
      "cially": 7185,
      "Ġbehand": 7186,
      "ä¸Ģå¹´": 7187,
      "Ġstellen": 7188,
      "Ġstars": 7189,
      "Ġafstand": 7190,
      "oeder": 7191,
      "sit": 7192,
      "Ġlaag": 7193,
      "éĴĪ": 7194,
      "åĮĹäº¬": 7195,
      "èħ¿": 7196,
      "Ġdiscuss": 7197,
      "ĠAmerikaanse": 7198,
      "Ġhoge": 7199,
      "Ġcamera": 7200,
      "Ġpil": 7201,
      "Ġsafe": 7202,
      "Ġwaarheid": 7203,
      "Ġhappens": 7204,
      "åħĶåŃĲ": 7205,
      "ĠRock": 7206,
      "Ġpolitic": 7207,
      "æ¸¸æĪı": 7208,
      "OO": 7209,
      "ikken": 7210,
      "ĠBar": 7211,
      "Ġlevel": 7212,
      "Ġanyone": 7213,
      "ä¿¡æģ¯": 7214,
      "delen": 7215,
      "ĠçľŁçļĦ": 7216,
      "Ġban": 7217,
      "Ġheer": 7218,
      "ä¸ĢæĿ¡": 7219,
      "ĠPe": 7220,
      "Ġsup": 7221,
      "è¡ĮäºĨ": 7222,
      "Ġæĺ¯ä¸įæĺ¯": 7223,
      "çŀ§": 7224,
      "Ġwakker": 7225,
      "Ġzus": 7226,
      "Ġmeen": 7227,
      "éĽĦ": 7228,
      "å§Ĳå§Ĳ": 7229,
      "çĪ·çĪ·": 7230,
      "Ġmotor": 7231,
      "ĠIr": 7232,
      "æĬ½": 7233,
      "wezen": 7234,
      "elijkheid": 7235,
      "æĢ»æĺ¯": 7236,
      "èŀį": 7237,
      "Ġaanwezig": 7238,
      "hah": 7239,
      "Ġtoek": 7240,
      "éĢı": 7241,
      "çīĮ": 7242,
      "âĢķ": 7243,
      "Ġ26": 7244,
      "ugd": 7245,
      "å¾ĹäºĨ": 7246,
      "romen": 7247,
      "Ġsomewhere": 7248,
      "Ġwritten": 7249,
      "Ġrecogn": 7250,
      "åħ±äº§": 7251,
      "æĶ¯æĮģ": 7252,
      "Twee": 7253,
      "zijn": 7254,
      "Ġ#": 7255,
      "isper": 7256,
      "opl": 7257,
      "åĩĢ": 7258,
      "bling": 7259,
      "è·ŁæĪĳè¯´": 7260,
      "anc": 7261,
      "etjes": 7262,
      "ongen": 7263,
      "å®¡": 7264,
      "ĠBB": 7265,
      "æĥľ": 7266,
      "éģĹ": 7267,
      "åħ³äºİ": 7268,
      "Ġlegs": 7269,
      "Ġlinks": 7270,
      "Ġkiezen": 7271,
      "å°ıæĹ¶": 7272,
      "Ġopened": 7273,
      "Ġreturned": 7274,
      "Volgens": 7275,
      "Ġwand": 7276,
      "ĠSan": 7277,
      "osh": 7278,
      "oogle": 7279,
      "çĪ±çļĦ": 7280,
      "Ġdistance": 7281,
      "Ġgegevens": 7282,
      "Ġanimal": 7283,
      "Ġ2021": 7284,
      "å±ŀäºİ": 7285,
      "Ġrace": 7286,
      "ella": 7287,
      "Ġoveral": 7288,
      "ä»Ģä¹ĪæĹ¶åĢĻ": 7289,
      "åĽŀçŃĶ": 7290,
      "Daarom": 7291,
      "Ġparents": 7292,
      "aper": 7293,
      "Ġeverybody": 7294,
      "gesteld": 7295,
      "ex": 7296,
      "light": 7297,
      "ĠMommy": 7298,
      "ĠNational": 7299,
      "èĪį": 7300,
      "Ġleaving": 7301,
      "Ġongeluk": 7302,
      "uken": 7303,
      "eless": 7304,
      "Ġfab": 7305,
      "Ġamb": 7306,
      "Onze": 7307,
      "Ġdecided": 7308,
      "Ġcirkel": 7309,
      "Lees": 7310,
      "ermen": 7311,
      "Ġduck": 7312,
      "æĭ¼": 7313,
      "è§£åĨ³": 7314,
      "Ġwatching": 7315,
      "Ġquestions": 7316,
      "Ġverklaring": 7317,
      "Ġåı¯ä»¥": 7318,
      "Ġahead": 7319,
      "å¥ĸ": 7320,
      "ä¼ģ": 7321,
      "Ġ27": 7322,
      "Ġdesign": 7323,
      "ts": 7324,
      "å°¾": 7325,
      "Ġä½łåĪ«": 7326,
      "Ġhungry": 7327,
      "ID": 7328,
      "Ġmann": 7329,
      "æĽ²": 7330,
      "ä»İæĿ¥": 7331,
      "Ġvriendin": 7332,
      "wood": 7333,
      "Ġvac": 7334,
      "Ġåī": 7335,
      "ä¹Łæľī": 7336,
      "ĠIsland": 7337,
      "Hoi": 7338,
      "Ġtreat": 7339,
      "Ġteacher": 7340,
      "Ġincluding": 7341,
      "LE": 7342,
      "take": 7343,
      "åĲī": 7344,
      "Ġprocess": 7345,
      "Ġposition": 7346,
      "Ġkitchen": 7347,
      "Ġ29": 7348,
      "è°·": 7349,
      "ç§¦": 7350,
      "ä¸»ä»»": 7351,
      "Ġservice": 7352,
      "Ġhistory": 7353,
      "ĠVerenigde": 7354,
      "lad": 7355,
      "inter": 7356,
      "Ġfat": 7357,
      "ä¸ĢåĪĩ": 7358,
      "Ġtyp": 7359,
      "Ġbreakfast": 7360,
      "Ġbasis": 7361,
      "Ġappeared": 7362,
      "ĠbacteriÃ«n": 7363,
      "[.": 7364,
      "zz": 7365,
      "çĩ": 7366,
      "é¥¿": 7367,
      "Ġä¸ĭ": 7368,
      "äº¡": 7369,
      "äººæ°ĳ": 7370,
      "ĠJust": 7371,
      "Ġshoot": 7372,
      "ĠThese": 7373,
      "Ġexcept": 7374,
      "Ġstanding": 7375,
      "çĿ¡è§ī": 7376,
      "zichtig": 7377,
      "zil": 7378,
      "sterd": 7379,
      "spraak": 7380,
      "çĶµè§Ĩ": 7381,
      "çªĹ": 7382,
      "Bob": 7383,
      "ora": 7384,
      "ĠHit": 7385,
      "è°ĵ": 7386,
      "uurd": 7387,
      "ĠDuitsland": 7388,
      "Ġregering": 7389,
      "Amer": 7390,
      "Ġbeeld": 7391,
      "ĠNow": 7392,
      "æĦŁè°¢": 7393,
      "Ġ2011": 7394,
      "ç¾İä¸½": 7395,
      "åľ¨è¿ĻéĩĮ": 7396,
      "æ¯ķç«Ł": 7397,
      "wow": 7398,
      "Ġtab": 7399,
      "heb": 7400,
      "Ġdin": 7401,
      "Ġinf": 7402,
      "iday": 7403,
      "ĠNick": 7404,
      "Ġafterno": 7405,
      "ampion": 7406,
      "Ġmonster": 7407,
      "Ġliever": 7408,
      "Want": 7409,
      "Ġfre": 7410,
      "ribut": 7411,
      "åįģäºĮ": 7412,
      "Ġcarried": 7413,
      "voerd": 7414,
      "azen": 7415,
      "Ġlied": 7416,
      "ä¹Į": 7417,
      "æĹ©å°±": 7418,
      "derdaad": 7419,
      "aches": 7420,
      "å¤ĸéĿ¢": 7421,
      "Ġincre": 7422,
      "Illustr": 7423,
      "æĪĳçİ°åľ¨": 7424,
      "ĠOver": 7425,
      "bei": 7426,
      "Ġ2019": 7427,
      "å¸®åĬ©": 7428,
      "Carl": 7429,
      "rol": 7430,
      "å·¦": 7431,
      "aves": 7432,
      "Hoeveel": 7433,
      "anning": 7434,
      "Ġberekening": 7435,
      "å¥¥": 7436,
      "ĠHar": 7437,
      "Ġanybody": 7438,
      "Ġgeheim": 7439,
      "ground": 7440,
      "Ġtun": 7441,
      "stop": 7442,
      "Ġrid": 7443,
      "roll": 7444,
      "ĠMaj": 7445,
      "Ġå§": 7446,
      "ĠåĬ": 7447,
      "ivil": 7448,
      "Ġcareer": 7449,
      "Ġcompet": 7450,
      "Ġå¹¶": 7451,
      "PO": 7452,
      "kamer": 7453,
      "Ġcijf": 7454,
      "æĪĳåİ»": 7455,
      "Ġuite": 7456,
      "Ġhoorde": 7457,
      "riek": 7458,
      "Ġdev": 7459,
      "Ġfinger": 7460,
      "Ġmole": 7461,
      "éĿ¢åīį": 7462,
      "Ġleaves": 7463,
      "æĲľ": 7464,
      "ĠPatty": 7465,
      "ä½łåľ¨": 7466,
      "åı³": 7467,
      "zeker": 7468,
      "Wees": 7469,
      "Ġä¸įè¦ģ": 7470,
      "é¬¼åŃĲ": 7471,
      "Ġpush": 7472,
      "Ġfir": 7473,
      "illa": 7474,
      "Ġwrote": 7475,
      "æĿ¡ä»¶": 7476,
      "èĢĥèĻĳ": 7477,
      "éŀĭ": 7478,
      "aven": 7479,
      "Ġaunt": 7480,
      "Ġmid": 7481,
      "Ġkennis": 7482,
      "eget": 7483,
      "Un": 7484,
      "Ġdun": 7485,
      "Ġstam": 7486,
      "ä»ĸå°±": 7487,
      "å¥½åķĬ": 7488,
      "ĠJa": 7489,
      "Ġheren": 7490,
      "åħ¨éĥ¨": 7491,
      "Ġimag": 7492,
      "Ġsummer": 7493,
      "Ġpupp": 7494,
      "ipper": 7495,
      "Ġbright": 7496,
      "ç»ıè¿ĩ": 7497,
      "komst": 7498,
      "Ġ$": 7499,
      "çļĦæĹ¶éĹ´": 7500,
      "ĠAN": 7501,
      "ĠRalph": 7502,
      "Ġseason": 7503,
      "arah": 7504,
      "æľīäºĨ": 7505,
      "Ġerin": 7506,
      "èĥ½ä¸įèĥ½": 7507,
      "Ġwhatever": 7508,
      "éķľ": 7509,
      "Ġnews": 7510,
      "è·¯ä¸Ĭ": 7511,
      "ä¸¹": 7512,
      "aym": 7513,
      "Ġafge": 7514,
      "éĻĲ": 7515,
      "çĥĪ": 7516,
      "Ġverschil": 7517,
      "Ġdistrict": 7518,
      "Pak": 7519,
      "Ġhide": 7520,
      "Ġworth": 7521,
      "ĠEgy": 7522,
      "Ġshirt": 7523,
      "åľ°ä¸Ĭ": 7524,
      "éģĩåĪ°": 7525,
      "hank": 7526,
      "Ġgoud": 7527,
      "Ġham": 7528,
      "Ġhuil": 7529,
      "Ġhaat": 7530,
      "æĥ¯": 7531,
      "çĤ¹åĦ¿": 7532,
      "æ±¤": 7533,
      "Ġtrust": 7534,
      "Ġdw": 7535,
      "ita": 7536,
      "ĠMot": 7537,
      "ĠTH": 7538,
      "irus": 7539,
      "Ġschree": 7540,
      "å®¶åºŃ": 7541,
      "çĶŁåĳ½": 7542,
      "èĩªçĶ±": 7543,
      "Ġgebracht": 7544,
      "æľĪäº®": 7545,
      "Ġstukje": 7546,
      "coh": 7547,
      "Ġä¸º": 7548,
      "Ġloop": 7549,
      "Ġdiep": 7550,
      "çĶŁçļĦ": 7551,
      "åĪĨéĴŁ": 7552,
      "è¿ĽæĿ¥": 7553,
      "è®¾è®¡": 7554,
      "uel": 7555,
      "Ġbased": 7556,
      "Ġhoney": 7557,
      "Ġinvloed": 7558,
      "Ġaller": 7559,
      "åģļäºĨ": 7560,
      "æ±½": 7561,
      "offee": 7562,
      "åħ±äº§åħļ": 7563,
      "Ġwide": 7564,
      "Ġsum": 7565,
      "ç»ª": 7566,
      "arts": 7567,
      "èº²": 7568,
      "Ġstraks": 7569,
      "éª¨": 7570,
      "é¼ĵ": 7571,
      "éº¦": 7572,
      "Ġredenen": 7573,
      "',": 7574,
      "çĻ»": 7575,
      "Ġmembers": 7576,
      "Mooi": 7577,
      "Ġexactly": 7578,
      "Ġschrij": 7579,
      "ĠÂª": 7580,
      "Ġnamelijk": 7581,
      "Ġafternoon": 7582,
      "ona": 7583,
      "ika": 7584,
      "ĠDad": 7585,
      "å°±åĥı": 7586,
      "æļ´": 7587,
      "bor": 7588,
      "çĶĦ": 7589,
      "teen": 7590,
      "Ġanymore": 7591,
      "Ġminister": 7592,
      "Zet": 7593,
      "åĨł": 7594,
      "èµ·äºĨ": 7595,
      "è¡¨çİ°": 7596,
      "Ġrustig": 7597,
      "Ġengine": 7598,
      "Ġbuilding": 7599,
      "ĠMaggie": 7600,
      "Ġide": 7601,
      "Ġfuture": 7602,
      "Ġride": 7603,
      "roat": 7604,
      "ĠRoman": 7605,
      "åİ»åĲ§": 7606,
      "æ¸¯": 7607,
      "å¤ªéĺ³": 7608,
      "woordig": 7609,
      "çĸ«": 7610,
      "éĺŁéķ¿": 7611,
      "wit": 7612,
      "ams": 7613,
      "ĠBruce": 7614,
      "è¡¨ç¤º": 7615,
      "å¥½ä¸įå¥½": 7616,
      "ĠJo": 7617,
      "æķ¬": 7618,
      "Ġstopped": 7619,
      "Dag": 7620,
      "IE": 7621,
      "Mama": 7622,
      "dr": 7623,
      "atic": 7624,
      "...\"": 7625,
      "Ġspring": 7626,
      "Ġaardig": 7627,
      "Ġhospital": 7628,
      "reep": 7629,
      "asc": 7630,
      "Ġstreng": 7631,
      "å¾ģ": 7632,
      "å®īæİĴ": 7633,
      "Ġdropped": 7634,
      "Ġdokter": 7635,
      "åĲ¹": 7636,
      "illen": 7637,
      "Ġieder": 7638,
      "Ġbelangrijke": 7639,
      "åĤ»": 7640,
      "Ġprofession": 7641,
      "åı¦å¤ĸ": 7642,
      "PLA": 7643,
      "Ġlaugh": 7644,
      "Ġpaard": 7645,
      "Ġfail": 7646,
      "ä½łè¿ĺ": 7647,
      "oeien": 7648,
      "opdracht": 7649,
      "Ġmad": 7650,
      "aped": 7651,
      "æ¯įäº²": 7652,
      "Ġassist": 7653,
      "Ġsuccess": 7654,
      "Ġspirit": 7655,
      "200": 7656,
      "ĠRoy": 7657,
      "çĸĹ": 7658,
      "è®¸å¤ļ": 7659,
      "rs": 7660,
      "Ġdom": 7661,
      "ored": 7662,
      "Ġcab": 7663,
      "ä»Ģä¹ĪåĳĢ": 7664,
      "esloten": 7665,
      "åĭĩ": 7666,
      "dad": 7667,
      "erc": 7668,
      "Ġmol": 7669,
      "çļĦå°±æĺ¯": 7670,
      "ĠAct": 7671,
      "æĿ¥çľĭ": 7672,
      "åĩı": 7673,
      "Ġplayer": 7674,
      "spr": 7675,
      "ç¥ĸ": 7676,
      "Ne": 7677,
      "łĻ": 7678,
      "ĠRose": 7679,
      "å¯¹äºİ": 7680,
      "Ġcommune": 7681,
      "moeten": 7682,
      "Ġpad": 7683,
      "ä¸ĢçĻ¾": 7684,
      "å¤§åŃ¦": 7685,
      "Ġcomb": 7686,
      "Ġlevens": 7687,
      "å«ģ": 7688,
      "Ġsommige": 7689,
      "viously": 7690,
      "ĠæĪĳè¿Ļ": 7691,
      "éĢ¼": 7692,
      "Ġfigure": 7693,
      "icle": 7694,
      "iling": 7695,
      "Ġwhose": 7696,
      "ĠReg": 7697,
      "ä¼ļæľī": 7698,
      "ä¸ĭäºĨ": 7699,
      "çīĻ": 7700,
      "çĤ¸": 7701,
      "ä¸¤ä¸ªäºº": 7702,
      "éĺ¿å§¨": 7703,
      "ä¸įè§ģ": 7704,
      "å°±åı¯ä»¥": 7705,
      "ekst": 7706,
      "ä½ıäºĨ": 7707,
      "grond": 7708,
      "Ġä½łè¿Ļ": 7709,
      "å¯¹ä¸įèµ·": 7710,
      "åĲĥçļĦ": 7711,
      "Ġ2017": 7712,
      "åİĨåı²": 7713,
      "Ġaangegeven": 7714,
      "éĽĢ": 7715,
      "Ġplezier": 7716,
      "Ġlaughed": 7717,
      "ĠAfrica": 7718,
      "Ġmut": 7719,
      "è¿Ļä¸ªäºº": 7720,
      "èĤļ": 7721,
      "å°ĨåĨĽ": 7722,
      "Ġåģļ": 7723,
      "ĠHall": 7724,
      "æĤĦ": 7725,
      "--\"": 7726,
      "çłģ": 7727,
      "Ġmurder": 7728,
      "cohol": 7729,
      "stit": 7730,
      "èĢģé¼ł": 7731,
      "Ġbelow": 7732,
      "cient": 7733,
      "big": 7734,
      "uge": 7735,
      "ä¸įå¤ª": 7736,
      "ĠGoogle": 7737,
      "rede": 7738,
      "éŁ³ä¹Ĳ": 7739,
      "vallen": 7740,
      "å¼±": 7741,
      "ä¹Łä¸įçŁ¥éģĵ": 7742,
      "æ£Ĵ": 7743,
      "40": 7744,
      "Ġgift": 7745,
      "ç«ł": 7746,
      "åŃĺåľ¨": 7747,
      "æĺ¯æľī": 7748,
      "Ġspell": 7749,
      "ĠJul": 7750,
      "Ġwaarop": 7751,
      "Ġparts": 7752,
      "äºĶåįģ": 7753,
      "å¸®ä½ł": 7754,
      "èĳ£": 7755,
      "Ġreplied": 7756,
      "olonel": 7757,
      "Ġtoekomst": 7758,
      "ikker": 7759,
      "åĲĦç§į": 7760,
      "å¥ĩæĢª": 7761,
      "Ġkeek": 7762,
      "oci": 7763,
      "Ġkwaad": 7764,
      "Illustration": 7765,
      "Ġcomfort": 7766,
      "Ġgrapp": 7767,
      "Ġzichzelf": 7768,
      "æĢĿèĢĥ": 7769,
      "plaats": 7770,
      "Ġindeed": 7771,
      "ares": 7772,
      "Ġ2015": 7773,
      "ĠChinese": 7774,
      "AM": 7775,
      "zing": 7776,
      "Ġtent": 7777,
      "Ġserie": 7778,
      "Ġbusy": 7779,
      "Ġswim": 7780,
      "Ġsucces": 7781,
      "rees": 7782,
      "Ġene": 7783,
      "å¯¹æĪĳ": 7784,
      "Ġwriting": 7785,
      "æ»ļ": 7786,
      "Ġå¹²": 7787,
      "laugh": 7788,
      "ä¸Ĭåİ»": 7789,
      "æł¸": 7790,
      "ivid": 7791,
      "æĢĢçĸĳ": 7792,
      "Ġinvol": 7793,
      "è·ŁçĿĢ": 7794,
      "è´£ä»»": 7795,
      ".)": 7796,
      "IC": 7797,
      "Ġä»Ĭ": 7798,
      "Ġbedrijf": 7799,
      "è§£éĩĬ": 7800,
      "Ġzieken": 7801,
      "çıł": 7802,
      "Ġleerlingen": 7803,
      "Ġsacrif": 7804,
      "æ¤įçī©": 7805,
      "Sc": 7806,
      "ban": 7807,
      "ouder": 7808,
      "Ġerbij": 7809,
      "æīĵçĶµè¯Ŀ": 7810,
      "Ġvliegen": 7811,
      "Ġeh": 7812,
      "iced": 7813,
      "Ġdogs": 7814,
      "Mam": 7815,
      "urdie": 7816,
      "entie": 7817,
      "ĠDem": 7818,
      "ĠTr": 7819,
      "è¾ŀ": 7820,
      "Ġslaap": 7821,
      "His": 7822,
      "ä¸Ģçľĭ": 7823,
      "Ġzeven": 7824,
      "è¿ĺåľ¨": 7825,
      "ively": 7826,
      "å¾Īå¿«": 7827,
      "é»ĺ": 7828,
      "Ġrestaur": 7829,
      "ĠIndia": 7830,
      "Ġlengte": 7831,
      "Net": 7832,
      "å®ģ": 7833,
      "ç§»": 7834,
      "æĴĴ": 7835,
      "aliz": 7836,
      "çľĭäºĨ": 7837,
      "auwe": 7838,
      "ival": 7839,
      "Ġtong": 7840,
      "Ġlag": 7841,
      "Ġzaken": 7842,
      "çļĦåĲĹ": 7843,
      "æī¬": 7844,
      "Ġeerlijk": 7845,
      "Ġè¦ģä¸į": 7846,
      "çĵ¶": 7847,
      "Ġcomplet": 7848,
      "çĬ¶æĢģ": 7849,
      "ĠWaarom": 7850,
      "Ã¶rdin": 7851,
      "gaat": 7852,
      "Ġrevol": 7853,
      "éĹŃ": 7854,
      "çĵľ": 7855,
      "Ġmodel": 7856,
      "Ġloud": 7857,
      "ĠPresident": 7858,
      "ä¸Ĭæµ·": 7859,
      "Ġdansen": 7860,
      "Ġagent": 7861,
      "Ġvolg": 7862,
      "Ġcharacter": 7863,
      "Ġtrouwen": 7864,
      "Ġdecl": 7865,
      "ĠJames": 7866,
      "ä¸¤å¤©": 7867,
      "åĲĪä½ľ": 7868,
      "é¸Ń": 7869,
      "ĠBelg": 7870,
      "sterdam": 7871,
      "vat": 7872,
      "Ġsus": 7873,
      "Ġtoeg": 7874,
      "ä¸įåľ¨": 7875,
      "åįł": 7876,
      "achte": 7877,
      "Ġvet": 7878,
      "Ġkast": 7879,
      "ometer": 7880,
      "ĠGebruik": 7881,
      "inding": 7882,
      "éļĲ": 7883,
      "è¯ģæį®": 7884,
      "Ġintrodu": 7885,
      "èĴĻ": 7886,
      "kin": 7887,
      "Ġpour": 7888,
      "ĠLu": 7889,
      "Ġgekregen": 7890,
      "ĠäºĮ": 7891,
      "æĭ¥": 7892,
      "åħ¬ä¸»": 7893,
      "Ġeduc": 7894,
      "Ġviel": 7895,
      "Ġzinnen": 7896,
      "åĨ¬": 7897,
      "åĨĴ": 7898,
      "ĠRobert": 7899,
      "Ġpretend": 7900,
      "Ġveroorzaakt": 7901,
      "Ġmaximaal": 7902,
      "ieur": 7903,
      "Ġroept": 7904,
      "cont": 7905,
      "geld": 7906,
      "Ġtaal": 7907,
      "Ġund": 7908,
      "raad": 7909,
      "Ġbran": 7910,
      "Ġgevo": 7911,
      "bes": 7912,
      "rey": 7913,
      "Ġshit": 7914,
      "å®¶äºº": 7915,
      "ipped": 7916,
      "Ġbutter": 7917,
      "pty": 7918,
      "æ¡ĥ": 7919,
      "èĻļ": 7920,
      "ĠFraser": 7921,
      "Ġdur": 7922,
      "Ġdue": 7923,
      "eddy": 7924,
      "Ġkerk": 7925,
      "teren": 7926,
      "Ġbelieved": 7927,
      "éĽ·": 7928,
      "éĶ®": 7929,
      "éģĵçĲĨ": 7930,
      "ogel": 7931,
      "overn": 7932,
      "Ġzwem": 7933,
      "ĠKlik": 7934,
      "RE": 7935,
      "Ġpaid": 7936,
      "æŃī": 7937,
      "ĠKikuyu": 7938,
      "ĠéĤ£å°±": 7939,
      "é¡¹çĽ®": 7940,
      "ometimes": 7941,
      "orde": 7942,
      "ĠæĪĳè¿ĺ": 7943,
      "æ¬º": 7944,
      "iode": 7945,
      "åıĺåĮĸ": 7946,
      "Ġwalked": 7947,
      "tv": 7948,
      "Ġä»¥": 7949,
      "oorlog": 7950,
      "ĠTO": 7951,
      "ĠRed": 7952,
      "çĽĬ": 7953,
      "Ġ2000": 7954,
      "æĹ¥æľ¬äºº": 7955,
      "present": 7956,
      "Veel": 7957,
      "Ġtrekken": 7958,
      "Ġfem": 7959,
      "gene": 7960,
      "Ġklopt": 7961,
      "Ġproduct": 7962,
      "Ġfucking": 7963,
      "ĠèĻ½çĦ¶": 7964,
      "Ġshape": 7965,
      "éĽħ": 7966,
      "èº«ä»½": 7967,
      "éĤ£ä¹Īå¤ļ": 7968,
      "Ġaccept": 7969,
      "åįĥä¸ĩ": 7970,
      "åŁºæľ¬": 7971,
      "Ġsuddenly": 7972,
      "Ġmodern": 7973,
      "Ġzowel": 7974,
      "Ġovert": 7975,
      "Ġwilden": 7976,
      "å®ŀéĻħ": 7977,
      "uwelijk": 7978,
      "pardon": 7979,
      "Ġtall": 7980,
      "Ġbak": 7981,
      "Ġthee": 7982,
      "å°ıçļĦ": 7983,
      "sport": 7984,
      "Ġtruth": 7985,
      "oemde": 7986,
      "Ġcray": 7987,
      "Ġinse": 7988,
      "Ġmezelf": 7989,
      "ipedia": 7990,
      "Ġpray": 7991,
      "æĥħç»ª": 7992,
      "æ··": 7993,
      "Ġattempt": 7994,
      "Ġought": 7995,
      "Ġgames": 7996,
      "Ġwash": 7997,
      "ĠWie": 7998,
      "Ġshoul": 7999,
      "ĠVeel": 8000,
      "Ġoffice": 8001,
      "Ġgemidd": 8002,
      "Ġbescherm": 8003,
      "Ġdomin": 8004,
      "Ġpink": 8005,
      "ĠTV": 8006,
      "athol": 8007,
      "é¦ĸåħĪ": 8008,
      "Ex": 8009,
      "Pardon": 8010,
      "Zelf": 8011,
      "sters": 8012,
      "å¥½åĲĹ": 8013,
      "Ġblank": 8014,
      "çĽĸ": 8015,
      "Ġseeing": 8016,
      "Ġhoef": 8017,
      "clock": 8018,
      "ç®Ĺæĺ¯": 8019,
      "å«Į": 8020,
      "Ġwinkel": 8021,
      "EÃ©n": 8022,
      "Ter": 8023,
      "æĮĤ": 8024,
      "Ġ2010": 8025,
      "box": 8026,
      "ydro": 8027,
      "wanna": 8028,
      "Ĥ¬": 8029,
      "Ġboeken": 8030,
      "ĠJer": 8031,
      "éĺ¶": 8032,
      "Ġklim": 8033,
      "æ¼«": 8034,
      "åĲĦä½į": 8035,
      "Ġinge": 8036,
      "Ġlikes": 8037,
      "åª³": 8038,
      "\")": 8039,
      "Mum": 8040,
      "Sl": 8041,
      "Tube": 8042,
      "bre": 8043,
      "Ġkm": 8044,
      "staan": 8045,
      "ida": 8046,
      "pens": 8047,
      "Ġwalking": 8048,
      "é¢Ĩå¯¼": 8049,
      "cessary": 8050,
      "Ġcreated": 8051,
      "Ġlose": 8052,
      "Ġconn": 8053,
      "Ġklinkt": 8054,
      "Wait": 8055,
      "ioen": 8056,
      "ä½³": 8057,
      "ä¹Ķ": 8058,
      "Ġrood": 8059,
      "ĠMel": 8060,
      "cean": 8061,
      "Ġvroeger": 8062,
      "Ġsel": 8063,
      "Ġdocent": 8064,
      "Ġ2016": 8065,
      "ç¬¬ä¸Ģæ¬¡": 8066,
      "æĪĳæĿ¥": 8067,
      "Ġgeg": 8068,
      "ĠWith": 8069,
      "Ġcapital": 8070,
      "Ġfurther": 8071,
      "Ġreceived": 8072,
      "kelijk": 8073,
      "Ġcoffee": 8074,
      "è´¦": 8075,
      "åĽĽåįģ": 8076,
      "èģĶç³»": 8077,
      "ç£¨": 8078,
      "ĠæĹł": 8079,
      "çļĦåķĬ": 8080,
      "ashed": 8081,
      "ieuw": 8082,
      "Ġbottle": 8083,
      "æľīçļĦ": 8084,
      "ĠWanneer": 8085,
      "Ġsubject": 8086,
      "kijk": 8087,
      "Ġfan": 8088,
      "çĶľ": 8089,
      "éĤ£éĩĮ": 8090,
      "Ġsave": 8091,
      "earch": 8092,
      "ĠÂ©": 8093,
      "å¤ĦçĲĨ": 8094,
      "Ġgrew": 8095,
      "sych": 8096,
      "Ġwhom": 8097,
      "ĠRich": 8098,
      "éģ¿": 8099,
      "Ġbeginning": 8100,
      "Ġvolwassen": 8101,
      "werken": 8102,
      "Ġvloe": 8103,
      "elly": 8104,
      "ä¸įåı¯": 8105,
      "Ġdol": 8106,
      "ĠEast": 8107,
      "Ġbeschermen": 8108,
      "Kids": 8109,
      "Ġlying": 8110,
      "omba": 8111,
      "Ġdance": 8112,
      "Ġ2012": 8113,
      "Ġident": 8114,
      "é¼»": 8115,
      "å®ĩ": 8116,
      "imm": 8117,
      "è¯´ä»Ģä¹Ī": 8118,
      "Ġä½łæĥ³": 8119,
      "ĠVictor": 8120,
      "Ġsuff": 8121,
      "ĠMaria": 8122,
      "å¦¹å¦¹": 8123,
      "Ġbekijken": 8124,
      "Ġviol": 8125,
      "oest": 8126,
      "wil": 8127,
      "Ġgives": 8128,
      "esus": 8129,
      "Ġrap": 8130,
      "ä¸įä¸Ģæł·": 8131,
      "ĠAir": 8132,
      "è·Ŀ": 8133,
      "è½®": 8134,
      "Ġåĵª": 8135,
      "å®³æĢķ": 8136,
      "Schiet": 8137,
      "Ġliked": 8138,
      "Ġstreet": 8139,
      "ĠLord": 8140,
      "åĽ½çļĦ": 8141,
      "Thanks": 8142,
      "æĶ¾åľ¨": 8143,
      "Ġvormen": 8144,
      "rika": 8145,
      "itic": 8146,
      "ĠToen": 8147,
      "äººç±»": 8148,
      "å¸Ń": 8149,
      "å¯¹åĲ§": 8150,
      "Ġ2013": 8151,
      "Ġgehouden": 8152,
      "æĿĲæĸĻ": 8153,
      "tell": 8154,
      "va": 8155,
      "ools": 8156,
      "æĹ§": 8157,
      "Ġmoon": 8158,
      "wege": 8159,
      "åĩºæĿ¥äºĨ": 8160,
      "gasps": 8161,
      "Ġbase": 8162,
      "Ġgold": 8163,
      "Ġleef": 8164,
      "çļĦåĳĢ": 8165,
      "CHAP": 8166,
      "ä¸ĢèĪ¬": 8167,
      "åİħ": 8168,
      "åºĦ": 8169,
      "Ġslaan": 8170,
      "Ġdrop": 8171,
      "Ġgevolg": 8172,
      "west": 8173,
      "Ġéĥ½æĺ¯": 8174,
      "Ġcause": 8175,
      "ĠGu": 8176,
      "Ġneigh": 8177,
      "æīĵç®Ĺ": 8178,
      "ĠWikipedia": 8179,
      "ĠAmsterdam": 8180,
      "Ġconsidered": 8181,
      "leanor": 8182,
      "set": 8183,
      "è§¦": 8184,
      "organ": 8185,
      "Ġaccount": 8186,
      "gin": 8187,
      "itude": 8188,
      "Ġvoldo": 8189,
      "Ġinclude": 8190,
      "Ġsens": 8191,
      "Ġninet": 8192,
      "Ġbeoord": 8193,
      "uro": 8194,
      "tered": 8195,
      "ĠæĪĳåľ¨": 8196,
      "iforn": 8197,
      "å¿Ĩ": 8198,
      "æĻĵ": 8199,
      "åĲĥäºĨ": 8200,
      "ĠYouTube": 8201,
      "vere": 8202,
      "Ġbesp": 8203,
      "lement": 8204,
      "ilar": 8205,
      "Ġneeded": 8206,
      "Ġshouldn": 8207,
      "çļĩä¸Ĭ": 8208,
      "Ġexclaimed": 8209,
      "aff": 8210,
      "fil": 8211,
      "Ġå¤ļ": 8212,
      "Ġåı¯èĥ½": 8213,
      "rect": 8214,
      "ä¸Ģä½į": 8215,
      "Ġversp": 8216,
      "ĠBy": 8217,
      "æŀĿ": 8218,
      "çģ¯": 8219,
      "æķ°æį®": 8220,
      "ĠHierdoor": 8221,
      "Ġalive": 8222,
      "Ġzoiets": 8223,
      "ĠKar": 8224,
      "Ġfellow": 8225,
      "Ġate": 8226,
      "åĩ¡": 8227,
      "Ġflowers": 8228,
      "cious": 8229,
      "formatie": 8230,
      "¹æŀľ": 8231,
      "Ġwol": 8232,
      "Ġnon": 8233,
      "è¿°": 8234,
      "ä¸įæķ¢": 8235,
      "Ġstel": 8236,
      "Ġä½łè¿ĺ": 8237,
      "Ġwaard": 8238,
      "åģı": 8239,
      "éªĤ": 8240,
      "Ġverliefd": 8241,
      "igs": 8242,
      "ĠMary": 8243,
      "ĠBo": 8244,
      "Ġflight": 8245,
      "çĽ®åīį": 8246,
      "Ġiedere": 8247,
      "Ġverbrand": 8248,
      "è§ģåĪ°": 8249,
      "Ġstraw": 8250,
      "éĩįè¦ģçļĦ": 8251,
      "uty": 8252,
      "Ġverniet": 8253,
      "ĠNet": 8254,
      "Ġproces": 8255,
      "Ġseconden": 8256,
      "Ġreading": 8257,
      "Ġinterested": 8258,
      "Ġvlees": 8259,
      "Ġrivier": 8260,
      "car": 8261,
      "ĠåĲ¬": 8262,
      "rok": 8263,
      "æĢİä¹ĪäºĨ": 8264,
      "å¼ĢäºĨ": 8265,
      "éĿ¢å¯¹": 8266,
      "Ġfamous": 8267,
      "Ġbleef": 8268,
      "Ġmountain": 8269,
      "è¾Ľèĭ¦": 8270,
      "ÃŃ": 8271,
      "Ġç»Ļ": 8272,
      "è¯´æĺ¯": 8273,
      "Ġä½łä¸į": 8274,
      "Ġä½łçŁ¥éģĵ": 8275,
      "Ġleiden": 8276,
      "Ġprima": 8277,
      "ç³Ĭ": 8278,
      "Ġnormaal": 8279,
      "ao": 8280,
      "has": 8281,
      "inen": 8282,
      "Ġverv": 8283,
      "aining": 8284,
      "çĶŁæĦı": 8285,
      "æĸ¹åĲĳ": 8286,
      "èĭ¹æŀľ": 8287,
      "Ġproblems": 8288,
      "ologie": 8289,
      "Ġgeschreven": 8290,
      "ĠAmerika": 8291,
      "æĵį": 8292,
      "Ġnergens": 8293,
      "åį±éĻ©": 8294,
      "laug": 8295,
      "Ġmention": 8296,
      "Ġjud": 8297,
      "ades": 8298,
      "åİĤ": 8299,
      "ocrat": 8300,
      "Ġfresh": 8301,
      "å²Ľ": 8302,
      "é²ľ": 8303,
      "ĠHitler": 8304,
      "XX": 8305,
      "nst": 8306,
      "äºı": 8307,
      "Ġdem": 8308,
      "çļĦéĹ®é¢ĺ": 8309,
      "éĤ£ä½ł": 8310,
      "Ġvarious": 8311,
      "Like": 8312,
      "wait": 8313,
      "Ġechter": 8314,
      "å°¤": 8315,
      "Ġrout": 8316,
      "Ġoverl": 8317,
      "aving": 8318,
      "Ġvoelen": 8319,
      "æ®µæĹ¶éĹ´": 8320,
      "Ġfifty": 8321,
      "len": 8322,
      "nis": 8323,
      "opp": 8324,
      "gew": 8325,
      "çĮľ": 8326,
      "éĶĻäºĨ": 8327,
      "Ġindust": 8328,
      "Ġpictures": 8329,
      "ĠBrazil": 8330,
      "Ġrab": 8331,
      "oegen": 8332,
      "ç»į": 8333,
      "ulk": 8334,
      "Ġplate": 8335,
      "onger": 8336,
      "Ġdragen": 8337,
      "asion": 8338,
      "lect": 8339,
      "Ġenkel": 8340,
      "erson": 8341,
      "èĥŀ": 8342,
      "ç»ĵæĿŁ": 8343,
      "èŃ¦å¯Ł": 8344,
      "mark": 8345,
      "orgt": 8346,
      "Ġtoest": 8347,
      "lei": 8348,
      "ä½łåķĬ": 8349,
      "ç»ľ": 8350,
      "çĻ¾å§ĵ": 8351,
      "Jon": 8352,
      "John": 8353,
      "ih": 8354,
      "wing": 8355,
      "idt": 8356,
      "éĩĮè¾¹": 8357,
      "åħ¶ä¸Ń": 8358,
      "ä½įç½®": 8359,
      "åĵĪåĵĪåĵĪ": 8360,
      "Ġåĩº": 8361,
      "hier": 8362,
      "ĠKijk": 8363,
      "Ġunivers": 8364,
      "ĠGermany": 8365,
      "Ook": 8366,
      "Ġtafel": 8367,
      "Ġgegaan": 8368,
      "Ġauthor": 8369,
      "ä»£è¡¨": 8370,
      "Ġstemmen": 8371,
      "Ġpounds": 8372,
      "Ġwapen": 8373,
      "å°±èĥ½": 8374,
      "itted": 8375,
      "åĩºçļĦ": 8376,
      "Ġspecies": 8377,
      "ç¡¬": 8378,
      "éªĳ": 8379,
      "æķĻèĤ²": 8380,
      "ĠWiki": 8381,
      "Ġbirds": 8382,
      "ĠSmith": 8383,
      "Qu": 8384,
      "best": 8385,
      "ĠåĲİæĿ¥": 8386,
      "inkrijk": 8387,
      "åī©": 8388,
      "Ġways": 8389,
      "ĠCanada": 8390,
      "ĠçľŁ": 8391,
      "Ġself": 8392,
      "elve": 8393,
      "ĠWer": 8394,
      "ĠUS": 8395,
      "ĠEngeland": 8396,
      "house": 8397,
      "Ġtap": 8398,
      "æĺ¯åĽłä¸º": 8399,
      "éĥ½è¦ģ": 8400,
      "Ġbloem": 8401,
      "Ġblijkt": 8402,
      "è¡Įä¸º": 8403,
      "Ġallebei": 8404,
      "æĬ¥åĳĬ": 8405,
      "Ġskin": 8406,
      "Ġeggs": 8407,
      "BO": 8408,
      "Iemand": 8409,
      "eloos": 8410,
      "Ġå±": 8411,
      "raagt": 8412,
      "æı¡": 8413,
      "å¨ĥ": 8414,
      "Ġcounty": 8415,
      "Ġgeslacht": 8416,
      "MAT": 8417,
      "mag": 8418,
      "ĠhÃ©": 8419,
      "Ġpock": 8420,
      "ceed": 8421,
      "Ġåĵ¦": 8422,
      "Ġdocument": 8423,
      "Hel": 8424,
      "ĠæĪĳçľĭ": 8425,
      "ĠNin": 8426,
      "Ġtrap": 8427,
      "Ġlanguages": 8428,
      "Ġå·²": 8429,
      "ĠåºĶ": 8430,
      "cra": 8431,
      "hoe": 8432,
      "stra": 8433,
      "Ġitself": 8434,
      "ĠGreat": 8435,
      "Ġermee": 8436,
      "medi": 8437,
      "especially": 8438,
      "åľ¨è¿Ļä¸ª": 8439,
      "ĠBlack": 8440,
      "Ġduurt": 8441,
      "Ġwebs": 8442,
      "ĠGo": 8443,
      "å¿ĥçļĦ": 8444,
      "å¥¹ä»¬": 8445,
      "Ġontmoeten": 8446,
      "Ġholding": 8447,
      "ĠFrankrijk": 8448,
      "iker": 8449,
      "Ġafgelopen": 8450,
      "çĪĨ": 8451,
      "Ġboer": 8452,
      "ç»ıåİĨ": 8453,
      "å®ŀè¯Ŀ": 8454,
      "çķ¥": 8455,
      "Ġplaatsen": 8456,
      "èľľ": 8457,
      "Ġcontrole": 8458,
      "ä¸¥éĩį": 8459,
      "itions": 8460,
      "æĪĳäºĨ": 8461,
      "ä½łåĪ«": 8462,
      "è¯ļ": 8463,
      "Ġvoorbeeld": 8464,
      "ĠPan": 8465,
      "Ġspoke": 8466,
      "Ġeveryone": 8467,
      "åıĺå¾Ĺ": 8468,
      "voer": 8469,
      "Ġpopular": 8470,
      "Ġkey": 8471,
      "field": 8472,
      "Ġä¸ºäºĨ": 8473,
      "Ġvict": 8474,
      "æİ¥ä¸ĭæĿ¥": 8475,
      "ching": 8476,
      "Ġstuur": 8477,
      "anta": 8478,
      "ĠBekijk": 8479,
      "ĠPark": 8480,
      "asting": 8481,
      "ĠOF": 8482,
      "Ġbedankt": 8483,
      "iction": 8484,
      "ĠAngel": 8485,
      "ns": 8486,
      "äº¿": 8487,
      "ĠNu": 8488,
      "aans": 8489,
      "Ġprovin": 8490,
      "åºĵ": 8491,
      "çĽĽ": 8492,
      "Ġwaarmee": 8493,
      "achtig": 8494,
      "Ġelephant": 8495,
      "bra": 8496,
      "bout": 8497,
      "ä½łæĥ³": 8498,
      "ĠTekst": 8499,
      "ĠWhere": 8500,
      "iste": 8501,
      "inks": 8502,
      "Ġexam": 8503,
      "Ġonderdeel": 8504,
      "Ġgemeen": 8505,
      "Ġvissen": 8506,
      "Ġbelangrijkste": 8507,
      "laughing": 8508,
      "Take": 8509,
      "ä¸įçĿĢ": 8510,
      "These": 8511,
      "æĦıè§ģ": 8512,
      "iana": 8513,
      "çŃīçŃī": 8514,
      "AND": 8515,
      "Ġ60": 8516,
      "Ġkoffie": 8517,
      "unicip": 8518,
      "hee": 8519,
      "Ġstone": 8520,
      "ĠChe": 8521,
      "æ²Ī": 8522,
      "Ġtwelve": 8523,
      "Ġconvers": 8524,
      "æģ¨": 8525,
      "çĮİ": 8526,
      "iteiten": 8527,
      "Ġuiteindelijk": 8528,
      "ĠæĽ´": 8529,
      "ä»ĸè¯´": 8530,
      "åħĪèµ°äºĨ": 8531,
      "Ġloved": 8532,
      "Ġexperiment": 8533,
      "Ġeiland": 8534,
      "Siden": 8535,
      "ially": 8536,
      "uct": 8537,
      "Ġdorp": 8538,
      "Ġnames": 8539,
      "Ġnaartoe": 8540,
      "èĥĨ": 8541,
      "åıĹåĪ°": 8542,
      "çĶ·åŃ©": 8543,
      "é¹¿": 8544,
      "Ġvreemd": 8545,
      "Sidenote": 8546,
      "OS": 8547,
      "ä¸ĢæŃ¥": 8548,
      "Ġstub": 8549,
      "ago": 8550,
      "å¥Ķ": 8551,
      "ĠBro": 8552,
      "ĠJane": 8553,
      "Ġvertelt": 8554,
      "ç¼ĺ": 8555,
      "ĠåĵİåĳĢ": 8556,
      "astern": 8557,
      "Ġveranderd": 8558,
      "ĠåİŁ": 8559,
      "woners": 8560,
      "Man": 8561,
      "dioxide": 8562,
      "iant": 8563,
      "ĠSe": 8564,
      "ĠBill": 8565,
      "Ġsuit": 8566,
      "çıį": 8567,
      "èı²": 8568,
      "Ġparticular": 8569,
      "dd": 8570,
      "loop": 8571,
      "ieu": 8572,
      "æĸ¹æ³ķ": 8573,
      "Ġgeschiedenis": 8574,
      "Ġvoedings": 8575,
      "ç«ŁçĦ¶": 8576,
      "ĠCaliforn": 8577,
      "åª³å¦ĩ": 8578,
      "zingen": 8579,
      "ato": 8580,
      "Ġnauw": 8581,
      "éĥİ": 8582,
      "Ġcheese": 8583,
      "gebracht": 8584,
      "èħ¾": 8585,
      "Ġzomaar": 8586,
      "åĿļæĮģ": 8587,
      "Ġijzer": 8588,
      "pect": 8589,
      "Ġberg": 8590,
      "Ġnood": 8591,
      "åİ¿": 8592,
      "ĠRom": 8593,
      "Ġdans": 8594,
      "achter": 8595,
      "çİ°åľº": 8596,
      "ç¬¦": 8597,
      "Ġtrots": 8598,
      "Ġconcern": 8599,
      "Mom": 8600,
      "ois": 8601,
      "ĠåıįæŃ£": 8602,
      "Ġtal": 8603,
      "Ġfingers": 8604,
      "ĠTim": 8605,
      "è½¯": 8606,
      "iano": 8607,
      "åĲĪéĢĤ": 8608,
      "boy": 8609,
      "Ġresultaten": 8610,
      "CHAPTER": 8611,
      "Ġjun": 8612,
      "Ġalthough": 8613,
      "ruck": 8614,
      "Ġbridge": 8615,
      "æŃ£å¸¸": 8616,
      "ĠDaarom": 8617,
      "Ġvogels": 8618,
      "Zou": 8619,
      "atur": 8620,
      "Ġsep": 8621,
      "ĠHenry": 8622,
      "Ġschrijf": 8623,
      "Ġvolgen": 8624,
      "Ġåįģ": 8625,
      "ç¯®": 8626,
      "GH": 8627,
      "aft": 8628,
      "coun": 8629,
      "ĠâĤ¬": 8630,
      "åı¸ä»¤": 8631,
      "Ġcircle": 8632,
      "Ġlaughing": 8633,
      "Ġlachen": 8634,
      "name": 8635,
      "Ġfiets": 8636,
      "åĲ«": 8637,
      "å¯¹æĸ¹": 8638,
      "rance": 8639,
      "Ġshowed": 8640,
      "Ġcircum": 8641,
      "ä½łåİ»": 8642,
      "å¤®": 8643,
      "iller": 8644,
      "ä¼°": 8645,
      "Ġlever": 8646,
      "iÃ«nt": 8647,
      "Ġdriving": 8648,
      "oxide": 8649,
      "Ġ2022": 8650,
      "Verdomme": 8651,
      "Ġears": 8652,
      "ĠBessie": 8653,
      "riage": 8654,
      "åįı": 8655,
      "Ġconcent": 8656,
      "Ġcloud": 8657,
      "æŃ£å¥½": 8658,
      "Papa": 8659,
      "Ġzand": 8660,
      "Ġalstublieft": 8661,
      "Ġgeleerd": 8662,
      "Ġontwikkel": 8663,
      "Ġlength": 8664,
      "Cos": 8665,
      "Ġpuzz": 8666,
      "Ġwaarvan": 8667,
      "Ġidi": 8668,
      "Ġkruis": 8669,
      "ĠWikiKids": 8670,
      "Ġwijn": 8671,
      "Ġep": 8672,
      "Ġbeat": 8673,
      "ĠWind": 8674,
      "Ġputs": 8675,
      "æīįæĺ¯": 8676,
      "Ġcolon": 8677,
      "Ġaud": 8678,
      "Ġcust": 8679,
      "æĪĳæľī": 8680,
      "stel": 8681,
      "adem": 8682,
      "ĠArab": 8683,
      "ĠWord": 8684,
      "Weg": 8685,
      "å¾Īæľī": 8686,
      "åħ³éĶ®": 8687,
      "Ġcompan": 8688,
      "åĩºæĿ¥çļĦ": 8689,
      "tes": 8690,
      "ilder": 8691,
      "Ġshare": 8692,
      "ission": 8693,
      "Ġå½ĵçĦ¶": 8694,
      "ĠHowever": 8695,
      "ä¸įçŁ¥": 8696,
      "uts": 8697,
      "æľīä¸Ģå¤©": 8698,
      "ç§ĳåŃ¦": 8699,
      "Ġoil": 8700,
      "esse": 8701,
      "icy": 8702,
      "è¿Ļè¾¹": 8703,
      "rib": 8704,
      "Ġplaced": 8705,
      "Ġsharp": 8706,
      "Ġdaarmee": 8707,
      "ĠYour": 8708,
      "Ġsnelheid": 8709,
      "ä¼ģä¸ļ": 8710,
      "Ġzout": 8711,
      "...?": 8712,
      "æİĪ": 8713,
      "æĲ¬": 8714,
      "Ġwonderful": 8715,
      "Ġofficer": 8716,
      "Ġbasket": 8717,
      "cu": 8718,
      "down": 8719,
      "ums": 8720,
      "Ġspullen": 8721,
      "Ġonderstaande": 8722,
      "Ġvolgt": 8723,
      "æ¶²": 8724,
      "Ġsymb": 8725,
      "æİ§åĪ¶": 8726,
      "jaar": 8727,
      "order": 8728,
      "ijm": 8729,
      "Ġtalked": 8730,
      "ĠBruno": 8731,
      "zocht": 8732,
      "ç§ĳæĬĢ": 8733,
      "Ġslechts": 8734,
      "Ġmap": 8735,
      "utely": 8736,
      "åĩ¶": 8737,
      "Ġarch": 8738,
      "èį£": 8739,
      "Ġstarts": 8740,
      "Ġlocal": 8741,
      "LL": 8742,
      "book": 8743,
      "ero": 8744,
      "Ġprijs": 8745,
      "Ġfright": 8746,
      "ushing": 8747,
      "ĠNan": 8748,
      "æĥ³æ³ķ": 8749,
      "Ġprim": 8750,
      "Ġbye": 8751,
      "ption": 8752,
      "éĶĢ": 8753,
      "ommige": 8754,
      "Ġnatural": 8755,
      "Ġdiagram": 8756,
      "Ġfavorite": 8757,
      "JES": 8758,
      "Uw": 8759,
      "äººåĳĺ": 8760,
      "isted": 8761,
      "Ġdonker": 8762,
      "onderd": 8763,
      "phone": 8764,
      "Ġstudy": 8765,
      "æĮīçħ§": 8766,
      "æ¯Ķå¦Ĥè¯´": 8767,
      "lin": 8768,
      "åŃ¤": 8769,
      "åĮħæĭ¬": 8770,
      "ä½¿çĶ¨": 8771,
      "inct": 8772,
      "ores": 8773,
      "Ġmoed": 8774,
      "ĠWal": 8775,
      "åĬĿ": 8776,
      "éķĩ": 8777,
      "èµ°åĲ§": 8778,
      "Ġontsn": 8779,
      "éħ¸": 8780,
      "Ġnumbers": 8781,
      "ç§ĺå¯Ĩ": 8782,
      "Ġeast": 8783,
      "icit": 8784,
      "ĠCO": 8785,
      "åİļ": 8786,
      "è¿ĽäºĨ": 8787,
      "gemaakt": 8788,
      "Ġzwarte": 8789,
      "æĪĳä¸Ģ": 8790,
      "adi": 8791,
      "ä¸įå¤ļ": 8792,
      "roe": 8793,
      "Ġä¸įç®¡": 8794,
      "æĬķèµĦ": 8795,
      "ç£ģ": 8796,
      "Ġgrappig": 8797,
      "èķ": 8798,
      "ä¸°": 8799,
      "Ġcro": 8800,
      "Ġzaak": 8801,
      "acing": 8802,
      "hington": 8803,
      "uldig": 8804,
      "laag": 8805,
      "vragen": 8806,
      "Ġstrip": 8807,
      "ĠEll": 8808,
      "ĠGood": 8809,
      "Ġplastic": 8810,
      "åĴĮä½ł": 8811,
      "æīĢè°ĵ": 8812,
      "Ġasking": 8813,
      "Ġalarm": 8814,
      "ĠBig": 8815,
      "Ġherinner": 8816,
      "Ġdrank": 8817,
      "å¹³æĹ¶": 8818,
      "ç«Ļåľ¨": 8819,
      "loos": 8820,
      "aded": 8821,
      "åľ£": 8822,
      "åįģåĪĨ": 8823,
      "iverse": 8824,
      "Ġmeeting": 8825,
      "åıĶåıĶ": 8826,
      "wagen": 8827,
      "Ġonbe": 8828,
      "Ġenemy": 8829,
      "å¥ĭ": 8830,
      "éĢĶ": 8831,
      "Ġattract": 8832,
      "Ġliep": 8833,
      "Ġseconds": 8834,
      "ĠWillem": 8835,
      "ply": 8836,
      "Ġpaint": 8837,
      "alf": 8838,
      "Ġrich": 8839,
      "ĠMom": 8840,
      "æľīå¤ļ": 8841,
      "åĩŃ": 8842,
      "ĠKon": 8843,
      "Ġä»ĸè¯´": 8844,
      "çĭĤ": 8845,
      ",--": 8846,
      "child": 8847,
      "aardig": 8848,
      "äººéĥ½": 8849,
      "ends": 8850,
      "Ġapple": 8851,
      "oved": 8852,
      "Ġinternet": 8853,
      "ä¿Ŀè¯ģ": 8854,
      "Ġsurf": 8855,
      "Ġpossib": 8856,
      "andid": 8857,
      "æĪĳä¼ļ": 8858,
      "ĠTijdens": 8859,
      "ĠNederlands": 8860,
      "çļĦå¿ĥ": 8861,
      "Ġrang": 8862,
      "Ġraken": 8863,
      "çŁ¥éģĵäºĨ": 8864,
      "Ġvertelde": 8865,
      "è±ª": 8866,
      "Ġbrengt": 8867,
      "middel": 8868,
      "Haal": 8869,
      "Ken": 8870,
      "Ãł": 8871,
      "ãł": 8872,
      "æľ«": 8873,
      "ä¸įä¸Ĭ": 8874,
      "Ġalcohol": 8875,
      "ĠBos": 8876,
      "Ġworse": 8877,
      "Ġnogal": 8878,
      "Ġgewonnen": 8879,
      "upid": 8880,
      "Alle": 8881,
      "Hi": 8882,
      "Ġderde": 8883,
      "ĠCome": 8884,
      "Ġ[?": 8885,
      "èĪª": 8886,
      "kort": 8887,
      "Ġbezoek": 8888,
      "Ġweekend": 8889,
      "æī°": 8890,
      "Ġvoorbeelden": 8891,
      "eau": 8892,
      "uhoh": 8893,
      "æĶ¿æ²»": 8894,
      "60": 8895,
      "Niets": 8896,
      "uf": 8897,
      "Ġãł": 8898,
      "onk": 8899,
      "èµı": 8900,
      "æ³ª": 8901,
      "ĠEngel": 8902,
      "Ġå¯¹ä¸įèµ·": 8903,
      "æ±½è½¦": 8904,
      "Ph": 8905,
      "baby": 8906,
      "Ġçİĭ": 8907,
      "Ġsize": 8908,
      "ĠMichael": 8909,
      "Ġbegonnen": 8910,
      "Ġlock": 8911,
      "Ġstage": 8912,
      "avel": 8913,
      "ĠBrown": 8914,
      "Ã¨re": 8915,
      "ĠAlexander": 8916,
      "Ġcaptain": 8917,
      "çļĦæķħäºĭ": 8918,
      "äºĨä¸ª": 8919,
      "ĠMun": 8920,
      "è¿ĺèĥ½": 8921,
      "æĮ£": 8922,
      "Ġperiode": 8923,
      "Ġprotect": 8924,
      "Ġbloody": 8925,
      "vocaliz": 8926,
      "Pas": 8927,
      "ville": 8928,
      "ä¸Ī": 8929,
      "roep": 8930,
      "eech": 8931,
      "ĠMama": 8932,
      "istan": 8933,
      "Ġherinn": 8934,
      "Ġvertel": 8935,
      "Ġattention": 8936,
      "åĿĹéĴ±": 8937,
      "yep": 8938,
      "æĨ": 8939,
      "Ġok": 8940,
      "romos": 8941,
      "èĢģå©Ĩ": 8942,
      "boom": 8943,
      "æľįåĬ¡": 8944,
      "åºĶè¯¥æĺ¯": 8945,
      "Ġlearned": 8946,
      "ijnt": 8947,
      "ĠMus": 8948,
      "ĠBest": 8949,
      "Ġkloot": 8950,
      "Ġquar": 8951,
      "Zal": 8952,
      "Ġcivil": 8953,
      "Ġstu": 8954,
      "anny": 8955,
      "Ġsimilar": 8956,
      "Ġsituation": 8957,
      "Ġhom": 8958,
      "Ġpa": 8959,
      "Ġkamp": 8960,
      "abl": 8961,
      "eker": 8962,
      "ousin": 8963,
      "å®ŀçİ°": 8964,
      "udd": 8965,
      "ç®±": 8966,
      "Ġgezond": 8967,
      "è´Łè´£": 8968,
      "Ġpsych": 8969,
      "ably": 8970,
      "Ġhemel": 8971,
      "pression": 8972,
      "ç´«": 8973,
      "Ġsleeping": 8974,
      "èĴĭ": 8975,
      "Ġgods": 8976,
      "åİĭåĬĽ": 8977,
      "å¿ĺäºĨ": 8978,
      "Ġinflu": 8979,
      "Ġsepar": 8980,
      "Ġvres": 8981,
      "Ġcrying": 8982,
      "Ġzorgt": 8983,
      "Ġkoud": 8984,
      "ä½łèĩªå·±": 8985,
      "å°¼": 8986,
      "Ġvervolgens": 8987,
      "icked": 8988,
      "Ġcountries": 8989,
      "Ġphys": 8990,
      "Ġleggen": 8991,
      "NA": 8992,
      "bet": 8993,
      "Ġtuin": 8994,
      "isa": 8995,
      "Ġzuid": 8996,
      "leet": 8997,
      "Ġraad": 8998,
      "ä¸įç®¡": 8999,
      "èĻ«": 9000,
      "Ġeffort": 9001,
      "Ġcommunic": 9002,
      "Ġfilmpje": 9003,
      "ky": 9004,
      "zetten": 9005,
      "Ġbun": 9006,
      "Ġram": 9007,
      "ä¸Ģåľº": 9008,
      "unde": 9009,
      "èµļ": 9010,
      "Ġspoor": 9011,
      "åĽ½çİĭ": 9012,
      "Ġsmart": 9013,
      "werpen": 9014,
      "Ġcontract": 9015,
      "ĠJezus": 9016,
      "Ġnature": 9017,
      "Ġverandert": 9018,
      "oris": 9019,
      "å¯Ĵ": 9020,
      "çĪ±æĥħ": 9021,
      "Ġspec": 9022,
      "æ»ĳ": 9023,
      "Ġdelight": 9024,
      "Ġcharge": 9025,
      "Ġbegrijpen": 9026,
      "Ġclosed": 9027,
      "Ġcolors": 9028,
      "Ġgevaarlijk": 9029,
      "Ġä»¥åĲİ": 9030,
      "Ġbother": 9031,
      "ä¸įæĩĤ": 9032,
      "amba": 9033,
      "ĠLaura": 9034,
      "ä»Ģä¹Īåĳ¢": 9035,
      "é¢Ŀ": 9036,
      "æįķ": 9037,
      "Ġåį´": 9038,
      "åķĨéĩı": 9039,
      "æĵ¦": 9040,
      "Ġtight": 9041,
      "Ġdeden": 9042,
      "reactie": 9043,
      "Ġrose": 9044,
      "Ġgeme": 9045,
      "æĹ¦": 9046,
      "èĤ¥": 9047,
      "ç©ºéĹ´": 9048,
      "Ġproductie": 9049,
      "Ġrefer": 9050,
      "Ġmamma": 9051,
      "Ġobser": 9052,
      "dog": 9053,
      "zi": 9054,
      "ĠPri": 9055,
      "Ġblind": 9056,
      "Ġneedta": 9057,
      "æ´»åĬ¨": 9058,
      "éĥ¨éĺŁ": 9059,
      "ĠParijs": 9060,
      "Ġtekening": 9061,
      "åģ¥åº·": 9062,
      "ledge": 9063,
      "Ġtraining": 9064,
      "Ġmor": 9065,
      "æĪĳèĩªå·±": 9066,
      "å¾Īå¥½": 9067,
      "eleid": 9068,
      "Ġ35": 9069,
      "Ġgesproken": 9070,
      "Ġvijand": 9071,
      "OW": 9072,
      "Ã¤": 9073,
      "Ġcm": 9074,
      "otion": 9075,
      "igr": 9076,
      "ĠSal": 9077,
      "Ġrechter": 9078,
      "ureau": 9079,
      "ä½łä»¬çļĦ": 9080,
      "Ġ2008": 9081,
      "Ġpapier": 9082,
      "æĮºå¥½çļĦ": 9083,
      "Ġmarket": 9084,
      "Ġontwikk": 9085,
      "Miss": 9086,
      "da": 9087,
      "nummer": 9088,
      "Ġmuur": 9089,
      "Ġgate": 9090,
      "å¾Ĵ": 9091,
      "Ġasleep": 9092,
      "ĠNPO": 9093,
      "Zelfs": 9094,
      "wet": 9095,
      "ĠSandy": 9096,
      "ĠMum": 9097,
      "åŃĶ": 9098,
      "okk": 9099,
      "åĩī": 9100,
      "å·Ŀ": 9101,
      "ours": 9102,
      "çº³": 9103,
      "Ġmuse": 9104,
      "ç¡®å®ļ": 9105,
      "çħ§çīĩ": 9106,
      "Ġå½ĵæĹ¶": 9107,
      "Ġslechte": 9108,
      "Ġluisteren": 9109,
      "UNK": 9110,
      "è²": 9111,
      "erste": 9112,
      "Ġear": 9113,
      "oming": 9114,
      "å¥´": 9115,
      "ĠMed": 9116,
      "schrift": 9117,
      "Ġplays": 9118,
      "æ¡¥": 9119,
      "å¨ľ": 9120,
      "Ġfeed": 9121,
      "Ġopening": 9122,
      "oegd": 9123,
      "ç¼ĸ": 9124,
      "gebied": 9125,
      "Ġverzam": 9126,
      "Ġuitleggen": 9127,
      "licht": 9128,
      "ä¸Ģä»¶": 9129,
      "Ġä½łçİ°åľ¨": 9130,
      "æĶ¾å¼ĥ": 9131,
      "199": 9132,
      "Ġå¼Ģ": 9133,
      "Ġå·²ç»ı": 9134,
      "Would": 9135,
      "arken": 9136,
      "Ġjack": 9137,
      "ĠIII": 9138,
      "ä»ĸåľ¨": 9139,
      "quar": 9140,
      "Ġbigger": 9141,
      "Ġhistor": 9142,
      "yle": 9143,
      "ĠæĢ»": 9144,
      "Ġhuwelijk": 9145,
      "Ġblik": 9146,
      "berry": 9147,
      "Ġgroeien": 9148,
      "dere": 9149,
      "lang": 9150,
      "Ġdirty": 9151,
      "Ġhonger": 9152,
      "Ġpor": 9153,
      "Ġiss": 9154,
      "ĠMac": 9155,
      "ĠHigh": 9156,
      "èĢģåħ¬": 9157,
      "assing": 9158,
      "gevallen": 9159,
      "Ġzenuw": 9160,
      "Ġverslag": 9161,
      "Ġchief": 9162,
      "åĬĽéĩı": 9163,
      "ĠCommons": 9164,
      "points": 9165,
      "daar": 9166,
      "Ġsin": 9167,
      "Ġthanks": 9168,
      "asing": 9169,
      "Ġtoil": 9170,
      "ĠKies": 9171,
      "Ġdaarbij": 9172,
      "ĠGeluid": 9173,
      "æĺ¯åĲĹ": 9174,
      "çĶ²": 9175,
      "è¯´æĺİ": 9176,
      "åīĳ": 9177,
      "Ġfilms": 9178,
      "ĠAngola": 9179,
      "Ġhate": 9180,
      "Ġinhoud": 9181,
      "ä¸įåı¯èĥ½": 9182,
      "Ġformed": 9183,
      "apens": 9184,
      "ä¼į": 9185,
      "istory": 9186,
      "çŁ¿": 9187,
      "keur": 9188,
      "åĿĩ": 9189,
      "Ġsmile": 9190,
      "ä¹Łä¸įä¼ļ": 9191,
      "å¼Łå¼Ł": 9192,
      "Welkom": 9193,
      "Ġadded": 9194,
      "Ġcontinued": 9195,
      "ĠKingdom": 9196,
      "Ġlijst": 9197,
      "aly": 9198,
      "Ġwee": 9199,
      "æ²¡æĥ³åĪ°": 9200,
      "ä¸ĭåĪĹ": 9201,
      "åºŁ": 9202,
      "åĲĮæĦı": 9203,
      "çĸ¯": 9204,
      "Ġbereiken": 9205,
      "Ġeth": 9206,
      "antly": 9207,
      "è¿ĺæ²¡æľī": 9208,
      "Ġgras": 9209,
      "Ġbron": 9210,
      "beeldingen": 9211,
      "Ġserious": 9212,
      "ĠâĮ": 9213,
      "Ġnative": 9214,
      "gh": 9215,
      "jar": 9216,
      "ĠåħĪ": 9217,
      "Ġbill": 9218,
      "Ġpo": 9219,
      "ä½łä½ł": 9220,
      "utie": 9221,
      "ĠAc": 9222,
      "è®¿": 9223,
      "åĩ¤": 9224,
      "æĪĳä»¬å°±": 9225,
      "ĠIts": 9226,
      "æįŁ": 9227,
      "oves": 9228,
      "Ġmonkey": 9229,
      "Ġinteresting": 9230,
      "Ġwoont": 9231,
      "Ġpolitician": 9232,
      "worth": 9233,
      "Ġtower": 9234,
      "Ġbevol": 9235,
      "éĤ£æĺ¯": 9236,
      "tens": 9237,
      "Ġarrest": 9238,
      "Ġwaterstof": 9239,
      "25": 9240,
      "turn": 9241,
      "wa": 9242,
      "yond": 9243,
      "Ġespecially": 9244,
      "Ġbood": 9245,
      "Ġhealth": 9246,
      "Ġverantwoord": 9247,
      "iform": 9248,
      "Ġbeteken": 9249,
      "è®©äºº": 9250,
      "Ġå¿ĥ": 9251,
      "lijst": 9252,
      "Ġtax": 9253,
      "ination": 9254,
      "Ġah": 9255,
      "Ġgather": 9256,
      "chan": 9257,
      "keken": 9258,
      "èĢģèĻİ": 9259,
      "Ġæīĵ": 9260,
      "Ġfol": 9261,
      "ĠGovern": 9262,
      "Ġspent": 9263,
      "ĠRos": 9264,
      "Ġgisteren": 9265,
      "Ġtim": 9266,
      "Ġsoul": 9267,
      "Ġnaught": 9268,
      "è¿¹": 9269,
      "è¯´æ³ķ": 9270,
      "å¯¹ä½ł": 9271,
      "Ġgevallen": 9272,
      "boden": 9273,
      "Ġdefin": 9274,
      "Ġspeciale": 9275,
      "èĪĴæľį": 9276,
      "Ġprinses": 9277,
      "Malley": 9278,
      "Ġbracht": 9279,
      "isf": 9280,
      "ä¸įå®¹æĺĵ": 9281,
      "Thomas": 9282,
      "Ġhardly": 9283,
      "åĨħå®¹": 9284,
      "Ġgroepen": 9285,
      "Tell": 9286,
      "Ġsell": 9287,
      "Ġneus": 9288,
      "åĪĨäº«": 9289,
      "Ġturns": 9290,
      "erkt": 9291,
      "Ġouder": 9292,
      "Ġcovered": 9293,
      "Ġleeftijd": 9294,
      "Ġslowly": 9295,
      "gave": 9296,
      "mers": 9297,
      "arc": 9298,
      "ä»ĩ": 9299,
      "ewijs": 9300,
      "Ġå¼ł": 9301,
      "æĹģè¾¹": 9302,
      "Ġcorner": 9303,
      "Ġraakt": 9304,
      "Ġforty": 9305,
      "ä¼¸": 9306,
      "ipjes": 9307,
      "Ġbreng": 9308,
      "Ġremark": 9309,
      "ĠAnna": 9310,
      "ĠLeague": 9311,
      "çļĩå¸Ŀ": 9312,
      "Ġprobeert": 9313,
      "ĠCarol": 9314,
      "Ġiron": 9315,
      "Ġhorses": 9316,
      "Pre": 9317,
      "ias": 9318,
      "èĤĸ": 9319,
      "Ġsurv": 9320,
      "Ġenergy": 9321,
      "yyy": 9322,
      "Ġkoolstofdioxide": 9323,
      "Ġziekenhuis": 9324,
      "Ġrestaurant": 9325,
      "ä¸Ģå£°": 9326,
      "Ġverp": 9327,
      "Ġspread": 9328,
      "Ġconclus": 9329,
      "Ġgebieden": 9330,
      "these": 9331,
      "å¤ªå¤ª": 9332,
      "èģļ": 9333,
      "ĠâłĻ": 9334,
      "Ġkeuze": 9335,
      "æ¢¦æĥ³": 9336,
      "ype": 9337,
      "imedia": 9338,
      "Ġsav": 9339,
      "issing": 9340,
      "æīĭæľ¯": 9341,
      "Ġ2007": 9342,
      "ä¹łæĥ¯": 9343,
      "ĠParty": 9344,
      "Ġvliegtuig": 9345,
      "Give": 9346,
      "Sam": 9347,
      "Ġmunicip": 9348,
      "Ġterror": 9349,
      "æ¢ģ": 9350,
      "ĠWho": 9351,
      "Ġcrack": 9352,
      "éŃı": 9353,
      "Two": 9354,
      "gsel": 9355,
      "Ġcy": 9356,
      "rain": 9357,
      "ĠPet": 9358,
      "å¤©å¤©": 9359,
      "å±ģ": 9360,
      "æ³½": 9361,
      "ahu": 9362,
      "izza": 9363,
      "çĶ±äºİ": 9364,
      "ĠCharles": 9365,
      "Ġbreath": 9366,
      "Ġåīį": 9367,
      "Toe": 9368,
      "pose": 9369,
      "Ġzaad": 9370,
      "entje": 9371,
      "å®½": 9372,
      "Ġspoon": 9373,
      "æĭ¾": 9374,
      "å¾Īéļ¾": 9375,
      "looks": 9376,
      "äºĮéĽ¶ä¸Ģ": 9377,
      "æ£®æŀĹ": 9378,
      "Ġmult": 9379,
      "Ġthick": 9380,
      "Ġaanb": 9381,
      "ĠLi": 9382,
      "æĭĶ": 9383,
      "ç§Ł": 9384,
      "Ġsevent": 9385,
      "Ġterms": 9386,
      "mpire": 9387,
      "Ġzomer": 9388,
      "Ġdetail": 9389,
      "ä»ĭç»į": 9390,
      "ĠMexico": 9391,
      "lag": 9392,
      "Ġvoc": 9393,
      "å¯¹äºĨ": 9394,
      "æĦıä¹ī": 9395,
      "Ġgenomen": 9396,
      "éĩįæĸ°": 9397,
      "Ġåħ¨": 9398,
      "isse": 9399,
      "Ġhey": 9400,
      "igar": 9401,
      "ĠæĪĳä¼ļ": 9402,
      "éĺ»": 9403,
      "æĤĶ": 9404,
      "formule": 9405,
      "äº§çĶŁ": 9406,
      "Ġbericht": 9407,
      "ĠDuitse": 9408,
      "gesch": 9409,
      "pot": 9410,
      "ä»Ģä¹Īäºĭ": 9411,
      "nog": 9412,
      "Ġmeaning": 9413,
      "Ġspeed": 9414,
      "æĭ¿çĿĢ": 9415,
      "æ°ĳæĹı": 9416,
      "ĠSchooltv": 9417,
      "Ġstructuur": 9418,
      "Sn": 9419,
      "ç¦ģ": 9420,
      "ament": 9421,
      "raal": 9422,
      "Ġseks": 9423,
      "Ġslight": 9424,
      "Ġterrit": 9425,
      "Ġgekozen": 9426,
      "Ġindivid": 9427,
      "ĠWashington": 9428,
      "counter": 9429,
      "atol": 9430,
      "Ġjam": 9431,
      "ellig": 9432,
      "Ġ31": 9433,
      "çŃīçĿĢ": 9434,
      "ç¤¼çī©": 9435,
      "PLAY": 9436,
      "wise": 9437,
      "Ġlaid": 9438,
      "Ġeieren": 9439,
      "choo": 9440,
      "ĠBilly": 9441,
      "Ġbeloof": 9442,
      "ashion": 9443,
      "Ke": 9444,
      "ique": 9445,
      "ĠæĪĸèĢħ": 9446,
      "Ġ..": 9447,
      "onken": 9448,
      "leven": 9449,
      "Ġerv": 9450,
      "éĹª": 9451,
      "Ġchurch": 9452,
      "Ġtotaal": 9453,
      "boven": 9454,
      "Ġvakantie": 9455,
      "Ġdate": 9456,
      "ĠSen": 9457,
      "Ġsearch": 9458,
      "ounds": 9459,
      "Ġgevorm": 9460,
      "æĦŁåĪ°": 9461,
      "Ġcheek": 9462,
      "ç©ºæ°Ķ": 9463,
      "ĠAllison": 9464,
      "umenten": 9465,
      "æĮĳæĪĺ": 9466,
      "ĠMinister": 9467,
      "Ġnaughty": 9468,
      "Ġduh": 9469,
      "arrow": 9470,
      "ä»Ĺ": 9471,
      "ruim": 9472,
      "Ġè¿Ļç§į": 9473,
      "Ġdrugs": 9474,
      "æ¶¨": 9475,
      "æĶ¾å¿ĥåĲ§": 9476,
      "Ġdienst": 9477,
      "Had": 9478,
      "iem": 9479,
      "ĠGener": 9480,
      "ĠAustralia": 9481,
      "Ġlower": 9482,
      "ĠTweede": 9483,
      "æī«": 9484,
      "Ġrepe": 9485,
      "Ġupstairs": 9486,
      "Ġè¿Ļæ¬¡": 9487,
      "Ġhelft": 9488,
      "Ġsleut": 9489,
      "ç¬¬ä¸ī": 9490,
      "Ġvermoorden": 9491,
      "è°ĥæŁ¥": 9492,
      "ĠWikimedia": 9493,
      "orpor": 9494,
      "ternational": 9495,
      "MATE": 9496,
      "è¿ĻäºĭåĦ¿": 9497,
      "olden": 9498,
      "Ġmocht": 9499,
      "ĠGl": 9500,
      "istof": 9501,
      "åīįéĿ¢": 9502,
      "ĠEngels": 9503,
      "åĪ©çĶ¨": 9504,
      "Ġsinging": 9505,
      "ĠHoeveel": 9506,
      "ĠParis": 9507,
      "Ġkapot": 9508,
      "Ġkapitein": 9509,
      "outs": 9510,
      "Ġelder": 9511,
      "Ġbrood": 9512,
      "çĶµèĦĳ": 9513,
      "åĳ½ä»¤": 9514,
      "åĶ¯": 9515,
      "Ġaccident": 9516,
      "ä¸ģä¸ģ": 9517,
      "ĠAdam": 9518,
      "Ġbijzonder": 9519,
      "PLAYMATE": 9520,
      "èª": 9521,
      "Ġtie": 9522,
      "deeld": 9523,
      "ä¹Łä¸įæĺ¯": 9524,
      "Ġwaarvoor": 9525,
      "Ġkleren": 9526,
      "izend": 9527,
      "åŁŁ": 9528,
      "Ġkwal": 9529,
      "Ġ2009": 9530,
      "Ġverliezen": 9531,
      "ounced": 9532,
      "Ġlargest": 9533,
      "bon": 9534,
      "fin": 9535,
      "ĠçĶ¨": 9536,
      "Ġhall": 9537,
      "Ġfool": 9538,
      "Ġko": 9539,
      "aarten": 9540,
      "ĠSuper": 9541,
      "ĠMia": 9542,
      "ĠTurk": 9543,
      "ĠBereken": 9544,
      "åĽº": 9545,
      "ĠRon": 9546,
      "Ġbegra": 9547,
      "Ġcalling": 9548,
      "åŁ¹": 9549,
      "Ġopdrachten": 9550,
      "Afbeeldingen": 9551,
      "Ġhersenen": 9552,
      "Ġgroups": 9553,
      "Ġbrave": 9554,
      "Ġprachtig": 9555,
      "lopen": 9556,
      "ĠæĹ¢çĦ¶": 9557,
      "ĠæĪĳæĢİä¹Ī": 9558,
      "Ġnobody": 9559,
      "Ġschiet": 9560,
      "nacht": 9561,
      "å¹²åĺĽ": 9562,
      "æıĲä¾Ľ": 9563,
      "Ġcoast": 9564,
      "ti": 9565,
      "ado": 9566,
      "å¤º": 9567,
      "raÃ¯": 9568,
      "Ġoverw": 9569,
      "Ġchap": 9570,
      "Ġoffer": 9571,
      "çĲ´": 9572,
      "å®ŀéªĮ": 9573,
      "Ġinterview": 9574,
      "Ġ2006": 9575,
      "Ġfinally": 9576,
      "Ġfighting": 9577,
      "ĠCharlie": 9578,
      "mar": 9579,
      "ĠBeeldbank": 9580,
      "lop": 9581,
      "isatie": 9582,
      "ims": 9583,
      "ĠPurdie": 9584,
      "éķ¿å¾Ĺ": 9585,
      "rouwd": 9586,
      "Ġserved": 9587,
      "Ġcolle": 9588,
      "omething": 9589,
      "Ġdinosaur": 9590,
      "hol": 9591,
      "ĠMat": 9592,
      "Ġaffect": 9593,
      "åįģåħ«": 9594,
      "ä½ĵçļĦ": 9595,
      "æ·¡": 9596,
      "éļıä¾¿": 9597,
      "hankelijk": 9598,
      "Ġhiding": 9599,
      "Ġnone": 9600,
      "Ġrisk": 9601,
      "ä¸įä»ħ": 9602,
      "ĠBur": 9603,
      "èµŀ": 9604,
      "éĻĦ": 9605,
      "åįģäºĶ": 9606,
      "åĨįè¯´": 9607,
      "Clipjes": 9608,
      "ĠEuropese": 9609,
      "cream": 9610,
      "Ġpath": 9611,
      "Ġearl": 9612,
      "ä¹ĸ": 9613,
      "Ġstream": 9614,
      "ĠMa": 9615,
      "ç»©": 9616,
      "Ġterrible": 9617,
      "èĦ¾": 9618,
      "å¸ĪçĪ¶": 9619,
      "åĵİåĳĢ": 9620,
      "Ġkilometer": 9621,
      "VER": 9622,
      "jo": 9623,
      "laat": 9624,
      "Ġä¹Łæĺ¯": 9625,
      "uses": 9626,
      "ĠEarth": 9627,
      "Ġontb": 9628,
      "Ġpolitical": 9629,
      "Leuk": 9630,
      "hood": 9631,
      "Ġtas": 9632,
      "Ġdarm": 9633,
      "ĠFel": 9634,
      "Ġsoci": 9635,
      "ationale": 9636,
      "Ġutter": 9637,
      "Does": 9638,
      "Ġgeest": 9639,
      "ĠMaster": 9640,
      "Ġoma": 9641,
      "å§»": 9642,
      "çĭł": 9643,
      "èī¾": 9644,
      "Ġverlaten": 9645,
      "Pe": 9646,
      "ees": 9647,
      "rein": 9648,
      "å°ļ": 9649,
      "ĠMal": 9650,
      "è¦ģåİ»": 9651,
      "æĭĸ": 9652,
      "æ±ł": 9653,
      "æĲŃ": 9654,
      "Ġdisappear": 9655,
      "lage": 9656,
      "Ġdemon": 9657,
      "è¿Ŀ": 9658,
      "ä¸įæĸŃ": 9659,
      "ĠST": 9660,
      "åºı": 9661,
      "è°ĭ": 9662,
      "Ġonderzoeken": 9663,
      "Ġbegrip": 9664,
      "æľĢå¥½çļĦ": 9665,
      "Ġimmedi": 9666,
      "ouwen": 9667,
      "ç¦»å©ļ": 9668,
      "Ġbevindt": 9669,
      "Ġdirection": 9670,
      "æľªæĿ¥": 9671,
      "Ġpromise": 9672,
      "èİ·å¾Ĺ": 9673,
      "hoor": 9674,
      "Ġleeg": 9675,
      "otter": 9676,
      "Ġroof": 9677,
      "Ġmei": 9678,
      "Ġrepresent": 9679,
      "å§Ĩ": 9680,
      "Ġmaag": 9681,
      "Hebben": 9682,
      "voeren": 9683,
      "Ġgenerally": 9684,
      "Ġkorte": 9685,
      "çĮ´åŃĲ": 9686,
      "ĠEgypt": 9687,
      "ĠWereld": 9688,
      "Ġrook": 9689,
      "Ġspend": 9690,
      "åĵĩ": 9691,
      "åĸ½": 9692,
      "æĤ¨çļĦ": 9693,
[...]
