{
  "version": "1.0",
  "truncation": null,
  "padding": null,
  "added_tokens": [
    {
      "id": 0,
      "content": "<unk>",
      "single_word": false,
      "lstrip": false,
      "rstrip": false,
      "normalized": false,
      "special": true
    },
    {
      "id": 1,
      "content": "<s>",
      "single_word": false,
      "lstrip": false,
      "rstrip": false,
      "normalized": false,
      "special": true
    },
    {
      "id": 2,
      "content": "</s>",
      "single_word": false,
      "lstrip": false,
      "rstrip": false,
      "normalized": false,
      "special": true
    },
    {
      "id": 3,
      "content": "<pad>",
      "single_word": false,
      "lstrip": false,
      "rstrip": false,
      "normalized": false,
      "special": true
    },
    {
      "id": 4,
      "content": "<mask>",
      "single_word": false,
      "lstrip": false,
      "rstrip": false,
      "normalized": false,
      "special": true
    },
    {
      "id": 5,
      "content": "，",
      "single_word": false,
      "lstrip": false,
      "rstrip": false,
      "normalized": false,
      "special": true
    },
    {
      "id": 6,
      "content": "。",
      "single_word": false,
      "lstrip": false,
      "rstrip": false,
      "normalized": false,
      "special": true
    },
    {
      "id": 7,
      "content": "、",
      "single_word": false,
      "lstrip": false,
      "rstrip": false,
      "normalized": false,
      "special": true
    },
    {
      "id": 8,
      "content": "！",
      "single_word": false,
      "lstrip": false,
      "rstrip": false,
      "normalized": false,
      "special": true
    },
    {
      "id": 9,
      "content": "？",
      "single_word": false,
      "lstrip": false,
      "rstrip": false,
      "normalized": false,
      "special": true
    },
    {
      "id": 10,
      "content": "：",
      "single_word": false,
      "lstrip": false,
      "rstrip": false,
      "normalized": false,
      "special": true
    },
    {
      "id": 11,
      "content": "；",
      "single_word": false,
      "lstrip": false,
      "rstrip": false,
      "normalized": false,
      "special": true
    },
    {
      "id": 12,
      "content": "「",
      "single_word": false,
      "lstrip": false,
      "rstrip": false,
      "normalized": false,
      "special": true
    },
    {
      "id": 13,
      "content": "」",
      "single_word": false,
      "lstrip": false,
      "rstrip": false,
      "normalized": false,
      "special": true
    },
    {
      "id": 14,
      "content": "（",
      "single_word": false,
      "lstrip": false,
      "rstrip": false,
      "normalized": false,
      "special": true
    },
    {
      "id": 15,
      "content": "）",
      "single_word": false,
      "lstrip": false,
      "rstrip": false,
      "normalized": false,
      "special": true
    },
    {
      "id": 16,
      "content": "《",
      "single_word": false,
      "lstrip": false,
      "rstrip": false,
      "normalized": false,
      "special": true
    },
    {
      "id": 17,
      "content": "》",
      "single_word": false,
      "lstrip": false,
      "rstrip": false,
      "normalized": false,
      "special": true
    },
    {
      "id": 18,
      "content": "【",
      "single_word": false,
      "lstrip": false,
      "rstrip": false,
      "normalized": false,
      "special": true
    },
    {
      "id": 19,
      "content": "】",
      "single_word": false,
      "lstrip": false,
      "rstrip": false,
      "normalized": false,
      "special": true
    }
  ],
  "normalizer": null,
  "pre_tokenizer": {
    "type": "ByteLevel",
    "add_prefix_space": true,
    "trim_offsets": true,
    "use_regex": true
  },
  "post_processor": {
    "type": "TemplateProcessing",
    "single": [
      {
        "SpecialToken": {
          "id": "<s>",
          "type_id": 0
        }
      },
      {
        "Sequence": {
          "id": "A",
          "type_id": 0
        }
      },
      {
        "SpecialToken": {
          "id": "</s>",
          "type_id": 0
        }
      }
    ],
    "pair": [
      {
        "SpecialToken": {
          "id": "<s>",
          "type_id": 0
        }
      },
      {
        "Sequence": {
          "id": "A",
          "type_id": 0
        }
      },
      {
        "SpecialToken": {
          "id": "</s>",
          "type_id": 0
        }
      },
      {
        "SpecialToken": {
          "id": "<s>",
          "type_id": 0
        }
      },
      {
        "Sequence": {
          "id": "B",
          "type_id": 0
        }
      },
      {
        "SpecialToken": {
          "id": "</s>",
          "type_id": 0
        }
      }
    ],
    "special_tokens": {
      "</s>": {
        "id": "</s>",
        "ids": [
          2
        ],
        "tokens": [
          "</s>"
        ]
      },
      "<s>": {
        "id": "<s>",
        "ids": [
          1
        ],
        "tokens": [
          "<s>"
        ]
      }
    }
  },
  "decoder": {
    "type": "ByteLevel",
    "add_prefix_space": true,
    "trim_offsets": true,
    "use_regex": true
  },
  "model": {
    "type": "BPE",
    "dropout": null,
    "unk_token": null,
    "continuing_subword_prefix": null,
    "end_of_word_suffix": null,
    "fuse_unk": false,
    "byte_fallback": false,
    "ignore_merges": false,
    "vocab": {
      "<unk>": 0,
      "<s>": 1,
      "</s>": 2,
      "<pad>": 3,
      "<mask>": 4,
      "，": 5,
      "。": 6,
      "、": 7,
      "！": 8,
      "？": 9,
      "：": 10,
      "；": 11,
      "「": 12,
      "」": 13,
      "（": 14,
      "）": 15,
      "《": 16,
      "》": 17,
      "【": 18,
      "】": 19,
      "!": 20,
      "\"": 21,
      "#": 22,
      "$": 23,
      "%": 24,
      "&": 25,
      "'": 26,
      "(": 27,
      ")": 28,
      "*": 29,
      "+": 30,
      ",": 31,
      "-": 32,
      ".": 33,
      "/": 34,
      "0": 35,
      "1": 36,
      "2": 37,
      "3": 38,
      "4": 39,
      "5": 40,
      "6": 41,
      "7": 42,
      "8": 43,
      "9": 44,
      ":": 45,
      ";": 46,
      "<": 47,
      "=": 48,
      ">": 49,
      "?": 50,
      "@": 51,
      "A": 52,
      "B": 53,
      "C": 54,
      "D": 55,
      "E": 56,
      "F": 57,
      "G": 58,
      "H": 59,
      "I": 60,
      "J": 61,
      "K": 62,
      "L": 63,
      "M": 64,
      "N": 65,
      "O": 66,
      "P": 67,
      "Q": 68,
      "R": 69,
      "S": 70,
      "T": 71,
      "U": 72,
      "V": 73,
      "W": 74,
      "X": 75,
      "Y": 76,
      "Z": 77,
      "[": 78,
      "\\": 79,
      "]": 80,
      "^": 81,
      "_": 82,
      "`": 83,
      "a": 84,
      "b": 85,
      "c": 86,
      "d": 87,
      "e": 88,
      "f": 89,
      "g": 90,
      "h": 91,
      "i": 92,
      "j": 93,
      "k": 94,
      "l": 95,
      "m": 96,
      "n": 97,
      "o": 98,
      "p": 99,
      "q": 100,
      "r": 101,
      "s": 102,
      "t": 103,
      "u": 104,
      "v": 105,
      "w": 106,
      "x": 107,
      "y": 108,
      "z": 109,
      "{": 110,
      "|": 111,
      "}": 112,
      "~": 113,
      "¡": 114,
      "¢": 115,
      "£": 116,
      "¤": 117,
      "¥": 118,
      "¦": 119,
      "§": 120,
      "¨": 121,
      "©": 122,
      "ª": 123,
      "«": 124,
      "¬": 125,
      "®": 126,
      "¯": 127,
      "°": 128,
      "±": 129,
      "²": 130,
      "³": 131,
      "´": 132,
      "µ": 133,
      "¶": 134,
      "·": 135,
      "¸": 136,
      "¹": 137,
      "º": 138,
      "»": 139,
      "¼": 140,
      "½": 141,
      "¾": 142,
      "¿": 143,
      "À": 144,
      "Á": 145,
      "Â": 146,
      "Ã": 147,
      "Ä": 148,
      "Å": 149,
      "Æ": 150,
      "Ç": 151,
      "È": 152,
      "É": 153,
      "Ê": 154,
      "Ë": 155,
      "Ì": 156,
      "Í": 157,
      "Î": 158,
      "Ï": 159,
      "Ð": 160,
      "Ñ": 161,
      "Ò": 162,
      "Ó": 163,
      "Ô": 164,
      "Õ": 165,
      "Ö": 166,
      "×": 167,
      "Ø": 168,
      "Ù": 169,
      "Ú": 170,
      "Û": 171,
      "Ü": 172,
      "Ý": 173,
      "Þ": 174,
      "ß": 175,
      "à": 176,
      "á": 177,
      "â": 178,
      "ã": 179,
      "ä": 180,
      "å": 181,
      "æ": 182,
      "ç": 183,
      "è": 184,
      "é": 185,
      "ê": 186,
      "ë": 187,
      "ì": 188,
      "í": 189,
      "î": 190,
      "ï": 191,
      "ð": 192,
      "ñ": 193,
      "ò": 194,
      "ó": 195,
      "ô": 196,
      "õ": 197,
      "ö": 198,
      "÷": 199,
      "ø": 200,
      "ù": 201,
      "ú": 202,
      "û": 203,
      "ü": 204,
      "ý": 205,
      "þ": 206,
      "ÿ": 207,
      "Ā": 208,
      "ā": 209,
      "Ă": 210,
      "ă": 211,
      "Ą": 212,
      "ą": 213,
      "Ć": 214,
      "ć": 215,
      "Ĉ": 216,
      "ĉ": 217,
      "Ċ": 218,
      "ċ": 219,
      "Č": 220,
      "č": 221,
      "Ď": 222,
      "ď": 223,
      "Đ": 224,
      "đ": 225,
      "Ē": 226,
      "ē": 227,
      "Ĕ": 228,
      "ĕ": 229,
      "Ė": 230,
      "ė": 231,
      "Ę": 232,
      "ę": 233,
      "Ě": 234,
      "ě": 235,
      "Ĝ": 236,
      "ĝ": 237,
      "Ğ": 238,
      "ğ": 239,
      "Ġ": 240,
      "ġ": 241,
      "Ģ": 242,
      "ģ": 243,
      "Ĥ": 244,
      "ĥ": 245,
      "Ħ": 246,
      "ħ": 247,
      "Ĩ": 248,
      "ĩ": 249,
      "Ī": 250,
      "ī": 251,
      "Ĭ": 252,
      "ĭ": 253,
      "Į": 254,
      "į": 255,
      "İ": 256,
      "ı": 257,
      "Ĳ": 258,
      "ĳ": 259,
      "Ĵ": 260,
      "ĵ": 261,
      "Ķ": 262,
      "ķ": 263,
      "ĸ": 264,
      "Ĺ": 265,
      "ĺ": 266,
      "Ļ": 267,
      "ļ": 268,
      "Ľ": 269,
      "ľ": 270,
      "Ŀ": 271,
      "ŀ": 272,
      "Ł": 273,
      "ł": 274,
      "Ń": 275,
      "Ġt": 276,
      "he": 277,
      "Ġa": 278,
      "in": 279,
      "en": 280,
      "er": 281,
      "Ġw": 282,
      "Ġs": 283,
      "Ġo": 284,
      "Ġthe": 285,
      "ou": 286,
      "at": 287,
      "an": 288,
      "re": 289,
      "Ġd": 290,
      "Ġb": 291,
      "Ġm": 292,
      "is": 293,
      "it": 294,
      "Ġh": 295,
      "on": 296,
      "or": 297,
      "Ġc": 298,
      "ar": 299,
      "ed": 300,
      "ing": 301,
      "Ġg": 302,
      "ll": 303,
      "Ġf": 304,
      "es": 305,
      "nd": 306,
      "Ġto": 307,
      "Ġp": 308,
      "Ġn": 309,
      "et": 310,
      "Ġhe": 311,
      "Ġth": 312,
      "Ġl": 313,
      "MO": 314,
      "Ġy": 315,
      "MOT": 316,
      "as": 317,
      "Ġin": 318,
      "Ġand": 319,
      "Ġof": 320,
      "Ġyou": 321,
      "om": 322,
      "CH": 323,
      "CHI": 324,
      "el": 325,
      "Ġ.": 326,
      "Ġv": 327,
      "ot": 328,
      "ĠI": 329,
      "ow": 330,
      "Ġe": 331,
      "ch": 332,
      "'s": 333,
      "al": 334,
      "Ġis": 335,
      "st": 336,
      "le": 337,
      "Ġon": 338,
      "ij": 339,
      "Ġit": 340,
      "ad": 341,
      "Ġk": 342,
      "ut": 343,
      "id": 344,
      "ay": 345,
      "ve": 346,
      "ig": 347,
      "Ġbe": 348,
      "Ġde": 349,
      "oo": 350,
      "Ġthat": 351,
      "ic": 352,
      "Ġu": 353,
      "Ġwas": 354,
      "Ġj": 355,
      "ie": 356,
      "hat": 357,
      "ent": 358,
      "am": 359,
      "Ġz": 360,
      "ld": 361,
      "Ġst": 362,
      "im": 363,
      "ur": 364,
      "and": 365,
      "se": 366,
      "Ġre": 367,
      "ver": 368,
      "Ġwe": 369,
      "Ġr": 370,
      "Ġdo": 371,
      "..": 372,
      "ir": 373,
      "ak": 374,
      "'t": 375,
      "ĠT": 376,
      "ac": 377,
      "Ġme": 378,
      "ĠS": 379,
      "ion": 380,
      "Ġfor": 381,
      "ik": 382,
      "ht": 383,
      "Ġha": 384,
      "ĠA": 385,
      "il": 386,
      "ĠM": 387,
      "ro": 388,
      "all": 389,
      "ith": 390,
      "ter": 391,
      "aar": 392,
      "ee": 393,
      "ĠB": 394,
      "her": 395,
      "ly": 396,
      "Ġwith": 397,
      "Ġan": 398,
      "ĠH": 399,
      "ill": 400,
      "ight": 401,
      "Ġgo": 402,
      "Ġas": 403,
      "ĠC": 404,
      "ag": 405,
      "un": 406,
      "Ġen": 407,
      "ome": 408,
      "ea": 409,
      "Ġ,": 410,
      "Ġeen": 411,
      "ĠD": 412,
      "Ġwh": 413,
      "if": 414,
      "ant": 415,
      "Ġnot": 416,
      "Ġhet": 417,
      "Ġje": 418,
      "Ġat": 419,
      "oor": 420,
      "op": 421,
      "Ġal": 422,
      "Ġmo": 423,
      "ould": 424,
      "ell": 425,
      "us": 426,
      "um": 427,
      "ct": 428,
      "ra": 429,
      "th": 430,
      "ce": 431,
      "Ġhave": 432,
      "ä¸": 433,
      "ol": 434,
      "ers": 435,
      "Ġthis": 436,
      "Ġhis": 437,
      "est": 438,
      "ust": 439,
      "Ġvan": 440,
      "Ġsh": 441,
      "Ġ\"": 442,
      "iet": 443,
      "Ġall": 444,
      "here": 445,
      "ook": 446,
      "ĠP": 447,
      "Ġ1": 448,
      "ĠW": 449,
      "ri": 450,
      "Ġkn": 451,
      "ap": 452,
      "Ġare": 453,
      "Ġhad": 454,
      "ere": 455,
      "Ġver": 456,
      "Ġthey": 457,
      "Ġop": 458,
      "ain": 459,
      "Ġher": 460,
      "Ġge": 461,
      "Ġne": 462,
      "Ġ?": 463,
      "Ġone": 464,
      "ind": 465,
      "Ġno": 466,
      "Ġup": 467,
      "ĠG": 468,
      "Ġthere": 469,
      "ul": 470,
      "Ġte": 471,
      "ven": 472,
      "ard": 473,
      "Ġcan": 474,
      "Ġyour": 475,
      "Ġfr": 476,
      "Ġ'": 477,
      "Ġshe": 478,
      "ood": 479,
      "end": 480,
      "Ġso": 481,
      "ĠN": 482,
      "hen": 483,
      "eah": 484,
      "ĠJ": 485,
      "ge": 486,
      "Ġknow": 487,
      "Ġwor": 488,
      "ijn": 489,
      "ĠL": 490,
      "IN": 491,
      "ab": 492,
      "out": 493,
      "...": 494,
      "xx": 495,
      "--": 496,
      "au": 497,
      "Ġdat": 498,
      "Ġdon": 499,
      "ike": 500,
      "Ġch": 501,
      "Ġmy": 502,
      "em": 503,
      "Ġwhat": 504,
      "Ġsa": 505,
      "Ġhim": 506,
      "ist": 507,
      "Ġpl": 508,
      "ack": 509,
      "ĠE": 510,
      "Ġer": 511,
      "ich": 512,
      "ĠR": 513,
      "ast": 514,
      "os": 515,
      "art": 516,
      "ĠF": 517,
      "ink": 518,
      "pp": 519,
      "oug": 520,
      "ok": 521,
      "ck": 522,
      "INV": 523,
      "Ġsp": 524,
      "ĠThe": 525,
      "Ġor": 526,
      "Ġout": 527,
      "Ġniet": 528,
      "ess": 529,
      "Ġfrom": 530,
      "ry": 531,
      "Ġbut": 532,
      "Ġ2": 533,
      "oh": 534,
      "ake": 535,
      "ation": 536,
      "Ġab": 537,
      "ong": 538,
      "You": 539,
      "Ġlike": 540,
      "Ġsu": 541,
      "Ġby": 542,
      "qu": 543,
      "ond": 544,
      "Ġget": 545,
      "'re": 546,
      "ound": 547,
      "AT": 548,
      "Ġwere": 549,
      "ame": 550,
      "äº": 551,
      "res": 552,
      "The": 553,
      "Ġcom": 554,
      "Ġthem": 555,
      "one": 556,
      "ĠO": 557,
      "ijk": 558,
      "Ġsee": 559,
      "Ġle": 560,
      "oe": 561,
      "Ġ(": 562,
      "Ġse": 563,
      "no": 564,
      "ft": 565,
      "itt": 566,
      "Ġover": 567,
      "you": 568,
      "od": 569,
      "Ik": 570,
      ".\"": 571,
      "Ġik": 572,
      "own": 573,
      "Ġman": 574,
      "den": 575,
      "ive": 576,
      "Ġdid": 577,
      "Ġex": 578,
      "ang": 579,
      "Ġcon": 580,
      "what": 581,
      "çļ": 582,
      "our": 583,
      "cht": 584,
      "çļĦ": 585,
      "'m": 586,
      "Ġpro": 587,
      "ally": 588,
      "Ġvoor": 589,
      "Ġsome": 590,
      "Ġgot": 591,
      "ore": 592,
      "Ġwat": 593,
      "gen": 594,
      "Ġmet": 595,
      "ort": 596,
      "Ġabout": 597,
      "Ġtw": 598,
      "ies": 599,
      "are": 600,
      "].": 601,
      "ä»": 602,
      "Ġsaid": 603,
      "ber": 604,
      "Ġwant": 605,
      "de": 606,
      "ine": 607,
      "ru": 608,
      "Ġlook": 609,
      "ick": 610,
      "ice": 611,
      "Ġhere": 612,
      "na": 613,
      "'ll": 614,
      "Ġze": 615,
      "Ġwould": 616,
      "FAT": 617,
      "Ġthink": 618,
      "ide": 619,
      "æĪ": 620,
      "Ġar": 621,
      "Ġaf": 622,
      "Ġzijn": 623,
      "Ġbo": 624,
      "ect": 625,
      "ier": 626,
      "ank": 627,
      "Ġjust": 628,
      "ough": 629,
      "yeah": 630,
      "ep": 631,
      "Ġwill": 632,
      "Ġif": 633,
      "Ġthen": 634,
      "ate": 635,
      "iv": 636,
      "we": 637,
      "Ġbl": 638,
      "Ġus": 639,
      "Ġwhen": 640,
      "ime": 641,
      "nt": 642,
      "ĠK": 643,
      "Ġbr": 644,
      "Ġwho": 645,
      "Ġals": 646,
      "Ġany": 647,
      "hing": 648,
      "Ġnow": 649,
      "ip": 650,
      "aat": 651,
      "other": 652,
      "to": 653,
      "ous": 654,
      "be": 655,
      "ä½": 656,
      "è¿": 657,
      "that": 658,
      "Ġheb": 659,
      "æĪĳ": 660,
      "ire": 661,
      "Ġwhich": 662,
      ",\"": 663,
      "Ġsay": 664,
      "ther": 665,
      "Ġgr": 666,
      "ure": 667,
      "Ġag": 668,
      "Ġbeen": 669,
      "Ġright": 670,
      "We": 671,
      "ite": 672,
      "ze": 673,
      "Ġ...": 674,
      "Ġdown": 675,
      "'ve": 676,
      "Ġcl": 677,
      "ĠHe": 678,
      "ose": 679,
      "Ġfe": 680,
      "xxx": 681,
      "way": 682,
      "ens": 683,
      "ree": 684,
      "Ġdie": 685,
      "æĺ": 686,
      "It": 687,
      "Ġ20": 688,
      "ĠV": 689,
      "Ġtheir": 690,
      "Ġ[": 691,
      "ken": 692,
      "Ġ19": 693,
      "ull": 694,
      "elf": 695,
      "ittle": 696,
      "Ġback": 697,
      "ause": 698,
      "nder": 699,
      "Ġmore": 700,
      "Ġaan": 701,
      "Ġtime": 702,
      "Ġgoing": 703,
      "Ġoff": 704,
      "ace": 705,
      "ity": 706,
      "ff": 707,
      "ĠIt": 708,
      "Ġput": 709,
      "Ġhas": 710,
      "Ġcould": 711,
      "He": 712,
      "AR": 713,
      "Ġlittle": 714,
      "che": 715,
      "ass": 716,
      "Ġlo": 717,
      "Ġpr": 718,
      "eld": 719,
      "Ġgood": 720,
      "ild": 721,
      "ish": 722,
      "æĺ¯": 723,
      "Ġqu": 724,
      "my": 725,
      "aan": 726,
      "Ġvery": 727,
      "ings": 728,
      "Ġom": 729,
      "age": 730,
      "pl": 731,
      "Ġother": 732,
      "ud": 733,
      "ia": 734,
      "Ġtwo": 735,
      "ars": 736,
      "the": 737,
      "cause": 738,
      "orn": 739,
      "yes": 740,
      "Ġsch": 741,
      "iss": 742,
      "reat": 743,
      "te": 744,
      "Ġpe": 745,
      "äºĨ": 746,
      "oll": 747,
      "Ġuit": 748,
      "ä½ł": 749,
      "Ġever": 750,
      "Ġtr": 751,
      "What": 752,
      "urn": 753,
      "alk": 754,
      "aug": 755,
      "Ġbet": 756,
      "per": 757,
      "Ġel": 758,
      "å¤": 759,
      "hy": 760,
      "ian": 761,
      "ien": 762,
      "ble": 763,
      "ade": 764,
      "og": 765,
      "mer": 766,
      "pt": 767,
      "Ġ-": 768,
      "ied": 769,
      "æľ": 770,
      "å°": 771,
      "ä¹": 772,
      "Ġinto": 773,
      "act": 774,
      "ment": 775,
      "And": 776,
      "av": 777,
      "ĠCh": 778,
      "åĲ": 779,
      "je": 780,
      "ase": 781,
      "ord": 782,
      "ĠDe": 783,
      "Ġplay": 784,
      "Ġfl": 785,
      "ĠIn": 786,
      "Ġagain": 787,
      "ne": 788,
      "Ġcome": 789,
      "irst": 790,
      "Ġhand": 791,
      "åı": 792,
      "omet": 793,
      "ount": 794,
      "Oh": 795,
      "bl": 796,
      "ĠSt": 797,
      "ä¸į": 798,
      "ary": 799,
      "ug": 800,
      "ople": 801,
      "----": 802,
      "ost": 803,
      "Ġway": 804,
      "eren": 805,
      "Ġam": 806,
      "ĠU": 807,
      "00": 808,
      "Ġday": 809,
      "ä¸Ģ": 810,
      "sh": 811,
      "ke": 812,
      "ance": 813,
      "Ġzo": 814,
      "ool": 815,
      "Ġwhere": 816,
      "ock": 817,
      "ach": 818,
      "ans": 819,
      "ark": 820,
      "Ġhow": 821,
      "rij": 822,
      "Ġxxx": 823,
      "nen": 824,
      "Ġwell": 825,
      "Ġmaar": 826,
      "ought": 827,
      "cl": 828,
      "old": 829,
      "Ġdoor": 830,
      "ob": 831,
      "land": 832,
      "ue": 833,
      "orm": 834,
      "air": 835,
      "ely": 836,
      "Ġmake": 837,
      "Yeah": 838,
      "int": 839,
      "Ġsc": 840,
      "Ġsl": 841,
      "ile": 842,
      "Ġword": 843,
      "his": 844,
      "fore": 845,
      "Ġwork": 846,
      "Ġfirst": 847,
      "Ġcall": 848,
      "Ġpeople": 849,
      "ise": 850,
      "elijk": 851,
      "Ġmu": 852,
      "Ġad": 853,
      "uh": 854,
      "No": 855,
      "Ġnaar": 856,
      "ert": 857,
      "onna": 858,
      "Ġtoo": 859,
      "Ġpart": 860,
      "ng": 861,
      "Ġafter": 862,
      "Ġdoes": 863,
      "hed": 864,
      "Ġpre": 865,
      "Ġour": 866,
      "ER": 867,
      "self": 868,
      "ek": 869,
      "Ġthr": 870,
      "ty": 871,
      "Ġye": 872,
      "Ġcar": 873,
      "Ġmoet": 874,
      "wn": 875,
      "uck": 876,
      "Ġtell": 877,
      "aal": 878,
      "Ġgonna": 879,
      "Ġ3": 880,
      "Ã©": 881,
      "è¿Ļ": 882,
      "Ġtake": 883,
      "Ġdan": 884,
      "Ġsomet": 885,
      "Ġonly": 886,
      "è¯": 887,
      "ress": 888,
      "Ġsm": 889,
      "ting": 890,
      "cc": 891,
      "Ġlet": 892,
      "ls": 893,
      "Ġun": 894,
      "hm": 895,
      "åľ": 896,
      "ten": 897,
      "ather": 898,
      "do": 899,
      "Ġ!": 900,
      "Ġper": 901,
      "Ġbij": 902,
      "riend": 903,
      "able": 904,
      "Ġwel": 905,
      "red": 906,
      "Ġshould": 907,
      "Ġmade": 908,
      "Ġeven": 909,
      "Ġhij": 910,
      "Het": 911,
      "Ġdr": 912,
      "?\"": 913,
      "ated": 914,
      "Ġevery": 915,
      "Ġbel": 916,
      "ath": 917,
      "erd": 918,
      "Ġneed": 919,
      "ady": 920,
      "That": 921,
      "ory": 922,
      "Ġthan": 923,
      "Ġ_": 924,
      "å®": 925,
      "iz": 926,
      "ew": 927,
      "get": 928,
      "als": 929,
      "Ġthese": 930,
      "Ġbeg": 931,
      "aak": 932,
      "Ġboy": 933,
      "Ġmuch": 934,
      "where": 935,
      "Ġlong": 936,
      "Ġben": 937,
      "ict": 938,
      "Ġmak": 939,
      "Ġhou": 940,
      "ĠFr": 941,
      "Ġapp": 942,
      "een": 943,
      "Ġhel": 944,
      "ife": 945,
      "But": 946,
      "ci": 947,
      "Ġwater": 948,
      "åĪ": 949,
      "Ġbu": 950,
      "Ġook": 951,
      "Je": 952,
      "sp": 953,
      "Ġdis": 954,
      "there": 955,
      "ah": 956,
      "okay": 957,
      "Ġaway": 958,
      "De": 959,
      "ĠZ": 960,
      "Well": 961,
      "Ġim": 962,
      "ater": 963,
      "man": 964,
      "Ġsec": 965,
      "Ġbefore": 966,
      "Ġro": 967,
      "ste": 968,
      "ãĢ": 969,
      "ave": 970,
      "thing": 971,
      "eg": 972,
      "Ġdidn": 973,
      "Ġwaar": 974,
      "Ġkan": 975,
      "Ġalso": 976,
      "ĠMr": 977,
      "å¥": 978,
      "Ġnog": 979,
      "ving": 980,
      "ved": 981,
      "Ġwent": 982,
      "Yes": 983,
      "Ġhapp": 984,
      "!\"": 985,
      "Ġkun": 986,
      "amp": 987,
      "Ġgir": 988,
      "ward": 989,
      "Ġunder": 990,
      "Ġwr": 991,
      "Ġold": 992,
      "ho": 993,
      "Ġcont": 994,
      "Ġcomp": 995,
      "Ġsomething": 996,
      "ions": 997,
      "Ġbig": 998,
      "æĿ": 999,
      "day": 1000,
      "Ġrem": 1001,
      "Ġmay": 1002,
      "ix": 1003,
      "Ġbecause": 1004,
      "åħ": 1005,
      "Ġspe": 1006,
      "acht": 1007,
      "iff": 1008,
      "Ġ4": 1009,
      "Ġter": 1010,
      "Ġreally": 1011,
      "Ġkind": 1012,
      "ons": 1013,
      "ãĢĤ": 1014,
      "In": 1015,
      "Ġcame": 1016,
      "ful": 1017,
      "oot": 1018,
      "look": 1019,
      "Ġbed": 1020,
      "PAR": 1021,
      "Ġact": 1022,
      "wer": 1023,
      "omen": 1024,
      "ä¸ª": 1025,
      "eft": 1026,
      "ben": 1027,
      "ody": 1028,
      "ouw": 1029,
      "Wat": 1030,
      "der": 1031,
      "up": 1032,
      "'d": 1033,
      "aw": 1034,
      "eep": 1035,
      "Ġstr": 1036,
      "right": 1037,
      "Ġgu": 1038,
      "Ġnever": 1039,
      "Ġask": 1040,
      "Ġthree": 1041,
      "but": 1042,
      "Ġtalk": 1043,
      "Ġple": 1044,
      "Ġmin": 1045,
      "Ġhier": 1046,
      "Ġhelp": 1047,
      "kay": 1048,
      "Ġheeft": 1049,
      "ail": 1050,
      "dy": 1051,
      "over": 1052,
      "Ġgoed": 1053,
      "ors": 1054,
      "Ġgreat": 1055,
      "Ġbest": 1056,
      "ence": 1057,
      "Ġhead": 1058,
      "Ġcr": 1059,
      "Ġmean": 1060,
      "Ġcomm": 1061,
      "ious": 1062,
      "ign": 1063,
      "ried": 1064,
      "ult": 1065,
      "els": 1066,
      "aby": 1067,
      "Ġthrough": 1068,
      "anna": 1069,
      "æľī": 1070,
      "Ġdoing": 1071,
      "iver": 1072,
      "les": 1073,
      "Ġturn": 1074,
      "elen": 1075,
      "uur": 1076,
      "oy": 1077,
      "ummy": 1078,
      "oc": 1079,
      "Ġlast": 1080,
      "oss": 1081,
      "åŃ": 1082,
      "Ġgl": 1083,
      "oint": 1084,
      "eel": 1085,
      "ijd": 1086,
      "Ġnight": 1087,
      "ĠShe": 1088,
      "Ġmen": 1089,
      "Ġmany": 1090,
      "Ġfind": 1091,
      "Ġhebben": 1092,
      "augh": 1093,
      "oon": 1094,
      "Ġthose": 1095,
      "Ġser": 1096,
      "Ġdit": 1097,
      "Ġmust": 1098,
      "well": 1099,
      "å°±": 1100,
      "Ġtra": 1101,
      "åľ¨": 1102,
      "Ġstill": 1103,
      "Ġthought": 1104,
      "Dat": 1105,
      "Ġsn": 1106,
      "Ġdone": 1107,
      "ST": 1108,
      "Ġfound": 1109,
      "ny": 1110,
      "Ġbook": 1111,
      "Ġbit": 1112,
      "ele": 1113,
      "Ġwer": 1114,
      "ves": 1115,
      "Ġeat": 1116,
      "ened": 1117,
      "ub": 1118,
      "Ġthing": 1119,
      "Ġbot": 1120,
      "Ġwon": 1121,
      "Ġits": 1122,
      "ä»¬": 1123,
      "SI": 1124,
      "ss": 1125,
      "Ġcalled": 1126,
      "ende": 1127,
      "igh": 1128,
      "ET": 1129,
      "ingen": 1130,
      "Ġinter": 1131,
      "xt": 1132,
      "åĳ": 1133,
      "Ġanother": 1134,
      "Ġ201": 1135,
      "Ġstart": 1136,
      "ait": 1137,
      "Ġwar": 1138,
      "uk": 1139,
      "ief": 1140,
      "elt": 1141,
      "Ġhome": 1142,
      "Ġhem": 1143,
      "can": 1144,
      "ces": 1145,
      "ww": 1146,
      "Ġnew": 1147,
      "ily": 1148,
      "ĠBr": 1149,
      "ä»ĸ": 1150,
      "So": 1151,
      "ange": 1152,
      "En": 1153,
      "ĥ½": 1154,
      "Ġgeen": 1155,
      "du": 1156,
      "Ġwil": 1157,
      "Ġgive": 1158,
      "inn": 1159,
      "ĠAnd": 1160,
      "Ġche": 1161,
      "Ġmijn": 1162,
      "Ġhouse": 1163,
      "ren": 1164,
      "ever": 1165,
      "Ġonder": 1166,
      "Ġshow": 1167,
      "ale": 1168,
      "ĠY": 1169,
      "ister": 1170,
      "Ġsle": 1171,
      "Ġgen": 1172,
      "ç»": 1173,
      "come": 1174,
      "Ġchild": 1175,
      "Ġhun": 1176,
      "row": 1177,
      "aten": 1178,
      "onder": 1179,
      "Ġthings": 1180,
      "Ġdes": 1181,
      "ope": 1182,
      "Ġmight": 1183,
      "port": 1184,
      "let": 1185,
      "Ġmom": 1186,
      "me": 1187,
      "Ġrec": 1188,
      "uit": 1189,
      "Ġdeze": 1190,
      "Ġfriend": 1191,
      "Ġwanna": 1192,
      "ates": 1193,
      "Ġtak": 1194,
      "ents": 1195,
      "ger": 1196,
      "Ġwordt": 1197,
      "æĿ¥": 1198,
      "LD": 1199,
      "æī": 1200,
      "Ġsuch": 1201,
      "Ġmeer": 1202,
      "Ġmost": 1203,
      "å¾": 1204,
      "AD": 1205,
      "ms": 1206,
      "ont": 1207,
      "Ġname": 1208,
      "ye": 1209,
      "ä¹Ī": 1210,
      "They": 1211,
      "Ġown": 1212,
      "Ġhu": 1213,
      "men": 1214,
      "Ġlea": 1215,
      "apt": 1216,
      "Ġtry": 1217,
      "ps": 1218,
      "ĠUn": 1219,
      "ition": 1220,
      "Ġbaby": 1221,
      "uss": 1222,
      "ember": 1223,
      "ually": 1224,
      "oord": 1225,
      "Ġear": 1226,
      "Ġaround": 1227,
      "pe": 1228,
      "åķ": 1229,
      "Ġvo": 1230,
      "Ġcount": 1231,
      "æĹ": 1232,
      "Ġdiff": 1233,
      "Ġworden": 1234,
      "ĠTh": 1235,
      "Ġlot": 1236,
      "Ġdaar": 1237,
      "Ġgeb": 1238,
      "Ġisn": 1239,
      "äºº": 1240,
      "Ġ5": 1241,
      "--------": 1242,
      "Th": 1243,
      "ical": 1244,
      "Ġatt": 1245,
      "pen": 1246,
      "outh": 1247,
      "Ġused": 1248,
      "eer": 1249,
      "Ġgirl": 1250,
      "Ġpres": 1251,
      "med": 1252,
      "Ġbre": 1253,
      "aughs": 1254,
      "Ġend": 1255,
      "Ġbeing": 1256,
      "oney": 1257,
      "åĽ": 1258,
      "Ġplace": 1259,
      "çľ": 1260,
      "å¦": 1261,
      "ĠThey": 1262,
      "Ġschool": 1263,
      "eder": 1264,
      "Ġlife": 1265,
      "oud": 1266,
      "imes": 1267,
      "çĶ": 1268,
      "ige": 1269,
      "CHILD": 1270,
      "This": 1271,
      "Ġcare": 1272,
      "Ġvol": 1273,
      "Ġhaar": 1274,
      "Ġland": 1275,
      "Ġcour": 1276,
      "Ġyears": 1277,
      "¿½": 1278,
      "ins": 1279,
      "gt": 1280,
      "There": 1281,
      "orry": 1282,
      "ited": 1283,
      "led": 1284,
      "ib": 1285,
      "hes": 1286,
      "ys": 1287,
      "ï¿½": 1288,
      "Ġhal": 1289,
      "Ġwhile": 1290,
      "addy": 1291,
      "so": 1292,
      "TAR": 1293,
      "Ġpers": 1294,
      "ĠYou": 1295,
      "Ġnu": 1296,
      "Ġfar": 1297,
      "Ġhard": 1298,
      "ling": 1299,
      "Ġmat": 1300,
      "Ġreg": 1301,
      "GET": 1302,
      "éĤ": 1303,
      "Ġgaan": 1304,
      "Ġbetter": 1305,
      "vel": 1306,
      "è¯´": 1307,
      "Ġdoen": 1308,
      "TARGET": 1309,
      "lijk": 1310,
      "Ġsame": 1311,
      "Hij": 1312,
      "gr": 1313,
      "ince": 1314,
      "gg": 1315,
      "ph": 1316,
      "Ġopen": 1317,
      "of": 1318,
      "side": 1319,
      "Ġfin": 1320,
      "Ġtot": 1321,
      "Ġsupp": 1322,
      "Ġmother": 1323,
      "AN": 1324,
      "éĤ£": 1325,
      "mhm": 1326,
      "Ġhoe": 1327,
      "å¥½": 1328,
      "Ġbus": 1329,
      "Ġsure": 1330,
      "ations": 1331,
      "ird": 1332,
      "She": 1333,
      "agen": 1334,
      "Ġfour": 1335,
      "ways": 1336,
      "ness": 1337,
      "OR": 1338,
      "Ġkeep": 1339,
      "Ġset": 1340,
      "az": 1341,
      "ple": 1342,
      "Ġkl": 1343,
      "body": 1344,
      "ä¼": 1345,
      "iets": 1346,
      "Ġanything": 1347,
      "),": 1348,
      "Ġwhy": 1349,
      "Ġsit": 1350,
      "Ġfeel": 1351,
      "Ġsaw": 1352,
      "St": 1353,
      "Ġstop": 1354,
      "Ġpol": 1355,
      "ĠAmer": 1356,
      "HER": 1357,
      "Ġont": 1358,
      "ĠGod": 1359,
      "ĠAl": 1360,
      "Ġminut": 1361,
      "Ġco": 1362,
      "Ġunt": 1363,
      "Ġzou": 1364,
      ".]": 1365,
      "ident": 1366,
      "åķĬ": 1367,
      "Ġsw": 1368,
      "Ġbro": 1369,
      "Ġnext": 1370,
      "Ġleft": 1371,
      "ial": 1372,
      "Ġ6": 1373,
      "urt": 1374,
      "Ġnear": 1375,
      "Ġmon": 1376,
      "Ġnum": 1377,
      "Ġrun": 1378,
      "ced": 1379,
      "pr": 1380,
      "Ġbeh": 1381,
      "ker": 1382,
      "Ġcol": 1383,
      "form": 1384,
      "Ġtold": 1385,
      "åİ": 1386,
      "Ġgaat": 1387,
      "ove": 1388,
      ").": 1389,
      "ower": 1390,
      "ĠÂ": 1391,
      "Ġpass": 1392,
      "Ġkom": 1393,
      "Ġfam": 1394,
      "Ġshall": 1395,
      "Ġweet": 1396,
      "Ġjij": 1397,
      "ote": 1398,
      "laughs": 1399,
      "ĠMar": 1400,
      "oof": 1401,
      "Ġret": 1402,
      "Ġmil": 1403,
      "Ġelse": 1404,
      "Is": 1405,
      "this": 1406,
      "Ġtook": 1407,
      "Ġ18": 1408,
      "she": 1409,
      "Ġdoesn": 1410,
      "Ġyeah": 1411,
      "ĠBut": 1412,
      "Ġacc": 1413,
      "æĢ": 1414,
      "Ġweek": 1415,
      "Ġ200": 1416,
      "Ġnice": 1417,
      "Ze": 1418,
      "¦ģ": 1419,
      "Er": 1420,
      "jes": 1421,
      "Ġste": 1422,
      "Ġob": 1423,
      "now": 1424,
      "Ġgra": 1425,
      "aught": 1426,
      "atie": 1427,
      "è¦ģ": 1428,
      "br": 1429,
      "ĠHet": 1430,
      "oed": 1431,
      "If": 1432,
      "Ġcle": 1433,
      "ican": 1434,
      "they": 1435,
      "å¿": 1436,
      "Ġexp": 1437,
      "not": 1438,
      "Ġres": 1439,
      "Ġalways": 1440,
      "Ġlove": 1441,
      "eter": 1442,
      "How": 1443,
      "Ġmind": 1444,
      "oek": 1445,
      "oun": 1446,
      "Ġliv": 1447,
      "Ġroom": 1448,
      "put": 1449,
      "vent": 1450,
      "ullie": 1451,
      "æ²": 1452,
      "Ġthough": 1453,
      "å¤§": 1454,
      "ets": 1455,
      "ret": 1456,
      "stand": 1457,
      "af": 1458,
      "Ġread": 1459,
      "Ġkunnen": 1460,
      "Do": 1461,
      "Ġseen": 1462,
      "rist": 1463,
      "vol": 1464,
      "Ġwalk": 1465,
      "ruik": 1466,
      "Ġsur": 1467,
      "ream": 1468,
      "All": 1469,
      "mand": 1470,
      "Ġuse": 1471,
      "Ġac": 1472,
      "Ġfun": 1473,
      "orning": 1474,
      "ows": 1475,
      "Ġbent": 1476,
      "Ġcons": 1477,
      "Ġveel": 1478,
      "racht": 1479,
      "heid": 1480,
      "Ġside": 1481,
      "Ġyes": 1482,
      "rew": 1483,
      "Ġerm": 1484,
      "Ġons": 1485,
      "ished": 1486,
      "å°ı": 1487,
      "Ġmag": 1488,
      "Ġpoint": 1489,
      "Ġrel": 1490,
      "Ġgone": 1491,
      "ject": 1492,
      "zen": 1493,
      "Ġwind": 1494,
      "Ġfire": 1495,
      "Waar": 1496,
      "Ġdist": 1497,
      "akes": 1498,
      "ĠThis": 1499,
      "Ġlight": 1500,
      "æĥ": 1501,
      "Ġstand": 1502,
      "Ġgoes": 1503,
      "Ġtre": 1504,
      "Ġrest": 1505,
      "amen": 1506,
      "unt": 1507,
      "Ġuntil": 1508,
      "Ġlooks": 1509,
      "MOTHER": 1510,
      "Ġokay": 1511,
      "Ġasked": 1512,
      "éĩ": 1513,
      "Ġgew": 1514,
      "ches": 1515,
      "Ġenough": 1516,
      "Ġeyes": 1517,
      "èĢ": 1518,
      "\".": 1519,
      "Ġent": 1520,
      "ĠEng": 1521,
      "ma": 1522,
      "Ġlang": 1523,
      "Ġem": 1524,
      "Ġsk": 1525,
      "ters": 1526,
      "idd": 1527,
      "app": 1528,
      "åį": 1529,
      "oman": 1530,
      "Ġupon": 1531,
      "gether": 1532,
      "Ġden": 1533,
      "Ġgro": 1534,
      "Why": 1535,
      "Ġdra": 1536,
      "Ġhold": 1537,
      "Ġface": 1538,
      "irect": 1539,
      "Ġfather": 1540,
      "eten": 1541,
      "Ġpie": 1542,
      "orth": 1543,
      "Ġmens": 1544,
      "Ġyoung": 1545,
      "Ġmorning": 1546,
      "ames": 1547,
      "ĠAr": 1548,
      "Ġhear": 1549,
      "Ġsays": 1550,
      "mber": 1551,
      "Ġ7": 1552,
      "ered": 1553,
      "Ġdog": 1554,
      "Ġpu": 1555,
      "Ġmij": 1556,
      "dat": 1557,
      "how": 1558,
      "èµ": 1559,
      "io": 1560,
      "uw": 1561,
      "ures": 1562,
      "ĠGr": 1563,
      "Ġcoming": 1564,
      "urch": 1565,
      "icht": 1566,
      "ork": 1567,
      "mm": 1568,
      "ohn": 1569,
      "ump": 1570,
      "Ġplease": 1571,
      "MA": 1572,
      "Ġhor": 1573,
      "Ġcourse": 1574,
      "Ġball": 1575,
      "ased": 1576,
      "Ġround": 1577,
      "Ġid": 1578,
      "aakt": 1579,
      "Ġbes": 1580,
      "ross": 1581,
      "Ġonce": 1582,
      "Ġlater": 1583,
      "åĩ": 1584,
      "ning": 1585,
      "Ġfew": 1586,
      "ipp": 1587,
      "reen": 1588,
      "ollow": 1589,
      "Ġpret": 1590,
      "Als": 1591,
      "Ġwait": 1592,
      "Come": 1593,
      "Ġma": 1594,
      "Ġeach": 1595,
      "ash": 1596,
      "Ġmoney": 1597,
      "ats": 1598,
      "Ġvers": 1599,
      "Ġvind": 1600,
      "Ġhalf": 1601,
      "ta": 1602,
      "Ġsleep": 1603,
      "sch": 1604,
      "Ġsecond": 1605,
      "20": 1606,
      "Ġsing": 1607,
      "uring": 1608,
      "ane": 1609,
      "å¸": 1610,
      "Ġsmall": 1611,
      "_,": 1612,
      "bab": 1613,
      "ush": 1614,
      "ĠAn": 1615,
      "Maar": 1616,
      "Ġknown": 1617,
      "Ġsoon": 1618,
      "åĬ": 1619,
      "erent": 1620,
      "Ġgev": 1621,
      "Ġnat": 1622,
      "Ġnothing": 1623,
      "å¯": 1624,
      "è®": 1625,
      "bo": 1626,
      "Ġfell": 1627,
      "igen": 1628,
      "Now": 1629,
      "any": 1630,
      "ieve": 1631,
      "ĠJe": 1632,
      "who": 1633,
      "Ġtru": 1634,
      "çİ": 1635,
      "Ġna": 1636,
      "åĪ°": 1637,
      "Ġboth": 1638,
      "ĠÂ·": 1639,
      "Ġhimself": 1640,
      "Ġquite": 1641,
      "Ġmar": 1642,
      "Ġtogether": 1643,
      "Ġvr": 1644,
      "tle": 1645,
      "Ġmoment": 1646,
      "Ġpar": 1647,
      "Ġfive": 1648,
      "Don": 1649,
      "Ġyet": 1650,
      "åĨ": 1651,
      "Ġzal": 1652,
      "go": 1653,
      "å¼": 1654,
      "aptain": 1655,
      "ĠWe": 1656,
      "IG": 1657,
      "Ġ8": 1658,
      "ween": 1659,
      "Ġweer": 1660,
      "Ġworld": 1661,
      "Ġhebt": 1662,
      "ible": 1663,
      "aps": 1664,
      "ĠBe": 1665,
      "Ġkill": 1666,
      "è§": 1667,
      "åĵ": 1668,
      "Ġiets": 1669,
      "ster": 1670,
      "don": 1671,
      "cent": 1672,
      "Ġheard": 1673,
      "Ġbox": 1674,
      "Ġbec": 1675,
      "å·": 1676,
      "ries": 1677,
      "by": 1678,
      "ular": 1679,
      "its": 1680,
      "ired": 1681,
      "ina": 1682,
      "ason": 1683,
      "HE": 1684,
      "Ġsir": 1685,
      "Ġhands": 1686,
      "Ġtegen": 1687,
      "ey": 1688,
      "ä¸Ĭ": 1689,
      "Ġgel": 1690,
      "ĠInd": 1691,
      "cle": 1692,
      "Ġwithout": 1693,
      "Ġremember": 1694,
      "less": 1695,
      "Ġpap": 1696,
      "une": 1697,
      "aut": 1698,
      "Ġlooking": 1699,
      "Ġdear": 1700,
      "why": 1701,
      "Ġcent": 1702,
      "Ġbad": 1703,
      "aster": 1704,
      "Ġdirect": 1705,
      "ĠNew": 1706,
      "Ġdrink": 1707,
      "åİ»": 1708,
      "Ġans": 1709,
      "å¹": 1710,
      "ape": 1711,
      "Ġmiss": 1712,
      "arn": 1713,
      "ĠIs": 1714,
      "Ġreal": 1715,
      "Ġdisc": 1716,
      "oop": 1717,
      "Ġperson": 1718,
      "Ġlar": 1719,
      "Ġart": 1720,
      "å¦Ī": 1721,
      "æĬ": 1722,
      "Ġcat": 1723,
      "Ġjullie": 1724,
      "Ġmoeten": 1725,
      "SIS": 1726,
      "Ġdifferent": 1727,
      "sel": 1728,
      "Ġstory": 1729,
      "ude": 1730,
      "wh": 1731,
      "Ġred": 1732,
      "Een": 1733,
      "Ġint": 1734,
      "Ã«": 1735,
      "Ġâ": 1736,
      "Ġfollow": 1737,
      "Ġged": 1738,
      "GMA": 1739,
      "Let": 1740,
      "cy": 1741,
      "Ġzien": 1742,
      "Ġsound": 1743,
      "EN": 1744,
      "Ġfeet": 1745,
      ".'": 1746,
      "Ġfall": 1747,
      "ift": 1748,
      "Ġeer": 1749,
      "åŃĲ": 1750,
      "kt": 1751,
      "éĥ½": 1752,
      "Ġhaving": 1753,
      "è¿ĺ": 1754,
      "uff": 1755,
      "Ġdep": 1756,
      "Ġbetween": 1757,
      "Ġlist": 1758,
      "cept": 1759,
      "ared": 1760,
      "ently": 1761,
      "Ġoh": 1762,
      "Nee": 1763,
      "Ġstud": 1764,
      "ama": 1765,
      "Ġchar": 1766,
      "itten": 1767,
      "tw": 1768,
      "ertain": 1769,
      "Ġmensen": 1770,
      "Ġlooked": 1771,
      "ics": 1772,
      "Ġleave": 1773,
      "Ġgetting": 1774,
      "most": 1775,
      "Ġbreak": 1776,
      "Ġwatch": 1777,
      "æ²¡": 1778,
      "Ġyear": 1779,
      "Ġind": 1780,
      "ined": 1781,
      "ines": 1782,
      "Ġnie": 1783,
      "çľĭ": 1784,
      "Ġtop": 1785,
      "ept": 1786,
      "Ġdec": 1787,
      "did": 1788,
      "osed": 1789,
      "ational": 1790,
      "Ġleg": 1791,
      "Ġpop": 1792,
      "Ġga": 1793,
      "omm": 1794,
      "vie": 1795,
      "Ġmus": 1796,
      "Ġsy": 1797,
      "iek": 1798,
      "Ġanswer": 1799,
      "æł": 1800,
      "eth": 1801,
      "Ġpict": 1802,
      "Ġterug": 1803,
      "Ġaut": 1804,
      "ä¹Ł": 1805,
      "Ġph": 1806,
      "Ġmaken": 1807,
      "Ġext": 1808,
      "fta": 1809,
      "ĠTom": 1810,
      "Ġgebruik": 1811,
      "Ġweg": 1812,
      "Ġhigh": 1813,
      "Ġfoot": 1814,
      "Ġdays": 1815,
      "Ġstay": 1816,
      "Ġpick": 1817,
      "Ġnumber": 1818,
      "Ġagainst": 1819,
      "ating": 1820,
      "innen": 1821,
      "Ġanim": 1822,
      "\",": 1823,
      "ield": 1824,
      "huh": 1825,
      "eef": 1826,
      "ched": 1827,
      "ĠSp": 1828,
      "ĠLe": 1829,
      "On": 1830,
      "chter": 1831,
      "EST": 1832,
      "ĠJohn": 1833,
      "ĠMummy": 1834,
      "æĪĳä»¬": 1835,
      "Ġtwee": 1836,
      "eng": 1837,
      "ĠSh": 1838,
      "ants": 1839,
      "Ġalleen": 1840,
      "Ġproble": 1841,
      "ĠChrist": 1842,
      "oke": 1843,
      "Ġair": 1844,
      "Ġhaven": 1845,
      "Ġ9": 1846,
      "DAD": 1847,
      "Ġeens": 1848,
      "ton": 1849,
      "Ġsix": 1850,
      "ual": 1851,
      "Ġheart": 1852,
      "ĠThere": 1853,
      "è·": 1854,
      "Ġkrij": 1855,
      "ĠCl": 1856,
      "Ġhafta": 1857,
      "ĠAs": 1858,
      "Ġhour": 1859,
      "ole": 1860,
      "Not": 1861,
      "Ġsil": 1862,
      "Ġten": 1863,
      "Ġtalking": 1864,
      "www": 1865,
      "aint": 1866,
      "Ġvert": 1867,
      "ustr": 1868,
      "Ġwild": 1869,
      "ully": 1870,
      "ither": 1871,
      "Ġtoday": 1872,
      "Ġblack": 1873,
      "Ġass": 1874,
      "æŃ": 1875,
      "cial": 1876,
      "vis": 1877,
      "ann": 1878,
      "Ġmee": 1879,
      "Ġgave": 1880,
      "Ġkomt": 1881,
      "omas": 1882,
      "ball": 1883,
      "Ġadd": 1884,
      "ĠBl": 1885,
      "Ja": 1886,
      "Hoe": 1887,
      "ä¼ļ": 1888,
      "Ġknew": 1889,
      "ips": 1890,
      "ader": 1891,
      "Ġmaking": 1892,
      "Ġrep": 1893,
      "iness": 1894,
      "Ġsorry": 1895,
      "ots": 1896,
      "çĿ": 1897,
      "Ġwhe": 1898,
      "Ġgez": 1899,
      "Ġchildren": 1900,
      "Ġalong": 1901,
      "ĠWhat": 1902,
      "å¾Ĺ": 1903,
      "zz": 1904,
      "åı¯": 1905,
      "Ġfil": 1906,
      "gy": 1907,
      "Ġdro": 1908,
      "dig": 1909,
      "mp": 1910,
      "Ġreturn": 1911,
      "ury": 1912,
      "ä¸º": 1913,
      "éĹ": 1914,
      "Ġzich": 1915,
      "ax": 1916,
      "Ġtijd": 1917,
      "Ġinst": 1918,
      "Ġready": 1919,
      "ected": 1920,
      "Ġcut": 1921,
      "Ġges": 1922,
      "Ġ10": 1923,
      "ready": 1924,
      "Ġmed": 1925,
      "orrow": 1926,
      "Ġcity": 1927,
      ",'": 1928,
      "cess": 1929,
      "Ġform": 1930,
      "ung": 1931,
      "Ġbecame": 1932,
      "Ġref": 1933,
      "olog": 1934,
      "son": 1935,
      "èĥ½": 1936,
      "bs": 1937,
      "ĠThen": 1938,
      "Ġprodu": 1939,
      "ATOR": 1940,
      "Ġlaat": 1941,
      "Thank": 1942,
      "Ġmove": 1943,
      "Ġsign": 1944,
      "My": 1945,
      "ctor": 1946,
      "Ġnoise": 1947,
      "org": 1948,
      "oog": 1949,
      "ESTIG": 1950,
      "Ġwhite": 1951,
      "INVESTIG": 1952,
      "INVESTIGATOR": 1953,
      "Be": 1954,
      "Ġkle": 1955,
      "ĠAf": 1956,
      "Ġkw": 1957,
      "alie": 1958,
      "Ġimp": 1959,
      "aring": 1960,
      "Ġfact": 1961,
      "Ġleven": 1962,
      "Ġum": 1963,
      "Ġwanted": 1964,
      "Ġborn": 1965,
      "urs": 1966,
      "Ġboys": 1967,
      "ä»Ģ": 1968,
      "read": 1969,
      "ern": 1970,
      "ä»Ģä¹Ī": 1971,
      "raag": 1972,
      "amer": 1973,
      "Ġhappened": 1974,
      "ĠNo": 1975,
      "Ġ199": 1976,
      "und": 1977,
      "Ġchair": 1978,
      "ĠUnited": 1979,
      "Ġsort": 1980,
      "Ġsaying": 1981,
      "Ġwonder": 1982,
      "Ġspeak": 1983,
      "Ġquest": 1984,
      "åĴ": 1985,
      "åĲİ": 1986,
      "ef": 1987,
      "Ġzeg": 1988,
      "Ch": 1989,
      "ĠAmerican": 1990,
      "æĹ¶": 1991,
      "Ġbegan": 1992,
      "Ħ¿": 1993,
      "Ġdel": 1994,
      "Ġvl": 1995,
      "ä»¥": 1996,
      "wards": 1997,
      "19": 1998,
      "Dit": 1999,
      "arl": 2000,
      "Ġlive": 2001,
      "Ġresp": 2002,
      "Ġtrain": 2003,
      "voor": 2004,
      "Ġdied": 2005,
      "gens": 2006,
      "off": 2007,
      "Ġcountry": 2008,
      "å¯¹": 2009,
      "enty": 2010,
      "Ġandere": 2011,
      "000": 2012,
      "eb": 2013,
      "Ġwasn": 2014,
      "bably": 2015,
      "ages": 2016,
      "Ġjaar": 2017,
      "Hey": 2018,
      "Ġbelieve": 2019,
      "æĸ": 2020,
      "å¤©": 2021,
      "ric": 2022,
      "ĠSc": 2023,
      "ĠWill": 2024,
      "Ġdri": 2025,
      "enn": 2026,
      "Okay": 2027,
      "ring": 2028,
      "vo": 2029,
      "Ġtown": 2030,
      "Ġwerk": 2031,
      "When": 2032,
      "ouse": 2033,
      "II": 2034,
      "open": 2035,
      "Ġincl": 2036,
      "Ġjou": 2037,
      "ä¸ĭ": 2038,
      "mb": 2039,
      "oes": 2040,
      "Ġthank": 2041,
      "éĿ": 2042,
      "Ġsince": 2043,
      "è¿ĩ": 2044,
      "oup": 2045,
      "Ġgi": 2046,
      "Ġecht": 2047,
      "å®¶": 2048,
      "Ġsun": 2049,
      "Ġsqu": 2050,
      "very": 2051,
      "Ġkomen": 2052,
      "Ġdoll": 2053,
      "anger": 2054,
      "OU": 2055,
      "Ġbring": 2056,
      "Ġposs": 2057,
      "Ġdef": 2058,
      "Ġtable": 2059,
      "Ġchurch": 2060,
      "ised": 2061,
      "ische": 2062,
      "Ġvis": 2063,
      "Ġstra": 2064,
      "ged": 2065,
      "----------------": 2066,
      "Ġalmost": 2067,
      "ĠPh": 2068,
      "aken": 2069,
      "oen": 2070,
      "Ġblij": 2071,
      "ific": 2072,
      "Ġbrought": 2073,
      "éģ": 2074,
      "Kom": 2075,
      "Ġson": 2076,
      "Ġtri": 2077,
      "Ġinv": 2078,
      "Ġmeet": 2079,
      "Ġbuild": 2080,
      "Ġstarted": 2081,
      "Ġlie": 2082,
      "ederland": 2083,
      "Ġeverything": 2084,
      "ction": 2085,
      "Ġfriends": 2086,
      "ium": 2087,
      "Ġsent": 2088,
      "use": 2089,
      "alt": 2090,
      "ooit": 2091,
      "Ġbur": 2092,
      "Ġheel": 2093,
      "Ġmatter": 2094,
      "ery": 2095,
      "ellow": 2096,
      "ese": 2097,
      "Ġfloor": 2098,
      "çĪ": 2099,
      "Ġconf": 2100,
      "room": 2101,
      "ained": 2102,
      "åĳ¢": 2103,
      "Ġcoll": 2104,
      "Ġteam": 2105,
      "Ġbrother": 2106,
      "Ġgener": 2107,
      "aces": 2108,
      "aid": 2109,
      "aur": 2110,
      "Ġhot": 2111,
      "Ġpresent": 2112,
      "ï¿½ï¿½": 2113,
      "Ġhele": 2114,
      "ĠAt": 2115,
      "Ġoffic": 2116,
      "Ġed": 2117,
      "ivers": 2118,
      "Ġwhole": 2119,
      "ison": 2120,
      "Ġbeaut": 2121,
      "ĠRe": 2122,
      "ives": 2123,
      "Ġev": 2124,
      "Ġplan": 2125,
      "Ġwerd": 2126,
      "Ġdead": 2127,
      "tern": 2128,
      "Ġsim": 2129,
      "more": 2130,
      "Mm": 2131,
      "åĦ¿": 2132,
      "ander": 2133,
      "oorden": 2134,
      "ĠMrs": 2135,
      "Ġduring": 2136,
      "ĠNederland": 2137,
      "ying": 2138,
      "eden": 2139,
      "Ġru": 2140,
      "ĠMiss": 2141,
      "Ġie": 2142,
      "Ġsub": 2143,
      "uid": 2144,
      "eds": 2145,
      "ĠAll": 2146,
      "Ã©n": 2147,
      "ming": 2148,
      "éĩĮ": 2149,
      "Then": 2150,
      "Ġactually": 2151,
      "Ġtrying": 2152,
      "Ġverd": 2153,
      "Ġhair": 2154,
      "Ġswe": 2155,
      "ards": 2156,
      "Ġcontin": 2157,
      "Ġtimes": 2158,
      "Ġmer": 2159,
      "Ġsat": 2160,
      "Ġ15": 2161,
      "Ġkon": 2162,
      "Ġcertain": 2163,
      "ara": 2164,
      "è°": 2165,
      "ones": 2166,
      "äºĭ": 2167,
      "Ġfood": 2168,
      "Where": 2169,
      "Ġpretty": 2170,
      "Ġfamily": 2171,
      "ĠSch": 2172,
      "onden": 2173,
      "Ġtoch": 2174,
      "ĠFrank": 2175,
      "èĩ": 2176,
      "see": 2177,
      "è¿Ļä¸ª": 2178,
      "Ġgek": 2179,
      "Ġalready": 2180,
      "Ġinterest": 2181,
      "åº": 2182,
      "Ġwoman": 2183,
      "Ġcur": 2184,
      "ize": 2185,
      "ĠHow": 2186,
      "Ġgame": 2187,
      "Ġbar": 2188,
      "ider": 2189,
      "anc": 2190,
      "ains": 2191,
      "Ġwrong": 2192,
      "fect": 2193,
      "è¡": 2194,
      "ement": 2195,
      "iding": 2196,
      "Ġlik": 2197,
      "Ġexc": 2198,
      "bed": 2199,
      "Ġaw": 2200,
      "ouch": 2201,
      "Mr": 2202,
      "oth": 2203,
      "Ġzelf": 2204,
      "Ġstaat": 2205,
      "Ġgem": 2206,
      "Ġ17": 2207,
      "Ġbear": 2208,
      "ron": 2209,
      "Ġmusic": 2210,
      "çĿĢ": 2211,
      "Ġclose": 2212,
      "Ġelk": 2213,
      "oel": 2214,
      "ities": 2215,
      "Ġcomes": 2216,
      "Ġunderstand": 2217,
      "inner": 2218,
      "Ġalt": 2219,
      "got": 2220,
      "ĠQ": 2221,
      "Ġseemed": 2222,
      "æĥ³": 2223,
      "illy": 2224,
      "Ġhum": 2225,
      "Ġgirls": 2226,
      "Ġwouldn": 2227,
      "Ġnet": 2228,
      "Ġdou": 2229,
      "ĠPr": 2230,
      "Ġlost": 2231,
      "Ġserv": 2232,
      "ides": 2233,
      "Ġturned": 2234,
      "Ġsong": 2235,
      "Ġtea": 2236,
      "itting": 2237,
      "Ġoften": 2238,
      "Ġfuck": 2239,
      "Ġnooit": 2240,
      "ja": 2241,
      "ĠZe": 2242,
      "Ġexpl": 2243,
      "ĠThomas": 2244,
      "zelf": 2245,
      "Ġfore": 2246,
      "Ġeight": 2247,
      "ilt": 2248,
      "ĠStates": 2249,
      "Ġpicture": 2250,
      "lo": 2251,
      "Ġsever": 2252,
      "Ġeas": 2253,
      "Ġpoor": 2254,
      "Ġminute": 2255,
      "rijk": 2256,
      "Ġbehind": 2257,
      "Ġwood": 2258,
      "Ġjob": 2259,
      "Ġshort": 2260,
      "ids": 2261,
      "iful": 2262,
      "ient": 2263,
      "Ģ¢": 2264,
      "Ġcolor": 2265,
      "Ġgreen": 2266,
      "ĠOn": 2267,
      "Ġparty": 2268,
      "Ġprobably": 2269,
      "Ġpiece": 2270,
      "iam": 2271,
      "ox": 2272,
      "Ġcup": 2273,
      "Ġfull": 2274,
      "Ġtaken": 2275,
      "Ġpat": 2276,
      "aim": 2277,
      "haps": 2278,
      "Ġbird": 2279,
      "ized": 2280,
      "Mummy": 2281,
      "Ġve": 2282,
      "ped": 2283,
      "Ġ198": 2284,
      "ital": 2285,
      "gel": 2286,
      "ises": 2287,
      "ĠX": 2288,
      "ott": 2289,
      "Ġmeans": 2290,
      "Ġcompl": 2291,
      "Ġorder": 2292,
      "amed": 2293,
      "bij": 2294,
      "Ġquick": 2295,
      "Ġmonth": 2296,
      "Ġeff": 2297,
      "å½": 2298,
      "Ġinform": 2299,
      "Ġhund": 2300,
      "æ°": 2301,
      "éĢ": 2302,
      "Ġhundred": 2303,
      "eeft": 2304,
      "Ġdark": 2305,
      "airs": 2306,
      "Ġtoe": 2307,
      "Ġju": 2308,
      "ussen": 2309,
      "Ġdeath": 2310,
      "van": 2311,
      "Ġzw": 2312,
      "Ġblue": 2313,
      "ĠGe": 2314,
      "ha": 2315,
      "mon": 2316,
      "ator": 2317,
      "Ġmouth": 2318,
      "aren": 2319,
      "Ġpay": 2320,
      "ober": 2321,
      "Ġgiven": 2322,
      "ks": 2323,
      "çĽ": 2324,
      "Ġes": 2325,
      "Who": 2326,
      "Ġprom": 2327,
      "Ġnodig": 2328,
      "Ġidea": 2329,
      "Al": 2330,
      "Ġpast": 2331,
      "ĠWhen": 2332,
      "ĠSo": 2333,
      "Look": 2334,
      "just": 2335,
      "æĦ": 2336,
      "Ġeng": 2337,
      "Ġtek": 2338,
      "Ġhope": 2339,
      "ĠDaddy": 2340,
      "Ġ12": 2341,
      "ä¸Ģä¸ª": 2342,
      "cher": 2343,
      "ĠEr": 2344,
      "Ġrecord": 2345,
      "Ġpolit": 2346,
      "thank": 2347,
      "uis": 2348,
      "ured": 2349,
      "Ġinc": 2350,
      "ention": 2351,
      "åĲĹ": 2352,
      "Ġalles": 2353,
      "ex": 2354,
      "ner": 2355,
      "veel": 2356,
      "ĠBrit": 2357,
      "fully": 2358,
      "Ġpos": 2359,
      "||": 2360,
      "idge": 2361,
      "Ġcir": 2362,
      "ieren": 2363,
      "åĲ§": 2364,
      "alen": 2365,
      "Ġrepl": 2366,
      "ellen": 2367,
      "ode": 2368,
      "beeld": 2369,
      "Ġstick": 2370,
      "for": 2371,
      "because": 2372,
      "ADU": 2373,
      "As": 2374,
      "Good": 2375,
      "aag": 2376,
      "Are": 2377,
      "åĩº": 2378,
      "Just": 2379,
      "Ġless": 2380,
      "æĭ": 2381,
      "ided": 2382,
      "fl": 2383,
      "good": 2384,
      "Ġjong": 2385,
      "æķ": 2386,
      "Ġ197": 2387,
      "ative": 2388,
      "iter": 2389,
      "ES": 2390,
      "Ġmark": 2391,
      "NAN": 2392,
      "Ġcamp": 2393,
      "Ġkunt": 2394,
      "Ġyourself": 2395,
      "ĠEl": 2396,
      "Ġvoice": 2397,
      "pro": 2398,
      "vers": 2399,
      "Ġmakes": 2400,
      "Ġkijk": 2401,
      "aybe": 2402,
      "ç»Ļ": 2403,
      "çŁ": 2404,
      "Ġonze": 2405,
      "ĠHis": 2406,
      "å¤ļ": 2407,
      "Ġrock": 2408,
      "Ġplaying": 2409,
      "Ġpubl": 2410,
      "Ġfight": 2411,
      "oort": 2412,
      "lish": 2413,
      "Ġlarge": 2414,
      "ĠIk": 2415,
      "Ġocc": 2416,
      "ĠLord": 2417,
      "æ¯": 2418,
      "Ġhappy": 2419,
      "used": 2420,
      "head": 2421,
      "çĦ": 2422,
      "Ġdraw": 2423,
      "GR": 2424,
      "éģĵ": 2425,
      "Ġ202": 2426,
      "Ġpri": 2427,
      "åľ°": 2428,
      "ON": 2429,
      "Ġsamen": 2430,
      "Ġable": 2431,
      "gelijk": 2432,
      "ments": 2433,
      "Ġpull": 2434,
      "orgen": 2435,
      "Ġship": 2436,
      "Ġbusiness": 2437,
      "èĢģ": 2438,
      "val": 2439,
      "ues": 2440,
      "Ġbody": 2441,
      "Ġwife": 2442,
      "DS": 2443,
      "vern": 2444,
      "Ġtekst": 2445,
      "bt": 2446,
      "å¿ĥ": 2447,
      "ijf": 2448,
      "Ġhorse": 2449,
      "erk": 2450,
      "Ġbas": 2451,
      "ĠBen": 2452,
      "ica": 2453,
      "ĠGer": 2454,
      "Ġzei": 2455,
      "Ġplayed": 2456,
      "ommy": 2457,
      "chien": 2458,
      "Ġaltijd": 2459,
      "lor": 2460,
      "Ġaren": 2461,
      "çĦ¶": 2462,
      "Ġcold": 2463,
      "Ġwords": 2464,
      "Ġtree": 2465,
      "ĠBob": 2466,
      "Ġpaper": 2467,
      "Ġdag": 2468,
      "SIB": 2469,
      "selves": 2470,
      "Ġfront": 2471,
      "ĠEen": 2472,
      "Ġzit": 2473,
      "ĠEn": 2474,
      "Ġversch": 2475,
      "ached": 2476,
      "Ġwin": 2477,
      "Ġsea": 2478,
      "ald": 2479,
      "Ġcover": 2480,
      "ĠWat": 2481,
      "dracht": 2482,
      "iÃ«": 2483,
      "Ġgebe": 2484,
      "ĠÃ©": 2485,
      "Ġzegt": 2486,
      "çİ°": 2487,
      "oms": 2488,
      "Ġcry": 2489,
      "ec": 2490,
      "Ġeigen": 2491,
      "Ġfelt": 2492,
      "aam": 2493,
      "like": 2494,
      "ç§": 2495,
      "Ġhurt": 2496,
      "Ġking": 2497,
      "ship": 2498,
      "Ġfair": 2499,
      "Ġlaw": 2500,
      "Right": 2501,
      "Ġimport": 2502,
      "Ġcook": 2503,
      "Ġvast": 2504,
      "Ġrather": 2505,
      "ĠAd": 2506,
      "olly": 2507,
      "ening": 2508,
      "arr": 2509,
      "oos": 2510,
      "ĠTHE": 2511,
      "unch": 2512,
      "Ġgun": 2513,
      "ney": 2514,
      "Ġrece": 2515,
      "Ġline": 2516,
      "ĠThat": 2517,
      "Did": 2518,
      "Ġmyself": 2519,
      "isch": 2520,
      "Ġcouldn": 2521,
      "å°±æĺ¯": 2522,
      "rom": 2523,
      "Sh": 2524,
      "Ġachter": 2525,
      "Ġground": 2526,
      "Ġtrans": 2527,
      "Ġstuff": 2528,
      "Waarom": 2529,
      "aats": 2530,
      "11": 2531,
      "Ġbag": 2532,
      "Ġones": 2533,
      "Ġoutside": 2534,
      "ately": 2535,
      "ges": 2536,
      "ĠCHI": 2537,
      "Ġquestion": 2538,
      "ĠPro": 2539,
      "Ġtrou": 2540,
      "irth": 2541,
      "fess": 2542,
      "Ġcra": 2543,
      "Ġfine": 2544,
      "Ġlad": 2545,
      "ĠOr": 2546,
      "Ġprov": 2547,
      "Ġbeautiful": 2548,
      "RO": 2549,
      "Ġlady": 2550,
      "Ġgotta": 2551,
      "Go": 2552,
      "çī": 2553,
      "ended": 2554,
      "ĠFor": 2555,
      "èĩª": 2556,
      "ĠJan": 2557,
      "æĶ": 2558,
      "Ġstar": 2559,
      "fort": 2560,
      "Ġ16": 2561,
      "Ġseveral": 2562,
      "Ġwants": 2563,
      "ience": 2564,
      "Ġvolg": 2565,
      "Ġpower": 2566,
      "Ġlu": 2567,
      "çĶŁ": 2568,
      "inging": 2569,
      "uren": 2570,
      "Ġalone": 2571,
      "Ġmovie": 2572,
      "ear": 2573,
      "Ġvragen": 2574,
      "Ġbat": 2575,
      "mo": 2576,
      "ists": 2577,
      "ai": 2578,
      "Ġinde": 2579,
      "reet": 2580,
      "lease": 2581,
      "Ġlearn": 2582,
      "ressed": 2583,
      "Ġtele": 2584,
      "Ġlay": 2585,
      "cri": 2586,
      "ĠHij": 2587,
      "Ġleast": 2588,
      "Ġpur": 2589,
      "iden": 2590,
      "Ġage": 2591,
      "Ġdus": 2592,
      "ING": 2593,
      "Ġgrand": 2594,
      "ts": 2595,
      "Ġreason": 2596,
      "Ġty": 2597,
      "inea": 2598,
      "Ġmine": 2599,
      "Ġearly": 2600,
      "Ġalle": 2601,
      "Ġtaking": 2602,
      "æŀ": 2603,
      "Ġcase": 2604,
      "ians": 2605,
      "._": 2606,
      "geven": 2607,
      "Ġ196": 2608,
      "aced": 2609,
      "Ġcor": 2610,
      "Ġcreat": 2611,
      "ĠÃ©Ã©n": 2612,
      "ijden": 2613,
      "Can": 2614,
      "Ġyellow": 2615,
      "Ġroad": 2616,
      "Ġstrong": 2617,
      "oofd": 2618,
      "ued": 2619,
      "Ġchang": 2620,
      "Ġminutes": 2621,
      "Ġadm": 2622,
      "Ġloc": 2623,
      "çĤ": 2624,
      "uth": 2625,
      "iel": 2626,
      "Ġhat": 2627,
      "eared": 2628,
      "Ġzeggen": 2629,
      "artment": 2630,
      "ĠCan": 2631,
      "ullen": 2632,
      "Ġboat": 2633,
      "born": 2634,
      "åģ": 2635,
      "10": 2636,
      "åĢ": 2637,
      "Ġmot": 2638,
      "Ġmount": 2639,
      "Ġfav": 2640,
      "Ġinside": 2641,
      "ĠHer": 2642,
      "Ġgovern": 2643,
      "è¾": 2644,
      "Ġheld": 2645,
      "Ġgeh": 2646,
      "Ġvill": 2647,
      "ived": 2648,
      "Ġlate": 2649,
      "ĠTo": 2650,
      "aughter": 2651,
      "Ġfree": 2652,
      "ĠAls": 2653,
      "Ġ14": 2654,
      "ract": 2655,
      "Ġsche": 2656,
      "ijs": 2657,
      "allen": 2658,
      "rijf": 2659,
      "Ġothers": 2660,
      "Ġtill": 2661,
      "Ġstate": 2662,
      "Ġblood": 2663,
      "æİ": 2664,
      "ĠIf": 2665,
      "åŃ©": 2666,
      "Ġmaybe": 2667,
      "Ġvriend": 2668,
      "stof": 2669,
      "?'": 2670,
      "Ġarm": 2671,
      "Ġago": 2672,
      "Ġshop": 2673,
      "Ġanimals": 2674,
      "ĠPhil": 2675,
      "Ġhon": 2676,
      "erv": 2677,
      "Ġcried": 2678,
      "Ġobject": 2679,
      "è·Ł": 2680,
      "owed": 2681,
      "aking": 2682,
      "oem": 2683,
      "irty": 2684,
      "ĠEur": 2685,
      "æł·": 2686,
      "æ¬": 2687,
      "rest": 2688,
      "Ġfig": 2689,
      "Ġlaten": 2690,
      "Ġprot": 2691,
      "Ġanswered": 2692,
      "âĮ": 2693,
      "Ġwall": 2694,
      "pped": 2695,
      "ummer": 2696,
      "Ġwaren": 2697,
      "inc": 2698,
      "hey": 2699,
      "ĠEnglish": 2700,
      "Get": 2701,
      "ench": 2702,
      "ection": 2703,
      "Ġice": 2704,
      "Ġelkaar": 2705,
      "omers": 2706,
      "Ġlead": 2707,
      "Ġtrue": 2708,
      "ĠDor": 2709,
      "Ġniets": 2710,
      "Ġgrote": 2711,
      "ony": 2712,
      "owing": 2713,
      "Ġuh": 2714,
      "Ġhuh": 2715,
      "vely": 2716,
      "isc": 2717,
      "åī": 2718,
      "Ġmess": 2719,
      "iously": 2720,
      "stem": 2721,
      "Ġeerste": 2722,
      "çŁ¥": 2723,
      "ills": 2724,
      "arb": 2725,
      "Ġkeer": 2726,
      "At": 2727,
      "orge": 2728,
      "Ġamong": 2729,
      "Ġhuis": 2730,
      "Ġeither": 2731,
      "Ġbirth": 2732,
      "Ġsometimes": 2733,
      "Ġdenk": 2734,
      "ĠPeter": 2735,
      "icks": 2736,
      "Ġpen": 2737,
      "ĠâĢ¢": 2738,
      "Ġsweet": 2739,
      "aard": 2740,
      "Ġiemand": 2741,
      "eem": 2742,
      "å§": 2743,
      "Ġnorth": 2744,
      "ices": 2745,
      "kken": 2746,
      "oren": 2747,
      "Ġguess": 2748,
      "Ġpage": 2749,
      "ĠJack": 2750,
      "Ġsuper": 2751,
      "uc": 2752,
      "gry": 2753,
      "Ġdood": 2754,
      "Ġsaf": 2755,
      "Ġkinderen": 2756,
      "Ġcond": 2757,
      "Ġchange": 2758,
      "ĠAb": 2759,
      "SO": 2760,
      "shall": 2761,
      "Ġlaug": 2762,
      "etje": 2763,
      "uwe": 2764,
      "ä¸Ń": 2765,
      "ering": 2766,
      "Ġpost": 2767,
      "ĠCon": 2768,
      "Ġbelang": 2769,
      "Ġtoen": 2770,
      "emaal": 2771,
      "Ġzoals": 2772,
      "oeg": 2773,
      "ĠYork": 2774,
      "Ġbecome": 2775,
      "Af": 2776,
      "Ġacross": 2777,
      "CDS": 2778,
      "ution": 2779,
      "avy": 2780,
      "ĠPl": 2781,
      "Ġi": 2782,
      "ense": 2783,
      "Ġdinner": 2784,
      "ley": 2785,
      "Ġap": 2786,
      "Ġsister": 2787,
      "Ġtoys": 2788,
      "å¥¹": 2789,
      "Ah": 2790,
      "iting": 2791,
      "Ġgets": 2792,
      "elijke": 2793,
      "To": 2794,
      "An": 2795,
      "ubl": 2796,
      "gan": 2797,
      "arling": 2798,
      "Ġfish": 2799,
      "though": 2800,
      "Ġconst": 2801,
      "ales": 2802,
      "rop": 2803,
      "Ġmain": 2804,
      "Jij": 2805,
      "Ġdoe": 2806,
      "Ġcompany": 2807,
      "atch": 2808,
      "amb": 2809,
      "Ġstood": 2810,
      "ĠJu": 2811,
      "ĠOh": 2812,
      "Ġtest": 2813,
      "Ġdoet": 2814,
      "cil": 2815,
      "Ġstru": 2816,
      "Ġclear": 2817,
      "dden": 2818,
      "Ġbinnen": 2819,
      "Ġmoo": 2820,
      "Ġfast": 2821,
      "Ġra": 2822,
      "For": 2823,
      "Ġerg": 2824,
      "ĠJoe": 2825,
      "ĠKing": 2826,
      "gest": 2827,
      "Ġvraag": 2828,
      "orld": 2829,
      "othy": 2830,
      "ances": 2831,
      "Ġcorn": 2832,
      "key": 2833,
      "åĴĮ": 2834,
      "æĢİ": 2835,
      "Ġimportant": 2836,
      "kom": 2837,
      "åĽŀ": 2838,
      "iving": 2839,
      "Ġegg": 2840,
      "Ġjo": 2841,
      "aul": 2842,
      "ĠEd": 2843,
      "Ġglad": 2844,
      "12": 2845,
      "ĠRos": 2846,
      "å¾Ī": 2847,
      "Ġcap": 2848,
      "Ġgroup": 2849,
      "Ġspec": 2850,
      "morrow": 2851,
      "Ġcal": 2852,
      "Ġvolgende": 2853,
      "ĠCar": 2854,
      "ĠDr": 2855,
      "çĻ": 2856,
      "Ġmill": 2857,
      "ouwen": 2858,
      "Ġgroot": 2859,
      "Ġsold": 2860,
      "Ġboard": 2861,
      "sc": 2862,
      "Ġdoctor": 2863,
      "Ġverk": 2864,
      "have": 2865,
      "ĠCaptain": 2866,
      "Ġsucc": 2867,
      "Ġseven": 2868,
      "Ġgewoon": 2869,
      "sl": 2870,
      "Ġsudden": 2871,
      "Ġinclud": 2872,
      "æĢİä¹Ī": 2873,
      "åĮ": 2874,
      "Ġweten": 2875,
      "bit": 2876,
      "igin": 2877,
      "arch": 2878,
      "ĠMay": 2879,
      "ĠCom": 2880,
      "ĠDat": 2881,
      "does": 2882,
      "çĤ¹": 2883,
      "bye": 2884,
      "Ġwish": 2885,
      "Ġ*": 2886,
      "Ġjump": 2887,
      "ugust": 2888,
      "uary": 2889,
      "Ġfur": 2890,
      "iger": 2891,
      "eek": 2892,
      "Ġclot": 2893,
      "æĬĬ": 2894,
      "ius": 2895,
      "iten": 2896,
      "asure": 2897,
      "Ġdeal": 2898,
      "Ġfro": 2899,
      "ana": 2900,
      "Ġhur": 2901,
      "Ġtwenty": 2902,
      "Ġcaptain": 2903,
      "Ġexper": 2904,
      "raid": 2905,
      "Your": 2906,
      "Ġclim": 2907,
      "ocal": 2908,
      "Daar": 2909,
      "Ġmis": 2910,
      "Ġtussen": 2911,
      "Ġtem": 2912,
      "Ġsail": 2913,
      "Ġsomeone": 2914,
      "TER": 2915,
      "Ġhist": 2916,
      "Ġca": 2917,
      "Ġguy": 2918,
      "å¦Īå¦Ī": 2919,
      "ford": 2920,
      "friend": 2921,
      "ä¿": 2922,
      "ĠWh": 2923,
      "Ġhell": 2924,
      "Ġwithin": 2925,
      "rap": 2926,
      "Ġfing": 2927,
      "Ġkept": 2928,
      "Ġ13": 2929,
      "ä¸įæĺ¯": 2930,
      "ically": 2931,
      "Ġhowever": 2932,
      "Ġbuy": 2933,
      "Ġtakes": 2934,
      "Ġfunny": 2935,
      "ural": 2936,
      "Ġdrie": 2937,
      "ĠFrance": 2938,
      "ham": 2939,
      "èµ·": 2940,
      "aged": 2941,
      "STE": 2942,
      "Ġmidd": 2943,
      "Ġeind": 2944,
      "Ġcarry": 2945,
      "ĠMan": 2946,
      "Ġverl": 2947,
      "Ġclean": 2948,
      "Ġvinden": 2949,
      "LL": 2950,
      "Ġvar": 2951,
      "oops": 2952,
      "æ²¡æľī": 2953,
      "Ga": 2954,
      "Here": 2955,
      "rict": 2956,
      "éĻ": 2957,
      "ĠMa": 2958,
      "ĠCount": 2959,
      "Ġfinished": 2960,
      "Die": 2961,
      "Ġins": 2962,
      "å¼Ģ": 2963,
      "Of": 2964,
      "alth": 2965,
      "Ġadv": 2966,
      "Ġfly": 2967,
      "water": 2968,
      "Ġconc": 2969,
      "ĠTr": 2970,
      "Ġ11": 2971,
      "Ġ2020": 2972,
      "Ġworking": 2973,
      "Miss": 2974,
      "]?": 2975,
      "band": 2976,
      "ending": 2977,
      "makes": 2978,
      "ĠFrench": 2979,
      "Ġzie": 2980,
      "door": 2981,
      "ĠJap": 2982,
      "arm": 2983,
      "Ġreact": 2984,
      "ging": 2985,
      "aart": 2986,
      "AP": 2987,
      "entle": 2988,
      "Ġbell": 2989,
      "stead": 2990,
      "Ġafraid": 2991,
      "Ġdoubt": 2992,
      "Ġhang": 2993,
      "Ġmilk": 2994,
      "com": 2995,
      "åĸ": 2996,
      "Ġsitting": 2997,
      "Ġ194": 2998,
      "Ġletter": 2999,
      "Ġreplied": 3000,
      "Ġtried": 3001,
      "ument": 3002,
      "Ġwillen": 3003,
      "Ġsteeds": 3004,
      "Ġroll": 3005,
      "Ġarea": 3006,
      "Ġ195": 3007,
      "inning": 3008,
      "Ġfa": 3009,
      "ĠSouth": 3010,
      "Ġcontro": 3011,
      "éĿ¢": 3012,
      "pos": 3013,
      "Ġfif": 3014,
      "Ġwij": 3015,
      "ousand": 3016,
      "Ġclass": 3017,
      "Re": 3018,
      "arden": 3019,
      "ism": 3020,
      "osp": 3021,
      "EX": 3022,
      "aff": 3023,
      "ED": 3024,
      "Ġied": 3025,
      "Ġbev": 3026,
      "Ġzitten": 3027,
      "Ġpot": 3028,
      "nie": 3029,
      "Ġstep": 3030,
      "Ġwereld": 3031,
      "Ġpassed": 3032,
      "Ġbelangrijk": 3033,
      "baar": 3034,
      "con": 3035,
      "ounds": 3036,
      "IT": 3037,
      "iod": 3038,
      "uld": 3039,
      "Ġbooks": 3040,
      "gram": 3041,
      "elling": 3042,
      "Ġcross": 3043,
      "oeken": 3044,
      "ĠYes": 3045,
      "ager": 3046,
      "Ġusually": 3047,
      "Ġpartic": 3048,
      "aven": 3049,
      "Ġdarling": 3050,
      "Ġgeld": 3051,
      "Ġnose": 3052,
      "Ġnaam": 3053,
      "Ġhours": 3054,
      "Ġsoft": 3055,
      "Goed": 3056,
      "ories": 3057,
      "lex": 3058,
      "ĠHelen": 3059,
      "ĠOp": 3060,
      "Ġthinking": 3061,
      "Ġquiet": 3062,
      "ĠWorld": 3063,
      "velop": 3064,
      "Ġtruck": 3065,
      "Ġrele": 3066,
      "ĠSte": 3067,
      "eph": 3068,
      "Ġber": 3069,
      "ĠNorth": 3070,
      "Ġtrouble": 3071,
      "çľŁ": 3072,
      "Ġstaan": 3073,
      "ĠMaar": 3074,
      "Ġliving": 3075,
      "çŁ¥éģĵ": 3076,
      "ardon": 3077,
      "Ġwomen": 3078,
      "Ġdiscover": 3079,
      "two": 3080,
      "éķ": 3081,
      "ĠBlack": 3082,
      "Ġbank": 3083,
      "One": 3084,
      "éĺ": 3085,
      "Ġsystem": 3086,
      "mas": 3087,
      "Ġallemaal": 3088,
      "åıª": 3089,
      "Ġearth": 3090,
      "Ġexcl": 3091,
      "then": 3092,
      "Ġton": 3093,
      "Ġdru": 3094,
      "Ġspr": 3095,
      "ĠGerman": 3096,
      "Ġband": 3097,
      "Ġabove": 3098,
      "Ġdiv": 3099,
      "mie": 3100,
      "å±": 3101,
      "Ġvader": 3102,
      "Ġuw": 3103,
      "ĠBritish": 3104,
      "ram": 3105,
      "Ġtouch": 3106,
      "Ġfield": 3107,
      "Ġfootball": 3108,
      "isten": 3109,
      "Ġ30": 3110,
      "è¯Ŀ": 3111,
      "Ġlig": 3112,
      "ility": 3113,
      "night": 3114,
      "LO": 3115,
      "Ġhoofd": 3116,
      "Ġbang": 3117,
      "Ġnamed": 3118,
      "Ġbez": 3119,
      "Ġlived": 3120,
      "erde": 3121,
      "Ġvide": 3122,
      "Wel": 3123,
      "Ġtired": 3124,
      "Ġgod": 3125,
      "bles": 3126,
      "att": 3127,
      "ello": 3128,
      "ijkt": 3129,
      "when": 3130,
      "Heb": 3131,
      "åĪ«": 3132,
      "ene": 3133,
      "ĠBy": 3134,
      "Ġcommun": 3135,
      "Ġnieuwe": 3136,
      "ĠJapan": 3137,
      "Wh": 3138,
      "maal": 3139,
      "Ġmist": 3140,
      "Ġran": 3141,
      "Ġbeter": 3142,
      "Ġsnow": 3143,
      "het": 3144,
      "Ġthou": 3145,
      "Ġhors": 3146,
      "ereen": 3147,
      "Ġthemselves": 3148,
      "ays": 3149,
      "Ġopdracht": 3150,
      "geb": 3151,
      "Ġwarm": 3152,
      "Sorry": 3153,
      "lin": 3154,
      "iversity": 3155,
      "Ġfix": 3156,
      "ĠJanuary": 3157,
      "Ġproper": 3158,
      "kÃ©": 3159,
      "ĠWel": 3160,
      "Ġomdat": 3161,
      "Ġgold": 3162,
      "net": 3163,
      "Ġherself": 3164,
      "Ġchance": 3165,
      "Ġkilled": 3166,
      "die": 3167,
      "Ġdanger": 3168,
      "ijt": 3169,
      "acter": 3170,
      "Ġsnel": 3171,
      "aas": 3172,
      "Ġthousand": 3173,
      "Ġled": 3174,
      "Ġfilm": 3175,
      "ĠJuly": 3176,
      "Ġbra": 3177,
      "ĠII": 3178,
      "Ġcommon": 3179,
      "Ġgedaan": 3180,
      "è´": 3181,
      "reed": 3182,
      "que": 3183,
      "Ex": 3184,
      "Ġtrees": 3185,
      "Ġill": 3186,
      "Bl": 3187,
      "king": 3188,
      "yy": 3189,
      "Ġplaats": 3190,
      "è®©": 3191,
      "ength": 3192,
      "Ġjouw": 3193,
      "ĠAfter": 3194,
      "Ġrunning": 3195,
      "Ġwhether": 3196,
      "Ġmonths": 3197,
      "ĠSw": 3198,
      "ĠCol": 3199,
      "Ġquar": 3200,
      "Ġgoede": 3201,
      "åĳĢ": 3202,
      "eed": 3203,
      ".,": 3204,
      "log": 3205,
      "ining": 3206,
      "Ġoud": 3207,
      "Ġcos": 3208,
      "hern": 3209,
      "ĠWith": 3210,
      "Ġsurpr": 3211,
      "hold": 3212,
      "anne": 3213,
      "ĠDo": 3214,
      "Ġcomplet": 3215,
      "Ġir": 3216,
      "ality": 3217,
      "Ġalright": 3218,
      "Ġ25": 3219,
      "Ġwindow": 3220,
      "çŃ": 3221,
      "Ġhit": 3222,
      "oten": 3223,
      "Ġeffect": 3224,
      "Ġfit": 3225,
      "Mijn": 3226,
      "Ġav": 3227,
      "Ġdaughter": 3228,
      "Ġrain": 3229,
      "Ġnearly": 3230,
      "jor": 3231,
      "Ġwet": 3232,
      "Ġsight": 3233,
      "erence": 3234,
      "Ġmarried": 3235,
      "Laat": 3236,
      "SOA": 3237,
      "Ġbirthday": 3238,
      "mat": 3239,
      "çĭ": 3240,
      "par": 3241,
      "Ġsuff": 3242,
      "chen": 3243,
      "Ġfamil": 3244,
      "hor": 3245,
      "Ġval": 3246,
      "Ġdeep": 3247,
      "teen": 3248,
      "ĠAugust": 3249,
      "Ġkrijgen": 3250,
      "Ġdream": 3251,
      "ler": 3252,
      "Ġsol": 3253,
      "å¹´": 3254,
      "Ġgemaakt": 3255,
      "uhhuh": 3256,
      "Ġphone": 3257,
      "Ġnou": 3258,
      "Ġreport": 3259,
      "Ġlangu": 3260,
      "Ġspecial": 3261,
      "owers": 3262,
      "Ġgeven": 3263,
      "Ġcannot": 3264,
      "ping": 3265,
      "Ġdiffic": 3266,
      "singing": 3267,
      "Ġverh": 3268,
      "Ġorgan": 3269,
      "Ġclos": 3270,
      "aimed": 3271,
      "Ġke": 3272,
      "Ġantw": 3273,
      "wel": 3274,
      "Ġanders": 3275,
      "ior": 3276,
      "Ġoor": 3277,
      "ĠWest": 3278,
      "Ġorigin": 3279,
      "irt": 3280,
      "ĠPar": 3281,
      "'.": 3282,
      "Ġkiss": 3283,
      "ondon": 3284,
      "Ġpossible": 3285,
      "EXP": 3286,
      "15": 3287,
      "bur": 3288,
      "eling": 3289,
      "Ġlovely": 3290,
      "ĠEngland": 3291,
      "30": 3292,
      "ĠMet": 3293,
      "Please": 3294,
      "Ġport": 3295,
      "ulation": 3296,
      "point": 3297,
      "Ġreached": 3298,
      "ĠJune": 3299,
      "æĥħ": 3300,
      "ĠMOT": 3301,
      "Ġmaakt": 3302,
      "Ġcou": 3303,
      "Ġstars": 3304,
      "Ġbright": 3305,
      "ral": 3306,
      "Ġpun": 3307,
      "Ġwee": 3308,
      "Ġequ": 3309,
      "Ġproblem": 3310,
      "ored": 3311,
      "ĠMarch": 3312,
      "rit": 3313,
      "æľĢ": 3314,
      "ä¹ĭ": 3315,
      "Ġsuppose": 3316,
      "Ġvillage": 3317,
      "Zo": 3318,
      "Ġguys": 3319,
      "æĮ": 3320,
      "Ġtowards": 3321,
      "Ġdad": 3322,
      "Ġforget": 3323,
      "ĠHar": 3324,
      "ov": 3325,
      "ional": 3326,
      "Ġfucking": 3327,
      "woord": 3328,
      "Ġbott": 3329,
      "Ġontst": 3330,
      "Ġclothes": 3331,
      "gas": 3332,
      "Ġhop": 3333,
      "Ġgest": 3334,
      "Ġtoward": 3335,
      "Ġposition": 3336,
      "zer": 3337,
      "æĤ": 3338,
      "Ġformer": 3339,
      "eech": 3340,
      "ĠGu": 3341,
      "ggest": 3342,
      "Ġsomebody": 3343,
      "ĠIndian": 3344,
      "Ġris": 3345,
      "iew": 3346,
      "Ġoper": 3347,
      "Ġarri": 3348,
      "Ġattack": 3349,
      "Ġlow": 3350,
      "Ġmoeder": 3351,
      "resent": 3352,
      "Ġdest": 3353,
      "acher": 3354,
      "ĠDaar": 3355,
      "rijven": 3356,
      "Ġperhaps": 3357,
      "è½": 3358,
      "Ġthee": 3359,
      "ĠDorothy": 3360,
      "fast": 3361,
      "ĠOct": 3362,
      "pril": 3363,
      "Ġwilde": 3364,
      "Ġforward": 3365,
      "Ġbuilt": 3366,
      "reg": 3367,
      "è§ī": 3368,
      "éķ¿": 3369,
      "ĠMe": 3370,
      "Ġsuggest": 3371,
      "vision": 3372,
      "chten": 3373,
      "Ġbroken": 3374,
      "oose": 3375,
      "Ġpract": 3376,
      "å·±": 3377,
      "Ġverschill": 3378,
      "joy": 3379,
      "Ġsand": 3380,
      "ĠCounty": 3381,
      "work": 3382,
      "Ġdaddy": 3383,
      "Ġmid": 3384,
      "Ġgentle": 3385,
      "ustral": 3386,
      "Dan": 3387,
      "Ġpo": 3388,
      "ĠDon": 3389,
      "Ġstat": 3390,
      "athalie": 3391,
      "ample": 3392,
      "Ġging": 3393,
      "Or": 3394,
      "Ġpaar": 3395,
      "ĠDav": 3396,
      "eptember": 3397,
      "IC": 3398,
      "ute": 3399,
      "Ġeten": 3400,
      "ooh": 3401,
      "Ġprofess": 3402,
      "Ġabs": 3403,
      "hell": 3404,
      "ĠDan": 3405,
      "Ġperiod": 3406,
      "Ġadded": 3407,
      "ceed": 3408,
      "ends": 3409,
      "Ġseems": 3410,
      "Ġevening": 3411,
      "Ġsingle": 3412,
      "wo": 3413,
      "Ġhast": 3414,
      "cember": 3415,
      "ĠNe": 3416,
      "Ġreturned": 3417,
      "è¡Į": 3418,
      "èĩªå·±": 3419,
      "cer": 3420,
      "æ´": 3421,
      "Ġtoy": 3422,
      "ĠSam": 3423,
      "tered": 3424,
      "Ġalinea": 3425,
      "Ġlonger": 3426,
      "Ġresult": 3427,
      "Ġgovernment": 3428,
      "inet": 3429,
      "Ġforgot": 3430,
      "Ġla": 3431,
      "ĠCal": 3432,
      "Ġopl": 3433,
      "åĽ½": 3434,
      "Ġsuccess": 3435,
      "ĠPat": 3436,
      "Ġappro": 3437,
      "Ġlots": 3438,
      "Ġextra": 3439,
      "Niet": 3440,
      "ted": 3441,
      "wij": 3442,
      "play": 3443,
      "Ġhappen": 3444,
      "Ġwrite": 3445,
      "uch": 3446,
      "Ġeasy": 3447,
      "çĲ": 3448,
      "ĠPe": 3449,
      "Ġreleased": 3450,
      "Ġdet": 3451,
      "Ġshot": 3452,
      "ç¬": 3453,
      "Ġuur": 3454,
      "Ġpieces": 3455,
      "Ġdam": 3456,
      "Ġbath": 3457,
      "ĠLondon": 3458,
      "æīĢ": 3459,
      "bum": 3460,
      "Ġdevelop": 3461,
      "ĠEll": 3462,
      "Ġcatch": 3463,
      "sy": 3464,
      "Ġmiles": 3465,
      "Ġhuman": 3466,
      "Ã¨": 3467,
      "Ġya": 3468,
      "Ġesc": 3469,
      "Ġindeed": 3470,
      "UR": 3471,
      "Voor": 3472,
      "enen": 3473,
      "empt": 3474,
      "Ġstanding": 3475,
      "Ġengine": 3476,
      "dom": 3477,
      "Ġnine": 3478,
      "Ġbek": 3479,
      "ĠItal": 3480,
      "achten": 3481,
      "hel": 3482,
      "Ġmaak": 3483,
      "Ġlives": 3484,
      "Ġfollowed": 3485,
      "æ³": 3486,
      "Ġzij": 3487,
      "Ġknock": 3488,
      "Ġnoises": 3489,
      "Ġgas": 3490,
      "Ġwaiting": 3491,
      "å½ĵ": 3492,
      "Ġtreat": 3493,
      "Ġknows": 3494,
      "ĠWar": 3495,
      "Ġputs": 3496,
      "Ġsouth": 3497,
      "elde": 3498,
      "ĠGrand": 3499,
      "emen": 3500,
      "Ġglass": 3501,
      "ege": 3502,
      "Ġpain": 3503,
      "Ġeye": 3504,
      "Ġverb": 3505,
      "ebru": 3506,
      "Ġpig": 3507,
      "ĠHoe": 3508,
      "Ġpoints": 3509,
      "ĠOctober": 3510,
      "18": 3511,
      "Ben": 3512,
      "Ġperfect": 3513,
      "ĠRosalie": 3514,
      "yn": 3515,
      "Ġmeest": 3516,
      "Ġfear": 3517,
      "Ġgeeft": 3518,
      "alright": 3519,
      "Ġarms": 3520,
      "Ġstraight": 3521,
      "çİ°åľ¨": 3522,
      "chn": 3523,
      "ĠLou": 3524,
      "åıĳ": 3525,
      "actly": 3526,
      "Ġlisten": 3527,
      "ebruary": 3528,
      "Ġast": 3529,
      "Ġvrij": 3530,
      "Ġreach": 3531,
      "rible": 3532,
      "ĠOne": 3533,
      "Ġzeker": 3534,
      "Ġaard": 3535,
      "ĠPer": 3536,
      "åĲĥ": 3537,
      "Cl": 3538,
      "Kijk": 3539,
      "waar": 3540,
      "Ġblock": 3541,
      "Ġrequ": 3542,
      "looks": 3543,
      "ĠSeptember": 3544,
      "Ġmillion": 3545,
      "Ġvideo": 3546,
      "IS": 3547,
      "min": 3548,
      "rat": 3549,
      "Ġrad": 3550,
      "Ġseem": 3551,
      "æĦı": 3552,
      "åīį": 3553,
      "Ġcake": 3554,
      "Ġstation": 3555,
      "ĠJim": 3556,
      "Ġmoved": 3557,
      "ĠAustral": 3558,
      "Ġwaarom": 3559,
      "ature": 3560,
      "Ġwhom": 3561,
      "emy": 3562,
      "Ġsitu": 3563,
      "Ġquickly": 3564,
      "Ġtomorrow": 3565,
      "ĠNove": 3566,
      "Ġeating": 3567,
      "åģļ": 3568,
      "Ġthy": 3569,
      "anden": 3570,
      "Ġpublic": 3571,
      "After": 3572,
      "é¢": 3573,
      "stairs": 3574,
      "ĠSomers": 3575,
      "olk": 3576,
      "your": 3577,
      "ĠNovember": 3578,
      "iny": 3579,
      "Ġriver": 3580,
      "14": 3581,
      "Ġnorm": 3582,
      "Ġmoest": 3583,
      "Ġleuk": 3584,
      "Ġstrange": 3585,
      "ç»ı": 3586,
      "Ġmember": 3587,
      "Ġbuilding": 3588,
      "sn": 3589,
      "Ġwie": 3590,
      "çĶ¨": 3591,
      "ĠDit": 3592,
      "ding": 3593,
      "Ġest": 3594,
      "Ġworry": 3595,
      "æĪĲ": 3596,
      "Ġdepartment": 3597,
      "Ġgebruikt": 3598,
      "Ġhen": 3599,
      "ĠTed": 3600,
      "äºĽ": 3601,
      "Ġcommand": 3602,
      "Ġonderz": 3603,
      "box": 3604,
      "leep": 3605,
      "Ġappear": 3606,
      "anneer": 3607,
      "Op": 3608,
      "ror": 3609,
      "unk": 3610,
      "èµ°": 3611,
      "which": 3612,
      "çº": 3613,
      "Ġster": 3614,
      "Ġshoes": 3615,
      "Ġyours": 3616,
      "å®ŀ": 3617,
      "Some": 3618,
      "rouw": 3619,
      "ĠAm": 3620,
      "ĠVoor": 3621,
      "Ġobs": 3622,
      "Ġriv": 3623,
      "Ġrespect": 3624,
      "Ġinstead": 3625,
      "Ġkop": 3626,
      "Ġopened": 3627,
      "Ġkwam": 3628,
      "Ġfavor": 3629,
      "Ġbase": 3630,
      "ĠMin": 3631,
      "uurlijk": 3632,
      "ask": 3633,
      "ä»ĸä»¬": 3634,
      "Ġhungry": 3635,
      "Ġheavy": 3636,
      "iks": 3637,
      "Ġexam": 3638,
      "Ġvrouw": 3639,
      "Ġpark": 3640,
      "even": 3641,
      "Ġcheck": 3642,
      "Ġbreat": 3643,
      "Ġkant": 3644,
      "åĢĻ": 3645,
      "Ġview": 3646,
      "Ġelect": 3647,
      "Because": 3648,
      "éĴ": 3649,
      "ught": 3650,
      "Ġseries": 3651,
      "Ġregion": 3652,
      "ĠGeorge": 3653,
      "zy": 3654,
      "ĠBij": 3655,
      "Ġtel": 3656,
      "Ġsad": 3657,
      "Ġfill": 3658,
      "ified": 3659,
      "bert": 3660,
      "Ġtelling": 3661,
      "some": 3662,
      "æµ": 3663,
      "éĽ": 3664,
      "Ġdi": 3665,
      "arp": 3666,
      "Ġshut": 3667,
      "Ġwhose": 3668,
      "with": 3669,
      "itch": 3670,
      "Ġcre": 3671,
      "Daddy": 3672,
      "UN": 3673,
      "Ġho": 3674,
      "Ġcow": 3675,
      "ĠSm": 3676,
      "Ġvisit": 3677,
      "da": 3678,
      "Ġcaught": 3679,
      "Ġziet": 3680,
      "ĠMc": 3681,
      "ĠFebruary": 3682,
      "iot": 3683,
      "Ġisland": 3684,
      "Ġgrow": 3685,
      "Wie": 3686,
      "Ġaant": 3687,
      "Ġord": 3688,
      "Ġworked": 3689,
      "Ġcertainly": 3690,
      "Ġexcept": 3691,
      "ener": 3692,
      "Ġsick": 3693,
      "Ġcool": 3694,
      "Ġpresident": 3695,
      "Ġhelemaal": 3696,
      "Ġmass": 3697,
      "Ġcust": 3698,
      "ula": 3699,
      "Ġcomput": 3700,
      "Ġbow": 3701,
      "rek": 3702,
      "reek": 3703,
      "Ġcompan": 3704,
      "Ġcirc": 3705,
      "Ġ24": 3706,
      "iteit": 3707,
      "cially": 3708,
      "ases": 3709,
      "Ġslow": 3710,
      "Ġtit": 3711,
      "Ġja": 3712,
      "ĠMy": 3713,
      "Ġplant": 3714,
      "Ġkijken": 3715,
      "hi": 3716,
      "rab": 3717,
      "Ġthrow": 3718,
      "Ġwritten": 3719,
      "Ġfarm": 3720,
      "Ġbreakfast": 3721,
      "idence": 3722,
      "Ġwhatever": 3723,
      "Ġperform": 3724,
      "Ġthird": 3725,
      "Ġdecl": 3726,
      "Ġfort": 3727,
      "Ġboven": 3728,
      "Every": 3729,
      "terday": 3730,
      "!'": 3731,
      "17": 3732,
      "Ġklaar": 3733,
      "å°ıåŃ©": 3734,
      "bers": 3735,
      "åĨį": 3736,
      "ology": 3737,
      "Ġsuddenly": 3738,
      "Have": 3739,
      "gs": 3740,
      "ĠNow": 3741,
      "åĽł": 3742,
      "Ġprison": 3743,
      "Ġslecht": 3744,
      "Ġcouple": 3745,
      "13": 3746,
      "ĠTe": 3747,
      "Ġnational": 3748,
      "Ġlos": 3749,
      "Ġzullen": 3750,
      "Ġspace": 3751,
      "Ġchanged": 3752,
      "shire": 3753,
      "Ġfellow": 3754,
      "Ġluck": 3755,
      "Ġappeared": 3756,
      "Ġbeste": 3757,
      "Ġgesch": 3758,
      "was": 3759,
      "Ġpress": 3760,
      "Ġmoe": 3761,
      "æĹ¶åĢĻ": 3762,
      "ĠVer": 3763,
      "Ġreceived": 3764,
      "usp": 3765,
      "Ġfeeling": 3766,
      "Ġstopped": 3767,
      "Ġconsider": 3768,
      "Ġbuiten": 3769,
      "16": 3770,
      "Ġble": 3771,
      "Ġneck": 3772,
      "itted": 3773,
      "house": 3774,
      "ada": 3775,
      "ĠOF": 3776,
      "Ġwilt": 3777,
      "GRA": 3778,
      "With": 3779,
      "roeg": 3780,
      "Ġalbum": 3781,
      "ision": 3782,
      "Ġkit": 3783,
      "Ġbrief": 3784,
      "ä½łä»¬": 3785,
      "ouncil": 3786,
      "Ġfollowing": 3787,
      "Ġahead": 3788,
      "Ġexample": 3789,
      "ç§į": 3790,
      "Ġsilver": 3791,
      "Ġzonder": 3792,
      "Ġann": 3793,
      "Ġcoff": 3794,
      "view": 3795,
      "Ġbere": 3796,
      "Ġhol": 3797,
      "RY": 3798,
      "Ġsend": 3799,
      "Ġshoot": 3800,
      "Ġpray": 3801,
      "å®ļ": 3802,
      "æīĭ": 3803,
      "æīĵ": 3804,
      "Ġpolice": 3805,
      "Ġproduct": 3806,
      "zet": 3807,
      "rodu": 3808,
      "Ġprogram": 3809,
      "Ġcareful": 3810,
      "Ġbroke": 3811,
      "Ġcentury": 3812,
      "åĿ": 3813,
      "Ġmur": 3814,
      "llustr": 3815,
      "roy": 3816,
      "aker": 3817,
      "Ġener": 3818,
      "ĠNathalie": 3819,
      "Ġfle": 3820,
      "ieved": 3821,
      "iment": 3822,
      "Ġ+": 3823,
      "Ġcharacter": 3824,
      "Ġservice": 3825,
      "omin": 3826,
      "Ġwear": 3827,
      "ĠWell": 3828,
      "Ġworth": 3829,
      "Ġprec": 3830,
      "cient": 3831,
      "ighb": 3832,
      "Ġeerst": 3833,
      "Ġwhis": 3834,
      "Ġsupposed": 3835,
      "ĠEurope": 3836,
      "ikk": 3837,
      "ĠApril": 3838,
      "Ġalthough": 3839,
      "Ġsupport": 3840,
      "çĻ½": 3841,
      "LT": 3842,
      "ris": 3843,
      "Ġdingen": 3844,
      "ĠDecember": 3845,
      "ray": 3846,
      "ç®": 3847,
      "ieft": 3848,
      "ĠBill": 3849,
      "ording": 3850,
      "pers": 3851,
      "Ġcarried": 3852,
      "fer": 3853,
      "enk": 3854,
      "oto": 3855,
      "ĠUniversity": 3856,
      "Ġbottom": 3857,
      "CHAP": 3858,
      "ender": 3859,
      "åįģ": 3860,
      "ĠQu": 3861,
      "aser": 3862,
      "child": 3863,
      "ĠHall": 3864,
      "Ġblijven": 3865,
      "will": 3866,
      "æĻ": 3867,
      "ĠNot": 3868,
      "appen": 3869,
      "Ġdescri": 3870,
      "Ġvaak": 3871,
      "iled": 3872,
      "ĠRoman": 3873,
      "ĠChristmas": 3874,
      "Ġlaatste": 3875,
      "wood": 3876,
      "Ġfail": 3877,
      "Ġzet": 3878,
      "angen": 3879,
      "ipe": 3880,
      "Ġwelke": 3881,
      "ae": 3882,
      "Ġdu": 3883,
      "Ġgarden": 3884,
      "resident": 3885,
      "åŃ¦": 3886,
      "Stop": 3887,
      "See": 3888,
      "Ġing": 3889,
      "Ġcop": 3890,
      "Ġstad": 3891,
      "ĠOf": 3892,
      "RE": 3893,
      "æĽ": 3894,
      "ashing": 3895,
      "Ġdeel": 3896,
      "ushed": 3897,
      "Ġhorses": 3898,
      "Ġmaster": 3899,
      "Ġdev": 3900,
      "Ġusing": 3901,
      "Maybe": 3902,
      "Ġverw": 3903,
      "ä½Ĩ": 3904,
      "uten": 3905,
      "Ġimag": 3906,
      "Ġcontinued": 3907,
      "Ġvand": 3908,
      "Ġevent": 3909,
      "LOI": 3910,
      "Ġtick": 3911,
      "rem": 3912,
      "akken": 3913,
      "Ġenjoy": 3914,
      "Ġhouden": 3915,
      "CHAPTER": 3916,
      "Hello": 3917,
      "ille": 3918,
      "bled": 3919,
      "ID": 3920,
      "Ġdacht": 3921,
      "Ġmod": 3922,
      "ĠVan": 3923,
      "Ġ0": 3924,
      "ades": 3925,
      "Ġoffice": 3926,
      "Ġtail": 3927,
      "Ġlift": 3928,
      "ĠCent": 3929,
      "Ġbrand": 3930,
      "Hier": 3931,
      "komen": 3932,
      "Ġdress": 3933,
      "ĠPaul": 3934,
      "oken": 3935,
      "ounter": 3936,
      "æ¸": 3937,
      "ouden": 3938,
      "ĠSome": 3939,
      "Ġclub": 3940,
      "Ġcompet": 3941,
      "gar": 3942,
      "hand": 3943,
      "Ġhole": 3944,
      "Ġrond": 3945,
      "ĠJames": 3946,
      "Ġrust": 3947,
      "åĲ¬": 3948,
      "Ġtonight": 3949,
      "\"'": 3950,
      "ĠCity": 3951,
      "Ġsave": 3952,
      "Ġsounds": 3953,
      "èĬ": 3954,
      "Ġlim": 3955,
      "ĠComm": 3956,
      "Ġspir": 3957,
      "Ġgezien": 3958,
      "éĹ®": 3959,
      "Ġwoorden": 3960,
      "oul": 3961,
      "Ġweeks": 3962,
      "è§ģ": 3963,
      "Ġputting": 3964,
      "å¦Ĥ": 3965,
      "Ġlegs": 3966,
      "Ġdrive": 3967,
      "Ġexclaimed": 3968,
      "Fr": 3969,
      "Ġexpect": 3970,
      "cing": 3971,
      "cul": 3972,
      "gie": 3973,
      "str": 3974,
      "Ġmeant": 3975,
      "iety": 3976,
      "Ġsport": 3977,
      "Ġdecided": 3978,
      "light": 3979,
      "Ġplaces": 3980,
      "Ġwoods": 3981,
      "Will": 3982,
      "iers": 3983,
      "turn": 3984,
      "Ġain": 3985,
      "åħ¬": 3986,
      "Ġmach": 3987,
      "Ġhus": 3988,
      "Ġshout": 3989,
      "Ġjuice": 3990,
      "PAT": 3991,
      "Ġburn": 3992,
      "aden": 3993,
      "äºĮ": 3994,
      "Ġ193": 3995,
      "ocol": 3996,
      "ĠChristian": 3997,
      "pose": 3998,
      "rey": 3999,
      "Ġrul": 4000,
      "roll": 4001,
      "Ġcomfort": 4002,
      "Ġbottle": 4003,
      "Ġwest": 4004,
      "ogn": 4005,
      "Ġkids": 4006,
      "olf": 4007,
      "Ġshape": 4008,
      "Ġsal": 4009,
      "Ġpack": 4010,
      "Ġhelpen": 4011,
      "Ġbread": 4012,
      "Ġcareer": 4013,
      "Ġauthor": 4014,
      "Weet": 4015,
      "Ġparticular": 4016,
      "Ġlunch": 4017,
      "Ġstorm": 4018,
      "ĠTO": 4019,
      "Ġfurther": 4020,
      "Ġhoeveel": 4021,
      "æĤ¨": 4022,
      "ĠAN": 4023,
      "ilar": 4024,
      "ĠMother": 4025,
      "Ġverm": 4026,
      "Ġworks": 4027,
      "Ġnieuw": 4028,
      "iol": 4029,
      "Ġhoor": 4030,
      "ĠTim": 4031,
      "auw": 4032,
      "Ġseeing": 4033,
      "Ġwrote": 4034,
      "Ġanimal": 4035,
      "Ġverschillende": 4036,
      "Nu": 4037,
      "zo": 4038,
      "Ġ$": 4039,
      "åı¯ä»¥": 4040,
      "ky": 4041,
      "Ġstuck": 4042,
      "Ġaccept": 4043,
      "Ġneeds": 4044,
      "Ġsafe": 4045,
      "ĠHen": 4046,
      "Ġbeetje": 4047,
      "isted": 4048,
      "ĠOok": 4049,
      "Ġeverybody": 4050,
      "Ġseat": 4051,
      "Ġdesign": 4052,
      "mbers": 4053,
      "RI": 4054,
      "bing": 4055,
      "èĤ": 4056,
      "Ġeh": 4057,
      "ĠRuss": 4058,
      "Ġanyone": 4059,
      "Ġbegin": 4060,
      "Ġyesterday": 4061,
      "Ġwatching": 4062,
      "Ġhistory": 4063,
      "50": 4064,
      "Ġwist": 4065,
      "Ġstuk": 4066,
      "ĠRep": 4067,
      "iest": 4068,
      "Ġcamer": 4069,
      "Ġsilence": 4070,
      "Ġgeneral": 4071,
      "Ġsusp": 4072,
      "Ġmum": 4073,
      "ä¸ī": 4074,
      "Ġnecess": 4075,
      "ĠThese": 4076,
      "ĠDeze": 4077,
      "Ġbelong": 4078,
      "Ġdistance": 4079,
      "Ġmiddle": 4080,
      "Ġoploss": 4081,
      "èº": 4082,
      "Ġken": 4083,
      "éĹ´": 4084,
      "Misschien": 4085,
      "Ġtape": 4086,
      "Ġhy": 4087,
      "Ġmembers": 4088,
      "Ġminder": 4089,
      "Ġtruth": 4090,
      "Ġlanguage": 4091,
      "Ġhig": 4092,
      "Ġcast": 4093,
      "Ġring": 4094,
      "Ġspoke": 4095,
      "ĠClare": 4096,
      "Ġlaughed": 4097,
      "Ġkitchen": 4098,
      "iber": 4099,
      "Ġgele": 4100,
      "Ġbew": 4101,
      "aves": 4102,
      "è¢": 4103,
      "Ġant": 4104,
      "Om": 4105,
      "Ġmeis": 4106,
      "--------------------------------": 4107,
      "Ġsilly": 4108,
      "Ġsky": 4109,
      "la": 4110,
      "Ġspl": 4111,
      "ission": 4112,
      "Ġauto": 4113,
      "ively": 4114,
      "hello": 4115,
      "ĠYOU": 4116,
      "voorbeeld": 4117,
      "Wait": 4118,
      "Ġpriv": 4119,
      "ett": 4120,
      "aches": 4121,
      "ĠLu": 4122,
      "Ġhappens": 4123,
      "EL": 4124,
      "igg": 4125,
      "ruct": 4126,
      "éĤ£ä¸ª": 4127,
      "rant": 4128,
      "wow": 4129,
      "Ġniks": 4130,
      "Ġmoving": 4131,
      "Ġseason": 4132,
      "Ġafterno": 4133,
      "would": 4134,
      "onnen": 4135,
      "Ġinh": 4136,
      "åĪĨ": 4137,
      "iced": 4138,
      "inds": 4139,
      "Ġteeth": 4140,
      "Ġinformatie": 4141,
      "Ġgewe": 4142,
      "Ġtelevision": 4143,
      "æŀľ": 4144,
      "rel": 4145,
      "itions": 4146,
      "æĸ¹": 4147,
      "Ġdifficult": 4148,
      "God": 4149,
      "Ġcause": 4150,
      "Ġcost": 4151,
      "ague": 4152,
      "Ġ100": 4153,
      "Ġsecret": 4154,
      "Ġattempt": 4155,
      "Dus": 4156,
      "Ġorange": 4157,
      "Ġhusband": 4158,
      "ev": 4159,
      "ees": 4160,
      "sit": 4161,
      "ĠMary": 4162,
      "vocal": 4163,
      "ĠReg": 4164,
      "ä»İ": 4165,
      "ĠIN": 4166,
      "Ġjud": 4167,
      "ulp": 4168,
      "åĬ¨": 4169,
      "Ġiedereen": 4170,
      "Ġfat": 4171,
      "Ġpraten": 4172,
      "Ġpil": 4173,
      "ĠAmerica": 4174,
      "Ġwalking": 4175,
      "iday": 4176,
      "umb": 4177,
      "Ġneighb": 4178,
      "å¿«": 4179,
      "Ġwalked": 4180,
      "ĠHier": 4181,
      "ĠDavid": 4182,
      "Ġafternoon": 4183,
      "ç«": 4184,
      "Ġpaint": 4185,
      "æĺİ": 4186,
      "aald": 4187,
      "Ġforest": 4188,
      "akt": 4189,
      "ribut": 4190,
      "ourn": 4191,
      "Ġpopulation": 4192,
      "Ġkrijgt": 4193,
      "Ġcorner": 4194,
      "Ġantwoord": 4195,
      "Ġgiving": 4196,
      "Ġlief": 4197,
      "Ġrub": 4198,
      "ijna": 4199,
      "rent": 4200,
      "Ġexactly": 4201,
      "Any": 4202,
      "ino": 4203,
      "Ġought": 4204,
      "ico": 4205,
      "Ġswim": 4206,
      "board": 4207,
      "zelfde": 4208,
      "Ġalive": 4209,
      "ĠWhy": 4210,
      "é¡": 4211,
      "Ġbull": 4212,
      "Ġhosp": 4213,
      "Ġ22": 4214,
      "Ġrepresent": 4215,
      "ä¸¤": 4216,
      "Ġbirds": 4217,
      "cuse": 4218,
      "uts": 4219,
      "ĠCr": 4220,
      "Ġplayer": 4221,
      "ression": 4222,
      "è°¢": 4223,
      "Ġgebeur": 4224,
      "line": 4225,
      "Ġ23": 4226,
      "Ġattention": 4227,
      "Ġjuist": 4228,
      "Wil": 4229,
      "under": 4230,
      "ĠYeah": 4231,
      "erve": 4232,
      "ĠNed": 4233,
      "ĠLa": 4234,
      "æľ¬": 4235,
      "Ġgraag": 4236,
      "'?": 4237,
      "Ġitself": 4238,
      "Ġpp": 4239,
      "ĠSy": 4240,
      "Ġmanier": 4241,
      "Ġanyway": 4242,
      "ENT": 4243,
      "utenant": 4244,
      "Ġverand": 4245,
      "ä¾": 4246,
      "aks": 4247,
      "Ġentire": 4248,
      "Uh": 4249,
      "gro": 4250,
      "Ġfre": 4251,
      "Ġneem": 4252,
      "ads": 4253,
      "icip": 4254,
      "ijken": 4255,
      "BRO": 4256,
      "gd": 4257,
      "Ġfres": 4258,
      "Ġallowed": 4259,
      "ĠGood": 4260,
      "ĠRob": 4261,
      "Ġaff": 4262,
      "Take": 4263,
      "dr": 4264,
      "omb": 4265,
      "Ġtrad": 4266,
      "erder": 4267,
      "Ġremark": 4268,
      "Ġfinally": 4269,
      "Ġaccount": 4270,
      "Ġtemper": 4271,
      "OkÃ©": 4272,
      "abel": 4273,
      "Ġmannen": 4274,
      "Ġpopular": 4275,
      "Ġwed": 4276,
      "ume": 4277,
      "Ġet": 4278,
      "Ġweren": 4279,
      "Ġsoort": 4280,
      "Ġmad": 4281,
      "Ġride": 4282,
      "ilig": 4283,
      "arty": 4284,
      "Ġprep": 4285,
      "Ġgenoeg": 4286,
      "iant": 4287,
      "oit": 4288,
      "Ġcab": 4289,
      "ician": 4290,
      "å¹²": 4291,
      "Ar": 4292,
      "aad": 4293,
      "åĹ": 4294,
      "reken": 4295,
      "Ġmoder": 4296,
      "åħĪ": 4297,
      "Geef": 4298,
      "è¶": 4299,
      "é£": 4300,
      "Ġsense": 4301,
      "ĠGl": 4302,
      "ĠEast": 4303,
      "Ġtrack": 4304,
      "ieden": 4305,
      "ĠWilliam": 4306,
      "hod": 4307,
      "kelijk": 4308,
      "maybe": 4309,
      "nes": 4310,
      "time": 4311,
      "Ġduck": 4312,
      "Ġklein": 4313,
      "Ġvlie": 4314,
      "çĦ¶åĲİ": 4315,
      "ams": 4316,
      "å®ĥ": 4317,
      "ket": 4318,
      "Ġtast": 4319,
      "Ġvroeg": 4320,
      "Ġstone": 4321,
      "estig": 4322,
      "Ġconvers": 4323,
      "Ġsomewhere": 4324,
      "Ġprim": 4325,
      "Ġwerken": 4326,
      "Erm": 4327,
      "Ġmention": 4328,
      "Ġthus": 4329,
      "lean": 4330,
      "Ġkid": 4331,
      "åıĪ": 4332,
      "Ġpictures": 4333,
      "ination": 4334,
      "ĠBobby": 4335,
      "conom": 4336,
      "Ġtall": 4337,
      "Ġpet": 4338,
      "Ġrepe": 4339,
      "vert": 4340,
      "ä½ľ": 4341,
      "Ġterm": 4342,
      "vl": 4343,
      "ĠSer": 4344,
      "Ġcounty": 4345,
      "Ġvindt": 4346,
      "ç¾": 4347,
      "Ġlaughs": 4348,
      "Met": 4349,
      "Ġdry": 4350,
      "ĠBar": 4351,
      "Ġnews": 4352,
      "Ġrecogn": 4353,
      "èĢĮ": 4354,
      "çĪ¸": 4355,
      "gu": 4356,
      "midd": 4357,
      "ĠIr": 4358,
      "icle": 4359,
      "gev": 4360,
      "Ġtype": 4361,
      "Ġcoffee": 4362,
      "His": 4363,
      "Ġmix": 4364,
      "Ġzorgen": 4365,
      "ounded": 4366,
      "Ġfeed": 4367,
      "bling": 4368,
      "Ġholding": 4369,
      "want": 4370,
      "Ġox": 4371,
      "Ġdig": 4372,
      "Ġvorm": 4373,
      "Ġshore": 4374,
      "ĠNational": 4375,
      "Ġgrass": 4376,
      "Ver": 4377,
      "aand": 4378,
      "ancy": 4379,
      "Ġban": 4380,
      "Ġbelow": 4381,
      "iar": 4382,
      "Ġut": 4383,
      "Ġspring": 4384,
      "Ġ28": 4385,
      "offen": 4386,
      "sk": 4387,
      "Ġchick": 4388,
      "cious": 4389,
      "Ġbedoel": 4390,
      "Ġdistrict": 4391,
      "ADULT": 4392,
      "Ġincluding": 4393,
      "RYA": 4394,
      "åĺ": 4395,
      "Ġcard": 4396,
      "raat": 4397,
      "è¿Ľ": 4398,
      "åĽłä¸º": 4399,
      "ais": 4400,
      "wise": 4401,
      "Ġself": 4402,
      "Ġjack": 4403,
      "Ġbab": 4404,
      "isf": 4405,
      "Ġdeed": 4406,
      "ĠTH": 4407,
      "ĠGeef": 4408,
      "ĠRich": 4409,
      "Ġbutter": 4410,
      "å¸Ī": 4411,
      "AS": 4412,
      "ds": 4413,
      "pes": 4414,
      "Ġmogelijk": 4415,
      "Ġtherefore": 4416,
      "è¿Ļæł·": 4417,
      "izen": 4418,
      "ĠSu": 4419,
      "ĠAng": 4420,
      "Ġplaced": 4421,
      "gaan": 4422,
      "ishing": 4423,
      "Ġplane": 4424,
      "Ġspijt": 4425,
      "Ġhasn": 4426,
      "Ġplays": 4427,
      "Ġcommune": 4428,
      "pecially": 4429,
      "ijdens": 4430,
      "Ġ&": 4431,
      "Ġvier": 4432,
      "ĠSir": 4433,
      "Ġ50": 4434,
      "æĶ¾": 4435,
      "Ġmoon": 4436,
      "äºİ": 4437,
      "Ġletters": 4438,
      "Ġeggs": 4439,
      "Ġcontrol": 4440,
      "hood": 4441,
      "Ġverder": 4442,
      "Ġbesch": 4443,
      "Ġmountain": 4444,
      "ĠLouis": 4445,
      "æģ": 4446,
      "Ġbought": 4447,
      "Ġlijkt": 4448,
      "oopt": 4449,
      "unny": 4450,
      "Ġbrown": 4451,
      "Ġflowers": 4452,
      "uits": 4453,
      "Ġfigure": 4454,
      "Ġaantal": 4455,
      "éļ": 4456,
      "Ġrich": 4457,
      "Ġmanner": 4458,
      "Ġhoud": 4459,
      "burg": 4460,
      "Ġsummer": 4461,
      "Ġonge": 4462,
      "iles": 4463,
      "apen": 4464,
      "Ġsheep": 4465,
      "ĠScott": 4466,
      "Ġincre": 4467,
      "give": 4468,
      "non": 4469,
      "acy": 4470,
      "THE": 4471,
      "Ġlaugh": 4472,
      "Ġrose": 4473,
      "Ġlevel": 4474,
      "Ġboek": 4475,
      "Ġgrew": 4476,
      "ĠMad": 4477,
      "ĠMommy": 4478,
      "ĠKenn": 4479,
      "Ġbusy": 4480,
      "Ġwinter": 4481,
      "hal": 4482,
      "acing": 4483,
      "Ġblow": 4484,
      "Ġ40": 4485,
      "elden": 4486,
      "idden": 4487,
      "Ġleaving": 4488,
      "nel": 4489,
      "Ġdue": 4490,
      "ĠMark": 4491,
      "antly": 4492,
      "Ġ192": 4493,
      "Ġcray": 4494,
      "Ġtrail": 4495,
      "Ġgeweest": 4496,
      "ocht": 4497,
      "å¤´": 4498,
      "Ġmisschien": 4499,
      "Ġdropped": 4500,
      "ĠSchool": 4501,
      "æ¯Ķ": 4502,
      "Ġcomputer": 4503,
      "Ġblank": 4504,
      "Ġhardly": 4505,
      "ael": 4506,
      "za": 4507,
      "Ġheen": 4508,
      "Ġtechn": 4509,
      "Ġ26": 4510,
      "Ġconn": 4511,
      "Ġshowed": 4512,
      "æīį": 4513,
      "Ġkleine": 4514,
      "Ġcreated": 4515,
      "met": 4516,
      "cks": 4517,
      "ä»Ĭ": 4518,
      "Ã¯": 4519,
      "aper": 4520,
      "ĠEgy": 4521,
      "Ġterrible": 4522,
      "kn": 4523,
      "ç©": 4524,
      "Ġlid": 4525,
      "Ġlose": 4526,
      "amm": 4527,
      "Ġconcl": 4528,
      "åħ¶": 4529,
      "Ġturns": 4530,
      "Ġinformation": 4531,
      "points": 4532,
      "Ġstreet": 4533,
      "ampion": 4534,
      "LE": 4535,
      "nest": 4536,
      "Ġeveryone": 4537,
      "Ġparents": 4538,
      "Ġofficer": 4539,
      "Ġhoog": 4540,
      "leg": 4541,
      "æĦŁ": 4542,
      "Ġlying": 4543,
      "agon": 4544,
      "è¾¹": 4545,
      "co": 4546,
      "Ġcru": 4547,
      "Ġninet": 4548,
      "Ġvict": 4549,
      "ivil": 4550,
      "Ġmatch": 4551,
      "Ġcamera": 4552,
      "ita": 4553,
      "ites": 4554,
      "werp": 4555,
      "Ġsimp": 4556,
      "_.": 4557,
      "Ġcand": 4558,
      "Ġbep": 4559,
      "Ġreactie": 4560,
      "IF": 4561,
      "pardon": 4562,
      "yle": 4563,
      "ĠPresident": 4564,
      "ization": 4565,
      "Ġpolic": 4566,
      "ipped": 4567,
      "¥¿": 4568,
      "aded": 4569,
      "Ġteacher": 4570,
      "ĠEx": 4571,
      "izes": 4572,
      "Ġfinger": 4573,
      "Ġligt": 4574,
      "Gr": 4575,
      "ĠDie": 4576,
      "Ġverz": 4577,
      "Ġbijvoorbeeld": 4578,
      "Ġbegrij": 4579,
      "takes": 4580,
      "ya": 4581,
      "Âł": 4582,
      "Ġate": 4583,
      "Ġhadden": 4584,
      "Ġgelijk": 4585,
      "ester": 4586,
      "Ġnor": 4587,
      "ably": 4588,
      "æĪĳçļĦ": 4589,
      "Ġnemen": 4590,
      "ival": 4591,
      "Ġ190": 4592,
      "Ġelke": 4593,
      "atter": 4594,
      "ĠBel": 4595,
      "Ġ29": 4596,
      "Ġtrust": 4597,
      "ĠQue": 4598,
      "Ġcapital": 4599,
      "éĴ±": 4600,
      "pret": 4601,
      "Ġ=": 4602,
      "Ġmajor": 4603,
      "Ge": 4604,
      "Lu": 4605,
      "rect": 4606,
      "Ġcapt": 4607,
      "ĠJer": 4608,
      "Ġbestaat": 4609,
      "ires": 4610,
      "Ġpan": 4611,
      "Ġloud": 4612,
      "æ°Ķ": 4613,
      "Ġcrying": 4614,
      "Ġbased": 4615,
      "hys": 4616,
      "Ġholds": 4617,
      "æ¬¡": 4618,
      "èº«": 4619,
      "bel": 4620,
      "gl": 4621,
      "edia": 4622,
      "Ġgames": 4623,
      "Ġnames": 4624,
      "omp": 4625,
      "ĠAlex": 4626,
      "raph": 4627,
      "Ġbren": 4628,
      "Ġbeginning": 4629,
      "Ġdisapp": 4630,
      "medi": 4631,
      "Sp": 4632,
      "Ġcult": 4633,
      "Ġnest": 4634,
      "ankt": 4635,
      "è¿Ļä¹Ī": 4636,
      "ï¿½ï¿½ï¿½ï¿½": 4637,
      "Ġsubject": 4638,
      "estern": 4639,
      "Ġthirty": 4640,
      "Ġinf": 4641,
      "ijnen": 4642,
      "Ġspot": 4643,
      "Ġfinish": 4644,
      "å·²": 4645,
      "Hel": 4646,
      "Ġcit": 4647,
      "Ġforth": 4648,
      "ells": 4649,
      "ä¸»": 4650,
      "å¤ª": 4651,
      "Ġmommy": 4652,
      "æī¾": 4653,
      "Ġlearned": 4654,
      "OK": 4655,
      "ero": 4656,
      "lymp": 4657,
      "Ġidee": 4658,
      "Ġlucht": 4659,
      "Ġwoord": 4660,
      "Ġchocol": 4661,
      "noise": 4662,
      "Ġpuzz": 4663,
      "Sch": 4664,
      "é©": 4665,
      "Ġnee": 4666,
      "Ġ2018": 4667,
      "åĵª": 4668,
      "Ġvertellen": 4669,
      "Ġder": 4670,
      "Ġfool": 4671,
      "Ġnam": 4672,
      "Ġears": 4673,
      "iling": 4674,
      "grim": 4675,
      "Ġquarter": 4676,
      "Ã³": 4677,
      "éĶ": 4678,
      "astic": 4679,
      "ocket": 4680,
      "Ġdiscovered": 4681,
      "Ġthuis": 4682,
      "Ġeast": 4683,
      "Ġremain": 4684,
      "Ġserious": 4685,
      "Doe": 4686,
      "baby": 4687,
      "eh": 4688,
      "uct": 4689,
      "Ġheet": 4690,
      "Ġstof": 4691,
      "Ġasleep": 4692,
      "Ġwheel": 4693,
      "Ġonderzoek": 4694,
      "åĹ¯": 4695,
      "Mum": 4696,
      "é«": 4697,
      "Ġzin": 4698,
      "uses": 4699,
      "ground": 4700,
      "è¢«": 4701,
      "Ġwand": 4702,
      "Ġinfl": 4703,
      "rupt": 4704,
      "kening": 4705,
      "Ġwerden": 4706,
      "Ġdogs": 4707,
      "Ġmeeting": 4708,
      "Ġfrog": 4709,
      "é«ĺ": 4710,
      "Pro": 4711,
      "Ġnature": 4712,
      "çİĭ": 4713,
      "Ġstudy": 4714,
      "Ġkoning": 4715,
      "Ġ2021": 4716,
      "back": 4717,
      "oom": 4718,
      "æ±": 4719,
      "Ġforce": 4720,
      "Ġregard": 4721,
      "æŃ£": 4722,
      "itude": 4723,
      "erson": 4724,
      "åħ³": 4725,
      "Ġrelig": 4726,
      "aura": 4727,
      "Ġbijna": 4728,
      "Ġhost": 4729,
      "Ġcloud": 4730,
      "Ġdiscuss": 4731,
      "ule": 4732,
      "Ġklas": 4733,
      "Per": 4734,
      "elve": 4735,
      "outs": 4736,
      "Ġ27": 4737,
      "Ġgrond": 4738,
      "Ġactiv": 4739,
      "Ġlikes": 4740,
      "Ġmooi": 4741,
      "Ġhospital": 4742,
      "Ġsize": 4743,
      "Ġshit": 4744,
      "Ġcomb": 4745,
      "Ġbetek": 4746,
      "Dank": 4747,
      "uel": 4748,
      "Ġooit": 4749,
      "Ġdemand": 4750,
      "ĠSan": 4751,
      "ĠPol": 4752,
      "ĠRiver": 4753,
      "ĠFl": 4754,
      "ĠOm": 4755,
      "Ġmedic": 4756,
      "Ã¡": 4757,
      "Ġ/": 4758,
      "imin": 4759,
      "raw": 4760,
      "Ġsex": 4761,
      "Ġespecially": 4762,
      "è§īå¾Ĺ": 4763,
      "Ġiss": 4764,
      "ament": 4765,
      "Ġang": 4766,
      "ĠOlymp": 4767,
      "assen": 4768,
      "clock": 4769,
      "ĠZo": 4770,
      "Ġsatisf": 4771,
      "mee": 4772,
      "heden": 4773,
      "Ġger": 4774,
      "ooi": 4775,
      "Ġrap": 4776,
      "Ġhall": 4777,
      "Ġcrow": 4778,
      "ĠAmerik": 4779,
      "leanor": 4780,
      "Geen": 4781,
      "Ġlength": 4782,
      "appy": 4783,
      "æ°´": 4784,
      "Ġcovered": 4785,
      "By": 4786,
      "say": 4787,
      "tell": 4788,
      "Ġlink": 4789,
      "ĠMer": 4790,
      "Ġgegeven": 4791,
      "Ġarr": 4792,
      "Ġgeweld": 4793,
      "Ġdirection": 4794,
      "ĠIsra": 4795,
      "arah": 4796,
      "Ġhealth": 4797,
      "ikt": 4798,
      "Ġsmile": 4799,
      "ounced": 4800,
      "ĠEgypt": 4801,
      "å£": 4802,
      "ising": 4803,
      "Ġpa": 4804,
      "Ġpush": 4805,
      "pty": 4806,
      "counter": 4807,
      "çģ": 4808,
      "Ġmater": 4809,
      "Ġgives": 4810,
      "Ġpaid": 4811,
      "Ġheaven": 4812,
      "irm": 4813,
      "Ġprop": 4814,
      "Ġproject": 4815,
      "Ġbridge": 4816,
      "Ġfaith": 4817,
      "Ġiron": 4818,
      "Ġmurder": 4819,
      "äºĨæĪĳ": 4820,
      "Ġsleeping": 4821,
      "Ġgebruiken": 4822,
      "ĠNa": 4823,
      "Ġconsid": 4824,
      "Ġjongen": 4825,
      "Br": 4826,
      "Man": 4827,
      "arth": 4828,
      "Ġkick": 4829,
      "ĠLet": 4830,
      "Ġbru": 4831,
      "ashed": 4832,
      "ĠRober": 4833,
      "deel": 4834,
      "Ġleaves": 4835,
      "ĠIndia": 4836,
      "Ġbless": 4837,
      "Ġanybody": 4838,
      "Ġwriting": 4839,
      "Ġspeed": 4840,
      "Ġhoren": 4841,
      "Ġgeluk": 4842,
      "Ġpicks": 4843,
      "bes": 4844,
      "kl": 4845,
      "Ġur": 4846,
      "iller": 4847,
      "ĠEm": 4848,
      "ouses": 4849,
      "Ġhalen": 4850,
      "Ġsimilar": 4851,
      "Ġlocal": 4852,
      "xim": 4853,
      "atur": 4854,
      "Ġhill": 4855,
      "stop": 4856,
      "ĠMon": 4857,
      "aving": 4858,
      "rijd": 4859,
      "Ġfamous": 4860,
      "Ġoccas": 4861,
      "Ġbelieved": 4862,
      "æĹ¥": 4863,
      "Me": 4864,
      "ned": 4865,
      "Ġoplossing": 4866,
      "Ġwit": 4867,
      "ĠPark": 4868,
      "ĠGreat": 4869,
      "ails": 4870,
      "yer": 4871,
      "æŁ": 4872,
      "Ġdin": 4873,
      "Ġep": 4874,
      "ploy": 4875,
      "please": 4876,
      "Ġdelight": 4877,
      "gasps": 4878,
      "Le": 4879,
      "ĠNor": 4880,
      "Ġprocess": 4881,
      "Ġanymore": 4882,
      "ensch": 4883,
      "Ġsinging": 4884,
      "Dr": 4885,
      "Nou": 4886,
      "è¥¿": 4887,
      "erst": 4888,
      "omme": 4889,
      "Ġfright": 4890,
      "Ġleer": 4891,
      "itty": 4892,
      "Ġoorlog": 4893,
      "rican": 4894,
      "Ġhide": 4895,
      "oring": 4896,
      "Ġvess": 4897,
      "Ġkap": 4898,
      "Ġrid": 4899,
      "Ġprobe": 4900,
      "Ġslight": 4901,
      "Ġquestions": 4902,
      "Ġconversation": 4903,
      "èĻ": 4904,
      "Ġbound": 4905,
      "Ġtower": 4906,
      "ĠDad": 4907,
      "umm": 4908,
      "Ġparts": 4909,
      "Ġbesl": 4910,
      "Ġhoney": 4911,
      "weg": 4912,
      "ĨĴ": 4913,
      "arrow": 4914,
      "ils": 4915,
      "ĠBert": 4916,
      "ĠCO": 4917,
      "Ġspent": 4918,
      "Ġmilj": 4919,
      "Wacht": 4920,
      "down": 4921,
      "field": 4922,
      "kker": 4923,
      "Ġvre": 4924,
      "Ġkans": 4925,
      "ĠPal": 4926,
      "Ġloved": 4927,
      "Ġearl": 4928,
      "Ġcharge": 4929,
      "Ġwash": 4930,
      "Ġcheese": 4931,
      "çŃī": 4932,
      "itive": 4933,
      "ĠSpan": 4934,
      "dd": 4935,
      "sm": 4936,
      "Ġinvol": 4937,
      "elle": 4938,
      "Ġappar": 4939,
      "Hall": 4940,
      "nee": 4941,
      "èĥ": 4942,
      "Ġlower": 4943,
      "omes": 4944,
      "Ġsharp": 4945,
      "avond": 4946,
      "ibr": 4947,
      "èĦ": 4948,
      "Ġlaid": 4949,
      "Ġenk": 4950,
      "Ġsuit": 4951,
      "åĥ": 4952,
      "åĲĮ": 4953,
      "werk": 4954,
      "Ġfifty": 4955,
      "orp": 4956,
      "esus": 4957,
      "ĠHouse": 4958,
      "unicip": 4959,
      "riage": 4960,
      "Ġapple": 4961,
      "Ġpit": 4962,
      "ilijk": 4963,
      "Ġgeze": 4964,
      "Ġ21": 4965,
      "ours": 4966,
      "Ġserved": 4967,
      "åĨĽ": 4968,
      "Ġduid": 4969,
      "Ġstem": 4970,
      "Ġrecht": 4971,
      "ĠColl": 4972,
      "antic": 4973,
      "ums": 4974,
      "oses": 4975,
      "blieft": 4976,
      "urches": 4977,
      "iforn": 4978,
      "Ġshouldn": 4979,
      "å¥³": 4980,
      "Ġjoy": 4981,
      "ĠWaar": 4982,
      "Ġschat": 4983,
      "ĠBea": 4984,
      "aud": 4985,
      "itein": 4986,
      "Ġ2019": 4987,
      "Ġvolgens": 4988,
      "Ġrefer": 4989,
      "ĠRepubl": 4990,
      "Was": 4991,
      "èĭ": 4992,
      "ching": 4993,
      "ola": 4994,
      "jeblieft": 4995,
      "Ġwhisper": 4996,
      "erved": 4997,
      "Ġsens": 4998,
      "Ġdance": 4999,
      "sey": 5000,
      "Ġweather": 5001,
      "ĠAg": 5002,
      "alle": 5003,
      "Ġcho": 5004,
      "Ġspread": 5005,
      "oger": 5006,
      "ometimes": 5007,
      "Ġbigger": 5008,
      "Ġpleas": 5009,
      "Ġcourt": 5010,
      "Ġconcern": 5011,
      "Jullie": 5012,
      "gin": 5013,
      "rik": 5014,
      "viously": 5015,
      "éĥ": 5016,
      "itary": 5017,
      "uture": 5018,
      "Ġrace": 5019,
      "umper": 5020,
      "Thanks": 5021,
      "åĥı": 5022,
      "set": 5023,
      "Ġide": 5024,
      "Ġoude": 5025,
      "Ġdut": 5026,
      "Ġnone": 5027,
      "eless": 5028,
      "ĠBrown": 5029,
      "Ġlaughing": 5030,
      "Ġhate": 5031,
      "Ġpath": 5032,
      "Ġzuur": 5033,
      "ograp": 5034,
      "Ġolder": 5035,
      "Ġentered": 5036,
      "Ġmarket": 5037,
      "200": 5038,
      "AM": 5039,
      "oven": 5040,
      "Ġanx": 5041,
      "ples": 5042,
      "Ġmm": 5043,
      "anks": 5044,
      "Ġclosed": 5045,
      "Ġneeded": 5046,
      "brother": 5047,
      "Ġcaused": 5048,
      "Ġbevat": 5049,
      "yard": 5050,
      "Ġzat": 5051,
      "rian": 5052,
      "Ġamount": 5053,
      "Mhm": 5054,
      "has": 5055,
      "Ġwide": 5056,
      "Ġmem": 5057,
      "Ġimmedi": 5058,
      "Ġarrived": 5059,
      "Ġmachine": 5060,
      "iqu": 5061,
      "Ġbeat": 5062,
      "ĠBer": 5063,
      "Ġsett": 5064,
      "Ġgroep": 5065,
      "Ġ2022": 5066,
      "eat": 5067,
      "Ġah": 5068,
      "stit": 5069,
      "Ġzee": 5070,
      "Ġtwelve": 5071,
      "oseph": 5072,
      "overn": 5073,
      "lijke": 5074,
      "Ġnatural": 5075,
      "Ġverhaal": 5076,
      "wat": 5077,
      "ç¦": 5078,
      "Ġdeter": 5079,
      "Ġrab": 5080,
      "äºĨä½ł": 5081,
      "STER": 5082,
      "æĹł": 5083,
      "åĬĽ": 5084,
      "è°ģ": 5085,
      "Ġsac": 5086,
      "Ġjaren": 5087,
      "Ġformed": 5088,
      "Ġreading": 5089,
      "Ġintrodu": 5090,
      "ĠCaliforn": 5091,
      "Tell": 5092,
      "yond": 5093,
      "reven": 5094,
      "Ġhond": 5095,
      "Ġander": 5096,
      "Ġcountries": 5097,
      "Ġinteresting": 5098,
      "Ġpir": 5099,
      "Ġzag": 5100,
      "Ġstories": 5101,
      "Ġchurches": 5102,
      "istory": 5103,
      "ivid": 5104,
      "ffic": 5105,
      "Ġsla": 5106,
      "Ġpupp": 5107,
      "Ġzelfs": 5108,
      "Ġpurpose": 5109,
      "Ġconsidered": 5110,
      "uin": 5111,
      "ari": 5112,
      "three": 5113,
      "ĠGener": 5114,
      "ĠFather": 5115,
      "orthern": 5116,
      "Ġlock": 5117,
      "Ġbroad": 5118,
      "Ste": 5119,
      "ziek": 5120,
      "Ġstub": 5121,
      "aanse": 5122,
      "Ġpossess": 5123,
      "40": 5124,
      "tr": 5125,
      "èĪ": 5126,
      "Ġbi": 5127,
      "Ġlab": 5128,
      "igd": 5129,
      "puts": 5130,
      "Ġdenken": 5131,
      "ĠFranklin": 5132,
      "æ³ķ": 5133,
      "\")": 5134,
      "ores": 5135,
      "Ġpal": 5136,
      "Ġeconom": 5137,
      "Ġforty": 5138,
      "Ġenige": 5139,
      "ĠPort": 5140,
      "ĠJwww": 5141,
      "åºĶ": 5142,
      "Ġsteps": 5143,
      "Ġmodern": 5144,
      "æį": 5145,
      "incess": 5146,
      "Ġmeneer": 5147,
      "Ġniemand": 5148,
      "bre": 5149,
      "kk": 5150,
      "zuur": 5151,
      "igs": 5152,
      "olut": 5153,
      "Ġsocial": 5154,
      "Ġblind": 5155,
      "ĠChina": 5156,
      "Ġzoon": 5157,
      "ĠFranc": 5158,
      "å§Ĳ": 5159,
      "ammer": 5160,
      "aked": 5161,
      "ĠMich": 5162,
      "Ġdate": 5163,
      "åħ¨": 5164,
      "Ġlikely": 5165,
      "picks": 5166,
      "take": 5167,
      "ette": 5168,
      "aling": 5169,
      "ikel": 5170,
      "oph": 5171,
      "Ġfingers": 5172,
      "Ġmoeilijk": 5173,
      "wich": 5174,
      "watch": 5175,
      "ĠÃ": 5176,
      "Ġding": 5177,
      "Ġbill": 5178,
      "ä¸ľ": 5179,
      "ĠJane": 5180,
      "Ġcrazy": 5181,
      "ĠWelke": 5182,
      "Ġbetekent": 5183,
      "Tot": 5184,
      "],": 5185,
      "inct": 5186,
      "Ġzoek": 5187,
      "Ġpeace": 5188,
      "Ġways": 5189,
      "Ġdestroy": 5190,
      "çĲĨ": 5191,
      "mother": 5192,
      "Ġliter": 5193,
      "lect": 5194,
      "lands": 5195,
      "Ġinterested": 5196,
      "ĠGermany": 5197,
      "Ġbal": 5198,
      "Ġfem": 5199,
      "Ġlich": 5200,
      "Ġreden": 5201,
      "ĠMat": 5202,
      "Ġgehe": 5203,
      "Ġhurry": 5204,
      "Mommy": 5205,
      "zicht": 5206,
      "arc": 5207,
      "ĠTer": 5208,
      "rip": 5209,
      "Ġclever": 5210,
      "Pl": 5211,
      "yep": 5212,
      "Ġwelcome": 5213,
      "Ġliked": 5214,
      "æİ¥": 5215,
      "Ġapart": 5216,
      "Ġpunten": 5217,
      "Aye": 5218,
      "Ġappe": 5219,
      "Ġzouden": 5220,
      "Ġsurr": 5221,
      "éĩį": 5222,
      "Ġjoined": 5223,
      "ĠSmith": 5224,
      "Even": 5225,
      "Zeg": 5226,
      "amma": 5227,
      "Ġplate": 5228,
      "udd": 5229,
      "Ġgebeurt": 5230,
      "Ġmeisje": 5231,
      "Mo": 5232,
      "face": 5233,
      "ieten": 5234,
      "Ġshel": 5235,
      "Ġdeclared": 5236,
      "John": 5237,
      "wanna": 5238,
      "Ġdw": 5239,
      "Ġsepar": 5240,
      "Ġasking": 5241,
      "Ġcrit": 5242,
      "Ġturning": 5243,
      "Ġcircle": 5244,
      "ĠAND": 5245,
      "mark": 5246,
      "vin": 5247,
      "ĠHu": 5248,
      "ĠHigh": 5249,
      "ĠWil": 5250,
      "è¯¥": 5251,
      "Ġcommander": 5252,
      "Ġinclude": 5253,
      "Ġjongens": 5254,
      "Un": 5255,
      "zaam": 5256,
      "Ġcream": 5257,
      "olen": 5258,
      "inder": 5259,
      "ĠRoy": 5260,
      "ĠFlor": 5261,
      "Ġdirected": 5262,
      "Ġsquare": 5263,
      "æ¡": 5264,
      "ĠChe": 5265,
      "ĠLee": 5266,
      "Ġshows": 5267,
      "Ġmonkey": 5268,
      "Ġdrop": 5269,
      "GE": 5270,
      "whis": 5271,
      "Ġ:": 5272,
      "Ġwis": 5273,
      "Ġduur": 5274,
      "Ġdrew": 5275,
      "ĠMot": 5276,
      "Ġuncle": 5277,
      "upid": 5278,
      "centr": 5279,
      "Ġoriginal": 5280,
      "Ġslowly": 5281,
      "Ġkil": 5282,
      "ulf": 5283,
      "ä½łçļĦ": 5284,
      "Ġscared": 5285,
      "ĠHowever": 5286,
      "oemd": 5287,
      "ĠAustralia": 5288,
      "Ġduidelijk": 5289,
      "Ġviol": 5290,
      "hered": 5291,
      "ĠChi": 5292,
      "ĠChurch": 5293,
      "Ġdeliver": 5294,
      "Ġsituation": 5295,
      "AL": 5296,
      "Ġnote": 5297,
      "Ġneg": 5298,
      "Ġnobody": 5299,
      "Ġfruit": 5300,
      "osh": 5301,
      "oep": 5302,
      "Ġfavorite": 5303,
      "Van": 5304,
      "Wij": 5305,
      "Ġhart": 5306,
      "Ġinsp": 5307,
      "Ġund": 5308,
      "Ġrob": 5309,
      "ĠMal": 5310,
      "ĠJust": 5311,
      "ä½į": 5312,
      "èĢģå¸Ī": 5313,
      "Ġbreath": 5314,
      "Ġnecessary": 5315,
      "Bed": 5316,
      "Give": 5317,
      "maar": 5318,
      "Ġfuture": 5319,
      "veer": 5320,
      "Ġbeyond": 5321,
      "Ġancient": 5322,
      "Ġchap": 5323,
      "ĠUS": 5324,
      "æŃ»": 5325,
      "ĠHenry": 5326,
      "AV": 5327,
      "Ġthick": 5328,
      "ĠAir": 5329,
      "ĠMag": 5330,
      "ĠHere": 5331,
      "Ġoppos": 5332,
      "ĠFraser": 5333,
      "Ġspecies": 5334,
      "Ġvarious": 5335,
      "big": 5336,
      "inter": 5337,
      "Ġhoop": 5338,
      "ĠDick": 5339,
      "Ġnotice": 5340,
      "çļĦæĹ¶åĢĻ": 5341,
      "Ġtravel": 5342,
      "Ġlargest": 5343,
      "Ġpractice": 5344,
      "Ġescape": 5345,
      "Hi": 5346,
      "OW": 5347,
      "Very": 5348,
      "inary": 5349,
      "Ġdirty": 5350,
      "Ġpink": 5351,
      "Ġsearch": 5352,
      "Ġarg": 5353,
      "åı«": 5354,
      "Ġkrijg": 5355,
      "Ġhotel": 5356,
      "Ġruim": 5357,
      "Ġchoo": 5358,
      "Ġpleasure": 5359,
      "Ġ2017": 5360,
      "Ġgeleden": 5361,
      "æ´»": 5362,
      "Ġgezegd": 5363,
      "AY": 5364,
      "raft": 5365,
      "ĠWhere": 5366,
      "Ġworse": 5367,
      "cles": 5368,
      "Ġcollege": 5369,
      "Ġofficers": 5370,
      "Ġspirit": 5371,
      "Ġcars": 5372,
      "Ġleren": 5373,
      "Ġenemy": 5374,
      "çī¹": 5375,
      "é¢ĺ": 5376,
      "han": 5377,
      "Ġogen": 5378,
      "Ġdeck": 5379,
      "ushing": 5380,
      "Ġbran": 5381,
      "ä¸Ģä¸ĭ": 5382,
      "ĠSchrijf": 5383,
      "Ġraised": 5384,
      "Ġsurprise": 5385,
      "bie": 5386,
      "sings": 5387,
      "vies": 5388,
      "Ġkort": 5389,
      "Ġ(\"": 5390,
      "uhoh": 5391,
      "Ġprobleem": 5392,
      "Ġproblems": 5393,
      "Ġcustom": 5394,
      "Ġvandaag": 5395,
      "Like": 5396,
      "Ġphys": 5397,
      "oted": 5398,
      "opt": 5399,
      "Deze": 5400,
      "Ġgrave": 5401,
      "é©¬": 5402,
      "åĵ¥": 5403,
      "Ġeduc": 5404,
      "èģ": 5405,
      "Ġbod": 5406,
      "Ġgeef": 5407,
      "Ġrese": 5408,
      "outhern": 5409,
      "Ġspelen": 5410,
      "ously": 5411,
      "Ġoccur": 5412,
      "Ġdrawing": 5413,
      "Ġorders": 5414,
      "Ġfresh": 5415,
      "Ġchocolate": 5416,
      "OT": 5417,
      "Ġrough": 5418,
      "Ġattract": 5419,
      "Ġblijft": 5420,
      "aande": 5421,
      "Hou": 5422,
      "ingly": 5423,
      "Ġhero": 5424,
      "ĠCome": 5425,
      "Ġarmy": 5426,
      "astern": 5427,
      "çĽ´": 5428,
      "Ġpromise": 5429,
      "Ġcorrect": 5430,
      "åĸľ": 5431,
      "lag": 5432,
      "ç¥": 5433,
      "atic": 5434,
      "edy": 5435,
      "oming": 5436,
      "ĠCouncil": 5437,
      "Ġhuge": 5438,
      "ĠUncle": 5439,
      "Ġprotect": 5440,
      "ä¿¡": 5441,
      "bout": 5442,
      "çĥ": 5443,
      "Ġcrew": 5444,
      "arts": 5445,
      "Ġexamen": 5446,
      "Ġvooral": 5447,
      "speech": 5448,
      "Ġfinal": 5449,
      "aturday": 5450,
      "El": 5451,
      "name": 5452,
      "æ¼": 5453,
      "ĠBra": 5454,
      "åıĭ": 5455,
      "Ġfilled": 5456,
      "olutely": 5457,
      "Ã¶": 5458,
      "Ġstream": 5459,
      "incip": 5460,
      "ĠRichard": 5461,
      "çķ": 5462,
      "Ġpocket": 5463,
      "ĠST": 5464,
      "Ġusual": 5465,
      "Ġappl": 5466,
      "Ġcheer": 5467,
      "Ġawful": 5468,
      "Ġsimply": 5469,
      "bank": 5470,
      "four": 5471,
      "ç½": 5472,
      "usion": 5473,
      "ĠGo": 5474,
      "Ġchief": 5475,
      "essie": 5476,
      "èĬ±": 5477,
      "Ġhoudt": 5478,
      "å·²ç»ı": 5479,
      "25": 5480,
      "Over": 5481,
      "Ġdressed": 5482,
      "asc": 5483,
      "aled": 5484,
      "ushes": 5485,
      "Ġeleph": 5486,
      "è¿Ļæĺ¯": 5487,
      "Ġperm": 5488,
      "Ġwanneer": 5489,
      "Ġpill": 5490,
      "Ġvond": 5491,
      "icro": 5492,
      "ĠAnt": 5493,
      "Ġunc": 5494,
      "åĪļ": 5495,
      "Ġ2010": 5496,
      "å¸¦": 5497,
      "Ġbattle": 5498,
      "ĠCalifornia": 5499,
      "',": 5500,
      "Illustr": 5501,
      "jo": 5502,
      "çĮ": 5503,
      "ini": 5504,
      "inig": 5505,
      "Ġsoms": 5506,
      "Ġbite": 5507,
      "akker": 5508,
      "ĠMount": 5509,
      "ĠStap": 5510,
      "Ġsettle": 5511,
      "ĠAnn": 5512,
      "Ġenergy": 5513,
      "Hallo": 5514,
      "Her": 5515,
      "Ġvijf": 5516,
      "ĠSant": 5517,
      "ĠNic": 5518,
      "Ġleader": 5519,
      "ĠChar": 5520,
      "Ġcarefully": 5521,
      "Nothing": 5522,
      "æĸ°": 5523,
      "Ġmotor": 5524,
      "Ġda": 5525,
      "Ġmunicip": 5526,
      "Ġkey": 5527,
      "andy": 5528,
      "Ġweap": 5529,
      "Ġshr": 5530,
      "ĠNin": 5531,
      "omething": 5532,
      "Ġ2016": 5533,
      "Ġpicked": 5534,
      "æı": 5535,
      "Ġtong": 5536,
      "Ġow": 5537,
      "orst": 5538,
      "Ġjour": 5539,
      "elled": 5540,
      "Ġsaved": 5541,
      "ĠRed": 5542,
      "Ġclaim": 5543,
      "ĠVol": 5544,
      "Ġmeaning": 5545,
      "Thomas": 5546,
      "Ġcoach": 5547,
      "Ġcolors": 5548,
      "Ġedge": 5549,
      "ĠRobert": 5550,
      "Ġvia": 5551,
      "IM": 5552,
      "oured": 5553,
      "Ġmeat": 5554,
      "arted": 5555,
      "ousin": 5556,
      "pton": 5557,
      "Ġvoed": 5558,
      "Ġnumbers": 5559,
      "Ġinflu": 5560,
      "Ġtiny": 5561,
      "esp": 5562,
      "Ġdogg": 5563,
      "ĠMil": 5564,
      "ĠWik": 5565,
      "ĠGovern": 5566,
      "osaur": 5567,
      "Ġflat": 5568,
      "Ġwerkt": 5569,
      "ashion": 5570,
      "Ġdangerous": 5571,
      "ially": 5572,
      "Ġdeg": 5573,
      "Ġrol": 5574,
      "onds": 5575,
      "Ġsevent": 5576,
      "Ġexist": 5577,
      "Ġlanden": 5578,
      "Ġhonest": 5579,
      "Qu": 5580,
      "ç´": 5581,
      "è±": 5582,
      "Ġgate": 5583,
      "Ġarch": 5584,
      "Ġ2011": 5585,
      "Ġstarts": 5586,
      "Ġbeside": 5587,
      "cast": 5588,
      "arly": 5589,
      "vell": 5590,
      "ĠWho": 5591,
      "Ġopt": 5592,
      "Ġupstairs": 5593,
      "Ġadvent": 5594,
      "SISTER": 5595,
      "çĪ±": 5596,
      "æ¬¢": 5597,
      "Ġthreat": 5598,
      "Ġrat": 5599,
      "ĠPet": 5600,
      "ĠKl": 5601,
      "osten": 5602,
      "ãĢĤ\"": 5603,
      "ledge": 5604,
      "Ġcrowd": 5605,
      "ĠIsrael": 5606,
      "rag": 5607,
      "Ġevidence": 5608,
      "Ġeigenlijk": 5609,
      "Ġstage": 5610,
      "ĠTV": 5611,
      "ĠSim": 5612,
      "ä½ĵ": 5613,
      "Ġpleased": 5614,
      "rows": 5615,
      "è§£": 5616,
      "Ġfalling": 5617,
      "ĠMinister": 5618,
      "MAR": 5619,
      "Ġshare": 5620,
      "Ġguard": 5621,
      "Ġemploy": 5622,
      "Ġskin": 5623,
      "è¿ĺæĺ¯": 5624,
      "è¿ĺæľī": 5625,
      "ceeded": 5626,
      "ç¬¬": 5627,
      "jam": 5628,
      "Ġcivil": 5629,
      "Ġlog": 5630,
      "Ġslide": 5631,
      "Ġthanks": 5632,
      "fly": 5633,
      "é¥": 5634,
      "Ġdagen": 5635,
      "Ġpounds": 5636,
      "ida": 5637,
      "ĠBarb": 5638,
      "ĠStreet": 5639,
      "Ġdifference": 5640,
      "åĩł": 5641,
      "Ġjoin": 5642,
      "ĠHarry": 5643,
      "Would": 5644,
      "èį": 5645,
      "Ġee": 5646,
      "Ġzod": 5647,
      "ĠSund": 5648,
      "Ġopge": 5649,
      "These": 5650,
      "Ġtalked": 5651,
      "Ġhelped": 5652,
      "Ġintern": 5653,
      "Ġpretend": 5654,
      "Ġwonderful": 5655,
      "Ġgar": 5656,
      "ĠSe": 5657,
      "ĠCo": 5658,
      "ĠStone": 5659,
      "Ġonderwerp": 5660,
      "Ġaccident": 5661,
      "aughty": 5662,
      "å¤§å®¶": 5663,
      "Excuse": 5664,
      "oly": 5665,
      "Ġdieren": 5666,
      "Ġhouses": 5667,
      "asons": 5668,
      "elly": 5669,
      "Ġchem": 5670,
      "æīĢä»¥": 5671,
      "eddy": 5672,
      "Ġstore": 5673,
      "Ġrout": 5674,
      "Ġhadn": 5675,
      "Ġwatched": 5676,
      "Ġ189": 5677,
      "Ġrule": 5678,
      "Ġguns": 5679,
      "Ġtijdens": 5680,
      "Ġbud": 5681,
      "Ġpas": 5682,
      "ĠBro": 5683,
      "ops": 5684,
      "umber": 5685,
      "ruk": 5686,
      "Ġsurv": 5687,
      "Ġeffort": 5688,
      "èī": 5689,
      "Ġpag": 5690,
      "ionen": 5691,
      "ĠMaak": 5692,
      "Ġmovies": 5693,
      "eller": 5694,
      "Ġverke": 5695,
      "ĠJoseph": 5696,
      "Ġlezen": 5697,
      "åĲĪ": 5698,
      "ugg": 5699,
      "ibly": 5700,
      "Ġnatuurlijk": 5701,
      "Ġchicken": 5702,
      "Ġimmediately": 5703,
      "Ġstupid": 5704,
      "imit": 5705,
      "Ġfeat": 5706,
      "Ġcalling": 5707,
      "ĠâĨĴ": 5708,
      "Ġrespons": 5709,
      "ĠCarol": 5710,
      "Ġmiljoen": 5711,
      "Illustration": 5712,
      "yal": 5713,
      "çĸ": 5714,
      "aties": 5715,
      "Ġmult": 5716,
      "ĠIII": 5717,
      "ente": 5718,
      "ĠSec": 5719,
      "ĠRus": 5720,
      "azing": 5721,
      "Ġindic": 5722,
      "Ġmountains": 5723,
      "ĠEllen": 5724,
      "Ġtax": 5725,
      "Ġsides": 5726,
      "add": 5727,
      "enten": 5728,
      "ĠJo": 5729,
      "ongress": 5730,
      "Ġtweed": 5731,
      "Ġamb": 5732,
      "å¸¸": 5733,
      "Ġbrengen": 5734,
      "22": 5735,
      "From": 5736,
      "Te": 5737,
      "erm": 5738,
      "Ġbord": 5739,
      "Ġprof": 5740,
      "Ġregular": 5741,
      "é»": 5742,
      "Ġwid": 5743,
      "itor": 5744,
      "Ġended": 5745,
      "çī©": 5746,
      "âĮī": 5747,
      ".)": 5748,
      "AC": 5749,
      "hip": 5750,
      "Ġshown": 5751,
      "Ġplain": 5752,
      "Ġcoat": 5753,
      "Ġproduced": 5754,
      "Ġmotion": 5755,
      "Ġfamilie": 5756,
      "bird": 5757,
      "len": 5758,
      "Ġvac": 5759,
      "lem": 5760,
      "airman": 5761,
      "looking": 5762,
      "Ġaction": 5763,
      "Ġ2014": 5764,
      "Ġempty": 5765,
      "Ġtrip": 5766,
      "Ġeasily": 5767,
      "çľŁçļĦ": 5768,
      "Mom": 5769,
      "Sure": 5770,
      "wait": 5771,
      "iezen": 5772,
      "ĠRome": 5773,
      "ensus": 5774,
      "Ġ2008": 5775,
      "Ġadmir": 5776,
      "Ne": 5777,
      "Pr": 5778,
      "west": 5779,
      "Ġstret": 5780,
      "istan": 5781,
      "wee": 5782,
      "Ġwake": 5783,
      "urk": 5784,
      "Ġrug": 5785,
      "ĠRo": 5786,
      "aws": 5787,
      "Ġminuten": 5788,
      "ĠNederlandse": 5789,
      "Ġfault": 5790,
      "Laten": 5791,
      "pend": 5792,
      "Ġfoto": 5793,
      "Ġspoon": 5794,
      "berg": 5795,
      "untary": 5796,
      "åĴ±": 5797,
      "Ġtone": 5798,
      "AND": 5799,
      "å·¥": 5800,
      "Ġsymb": 5801,
      "Ġexplain": 5802,
      "Ġcrayon": 5803,
      "aa": 5804,
      "Ġthrew": 5805,
      "ĠMed": 5806,
      "Ġvergelijk": 5807,
      "Ġplenty": 5808,
      "ĠFrom": 5809,
      "volution": 5810,
      "Alles": 5811,
      "Ġlangs": 5812,
      "Ġsimple": 5813,
      "çĽ¸": 5814,
      "Ġschoon": 5815,
      "äºĨä¸Ģ": 5816,
      "å°Ĩ": 5817,
      "ä¸įèĥ½": 5818,
      "Ġexpected": 5819,
      "hest": 5820,
      "aly": 5821,
      "ĠAct": 5822,
      "ĠParty": 5823,
      "ĠIntern": 5824,
      "soci": 5825,
      "Ġopening": 5826,
      "sych": 5827,
      "Ġtweede": 5828,
      "Ġwacht": 5829,
      "Ġzout": 5830,
      "Ġordered": 5831,
      "Ġearlier": 5832,
      "ijst": 5833,
      "ĠAss": 5834,
      "ittee": 5835,
      "Ġprice": 5836,
      "Ġminister": 5837,
      "fessor": 5838,
      "Pe": 5839,
      "bu": 5840,
      "boy": 5841,
      "ube": 5842,
      "yl": 5843,
      "éľ": 5844,
      "Ġinj": 5845,
      "ests": 5846,
      "ä½ı": 5847,
      "Ġheads": 5848,
      "çĪ·": 5849,
      "ĠWhite": 5850,
      "ÃŃ": 5851,
      "æ¶": 5852,
      "rees": 5853,
      "Ġcere": 5854,
      "ĠAunt": 5855,
      "ruction": 5856,
      "Ġthinks": 5857,
      "Ġflower": 5858,
      "Ġcrack": 5859,
      "Ã«n": 5860,
      "Ġspeaking": 5861,
      "Ġpolitician": 5862,
      "ä½Ĩæĺ¯": 5863,
      ",--": 5864,
      "Ġdicht": 5865,
      "icles": 5866,
      "Ġassoci": 5867,
      "antwoord": 5868,
      "those": 5869,
      "rib": 5870,
      "Ġknife": 5871,
      "Ġaffect": 5872,
      "å°ĳ": 5873,
      "åľº": 5874,
      "geten": 5875,
      "Ġ2013": 5876,
      "Ġcoast": 5877,
      "produ": 5878,
      "ago": 5879,
      "raak": 5880,
      "ĠLeg": 5881,
      "ocks": 5882,
      "Ġveilig": 5883,
      "Ġflying": 5884,
      "Ġtent": 5885,
      "Ġstap": 5886,
      "Ġdoc": 5887,
      "issen": 5888,
      "Ġstrugg": 5889,
      "ials": 5890,
      "Ġsite": 5891,
      "orough": 5892,
      "aret": 5893,
      "Ġoffer": 5894,
      "aughing": 5895,
      "ption": 5896,
      "Ġstrength": 5897,
      "çĶµ": 5898,
      "ĠâĮ": 5899,
      "organ": 5900,
      "ĠParis": 5901,
      "Ġhigher": 5902,
      "ography": 5903,
      "ĠGeneral": 5904,
      "CAT": 5905,
      "car": 5906,
      "Ġbuck": 5907,
      "utch": 5908,
      "ĠCarl": 5909,
      "Ġspend": 5910,
      "ĠAlice": 5911,
      "Ġfallen": 5912,
      "III": 5913,
      "Ġtradition": 5914,
      "ä»Ĭå¤©": 5915,
      "Ġdoel": 5916,
      "weet": 5917,
      "Ġhearing": 5918,
      "Ġarticle": 5919,
      "Ġassist": 5920,
      "MIC": 5921,
      "åŁ": 5922,
      "Ġsel": 5923,
      "Ġdread": 5924,
      "urb": 5925,
      "ĠMus": 5926,
      "ĠMama": 5927,
      "cean": 5928,
      "aped": 5929,
      "ĠIts": 5930,
      "Ġgebeurd": 5931,
      "Mag": 5932,
      "bare": 5933,
      "dro": 5934,
      "Ġtro": 5935,
      "ify": 5936,
      "ella": 5937,
      "anged": 5938,
      "åıĺ": 5939,
      "Ġrole": 5940,
      "ipper": 5941,
      "å¸®": 5942,
      "âĮĭ": 5943,
      "Really": 5944,
      "wijl": 5945,
      "Mama": 5946,
      "Our": 5947,
      "[.": 5948,
      "wr": 5949,
      "Ġsoul": 5950,
      "Ġhiding": 5951,
      "Ġlines": 5952,
      "ental": 5953,
      "ĠBet": 5954,
      "Ġboats": 5955,
      "Ġsmart": 5956,
      "Ġ2012": 5957,
      "Ġgenerally": 5958,
      "komst": 5959,
      "Ġprofessional": 5960,
      "éĥ¨": 5961,
      "89": 5962,
      "arf": 5963,
      "Ġloss": 5964,
      "eland": 5965,
      "ĠSal": 5966,
      "Ġenc": 5967,
      "Ġnoticed": 5968,
      "çļĦäºº": 5969,
      "Ġprincip": 5970,
      "Ġdaarna": 5971,
      "Ġdenkt": 5972,
      "Ġcircum": 5973,
      "Ġjourney": 5974,
      "xide": 5975,
      "init": 5976,
      "anny": 5977,
      "aries": 5978,
      "Ġgift": 5979,
      "ĠSaturday": 5980,
      "ĠBru": 5981,
      "ellig": 5982,
      "ĠOver": 5983,
      "Ġunless": 5984,
      "Ġcontain": 5985,
      "Ġmissing": 5986,
      "Ġpolitical": 5987,
      "Ġprovince": 5988,
      "Ġclimb": 5989,
      "Ġannounced": 5990,
      "HÃ©": 5991,
      "mond": 5992,
      "orden": 5993,
      "Ġnacht": 5994,
      "ĠMom": 5995,
      "Ġspoken": 5996,
      "Ġcontact": 5997,
      "Ġpersoon": 5998,
      "Ġevident": 5999,
      "è½¦": 6000,
      "Help": 6001,
      "uze": 6002,
      "Ġles": 6003,
      "ache": 6004,
      "oking": 6005,
      "ä»»": 6006,
      "aft": 6007,
      "book": 6008,
      "uig": 6009,
      "heen": 6010,
      "Ġmama": 6011,
      "Ġgang": 6012,
      "Ġvoll": 6013,
      "otte": 6014,
      "Ġangry": 6015,
      "ĠLang": 6016,
      "Ġflight": 6017,
      "åĳĬ": 6018,
      "Ġ2015": 6019,
      "Ġlieutenant": 6020,
      "Ġhistor": 6021,
      "23": 6022,
      "70": 6023,
      "80": 6024,
      "Bob": 6025,
      "Listen": 6026,
      "Sir": 6027,
      "âĢ¢": 6028,
      "Ġonto": 6029,
      "iep": 6030,
      "ĠCa": 6031,
      "Ġ[?": 6032,
      "Ġyew": 6033,
      "uiten": 6034,
      "Ġtrem": 6035,
      "ĠScot": 6036,
      "Ġprivate": 6037,
      "Ġtien": 6038,
      "Ġax": 6039,
      "ĠSen": 6040,
      "Ġallow": 6041,
      "å¤ĸ": 6042,
      "å®Į": 6043,
      "isteren": 6044,
      "Ġ2009": 6045,
      "Ġdouble": 6046,
      "Ġstruck": 6047,
      "Bedankt": 6048,
      "Say": 6049,
      "Ġaand": 6050,
      "ĠMum": 6051,
      "ĠGreen": 6052,
      "pper": 6053,
      "Ġanywhere": 6054,
      "Ġgrad": 6055,
      "these": 6056,
      "å®ī": 6057,
      "Ġmostly": 6058,
      "Ġkleur": 6059,
      "Ġimpro": 6060,
      "Mrs": 6061,
      "21": 6062,
      "Two": 6063,
      "laughing": 6064,
      "ragen": 6065,
      "Ġmorgen": 6066,
      "ĠTob": 6067,
      "ĠAre": 6068,
      "ĠPion": 6069,
      "Ġbloed": 6070,
      "Ġgesl": 6071,
      "Ġoccup": 6072,
      "Tr": 6073,
      "eur": 6074,
      "Ġsell": 6075,
      "Ġbeast": 6076,
      "ĠBoy": 6077,
      "ols": 6078,
      "ĠLaura": 6079,
      "Ġlights": 6080,
      "Ġbekend": 6081,
      "24": 6082,
      "]!": 6083,
      "five": 6084,
      "pet": 6085,
      "sil": 6086,
      "yr": 6087,
      "zij": 6088,
      "åĶ": 6089,
      "Ġdem": 6090,
      "Ġflag": 6091,
      "åĬŀ": 6092,
      "Ġsurprised": 6093,
      "ç¾İ": 6094,
      "55": 6095,
      "Dor": 6096,
      "History": 6097,
      "Ġobl": 6098,
      "itter": 6099,
      "ĠAc": 6100,
      "Ġverg": 6101,
      "Ġtears": 6102,
      "beren": 6103,
      "Ġhappening": 6104,
      "Ġaccording": 6105,
      "Ġgevaar": 6106,
      "Ġgevonden": 6107,
      "Ġconduct": 6108,
      "ĠQueen": 6109,
      "Ġident": 6110,
      "onge": 6111,
      "Ġgat": 6112,
      "unity": 6113,
      "Ġ2000": 6114,
      "Ġcheek": 6115,
      "åĽĽ": 6116,
      "Ġexcited": 6117,
      "Ġontstaan": 6118,
      "Ġrivier": 6119,
      "ĠSunday": 6120,
      "bow": 6121,
      "bal": 6122,
      "sen": 6123,
      "Ġ#": 6124,
      "Ġmir": 6125,
      "Ġlopen": 6126,
      "ila": 6127,
      "Ġlekker": 6128,
      "Ġprint": 6129,
      "Does": 6130,
      "éĥ½æĺ¯": 6131,
      "invol": 6132,
      "Ġmile": 6133,
      "Ġnon": 6134,
      "Ġren": 6135,
      "ĠAmy": 6136,
      "istr": 6137,
      "Ġeruit": 6138,
      "Ġschrijven": 6139,
      "ä½łè¯´": 6140,
      "Ġdollars": 6141,
      "Ġcollect": 6142,
      "æ¯ı": 6143,
      "Ġappearance": 6144,
      "Ġflew": 6145,
      "Ġchoice": 6146,
      "dad": 6147,
      "asp": 6148,
      "Ġziek": 6149,
      "Ġrange": 6150,
      "Ġroof": 6151,
      "ĠSarah": 6152,
      "Ġbye": 6153,
      "Ġprincess": 6154,
      "ĠCharl": 6155,
      "Ġbescher": 6156,
      "Ġwachten": 6157,
      "atuur": 6158,
      "Ġmel": 6159,
      "Ġsuc": 6160,
      "Ġschip": 6161,
      "Ġsmoke": 6162,
      "Ġdesp": 6163,
      "Ġphot": 6164,
      "Ġtaste": 6165,
      "Ġongeveer": 6166,
      "Ġelephant": 6167,
      "Maak": 6168,
      "icious": 6169,
      "sequ": 6170,
      "ĠMor": 6171,
      "blue": 6172,
      "åħī": 6173,
      "Ġhunting": 6174,
      "ios": 6175,
      "kig": 6176,
      "rie": 6177,
      "Ġaud": 6178,
      "Ġkracht": 6179,
      "sex": 6180,
      "Ġships": 6181,
      "Ġhandle": 6182,
      "Ġtells": 6183,
      "ibility": 6184,
      "Ġfarmer": 6185,
      "äºĭåĦ¿": 6186,
      "UT": 6187,
      "ç³": 6188,
      "çĹ": 6189,
      "Ġtou": 6190,
      "Ġweinig": 6191,
      "irl": 6192,
      "Ġneer": 6193,
      "Ġspel": 6194,
      "ograph": 6195,
      "Ġsmell": 6196,
      "iction": 6197,
      "Ġplek": 6198,
      "ointed": 6199,
      "Ġdriving": 6200,
      "Ġcurrent": 6201,
      "Ġouders": 6202,
      "ĠJimmie": 6203,
      "Ġimagine": 6204,
      "GMO": 6205,
      "oons": 6206,
      "Ġpound": 6207,
      "staande": 6208,
      "Ġschrij": 6209,
      "Ġshoulder": 6210,
      "Ġwaarsch": 6211,
      "Ġrocks": 6212,
      "Ġstruct": 6213,
      "Ġontstaat": 6214,
      "known": 6215,
      "Ġpuzzle": 6216,
      "involuntary": 6217,
      "ano": 6218,
      "umn": 6219,
      "ĠLo": 6220,
      "ensive": 6221,
      "Ġlistening": 6222,
      "Ġdeterm": 6223,
      "huis": 6224,
      "tje": 6225,
      "regen": 6226,
      "igan": 6227,
      "Ġrot": 6228,
      "Ġmyster": 6229,
      "ĠFirst": 6230,
      "Ġremained": 6231,
      "åĵİ": 6232,
      "Ġindust": 6233,
      "åı¯èĥ½": 6234,
      "Ġdruk": 6235,
      "æĽ´": 6236,
      "60": 6237,
      "nam": 6238,
      "Ġhey": 6239,
      "Ġlion": 6240,
      "asing": 6241,
      "ĠBay": 6242,
      "Ġshoe": 6243,
      "æĪĳå°±": 6244,
      "Ġproud": 6245,
      "Ġterms": 6246,
      "ĠIndians": 6247,
      "ommige": 6248,
      "Ġpromised": 6249,
      "Ġcommunity": 6250,
      "Which": 6251,
      "Luister": 6252,
      "bury": 6253,
      "Ġtim": 6254,
      "Ġcro": 6255,
      "urry": 6256,
      "Ġrope": 6257,
      "ables": 6258,
      "Ġsav": 6259,
      "Ġspeech": 6260,
      "Ġagree": 6261,
      "ĠVir": 6262,
      "Ġscream": 6263,
      "æĿ¥äºĨ": 6264,
      "Ġacqu": 6265,
      "ashington": 6266,
      "Ġduty": 6267,
      "Ġtun": 6268,
      "orter": 6269,
      "Ġnurs": 6270,
      "Ġmob": 6271,
      "Ġneither": 6272,
      "istic": 6273,
      "Ġuitge": 6274,
      "Ġscene": 6275,
      "Ġtotal": 6276,
      "Ġevil": 6277,
      "éĺŁ": 6278,
      "Ġsuggested": 6279,
      "Ġforgotten": 6280,
      "åĺĽ": 6281,
      "Bij": 6282,
      "pot": 6283,
      "Ã¼": 6284,
      "orie": 6285,
      "Ġbeach": 6286,
      "ĠAust": 6287,
      "ĠEarth": 6288,
      "Ġaange": 6289,
      "Ġ2007": 6290,
      "Ġmissed": 6291,
      "Ġbasket": 6292,
      "åŃ©åŃĲ": 6293,
      "Dad": 6294,
      "rick": 6295,
      "ucht": 6296,
      "itie": 6297,
      "Ġhorn": 6298,
      "Ġfant": 6299,
      "adow": 6300,
      "Ġenorm": 6301,
      "Ġscient": 6302,
      "ekt": 6303,
      "atsy": 6304,
      "rica": 6305,
      "Ġprepared": 6306,
      "Nin": 6307,
      "é¦": 6308,
      "Ġhoort": 6309,
      "Ġvalt": 6310,
      "choo": 6311,
      "Ġweight": 6312,
      "ĠCup": 6313,
      "Ġfles": 6314,
      "ä¸įä¼ļ": 6315,
      "Ġneedta": 6316,
      "Ġmaxim": 6317,
      "Ġburied": 6318,
      "ĠJapanese": 6319,
      "ka": 6320,
      "oups": 6321,
      "arily": 6322,
      "Ġrom": 6323,
      "ĠTor": 6324,
      "alley": 6325,
      "Ġgenoemd": 6326,
      "Ġfighting": 6327,
      "Ġgehad": 6328,
      "Ġcompletely": 6329,
      "å©": 6330,
      "Ġdust": 6331,
      "Ġhulp": 6332,
      "Ġpak": 6333,
      "ading": 6334,
      "Ġwearing": 6335,
      "ĠMel": 6336,
      "aars": 6337,
      "illa": 6338,
      "ĠDem": 6339,
      "Ġervoor": 6340,
      "æľĭ": 6341,
      "Ġadult": 6342,
      "æĢ»": 6343,
      "å¼ł": 6344,
      "ĠEurop": 6345,
      "Ġoccasion": 6346,
      "Sc": 6347,
      "col": 6348,
      "Ġwink": 6349,
      "Ġlicht": 6350,
      "ĠMont": 6351,
      "angers": 6352,
      "æĪĳæĺ¯": 6353,
      "iaal": 6354,
      "Ġbub": 6355,
      "Ġbroer": 6356,
      "Ġartikel": 6357,
      "ators": 6358,
      "Ġpurs": 6359,
      "ĠArab": 6360,
      "ĠJud": 6361,
      "ĠEleanor": 6362,
      "Ġprevent": 6363,
      "Ġontw": 6364,
      "Ġtelef": 6365,
      "Ġmeeste": 6366,
      "éĶĻ": 6367,
      "ĠMichael": 6368,
      "oved": 6369,
      "Ġheat": 6370,
      "uro": 6371,
      "ĠDis": 6372,
      "ĠDoor": 6373,
      "Ġopport": 6374,
      "aine": 6375,
      "ĠEven": 6376,
      "ĠFred": 6377,
      "æľĪ": 6378,
      "ä¸įè¦ģ": 6379,
      "Ġcenter": 6380,
      "Ġindivid": 6381,
      ":\"": 6382,
      "Nat": 6383,
      "Nog": 6384,
      "craft": 6385,
      "pre": 6386,
      "va": 6387,
      "Ġteddy": 6388,
      "Ġvent": 6389,
      "Ġgrot": 6390,
      "reeg": 6391,
      "Ġdesert": 6392,
      "Ġmistake": 6393,
      "Ġrules": 6394,
      "åħ¶å®ŀ": 6395,
      "æľĭåıĭ": 6396,
      "Gu": 6397,
      "Ġoef": 6398,
      "Ġfully": 6399,
      "Ġnarrow": 6400,
      "ety": 6401,
      "ĠSid": 6402,
      "ĠBig": 6403,
      "ĠEmp": 6404,
      "Ġsomewhat": 6405,
      "Ġarrest": 6406,
      "ç»ĵ": 6407,
      "fe": 6408,
      "æ»": 6409,
      "lly": 6410,
      "Ġpsych": 6411,
      "ĠMex": 6412,
      "ĠLab": 6413,
      "Ġvraagt": 6414,
      "ĠIrish": 6415,
      "Ġfemale": 6416,
      "ME": 6417,
      "nem": 6418,
      "vious": 6419,
      "zak": 6420,
      "stood": 6421,
      "Ġkool": 6422,
      "apes": 6423,
      "æľº": 6424,
      "Ġmilitary": 6425,
      "ĠHoward": 6426,
      "Ġlucky": 6427,
      "Ġtongue": 6428,
      "fa": 6429,
      "iation": 6430,
      "try": 6431,
      "Ġcage": 6432,
      "Ġcousin": 6433,
      "Ġpijn": 6434,
      "Ġnaughty": 6435,
      "Ġlake": 6436,
      "Ġweak": 6437,
      "ĠMany": 6438,
      "ante": 6439,
      "icked": 6440,
      "Ġwalks": 6441,
      "Ġpersonal": 6442,
      "Ġvrienden": 6443,
      "Ġnieuws": 6444,
      "Ġenkele": 6445,
      "dag": 6446,
      "ĠhÃ¨": 6447,
      "rol": 6448,
      "roat": 6449,
      "using": 6450,
      "istics": 6451,
      "Ġelection": 6452,
      "ĠChampion": 6453,
      "Ġbeginnen": 6454,
      "Ġimm": 6455,
      "Ġbits": 6456,
      "uwen": 6457,
      "ĠLeague": 6458,
      "Ġbrain": 6459,
      "Ġradio": 6460,
      "Ġestab": 6461,
      "ĠWashington": 6462,
      "åıĹ": 6463,
      "ĠState": 6464,
      "çľ¼": 6465,
      "Ġenter": 6466,
      "Ġsilent": 6467,
      "Ġstraw": 6468,
      "ĠItalian": 6469,
      "IE": 6470,
      "Ġ)": 6471,
      "Ġsake": 6472,
      "ĠEvery": 6473,
      "Ġagreed": 6474,
      "Ġcloth": 6475,
      "ictor": 6476,
      "Ġkeeping": 6477,
      "annel": 6478,
      "ebruik": 6479,
      "Ġbrothers": 6480,
      "Ġeinde": 6481,
      "ĠItaly": 6482,
      "nonspeech": 6483,
      "Kl": 6484,
      "TUR": 6485,
      "Ġaver": 6486,
      "Ġgere": 6487,
      "omer": 6488,
      "uster": 6489,
      "Ġalsof": 6490,
      "elebr": 6491,
      "Ġ2006": 6492,
      "Ġemb": 6493,
      "apped": 6494,
      "åĵĪ": 6495,
      "éĿŀ": 6496,
      "Mother": 6497,
      "SE": 6498,
      "ala": 6499,
      "ademy": 6500,
      "ĠSalle": 6501,
      "ĠMart": 6502,
      "enden": 6503,
      "...?": 6504,
      "Ġtwice": 6505,
      "brand": 6506,
      "æĭ¿": 6507,
      "ĠKingdom": 6508,
      "Ġtitle": 6509,
      "Ġprecies": 6510,
      "å¨": 6511,
      "Ġtheory": 6512,
      "ato": 6513,
      "alled": 6514,
      "Ġopin": 6515,
      "oden": 6516,
      "Ġwatches": 6517,
      "Ġserve": 6518,
      "éĤ£ä¹Ī": 6519,
      "ĠLeon": 6520,
      "Ġliggen": 6521,
      "Ġcommunic": 6522,
      "Ġfixed": 6523,
      "ĠBelg": 6524,
      "hah": 6525,
      "ç±": 6526,
      "Ġtight": 6527,
      "Ġtaught": 6528,
      "Ġmut": 6529,
      "Ġtoast": 6530,
      "Ġstoffen": 6531,
      "ĠBest": 6532,
      "illiant": 6533,
      "Ġsurface": 6534,
      "Ġmagn": 6535,
      "Ġrelation": 6536,
      "Ġstands": 6537,
      "iament": 6538,
      "Ġteleph": 6539,
      "athy": 6540,
      "Ġfaint": 6541,
      "Ġzon": 6542,
      "Ġzoeken": 6543,
      "Ġjezelf": 6544,
      "ĠChild": 6545,
      "inese": 6546,
      "Ġautom": 6547,
      "Ġpublished": 6548,
      "Ġpurple": 6549,
      "yyy": 6550,
      "Ġcomplete": 6551,
      "Ġapproach": 6552,
      "Ġmunicipality": 6553,
      "Kan": 6554,
      "Peter": 6555,
      "Ġlips": 6556,
      "Ġvij": 6557,
      "Ġnoem": 6558,
      "Ġstarting": 6559,
      "Ġsmaller": 6560,
      "Ġwalls": 6561,
      "Welke": 6562,
      "ĠRoyal": 6563,
      "GER": 6564,
      "host": 6565,
      "oer": 6566,
      "reden": 6567,
      "Ġdun": 6568,
      "Ġlies": 6569,
      "vey": 6570,
      "veren": 6571,
      "Ġrare": 6572,
      "Ġzoveel": 6573,
      "Ġpulled": 6574,
      "Ġgrootste": 6575,
      "Ad": 6576,
      "IV": 6577,
      "May": 6578,
      "iens": 6579,
      "éħ": 6580,
      "Ġtries": 6581,
      "Ġhath": 6582,
      "Ġcred": 6583,
      "edig": 6584,
      "asy": 6585,
      "Ġdeur": 6586,
      "ĠSk": 6587,
      "ĠGil": 6588,
      "Ġplat": 6589,
      "Ġscrew": 6590,
      "è¯·": 6591,
      "Ġsinger": 6592,
      "Ġfavour": 6593,
      "Ġhello": 6594,
      "Ġcompanion": 6595,
      "bus": 6596,
      "zig": 6597,
      "Ġtiger": 6598,
      "Ġune": 6599,
      "ĠON": 6600,
      "chester": 6601,
      "avan": 6602,
      "ossible": 6603,
      "Ġmagnet": 6604,
      "Ġavail": 6605,
      "å¦Ĥæŀľ": 6606,
      "Ġfrequ": 6607,
      "åĸľæ¬¢": 6608,
      "Never": 6609,
      "ares": 6610,
      "ridge": 6611,
      "Ġsen": 6612,
      "Ġmummy": 6613,
      "Ġhug": 6614,
      "anda": 6615,
      "Ġopp": 6616,
      "bey": 6617,
      "Ġgroups": 6618,
      "Ġcris": 6619,
      "åĬł": 6620,
      "ĠIsland": 6621,
      "Ġlocated": 6622,
      "ĠCanada": 6623,
      "Ã±": 6624,
      "æ·": 6625,
      "èĲ": 6626,
      "Ġfaces": 6627,
      "Ġkreeg": 6628,
      "Ġstom": 6629,
      "ĠBern": 6630,
      "ensen": 6631,
      "Ġoffered": 6632,
      "Ġcontract": 6633,
      "æĢĿ": 6634,
      "Ġexperience": 6635,
      "ĠSteven": 6636,
      "GH": 6637,
      "Toen": 6638,
      "lie": 6639,
      "ym": 6640,
      "esc": 6641,
      "Ġpair": 6642,
      "ĠNet": 6643,
      "ĠJul": 6644,
      "Ġknowledge": 6645,
      "Ġbutton": 6646,
      "Ġ35": 6647,
      "Ġbegint": 6648,
      "Ġactor": 6649,
      "ontin": 6650,
      "Ġgevoel": 6651,
      "Ġtraining": 6652,
      "Ġechte": 6653,
      "Ġblocks": 6654,
      "Ġrepeated": 6655,
      "Tom": 6656,
      "Ġfolk": 6657,
      "ima": 6658,
      "ims": 6659,
      "illed": 6660,
      "Ġtext": 6661,
      "arsh": 6662,
      "Ġdrag": 6663,
      "Ġshowing": 6664,
      "Ġsteamer": 6665,
      "Ġbatter": 6666,
      "Ġcalm": 6667,
      "Ġsandwich": 6668,
      "ç¦»": 6669,
      "90": 6670,
      "oning": 6671,
      "Ġwebs": 6672,
      "rain": 6673,
      "ĠPri": 6674,
      "Ġgevol": 6675,
      "ĠFin": 6676,
      "å¹³": 6677,
      "Perhaps": 6678,
      "Ġrabbit": 6679,
      "rid": 6680,
      "sorry": 6681,
      "Ġstones": 6682,
      "ĠSand": 6683,
      "ĠPur": 6684,
      "ria": 6685,
      "Ġmeteen": 6686,
      "Ġaged": 6687,
      "ĠChairman": 6688,
      "Ġpapa": 6689,
      "ç¨": 6690,
      "Ġx": 6691,
      "Ġï¿½": 6692,
      "Ġinqu": 6693,
      "opl": 6694,
      "ighs": 6695,
      "Ġontmo": 6696,
      "Ġsword": 6697,
      "Ġruns": 6698,
      "Ġobt": 6699,
      "Only": 6700,
      "Ġreply": 6701,
      "ĠSpanish": 6702,
      "make": 6703,
      "zien": 6704,
      "Ġnut": 6705,
      "Ġstairs": 6706,
      "ĠMills": 6707,
      "ĠBilly": 6708,
      "ĠGro": 6709,
      "should": 6710,
      "Ġcalls": 6711,
      "ĠArt": 6712,
      "è·¯": 6713,
      "Ġlichaam": 6714,
      "Mar": 6715,
      "Ġere": 6716,
      "Ġbarn": 6717,
      "isn": 6718,
      "Ġkm": 6719,
      "pping": 6720,
      "Ġpresence": 6721,
      "ĠLees": 6722,
      "Ġdriver": 6723,
      "dog": 6724,
      "erc": 6725,
      "Ġfirm": 6726,
      "ĠBu": 6727,
      "ĠJones": 6728,
      "--\"": 6729,
      "Ġtrick": 6730,
      "Ġgeloof": 6731,
      "ĠSov": 6732,
      "ĠProfessor": 6733,
      "Ġjudge": 6734,
      "Ġmentioned": 6735,
      "ĠAngel": 6736,
      "Ġrapid": 6737,
      "ä¸ľè¥¿": 6738,
      "WE": 6739,
      "ba": 6740,
      "ban": 6741,
      "Ġboss": 6742,
      "Ġcases": 6743,
      "Ġcensus": 6744,
      "Ġstates": 6745,
      "ĠCongress": 6746,
      "Ġafford": 6747,
      "Ġexpand": 6748,
      "schap": 6749,
      "çİ©": 6750,
      "Ġproblemen": 6751,
      "Ġlawyer": 6752,
      "Ġchanges": 6753,
      "Ġrisk": 6754,
      "Ġswimming": 6755,
      "Vol": 6756,
      "jest": 6757,
      "nis": 6758,
      "ç²": 6759,
      "atives": 6760,
      "ĠDid": 6761,
      "ulty": 6762,
      "ements": 6763,
      "Ġexec": 6764,
      "Ġdownstairs": 6765,
      "ãĢģ": 6766,
      "Ġbloody": 6767,
      "Ġfrightened": 6768,
      "AU": 6769,
      "laugh": 6770,
      "Ġvak": 6771,
      "Ġstond": 6772,
      "Ġash": 6773,
      "ĠOK": 6774,
      "Ġwaters": 6775,
      "Ġbrush": 6776,
      "åĲį": 6777,
      "ä¸įçŁ¥éģĵ": 6778,
      "Ġgreatest": 6779,
      "Ġdesk": 6780,
      "pect": 6781,
      "rot": 6782,
      "zil": 6783,
      "enny": 6784,
      "Ġleeft": 6785,
      "Ġrate": 6786,
      "ĠBE": 6787,
      "Ġnoemen": 6788,
      "acks": 6789,
      "ĠFar": 6790,
      "åı£": 6791,
      "Ġmuziek": 6792,
      "Ġwaardoor": 6793,
      "Ġhonor": 6794,
      "Che": 6795,
      "Zijn": 6796,
      "hum": 6797,
      "Ġsour": 6798,
      "Ġpra": 6799,
      "Ġvuur": 6800,
      "ĠSl": 6801,
      "think": 6802,
      "Ġworst": 6803,
      "ourt": 6804,
      "Ġunto": 6805,
      "Ġmagaz": 6806,
      "Ġnatuur": 6807,
      "ĠMajor": 6808,
      "vocalizes": 6809,
      "Ġgeweldig": 6810,
      "Ġzodat": 6811,
      "Ġcircumst": 6812,
      "Act": 6813,
      "Ell": 6814,
      "houd": 6815,
      "ville": 6816,
      "Ġstre": 6817,
      "Ġmeasure": 6818,
      "Ġmoves": 6819,
      "ĠLand": 6820,
      "ĠTheir": 6821,
      "ĠOld": 6822,
      "Ġeleven": 6823,
      "Ġwaarin": 6824,
      "Ġwriter": 6825,
      "Ġstudents": 6826,
      "Ġsongs": 6827,
      "Ġdeveloped": 6828,
      "Ġbowl": 6829,
      "æĴ": 6830,
      "Ġcy": 6831,
      "Ġvallen": 6832,
      "ieke": 6833,
      "urity": 6834,
      "ĠNorm": 6835,
      "ĠJesus": 6836,
      "onde": 6837,
      "Ġgrowing": 6838,
      "ilder": 6839,
      "Ġfounded": 6840,
      "Ġsupper": 6841,
      "Ġcolon": 6842,
      "Ġinvestig": 6843,
      "Ġliever": 6844,
      "Ġindepend": 6845,
      "Ġbabies": 6846,
      "hee": 6847,
      "Ġwings": 6848,
      "Ġdozen": 6849,
      "ĠMac": 6850,
      "Ġappre": 6851,
      "Ġdrawn": 6852,
      "Ġevents": 6853,
      "fortun": 6854,
      "Ġzetten": 6855,
      "ique": 6856,
      "éª": 6857,
      "Ġbare": 6858,
      "Ġfiets": 6859,
      "Ġvocal": 6860,
      "Ġmeal": 6861,
      "ĠSil": 6862,
      "anten": 6863,
      "Ġmogen": 6864,
      "ĠChinese": 6865,
      "Ġfourth": 6866,
      "Ġweekend": 6867,
      "going": 6868,
      "Ġdecision": 6869,
      "ĠAfrica": 6870,
      "çĻ¾": 6871,
      "Ġgentlemen": 6872,
      "Ġholiday": 6873,
      "Ġvessel": 6874,
      "ĠHubert": 6875,
      "85": 6876,
      "Fuck": 6877,
      "Ph": 6878,
      "Ġheer": 6879,
      "Ġlord": 6880,
      "illgrim": 6881,
      "ä¸ĩ": 6882,
      "Ġknee": 6883,
      "Ġareas": 6884,
      "inda": 6885,
      "Ġchoose": 6886,
      "Ġervan": 6887,
      "ä½ķ": 6888,
      "osta": 6889,
      "whoops": 6890,
      "ĠJohnny": 6891,
      "Ġwheels": 6892,
      "zzz": 6893,
      "Ġservices": 6894,
      "æ°ĳ": 6895,
      "å£°": 6896,
      "Ġinvolved": 6897,
      "Ġpleasant": 6898,
      "75": 6899,
      "Ind": 6900,
      "oi": 6901,
      "ç¤": 6902,
      "çħ": 6903,
      "Ġtar": 6904,
      "Ġfout": 6905,
      "Ġfashion": 6906,
      "ented": 6907,
      "äº²": 6908,
      "Ġboot": 6909,
      "ateg": 6910,
      "Ġclock": 6911,
      "ä»ĸçļĦ": 6912,
      "Ġfigures": 6913,
      "ih": 6914,
      "çª": 6915,
      "Ġsorrow": 6916,
      "Ġyards": 6917,
      "ĠLady": 6918,
      "Ġorde": 6919,
      "Ġdoors": 6920,
      "ĠJean": 6921,
      "åĪ°äºĨ": 6922,
      "Ġhurried": 6923,
      "éļ¾": 6924,
      "initely": 6925,
      "Am": 6926,
      "Car": 6927,
      "Denk": 6928,
      "aj": 6929,
      "rad": 6930,
      "Ġcell": 6931,
      "Ġworried": 6932,
      "ĠLaw": 6933,
      "çĶ·": 6934,
      "leding": 6935,
      "OO": 6936,
      "Ġvir": 6937,
      "ĠIllustr": 6938,
      "stelling": 6939,
      "eman": 6940,
      "Ġ()": 6941,
      "itte": 6942,
      "Ġmanaged": 6943,
      "ships": 6944,
      "Ġvrouwen": 6945,
      "Ġformula": 6946,
      "äºĭæĥħ": 6947,
      "Ġfailed": 6948,
      "FRI": 6949,
      "fin": 6950,
      "ç¡": 6951,
      "ona": 6952,
      "oost": 6953,
      "Ġstro": 6954,
      "sec": 6955,
      "ĠMax": 6956,
      "ĠRay": 6957,
      "ĠRock": 6958,
      "ppen": 6959,
      "ohol": 6960,
      "Ġsugar": 6961,
      "Ġbene": 6962,
      "Ġgebied": 6963,
      "Ġ60": 6964,
      "raagd": 6965,
      "Ġvloe": 6966,
      "Ġteach": 6967,
      "éĢļ": 6968,
      "Ġdare": 6969,
      "Ġdise": 6970,
      "onse": 6971,
      "igde": 6972,
      "ĠAan": 6973,
      "ĠWood": 6974,
      "action": 6975,
      "è®¤": 6976,
      "Ġbeauty": 6977,
      "Ġcondition": 6978,
      "Ġmooie": 6979,
      "Ġcarrying": 6980,
      "æĻļ": 6981,
      "ĠOlympics": 6982,
      "ĠEmpire": 6983,
      "76": 6984,
      "84": 6985,
      "99": 6986,
      "bro": 6987,
      "beep": 6988,
      "vat": 6989,
      "Ġhm": 6990,
      "Ġharm": 6991,
      "oorten": 6992,
      "gem": 6993,
      "Ġleger": 6994,
      "Ġexpression": 6995,
      "å±±": 6996,
      "ĠPeople": 6997,
      "Ġcabin": 6998,
      "IR": 6999,
      "gh": 7000,
      "wing": 7001,
      "Ġbisc": 7002,
      "ede": 7003,
      "Ġfox": 7004,
      "Ġpor": 7005,
      "Ġrail": 7006,
      "ĠTy": 7007,
      "Ġhers": 7008,
      "Ġsoc": 7009,
      "Ġloves": 7010,
      "leden": 7011,
      "Ġdrinking": 7012,
      "Ġstudio": 7013,
      "æŃ¤": 7014,
      "ĠDisney": 7015,
      "could": 7016,
      "gress": 7017,
      "Ġinno": 7018,
      "Ġvle": 7019,
      "Ġzak": 7020,
      "iken": 7021,
      "ĠBang": 7022,
      "ĠDay": 7023,
      "äºĶ": 7024,
      "Ġkunst": 7025,
      "Ġfinding": 7026,
      "Ġvoet": 7027,
      "Ġschools": 7028,
      "Ġfellows": 7029,
      "Ġaddress": 7030,
      "Ġcraw": 7031,
      "Ġquietly": 7032,
      "ĠBlacky": 7033,
      "Ġnormal": 7034,
      "Ġmaterial": 7035,
      "cohol": 7036,
      "Ġce": 7037,
      "Ġcelebr": 7038,
      "omst": 7039,
      "Ġeager": 7040,
      "ĠDist": 7041,
      "Ġhetzelfde": 7042,
      "ienst": 7043,
      "Ġpointed": 7044,
      "Ġaddition": 7045,
      "ĠDoctor": 7046,
      "26": 7047,
      "cries": 7048,
      "yellow": 7049,
      "Ġeld": 7050,
      "Ġloopt": 7051,
      "Ġkamer": 7052,
      "ĠWal": 7053,
      "indelijk": 7054,
      "ĠLake": 7055,
      "Ġgrown": 7056,
      "Ġschuld": 7057,
      "aalde": 7058,
      "Ġterwijl": 7059,
      "Ġchest": 7060,
      "volgens": 7061,
      "Ġprofessor": 7062,
      "Ġopposite": 7063,
      "Ġtelephone": 7064,
      "woorden": 7065,
      "æĳ": 7066,
      "èİ": 7067,
      "anen": 7068,
      "ĠSea": 7069,
      "ĠFel": 7070,
      "Ġspreken": 7071,
      "Ġcrime": 7072,
      "Ġsnap": 7073,
      "Ġslept": 7074,
      "Ġdirector": 7075,
      "ĠJackson": 7076,
      "Ġdevelopment": 7077,
      "Ġneemt": 7078,
      "Ġepis": 7079,
      "35": 7080,
      "Con": 7081,
      "IED": 7082,
      "too": 7083,
      "uke": 7084,
      "Ġbother": 7085,
      "itz": 7086,
      "Ġpale": 7087,
      "Ġeerder": 7088,
      "amber": 7089,
      "ĠPeg": 7090,
      "Ġsits": 7091,
      "Ġgroe": 7092,
      "Ġmerch": 7093,
      "Ġexplained": 7094,
      "ĠPlay": 7095,
      "Ġvalue": 7096,
      "Ġvliegt": 7097,
      "TT": 7098,
      "fall": 7099,
      "father": 7100,
      "zing": 7101,
      "Ġpool": 7102,
      "Ġrow": 7103,
      "ĠHay": 7104,
      "ĠLat": 7105,
      "Ġproberen": 7106,
      "ĠHey": 7107,
      "Ġgreater": 7108,
      "Ġmonster": 7109,
      "Ġpassing": 7110,
      "Ġretired": 7111,
      "Ġsettled": 7112,
      "Ġdiam": 7113,
      "isa": 7114,
      "Ġcouncil": 7115,
      "Ġdemon": 7116,
      "ĠSummer": 7117,
      "aga": 7118,
      "ĠPatsy": 7119,
      "Ġ31": 7120,
      "Ġeverywhere": 7121,
      "Ġstudent": 7122,
      "Ġjumped": 7123,
      "ç®¡": 7124,
      "Ġinhoud": 7125,
      "Ġmedicine": 7126,
      "hib": 7127,
      "ias": 7128,
      "Ġmaat": 7129,
      "Ġemer": 7130,
      "ĠTwo": 7131,
      "ĠDutch": 7132,
      "inkt": 7133,
      "Ġfeest": 7134,
      "Ġuitleg": 7135,
      "peror": 7136,
      "Ġeaten": 7137,
      "Ġfunct": 7138,
      "while": 7139,
      "æĹ¶éĹ´": 7140,
      "Ġabsolutely": 7141,
      "ibrary": 7142,
      "Captain": 7143,
      "green": 7144,
      "kin": 7145,
      "ners": 7146,
      "Ġcart": 7147,
      "Ġpaard": 7148,
      "emd": 7149,
      "ä»¶": 7150,
      "weer": 7151,
      "Ġschrijf": 7152,
      "Ġ45": 7153,
      "komt": 7154,
      "uf": 7155,
      "win": 7156,
      "Ġtaal": 7157,
      "ences": 7158,
      "Ġhar": 7159,
      "oned": 7160,
      "stone": 7161,
      "urse": 7162,
      "Ġshock": 7163,
      "ĠPost": 7164,
      "ĠFox": 7165,
      "iverse": 7166,
      "Ġleading": 7167,
      "ĠCompton": 7168,
      "è°¢è°¢": 7169,
      "JES": 7170,
      "Ġ--": 7171,
      "Ġtor": 7172,
      "atory": 7173,
      "Ġbug": 7174,
      "Ġbedo": 7175,
      "èĢħ": 7176,
      "Ġyounger": 7177,
      "Ġlarger": 7178,
      "Ġfifteen": 7179,
      "Blijf": 7180,
      "bet": 7181,
      "bot": 7182,
      "las": 7183,
      "lam": 7184,
      "æ¥": 7185,
      "another": 7186,
      "Ġpracht": 7187,
      "Ġvog": 7188,
      "Ġrif": 7189,
      "eau": 7190,
      "iform": 7191,
      "ĠPillgrim": 7192,
      "Ġwilling": 7193,
      "Ġunderstood": 7194,
      "æĹ©": 7195,
      "Ġwindows": 7196,
      "Ġchurchyard": 7197,
      "ĠBritain": 7198,
      "Ġaverage": 7199,
      "87": 7200,
      "Ġtum": 7201,
      "atr": 7202,
      "itation": 7203,
      "Ġcards": 7204,
      "ellent": 7205,
      "umin": 7206,
      "ested": 7207,
      "estival": 7208,
      "Ġgoodness": 7209,
      "ishment": 7210,
      "Ġhanden": 7211,
      "ccording": 7212,
      "phone": 7213,
      "Ġresc": 7214,
      "è·ĳ": 7215,
      "ĠGeorg": 7216,
      "Ġverkl": 7217,
      "èµ·æĿ¥": 7218,
      "Ġelectric": 7219,
      "ĠEuropean": 7220,
      "Ġdemanded": 7221,
      "ĠCollege": 7222,
      "Ġmam": 7223,
      "Ġthin": 7224,
      "Ġyouth": 7225,
      "umph": 7226,
      "asty": 7227,
      "ĠKore": 7228,
      "ĠHead": 7229,
      "Ġmening": 7230,
      "Ġbitch": 7231,
      "Ġinterview": 7232,
      "Ġrecover": 7233,
      "Ġdistribut": 7234,
      "Ġimpossible": 7235,
      "Ġexcuse": 7236,
      "ç»ĻæĪĳ": 7237,
      "Ġperfectly": 7238,
      "Omdat": 7239,
      "Ġavailable": 7240,
      "Cos": 7241,
      "cel": 7242,
      "pill": 7243,
      "ugen": 7244,
      "worth": 7245,
      "zes": 7246,
      "Ġbunny": 7247,
      "otion": 7248,
      "Ġkaart": 7249,
      "Ġstir": 7250,
      "ĠCor": 7251,
      "Ġbutt": 7252,
      "æľĽ": 7253,
      "Ġourselves": 7254,
      "Ġthrown": 7255,
      "è¯ī": 7256,
      "achte": 7257,
      "ussy": 7258,
      "Ġgezicht": 7259,
      "Ġobjects": 7260,
      "Ġeeuw": 7261,
      "çł": 7262,
      "Ġtour": 7263,
      "Ġoil": 7264,
      "isy": 7265,
      "Ġkitty": 7266,
      "ĠDen": 7267,
      "ĠDel": 7268,
      "Ġmole": 7269,
      "Ġshirt": 7270,
      "ĠWas": 7271,
      "æĪĳä¹Ł": 7272,
      "å¤Ħ": 7273,
      "Ġprefer": 7274,
      "izing": 7275,
      "Ġ2005": 7276,
      "Ġpoet": 7277,
      "Ġcomfortable": 7278,
      "daddy": 7279,
      "toe": 7280,
      "reck": 7281,
      "Ġfoc": 7282,
      "Ġtoil": 7283,
      "Ġlap": 7284,
      "ĠIV": 7285,
      "Ġstock": 7286,
      "iring": 7287,
      "ĠMost": 7288,
      "Ġdata": 7289,
      "Ġergens": 7290,
      "Ġconv": 7291,
      "berry": 7292,
      "Ġnewsp": 7293,
      "ĠYour": 7294,
      "IGH": 7295,
      "Ġgehoord": 7296,
      "Ġcloser": 7297,
      "ĠAustralian": 7298,
      "IDENT": 7299,
      "Ġninety": 7300,
      "IFIED": 7301,
      "Could": 7302,
      "wers": 7303,
      "ston": 7304,
      "acle": 7305,
      "olic": 7306,
      "ĠFil": 7307,
      "erences": 7308,
      "ä¸Ģå®ļ": 7309,
      "Ġscience": 7310,
      "Ġdancing": 7311,
      "Ġactress": 7312,
      "æĹģ": 7313,
      "Ġwaited": 7314,
      "Ġstayed": 7315,
      "Ġcontinues": 7316,
      "Ġfairly": 7317,
      "ropical": 7318,
      "Ġbelangrijkste": 7319,
      "Ġentirely": 7320,
      "Ġideas": 7321,
      "Zij": 7322,
      "Ġess": 7323,
      "ĠMoses": 7324,
      "ĠDep": 7325,
      "oday": 7326,
      "icking": 7327,
      "kenen": 7328,
      "Ġslapen": 7329,
      "izza": 7330,
      "Three": 7331,
      "Ġgeworden": 7332,
      "anned": 7333,
      "Ġinstruct": 7334,
      "ification": 7335,
      "holds": 7336,
      "Ġreported": 7337,
      "UNIDENT": 7338,
      "Ġutter": 7339,
      "UNIDENTIFIED": 7340,
      "Ooh": 7341,
      "from": 7342,
      "rekken": 7343,
      "Ġbon": 7344,
      "alf": 7345,
      "enth": 7346,
      "Ġroe": 7347,
      "Ġaller": 7348,
      "Ġlean": 7349,
      "Ġtrap": 7350,
      "ĠUnion": 7351,
      "Ġstoppen": 7352,
      "Ġremembered": 7353,
      "è¡¨": 7354,
      "Ġladies": 7355,
      "Ġmessage": 7356,
      "çĲĥ": 7357,
      "Hold": 7358,
      "Su": 7359,
      "Vert": 7360,
      "oration": 7361,
      "ĠIS": 7362,
      "Ġkent": 7363,
      "ĠBo": 7364,
      "Ġgoin": 7365,
      "ĠOl": 7366,
      "Ġmethod": 7367,
      "Ġomge": 7368,
      "arson": 7369,
      "Ġelected": 7370,
      "Ġsnake": 7371,
      "Ġmarriage": 7372,
      "oenen": 7373,
      "Ġbasis": 7374,
      "Ġdescribed": 7375,
      "Ġapparently": 7376,
      "45": 7377,
      "KE": 7378,
      "Want": 7379,
      "ware": 7380,
      "zie": 7381,
      "é¸": 7382,
      "Ġavo": 7383,
      "Ġdom": 7384,
      "Ġheav": 7385,
      "chan": 7386,
      "entje": 7387,
      "Ġstuur": 7388,
      "ĠMur": 7389,
      "ĠMike": 7390,
      "opter": 7391,
      "ĠGra": 7392,
      "çļĦè¯Ŀ": 7393,
      "Ġmeter": 7394,
      "Ġadvert": 7395,
      "Ġbegins": 7396,
      "Ġbeneden": 7397,
      "åľ¨è¿Ļ": 7398,
      "åĳĺ": 7399,
      "Ġdaarom": 7400,
      "Ġlistened": 7401,
      "åĩºæĿ¥": 7402,
      "Ġpolicy": 7403,
      "ĠBerta": 7404,
      "six": 7405,
      "esse": 7406,
      "Ġtoek": 7407,
      "Ġlied": 7408,
      "Ġanderen": 7409,
      "amil": 7410,
      "Ġstri": 7411,
      "Ġconcentr": 7412,
      "Ġbrilliant": 7413,
      "ooth": 7414,
      "Ġrelated": 7415,
      "Ġcentral": 7416,
      "ĠSpain": 7417,
      "ennis": 7418,
      "Ġprize": 7419,
      "Ġgentleman": 7420,
      "ĠRepublic": 7421,
      "AB": 7422,
      "aus": 7423,
      "niet": 7424,
      "Ġkoff": 7425,
      "Ġrank": 7426,
      "Ġdocent": 7427,
      "Ġverv": 7428,
      "æĿ¡": 7429,
      "ĠXX": 7430,
      "Ġladder": 7431,
      "Ġsoftly": 7432,
      "Ġfamiliar": 7433,
      "Ġaarde": 7434,
      "Ġdisappeared": 7435,
      "Ġanxious": 7436,
      "Ġopportunity": 7437,
      "Ġopinion": 7438,
      "Ġbeneath": 7439,
      "Got": 7440,
      "Kun": 7441,
      "æħ": 7442,
      "Ġwakker": 7443,
      "Ġdank": 7444,
      "edereen": 7445,
      "Ġfab": 7446,
      "Ġpushed": 7447,
      "Ġ..": 7448,
      "Ġbeer": 7449,
      "antie": 7450,
      "apa": 7451,
      "ĠGold": 7452,
      "çļĦæĺ¯": 7453,
      "Ġprove": 7454,
      "æľīä¸Ģ": 7455,
      "æĢ§": 7456,
      "Ġofficial": 7457,
      "Ġhighest": 7458,
      "\"?": 7459,
      "Ġboo": 7460,
      "Ġbos": 7461,
      "Ġmond": 7462,
      "sters": 7463,
      "Ġket": 7464,
      "uries": 7465,
      "ĠLuc": 7466,
      "Ġspell": 7467,
      "ĠOx": 7468,
      "Ġtrade": 7469,
      "aalt": 7470,
      "Ġ36": 7471,
      "Ġbedroom": 7472,
      "Ġthoughts": 7473,
      "Ġinternet": 7474,
      "azed": 7475,
      "Ġnummer": 7476,
      "Ġsigned": 7477,
      "ĠErnest": 7478,
      "proken": 7479,
      "Ġjuiste": 7480,
      "åºĶè¯¥": 7481,
      "Put": 7482,
      "Ġijs": 7483,
      "Ġwaves": 7484,
      "rec": 7485,
      "icy": 7486,
      "ĠSus": 7487,
      "ĠJac": 7488,
      "Ġfired": 7489,
      "éĹ¨": 7490,
      "Ġresponse": 7491,
      "Ġreceive": 7492,
      "ĠRussia": 7493,
      "Ġconcerned": 7494,
      "ĠBrazil": 7495,
      "ĠCharles": 7496,
      "83": 7497,
      "95": 7498,
      "goed": 7499,
      "rum": 7500,
      "çı": 7501,
      "Ġtummy": 7502,
      "Ġwou": 7503,
      "Ġsterk": 7504,
      "ĠMen": 7505,
      "Ġalcohol": 7506,
      "uls": 7507,
      "oever": 7508,
      "Ġbackground": 7509,
      "Ġremains": 7510,
      "Ġdirectly": 7511,
      "ç®Ĺ": 7512,
      "OY": 7513,
      "bon": 7514,
      "Ġtid": 7515,
      "Ġwise": 7516,
      "reme": 7517,
      "Ġlon": 7518,
      "aming": 7519,
      "ĠSee": 7520,
      "Ġveroor": 7521,
      "Ġsofa": 7522,
      "Ġplants": 7523,
      "ĠFire": 7524,
      "Ġproef": 7525,
      "åĳ½": 7526,
      "innie": 7527,
      "Neem": 7528,
      "éĢģ": 7529,
      "æµ·": 7530,
      "Ġpilot": 7531,
      "Ġclouds": 7532,
      "Ġtelefoon": 7533,
      "TH": 7534,
      "Ġaang": 7535,
      "Ġsum": 7536,
      "inger": 7537,
      "Ġfurn": 7538,
      "Ġnomin": 7539,
      "iemand": 7540,
      "imp": 7541,
      "iron": 7542,
      "ĠHor": 7543,
      "illing": 7544,
      "ĠDuits": 7545,
      "ĠHeb": 7546,
      "Ġgeval": 7547,
      "Ġproperly": 7548,
      "Ġmodel": 7549,
      "Ġwhispered": 7550,
      "ĠLeonard": 7551,
      "77": 7552,
      "zel": 7553,
      "Ġwine": 7554,
      "Ġlatter": 7555,
      "Ġbeeld": 7556,
      "Ġzes": 7557,
      "Ġrelease": 7558,
      "ĠDuring": 7559,
      "ĠGar": 7560,
      "ĠGebruik": 7561,
      "Ġgram": 7562,
      "Ġotherwise": 7563,
      "ĠUit": 7564,
      "Ġcaravan": 7565,
      "Ġ43": 7566,
      "Ġbringing": 7567,
      "Ġwitness": 7568,
      "Ġzuurstof": 7569,
      "æ¡Ī": 7570,
      "ĠDemoc": 7571,
      "86": 7572,
      "Jack": 7573,
      "Keep": 7574,
      "Meer": 7575,
      "Ġfac": 7576,
      "Ġfart": 7577,
      "ĠGet": 7578,
      "nods": 7579,
      "Ġovert": 7580,
      "Ġmanage": 7581,
      "çļĦä¸Ģ": 7582,
      "plaats": 7583,
      "ä¹°": 7584,
      "åĲĳ": 7585,
      "Ġgreatly": 7586,
      "Ġdesire": 7587,
      "ĠYoung": 7588,
      "åķĬä½ł": 7589,
      "Ġstudied": 7590,
      "Ġpowerful": 7591,
      "æ¸ħ": 7592,
      "é¥Ń": 7593,
      "Ġnursery": 7594,
      "uut": 7595,
      "hemat": 7596,
      "ĠokÃ©": 7597,
      "Ġmicro": 7598,
      "Ġkru": 7599,
      "Ġstil": 7600,
      "ĠHarr": 7601,
      "æĪĺ": 7602,
      "Ġboots": 7603,
      "ouwd": 7604,
      "æĢķ": 7605,
      "Ġsignal": 7606,
      "é£İ": 7607,
      "ĠKennis": 7608,
      "Ġruimte": 7609,
      "Cal": 7610,
      "å¢": 7611,
      "itect": 7612,
      "adel": 7613,
      "Ġkat": 7614,
      "Ġstroom": 7615,
      "ĠSpe": 7616,
      "Ġtemp": 7617,
      "ĠLie": 7618,
      "ĠRhod": 7619,
      "Ġuses": 7620,
      "Ġagent": 7621,
      "actor": 7622,
      "ĠZij": 7623,
      "igned": 7624,
      "Ġantwoorden": 7625,
      "Ġmaakte": 7626,
      "Ġobserved": 7627,
      "ç©º": 7628,
      "Echt": 7629,
      "uigen": 7630,
      "vrouw": 7631,
      "Ġsons": 7632,
      "Ġpic": 7633,
      "Ġeuro": 7634,
      "stellen": 7635,
      "amn": 7636,
      "imate": 7637,
      "ĠMo": 7638,
      "Ġshake": 7639,
      "cky": 7640,
      "Ġafbeeld": 7641,
      "Ġfeather": 7642,
      "ä¸Ģèµ·": 7643,
      "Ġafterwards": 7644,
      "Ġsmiled": 7645,
      "aily": 7646,
      "ailed": 7647,
      "Ġdesc": 7648,
      "Ġversion": 7649,
      "Ġdrinken": 7650,
      "Ġincluded": 7651,
      "Ġsuccessful": 7652,
      "Steven": 7653,
      "Ġsymbol": 7654,
      "âĮĭ.": 7655,
      "iven": 7656,
      "Ġchat": 7657,
      "Ġfol": 7658,
      "Ġdezelfde": 7659,
      "Ġstyle": 7660,
      "Ġdoden": 7661,
      "Ġforced": 7662,
      "opher": 7663,
      "ä¸İ": 7664,
      "ä¸ļ": 7665,
      "ĠVictor": 7666,
      "å®³": 7667,
      "Ġ2001": 7668,
      "Ġgevraagd": 7669,
      "Ġcentre": 7670,
      "Ġpatient": 7671,
      "Ġdarkness": 7672,
      "Alright": 7673,
      "ĠElwood": 7674,
      "Ġaston": 7675,
      "Ġmemory": 7676,
      "Ġsacr": 7677,
      "Ġkilomet": 7678,
      "Ġdetermined": 7679,
      "Zie": 7680,
      "happy": 7681,
      "Ġtie": 7682,
      "Ġvote": 7683,
      "ĠIT": 7684,
      "ado": 7685,
      "Ġzorg": 7686,
      "ĠSher": 7687,
      "ĠSaint": 7688,
      "ĠBumper": 7689,
      "ĠDolly": 7690,
      "opdracht": 7691,
      "Ġalsjeblieft": 7692,
      "Ġrights": 7693,
      "è®°": 7694,
      "åº¦": 7695,
      "Ġcurious": 7696,
      "ĠCanad": 7697,
      "Ġsoldiers": 7698,
      "Ġastron": 7699,
      "Ġontwikk": 7700,
      "sure": 7701,
      "Ġwolf": 7702,
      "Ġlif": 7703,
      "Ġinvent": 7704,
      "ijnlijk": 7705,
      "ĠLittle": 7706,
      "Ġconce": 7707,
      "gency": 7708,
      "è¿ľ": 7709,
      "ĠZijn": 7710,
      "Ġguide": 7711,
      "Ġtravell": 7712,
      "ukt": 7713,
      "åİŁ": 7714,
      "Ġ2003": 7715,
      "ĠBear": 7716,
      "Ġshouted": 7717,
      "Ġblanket": 7718,
      "Ġeducation": 7719,
      "Natuurlijk": 7720,
      "Amer": 7721,
      "Ma": 7722,
      "oft": 7723,
      "pass": 7724,
      "Ġsinds": 7725,
      "Ġsouthern": 7726,
      "stuk": 7727,
      "leiding": 7728,
      "Ġzult": 7729,
      "sell": 7730,
      "ĠWind": 7731,
      "Ġgep": 7732,
      "Ġ34": 7733,
      "Ġsmiling": 7734,
      "ĠAnna": 7735,
      "ĠJeff": 7736,
      "Ġphil": 7737,
      "Ġrecords": 7738,
      "Ġgebeuren": 7739,
      "nieuw": 7740,
      "Ġlifted": 7741,
      "product": 7742,
      "Helen": 7743,
      "Verd": 7744,
      "ault": 7745,
      "mommy": 7746,
      "å»": 7747,
      "Ġkost": 7748,
      "rokken": 7749,
      "ĠPak": 7750,
      "Ġvergeten": 7751,
      "ulous": 7752,
      "ockey": 7753,
      "Ġshoulders": 7754,
      "Ġbitter": 7755,
      "Ġburial": 7756,
      "Ġeasier": 7757,
      "éĢī": 7758,
      "GRF": 7759,
      "æıĲ": 7760,
      "Great": 7761,
      "bar": 7762,
      "Ġaank": 7763,
      "Ġhammer": 7764,
      "Ġrijk": 7765,
      "Ġenv": 7766,
      "Ġwhist": 7767,
      "appe": 7768,
      "Ġboom": 7769,
      "actually": 7770,
      "Ġexpress": 7771,
      "Ġrestaur": 7772,
      "Ġredden": 7773,
      "Ġdollar": 7774,
      "Ġknocked": 7775,
      "turns": 7776,
      ".),": 7777,
      "lingen": 7778,
      "zijn": 7779,
      "entie": 7780,
      "Ġrang": 7781,
      "uli": 7782,
      "Ġcomment": 7783,
      "Ġaanv": 7784,
      "Ġqual": 7785,
      "Ġpercent": 7786,
      "Ġwelk": 7787,
      "Ġkinds": 7788,
      "Ġhung": 7789,
      "Ġmagic": 7790,
      "å¼Ł": 7791,
      "oogle": 7792,
      "Ġexperiment": 7793,
      "Ġbezig": 7794,
      "Ġdifficulty": 7795,
      "GEO": 7796,
      "ĠSanta": 7797,
      "Ag": 7798,
      "pa": 7799,
      "won": 7800,
      "éŁ": 7801,
      "eral": 7802,
      "Ġmacht": 7803,
      "Ġmale": 7804,
      "isher": 7805,
      "Ġhills": 7806,
      "Ġdebut": 7807,
      "ĠBuck": 7808,
      "ĠDiv": 7809,
      "ĠLong": 7810,
      "Ġblijkt": 7811,
      "è¿ĻäºĽ": 7812,
      "ĠFriday": 7813,
      "Ġinterrupt": 7814,
      "Ġfalls": 7815,
      "ä¸ºä»Ģä¹Ī": 7816,
      "ä»¥åĲİ": 7817,
      "Ġcompanies": 7818,
      "çī¹åĪ«": 7819,
      "Ġceremon": 7820,
      "Ġgathered": 7821,
      "29": 7822,
      "Beg": 7823,
      "Wow": 7824,
      "Ġtal": 7825,
      "Ġgather": 7826,
      "Ġpages": 7827,
      "Ġkopen": 7828,
      "ĠAward": 7829,
      "gew": 7830,
      "Ġbenef": 7831,
      "Ġmakkelijk": 7832,
      "apping": 7833,
      "Ġmarry": 7834,
      "çĽ®": 7835,
      "Ġtyp": 7836,
      "Ġcreature": 7837,
      "å§ĭ": 7838,
      "ĠConf": 7839,
      "Ġrising": 7840,
      "Ġpainting": 7841,
      "Ġinhab": 7842,
      "âĮī.": 7843,
      "Ġvergelijking": 7844,
      "åĳĬè¯ī": 7845,
      "rough": 7846,
      "Ġwished": 7847,
      "Ġbark": 7848,
      "Ġpour": 7849,
      "Ġyyy": 7850,
      "Ġstaff": 7851,
      "ĠBat": 7852,
      "aging": 7853,
      "ĠDE": 7854,
      "Ġneat": 7855,
      "Ġupper": 7856,
      "emp": 7857,
      "Ġplayers": 7858,
      "uckles": 7859,
      "Ġvoel": 7860,
      "Ġmovement": 7861,
      "Ġservants": 7862,
      "People": 7863,
      "ĠBruin": 7864,
      "cream": 7865,
      "loop": 7866,
      "nic": 7867,
      "ouder": 7868,
      "Ġgently": 7869,
      "stra": 7870,
      "leven": 7871,
      "ĠME": 7872,
      "Ġaside": 7873,
      "agement": 7874,
      "uns": 7875,
      "ĠPil": 7876,
      "ĠKim": 7877,
      "Ġhelping": 7878,
      "Ġ2004": 7879,
      "Ġseconds": 7880,
      "Ġsports": 7881,
      "ĠToby": 7882,
      "cat": 7883,
      "mes": 7884,
      "rift": 7885,
      "Ġaye": 7886,
      "enced": 7887,
      "Ġthroat": 7888,
      "Ġongel": 7889,
      "Ġdeer": 7890,
      "Ġreck": 7891,
      "Ġreage": 7892,
      "Ġredu": 7893,
      "Ġrode": 7894,
      "ĠCath": 7895,
      "Ġupset": 7896,
      "Ġplastic": 7897,
      "angle": 7898,
      "æĪ¿": 7899,
      "ĠKe": 7900,
      "Ġcliff": 7901,
      "ishop": 7902,
      "ä¸įå¥½": 7903,
      "Ġscore": 7904,
      "Ġ33": 7905,
      "awa": 7906,
      "Ġpapers": 7907,
      "Ġcontinue": 7908,
      "Ġdinosaur": 7909,
      "Ġdegree": 7910,
      "Ġdocument": 7911,
      "ĠVirgin": 7912,
      "houden": 7913,
      "mamma": 7914,
      "Ġsoup": 7915,
      "Ġdans": 7916,
      "Ġmor": 7917,
      "orgt": 7918,
      "Ġghost": 7919,
      "Ġfought": 7920,
      "Ġnorthern": 7921,
      "Ġsees": 7922,
      "Ġvoordat": 7923,
      "genomen": 7924,
      "åħ«": 7925,
      "Ġterror": 7926,
      "Ġsnee": 7927,
      "çĶ»": 7928,
      "after": 7929,
      "Ġgezond": 7930,
      "åı¯æĺ¯": 7931,
      "Ġsigns": 7932,
      "Ġrecorded": 7933,
      "ĠScotland": 7934,
      "IL": 7935,
      "Men": 7936,
      "Â°": 7937,
      "Ġtip": 7938,
      "heart": 7939,
      "Ġfund": 7940,
      "icated": 7941,
      "ĠPers": 7942,
      "Ġexerc": 7943,
      "Ġvoorbeeld": 7944,
      "ä»£": 7945,
      "ĠUt": 7946,
      "Ġdism": 7947,
      "åħ¥": 7948,
      "Ġkilling": 7949,
      "çĿ¡": 7950,
      "ĠAlleen": 7951,
      "Ġpencil": 7952,
      "IGHT": 7953,
      "Ed": 7954,
      "OE": 7955,
      "Wanneer": 7956,
      "bits": 7957,
      "gers": 7958,
      "æĲ": 7959,
      "Ġtur": 7960,
      "Ġpants": 7961,
      "ĠMidd": 7962,
      "ĠBos": 7963,
      "thur": 7964,
      "Ġlear": 7965,
      "Ġproved": 7966,
      "Ġflo": 7967,
      "Ġobviously": 7968,
      "Ġballoon": 7969,
      "Ġsque": 7970,
      "ĠWhile": 7971,
      "Ġproperty": 7972,
      "Ġkennen": 7973,
      "Ġoblig": 7974,
      "hin": 7975,
      "maken": 7976,
      "æ®": 7977,
      "reland": 7978,
      "Ġlamp": 7979,
      "omed": 7980,
      "ĠHel": 7981,
      "ĠPo": 7982,
      "ĠNero": 7983,
      "ĠVal": 7984,
      "Ġtrouw": 7985,
      "spect": 7986,
      "Ġbedrijf": 7987,
      "Ġhoeft": 7988,
      "Ġdistant": 7989,
      "Ġintended": 7990,
      "Ġinstant": 7991,
      "Ġburst": 7992,
      "Ġcookie": 7993,
      "Ġneighbor": 7994,
      "Ġarrange": 7995,
      "Ġfeatures": 7996,
      "Com": 7997,
      "vels": 7998,
      "Ġmate": 7999,
      "Ġcock": 8000,
      "Ġpure": 8001,
      "ĠMic": 8002,
      "ĠCast": 8003,
      "Ġbron": 8004,
      "beelden": 8005,
      "Ġbuurt": 8006,
      "Ġfriendly": 8007,
      "Ġentr": 8008,
      "Ġballs": 8009,
      "Ġgeluid": 8010,
      "Ġpossibly": 8011,
      "Ġadmin": 8012,
      "ä¿Ŀ": 8013,
      "Ġadvant": 8014,
      "Ġberekening": 8015,
      "Ġnamelijk": 8016,
      "enschap": 8017,
      "ĠRusland": 8018,
      "64": 8019,
      "Bel": 8020,
      "CO": 8021,
      "delen": 8022,
      "walk": 8023,
      "ÉĻ": 8024,
      "Ġfancy": 8025,
      "elet": 8026,
      "ĠTex": 8027,
      "ĠCross": 8028,
      "ĠRoger": 8029,
      "ĠOther": 8030,
      "Ġvoort": 8031,
      "oughs": 8032,
      "Ġpartner": 8033,
      "ekst": 8034,
      "Ġends": 8035,
      "Ġmathemat": 8036,
      "Ġplanet": 8037,
      "ĠPrime": 8038,
      "affe": 8039,
      "About": 8040,
      "pher": 8041,
      "eries": 8042,
      "Ġdying": 8043,
      "arry": 8044,
      "Ġregen": 8045,
      "Ġreview": 8046,
      "Ġreaches": 8047,
      "aka": 8048,
      "esten": 8049,
      "ĠGa": 8050,
      "ĠJoh": 8051,
      "Ġplans": 8052,
      "Ġconsequ": 8053,
      "Ġgrat": 8054,
      "ension": 8055,
      "ciale": 8056,
      "ĠFlorida": 8057,
      "Ġappreci": 8058,
      "27": 8059,
      "draw": 8060,
      "eens": 8061,
      "lt": 8062,
      "ti": 8063,
      "Ġwoon": 8064,
      "Ġcant": 8065,
      "Ġtowel": 8066,
      "stant": 8067,
      "Ġker": 8068,
      "ami": 8069,
      "urance": 8070,
      "ĠMaud": 8071,
      "eave": 8072,
      "apitein": 8073,
      "genoot": 8074,
      "Ġzeer": 8075,
      "Ġmatters": 8076,
      "Alleen": 8077,
      "mbly": 8078,
      "Ġgekomen": 8079,
      "Ġcooking": 8080,
      "Ġbrave": 8081,
      "bid": 8082,
      "fish": 8083,
      "filler": 8084,
      "rouwen": 8085,
      "Ġmud": 8086,
      "Ġcouch": 8087,
      "Ġloose": 8088,
      "chair": 8089,
      "alys": 8090,
      "icient": 8091,
      "sembly": 8092,
      "ira": 8093,
      "rium": 8094,
      "inding": 8095,
      "osen": 8096,
      "Ġscr": 8097,
      "Ġdrank": 8098,
      "every": 8099,
      "year": 8100,
      "azen": 8101,
      "åķĬæĪĳ": 8102,
      "Ġsteam": 8103,
      "Ġlanger": 8104,
      "idding": 8105,
      "ĠArmy": 8106,
      "voice": 8107,
      "Ġbuildings": 8108,
      "ç³»": 8109,
      "little": 8110,
      "making": 8111,
      "Ġbump": 8112,
      "Ġfond": 8113,
      "Ġreis": 8114,
      "iker": 8115,
      "ĠBook": 8116,
      "Ġgeme": 8117,
      "Ġsore": 8118,
      "Ġknowing": 8119,
      "Ġvoorbij": 8120,
      "wezig": 8121,
      "Ġprince": 8122,
      "Ġelekt": 8123,
      "Ġuniform": 8124,
      "Ġattend": 8125,
      "Ġpassage": 8126,
      "Ġ1980": 8127,
      "Ġshopping": 8128,
      "Ġorganis": 8129,
      "Ġburning": 8130,
      "Ġparticularly": 8131,
      "Ġreligion": 8132,
      "Ġkapitein": 8133,
      "Ġevidently": 8134,
      "silence": 8135,
      "Ġtoekomst": 8136,
      "ç¼": 8137,
      "erous": 8138,
      "Ġwounded": 8139,
      "Ġrij": 8140,
      "ĠMond": 8141,
      "eable": 8142,
      "ĠGreek": 8143,
      "Ġload": 8144,
      "Ġchess": 8145,
      "Ġtreasure": 8146,
      "Ġkijkt": 8147,
      "Ġlaws": 8148,
      "Ġcraft": 8149,
      "Ġavond": 8150,
      "EA": 8151,
      "OB": 8152,
      "bra": 8153,
      "boek": 8154,
      "æ¢": 8155,
      "ĠCH": 8156,
      "Ġtv": 8157,
      "Ġwander": 8158,
      "Ġmail": 8159,
      "ĠIreland": 8160,
      "Ġwealth": 8161,
      "ĠSun": 8162,
      "Ġverbrand": 8163,
      "Ġsaus": 8164,
      "inks": 8165,
      "ords": 8166,
      "Ġonderstaande": 8167,
      "åĽ¢": 8168,
      "Ġkeeps": 8169,
      "Ġontde": 8170,
      "Ġintellig": 8171,
      "Ġsafety": 8172,
      "Ġcastle": 8173,
      "ricane": 8174,
      "ĠWilson": 8175,
      "ĠInternational": 8176,
      "Ġcircumstances": 8177,
      "uous": 8178,
      "æ£": 8179,
      "é¼": 8180,
      "Ġij": 8181,
      "Ġtap": 8182,
      "Ġaward": 8183,
      "Ġsalt": 8184,
      "Ġlange": 8185,
      "Ġinit": 8186,
      "Ġangel": 8187,
      "ĠJew": 8188,
      "ĠRy": 8189,
      "ä½łçľĭ": 8190,
      "Ġelement": 8191,
      "åıį": 8192,
      "ekijk": 8193,
      "ounce": 8194,
      "Ġfilmp": 8195,
      "ological": 8196,
      "ĠSteve": 8197,
      "Ġportion": 8198,
      "Ġverwacht": 8199,
      "Ġvoedsel": 8200,
      "åĴ±ä»¬": 8201,
      "ĠNorman": 8202,
      "RA": 8203,
      "ko": 8204,
      "Ġjun": 8205,
      "Ġstij": 8206,
      "ĠCamp": 8207,
      "umed": 8208,
      "iteindelijk": 8209,
      "ĠVI": 8210,
      "æľį": 8211,
      "Ġbelief": 8212,
      "egd": 8213,
      "Ġstrike": 8214,
      "å¥½äºĨ": 8215,
      "Ġgeloven": 8216,
      "Ġbreaking": 8217,
      "Ġverteld": 8218,
      "Ġexplan": 8219,
      "Ġzwaar": 8220,
      "ĠEdward": 8221,
      "Ġdamage": 8222,
      "Ġperformed": 8223,
      "ournal": 8224,
      "Ġmixed": 8225,
      "Ġvormen": 8226,
      "Ġmagazine": 8227,
      "Ġsociety": 8228,
      "Aan": 8229,
      "çĬ": 8230,
      "èĽ": 8231,
      "heast": 8232,
      "Ġsau": 8233,
      "Ġdik": 8234,
      "Ġfier": 8235,
      "Ġliet": 8236,
      "owel": 8237,
      "strijd": 8238,
      "idents": 8239,
      "ĠLater": 8240,
      "emon": 8241,
      "place": 8242,
      "ä½łæĺ¯": 8243,
      "obody": 8244,
      "ucky": 8245,
      "spe": 8246,
      "Ġmedia": 8247,
      "Ġpolitie": 8248,
      "ĠProv": 8249,
      "ĠWelk": 8250,
      "Ġdamn": 8251,
      "éĹ®é¢ĺ": 8252,
      "igsaw": 8253,
      "Ġweapons": 8254,
      "Ġdisease": 8255,
      "First": 8256,
      "wa": 8257,
      "isse": 8258,
      "esch": 8259,
      "Ġnav": 8260,
      "Ġlaag": 8261,
      "Ġrings": 8262,
      "Ġmeas": 8263,
      "Ġerop": 8264,
      "ĠFort": 8265,
      "Ġsposta": 8266,
      "quar": 8267,
      "Ġcommer": 8268,
      "Ġgray": 8269,
      "----\"": 8270,
      "Ġmuse": 8271,
      "Ġbegon": 8272,
      "å¸Ĥ": 8273,
      "whoa": 8274,
      "Ġextrem": 8275,
      "Ġspeaks": 8276,
      "ĠAtl": 8277,
      "oxide": 8278,
      "slag": 8279,
      "Ġequal": 8280,
      "Ġenergie": 8281,
      "Ġremarked": 8282,
      "were": 8283,
      "Ġbones": 8284,
      "Ġgall": 8285,
      "Ġpakken": 8286,
      "Ġagre": 8287,
      "Ġfeels": 8288,
      "spr": 8289,
      "Ġdisplay": 8290,
      "Ġthroughout": 8291,
      "Ġhunt": 8292,
      "Ġmatches": 8293,
      "ioxide": 8294,
      "Ġ80": 8295,
      "Ġbecoming": 8296,
      "Ġinstance": 8297,
      "Ġgesp": 8298,
      "ĠPrince": 8299,
      "Ġbelangrijke": 8300,
      "Ġlanguages": 8301,
      "Ġholy": 8302,
      "Ġcritic": 8303,
      "Ġbodies": 8304,
      "ĠBarbara": 8305,
      "Ġaandacht": 8306,
      "Ġzaken": 8307,
      "ĠTur": 8308,
      "ĠMir": 8309,
      "ĠMaster": 8310,
      "road": 8311,
      "ĠWay": 8312,
      "ĠGoogle": 8313,
      "Ġsocks": 8314,
      "abeth": 8315,
      "Ġmanager": 8316,
      "Ġbricks": 8317,
      "Ġ44": 8318,
      "å¥½çļĦ": 8319,
      "Ġveget": 8320,
      "isco": 8321,
      "å¼Ģå§ĭ": 8322,
      "Ġbathroom": 8323,
      "aisy": 8324,
      "Ġresearch": 8325,
      "Ġmultip": 8326,
      "ĠDistrict": 8327,
      "Ġtoilet": 8328,
      "cr": 8329,
      "hoe": 8330,
      "kel": 8331,
      "mag": 8332,
      "Ġwipe": 8333,
      "Ġfold": 8334,
      "staan": 8335,
      "Ġbee": 8336,
      "Ġbewe": 8337,
      "Ġforces": 8338,
      "Ġclown": 8339,
      "è¿Ļç§į": 8340,
      "Those": 8341,
      "Isn": 8342,
      "Ġgrab": 8343,
      "ipping": 8344,
      "Before": 8345,
      "Ġteams": 8346,
      "Ġapartment": 8347,
      "Ġrequired": 8348,
      "Ġpressure": 8349,
      "Ġbegrijp": 8350,
      "æ¼Ķ": 8351,
      "Bet": 8352,
      "Sm": 8353,
      "è£": 8354,
      "inen": 8355,
      "inald": 8356,
      "Ġsig": 8357,
      "Ġdur": 8358,
      "Ġpause": 8359,
      "iders": 8360,
      "Ġwaste": 8361,
      "Ġalarm": 8362,
      "usted": 8363,
      "rier": 8364,
      "gegeven": 8365,
      "Ġprocent": 8366,
      "å¤Ł": 8367,
      "ederal": 8368,
      "ĠComp": 8369,
      "çŃĶ": 8370,
      "Ġnineteen": 8371,
      "Ġtouched": 8372,
      ".=": 8373,
      "ii": 8374,
      "pie": 8375,
      "uken": 8376,
      "itzer": 8377,
      "Ġfoss": 8378,
      "Ġpine": 8379,
      "Ġpipe": 8380,
      "Ġner": 8381,
      "Ġjoke": 8382,
      "Ġhabit": 8383,
      "ĠBaby": 8384,
      "ĠHon": 8385,
      "ĠHill": 8386,
      "Ġbetalen": 8387,
      "shine": 8388,
      "ubb": 8389,
      "Ġverdw": 8390,
      "æķħ": 8391,
      "Ġissue": 8392,
      "ĠWaarom": 8393,
      "whispers": 8394,
      "gang": 8395,
      "och": 8396,
      "pull": 8397,
      "Ġwo": 8398,
      "Ġfijn": 8399,
      "ĠBon": 8400,
      "ĠBessie": 8401,
      "rient": 8402,
      "ĠNat": 8403,
      "ä¹¦": 8404,
      "ä¹Ĳ": 8405,
      "åķ¦": 8406,
      "Ġswall": 8407,
      "engers": 8408,
      "Ġ1990": 8409,
      "Christ": 8410,
      "ç»Ļä½ł": 8411,
      "reedom": 8412,
      "Grand": 8413,
      "Ġsatisfied": 8414,
      "Ġdestroyed": 8415,
      "Ġbranches": 8416,
      "voud": 8417,
      "Ġtab": 8418,
      "Ġaim": 8419,
      "Ġwa": 8420,
      "Ġhidden": 8421,
      "Ġcities": 8422,
      "Ġpraat": 8423,
      "Ġbeep": 8424,
      "Ġrib": 8425,
      "ĠRight": 8426,
      "ĠRoss": 8427,
      "icky": 8428,
      "oston": 8429,
      "Ġbiggest": 8430,
      "Ġleaf": 8431,
      "Ġnearer": 8432,
      "Ġaccomp": 8433,
      "Ġfunction": 8434,
      "Ġmaand": 8435,
      "Ġdrove": 8436,
      "Ġzichzelf": 8437,
      "Ġwondering": 8438,
      "Ġtransport": 8439,
      "å¾Īå¤ļ": 8440,
      "Ġsuffered": 8441,
      "ĠGuard": 8442,
      "èĩªå·±çļĦ": 8443,
      "Ġwedding": 8444,
      "ĠAcademy": 8445,
      "ĠMartin": 8446,
      "-\"": 8447,
      "?,": 8448,
      "Bye": 8449,
      "Rem": 8450,
      "Ġbaan": 8451,
      "ingu": 8452,
      "Ġkrant": 8453,
      "Ġreasons": 8454,
      "ĠHol": 8455,
      "umps": 8456,
      "ĠFore": 8457,
      "inky": 8458,
      "Heel": 8459,
      "aved": 8460,
      "Ġunus": 8461,
      "Ġspeelt": 8462,
      "Ġminim": 8463,
      "Ġharder": 8464,
      "Ġfeelings": 8465,
      "ĠMarc": 8466,
      "Ġaccess": 8467,
      "Ġresol": 8468,
      "Ġaware": 8469,
      "Ġeighty": 8470,
      "Ġdrugs": 8471,
      "Frank": 8472,
      "Um": 8473,
      "Ġwan": 8474,
      "Ġoog": 8475,
      "Ġdier": 8476,
      "Ġfence": 8477,
      "igheid": 8478,
      "Ġwashing": 8479,
      "Ġshook": 8480,
      "about": 8481,
      "Ġcontr": 8482,
      "äººçļĦ": 8483,
      "Ġboxes": 8484,
      "Once": 8485,
      "Ġaircraft": 8486,
      "iÃ«nt": 8487,
      "Ġhanging": 8488,
      "Ġfields": 8489,
      "ĠGrandma": 8490,
      "Door": 8491,
      "EW": 8492,
      "Na": 8493,
      "éĵ": 8494,
      "Ġtask": 8495,
      "ouches": 8496,
      "Ġgaf": 8497,
      "Ġvet": 8498,
      "igger": 8499,
      "ication": 8500,
      "Ġreve": 8501,
      "ĠBa": 8502,
      "opp": 8503,
      "Ġverr": 8504,
      "Ġchosen": 8505,
      "äº¤": 8506,
      "Ġgrant": 8507,
      "Ġprijs": 8508,
      "Ġslag": 8509,
      "aterpill": 8510,
      "Ġsupply": 8511,
      "Ġcolour": 8512,
      "æĬ¥": 8513,
      "Ġsticks": 8514,
      "Ġfairy": 8515,
      "gesch": 8516,
      "æĶ¶": 8517,
      "Ġtypes": 8518,
      "Ġincludes": 8519,
      "Ġroute": 8520,
      "Ġlonely": 8521,
      "Heeft": 8522,
      "Sl": 8523,
      "nemen": 8524,
      "yo": 8525,
      "isme": 8526,
      "Ġeet": 8527,
      "Ġweird": 8528,
      "ĠAD": 8529,
      "ĠCam": 8530,
      "ĠCourt": 8531,
      "ĠDuck": 8532,
      "opes": 8533,
      "Ġvanavond": 8534,
      "Ġplaat": 8535,
      "ĠRem": 8536,
      "Ġaanwezig": 8537,
      "Ġacting": 8538,
      "Ġtraffic": 8539,
      "eltjes": 8540,
      "Ġregel": 8541,
      "ĠAnnie": 8542,
      "ĠBeeld": 8543,
      "Ġmission": 8544,
      "Ġdecide": 8545,
      "Ġfilms": 8546,
      "âĮĬ": 8547,
      "Ġclearly": 8548,
      "Ġresults": 8549,
      "Ġveranderen": 8550,
      "Ġslightly": 8551,
      "zichtig": 8552,
      "Ġargument": 8553,
      "æĹģçĻ½": 8554,
      "eers": 8555,
      "san": 8556,
      "recht": 8557,
      "Ġcong": 8558,
      "adem": 8559,
      "iging": 8560,
      "Ġjan": 8561,
      "Ġzorgt": 8562,
      "ĠHot": 8563,
      "raad": 8564,
      "Ġnovel": 8565,
      "Ġchain": 8566,
      "ĠRand": 8567,
      "inking": 8568,
      "ivity": 8569,
      "æĪĳè§īå¾Ĺ": 8570,
      "ĠVeren": 8571,
      "Ġcrown": 8572,
      "å¾Ģ": 8573,
      "Ġcourage": 8574,
      "Ġsymp": 8575,
      "ĠTommy": 8576,
      "ĠAfrican": 8577,
      "GRM": 8578,
      "Ġ2023": 8579,
      "ĠAmst": 8580,
      "iedenis": 8581,
      "ĠJerry": 8582,
      "çģ«": 8583,
      "Ġinfluence": 8584,
      "Ġpagina": 8585,
      "Ġschrijver": 8586,
      "78": 8587,
      "ION": 8588,
      "gn": 8589,
      "wart": 8590,
      "Ġdelen": 8591,
      "Ġpizza": 8592,
      "Ġlat": 8593,
      "steem": 8594,
      "ential": 8595,
      "sem": 8596,
      "aky": 8597,
      "ĠBur": 8598,
      "ĠBeth": 8599,
      "Ġshame": 8600,
      "ĠGel": 8601,
      "spraak": 8602,
      "åħŃ": 8603,
      "Onze": 8604,
      "Ġsquee": 8605,
      "åºķ": 8606,
      "åĮĸ": 8607,
      "Ġglasses": 8608,
      "Ġmeestal": 8609,
      "Ġappears": 8610,
      "ĠMexico": 8611,
      "ç¡®": 8612,
      "past": 8613,
      "Ġsem": 8614,
      "Ġsne": 8615,
      "oma": 8616,
      "aland": 8617,
      "Ġitem": 8618,
      "inden": 8619,
      "issa": 8620,
      "Ġthrowing": 8621,
      "Ġroyal": 8622,
      "Ġwonen": 8623,
      "ANT": 8624,
      "ĠBecause": 8625,
      "Ġartist": 8626,
      "ä¹Łæĺ¯": 8627,
      "Ġkwamen": 8628,
      "Chi": 8629,
      "Ġverschil": 8630,
      "Ġprovide": 8631,
      "çĪ¸çĪ¸": 8632,
      "Ġpuppy": 8633,
      "ĠFrancis": 8634,
      "Ġwebsite": 8635,
      "Gew": 8636,
      "Nic": 8637,
      "aien": 8638,
      "sque": 8639,
      "Ġaunt": 8640,
      "ati": 8641,
      "Ġpant": 8642,
      "igr": 8643,
      "Ġforms": 8644,
      "ĠBell": 8645,
      "ĠWater": 8646,
      "osa": 8647,
      "ĠKent": 8648,
      "ureau": 8649,
      "æľª": 8650,
      "Ġunivers": 8651,
      "lets": 8652,
      "arliament": 8653,
      "Ġconstell": 8654,
      "åĽŀæĿ¥": 8655,
      "Ġmiddel": 8656,
      "Ġadvice": 8657,
      "Ġsuffer": 8658,
      "Ġdesigned": 8659,
      "ĠVolgens": 8660,
      "Ġestabl": 8661,
      "100": 8662,
      "Iedereen": 8663,
      "Ġnation": 8664,
      "Ġkonden": 8665,
      "Ġrod": 8666,
      "Ġrush": 8667,
      "ros": 8668,
      "ĠHolly": 8669,
      "ĠPenn": 8670,
      "rub": 8671,
      "Ġwaarbij": 8672,
      "èµ¶": 8673,
      "Ġservant": 8674,
      "Ġshops": 8675,
      "Ġdetails": 8676,
      "Ġrecognized": 8677,
      "Ġoccurred": 8678,
      "ĠPakistan": 8679,
      "Niemand": 8680,
      "hu": 8681,
      "lang": 8682,
      "nar": 8683,
      "uzz": 8684,
      "Ġta": 8685,
      "Ġaer": 8686,
      "Ġacht": 8687,
      "Ġwave": 8688,
      "rels": 8689,
      "Ġbin": 8690,
      "Ġpunt": 8691,
      "Ġrise": 8692,
      "Ġrijden": 8693,
      "ĠTot": 8694,
      "Ġhaal": 8695,
      "ĠMore": 8696,
      "agan": 8697,
      "ĠWer": 8698,
      "ĠWestern": 8699,
      "Ġknees": 8700,
      "ulated": 8701,
      "Ġchannel": 8702,
      "æľŁ": 8703,
      "blad": 8704,
      "Ġcrimin": 8705,
      "babbles": 8706,
      "Ġawake": 8707,
      "jesty": 8708,
      "çħ§": 8709,
      "Ġepisode": 8710,
      "Ha": 8711,
      "bouw": 8712,
      "dan": 8713,
      "hoog": 8714,
      "uil": 8715,
      "Ġlee": 8716,
      "ura": 8717,
      "okes": 8718,
      "Ġspo": 8719,
      "ĠKelly": 8720,
      "uded": 8721,
      "Ġwaterstof": 8722,
      "Ġterr": 8723,
      "Ġ500": 8724,
      "Ġentertain": 8725,
      "Ġbecomes": 8726,
      "Ġrealized": 8727,
      "Ġformule": 8728,
      "ĠRobin": 8729,
      "Ġmaximaal": 8730,
      "éĿŀå¸¸": 8731,
      "ĠRhoda": 8732,
      "ĠAmsterd": 8733,
      "28": 8734,
      "BC": 8735,
      "EC": 8736,
      "Joe": 8737,
      "aire": 8738,
      "fire": 8739,
      "gent": 8740,
      "Ġwow": 8741,
      "Ġhom": 8742,
      "Ġcats": 8743,
      "aron": 8744,
      "Ġtooth": 8745,
      "otes": 8746,
      "owder": 8747,
      "ador": 8748,
      "Ġkleding": 8749,
      "Ġdeb": 8750,
      "tering": 8751,
      "Ġchampion": 8752,
      "ĠOnder": 8753,
      "Ġseated": 8754,
      "reekt": 8755,
      "ugh": 8756,
      "Ġmaanden": 8757,
      "Ġrefused": 8758,
      "useum": 8759,
      "Ġpulls": 8760,
      "Ġapolog": 8761,
      "Ġraise": 8762,
      "ĠCommand": 8763,
      "Ġdiag": 8764,
      "Ġtunnel": 8765,
      "65": 8766,
      "gsel": 8767,
      "kers": 8768,
      "rig": 8769,
      "Ġhook": 8770,
      "Ġtoest": 8771,
      "ota": 8772,
      "alm": 8773,
      "stoffen": 8774,
      "icans": 8775,
      "iland": 8776,
      "ĠDO": 8777,
      "ä¸ĸ": 8778,
      "ĠPan": 8779,
      "Ġfrag": 8780,
      "emies": 8781,
      "Ġsection": 8782,
      "Ġqueen": 8783,
      "Ġschol": 8784,
      "Ġslim": 8785,
      "Ġswing": 8786,
      "Ġenth": 8787,
      "è®²": 8788,
      "Ġdepart": 8789,
      "ancing": 8790,
      "ĠPerhaps": 8791,
      "Ġcompetition": 8792,
      "Ġbepaalde": 8793,
      "Moet": 8794,
      "jamin": 8795,
      "ĠCharlie": 8796,
      "Eh": 8797,
      "Since": 8798,
      "rs": 8799,
      "touches": 8800,
      "Ġach": 8801,
      "Ġaft": 8802,
      "anced": 8803,
      "Ġfoll": 8804,
      "Ġvoy": 8805,
      "Ġbeide": 8806,
      "ika": 8807,
      "ĠCat": 8808,
      "together": 8809,
      "Ġremoved": 8810,
      "werpen": 8811,
      "å¦¹": 8812,
      "ä¼¤": 8813,
      "nothing": 8814,
      "Ġcurr": 8815,
      "Ġzwart": 8816,
      "Ġshooting": 8817,
      "Ġetc": 8818,
      "ĠSuper": 8819,
      "Ġcruel": 8820,
      "ĠâĮĪ": 8821,
      "Ġrifle": 8822,
      "Ġfarther": 8823,
      "Ġinhabit": 8824,
      "Father": 8825,
      "VER": 8826,
      "gly": 8827,
      "zond": 8828,
      "Ġtender": 8829,
      "itan": 8830,
      "Ġcurt": 8831,
      "Ġnerv": 8832,
      "Ġlack": 8833,
      "Ġweken": 8834,
      "ĠAwww": 8835,
      "ĠHa": 8836,
      "oorlog": 8837,
      "Ġmetal": 8838,
      "Ġsurely": 8839,
      "åĩĨ": 8840,
      "æł¹": 8841,
      "Ġwondered": 8842,
      "Ġdefinitely": 8843,
      "Ġengaged": 8844,
      "ĠAdams": 8845,
      "Ġgovernor": 8846,
      "è·ŁæĪĳ": 8847,
      "Ġrapidly": 8848,
      "33": 8849,
      "IJ": 8850,
      "law": 8851,
      "mail": 8852,
      "ĠMO": 8853,
      "Ġnic": 8854,
      "eta": 8855,
      "Ġliber": 8856,
      "Ġzus": 8857,
      "ĠTw": 8858,
      "ĠSur": 8859,
      "ikes": 8860,
      "Ġenemies": 8861,
      "Ġshell": 8862,
      "Ġrecently": 8863,
      "Ġlanded": 8864,
      "Ġpersons": 8865,
      "ĠArch": 8866,
      "Ġrealize": 8867,
      "æł¡": 8868,
      "ĠSpot": 8869,
      "Ġfacts": 8870,
      "Ġbags": 8871,
      "Ġgrandmamma": 8872,
      "åĮ»": 8873,
      "Ġberg": 8874,
      "playing": 8875,
      "Everything": 8876,
      "Ġcopy": 8877,
      "adesh": 8878,
      "Ġliefde": 8879,
      "ĠRobbie": 8880,
      "Ġarchitect": 8881,
      "ĠMonday": 8882,
      "ILL": 8883,
      "ju": 8884,
      "å²": 8885,
      "erry": 8886,
      "Ġok": 8887,
      "Ġmouse": 8888,
      "ilty": 8889,
      "ilities": 8890,
      "ĠCons": 8891,
      "Ġaltern": 8892,
      "Ġvanaf": 8893,
      "ĠPre": 8894,
      "ĠWall": 8895,
      "Ġuitz": 8896,
      "Ġscreen": 8897,
      "Ġsuppl": 8898,
      "Ġ2002": 8899,
      "éĩı": 8900,
      "ĠAnne": 8901,
      "Didn": 8902,
      "çĶŁæ´»": 8903,
      "Ġsailor": 8904,
      "Ġdivided": 8905,
      "ĠDaarna": 8906,
      "Ġconnected": 8907,
      "PO": 8908,
      "cup": 8909,
      "dri": 8910,
      "wed": 8911,
      "Ġbike": 8912,
      "Ġhi": 8913,
      "onel": 8914,
      "Ġpity": 8915,
      "Ġheight": 8916,
      "Ġhesit": 8917,
      "Ġkeek": 8918,
      "Ġbears": 8919,
      "Ġzoo": 8920,
      "oper": 8921,
      "ardy": 8922,
      "ardin": 8923,
      "iteiten": 8924,
      "avel": 8925,
      "Ġdrown": 8926,
      "ĠFran": 8927,
      "ĠAndrew": 8928,
      "Ġstops": 8929,
      "afel": 8930,
      "Ġ70": 8931,
      "Ġdolly": 8932,
      "Ġvechten": 8933,
      "Ġgolden": 8934,
      "ratic": 8935,
      "Ġsterven": 8936,
      "Ġaccepted": 8937,
      "ä¾¿": 8938,
      "Ġslaap": 8939,
      "Ġsucceeded": 8940,
      "ĠIllustrations": 8941,
      "ĠPeggy": 8942,
      "Open": 8943,
      "aign": 8944,
      "press": 8945,
      "rd": 8946,
      "Ġï¿½ï¿½ï¿½ï¿½": 8947,
      "Ġwore": 8948,
      "Ġcode": 8949,
      "Ġgingen": 8950,
      "Ġtoes": 8951,
      "Ġnap": 8952,
      "Ġjigsaw": 8953,
      "sect": 8954,
      "ĠSince": 8955,
      "ĠHoll": 8956,
      "elijks": 8957,
      "Ġdrama": 8958,
      "izabeth": 8959,
      "werken": 8960,
      "Ġdistinct": 8961,
      "Ġwooden": 8962,
      "gelopen": 8963,
      "Ġillustr": 8964,
      "----------------------------------------": 8965,
      "Ġkoolstof": 8966,
      "Ġcredit": 8967,
      "ĠAmsterdam": 8968,
      "Most": 8969,
      "cod": 8970,
      "Ġwrest": 8971,
      "Ġocean": 8972,
      "Ġyard": 8973,
      "Ġstellen": 8974,
      "ĠBas": 8975,
      "ĠHE": 8976,
      "ĠCle": 8977,
      "ĠCorn": 8978,
      "ifer": 8979,
      "Ġspect": 8980,
      "Ġprins": 8981,
      "ä¸Ģæł·": 8982,
      "Ġstring": 8983,
      "Ġcrash": 8984,
      "uurd": 8985,
      "Ġparish": 8986,
      "ĠBefore": 8987,
      "ĠTrans": 8988,
      "Ġmistress": 8989,
      "------------------------------------------------------------------------": 8990,
      "ĠLucy": 8991,
      "Ġveroorz": 8992,
      "ĠCanadian": 8993,
      "Ġadvantage": 8994,
      "ĠTexas": 8995,
      "WH": 8996,
      "halen": 8997,
      "kant": 8998,
      "Ġtale": 8999,
      "Ġlibrary": 9000,
      "ooper": 9001,
      "ĠMass": 9002,
      "ersch": 9003,
      "ĠWomen": 9004,
      "ĠNu": 9005,
      "Ġexhib": 9006,
      "Ġbrood": 9007,
      "ousers": 9008,
      "Ġscen": 9009,
      "gery": 9010,
      "Ġvoices": 9011,
      "Ġklim": 9012,
      "ITH": 9013,
      "æµģ": 9014,
      "Ġordinary": 9015,
      "vocalize": 9016,
      "æģ¯": 9017,
      "Ġcandid": 9018,
      "æŁ¥": 9019,
      "whisper": 9020,
      "iable": 9021,
      "kins": 9022,
      "kund": 9023,
      "sche": 9024,
      "Ġboeken": 9025,
      "Ġgain": 9026,
      "Ġnurse": 9027,
      "Ġlun": 9028,
      "Ġrear": 9029,
      "ĠSoc": 9030,
      "ĠParliament": 9031,
      "ĠWE": 9032,
      "Ġsecurity": 9033,
      "Ġsneller": 9034,
      "Ġowner": 9035,
      "Ġrooms": 9036,
      "standig": 9037,
      "åĵ¦": 9038,
      "Ġdrops": 9039,
      "Ġcups": 9040,
      "æķĻ": 9041,
      "Ġsprang": 9042,
      "Ġgods": 9043,
      "Ġculture": 9044,
      ",...": 9045,
      "74": 9046,
      "Se": 9047,
      "Ġond": 9048,
      "Ġkast": 9049,
      "uted": 9050,
      "achen": 9051,
      "ĠWH": 9052,
      "ĠLos": 9053,
      "Ġseized": 9054,
      "ĠKijk": 9055,
      "Ġtalks": 9056,
      "Ġbestaan": 9057,
      "åİ»äºĨ": 9058,
      "annes": 9059,
      "Ġrespond": 9060,
      "Ġforever": 9061,
      "Ġsucces": 9062,
      "While": 9063,
      "Ġstatistics": 9064,
      "Ġprisoner": 9065,
      "iggles": 9066,
      "ĠAmerikaanse": 9067,
      "Ġintroduced": 9068,
      "Ġseparate": 9069,
      "Ġdoggie": 9070,
      "bren": 9071,
      "hang": 9072,
      "ients": 9073,
      "kracht": 9074,
      "part": 9075,
      "wan": 9076,
      "Ãĸ": 9077,
      "Ġtin": 9078,
      "Ġwol": 9079,
      "Ġoven": 9080,
      "stad": 9081,
      "acters": 9082,
      "ĠSO": 9083,
      "Ġnoted": 9084,
      "Ġshining": 9085,
      "ĠPict": 9086,
      "ĠNorthern": 9087,
      "ĠRing": 9088,
      "oegen": 9089,
      "Ġblame": 9090,
      "iano": 9091,
      "ä¸įè¿ĩ": 9092,
      "show": 9093,
      "obile": 9094,
      "Ġwaard": 9095,
      "Ġcontains": 9096,
      "Ġkinda": 9097,
      "Ġstranger": 9098,
      "Ġcommission": 9099,
      "åĨħ": 9100,
      "Ġexciting": 9101,
      "Ġclimbed": 9102,
      "Ġkeys": 9103,
      "woordig": 9104,
      "Ġgeleerd": 9105,
      "Ġincrease": 9106,
      "Ġleerlingen": 9107,
      "ç´§": 9108,
      "Gaat": 9109,
      "Other": 9110,
      "ga": 9111,
      "hop": 9112,
      "lf": 9113,
      "squ": 9114,
      "sighs": 9115,
      "talk": 9116,
      "really": 9117,
      "ishes": 9118,
      "Ġhomes": 9119,
      "Ġcells": 9120,
      "Ġriding": 9121,
      "ĠBud": 9122,
      "ĠJun": 9123,
      "ĠLook": 9124,
      "è¿ŀ": 9125,
      "Ġtractor": 9126,
      "gets": 9127,
      "Ġcommittee": 9128,
      "eltje": 9129,
      "Ġsteal": 9130,
      "Ġnaast": 9131,
      "Ġbadly": 9132,
      "Ġmedal": 9133,
      "å½±": 9134,
      "Ġmainly": 9135,
      "Ġjumping": 9136,
      "Ġfamilies": 9137,
      "Ġobserv": 9138,
      "Ġfleet": 9139,
      "Ġvandaan": 9140,
      "ĠCentral": 9141,
      "é¡¹": 9142,
      "ĠAlexander": 9143,
      "Ġgelukkig": 9144,
      "Ġinternational": 9145,
      "Ġkoffie": 9146,
      "voc": 9147,
      "wijs": 9148,
      "Ġfate": 9149,
      "Ġrecept": 9150,
      "rose": 9151,
      "Ġasc": 9152,
      "ĠDaw": 9153,
      "ä¸Ķ": 9154,
      "ichten": 9155,
      "ĠOur": 9156,
      "å¥¶": 9157,
      "Ġdroom": 9158,
      "ä¸ºäºĨ": 9159,
      "Ġforeign": 9160,
      "Ġrecorder": 9161,
      "æķ´": 9162,
      "Ġprovided": 9163,
      "Ġluister": 9164,
      "Ġ1960": 9165,
      "Ġauthority": 9166,
      "Ġreligious": 9167,
      "Ġreferred": 9168,
      "Ġgroter": 9169,
      "CE": 9170,
      "Ġaid": 9171,
      "Ġdere": 9172,
      "only": 9173,
      "Ġgast": 9174,
      "Ġvit": 9175,
      "Ġreput": 9176,
      "Ġdoin": 9177,
      "ĠBible": 9178,
      "ĠWales": 9179,
      "Ġopens": 9180,
      "Ġerin": 9181,
      "ĠRose": 9182,
      "ĠFour": 9183,
      "è¿ĳ": 9184,
      "ava": 9185,
      "Ġadvis": 9186,
      "Ġbelt": 9187,
      "Ġappointed": 9188,
      "Ġgraves": 9189,
      "åįķ": 9190,
      "Ġveh": 9191,
      "otted": 9192,
      "ĠAdam": 9193,
      "Ġspecific": 9194,
      "Ġsoldier": 9195,
      "åĸĿ": 9196,
      "Ġeffects": 9197,
      "Ġdreams": 9198,
      "è±Ĩ": 9199,
      "ĠPurdie": 9200,
      "Ġphilos": 9201,
      "73": 9202,
      "88": 9203,
      "New": 9204,
      "bour": 9205,
      "gone": 9206,
      "ena": 9207,
      "Ġsoorten": 9208,
      "Ġdish": 9209,
      "isen": 9210,
      "icing": 9211,
      "ĠTekst": 9212,
      "Ġvervolgens": 9213,
      "iance": 9214,
      "Ġwrit": 9215,
      "æĿĢ": 9216,
      "Ġrecomm": 9217,
      "soft": 9218,
      "ĠMaria": 9219,
      "éĩĳ": 9220,
      "Ġhighly": 9221,
      "éĩĮéĿ¢": 9222,
      "Ġexcellent": 9223,
      "åĮĹ": 9224,
      "Ġoriginally": 9225,
      "Ġfortune": 9226,
      "Ġbanana": 9227,
      "Ġpirate": 9228,
      "Ġstructure": 9229,
      "Ġexplanation": 9230,
      "72": 9231,
      "Care": 9232,
      "found": 9233,
      "ki": 9234,
      "vang": 9235,
      "ata": 9236,
      "Ġbast": 9237,
      "ĠpH": 9238,
      "ompl": 9239,
      "Ġvold": 9240,
      "Ġdochter": 9241,
      "ĠSol": 9242,
      "ĠSax": 9243,
      "ifice": 9244,
      "ĠJa": 9245,
      "emand": 9246,
      "ĠVeel": 9247,
      "Ġflood": 9248,
      "ĠStud": 9249,
      "icted": 9250,
      "Ġcompos": 9251,
      "Ġterrit": 9252,
      "Ġwarning": 9253,
      "Ġcoal": 9254,
      "Ġuseful": 9255,
      "èĢĥ": 9256,
      "Ġhearts": 9257,
      "æĸĩ": 9258,
      "Ġgiant": 9259,
      "Ġtransl": 9260,
      "æĦıæĢĿ": 9261,
      "ĠReginald": 9262,
      "åŁİ": 9263,
      "Ġbubbles": 9264,
      "å»º": 9265,
      "round": 9266,
      "Ã¤": 9267,
      "Ġdoord": 9268,
      "uman": 9269,
      "ĠFair": 9270,
      "plant": 9271,
      "Ġadvan": 9272,
      "Ġowned": 9273,
      "Ġbreast": 9274,
      "ĠArthur": 9275,
      "Alsjeblieft": 9276,
      "Ġextent": 9277,
      "Ġproduce": 9278,
      "Ġblijf": 9279,
      "Ġinvited": 9280,
      "ĠRec": 9281,
      "Ġexcit": 9282,
      "loren": 9283,
      "Ġhorsie": 9284,
      "Ġmidden": 9285,
      "çº¢": 9286,
      "Ġvroeger": 9287,
      "Ġlinks": 9288,
      "ĠJacob": 9289,
      "best": 9290,
      "ca": 9291,
      "loed": 9292,
      "oci": 9293,
      "pol": 9294,
      "æļ": 9295,
      "Ġgoo": 9296,
      "Ġpin": 9297,
      "Ġrood": 9298,
      "ĠAsh": 9299,
      "teren": 9300,
      "ulate": 9301,
      "Ġcancer": 9302,
      "ĠJam": 9303,
      "ĠJord": 9304,
      "Ġeraan": 9305,
      "Ġoveral": 9306,
      "Ġjustice": 9307,
      "Ġpeas": 9308,
      "ienen": 9309,
      "Ġcute": 9310,
      "Ġbellen": 9311,
      "coming": 9312,
      "è®©æĪĳ": 9313,
      "åıĳçİ°": 9314,
      "Ġaardig": 9315,
      "åĿĲ": 9316,
      "æ¸¸": 9317,
      "Ġbutterfly": 9318,
      "arcely": 9319,
      "éŁ³": 9320,
      "aterpillar": 9321,
      ",-": 9322,
      "Leave": 9323,
      "Spe": 9324,
      "dam": 9325,
      "last": 9326,
      "punt": 9327,
      "Ġobey": 9328,
      "Ġloop": 9329,
      "Ġinn": 9330,
      "icago": 9331,
      "iev": 9332,
      "ĠBoston": 9333,
      "ellie": 9334,
      "ĠRac": 9335,
      "ĠStep": 9336,
      "Ġcontent": 9337,
      "Ġactual": 9338,
      "Ġmoments": 9339,
      "gering": 9340,
      "Ġhorrible": 9341,
      "ĠAsia": 9342,
      "Ġsunshine": 9343,
      "Ġpulling": 9344,
      "pointing": 9345,
      "ä¸¤ä¸ª": 9346,
      "Ġindividual": 9347,
      "Ġinnocent": 9348,
      "Vertel": 9349,
      "._,": 9350,
      "43": 9351,
      "cut": 9352,
      "dale": 9353,
      "fil": 9354,
      "gele": 9355,
      "posed": 9356,
      "sing": 9357,
      "zier": 9358,
      "Ġnick": 9359,
      "Ġjar": 9360,
      "ĠTra": 9361,
      "ĠWie": 9362,
      "ĠLara": 9363,
      "ATT": 9364,
      "Ġexch": 9365,
      "ordon": 9366,
      "Ġcontribut": 9367,
      "Ġguilty": 9368,
      "Ġonderdeel": 9369,
      "Ġdesper": 9370,
      "Ġ1996": 9371,
      "Ġ1999": 9372,
      "Ġoperation": 9373,
      "remember": 9374,
      "pretend": 9375,
      "Ġarranged": 9376,
      "Ġproposed": 9377,
      "Ġwaarschijnlijk": 9378,
      "Ġacquaint": 9379,
      "ironment": 9380,
      "Bill": 9381,
      "Naar": 9382,
      "Pas": 9383,
      "kiss": 9384,
      "Ġcave": 9385,
      "church": 9386,
      "Ġjonge": 9387,
      "Ġstab": 9388,
      "ĠBekijk": 9389,
      "una": 9390,
      "umble": 9391,
      "ĠPac": 9392,
      "Ġverloren": 9393,
      "ĠLy": 9394,
      "Ġerv": 9395,
      "wege": 9396,
      "Ġtrousers": 9397,
      "Ġflash": 9398,
      "ä¸ĢçĽ´": 9399,
      "åħ´": 9400,
      "Ġsets": 9401,
      "å¿ħ": 9402,
      "æł¼": 9403,
      "Ġinvloed": 9404,
      "Ġsubm": 9405,
      "Ġpaying": 9406,
      "Ġ1970": 9407,
      "Shut": 9408,
      "Ġclosely": 9409,
[...]
