{
  "version": "1.0",
  "truncation": null,
  "padding": null,
  "added_tokens": [
    {
      "id": 0,
      "content": "<unk>",
      "single_word": false,
      "lstrip": false,
      "rstrip": false,
      "normalized": false,
      "special": true
    },
    {
      "id": 1,
      "content": "<s>",
      "single_word": false,
      "lstrip": false,
      "rstrip": false,
      "normalized": false,
      "special": true
    },
    {
      "id": 2,
      "content": "</s>",
      "single_word": false,
      "lstrip": false,
      "rstrip": false,
      "normalized": false,
      "special": true
    },
    {
      "id": 3,
      "content": "<pad>",
      "single_word": false,
      "lstrip": false,
      "rstrip": false,
      "normalized": false,
      "special": true
    },
    {
      "id": 4,
      "content": "<mask>",
      "single_word": false,
      "lstrip": false,
      "rstrip": false,
      "normalized": false,
      "special": true
    },
    {
      "id": 5,
      "content": "，",
      "single_word": false,
      "lstrip": false,
      "rstrip": false,
      "normalized": false,
      "special": true
    },
    {
      "id": 6,
      "content": "。",
      "single_word": false,
      "lstrip": false,
      "rstrip": false,
      "normalized": false,
      "special": true
    },
    {
      "id": 7,
      "content": "、",
      "single_word": false,
      "lstrip": false,
      "rstrip": false,
      "normalized": false,
      "special": true
    },
    {
      "id": 8,
      "content": "！",
      "single_word": false,
      "lstrip": false,
      "rstrip": false,
      "normalized": false,
      "special": true
    },
    {
      "id": 9,
      "content": "？",
      "single_word": false,
      "lstrip": false,
      "rstrip": false,
      "normalized": false,
      "special": true
    },
    {
      "id": 10,
      "content": "：",
      "single_word": false,
      "lstrip": false,
      "rstrip": false,
      "normalized": false,
      "special": true
    },
    {
      "id": 11,
      "content": "；",
      "single_word": false,
      "lstrip": false,
      "rstrip": false,
      "normalized": false,
      "special": true
    },
    {
      "id": 12,
      "content": "「",
      "single_word": false,
      "lstrip": false,
      "rstrip": false,
      "normalized": false,
      "special": true
    },
    {
      "id": 13,
      "content": "」",
      "single_word": false,
      "lstrip": false,
      "rstrip": false,
      "normalized": false,
      "special": true
    },
    {
      "id": 14,
      "content": "（",
      "single_word": false,
      "lstrip": false,
      "rstrip": false,
      "normalized": false,
      "special": true
    },
    {
      "id": 15,
      "content": "）",
      "single_word": false,
      "lstrip": false,
      "rstrip": false,
      "normalized": false,
      "special": true
    },
    {
      "id": 16,
      "content": "《",
      "single_word": false,
      "lstrip": false,
      "rstrip": false,
      "normalized": false,
      "special": true
    },
    {
      "id": 17,
      "content": "》",
      "single_word": false,
      "lstrip": false,
      "rstrip": false,
      "normalized": false,
      "special": true
    },
    {
      "id": 18,
      "content": "【",
      "single_word": false,
      "lstrip": false,
      "rstrip": false,
      "normalized": false,
      "special": true
    },
    {
      "id": 19,
      "content": "】",
      "single_word": false,
      "lstrip": false,
      "rstrip": false,
      "normalized": false,
      "special": true
    }
  ],
  "normalizer": null,
  "pre_tokenizer": {
    "type": "ByteLevel",
    "add_prefix_space": false,
    "trim_offsets": true,
    "use_regex": true
  },
  "post_processor": {
    "type": "ByteLevel",
    "add_prefix_space": true,
    "trim_offsets": false,
    "use_regex": true
  },
  "decoder": {
    "type": "ByteLevel",
    "add_prefix_space": true,
    "trim_offsets": true,
    "use_regex": true
  },
  "model": {
    "type": "BPE",
    "dropout": null,
    "unk_token": null,
    "continuing_subword_prefix": null,
    "end_of_word_suffix": null,
    "fuse_unk": false,
    "byte_fallback": false,
    "ignore_merges": false,
    "vocab": {
      "<unk>": 0,
      "<s>": 1,
      "</s>": 2,
      "<pad>": 3,
      "<mask>": 4,
      "，": 5,
      "。": 6,
      "、": 7,
      "！": 8,
      "？": 9,
      "：": 10,
      "；": 11,
      "「": 12,
      "」": 13,
      "（": 14,
      "）": 15,
      "《": 16,
      "》": 17,
      "【": 18,
      "】": 19,
      "!": 20,
      "\"": 21,
      "#": 22,
      "$": 23,
      "%": 24,
      "&": 25,
      "'": 26,
      "(": 27,
      ")": 28,
      "*": 29,
      "+": 30,
      ",": 31,
      "-": 32,
      ".": 33,
      "/": 34,
      "0": 35,
      "1": 36,
      "2": 37,
      "3": 38,
      "4": 39,
      "5": 40,
      "6": 41,
      "7": 42,
      "8": 43,
      "9": 44,
      ":": 45,
      ";": 46,
      "<": 47,
      "=": 48,
      ">": 49,
      "?": 50,
      "@": 51,
      "A": 52,
      "B": 53,
      "C": 54,
      "D": 55,
      "E": 56,
      "F": 57,
      "G": 58,
      "H": 59,
      "I": 60,
      "J": 61,
      "K": 62,
      "L": 63,
      "M": 64,
      "N": 65,
      "O": 66,
      "P": 67,
      "Q": 68,
      "R": 69,
      "S": 70,
      "T": 71,
      "U": 72,
      "V": 73,
      "W": 74,
      "X": 75,
      "Y": 76,
      "Z": 77,
      "[": 78,
      "\\": 79,
      "]": 80,
      "^": 81,
      "_": 82,
      "`": 83,
      "a": 84,
      "b": 85,
      "c": 86,
      "d": 87,
      "e": 88,
      "f": 89,
      "g": 90,
      "h": 91,
      "i": 92,
      "j": 93,
      "k": 94,
      "l": 95,
      "m": 96,
      "n": 97,
      "o": 98,
      "p": 99,
      "q": 100,
      "r": 101,
      "s": 102,
      "t": 103,
      "u": 104,
      "v": 105,
      "w": 106,
      "x": 107,
      "y": 108,
      "z": 109,
      "{": 110,
      "|": 111,
      "}": 112,
      "~": 113,
      "¡": 114,
      "¢": 115,
      "£": 116,
      "¤": 117,
      "¥": 118,
      "¦": 119,
      "§": 120,
      "¨": 121,
      "©": 122,
      "ª": 123,
      "«": 124,
      "¬": 125,
      "®": 126,
      "¯": 127,
      "°": 128,
      "±": 129,
      "²": 130,
      "³": 131,
      "´": 132,
      "µ": 133,
      "¶": 134,
      "·": 135,
      "¸": 136,
      "¹": 137,
      "º": 138,
      "»": 139,
      "¼": 140,
      "½": 141,
      "¾": 142,
      "¿": 143,
      "À": 144,
      "Á": 145,
      "Â": 146,
      "Ã": 147,
      "Ä": 148,
      "Å": 149,
      "Æ": 150,
      "Ç": 151,
      "È": 152,
      "É": 153,
      "Ê": 154,
      "Ë": 155,
      "Ì": 156,
      "Í": 157,
      "Î": 158,
      "Ï": 159,
      "Ð": 160,
      "Ñ": 161,
      "Ò": 162,
      "Ó": 163,
      "Ô": 164,
      "Õ": 165,
      "Ö": 166,
      "×": 167,
      "Ø": 168,
      "Ù": 169,
      "Ú": 170,
      "Û": 171,
      "Ü": 172,
      "Ý": 173,
      "Þ": 174,
      "ß": 175,
      "à": 176,
      "á": 177,
      "â": 178,
      "ã": 179,
      "ä": 180,
      "å": 181,
      "æ": 182,
      "ç": 183,
      "è": 184,
      "é": 185,
      "ê": 186,
      "ë": 187,
      "ì": 188,
      "í": 189,
      "î": 190,
      "ï": 191,
      "ð": 192,
      "ñ": 193,
      "ò": 194,
      "ó": 195,
      "ô": 196,
      "õ": 197,
      "ö": 198,
      "÷": 199,
      "ø": 200,
      "ù": 201,
      "ú": 202,
      "û": 203,
      "ü": 204,
      "ý": 205,
      "þ": 206,
      "ÿ": 207,
      "Ā": 208,
      "ā": 209,
      "Ă": 210,
      "ă": 211,
      "Ą": 212,
      "ą": 213,
      "Ć": 214,
      "ć": 215,
      "Ĉ": 216,
      "ĉ": 217,
      "Ċ": 218,
      "ċ": 219,
      "Č": 220,
      "č": 221,
      "Ď": 222,
      "ď": 223,
      "Đ": 224,
      "đ": 225,
      "Ē": 226,
      "ē": 227,
      "Ĕ": 228,
      "ĕ": 229,
      "Ė": 230,
      "ė": 231,
      "Ę": 232,
      "ę": 233,
      "Ě": 234,
      "ě": 235,
      "Ĝ": 236,
      "ĝ": 237,
      "Ğ": 238,
      "ğ": 239,
      "Ġ": 240,
      "ġ": 241,
      "Ģ": 242,
      "ģ": 243,
      "Ĥ": 244,
      "ĥ": 245,
      "Ħ": 246,
      "ħ": 247,
      "Ĩ": 248,
      "ĩ": 249,
      "Ī": 250,
      "ī": 251,
      "Ĭ": 252,
      "ĭ": 253,
      "Į": 254,
      "į": 255,
      "İ": 256,
      "ı": 257,
      "Ĳ": 258,
      "ĳ": 259,
      "Ĵ": 260,
      "ĵ": 261,
      "Ķ": 262,
      "ķ": 263,
      "ĸ": 264,
      "Ĺ": 265,
      "ĺ": 266,
      "Ļ": 267,
      "ļ": 268,
      "Ľ": 269,
      "ľ": 270,
      "Ŀ": 271,
      "ŀ": 272,
      "Ł": 273,
      "ł": 274,
      "Ń": 275,
      "en": 276,
      "ä¸": 277,
      "er": 278,
      "Ġt": 279,
      "an": 280,
      "he": 281,
      "Ġd": 282,
      "in": 283,
      "Ġw": 284,
      "äº": 285,
      "Ġ.": 286,
      "at": 287,
      "Ġo": 288,
      "çļ": 289,
      "çļĦ": 290,
      "Ġm": 291,
      "Ġa": 292,
      "Ġs": 293,
      "ä»": 294,
      "æĪ": 295,
      "Ġb": 296,
      "et": 297,
      "ä½": 298,
      "Ġi": 299,
      "è¿": 300,
      "Ġg": 301,
      "ar": 302,
      "æĪĳ": 303,
      "ou": 304,
      "Ġv": 305,
      "Ġh": 306,
      "el": 307,
      "æĺ": 308,
      "or": 309,
      "ij": 310,
      "Ġn": 311,
      "æĺ¯": 312,
      "Ġthe": 313,
      "Ġhe": 314,
      "on": 315,
      "ä½ł": 316,
      "äºĨ": 317,
      "å¤": 318,
      "æľ": 319,
      "es": 320,
      "ed": 321,
      "ä¹": 322,
      "åı": 323,
      "åĲ": 324,
      "å°": 325,
      "Ġde": 326,
      "ä¸Ģ": 327,
      "it": 328,
      "ä¸į": 329,
      "Ġz": 330,
      "ch": 331,
      "Ġe": 332,
      "ing": 333,
      "Ġl": 334,
      "Ġp": 335,
      "and": 336,
      "Ġj": 337,
      "è¯": 338,
      "è¿Ļ": 339,
      "Ġf": 340,
      "Ġk": 341,
      "al": 342,
      "å®": 343,
      "is": 344,
      "åľ": 345,
      "Ġc": 346,
      "Ġin": 347,
      "åĪ": 348,
      "as": 349,
      "om": 350,
      "ie": 351,
      "re": 352,
      "Ġis": 353,
      "Ġto": 354,
      "Ġth": 355,
      "aar": 356,
      "Ġ,": 357,
      "åħ": 358,
      "å¥": 359,
      "æĿ": 360,
      "ä¸ª": 361,
      "æľī": 362,
      "ll": 363,
      "MO": 364,
      "MOT": 365,
      "å°±": 366,
      "Ġy": 367,
      "Ġof": 368,
      "Ġje": 369,
      "ig": 370,
      "åĳ": 371,
      "ot": 372,
      "åľ¨": 373,
      "ãĢ": 374,
      "st": 375,
      "åŃ": 376,
      "Ġeen": 377,
      "Ġand": 378,
      "å¾": 379,
      "ĥ½": 380,
      "Ġyou": 381,
      "Ġhet": 382,
      "æī": 383,
      "ç»": 384,
      "ä»¬": 385,
      "CH": 386,
      "oor": 387,
      "ĠI": 388,
      "CHI": 389,
      "ä»ĸ": 390,
      "Ġå": 391,
      "Ġ?": 392,
      "Ġon": 393,
      "ãĢĤ": 394,
      "ä¹Ī": 395,
      "æĿ¥": 396,
      "le": 397,
      "æĹ": 398,
      "ad": 399,
      "äºº": 400,
      "oo": 401,
      "ĠæĪĳ": 402,
      "çĶ": 403,
      "åķ": 404,
      "Ġvan": 405,
      "çľ": 406,
      "Ġbe": 407,
      "ere": 408,
      "Ġu": 409,
      "è¯´": 410,
      "åĽ": 411,
      "id": 412,
      "ra": 413,
      "Ġen": 414,
      "Ġge": 415,
      "ä¼": 416,
      "Ġme": 417,
      "..": 418,
      "éĤ": 419,
      "iet": 420,
      "ro": 421,
      "å¥½": 422,
      "åķĬ": 423,
      "ijn": 424,
      "éĤ£": 425,
      "Ġst": 426,
      "ur": 427,
      "æĢ": 428,
      "ve": 429,
      "Ġwe": 430,
      "ak": 431,
      "åİ": 432,
      "'s": 433,
      "ut": 434,
      "æĥ": 435,
      "èµ": 436,
      "æ²": 437,
      "Ġä½ł": 438,
      "il": 439,
      "¦ģ": 440,
      "éĩ": 441,
      "am": 442,
      "è¦ģ": 443,
      "Ġit": 444,
      "ow": 445,
      "åį": 446,
      "è®": 447,
      "Ġop": 448,
      "å¤§": 449,
      "cht": 450,
      "Ġdat": 451,
      "ent": 452,
      "åĬ": 453,
      "Ġniet": 454,
      "åĪ°": 455,
      "ver": 456,
      "Ġwas": 457,
      "å¿": 458,
      "Ġver": 459,
      "è§": 460,
      "åĩ": 461,
      "èĢ": 462,
      "ic": 463,
      "Ġr": 464,
      "gen": 465,
      "ay": 466,
      "ä¸Ĭ": 467,
      "Ik": 468,
      "ee": 469,
      "æĬ": 470,
      "un": 471,
      "åŃĲ": 472,
      "å·": 473,
      "å¼": 474,
      "de": 475,
      "å¹": 476,
      "Ġik": 477,
      "å¸": 478,
      "çİ": 479,
      "åĨ": 480,
      "ä¹Ł": 481,
      "å¯": 482,
      "æ²¡": 483,
      "den": 484,
      "Ġte": 485,
      "è¿ĺ": 486,
      "Ġthat": 487,
      "å¾Ĺ": 488,
      "éĥ½": 489,
      "oe": 490,
      "æł": 491,
      "åİ»": 492,
      "Ġwh": 493,
      "çľĭ": 494,
      "å°ı": 495,
      "æĸ": 496,
      "ag": 497,
      "ĠA": 498,
      "ĠM": 499,
      "éĹ": 500,
      "ä¼ļ": 501,
      "ijk": 502,
      "Ġal": 503,
      "ä¸º": 504,
      "èĥ½": 505,
      "ĠT": 506,
      "åı¯": 507,
      "è·": 508,
      "ĠD": 509,
      "se": 510,
      "est": 511,
      "æĹ¶": 512,
      "ĠS": 513,
      "im": 514,
      "æŃ": 515,
      "çĿ": 516,
      "åĵ": 517,
      "der": 518,
      "Ħ¿": 519,
      "Ġdo": 520,
      "ä»¥": 521,
      "å¦": 522,
      "ik": 523,
      "Ġ'": 524,
      "ir": 525,
      "ol": 526,
      "Ġer": 527,
      "å¤©": 528,
      "åĴ": 529,
      "ä»Ģ": 530,
      "ä»Ģä¹Ī": 531,
      "åĦ¿": 532,
      "éģ": 533,
      "ven": 534,
      "ä¸ĭ": 535,
      "éĿ": 536,
      "th": 537,
      "åĲİ": 538,
      "ft": 539,
      "ĠH": 540,
      "ken": 541,
      "å®¶": 542,
      "è¡": 543,
      "Ġ...": 544,
      "ant": 545,
      "èĩ": 546,
      "è¿ĩ": 547,
      "åº": 548,
      "äºĭ": 549,
      "Ġvoor": 550,
      "çĽ": 551,
      "Ġzijn": 552,
      "ä¸Ģä¸ª": 553,
      "us": 554,
      "Ġze": 555,
      "Ġmet": 556,
      "éĢ": 557,
      "çĪ": 558,
      "æĥ³": 559,
      "Ġgo": 560,
      "ac": 561,
      "æķ": 562,
      "Ġheb": 563,
      "Ġfor": 564,
      "çĿĢ": 565,
      "åĳ¢": 566,
      "ly": 567,
      "'t": 568,
      "ht": 569,
      "å¯¹": 570,
      "ĠB": 571,
      "ion": 572,
      "ld": 573,
      "ier": 574,
      "Ġè¿Ļ": 575,
      "éĩĮ": 576,
      "æĭ": 577,
      "ill": 578,
      "æĦ": 579,
      "Ġmo": 580,
      "è°": 581,
      "åĲĹ": 582,
      "Ġre": 583,
      "å¤ļ": 584,
      "åĩº": 585,
      "æŀ": 586,
      "æ¯": 587,
      "çī": 588,
      "ç§": 589,
      "op": 590,
      "ap": 591,
      "åĲ§": 592,
      "çŁ": 593,
      "aat": 594,
      "ith": 595,
      "çĶŁ": 596,
      "æ°": 597,
      "ge": 598,
      "åľ°": 599,
      "ers": 600,
      "å½": 601,
      "ell": 602,
      "çİ°": 603,
      "å°±æĺ¯": 604,
      "éģĵ": 605,
      "çĤ": 606,
      "æĪĳä»¬": 607,
      "çĦ": 608,
      "ĠC": 609,
      "Ġall": 610,
      "Ġno": 611,
      "Ġdie": 612,
      "ä¸Ń": 613,
      "èĩª": 614,
      "ç»Ļ": 615,
      "çĦ¶": 616,
      "Ġ1": 617,
      "æĶ": 618,
      "è¾": 619,
      "Ġwor": 620,
      "Ġaan": 621,
      "æ¬": 622,
      "åģ": 623,
      "è¿Ļä¸ª": 624,
      "Ġha": 625,
      "aan": 626,
      "åĢ": 627,
      "ome": 628,
      "ĠW": 629,
      "ri": 630,
      "åĴĮ": 631,
      "em": 632,
      "è·Ł": 633,
      "Ġwith": 634,
      "Ġan": 635,
      "æł·": 636,
      "ight": 637,
      "ct": 638,
      "ok": 639,
      "Ġ\"": 640,
      "å¿ĥ": 641,
      "å¾Ī": 642,
      "Ġnot": 643,
      "æİ": 644,
      "çĤ¹": 645,
      "ĠP": 646,
      "ter": 647,
      "ä¿": 648,
      "åĮ": 649,
      "ze": 650,
      "Ġle": 651,
      "Ġhad": 652,
      "çŁ¥": 653,
      "je": 654,
      "æĬĬ": 655,
      "æĢİ": 656,
      "æ²¡æľī": 657,
      "ul": 658,
      "å±": 659,
      "è´": 660,
      "all": 661,
      "å§": 662,
      "èĢģ": 663,
      "èµ·": 664,
      "æĢİä¹Ī": 665,
      "um": 666,
      "åī": 667,
      "å¥¹": 668,
      "ä¸įæĺ¯": 669,
      "Ġsp": 670,
      "Ġas": 671,
      "Ġom": 672,
      "ce": 673,
      "ould": 674,
      "Ġ!": 675,
      "åĪ«": 676,
      "åĳĢ": 677,
      "Ġover": 678,
      "ĠE": 679,
      "éķ": 680,
      "Ġwat": 681,
      "çŃ": 682,
      "éĻ": 683,
      "Ġher": 684,
      "hat": 685,
      "Ġals": 686,
      "ind": 687,
      "çľŁ": 688,
      "æĮ": 689,
      "å¼Ģ": 690,
      "ust": 691,
      "æ³": 692,
      "åĽ½": 693,
      "nd": 694,
      "ĠG": 695,
      "eld": 696,
      "å¹´": 697,
      "Je": 698,
      "è¡Į": 699,
      "è½": 700,
      "eer": 701,
      "Ġzo": 702,
      "åĽŀ": 703,
      "ĠéĤ£": 704,
      "éĿ¢": 705,
      "xx": 706,
      "Ġuit": 707,
      "ĠN": 708,
      "ood": 709,
      "Ġdan": 710,
      "te": 711,
      "éĺ": 712,
      "ä¹ĭ": 713,
      "Ġhave": 714,
      "åıĳ": 715,
      "ten": 716,
      "é¢": 717,
      "Ġpl": 718,
      "éķ¿": 719,
      "æĥħ": 720,
      "è¯Ŀ": 721,
      "æ´": 722,
      "Ġat": 723,
      "æīĢ": 724,
      "Ġmaar": 725,
      "ien": 726,
      "Ġare": 727,
      "çº": 728,
      "åĸ": 729,
      "çŁ¥éģĵ": 730,
      "ç»ı": 731,
      "ah": 732,
      "æĤ": 733,
      "å¦Ī": 734,
      "ĠO": 735,
      "os": 736,
      "çĻ": 737,
      "ĠR": 738,
      "æĪĲ": 739,
      "We": 740,
      "aal": 741,
      "èµ°": 742,
      "è§ī": 743,
      "Ġshe": 744,
      "Ġ2": 745,
      "å®ŀ": 746,
      "ang": 747,
      "æĦı": 748,
      "åıª": 749,
      "Het": 750,
      "Ġnaar": 751,
      "å®ļ": 752,
      "å·±": 753,
      "Ġthis": 754,
      "çĲ": 755,
      "ook": 756,
      "Ġkn": 757,
      "ug": 758,
      "Ġsh": 759,
      "nen": 760,
      "èĩªå·±": 761,
      "è®©": 762,
      "æľĢ": 763,
      "åįģ": 764,
      "åĢĻ": 765,
      "we": 766,
      "ä½Ĩ": 767,
      "ĠK": 768,
      "Ġman": 769,
      "rou": 770,
      "æµ": 771,
      "elijk": 772,
      "åģļ": 773,
      "art": 774,
      "ĠL": 775,
      "çİ°åľ¨": 776,
      "Ġä»ĸ": 777,
      "sen": 778,
      "ast": 779,
      "Ġne": 780,
      "çĶ¨": 781,
      "AR": 782,
      "ç¬": 783,
      "æĹ¶åĢĻ": 784,
      "Ġone": 785,
      "Ġwaar": 786,
      "æīĵ": 787,
      "Ġ(": 788,
      "...": 789,
      "èĬ": 790,
      "Ġben": 791,
      "ond": 792,
      "ess": 793,
      "Ã©": 794,
      "Ġmoet": 795,
      "ĠF": 796,
      "äºĽ": 797,
      "ç®": 798,
      "ab": 799,
      "åīį": 800,
      "Ġcan": 801,
      "ist": 802,
      "rij": 803,
      "åŃ¦": 804,
      "ç«": 805,
      "ru": 806,
      "Ġhij": 807,
      "ĠJ": 808,
      "rom": 809,
      "æĸ¹": 810,
      "her": 811,
      "ull": 812,
      "åĿ": 813,
      "een": 814,
      "ink": 815,
      "å½ĵ": 816,
      "Ġbl": 817,
      "uur": 818,
      "æ±": 819,
      "Ġwel": 820,
      "æŀľ": 821,
      "éĽ": 822,
      "be": 823,
      "ä¸ī": 824,
      "ain": 825,
      "eft": 826,
      "Ġsch": 827,
      "Ġmy": 828,
      "ry": 829,
      "De": 830,
      "éĴ": 831,
      "sch": 832,
      "Ġkan": 833,
      "Ġthere": 834,
      "æīĭ": 835,
      "æ¸": 836,
      "ich": 837,
      "acht": 838,
      "æĻ": 839,
      "Ġor": 840,
      "ç§į": 841,
      "èĢĮ": 842,
      "åĬ¨": 843,
      "Ġup": 844,
      "ĠThe": 845,
      "Ġwil": 846,
      "Ġ-": 847,
      "ard": 848,
      "æĽ": 849,
      "Ġbij": 850,
      "Ġthey": 851,
      "è§ģ": 852,
      "åĪĨ": 853,
      "éĹ´": 854,
      "äºİ": 855,
      "äºĮ": 856,
      "æĺİ": 857,
      "Ġwer": 858,
      "Ġch": 859,
      "è¢": 860,
      "if": 861,
      "åĲĥ": 862,
      "é¡": 863,
      "pen": 864,
      "Ġyour": 865,
      "Dat": 866,
      "Wat": 867,
      "å¤ª": 868,
      "èĤ": 869,
      "é£": 870,
      "You": 871,
      "Ġso": 872,
      "ä¸¤": 873,
      "éĹ®": 874,
      "éļ": 875,
      "åı¯ä»¥": 876,
      "Ġtw": 877,
      "Ġget": 878,
      "Ġhis": 879,
      "Ġdoor": 880,
      "ä»İ": 881,
      "ç¾": 882,
      "Ġel": 883,
      "ank": 884,
      "Ġpro": 885,
      "Ġsa": 886,
      "å®ĥ": 887,
      "èº": 888,
      "åĨį": 889,
      "æĤ¨": 890,
      "Ġook": 891,
      "Ġdon": 892,
      "ĠV": 893,
      "Ġmijn": 894,
      "ä½ľ": 895,
      "out": 896,
      "eah": 897,
      "Ġhier": 898,
      "åıĪ": 899,
      "ike": 900,
      "ong": 901,
      "Ġnog": 902,
      "ĠDe": 903,
      "ET": 904,
      "oh": 905,
      "Ġheeft": 906,
      "è¶": 907,
      "Ġknow": 908,
      "åĲ¬": 909,
      "æŃ£": 910,
      "LD": 911,
      "ake": 912,
      "Ġaf": 913,
      "æľ¬": 914,
      "Ġä¸į": 915,
      "åħ³": 916,
      "æģ": 917,
      "CHILD": 918,
      "eel": 919,
      "å¥³": 920,
      "ijd": 921,
      "aak": 922,
      "end": 923,
      "Ġbut": 924,
      "åħ¶": 925,
      "ine": 926,
      "ies": 927,
      "è§īå¾Ĺ": 928,
      "En": 929,
      "Ġout": 930,
      "TAR": 931,
      "GET": 932,
      "TARGET": 933,
      "Ze": 934,
      "ben": 935,
      "Ġex": 936,
      "ä»ĸä»¬": 937,
      "ore": 938,
      "AT": 939,
      "Ġkun": 940,
      "ä¾": 941,
      "è¿Ľ": 942,
      "å¤´": 943,
      "åħĪ": 944,
      "èĥ": 945,
      "ack": 946,
      "Ġwill": 947,
      "æ¯Ķ": 948,
      "ck": 949,
      "åĲĮ": 950,
      "åħ¬": 951,
      "æ¬¡": 952,
      "æī¾": 953,
      "éĶ": 954,
      "Ġdit": 955,
      "Ġab": 956,
      "Ġkom": 957,
      "Ġwhat": 958,
      "ep": 959,
      "æīį": 960,
      ".\"": 961,
      "Ġcon": 962,
      "Ġfrom": 963,
      "åĺ": 964,
      "elf": 965,
      "èº«": 966,
      "Ġsu": 967,
      "łä¸º": 968,
      "od": 969,
      "ls": 970,
      "qu": 971,
      "ä»Ĭ": 972,
      "The": 973,
      "èĦ": 974,
      "che": 975,
      "'re": 976,
      "ip": 977,
      "è¢«": 978,
      "å¦Ĥ": 979,
      "é«": 980,
      "ste": 981,
      "ive": 982,
      "Ġgoed": 983,
      "ation": 984,
      "uk": 985,
      "é«ĺ": 986,
      "æĦŁ": 987,
      "Ġhim": 988,
      "Ġhem": 989,
      "Ġhebben": 990,
      "Ġmen": 991,
      "åŃ©": 992,
      "çŃī": 993,
      "é©": 994,
      "our": 995,
      "Ġlike": 996,
      "æ³ķ": 997,
      "IN": 998,
      "éĤ£ä¸ª": 999,
      "Ġword": 1000,
      "ek": 1001,
      "å·²": 1002,
      "éĥ": 1003,
      "æĹ¥": 1004,
      "ä¸»": 1005,
      "å¹²": 1006,
      "è¿Ļä¹Ī": 1007,
      "è°¢": 1008,
      "eren": 1009,
      "ç½": 1010,
      "æ°Ķ": 1011,
      "ame": 1012,
      "æŁ": 1013,
      "Ġsome": 1014,
      "æĶ¾": 1015,
      "ç©": 1016,
      "åĬĽ": 1017,
      "Ġby": 1018,
      "Hij": 1019,
      "Ġsee": 1020,
      "ä½łä»¬": 1021,
      "Ġpr": 1022,
      "one": 1023,
      "Ġwere": 1024,
      "çĦ¶åĲİ": 1025,
      "og": 1026,
      "çģ": 1027,
      "å£": 1028,
      "ç¥": 1029,
      "çķ": 1030,
      "åħ¨": 1031,
      "au": 1032,
      "æį": 1033,
      "ĥı": 1034,
      "éĩį": 1035,
      "aten": 1036,
      "çĭ": 1037,
      "è¾¹": 1038,
      "¥¿": 1039,
      "Ġcom": 1040,
      "here": 1041,
      "èģ": 1042,
      "æĹł": 1043,
      "Ġgeen": 1044,
      "you": 1045,
      "çĪ¸": 1046,
      "æ¡": 1047,
      "Ġwant": 1048,
      "iv": 1049,
      "Ġbr": 1050,
      "Ġdeze": 1051,
      "çļĦæĹ¶åĢĻ": 1052,
      "å¿«": 1053,
      "åºĶ": 1054,
      "ke": 1055,
      "oon": 1056,
      "çĶµ": 1057,
      ",\"": 1058,
      "00": 1059,
      "xxx": 1060,
      "ĠæĪĳä»¬": 1061,
      "èĭ": 1062,
      "Ġbet": 1063,
      "é¢ĺ": 1064,
      "çĲĨ": 1065,
      "æĸ°": 1066,
      "ä½Ĩæĺ¯": 1067,
      "æ°´": 1068,
      "å¸¸": 1069,
      "ort": 1070,
      "åĥı": 1071,
      "æīĢä»¥": 1072,
      "æĪĳçļĦ": 1073,
      "ç´": 1074,
      "è¿Ļæł·": 1075,
      "ingen": 1076,
      "åŁ": 1077,
      "INV": 1078,
      "ä¸ľ": 1079,
      "Ġthem": 1080,
      "ç³": 1081,
      "èĬ±": 1082,
      "pp": 1083,
      "æľº": 1084,
      "Ġsaid": 1085,
      "Ġun": 1086,
      "èī": 1087,
      "å¤ĸ": 1088,
      "çĽ¸": 1089,
      "çĥ": 1090,
      "Ĺ¯": 1091,
      "çī¹": 1092,
      "ber": 1093,
      "ä½ĵ": 1094,
      "uis": 1095,
      "He": 1096,
      "Ġdid": 1097,
      "Ġgr": 1098,
      "æ¬¢": 1099,
      "Ġhaar": 1100,
      "åĸľ": 1101,
      "Ġgaan": 1102,
      "'ll": 1103,
      "Ġgot": 1104,
      "na": 1105,
      "è¥¿": 1106,
      "çĻ½": 1107,
      "åĵª": 1108,
      "è¿ĺæĺ¯": 1109,
      "no": 1110,
      "Ġsl": 1111,
      "èĪ": 1112,
      "ets": 1113,
      "åı«": 1114,
      "è½¦": 1115,
      "itt": 1116,
      "Ġro": 1117,
      "Ġmeer": 1118,
      "ite": 1119,
      "oug": 1120,
      "Ġbo": 1121,
      "å·¥": 1122,
      "Ġå°±": 1123,
      "Ġthen": 1124,
      "eden": 1125,
      "çĽ´": 1126,
      "è¯¥": 1127,
      "éĴ±": 1128,
      "Ġwould": 1129,
      "Ġif": 1130,
      "oord": 1131,
      "çĮ": 1132,
      "æ´»": 1133,
      "ally": 1134,
      "å¨": 1135,
      "æŃ»": 1136,
      "ä½į": 1137,
      "ia": 1138,
      "ç¦": 1139,
      "Ġjij": 1140,
      "é©¬": 1141,
      "è§£": 1142,
      "Ġabout": 1143,
      "uit": 1144,
      "ide": 1145,
      "Ġdaar": 1146,
      "ç¬¬": 1147,
      "lijk": 1148,
      "çļĦäºº": 1149,
      "çī©": 1150,
      "Ġbel": 1151,
      "ick": 1152,
      "eg": 1153,
      "åĵ¥": 1154,
      "èĻ": 1155,
      "Ġter": 1156,
      "è°ģ": 1157,
      "é»": 1158,
      "çĪ±": 1159,
      "oek": 1160,
      "what": 1161,
      "è¿ĺæľī": 1162,
      "å¸Ī": 1163,
      "unt": 1164,
      "ff": 1165,
      "åĩł": 1166,
      "ullie": 1167,
      "eten": 1168,
      "åĲĪ": 1169,
      "Ġæĺ¯": 1170,
      "ä¿¡": 1171,
      "'m": 1172,
      "ĠIn": 1173,
      "to": 1174,
      "Ġweet": 1175,
      "icht": 1176,
      "æı": 1177,
      "pl": 1178,
      "Ġwho": 1179,
      "ect": 1180,
      "Ġgra": 1181,
      "æ¶": 1182,
      "ãĢĤ\"": 1183,
      "Ġzou": 1184,
      "åĳĬ": 1185,
      "av": 1186,
      "Ġwordt": 1187,
      "Ġnu": 1188,
      "çľŁçļĦ": 1189,
      "äºĶ": 1190,
      "å®ī": 1191,
      "Ġhere": 1192,
      "å·²ç»ı": 1193,
      "å¸¦": 1194,
      "éľ": 1195,
      "per": 1196,
      "Ġthink": 1197,
      "oed": 1198,
      "ice": 1199,
      "Ġdr": 1200,
      ":\"": 1201,
      "åŃ©åŃĲ": 1202,
      "Waar": 1203,
      "ige": 1204,
      "ä¸Ģä¸ĭ": 1205,
      "Ġgeb": 1206,
      "Ġdoen": 1207,
      "ous": 1208,
      "ç¾İ": 1209,
      "åıĭ": 1210,
      "ä½łçļĦ": 1211,
      "Ġ19": 1212,
      "Ġlook": 1213,
      "are": 1214,
      "æĽ´": 1215,
      "Ġhas": 1216,
      "ker": 1217,
      "å±±": 1218,
      "ate": 1219,
      "çİĭ": 1220,
      "ç¡": 1221,
      "æİ¥": 1222,
      "Ġgew": 1223,
      "å°ĳ": 1224,
      "èį": 1225,
      "ä½ı": 1226,
      "Ġworden": 1227,
      "åĪļ": 1228,
      "ĠHe": 1229,
      "æĿ¥äºĨ": 1230,
      "å®Į": 1231,
      "elen": 1232,
      "åĪ°äºĨ": 1233,
      "çĻ¾": 1234,
      "Ġsn": 1235,
      "orm": 1236,
      "Ġgel": 1237,
      "é¦": 1238,
      "Ġbent": 1239,
      "Ġkl": 1240,
      "åıĺ": 1241,
      "æ¼": 1242,
      "éĥ¨": 1243,
      "æľĪ": 1244,
      "æ·": 1245,
      "ä»Ĭå¤©": 1246,
      "own": 1247,
      "aken": 1248,
      "ä¸įèĥ½": 1249,
      "Ġga": 1250,
      "åı¯èĥ½": 1251,
      "Ġhand": 1252,
      "çĸ": 1253,
      "Ġus": 1254,
      "mer": 1255,
      "ings": 1256,
      "éļ¾": 1257,
      "åľº": 1258,
      "Ġbeg": 1259,
      "å©": 1260,
      "çĹ": 1261,
      "Ġbeen": 1262,
      "'ve": 1263,
      "zen": 1264,
      "Ġzeg": 1265,
      "éª": 1266,
      "ç»ĵ": 1267,
      "Ja": 1268,
      "Ġhou": 1269,
      "Ġonder": 1270,
      "åĽłä¸º": 1271,
      "èĲ": 1272,
      "Als": 1273,
      "Ġgaat": 1274,
      "Ġse": 1275,
      "Ġany": 1276,
      "rouw": 1277,
      "Ġvol": 1278,
      "ç¤": 1279,
      "èĢħ": 1280,
      "Maar": 1281,
      "age": 1282,
      "Ġmij": 1283,
      "äº²": 1284,
      "hing": 1285,
      "Ġons": 1286,
      "Ġsay": 1287,
      "æĢĿ": 1288,
      "å§Ĳ": 1289,
      "way": 1290,
      "åĽĽ": 1291,
      "å¹³": 1292,
      "iek": 1293,
      "ost": 1294,
      "ime": 1295,
      "è¯·": 1296,
      "Ġwhen": 1297,
      "æŃ¤": 1298,
      "åĹ¯": 1299,
      "Ġright": 1300,
      "Ġzal": 1301,
      "é¥": 1302,
      "?\"": 1303,
      "dat": 1304,
      "other": 1305,
      "bl": 1306,
      "éĿŀ": 1307,
      "Ġhoe": 1308,
      "ç²": 1309,
      "ĠZ": 1310,
      "Ġra": 1311,
      "ittle": 1312,
      "!\"": 1313,
      "éĹ¨": 1314,
      "åĲį": 1315,
      "Nee": 1316,
      "ew": 1317,
      "æ»": 1318,
      "Ġä¸Ģ": 1319,
      "åĨĽ": 1320,
      "æħ": 1321,
      "ose": 1322,
      "ĠCh": 1323,
      "Ġoff": 1324,
      "Ġnow": 1325,
      "æĢ»": 1326,
      "Ġåĵ": 1327,
      "It": 1328,
      "Ġbed": 1329,
      "ree": 1330,
      "Ġå¦": 1331,
      "åı£": 1332,
      "Ġjou": 1333,
      "ç¨": 1334,
      "Ġæľī": 1335,
      "ĠåĽ": 1336,
      "Ġcould": 1337,
      "ĠIt": 1338,
      "çľ¼": 1339,
      "éħ": 1340,
      "Een": 1341,
      "Ġeven": 1342,
      "éĥ½æĺ¯": 1343,
      "äºĭåĦ¿": 1344,
      "å¤§å®¶": 1345,
      "åĴ±": 1346,
      "åĸľæ¬¢": 1347,
      "Ġgoing": 1348,
      "that": 1349,
      "Ġgro": 1350,
      "éĶĻ": 1351,
      "men": 1352,
      "æĸĩ": 1353,
      "yes": 1354,
      "ãĢģ": 1355,
      "Ġå¥½": 1356,
      "æ¯ı": 1357,
      "éĺŁ": 1358,
      "éĢļ": 1359,
      "ren": 1360,
      "Ġjust": 1361,
      "ä¸ļ": 1362,
      "å°Ĩ": 1363,
      "ool": 1364,
      "åĬł": 1365,
      "è±": 1366,
      "Ġjullie": 1367,
      "ach": 1368,
      "heid": 1369,
      "iss": 1370,
      "Ġwhich": 1371,
      "pt": 1372,
      "åĬŀ": 1373,
      "ä»»": 1374,
      "Ġhebt": 1375,
      "oof": 1376,
      "In": 1377,
      "gel": 1378,
      "ear": 1379,
      "åĵĪ": 1380,
      "als": 1381,
      "çł": 1382,
      "uw": 1383,
      "eder": 1384,
      "ud": 1385,
      "ä¹Łä¸į": 1386,
      "æĹ¶éĹ´": 1387,
      "åĲĳ": 1388,
      "è·¯": 1389,
      "æ¢": 1390,
      "Ġag": 1391,
      "ä¿Ŀ": 1392,
      "æľĭ": 1393,
      "Ġcl": 1394,
      "ç®Ĺ": 1395,
      "ä¸ĩ": 1396,
      "ief": 1397,
      "ans": 1398,
      "Ġlittle": 1399,
      "è®°": 1400,
      "åıĹ": 1401,
      "ble": 1402,
      "ade": 1403,
      "yeah": 1404,
      "Ġkunnen": 1405,
      "å¦Īå¦Ī": 1406,
      "Ġvery": 1407,
      "ER": 1408,
      "äºĨä¸Ģ": 1409,
      "oel": 1410,
      "çĽ®": 1411,
      "ĠSt": 1412,
      "$$": 1413,
      "Ġ3": 1414,
      "Ġweg": 1415,
      "éĢī": 1416,
      "æľĭåıĭ": 1417,
      "ç³»": 1418,
      "åħ¶å®ŀ": 1419,
      "è¡¨": 1420,
      "FAT": 1421,
      "Ġgev": 1422,
      "Ġbest": 1423,
      "æĭ¿": 1424,
      "å²": 1425,
      "åĮĸ": 1426,
      "jes": 1427,
      "å¸®": 1428,
      "Ġtwee": 1429,
      "ound": 1430,
      "Ġåľ¨": 1431,
      "ne": 1432,
      "ĠU": 1433,
      "åĺĽ": 1434,
      "è®¤": 1435,
      "åº¦": 1436,
      "ç¡®": 1437,
      "ä¸İ": 1438,
      "Ġont": 1439,
      "ace": 1440,
      "omen": 1441,
      "ure": 1442,
      "Ġsm": 1443,
      "ä»¶": 1444,
      "åı¯æĺ¯": 1445,
      "è¯ī": 1446,
      "æĴ": 1447,
      "Oh": 1448,
      "nt": 1449,
      "Ġback": 1450,
      "æĪĺ": 1451,
      "ä¹Łæĺ¯": 1452,
      "äºĭæĥħ": 1453,
      "æľĽ": 1454,
      "Ġeer": 1455,
      "åĶ": 1456,
      "Ġfig": 1457,
      "æĳ": 1458,
      "ther": 1459,
      "Ġiets": 1460,
      "ä½ķ": 1461,
      "ä¸Ģå®ļ": 1462,
      "çļĦè¯Ŀ": 1463,
      "Ġqu": 1464,
      "ied": 1465,
      "å£°": 1466,
      "æĬ¥": 1467,
      "aren": 1468,
      "Ã«": 1469,
      "éĩĳ": 1470,
      "å¼ł": 1471,
      "onder": 1472,
      "æĹ©": 1473,
      "çŃĶ": 1474,
      "Ġgen": 1475,
      "Ġgood": 1476,
      "ert": 1477,
      "åİŁ": 1478,
      "ä¸ŃåĽ½": 1479,
      "enk": 1480,
      "ç®¡": 1481,
      "Ġar": 1482,
      "Ġpe": 1483,
      "çļĦæĺ¯": 1484,
      "racht": 1485,
      "Ġged": 1486,
      "wn": 1487,
      "Ġdown": 1488,
      "æĢ§": 1489,
      "oll": 1490,
      "Ġä½Ĩæĺ¯": 1491,
      "Ġsom": 1492,
      "ass": 1493,
      "ity": 1494,
      "Ġecht": 1495,
      "çĶ·": 1496,
      "åĳ½": 1497,
      "Er": 1498,
      "çª": 1499,
      "Ġmin": 1500,
      "çĪ·": 1501,
      "Ġzit": 1502,
      "æĻļ": 1503,
      "æ¸ħ": 1504,
      "åĩºæĿ¥": 1505,
      "å¤Ħ": 1506,
      "éĤ£ä¹Ī": 1507,
      "ild": 1508,
      "ĠTh": 1509,
      "ç¦»": 1510,
      "ire": 1511,
      "Ġ20": 1512,
      "çĲĥ": 1513,
      "Ġput": 1514,
      "ä»ĸçļĦ": 1515,
      "Ġtime": 1516,
      "Ġå¯": 1517,
      "ase": 1518,
      "æ°ĳ": 1519,
      "Kom": 1520,
      "æĪ¿": 1521,
      "Ġhel": 1522,
      "éĵ": 1523,
      "å¢": 1524,
      "Ġå°±æĺ¯": 1525,
      "igen": 1526,
      "ç»ĻæĪĳ": 1527,
      "åıį": 1528,
      "land": 1529,
      "èµ·æĿ¥": 1530,
      "Ġtot": 1531,
      "åĳĺ": 1532,
      "ish": 1533,
      "åĨħ": 1534,
      "Ġvert": 1535,
      "ĠæīĢä»¥": 1536,
      "æıĲ": 1537,
      "amen": 1538,
      "oc": 1539,
      "é£İ": 1540,
      "Ġtijd": 1541,
      "my": 1542,
      "ç¼": 1543,
      "ĠçĦ¶åĲİ": 1544,
      "Hoe": 1545,
      "la": 1546,
      "éĩı": 1547,
      "åħī": 1548,
      "alk": 1549,
      "åĳĬè¯ī": 1550,
      "ä¸ºä»Ģä¹Ī": 1551,
      "æĲ": 1552,
      "åħ¥": 1553,
      "åħ«": 1554,
      "çı": 1555,
      "Ġzien": 1556,
      "ele": 1557,
      "é¸": 1558,
      "Ġmee": 1559,
      "aakt": 1560,
      "åĳĥ": 1561,
      "ç¥ŀ": 1562,
      "çħ": 1563,
      "éŁ": 1564,
      "æķ°": 1565,
      "Ġmu": 1566,
      "Ġtheir": 1567,
      "æĢķ": 1568,
      "Ġvra": 1569,
      "Ġna": 1570,
      "Ġeens": 1571,
      "è¶Ĭ": 1572,
      "ä¸ĸ": 1573,
      "å§ĭ": 1574,
      "æ£": 1575,
      "ä¸Ģèµ·": 1576,
      "gens": 1577,
      "Ġå¦Ĥ": 1578,
      "What": 1579,
      "].": 1580,
      "ale": 1581,
      "æľį": 1582,
      "Yeah": 1583,
      "æ¡Ī": 1584,
      "Dit": 1585,
      "ä¸įä¼ļ": 1586,
      "int": 1587,
      "é£ŀ": 1588,
      "å¾Īå¤ļ": 1589,
      "Ġfl": 1590,
      "ause": 1591,
      "Ġterug": 1592,
      "æ®": 1593,
      "æĪĳå°±": 1594,
      "Ġweer": 1595,
      "ä¸ľè¥¿": 1596,
      "Th": 1597,
      "ä»£": 1598,
      "Ġå¯¹": 1599,
      "ment": 1600,
      "innen": 1601,
      "éĹ®é¢ĺ": 1602,
      "Ġcar": 1603,
      "Ġå°ı": 1604,
      "Ġalleen": 1605,
      "ç±": 1606,
      "ance": 1607,
      "æķĻ": 1608,
      "hy": 1609,
      "atie": 1610,
      "act": 1611,
      "Ġveel": 1612,
      "ders": 1613,
      "Ġam": 1614,
      "æķħ": 1615,
      "æľŁ": 1616,
      "åºĶè¯¥": 1617,
      "å¤Ł": 1618,
      "Ġè¿Ļä¸ª": 1619,
      "ough": 1620,
      "ä¹¦": 1621,
      "ian": 1622,
      "me": 1623,
      "è£": 1624,
      "Ġmore": 1625,
      "Ġfiguur": 1626,
      "å¼Ł": 1627,
      "å½±": 1628,
      "Ġtegen": 1629,
      "å¥½çļĦ": 1630,
      "esch": 1631,
      "orn": 1632,
      "æĿ¡": 1633,
      "ä¸Ģæł·": 1634,
      "äº¤": 1635,
      "Ġmoeten": 1636,
      "Ġkon": 1637,
      "Ġtwo": 1638,
      "èī²": 1639,
      "æµ·": 1640,
      "çĪ¶": 1641,
      "Ġcome": 1642,
      "Ġmensen": 1643,
      "ater": 1644,
      "els": 1645,
      "ä¸ĢçĤ¹": 1646,
      "æ¥": 1647,
      "åħŃ": 1648,
      "ople": 1649,
      "å»": 1650,
      "ult": 1651,
      "è·Łä½ł": 1652,
      "the": 1653,
      "Ġinto": 1654,
      "Ġhun": 1655,
      "ä¸Ķ": 1656,
      "è¿ĳ": 1657,
      "ger": 1658,
      "Ġper": 1659,
      "ç©º": 1660,
      "ä¹Ĳ": 1661,
      "Ġä½łä»¬": 1662,
      "Ġlaat": 1663,
      "æ±Ĥ": 1664,
      "ather": 1665,
      "urn": 1666,
      "ĠHet": 1667,
      "ĠåĴ": 1668,
      "äº§": 1669,
      "old": 1670,
      "af": 1671,
      "Ġpart": 1672,
      "oog": 1673,
      "è®²": 1674,
      "fter": 1675,
      "éĿŀå¸¸": 1676,
      "riend": 1677,
      "Ġtoch": 1678,
      "Ok": 1679,
      "Ġhow": 1680,
      "Ġkomt": 1681,
      "èİ": 1682,
      "Ġgek": 1683,
      "ord": 1684,
      "èĩªå·±çļĦ": 1685,
      "ä»¥åĲİ": 1686,
      "çİ©": 1687,
      "mp": 1688,
      "alen": 1689,
      "chter": 1690,
      "oot": 1691,
      "oren": 1692,
      "è·ĳ": 1693,
      "ett": 1694,
      "Ġple": 1695,
      "oen": 1696,
      "Ġbec": 1697,
      "Ġblij": 1698,
      "And": 1699,
      "è¿ľ": 1700,
      "ely": 1701,
      "åºķ": 1702,
      "äººçļĦ": 1703,
      "Ġå¦Ĥæŀľ": 1704,
      "cc": 1705,
      "æĮº": 1706,
      "æļ": 1707,
      "éĢģ": 1708,
      "ark": 1709,
      "åľ¨è¿Ļ": 1710,
      "å¾Ģ": 1711,
      "Ġpeople": 1712,
      "very": 1713,
      "åĩĨ": 1714,
      "St": 1715,
      "ç»Ļä½ł": 1716,
      "åŁİ": 1717,
      "ç¬ĳ": 1718,
      "åı¸": 1719,
      "å¨ĺ": 1720,
      "ue": 1721,
      "è°¢è°¢": 1722,
      "çī¹åĪ«": 1723,
      "dig": 1724,
      "ooit": 1725,
      "Ġcall": 1726,
      "Ġlo": 1727,
      "ath": 1728,
      "Ġleven": 1729,
      "ä¾¿": 1730,
      "Ġad": 1731,
      "Ġtake": 1732,
      "è¿Ļæĺ¯": 1733,
      "è¿ĻäºĽ": 1734,
      "çĹħ": 1735,
      "ĠèĢĮ": 1736,
      "çĿ¡": 1737,
      "åĲĦ": 1738,
      "å¤§çļĦ": 1739,
      "åĪ©": 1740,
      "é¥Ń": 1741,
      "Ġnie": 1742,
      "å¼Ģå§ĭ": 1743,
      "æł¹": 1744,
      "wer": 1745,
      "man": 1746,
      "æľīä¸Ģ": 1747,
      "æŀĹ": 1748,
      "å¼º": 1749,
      "Ġwerk": 1750,
      "sp": 1751,
      "Ġmaken": 1752,
      "è·ŁæĪĳ": 1753,
      "Ġkw": 1754,
      "å©ļ": 1755,
      "è®¡": 1756,
      "ç´§": 1757,
      "éľĢ": 1758,
      "æĶ¶": 1759,
      "Ġgez": 1760,
      "å·¥ä½ľ": 1761,
      "Ġother": 1762,
      "ä¸¤ä¸ª": 1763,
      "åĮĹ": 1764,
      "Ġday": 1765,
      "ä¸įçŁ¥éģĵ": 1766,
      "çº¢": 1767,
      "ç«ĭ": 1768,
      "elt": 1769,
      "ader": 1770,
      "esp": 1771,
      "Ġzich": 1772,
      "éĻ¢": 1773,
      "å¤±": 1774,
      "çĬ": 1775,
      "iz": 1776,
      "ĠY": 1777,
      "å¤ĩ": 1778,
      "ä¿©": 1779,
      "Ġtr": 1780,
      "åıĳçİ°": 1781,
      "ä¸ºäºĨ": 1782,
      "æģ¯": 1783,
      "è®¸": 1784,
      "ave": 1785,
      "çļĦä¸Ģ": 1786,
      "Ġlang": 1787,
      "Ġhele": 1788,
      "èĬĤ": 1789,
      "Ġä¹Ł": 1790,
      "èĢĥ": 1791,
      "é¡¹": 1792,
      "å®³": 1793,
      "è¿ŀ": 1794,
      "Ġplay": 1795,
      "æµģ": 1796,
      "ellen": 1797,
      "çķĻ": 1798,
      "ount": 1799,
      "åİ»äºĨ": 1800,
      "Ġkrij": 1801,
      "åĪ¶": 1802,
      "è¿Ļç§į": 1803,
      "ary": 1804,
      "Ġkomen": 1805,
      "ĠEn": 1806,
      "ä¹Ŀ": 1807,
      "Ġvl": 1808,
      "çħ§": 1809,
      "ä¼ł": 1810,
      "irst": 1811,
      "red": 1812,
      "å¥½äºĨ": 1813,
      "å¸Ĥ": 1814,
      "æį®": 1815,
      "é¼": 1816,
      "Ġåĵİ": 1817,
      "å®Ŀ": 1818,
      "çľĭçľĭ": 1819,
      "app": 1820,
      "ä¸ĥ": 1821,
      "åŃĹ": 1822,
      "ĠShe": 1823,
      "Ġwater": 1824,
      "Ġagain": 1825,
      "Ġmuch": 1826,
      "Ġgre": 1827,
      "æ¼Ķ": 1828,
      "ife": 1829,
      "çĶ±": 1830,
      "mon": 1831,
      "Ġway": 1832,
      "ä¸įè¦ģ": 1833,
      "Ġwell": 1834,
      "ä¸ĢçĽ´": 1835,
      "Ġmag": 1836,
      "Ġapp": 1837,
      "Ġtra": 1838,
      "å¿ħ": 1839,
      "ä¹°": 1840,
      "Ġelk": 1841,
      "ruik": 1842,
      "Ġland": 1843,
      "çľĭåĪ°": 1844,
      "åĨ³": 1845,
      "çģ«": 1846,
      "voor": 1847,
      "Ġnooit": 1848,
      "ef": 1849,
      "å¤«": 1850,
      "çķĮ": 1851,
      "æķ´": 1852,
      "çĶŁæ´»": 1853,
      "Ã©n": 1854,
      "è¦ģæĺ¯": 1855,
      "Is": 1856,
      "çĨ": 1857,
      "åĸĿ": 1858,
      "Ġgem": 1859,
      "Ġandere": 1860,
      "Ġwerd": 1861,
      "gt": 1862,
      "--": 1863,
      "åįĥ": 1864,
      "åĿĹ": 1865,
      "Ġonly": 1866,
      "æĦıæĢĿ": 1867,
      "èµĦ": 1868,
      "ĠæĢİä¹Ī": 1869,
      "Ġå½": 1870,
      "iÃ«": 1871,
      "åı·": 1872,
      "æĪĸ": 1873,
      "kend": 1874,
      "åĮħ": 1875,
      "åı¥": 1876,
      "Ġmust": 1877,
      "ä¹ĭåĲİ": 1878,
      "Ġkle": 1879,
      "æŁ¥": 1880,
      "äº®": 1881,
      "ens": 1882,
      "èĢģå¸Ī": 1883,
      "Ġstaat": 1884,
      "èµ¶": 1885,
      "woord": 1886,
      "roug": 1887,
      "ron": 1888,
      "åĴ±ä»¬": 1889,
      "åķ¦": 1890,
      "uy": 1891,
      "å®¹": 1892,
      "HER": 1893,
      "ĠJe": 1894,
      "geven": 1895,
      "over": 1896,
      "Ġdra": 1897,
      "èı": 1898,
      "ann": 1899,
      "ote": 1900,
      "Ġwork": 1901,
      "è¯ģ": 1902,
      "æł¼": 1903,
      "èµ°äºĨ": 1904,
      "erd": 1905,
      "Ġverd": 1906,
      "ĠåĽłä¸º": 1907,
      "Ġsomet": 1908,
      "æ¶Ī": 1909,
      "tijd": 1910,
      "No": 1911,
      "Ġmake": 1912,
      "Ġshould": 1913,
      "æħ¢": 1914,
      "ä¸įå¥½": 1915,
      "åħ³ç³»": 1916,
      "èĮ": 1917,
      "orry": 1918,
      "åįķ": 1919,
      "there": 1920,
      "æĿ¥çļĦ": 1921,
      "oop": 1922,
      "ub": 1923,
      "ious": 1924,
      "eef": 1925,
      "é»Ħ": 1926,
      "æĶ¿": 1927,
      "å¹¶": 1928,
      "èĽ": 1929,
      "Ġdenk": 1930,
      "åįĹ": 1931,
      "Ġåį": 1932,
      "sh": 1933,
      "è¯Ĩ": 1934,
      "Ġ4": 1935,
      "è½»": 1936,
      "of": 1937,
      "ec": 1938,
      "åĽł": 1939,
      "éĽ¶": 1940,
      "Ġjaar": 1941,
      "ussen": 1942,
      "è±¡": 1943,
      "ile": 1944,
      "ische": 1945,
      "emand": 1946,
      "åĬ¡": 1947,
      "fore": 1948,
      "Ġpers": 1949,
      "åĮ»": 1950,
      "åħ´": 1951,
      "ved": 1952,
      "Ġå¤§": 1953,
      "é¾": 1954,
      "æ»¡": 1955,
      "ç«Ļ": 1956,
      "Ġcont": 1957,
      "æĺ¯ä¸įæĺ¯": 1958,
      "Ġdoes": 1959,
      "Ġå¥¹": 1960,
      "ä¼¤": 1961,
      "Ġfe": 1962,
      "éŁ³": 1963,
      "Ġsle": 1964,
      "Ġdis": 1965,
      "Ġsc": 1966,
      "Ġfirst": 1967,
      "è½¬": 1968,
      "Waarom": 1969,
      "å»º": 1970,
      "oorden": 1971,
      "æĺŁ": 1972,
      "Ġthese": 1973,
      "iver": 1974,
      "zelf": 1975,
      "issch": 1976,
      "åħ±": 1977,
      "æĶ¹": 1978,
      "ĠMr": 1979,
      "éľĢè¦ģ": 1980,
      "ĠåĨ": 1981,
      "Ġtoo": 1982,
      "Ġwhere": 1983,
      "æ¯į": 1984,
      "Ġçİ°åľ¨": 1985,
      "æĪĳè§īå¾Ĺ": 1986,
      "æĺĵ": 1987,
      "Ġheel": 1988,
      "åĳ¨": 1989,
      "æĢ¥": 1990,
      "Ġalles": 1991,
      "Ġtell": 1992,
      "åįĬ": 1993,
      "ought": 1994,
      "Ġmade": 1995,
      "äºĨåĲĹ": 1996,
      "All": 1997,
      "åĿĲ": 1998,
      "åĨµ": 1999,
      "Ġafter": 2000,
      "Ġchild": 2001,
      "ial": 2002,
      "Ġä½Ĩ": 2003,
      "æĿĢ": 2004,
      "èĤ¯": 2005,
      "ä¸Ģæ¬¡": 2006,
      "æĮģ": 2007,
      "oud": 2008,
      "Ġè¿ĺ": 2009,
      "åľ°æĸ¹": 2010,
      "å¦Ĥæŀľ": 2011,
      "æĭľ": 2012,
      "ä½¿": 2013,
      "onna": 2014,
      "è¾ĥ": 2015,
      "ix": 2016,
      "æ¢¦": 2017,
      "Ġå½ĵ": 2018,
      "äºĨæĪĳ": 2019,
      "ç½ĳ": 2020,
      "ĠFr": 2021,
      "hed": 2022,
      "ict": 2023,
      "isschien": 2024,
      "åĽŀæĿ¥": 2025,
      "idd": 2026,
      "That": 2027,
      "èĩ³": 2028,
      "æº": 2029,
      "Ġè¿Ļæĺ¯": 2030,
      "Ġgraf": 2031,
      "Ġonze": 2032,
      "éĩĮéĿ¢": 2033,
      "orgen": 2034,
      "çīĩ": 2035,
      "æĩ": 2036,
      "æĮĩ": 2037,
      "Ġvo": 2038,
      "Ġneed": 2039,
      "è®©æĪĳ": 2040,
      "èµĽ": 2041,
      "bij": 2042,
      "ob": 2043,
      "ĠæĤ¨": 2044,
      "able": 2045,
      "åħĦ": 2046,
      "Ġnodig": 2047,
      "Ġzw": 2048,
      "èħ": 2049,
      "Ġla": 2050,
      "Ġlong": 2051,
      "Ġkijk": 2052,
      "ijf": 2053,
      "è§Ĩ": 2054,
      "ock": 2055,
      "ĠÃ©": 2056,
      "ç¿": 2057,
      "arl": 2058,
      "Ġgl": 2059,
      "stand": 2060,
      "ated": 2061,
      "Ġkeer": 2062,
      "ç¢": 2063,
      "Ġvind": 2064,
      "åı°": 2065,
      "Ġlig": 2066,
      "Ġ5": 2067,
      "å¦¹": 2068,
      "ĠåĴ±": 2069,
      "rop": 2070,
      "Ġåıª": 2071,
      "Ġæ²¡": 2072,
      "ç²¾": 2073,
      "Ġverl": 2074,
      "ç§ĳ": 2075,
      "Ġè¦ģ": 2076,
      "ijden": 2077,
      "å¾ħ": 2078,
      "MOTHER": 2079,
      "Ġinter": 2080,
      "è¿Ĳ": 2081,
      "æĦŁè§ī": 2082,
      "onden": 2083,
      "åĨĻ": 2084,
      "æ·±": 2085,
      "ĮæľĽ": 2086,
      "Ġhead": 2087,
      "ereken": 2088,
      "ç¨ĭ": 2089,
      ").": 2090,
      "æĦ¿": 2091,
      "Ġact": 2092,
      "Ġpre": 2093,
      "æķ¢": 2094,
      "çĪ¸çĪ¸": 2095,
      "Daar": 2096,
      "ĠÃ©Ã©n": 2097,
      "å¥¶": 2098,
      "Ġåķ": 2099,
      "appen": 2100,
      "ried": 2101,
      "å²ģ": 2102,
      "Ġaway": 2103,
      "å¯¼": 2104,
      "æłĳ": 2105,
      "è¾¾": 2106,
      "å¥ĩ": 2107,
      "do": 2108,
      "Ga": 2109,
      "Ġxxx": 2110,
      "çıŃ": 2111,
      "Ġå¹": 2112,
      "Ġbefore": 2113,
      "Ġaltijd": 2114,
      "Ġnat": 2115,
      "æĪĳæĺ¯": 2116,
      "æŃĮ": 2117,
      "çĥŃ": 2118,
      "Ġkind": 2119,
      "inder": 2120,
      "æ®µ": 2121,
      "ty": 2122,
      "inn": 2123,
      "Ġlet": 2124,
      "Ġgonna": 2125,
      "ise": 2126,
      "éļı": 2127,
      "pr": 2128,
      "åĵģ": 2129,
      "æ³¨": 2130,
      "çº¿": 2131,
      "çŀ": 2132,
      "Ġmay": 2133,
      "è¨": 2134,
      "æĿĳ": 2135,
      "Ġbeh": 2136,
      "æīĢæľī": 2137,
      "Ġant": 2138,
      "Ġstr": 2139,
      "ving": 2140,
      "æĭī": 2141,
      "åķ¥": 2142,
      "Ġrem": 2143,
      "gelijk": 2144,
      "Ġvrouw": 2145,
      "Ġiemand": 2146,
      "Ġjon": 2147,
      "Ġdood": 2148,
      "æķĳ": 2149,
      "çļĦå°ı": 2150,
      "åĵİ": 2151,
      "row": 2152,
      "oofd": 2153,
      "ange": 2154,
      "Ġbre": 2155,
      "è¨Ģ": 2156,
      "ä½łå¥½": 2157,
      "åĽ¢": 2158,
      "çªģ": 2159,
      "ina": 2160,
      "Ġma": 2161,
      "Ġopen": 2162,
      "å±ķ": 2163,
      "è°ĥ": 2164,
      "éħĴ": 2165,
      "Ġste": 2166,
      "Goed": 2167,
      "è¯´ä½ł": 2168,
      "è¯ķ": 2169,
      "ä¸ĭæĿ¥": 2170,
      "é»ĳ": 2171,
      "Ġgebruik": 2172,
      "Ġzelf": 2173,
      "iff": 2174,
      "èĭ¦": 2175,
      "uid": 2176,
      "cl": 2177,
      "çĶ»": 2178,
      "å¿Ļ": 2179,
      "Ġå¿": 2180,
      "amp": 2181,
      "rit": 2182,
      "æĢª": 2183,
      "ä¹ī": 2184,
      "è§Ĥ": 2185,
      "ho": 2186,
      "é±": 2187,
      "ons": 2188,
      "Ġzei": 2189,
      "Ġdag": 2190,
      "Mijn": 2191,
      "Ġkunt": 2192,
      "é±¼": 2193,
      "'d": 2194,
      "é¦ĸ": 2195,
      "hen": 2196,
      "where": 2197,
      "Â·": 2198,
      "Ġevery": 2199,
      "Jij": 2200,
      "å¼ı": 2201,
      "open": 2202,
      "uck": 2203,
      "Ġbro": 2204,
      "Ġunder": 2205,
      "air": 2206,
      "ouw": 2207,
      "è¯´çļĦ": 2208,
      "æľ¯": 2209,
      "Ġ[": 2210,
      "Ġä»ĸä»¬": 2211,
      "å¤ľ": 2212,
      "rek": 2213,
      "ady": 2214,
      "Ġtalk": 2215,
      "åĻ": 2216,
      "Ġdus": 2217,
      "Ġelkaar": 2218,
      "thing": 2219,
      "åĵĪåĵĪ": 2220,
      "ĠYou": 2221,
      "round": 2222,
      "beur": 2223,
      "Ġnet": 2224,
      "ĠAnd": 2225,
      "æ¸¸": 2226,
      "æİĴ": 2227,
      "allen": 2228,
      "ms": 2229,
      "ä¸ĬçļĦ": 2230,
      "åıĸ": 2231,
      "çīĽ": 2232,
      "eep": 2233,
      "åĬŁ": 2234,
      "å¥½å¥½": 2235,
      "Ġachter": 2236,
      "åĮº": 2237,
      "åŁº": 2238,
      "æĿİ": 2239,
      "ä¹ĭåīį": 2240,
      "Ġprob": 2241,
      "åĪĩ": 2242,
      "æľĢåĲİ": 2243,
      "etje": 2244,
      "eerd": 2245,
      "Ġgewoon": 2246,
      "èĲ½": 2247,
      "åĢĴ": 2248,
      "Ġtoen": 2249,
      "äºĨä½ł": 2250,
      "Ġweten": 2251,
      "Ġniets": 2252,
      "Ġgeld": 2253,
      "Ġgir": 2254,
      "Ġschool": 2255,
      "éĿĴ": 2256,
      "è¶³": 2257,
      "Ġhuis": 2258,
      "OR": 2259,
      "éĩįè¦ģ": 2260,
      "Ġeigen": 2261,
      "Ġdrie": 2262,
      "Ġbot": 2263,
      "ä¸Ģä¸ªäºº": 2264,
      "Ġgebeur": 2265,
      "ĠåķĬ": 2266,
      "Ġnever": 2267,
      "Ġzeggen": 2268,
      "edere": 2269,
      "æŃ¥": 2270,
      "ĠGod": 2271,
      "åķĨ": 2272,
      "å½¢": 2273,
      "Ġthought": 2274,
      "van": 2275,
      "She": 2276,
      "Ġvader": 2277,
      "ç»Ŀ": 2278,
      "å¿Ĺ": 2279,
      "åħ¬åı¸": 2280,
      "Ġè¯´": 2281,
      "å®ĺ": 2282,
      "åħļ": 2283,
      "emaal": 2284,
      "äºĮåįģ": 2285,
      "æĥħåĨµ": 2286,
      "mm": 2287,
      "éº": 2288,
      "Ġmil": 2289,
      "Ġdidn": 2290,
      "amil": 2291,
      "ĠèĢģ": 2292,
      "ai": 2293,
      "Ġour": 2294,
      "okay": 2295,
      "ĠæĪĳæĺ¯": 2296,
      "æĪĳä»¬çļĦ": 2297,
      "Niet": 2298,
      "ions": 2299,
      "ç»Ī": 2300,
      "Ġtoe": 2301,
      "ä¸ĸçķĮ": 2302,
      "look": 2303,
      "up": 2304,
      "ä¹ł": 2305,
      "oort": 2306,
      "èĥ½å¤Ł": 2307,
      "get": 2308,
      "ĠåĪ«": 2309,
      "äººå®¶": 2310,
      "åįİ": 2311,
      "ES": 2312,
      "oss": 2313,
      "èĤ¯å®ļ": 2314,
      "Ġwaren": 2315,
      "èģĬ": 2316,
      "Ġbig": 2317,
      "Ġgeh": 2318,
      "è¿Ļä¸Ģ": 2319,
      "Ġalso": 2320,
      "æ²»": 2321,
      "æĬ¤": 2322,
      "Ġlaten": 2323,
      "Ġthan": 2324,
      "Ġsomething": 2325,
      "Ġmar": 2326,
      "Ġpol": 2327,
      "éĥ½ä¸į": 2328,
      "æİī": 2329,
      "Ġgroot": 2330,
      "Die": 2331,
      "bo": 2332,
      "ful": 2333,
      "å¸ĮæľĽ": 2334,
      "But": 2335,
      "self": 2336,
      "Ġgive": 2337,
      "elijke": 2338,
      "gende": 2339,
      "ĠMar": 2340,
      "èģĶ": 2341,
      "½çĦ¶": 2342,
      "Ġyear": 2343,
      "ç»Ħ": 2344,
      "aking": 2345,
      "Ġwon": 2346,
      "Ġwent": 2347,
      "ä¹ħ": 2348,
      "sl": 2349,
      "Ġnew": 2350,
      "ory": 2351,
      "ĠWe": 2352,
      "è¿ĩæĿ¥": 2353,
      "åıĬ": 2354,
      "right": 2355,
      "Ġdoe": 2356,
      "Ġfil": 2357,
      "å¸ĥ": 2358,
      "çļĩ": 2359,
      "è®º": 2360,
      "èĦĳ": 2361,
      "å¤į": 2362,
      "ĠæĪĳå°±": 2363,
      "æĬĢ": 2364,
      "So": 2365,
      "åĪ»": 2366,
      "Ġversch": 2367,
      "wij": 2368,
      "Ġåı¯æĺ¯": 2369,
      "åħµ": 2370,
      "beeld": 2371,
      "è£ħ": 2372,
      "å·®": 2373,
      "åł": 2374,
      "akes": 2375,
      "veel": 2376,
      "ster": 2377,
      "Ġalle": 2378,
      "Ġzegt": 2379,
      "éŃ": 2380,
      "èľ": 2381,
      "æĺİçĻ½": 2382,
      "Ġmed": 2383,
      "Ġcame": 2384,
      "Ġå¸": 2385,
      "Ġ201": 2386,
      "ä¸ĢäºĽ": 2387,
      "Ġpres": 2388,
      "åį´": 2389,
      "Ġx": 2390,
      "éĢł": 2391,
      "æľīä»Ģä¹Ī": 2392,
      "aby": 2393,
      "io": 2394,
      "Ġfun": 2395,
      "Ġreally": 2396,
      "Ġpunt": 2397,
      "Ġcalled": 2398,
      "OkÃ©": 2399,
      "é¢Ĩ": 2400,
      "Ġmom": 2401,
      "PAR": 2402,
      "uh": 2403,
      "Voor": 2404,
      "agen": 2405,
      "åĭ": 2406,
      "arm": 2407,
      "Ġanother": 2408,
      "Zo": 2409,
      "Ġåİ": 2410,
      "çŁ³": 2411,
      "Ġcir": 2412,
      "å«": 2413,
      "Ġaut": 2414,
      "Ġvill": 2415,
      "è®¾": 2416,
      "du": 2417,
      "oeg": 2418,
      "çĵ": 2419,
      "Heb": 2420,
      "é¹": 2421,
      "ieve": 2422,
      "Ġverk": 2423,
      "ç»Ń": 2424,
      "ä»½": 2425,
      "Ġlijn": 2426,
      "Ġcomp": 2427,
      "Ġeerste": 2428,
      "Ġvraag": 2429,
      "mand": 2430,
      "ins": 2431,
      "åĵªåĦ¿": 2432,
      "Ġold": 2433,
      "å¯Ĩ": 2434,
      "è¡£": 2435,
      "éĺ³": 2436,
      "éĺ¿": 2437,
      "Ġmany": 2438,
      "æ¥ļ": 2439,
      "Wie": 2440,
      "é¬": 2441,
      "Ġnee": 2442,
      "Ġrecht": 2443,
      "åĤ": 2444,
      "éĨ": 2445,
      "Ġeat": 2446,
      "Ġstop": 2447,
      "Ġgrafiek": 2448,
      "Well": 2449,
      "amer": 2450,
      "well": 2451,
      "ĠæĿ¥": 2452,
      "ĠAn": 2453,
      "åħĪçĶŁ": 2454,
      "ç±»": 2455,
      "ys": 2456,
      "ende": 2457,
      "ä¼ļåĦ¿": 2458,
      "Ġask": 2459,
      "esl": 2460,
      "Ġzij": 2461,
      "Ġzie": 2462,
      "Ġmoeder": 2463,
      "Ġwij": 2464,
      "rijk": 2465,
      "èĴ": 2466,
      "èĦ¸": 2467,
      "rough": 2468,
      "å®¢": 2469,
      "Ġou": 2470,
      "Ġmight": 2471,
      "ä»¤": 2472,
      "vl": 2473,
      "ever": 2474,
      "åħĥ": 2475,
      "è¯´äºĨ": 2476,
      "Ġstra": 2477,
      "Ġhard": 2478,
      "ĠIk": 2479,
      "erk": 2480,
      "eds": 2481,
      "å§ĳ": 2482,
      "oman": 2483,
      "é¬¼": 2484,
      "å°½": 2485,
      "è´¨": 2486,
      "Ġbit": 2487,
      "ä¸įäºĨ": 2488,
      "æ¯Ķè¾ĥ": 2489,
      "Ġinf": 2490,
      "ç«Ł": 2491,
      "Ġproble": 2492,
      "kel": 2493,
      "æĩĤ": 2494,
      "Ġhome": 2495,
      "åįĸ": 2496,
      "Ġåħ¶å®ŀ": 2497,
      "æĢģ": 2498,
      "ots": 2499,
      "Ġru": 2500,
      "ces": 2501,
      "ib": 2502,
      "ont": 2503,
      "é¾Ļ": 2504,
      "æĬĵ": 2505,
      "åıĶ": 2506,
      "ç»Ł": 2507,
      "æ±ī": 2508,
      "çł´": 2509,
      "Ġzitten": 2510,
      "ward": 2511,
      "æ¨": 2512,
      "åĵį": 2513,
      "uiten": 2514,
      "Ġvragen": 2515,
      "åħĶ": 2516,
      "éĩİ": 2517,
      "aard": 2518,
      "ullen": 2519,
      "ç¬¬ä¸Ģ": 2520,
      "Ġthrough": 2521,
      "oten": 2522,
      "imes": 2523,
      "uister": 2524,
      "æľª": 2525,
      "ç©¿": 2526,
      "å£«": 2527,
      "ooi": 2528,
      "èįī": 2529,
      "ĠZe": 2530,
      "ummy": 2531,
      "æľīä¸Ģä¸ª": 2532,
      "æĸŃ": 2533,
      "isch": 2534,
      "çĶµè¯Ŀ": 2535,
      "Ġä¸įæĺ¯": 2536,
      "Ġtussen": 2537,
      "è¯¯": 2538,
      "åħ»": 2539,
      "Ġallemaal": 2540,
      "inderen": 2541,
      "Ġfamil": 2542,
      "Ġä½łè¯´": 2543,
      "ody": 2544,
      "Ġuw": 2545,
      "Ġsamen": 2546,
      "Ġvast": 2547,
      "æĸĻ": 2548,
      "Ġpar": 2549,
      "Ġplaat": 2550,
      "vel": 2551,
      "aring": 2552,
      "Ġbecause": 2553,
      "Ġbinnen": 2554,
      "å¾®": 2555,
      "oem": 2556,
      "éĻ¤": 2557,
      "å¾·": 2558,
      "è§Ħ": 2559,
      "Laat": 2560,
      "åŀ": 2561,
      "æĪĳä¸į": 2562,
      "æĶ¯": 2563,
      "ç»Ĩ": 2564,
      "vol": 2565,
      "ign": 2566,
      "ĠAl": 2567,
      "oint": 2568,
      "Ġid": 2569,
      "Ġzoals": 2570,
      "ait": 2571,
      "åĪ°åºķ": 2572,
      "çľŁæĺ¯": 2573,
      "äºī": 2574,
      "èĳ": 2575,
      "inden": 2576,
      "On": 2577,
      "åĪļæīį": 2578,
      "æĻļä¸Ĭ": 2579,
      "æĹ¥æľ¬": 2580,
      "æķħäºĭ": 2581,
      "Ġser": 2582,
      "Ġwereld": 2583,
      "edereen": 2584,
      "âĳ": 2585,
      "æĿ¿": 2586,
      "aul": 2587,
      "éģĩ": 2588,
      "å¿ĥéĩĮ": 2589,
      "not": 2590,
      "aam": 2591,
      "è¸": 2592,
      "Ġok": 2593,
      "æ±Ł": 2594,
      "Ġsnel": 2595,
      "Ġche": 2596,
      "è·³": 2597,
      "åıĤ": 2598,
      "Ġdoing": 2599,
      "Ġgreat": 2600,
      "ä¸įèµ·": 2601,
      "day": 2602,
      "æľīçĤ¹": 2603,
      "è°Ī": 2604,
      "å±Ģ": 2605,
      "æĪĳä¹Ł": 2606,
      "Ġpra": 2607,
      "Ġè¿ĺæľī": 2608,
      "ç¤¾": 2609,
      "iden": 2610,
      "Ġrel": 2611,
      "åľŁ": 2612,
      "They": 2613,
      "æĺ¯æĪĳ": 2614,
      "Ġdoet": 2615,
      "ents": 2616,
      "ucht": 2617,
      "ä¸ªäºº": 2618,
      "Ġnou": 2619,
      "ä½łå°±": 2620,
      "æł¡": 2621,
      "Ġminut": 2622,
      "EN": 2623,
      "åĩºåİ»": 2624,
      "åĩĨå¤ĩ": 2625,
      "äºĳ": 2626,
      "ç¤¼": 2627,
      "Ġvriend": 2628,
      "Ġhal": 2629,
      "ĠThey": 2630,
      "maal": 2631,
      "Ġplan": 2632,
      "Ġä»Ģä¹Ī": 2633,
      "Ġstart": 2634,
      "Ġleuk": 2635,
      "é¦Ļ": 2636,
      "åĬŀæ³ķ": 2637,
      "Ġits": 2638,
      "Ġlast": 2639,
      "ember": 2640,
      "AN": 2641,
      "äºĨåĲ§": 2642,
      "Ġvillage": 2643,
      "TI": 2644,
      "æ¯Ľ": 2645,
      "æį¢": 2646,
      "Ġsec": 2647,
      "ister": 2648,
      "åĳ³": 2649,
      "äº¬": 2650,
      "æĺ¯ä¸Ģ": 2651,
      "Ġbeing": 2652,
      "Ġmeest": 2653,
      "èį¯": 2654,
      "Ġdone": 2655,
      "æŀģ": 2656,
      "Ġ6": 2657,
      "ĠAmer": 2658,
      "ieren": 2659,
      "èŃ": 2660,
      "its": 2661,
      "è¿ĻåĦ¿": 2662,
      "aart": 2663,
      "ĠSch": 2664,
      "Ġbaby": 2665,
      "Ġform": 2666,
      "Ġjouw": 2667,
      "ä¸ĵ": 2668,
      "Ġkill": 2669,
      "ĠEen": 2670,
      "ĠåĹ¯": 2671,
      "èĻ½çĦ¶": 2672,
      "Ġä»İ": 2673,
      "âĢ": 2674,
      "æĹı": 2675,
      "ways": 2676,
      "anna": 2677,
      "Ġown": 2678,
      "ç»§": 2679,
      "æ²³": 2680,
      "ç®Ģ": 2681,
      "Ġgedaan": 2682,
      "Ġbetter": 2683,
      "unten": 2684,
      "ting": 2685,
      "ruk": 2686,
      "CAT": 2687,
      "res": 2688,
      "éĿĻ": 2689,
      "ĠæĬĬ": 2690,
      "emen": 2691,
      "Ġ200": 2692,
      "aag": 2693,
      "åģĩ": 2694,
      "Ġelders": 2695,
      "èŃ¦": 2696,
      "Ġfather": 2697,
      "ç¤º": 2698,
      "Ġmean": 2699,
      "åĺ´": 2700,
      "Ġgirl": 2701,
      "Ġgrote": 2702,
      "Ġplace": 2703,
      "Ġlove": 2704,
      "Ġbus": 2705,
      "ijt": 2706,
      "ĠAls": 2707,
      "é¡»": 2708,
      "Op": 2709,
      "æ¹": 2710,
      "åıĳçĶŁ": 2711,
      "Ġhouse": 2712,
      "åİĨ": 2713,
      "Ġéĥ½": 2714,
      "Ġmon": 2715,
      "Ġfind": 2716,
      "Ġsuch": 2717,
      "Ġerg": 2718,
      "éªĮ": 2719,
      "oos": 2720,
      "ubl": 2721,
      "æľĿ": 2722,
      "Ġthree": 2723,
      "Kijk": 2724,
      "åı¤": 2725,
      "è¿ĩåİ»": 2726,
      "çŃĶæ¡Ī": 2727,
      "Ġfound": 2728,
      "Ġthings": 2729,
      "ĠÂ·": 2730,
      "æĭħ": 2731,
      "Ġdes": 2732,
      "Ġçľĭ": 2733,
      "æİ¨": 2734,
      "Ġåı¯": 2735,
      "åĽŃ": 2736,
      "Ġrest": 2737,
      "ä¼Ĺ": 2738,
      "uurlijk": 2739,
      "ç¬¬äºĮ": 2740,
      "åī§": 2741,
      "èĥĮ": 2742,
      "Ġcount": 2743,
      "Ġåĩ": 2744,
      "ederland": 2745,
      "ught": 2746,
      "Ġkinderen": 2747,
      "Ġ0": 2748,
      "åĬ©": 2749,
      "èĹ": 2750,
      "è´Ł": 2751,
      "æĺ¯ä»Ģä¹Ī": 2752,
      "Yes": 2753,
      "les": 2754,
      "Ġhoofd": 2755,
      "uren": 2756,
      "è´¹": 2757,
      "ĠåĨį": 2758,
      "å·´": 2759,
      "ä¸įè¿ĩ": 2760,
      "Ġhelp": 2761,
      "èĦļ": 2762,
      "Ġä»Ĭå¤©": 2763,
      "å¥½åĥı": 2764,
      "æĬķ": 2765,
      "ç¦ı": 2766,
      "é£Ł": 2767,
      "çĸĳ": 2768,
      "çªģçĦ¶": 2769,
      "Ġstaan": 2770,
      "å¿µ": 2771,
      "éĽĨ": 2772,
      "Dan": 2773,
      "å¸Ŀ": 2774,
      "éĢĤ": 2775,
      "è¿Ļæł·çļĦ": 2776,
      "åĶ±": 2777,
      "åı¶": 2778,
      "ä¸įåĪ°": 2779,
      "æĿĥ": 2780,
      "è®©ä½ł": 2781,
      "oet": 2782,
      "isten": 2783,
      "æĭį": 2784,
      "æĴŃ": 2785,
      "ä»·": 2786,
      "å°Ķ": 2787,
      "Ġthose": 2788,
      "Ġnum": 2789,
      "çİ¯": 2790,
      "Ġvolgende": 2791,
      "æ´¾": 2792,
      "Ã¨": 2793,
      "Ġ10": 2794,
      "Ġlife": 2795,
      "æĢİä¹Īæł·": 2796,
      "åĲİæĿ¥": 2797,
      "Ġwr": 2798,
      "Ġimp": 2799,
      "è¯Ń": 2800,
      "ĠEr": 2801,
      "æĢĢ": 2802,
      "enn": 2803,
      "ĠWhat": 2804,
      "room": 2805,
      "åİĭ": 2806,
      "oy": 2807,
      "æłĩ": 2808,
      "Ġwillen": 2809,
      "éĩĮçļĦ": 2810,
      "Weet": 2811,
      "xt": 2812,
      "åħ·": 2813,
      "Ġtri": 2814,
      "Ġbez": 2815,
      "ĠBut": 2816,
      "ail": 2817,
      "but": 2818,
      "20": 2819,
      "can": 2820,
      "äºĨä¸Ģä¸ª": 2821,
      "ĠInd": 2822,
      "ä»¥åīį": 2823,
      "Ġtre": 2824,
      "åŃĺ": 2825,
      "ä»¥ä¸º": 2826,
      "There": 2827,
      "è§Ĵ": 2828,
      "ĠBe": 2829,
      "Ġbedoel": 2830,
      "ä¼Ļ": 2831,
      "å½ĵæĹ¶": 2832,
      "eng": 2833,
      "åĪĻ": 2834,
      "è´£": 2835,
      "Ã¯": 2836,
      "Ġturn": 2837,
      "æĪı": 2838,
      "Ġwoman": 2839,
      "çĽ¸ä¿¡": 2840,
      "Ġligt": 2841,
      "TIG": 2842,
      "dy": 2843,
      "ss": 2844,
      "ç§Ģ": 2845,
      "çļĦéĤ£": 2846,
      "ama": 2847,
      "åĪ«äºº": 2848,
      "Ġomdat": 2849,
      "åĪĽ": 2850,
      "æ¸©": 2851,
      "æĪĸèĢħ": 2852,
      "Ġbook": 2853,
      "If": 2854,
      "ced": 2855,
      "èĥ¡": 2856,
      "Ġcons": 2857,
      "æĽ¾": 2858,
      "ç¾Ĭ": 2859,
      "æŃ£ç¡®": 2860,
      "èĭ±": 2861,
      "off": 2862,
      "uwe": 2863,
      "Ġstill": 2864,
      "æĥ³åĪ°": 2865,
      "hm": 2866,
      "igh": 2867,
      "å¢ĥ": 2868,
      "Ġalways": 2869,
      "ĠHij": 2870,
      "Ġvinden": 2871,
      "ATOR": 2872,
      "çļĦäºĭæĥħ": 2873,
      "è¯»": 2874,
      "è¯´æĪĳ": 2875,
      "ESTIG": 2876,
      "æ¦": 2877,
      "åĻ¨": 2878,
      "åı¦": 2879,
      "INVESTIG": 2880,
      "INVESTIGATOR": 2881,
      "ä½łæĺ¯": 2882,
      "Ġanders": 2883,
      "ç±³": 2884,
      "Ġæ²¡æľī": 2885,
      "hes": 2886,
      "åĵ¦": 2887,
      "itu": 2888,
      "æĿ¾": 2889,
      "ĠæĪĳè§īå¾Ĺ": 2890,
      "geb": 2891,
      "let": 2892,
      "æĺ¥": 2893,
      "Ġthing": 2894,
      "Ġdiff": 2895,
      "Ġrec": 2896,
      "åĦ¿åŃĲ": 2897,
      "ĠNederland": 2898,
      "Ġperson": 2899,
      "Ġoor": 2900,
      "Ġå¼": 2901,
      "Dus": 2902,
      "Ġroom": 2903,
      "æ¸ħæ¥ļ": 2904,
      "ç£": 2905,
      "èµ¶ç´§": 2906,
      "Ġsteeds": 2907,
      "Ġred": 2908,
      "é²": 2909,
      "å¯Ł": 2910,
      "å¤ļå°ĳ": 2911,
      "Ġnight": 2912,
      "Ġpap": 2913,
      "ç»ĥ": 2914,
      "åĽŀåİ»": 2915,
      "æľĢè¿ĳ": 2916,
      "çĬ¶": 2917,
      "kom": 2918,
      "itie": 2919,
      "åĽ½å®¶": 2920,
      "Ġ)": 2921,
      "çº§": 2922,
      "åıªæĺ¯": 2923,
      "Ġverh": 2924,
      "ĠéĤ£ä½ł": 2925,
      "ars": 2926,
      "Ġmoest": 2927,
      "åĲĽ": 2928,
      "åĪĺ": 2929,
      "Ġweek": 2930,
      "æ´ĭ": 2931,
      "Ġmoment": 2932,
      "Ġwie": 2933,
      "Ġzeker": 2934,
      "ugh": 2935,
      "åħĦå¼Ł": 2936,
      "åĿı": 2937,
      "Ġsir": 2938,
      "alt": 2939,
      "éĢŁ": 2940,
      "æľºä¼ļ": 2941,
      "Ġball": 2942,
      "éĻª": 2943,
      "é¼ł": 2944,
      "Ġused": 2945,
      "Ben": 2946,
      "Ver": 2947,
      "åģľ": 2948,
      "AD": 2949,
      "ä¸¥": 2950,
      "çļ®": 2951,
      "æĶ¾å¿ĥ": 2952,
      "Ġres": 2953,
      "Wil": 2954,
      "Ġvier": 2955,
      "å±ħ": 2956,
      "oney": 2957,
      "èıľ": 2958,
      "Ġ8": 2959,
      "ash": 2960,
      "Ġname": 2961,
      "Ġfeel": 2962,
      "Ġsupp": 2963,
      "MA": 2964,
      "Ġacc": 2965,
      "ä¸įè¡Į": 2966,
      "é©¬ä¸Ĭ": 2967,
      "eter": 2968,
      "éĹ»": 2969,
      "Ġleft": 2970,
      "å¹¸": 2971,
      "ĠThis": 2972,
      "This": 2973,
      "ieft": 2974,
      "å·ŀ": 2975,
      "çĮ«": 2976,
      "çļĦå¤§": 2977,
      "è¿ĻéĩĮ": 2978,
      "oeken": 2979,
      "Ġging": 2980,
      "Ġlater": 2981,
      "Ġsac": 2982,
      "Ġve": 2983,
      "Ġtold": 2984,
      "Ġbeter": 2985,
      "å±ŀ": 2986,
      "iel": 2987,
      "ually": 2988,
      "Ġseem": 2989,
      "pe": 2990,
      "aw": 2991,
      "Ġwaarde": 2992,
      "ç©¶": 2993,
      "åĪĿ": 2994,
      "çº¦": 2995,
      "è¶ħ": 2996,
      "çĮª": 2997,
      "åıĳå±ķ": 2998,
      "Bereken": 2999,
      "ba": 3000,
      "vent": 3001,
      "raag": 3002,
      "æŀª": 3003,
      "son": 3004,
      "reek": 3005,
      "è¡Ģ": 3006,
      "éĽª": 3007,
      "ĠUn": 3008,
      "Ġåĳĥ": 3009,
      "rist": 3010,
      "Ġwacht": 3011,
      "Ġreg": 3012,
      "å¡": 3013,
      "ical": 3014,
      "Ġsays": 3015,
      "éĢļè¿ĩ": 3016,
      "ks": 3017,
      "çĪ¹": 3018,
      "Ġwilt": 3019,
      "éĨĴ": 3020,
      "Ġgu": 3021,
      "åĩºäºĨ": 3022,
      "go": 3023,
      "ness": 3024,
      "è®®": 3025,
      "ä¸īåįģ": 3026,
      "ja": 3027,
      "ves": 3028,
      "å§ĳå¨ĺ": 3029,
      "å©Ĩ": 3030,
      "Ġeten": 3031,
      "att": 3032,
      "ĠThere": 3033,
      "ç»ĵæŀľ": 3034,
      "åĩ»": 3035,
      "ctie": 3036,
      "ä¸ģ": 3037,
      "Ġcur": 3038,
      "åľ¨ä¸Ģèµ·": 3039,
      "Ġret": 3040,
      "éĿł": 3041,
      "ĠAll": 3042,
      "Ġmother": 3043,
      "Ġ7": 3044,
      "Ġdacht": 3045,
      "è¿½": 3046,
      "Ġgemaakt": 3047,
      "led": 3048,
      "vo": 3049,
      "Ġbesch": 3050,
      "æĵ": 3051,
      "Ġcere": 3052,
      "æ¯Ĵ": 3053,
      "èģĮ": 3054,
      "Ġdec": 3055,
      "ives": 3056,
      "Ġatt": 3057,
      "é¡¾": 3058,
      "ijkt": 3059,
      "éĻĪ": 3060,
      "æĥĬ": 3061,
      "dracht": 3062,
      "anden": 3063,
      "Ġwilde": 3064,
      "æĪĳæĥ³": 3065,
      "Ġ18": 3066,
      "rijf": 3067,
      "Ġkrijgen": 3068,
      "ift": 3069,
      "å¹¿": 3070,
      "Ġè°¢è°¢": 3071,
      "Ġfin": 3072,
      "Ġmeis": 3073,
      "Hier": 3074,
      "Ġvoel": 3075,
      "å¹´çļĦ": 3076,
      "é¡º": 3077,
      "ield": 3078,
      "Ġmaakt": 3079,
      "æĭ©": 3080,
      "çĨĬ": 3081,
      "Ġgest": 3082,
      "æĺ¯ä¸Ģä¸ª": 3083,
      "ä¹±": 3084,
      "æĹ¢": 3085,
      "åľ¨è¿ĻåĦ¿": 3086,
      "uff": 3087,
      "åıĮ": 3088,
      "çĭ¼": 3089,
      "Ġè°ģ": 3090,
      "Ġerm": 3091,
      "Ġkeep": 3092,
      "åĳĬè¯īä½ł": 3093,
      "ĠåĴ±ä»¬": 3094,
      "Ġhoor": 3095,
      "ient": 3096,
      "çľĭè§ģ": 3097,
      "åĢ¼": 3098,
      "Ġnice": 3099,
      "akken": 3100,
      "åĽŀå®¶": 3101,
      "Ġå®ĥ": 3102,
      "ĠSp": 3103,
      "ä¸ŃçļĦ": 3104,
      "ric": 3105,
      "Ġhoog": 3106,
      "ä¾Ŀ": 3107,
      "ĠèĢĮä¸Ķ": 3108,
      "Ġlie": 3109,
      "ĠNo": 3110,
      "ng": 3111,
      "å°±ä¼ļ": 3112,
      "æµİ": 3113,
      "Ġvrij": 3114,
      "åĨ·": 3115,
      "å¿ħé¡»": 3116,
      "org": 3117,
      "uyu": 3118,
      "å¿ĺ": 3119,
      "Ġquite": 3120,
      "cy": 3121,
      "Ġwanna": 3122,
      "etten": 3123,
      "elde": 3124,
      "éĽ¨": 3125,
      "eeft": 3126,
      "aald": 3127,
      "è¿İ": 3128,
      "Ġcle": 3129,
      "éħį": 3130,
      "ç¯": 3131,
      "Ġten": 3132,
      "Ġdingen": 3133,
      "Ġlot": 3134,
      "Ġuur": 3135,
      "ikuyu": 3136,
      "Ġshow": 3137,
      "Ġhelemaal": 3138,
      "eling": 3139,
      "Ġlief": 3140,
      "æĸ¯": 3141,
      ",'": 3142,
      "Ġstad": 3143,
      "ung": 3144,
      "æŃ¦": 3145,
      "éĤ£äºĽ": 3146,
      "ĠVoor": 3147,
      "ition": 3148,
      "å®¹æĺĵ": 3149,
      "ĠQ": 3150,
      "Ġsame": 3151,
      "åıªæľī": 3152,
      "Ġblijven": 3153,
      "ma": 3154,
      "Ġelse": 3155,
      "Ġhappen": 3156,
      "ĠIf": 3157,
      "Ġantwoord": 3158,
      "åĩłä¸ª": 3159,
      "angen": 3160,
      "å°±ä¸į": 3161,
      "æĮī": 3162,
      "çĶµå½±": 3163,
      "How": 3164,
      "ese": 3165,
      "æĸ¹éĿ¢": 3166,
      "Nu": 3167,
      "è·Łä»ĸ": 3168,
      "ä¸½": 3169,
      "æ¯ĶèµĽ": 3170,
      "ç¦»å¼Ģ": 3171,
      "side": 3172,
      "è¯´è¯Ŀ": 3173,
      "Ġing": 3174,
      "Ġob": 3175,
      "so": 3176,
      "ple": 3177,
      "Ġmis": 3178,
      "çĽĳ": 3179,
      "èĢĮä¸Ķ": 3180,
      "ä¹¡": 3181,
      "åĩºçİ°": 3182,
      "æİ§": 3183,
      "apt": 3184,
      "å®¶éĩĮ": 3185,
      "Ġhouden": 3186,
      "Ġhalf": 3187,
      "é«ĺåħ´": 3188,
      "Ġsk": 3189,
      "çĶ°": 3190,
      "Ġnieuwe": 3191,
      "Ġgelijk": 3192,
      "ouden": 3193,
      "åģ·": 3194,
      "èĹı": 3195,
      "æ¨¡": 3196,
      "put": 3197,
      "æī¿": 3198,
      "Ġshall": 3199,
      "èĤ¡": 3200,
      "Ġeind": 3201,
      "éĻħ": 3202,
      "èº«ä½ĵ": 3203,
      "Ġnaam": 3204,
      "Ġmost": 3205,
      "GMA": 3206,
      "Ġboy": 3207,
      "é¸¡": 3208,
      "Ġè®©": 3209,
      "è¿Ľè¡Į": 3210,
      "ç½ª": 3211,
      "èĵ": 3212,
      "éĴŁ": 3213,
      "aad": 3214,
      "Ġtree": 3215,
      "Ġeyes": 3216,
      "Ġceremon": 3217,
      "å®¤": 3218,
      "eek": 3219,
      "æ¯ıå¤©": 3220,
      "waar": 3221,
      "æŀĲ": 3222,
      "000": 3223,
      "Ġeach": 3224,
      "è®°å¾Ĺ": 3225,
      "çļĦä¸Ģä¸ª": 3226,
      "Ġisn": 3227,
      "Ġæĥ³": 3228,
      "ased": 3229,
      "urop": 3230,
      "éĺ²": 3231,
      "Ġelke": 3232,
      "allo": 3233,
      "Ġgezien": 3234,
      "çļĦäºĭ": 3235,
      "åħĭ": 3236,
      "æĪĲäºĨ": 3237,
      "Ġvand": 3238,
      "ream": 3239,
      "æĿ¨": 3240,
      "çłĶ": 3241,
      "band": 3242,
      "äºĨè§£": 3243,
      "Ġtry": 3244,
      "æ²¹": 3245,
      "æĺ¾": 3246,
      "Ġkijken": 3247,
      "éĵģ": 3248,
      "uld": 3249,
      "Ġkoning": 3250,
      "Ġplease": 3251,
      "ye": 3252,
      "Ġmaak": 3253,
      "èĤ²": 3254,
      "éĢīæĭ©": 3255,
      "Ġja": 3256,
      "Ġsure": 3257,
      "Okay": 3258,
      "æĪĳè¦ģ": 3259,
      "Ġbelang": 3260,
      "åĳ¼": 3261,
      "Ġä½łæĢİä¹Ī": 3262,
      "çİī": 3263,
      "atter": 3264,
      "ider": 3265,
      "çľĭçĿĢ": 3266,
      "åĽ´": 3267,
      "æĺ¨": 3268,
      "roeg": 3269,
      "æĺİå¤©": 3270,
      "Hou": 3271,
      "Ġpaar": 3272,
      "åĪĴ": 3273,
      "åĨ²": 3274,
      "æĻ¯": 3275,
      "Ġgoede": 3276,
      "ç´¯": 3277,
      "ä»ħ": 3278,
      "Ġspec": 3279,
      "die": 3280,
      "æĲŀ": 3281,
      "DAD": 3282,
      "Ġgewe": 3283,
      "åĬ¿": 3284,
      "åºĹ": 3285,
      "iteit": 3286,
      "æĪ¿åŃĲ": 3287,
      "Ġkwam": 3288,
      "äºĨåķĬ": 3289,
      "æ¥¼": 3290,
      "urt": 3291,
      "Ġlaatste": 3292,
      "ates": 3293,
      "è¯¾": 3294,
      "Ġfew": 3295,
      "Ġtrain": 3296,
      "æĦ¿æĦı": 3297,
      "ley": 3298,
      "Ġeerst": 3299,
      "ä¸¾": 3300,
      "Ġauto": 3301,
      "Ġbir": 3302,
      "ors": 3303,
      "Ġgegeven": 3304,
      "çĭĹ": 3305,
      "èĻİ": 3306,
      "net": 3307,
      "æĬ±": 3308,
      "ourn": 3309,
      "Ġå·": 3310,
      "åº§": 3311,
      "ä¹ĭéĹ´": 3312,
      "arn": 3313,
      "Ġkant": 3314,
      "å¼ķ": 3315,
      "Ġcol": 3316,
      "Ġrun": 3317,
      "komen": 3318,
      "å§Ķ": 3319,
      "æī¾åĪ°": 3320,
      "å¼Ħ": 3321,
      "gest": 3322,
      "è¿Ļæ¬¡": 3323,
      "èĲ¥": 3324,
      "è·Łä½łè¯´": 3325,
      "Ġpie": 3326,
      "Ġco": 3327,
      "assen": 3328,
      "èĩ´": 3329,
      "Ġcour": 3330,
      "æĬĹ": 3331,
      "æīĭæľº": 3332,
      "éº»": 3333,
      "Ġfire": 3334,
      "Ġhelpen": 3335,
      "æ¼Ĥ": 3336,
      "Ġsy": 3337,
      "Ġgone": 3338,
      "ĠâĢ": 3339,
      "ä½łçľĭ": 3340,
      "Ġstand": 3341,
      "çľ¼çĿ": 3342,
      "ç»§ç»Ń": 3343,
      "Om": 3344,
      "æľ¨": 3345,
      "èİ·": 3346,
      "åĨ³å®ļ": 3347,
      "Ġboth": 3348,
      "Ġbu": 3349,
      "è®¤è¯Ĩ": 3350,
      "ĠGr": 3351,
      "ollow": 3352,
      "Ġmedic": 3353,
      "arly": 3354,
      "ä¼¼": 3355,
      "æİĮ": 3356,
      "Ġfriend": 3357,
      "åŃĻ": 3358,
      "èĽĭ": 3359,
      "Nou": 3360,
      "Ġgar": 3361,
      "ä¸Ģå¤©": 3362,
      "Ġziet": 3363,
      "Ġken": 3364,
      "ä»»ä½ķ": 3365,
      "ged": 3366,
      "ä¸ĬäºĨ": 3367,
      "ĠOp": 3368,
      "Ġsaw": 3369,
      "Wel": 3370,
      "ees": 3371,
      "Ġber": 3372,
      "Ġbew": 3373,
      "Dank": 3374,
      "Why": 3375,
      "gaan": 3376,
      "Ġplaats": 3377,
      "\",": 3378,
      "Ġä½łæĺ¯": 3379,
      "è´µ": 3380,
      "Misschien": 3381,
      "aas": 3382,
      "åĽ¾": 3383,
      "éĩĩ": 3384,
      "ç»Ļä»ĸ": 3385,
      "Ġmisschien": 3386,
      "åı²": 3387,
      "éªĹ": 3388,
      "Sorry": 3389,
      "Ġiedereen": 3390,
      "çĥ¦": 3391,
      "Ġklaar": 3392,
      "Bl": 3393,
      "æ¿": 3394,
      "Ġnam": 3395,
      "Ġface": 3396,
      "iks": 3397,
      "çĭ¬": 3398,
      ".'": 3399,
      "hoek": 3400,
      "èļ": 3401,
      "éĻ©": 3402,
      "tje": 3403,
      "oun": 3404,
      "Ġyears": 3405,
      "Ġmiss": 3406,
      "æĮĳ": 3407,
      "Ġboven": 3408,
      "body": 3409,
      "Ġ9": 3410,
      "Ġbang": 3411,
      "Ġpunten": 3412,
      "è®¤ä¸º": 3413,
      "Ġä½łçľĭ": 3414,
      "è¾Ī": 3415,
      "Ġbad": 3416,
      "å¢ŀ": 3417,
      "Ġpresent": 3418,
      "ner": 3419,
      "å®Ī": 3420,
      "ç»ıæµİ": 3421,
      "åŃĲçļĦ": 3422,
      "èĬĤçĽ®": 3423,
      "ä½İ": 3424,
      "Ġwhile": 3425,
      "ĠDat": 3426,
      "Ġgenoeg": 3427,
      "äºĴ": 3428,
      "Geef": 3429,
      "outh": 3430,
      "å¥¹çļĦ": 3431,
      "ä¹İ": 3432,
      "é¡¶": 3433,
      "Ġverw": 3434,
      "Ġmeneer": 3435,
      "æºĲ": 3436,
      "çľ¼çĿĽ": 3437,
      "br": 3438,
      "Ġè¡Į": 3439,
      "Ġtru": 3440,
      "åºľ": 3441,
      "å¤ļçļĦ": 3442,
      "baar": 3443,
      "Ġtook": 3444,
      "Geen": 3445,
      "gd": 3446,
      "Ġ=": 3447,
      "ott": 3448,
      "Ġgeweest": 3449,
      "Ġverand": 3450,
      "Ġgesch": 3451,
      "åį³": 3452,
      "Ġverm": 3453,
      "å½©": 3454,
      "ĠéĤ£ä¸ª": 3455,
      "ankt": 3456,
      "Al": 3457,
      "ĠæĪĳä¸į": 3458,
      "Ġwhy": 3459,
      "Ġcare": 3460,
      "Ġverg": 3461,
      "Ġnothing": 3462,
      "å½±åĵį": 3463,
      "),": 3464,
      "æĺ¯åĲ§": 3465,
      "Ġenough": 3466,
      "Ġac": 3467,
      "Ġä¸įè¿ĩ": 3468,
      "Ġgeweld": 3469,
      "Ġcr": 3470,
      "éĹ¹": 3471,
      "å§¨": 3472,
      "aut": 3473,
      "Ġmoe": 3474,
      "ised": 3475,
      "ĠEurop": 3476,
      "ä½łä¸į": 3477,
      "Ġind": 3478,
      "oemen": 3479,
      "åĵŃ": 3480,
      "æĪĳæĪĳ": 3481,
      "Ġbeetje": 3482,
      "Ġgener": 3483,
      "Ġpop": 3484,
      "Ġgeven": 3485,
      "ç½®": 3486,
      "chten": 3487,
      "æ´Ĺ": 3488,
      "è¡£æľį": 3489,
      "gra": 3490,
      "Ġsche": 3491,
      "éĥ½æ²¡æľī": 3492,
      "æ¿Ģ": 3493,
      "Ġster": 3494,
      "æ¯ķ": 3495,
      "ç¤¾ä¼ļ": 3496,
      "Wacht": 3497,
      "Ġzullen": 3498,
      "åĲĥé¥Ń": 3499,
      "Ġverschill": 3500,
      "aught": 3501,
      "Ġwaarom": 3502,
      "ekend": 3503,
      "åŃ¦çĶŁ": 3504,
      "åĿļ": 3505,
      "log": 3506,
      "ĠEng": 3507,
      "cent": 3508,
      "Ġcent": 3509,
      "ling": 3510,
      "ç¡®å®ŀ": 3511,
      "HÃ©": 3512,
      "cause": 3513,
      "ph": 3514,
      "Ġbelangrijk": 3515,
      "ress": 3516,
      "Ġäºº": 3517,
      "ited": 3518,
      "Ġfour": 3519,
      "ĠMiss": 3520,
      "ĠâĢ¢": 3521,
      "Ġwind": 3522,
      "åĲ´": 3523,
      "ä¸įå¾Ĺ": 3524,
      "æĿ¥è¯´": 3525,
      "èī¯": 3526,
      "æł¹æľ¬": 3527,
      "pro": 3528,
      "æĪĲä¸º": 3529,
      "Ġaround": 3530,
      "çģµ": 3531,
      "Ġsin": 3532,
      "æľīäºº": 3533,
      "ĠSh": 3534,
      "ç§°": 3535,
      "ept": 3536,
      "uss": 3537,
      "Ġanything": 3538,
      "Let": 3539,
      "å¼¹": 3540,
      "å¼Ģå¿ĥ": 3541,
      "auw": 3542,
      "An": 3543,
      "wel": 3544,
      "ä¼ĳ": 3545,
      "éĢīé¡¹": 3546,
      "åıįæŃ£": 3547,
      "æĪĳè¿ĺ": 3548,
      "ä¸ĭåİ»": 3549,
      "this": 3550,
      "Do": 3551,
      "ĠæĪĳæĥ³": 3552,
      "they": 3553,
      "Ġbuiten": 3554,
      "åĪĹ": 3555,
      "ones": 3556,
      "å¥Ĺ": 3557,
      "æĭĽ": 3558,
      "ject": 3559,
      "Ġthough": 3560,
      "Ġyet": 3561,
      "åĲĮå¿Ĺ": 3562,
      "éľ²": 3563,
      "ä¸Ģå®ļè¦ģ": 3564,
      "vin": 3565,
      "æ¤": 3566,
      "ident": 3567,
      "Ġfilm": 3568,
      "Ġpass": 3569,
      "åŀĭ": 3570,
      "Ġden": 3571,
      "çļĦåľ°æĸ¹": 3572,
      "Ġvis": 3573,
      "é¦Ĩ": 3574,
      "omme": 3575,
      "addy": 3576,
      "æŃ¢": 3577,
      "çĹĽ": 3578,
      "ern": 3579,
      "ä½łè¯´": 3580,
      "Ġverder": 3581,
      "use": 3582,
      "Ġfollow": 3583,
      "æĢİä¹ĪåĬŀ": 3584,
      "cept": 3585,
      "èĥľ": 3586,
      "zelfde": 3587,
      "ium": 3588,
      "Ġhadden": 3589,
      "Ġunt": 3590,
      "Ġgraag": 3591,
      "Ġåİ»": 3592,
      "ä¼´": 3593,
      "opt": 3594,
      "ç¾¤": 3595,
      "Now": 3596,
      "Ġwife": 3597,
      "Ġpoint": 3598,
      "ä¼ĺ": 3599,
      "ç½Ĺ": 3600,
      "Doe": 3601,
      "Jullie": 3602,
      "ika": 3603,
      "éĢĥ": 3604,
      "ably": 3605,
      "å®ĥä»¬": 3606,
      "åĨįè§ģ": 3607,
      "è¹": 3608,
      "Ġbev": 3609,
      "apen": 3610,
      "ĠKikuyu": 3611,
      "ĠçŃī": 3612,
      "ctor": 3613,
      "æĽ¿": 3614,
      "æ¼Ĥäº®": 3615,
      "Hallo": 3616,
      "ule": 3617,
      "çļĦè¿Ļä¸ª": 3618,
      "Ġem": 3619,
      "Ġsmall": 3620,
      "Sch": 3621,
      "oven": 3622,
      "ä¿®": 3623,
      "Ġpraten": 3624,
      "icks": 3625,
      "ä¸įåĲĮ": 3626,
      "èº«ä¸Ĭ": 3627,
      "Ġzonder": 3628,
      "åį«": 3629,
      "å§ĵ": 3630,
      "äºİæĺ¯": 3631,
      "èĻĳ": 3632,
      "Ġjongen": 3633,
      "æľīä¸ª": 3634,
      "Ġround": 3635,
      "ä¹Łæ²¡": 3636,
      "ĠDit": 3637,
      "Ġcoming": 3638,
      "å¥³åĦ¿": 3639,
      "èĪŀ": 3640,
      "Ġheen": 3641,
      "ç¾İåĽ½": 3642,
      "ç»ĵå©ļ": 3643,
      "din": 3644,
      "ç§ĺ": 3645,
      "schap": 3646,
      "åı¥è¯Ŀ": 3647,
      "æ½": 3648,
      "Van": 3649,
      "erm": 3650,
      "æĺ¯ä¸ª": 3651,
      "åĲ¸": 3652,
      "ulp": 3653,
      "çģ°": 3654,
      "æĪ·": 3655,
      "Ġint": 3656,
      "Ġstud": 3657,
      "aden": 3658,
      "don": 3659,
      "Ġsorry": 3660,
      "Ġtop": 3661,
      "Ġnext": 3662,
      "avond": 3663,
      "ids": 3664,
      "Ġreal": 3665,
      "æŃ£åľ¨": 3666,
      "èĪ¬": 3667,
      "éĵ¶": 3668,
      "cies": 3669,
      "ds": 3670,
      "Ġstay": 3671,
      "åĨľ": 3672,
      "Ġslecht": 3673,
      "Ġchildren": 3674,
      "ä¿ĿæĬ¤": 3675,
      "}$$": 3676,
      "Ġcut": 3677,
      "rif": 3678,
      "çĨŁ": 3679,
      "Ġreturn": 3680,
      "Ġmidd": 3681,
      "ĠOh": 3682,
      "æŃ»äºĨ": 3683,
      "Ġuse": 3684,
      "ants": 3685,
      "æķĪ": 3686,
      "å½ĵä¸Ń": 3687,
      "èīº": 3688,
      "Of": 3689,
      "æĺ¯ä½ł": 3690,
      "Ġheart": 3691,
      "ĠWat": 3692,
      "é¸Ł": 3693,
      "ĠJack": 3694,
      "èĥĸ": 3695,
      "ring": 3696,
      "ä¸Ŀ": 3697,
      "Ġwait": 3698,
      "weg": 3699,
      "æµĭ": 3700,
      "æĺ¨å¤©": 3701,
      "Ġdu": 3702,
      "Ġvorm": 3703,
      "Ġke": 3704,
      "Ġger": 3705,
      "Don": 3706,
      "Ġä¸Ģä¸ª": 3707,
      "Ġide": 3708,
      "åĲ¦": 3709,
      "anneer": 3710,
      "Ġidee": 3711,
      "Ġwonder": 3712,
      "Ġsur": 3713,
      "è´Ŀ": 3714,
      "å¥³äºº": 3715,
      "oit": 3716,
      "het": 3717,
      "Ġniks": 3718,
      "æĿĲ": 3719,
      "Ġåģ": 3720,
      "Ġstuk": 3721,
      "aur": 3722,
      "rie": 3723,
      "Ġwist": 3724,
      "æ°¸": 3725,
      "åŃ¦æł¡": 3726,
      "æīįèĥ½": 3727,
      "Ġå¿«": 3728,
      "Bed": 3729,
      "Ġbur": 3730,
      "è±Ĩ": 3731,
      "Right": 3732,
      "Ġcat": 3733,
      "Ġinst": 3734,
      "ower": 3735,
      "ä½ľä¸º": 3736,
      "Ġnieuw": 3737,
      "ä¸įå¯¹": 3738,
      "Ġkans": 3739,
      "Ġsleep": 3740,
      "ivers": 3741,
      "\".": 3742,
      "ä¸Ģç§į": 3743,
      "è¯į": 3744,
      "Ġgehe": 3745,
      "akte": 3746,
      "Ġä½łå°±": 3747,
      "ove": 3748,
      "Ġ199": 3749,
      "zo": 3750,
      "Ġtele": 3751,
      "Ġwar": 3752,
      "æĪĳè¯´": 3753,
      "Ġnemen": 3754,
      "Ġblood": 3755,
      "ĠYes": 3756,
      "eb": 3757,
      "å®«": 3758,
      "èĮĥ": 3759,
      "ps": 3760,
      "val": 3761,
      "æķ£": 3762,
      "çĬ¯": 3763,
      "ç»Īäºİ": 3764,
      "Met": 3765,
      "Ġè¿ĺæĺ¯": 3766,
      "Ġleg": 3767,
      "çºª": 3768,
      "Ġvertellen": 3769,
      "any": 3770,
      "Ġseen": 3771,
      "å¾ĭ": 3772,
      "è¿ĺä¸į": 3773,
      "ç´ł": 3774,
      "å®īåħ¨": 3775,
      "co": 3776,
      "éĥ½ä¼ļ": 3777,
      "Ġspijt": 3778,
      "Ġyeah": 3779,
      "çĪ¶äº²": 3780,
      "æĬĢæľ¯": 3781,
      "she": 3782,
      "è¯Ĺ": 3783,
      "ĠæĪĳçļĦ": 3784,
      "å¤ļäºĨ": 3785,
      "ected": 3786,
      "vis": 3787,
      "Ġfar": 3788,
      "Ġgeze": 3789,
      "éĢĢ": 3790,
      "Ġmogelijk": 3791,
      "part": 3792,
      "æĺ¯åľ¨": 3793,
      "Ġlos": 3794,
      "Ġdrink": 3795,
      "Ġdel": 3796,
      "æ²Ļ": 3797,
      "anks": 3798,
      "orning": 3799,
      "ĠAr": 3800,
      "æł·åŃĲ": 3801,
      "çĮ´": 3802,
      "ç²ī": 3803,
      "Ġcountry": 3804,
      "Ch": 3805,
      "å®ĭ": 3806,
      "å°ıå§Ĳ": 3807,
      "Ġ15": 3808,
      "éĻĨ": 3809,
      "å¹²ä»Ģä¹Ī": 3810,
      "çĽ´æİ¥": 3811,
      "ence": 3812,
      "Ġlijkt": 3813,
      "å¯Į": 3814,
      "aps": 3815,
      "ç«¥": 3816,
      "Ġhoud": 3817,
      "Ġuntil": 3818,
      "Ġè¯·": 3819,
      "æŀ¶": 3820,
      "ween": 3821,
      "Ġneem": 3822,
      "Ġyes": 3823,
      "Ġopdracht": 3824,
      "ä¹Łæ²¡æľī": 3825,
      "ĠMe": 3826,
      "æ¯Ķå¦Ĥ": 3827,
      "æł·çļĦ": 3828,
      "Ġmoney": 3829,
      "ijken": 3830,
      "æķĮ": 3831,
      "ughs": 3832,
      "cle": 3833,
      "åª": 3834,
      "å¤ı": 3835,
      "åŃ¦ä¹ł": 3836,
      "åį±": 3837,
      "äºĮéĽ¶": 3838,
      "ations": 3839,
      "ç»¿": 3840,
      "åĹ": 3841,
      "Ġå¤§å®¶": 3842,
      "enen": 3843,
      "èĤī": 3844,
      "Ġlooked": 3845,
      "ede": 3846,
      "ijna": 3847,
      "Ġie": 3848,
      "uring": 3849,
      "ĠNew": 3850,
      "Ġexc": 3851,
      "ta": 3852,
      "è¿ĩç¨ĭ": 3853,
      "wat": 3854,
      "ijs": 3855,
      "Ġread": 3856,
      "Ã¶": 3857,
      "erent": 3858,
      "reken": 3859,
      "æĻ¨": 3860,
      "éĤ£ç§į": 3861,
      "åį¡": 3862,
      "çŁŃ": 3863,
      "Ġmeisje": 3864,
      "Ġcourse": 3865,
      "ľçļĦ": 3866,
      "åįĪ": 3867,
      "elling": 3868,
      "åıªè¦ģ": 3869,
      "Ġdisc": 3870,
      "Ġsort": 3871,
      "ç»´": 3872,
      "Ġart": 3873,
      "ç¿»": 3874,
      "king": 3875,
      "Ġpri": 3876,
      "æĿ¥æĿ¥": 3877,
      "æİ¢": 3878,
      "è¿·": 3879,
      "sel": 3880,
      "uz": 3881,
      "Ġair": 3882,
      "åĪ¤": 3883,
      "Ġthuis": 3884,
      "æĬĬæĪĳ": 3885,
      "ĠéĤ£æĪĳ": 3886,
      "ijdens": 3887,
      "èŀ": 3888,
      "åĲĵ": 3889,
      "Ġklein": 3890,
      "Ġä¸ºä»Ģä¹Ī": 3891,
      "Ġhot": 3892,
      "ä¸ĢåĿĹ": 3893,
      "Hey": 3894,
      "Ġmind": 3895,
      "Ġgeeft": 3896,
      "osed": 3897,
      "ler": 3898,
      "äº«": 3899,
      "Ġdeel": 3900,
      "ĠæĪĳçŁ¥éģĵ": 3901,
      "åİī": 3902,
      "ĠåıĪ": 3903,
      "Ġbep": 3904,
      "Ġhaven": 3905,
      "Ġspir": 3906,
      "è®©ä»ĸ": 3907,
      "çĳ": 3908,
      "Ġass": 3909,
      "ä¾Ľ": 3910,
      "Ġvroeg": 3911,
      "æľµ": 3912,
      "èĨ": 3913,
      "Ġposs": 3914,
      "stuk": 3915,
      "èº«è¾¹": 3916,
      "Ġpos": 3917,
      "Ġwelke": 3918,
      "ertain": 3919,
      "èĿ": 3920,
      "æĭ¬": 3921,
      "Ġooit": 3922,
      "Ġrust": 3923,
      "åĬ¨çī©": 3924,
      "Ġwomen": 3925,
      "Ġlight": 3926,
      "æĳĩ": 3927,
      "Ġdays": 3928,
      "gy": 3929,
      "Ġaant": 3930,
      "Ġend": 3931,
      "å½ĵçĦ¶": 3932,
      "Ġdist": 3933,
      "å¤§åĵ¥": 3934,
      "è¿ĺæ²¡": 3935,
      "èĭ¥": 3936,
      "Ġmorning": 3937,
      "iving": 3938,
      "èī²çļĦ": 3939,
      "Come": 3940,
      "ped": 3941,
      "Ġyoung": 3942,
      "åĪĨä¹ĭ": 3943,
      "è¿Ľåİ»": 3944,
      "ä½łä¹Ł": 3945,
      "æĹ¥åŃĲ": 3946,
      "é¢ĺå¹²": 3947,
      "Ġasked": 3948,
      "itch": 3949,
      "æĸĹ": 3950,
      "å¯¹å¯¹": 3951,
      "Ġkleine": 3952,
      "æĸ°çļĦ": 3953,
      "19": 3954,
      "rijven": 3955,
      "åĩłå¤©": 3956,
      "å£°éŁ³": 3957,
      "Ġseemed": 3958,
      "ĠæĪĳä¹Ł": 3959,
      "è´¢": 3960,
      "ches": 3961,
      "voorbeeld": 3962,
      "Ġä¸Ĭ": 3963,
      "elp": 3964,
      "æµª": 3965,
      "Ġbren": 3966,
      "ĠAmeric": 3967,
      "Ġvaak": 3968,
      "çİĩ": 3969,
      "æīĢæľīçļĦ": 3970,
      "æĻº": 3971,
      "Ġknown": 3972,
      "å¹²åĲĹ": 3973,
      "Ġbeste": 3974,
      "ä»Ļ": 3975,
      "onnen": 3976,
      "æĿ¥åĪ°": 3977,
      "olog": 3978,
      "ä¸īä¸ª": 3979,
      "ched": 3980,
      "æ¶Īæģ¯": 3981,
      "zus": 3982,
      "Ġhus": 3983,
      "akt": 3984,
      "enten": 3985,
      "éĺµ": 3986,
      "Ġcomm": 3987,
      "èĪ¹": 3988,
      "Ġever": 3989,
      "ĠIs": 3990,
      "eert": 3991,
      "ĠOn": 3992,
      "ips": 3993,
      "Ġokay": 3994,
      "wh": 3995,
      "Ġwalk": 3996,
      "Ġsix": 3997,
      "Ġhor": 3998,
      "deel": 3999,
      "¤Ĳ": 4000,
      "æģĭ": 4001,
      "Ġdicht": 4002,
      "Ġles": 4003,
      "ç§¯": 4004,
      "Ġext": 4005,
      "Ġlooks": 4006,
      "mhm": 4007,
      "Ġä½łè¦ģ": 4008,
      "å½Ĵ": 4009,
      "åĲĮåŃ¦": 4010,
      "Ġpur": 4011,
      "ĠMaar": 4012,
      "åĢŁ": 4013,
      "åıªèĥ½": 4014,
      "Ġå¦Ī": 4015,
      "æļĸ": 4016,
      "Ġgoes": 4017,
      "åħ¶ä»ĸ": 4018,
      "Ġdoesn": 4019,
      "å®Ĺ": 4020,
      "leg": 4021,
      "Ġmeet": 4022,
      "jebl": 4023,
      "Ġwerden": 4024,
      "æĦŁæĥħ": 4025,
      "Ġprobleem": 4026,
      "ä»ĭ": 4027,
      "Ġzorgen": 4028,
      "ished": 4029,
      "æľīæ²¡æľī": 4030,
      "igd": 4031,
      "è¿ĩäºĨ": 4032,
      "Ġè¿Ļä¹Ī": 4033,
      "æĸĩåĮĸ": 4034,
      "æ¦Ĥ": 4035,
      "ating": 4036,
      "ç»ĩ": 4037,
      "ĠAg": 4038,
      "çº¸": 4039,
      "Ġè·Ł": 4040,
      "Ġåº": 4041,
      "æ³¢": 4042,
      "ç´¢": 4043,
      "Ġgeluk": 4044,
      "Ġsacrif": 4045,
      "æ¾": 4046,
      "é¤Ĳ": 4047,
      "åħ³æ³¨": 4048,
      "Ġbra": 4049,
      "æĪĳåľ¨": 4050,
      "ä½łè¦ģ": 4051,
      "Ġåĸ": 4052,
      "åĲįåŃĹ": 4053,
      "Ġcre": 4054,
      "é¢Ħ": 4055,
      "åģļçļĦ": 4056,
      "Ġexact": 4057,
      "Ġbring": 4058,
      "çĶļ": 4059,
      "æĸ¹å¼ı": 4060,
      "ĠFrance": 4061,
      "kt": 4062,
      "Ġfoot": 4063,
      "èĪĴ": 4064,
      "Ġverschillende": 4065,
      "é½": 4066,
      "Ġèĥ½": 4067,
      "Ġju": 4068,
      "omas": 4069,
      "ä¸įçĶ¨": 4070,
      "åħ°": 4071,
      "æĿ¯": 4072,
      "åŃ£": 4073,
      "Ġdoll": 4074,
      "Mm": 4075,
      "Ġogen": 4076,
      "æĪĳéĥ½": 4077,
      "è¯Ħ": 4078,
      "åħħ": 4079,
      "åłĤ": 4080,
      "jeblieft": 4081,
      "ui": 4082,
      "çľģ": 4083,
      "è¡¥": 4084,
      "Ġknew": 4085,
      "kelijk": 4086,
      "ww": 4087,
      "ä½Ľ": 4088,
      "æĺ¯åķĬ": 4089,
      "Ġtoget": 4090,
      "è¿ĺè¦ģ": 4091,
      "ush": 4092,
      "Ġgeleden": 4093,
      "åĹ¯åĹ¯": 4094,
      "éĩĬ": 4095,
      "Ġrond": 4096,
      "ĠDeze": 4097,
      "When": 4098,
      "åĪļåĪļ": 4099,
      "Ġhusband": 4100,
      "ä¸´": 4101,
      "åĬª": 4102,
      "ĠAf": 4103,
      "æĪĲåĬŁ": 4104,
      "Ġvlie": 4105,
      "Ġinform": 4106,
      "Ġgezegd": 4107,
      "Ġtogether": 4108,
      "ĠéĤ£ä¹Ī": 4109,
      "ieden": 4110,
      "çĪ¶æ¯į": 4111,
      "etty": 4112,
      "èĢ³": 4113,
      "und": 4114,
      "ĠBij": 4115,
      "è¿Ļä¹Īå¤ļ": 4116,
      "åıĺæĪĲ": 4117,
      "rought": 4118,
      "wing": 4119,
      "è¿Ļä»¶": 4120,
      "æĹģ": 4121,
      "iding": 4122,
      "çĲĨè§£": 4123,
      "port": 4124,
      "Ġhers": 4125,
      "åľĪ": 4126,
      "æ²¡äºĭ": 4127,
      "å¦ĩ": 4128,
      "å±ĭ": 4129,
      "ific": 4130,
      "Ġgrond": 4131,
      "å¸¦çĿĢ": 4132,
      "æħ¢æħ¢": 4133,
      "come": 4134,
      "oes": 4135,
      "åºŃ": 4136,
      "ç¬Ķ": 4137,
      "Ġdri": 4138,
      "Ġsign": 4139,
      "æ³¨æĦı": 4140,
      "met": 4141,
      "Ġhop": 4142,
      "ä»»åĬ¡": 4143,
      "æļĹ": 4144,
      "idden": 4145,
      "Ġdifferent": 4146,
      "è¯º": 4147,
      "Ġfunctie": 4148,
      "çļĦä¸ľè¥¿": 4149,
      "ĠDaar": 4150,
      "ries": 4151,
      "rijd": 4152,
      "çĥŁ": 4153,
      "zoek": 4154,
      "ork": 4155,
      "éĥ½åľ¨": 4156,
      "Ġmanier": 4157,
      "Ġmannen": 4158,
      "kken": 4159,
      "arde": 4160,
      "adi": 4161,
      "Ġreden": 4162,
      "åľ°è¯´": 4163,
      "åĮ»éĻ¢": 4164,
      "door": 4165,
      "Ġwoorden": 4166,
      "ĠåĮ": 4167,
      "roken": 4168,
      "æĥ³è¦ģ": 4169,
      "ç§ģ": 4170,
      "ither": 4171,
      "ball": 4172,
      "æĬĺ": 4173,
      "åĵ¥åĵ¥": 4174,
      "æĭħå¿ĥ": 4175,
      "ired": 4176,
      "æŁĲ": 4177,
      "Not": 4178,
      "ual": 4179,
      "Ġèµ°": 4180,
      "ä½łçŁ¥éģĵ": 4181,
      "å¼ĥ": 4182,
      "åģ¥": 4183,
      "éĥ¨åĪĨ": 4184,
      "Ġoude": 4185,
      "bed": 4186,
      "Ġhear": 4187,
      "inger": 4188,
      "Ġwanted": 4189,
      "çĶ·äºº": 4190,
      "çĪ·çĪ·": 4191,
      "æķ´ä¸ª": 4192,
      "Ġoften": 4193,
      "ross": 4194,
      "åįĩ": 4195,
      "åºĬ": 4196,
      "éŀ": 4197,
      "ĠåĪ°": 4198,
      "Ġdeed": 4199,
      "ĠPaul": 4200,
      "Ġbox": 4201,
      "ible": 4202,
      "most": 4203,
      "ows": 4204,
      "Ġlooking": 4205,
      "éĶĻè¯¯": 4206,
      "Ġjongens": 4207,
      "ç®Ģåįķ": 4208,
      "gr": 4209,
      "why": 4210,
      "ats": 4211,
      "Ġheet": 4212,
      "ä»ĸæĺ¯": 4213,
      "éĤ£åĦ¿": 4214,
      "Ġgeloof": 4215,
      "Mr": 4216,
      "ton": 4217,
      "ä¸įä½ı": 4218,
      "åįļ": 4219,
      "ĠGe": 4220,
      "ç¥Ŀ": 4221,
      "æĹ¢çĦ¶": 4222,
      "èĸ": 4223,
      "Ġev": 4224,
      "Ġfive": 4225,
      "å®£": 4226,
      "Ġaange": 4227,
      "Ġbelieve": 4228,
      "åĽłæŃ¤": 4229,
      "ior": 4230,
      "Ġhold": 4231,
      "Ġanim": 4232,
      "èĢģæĿ¿": 4233,
      "weet": 4234,
      "Deze": 4235,
      "Ġmedicine": 4236,
      "kker": 4237,
      "ole": 4238,
      "erde": 4239,
      "Ġgesp": 4240,
      "Ġcra": 4241,
      "Ġsoon": 4242,
      "éŃĶ": 4243,
      "lijn": 4244,
      "maar": 4245,
      "çŃĸ": 4246,
      "åĸĦ": 4247,
      "è®Ń": 4248,
      "å¼Ĥ": 4249,
      "çľŁæŃ£": 4250,
      "æ¬¢è¿İ": 4251,
      "Ġnacht": 4252,
      "Ġè¿Ļæł·": 4253,
      "åĲĮæĹ¶": 4254,
      "å®Įåħ¨": 4255,
      "Ġlive": 4256,
      "èµµ": 4257,
      "Ġwhite": 4258,
      "æ¬¾": 4259,
      "å¥³åŃ©": 4260,
      "åĳĬè¯īæĪĳ": 4261,
      "Ġgeldt": 4262,
      "Ġgarden": 4263,
      "ä½Ļ": 4264,
      "ĠPat": 4265,
      "eerde": 4266,
      "æģ©": 4267,
      "Ġbegrij": 4268,
      "ĠChrist": 4269,
      "Âł": 4270,
      "äººä»¬": 4271,
      "æĸ½": 4272,
      "Ġbetween": 4273,
      "è¦ģæ±Ĥ": 4274,
      "Ġgetekend": 4275,
      "æĪ¿éĹ´": 4276,
      "olen": 4277,
      "Ġsoort": 4278,
      "Ġhut": 4279,
      "ãĢĬ": 4280,
      "ãĢĭ": 4281,
      "å®¶çļĦ": 4282,
      "è¡ĮåĬ¨": 4283,
      "plain": 4284,
      "Ġjo": 4285,
      "éĥ½æľī": 4286,
      "æĭľæĭľ": 4287,
      "ĠçľŁçļĦ": 4288,
      "fess": 4289,
      "min": 4290,
      "ä¸Ģåıª": 4291,
      "ä¸įæĥ³": 4292,
      "é¡¿": 4293,
      "æĸ°éĹ»": 4294,
      "nie": 4295,
      "Ġed": 4296,
      "Ġverb": 4297,
      "ĠåĽŀ": 4298,
      "kant": 4299,
      "Ġcertain": 4300,
      "åĲ¬è¯´": 4301,
      "Ġph": 4302,
      "æŀĦ": 4303,
      "æģĲ": 4304,
      "ç³ĸ": 4305,
      "Ġgebruikt": 4306,
      "Ġfood": 4307,
      "Ġopge": 4308,
      "ily": 4309,
      "Ġworld": 4310,
      "Ġwithout": 4311,
      "åĸĬ": 4312,
      "çŃĶåºĶ": 4313,
      "laughs": 4314,
      "è¿ĲåĬ¨": 4315,
      "Ġkilled": 4316,
      "Ġhoop": 4317,
      "Ġkop": 4318,
      "è®¨": 4319,
      "vie": 4320,
      "Ġhalen": 4321,
      "ä¸Ģä¼ļåĦ¿": 4322,
      "çİ¯å¢ĥ": 4323,
      "åĪº": 4324,
      "Ġmem": 4325,
      "ages": 4326,
      "Ġnumber": 4327,
      "Ġbijna": 4328,
      "Ġhoren": 4329,
      "ĠMummy": 4330,
      "æ¢ħ": 4331,
      "Ġappear": 4332,
      "esloten": 4333,
      "voc": 4334,
      "ying": 4335,
      "ä»ĺ": 4336,
      "orrow": 4337,
      "è´¥": 4338,
      "Ġplac": 4339,
      "å¥¶å¥¶": 4340,
      "Bedankt": 4341,
      "less": 4342,
      "ç§ĭ": 4343,
      "Me": 4344,
      "cum": 4345,
      "ane": 4346,
      "Ġdear": 4347,
      "èĭı": 4348,
      "Ġside": 4349,
      "oth": 4350,
      "æĿ¥è¶Ĭ": 4351,
      "ä»ĸä»¬çļĦ": 4352,
      "èģª": 4353,
      "Ġhands": 4354,
      "ral": 4355,
      "Ġå¤ª": 4356,
      "Ġheard": 4357,
      "inds": 4358,
      "pervl": 4359,
      "ä¸Ģå®ļä¼ļ": 4360,
      "Maak": 4361,
      "çĶŁæ°Ķ": 4362,
      "Ġsla": 4363,
      "Ġkrijgt": 4364,
      "now": 4365,
      "woorden": 4366,
      "omm": 4367,
      "åķĬä½ł": 4368,
      "eem": 4369,
      "éĻį": 4370,
      "é¢ĳ": 4371,
      "uurt": 4372,
      "Ġsoms": 4373,
      "è¶ĬæĿ¥è¶Ĭ": 4374,
      "Ġperf": 4375,
      "Men": 4376,
      "»åŃĲ": 4377,
      "Ġdagen": 4378,
      "çļĦéĤ£ä¸ª": 4379,
      "Ġfamily": 4380,
      "ä¸Ģå¹´": 4381,
      "Ġlicht": 4382,
      "åľ¨æĪĳ": 4383,
      "Ġvers": 4384,
      "æĬ¢": 4385,
      "éģį": 4386,
      "Ġ12": 4387,
      "Laten": 4388,
      "å°ģ": 4389,
      "ummer": 4390,
      "ĠNan": 4391,
      "ĠRose": 4392,
      "Ġmyself": 4393,
      "èĵĿ": 4394,
      "åİ»æī¾": 4395,
      "å¨ģ": 4396,
      "Ġgave": 4397,
      "My": 4398,
      "ä¸įéĶĻ": 4399,
      "ande": 4400,
      "åķĬæĪĳ": 4401,
      "amba": 4402,
      "å¤§äºĨ": 4403,
      "Ġupon": 4404,
      "çĻ¾åĪĨä¹ĭ": 4405,
      "çĶļèĩ³": 4406,
      "how": 4407,
      "çĭĲ": 4408,
      "åİīå®³": 4409,
      "mee": 4410,
      "Ġå¤©": 4411,
      "Ġtaken": 4412,
      "ä½łäºĨ": 4413,
      "å°Ĭ": 4414,
      "oke": 4415,
      "æĬĬä½ł": 4416,
      "éķľ": 4417,
      "Wij": 4418,
      "heen": 4419,
      "æ£Ģ": 4420,
      "bare": 4421,
      "ä¸¹": 4422,
      "æĪ´": 4423,
      "ä¸ĭçļĦ": 4424,
      "è¡Ĺ": 4425,
      "ational": 4426,
      "ç¥¨": 4427,
      "ĠStan": 4428,
      "appy": 4429,
      "æ¹ĸ": 4430,
      "ĠæľĢ": 4431,
      "ara": 4432,
      "Ġpat": 4433,
      "ison": 4434,
      "ĠæĪĳçİ°åľ¨": 4435,
      "è¾Ľ": 4436,
      "Ġnear": 4437,
      "Ġspe": 4438,
      "çłĶç©¶": 4439,
      "Be": 4440,
      "who": 4441,
      "åĪĢ": 4442,
      "è¾ĵ": 4443,
      "Ġbloed": 4444,
      "ç¢°": 4445,
      "enden": 4446,
      "az": 4447,
      "Ġwed": 4448,
      "Ġref": 4449,
      "Ġunderstand": 4450,
      "å³": 4451,
      "elden": 4452,
      "ĠPar": 4453,
      "éŁ©": 4454,
      "Ġmooi": 4455,
      "ĠAs": 4456,
      "ĠHier": 4457,
      "åº·": 4458,
      "çŃ¾": 4459,
      "IS": 4460,
      "Ġset": 4461,
      "oopt": 4462,
      "å°±æĺ¯è¯´": 4463,
      "å¿«ä¹Ĳ": 4464,
      "å´": 4465,
      "Ġaunt": 4466,
      "Ġsim": 4467,
      "Ġpay": 4468,
      "ĠæĪĳè¦ģ": 4469,
      "Ġleave": 4470,
      "ç¼º": 4471,
      "Ġå¸Ī": 4472,
      "Tw": 4473,
      "bs": 4474,
      "Ġjaren": 4475,
      "Ġremember": 4476,
      "Ġzin": 4477,
      "éĥ½æ²¡": 4478,
      "ĠHoe": 4479,
      "Ġzoon": 4480,
      "é½Ĳ": 4481,
      "èĶ": 4482,
      "Ġaard": 4483,
      "å°Ŀ": 4484,
      "Ġenige": 4485,
      "ĠLe": 4486,
      "zicht": 4487,
      "æľīäºĽ": 4488,
      "ames": 4489,
      "å¾ĹåĪ°": 4490,
      "éķ¿çļĦ": 4491,
      "Ġdenken": 4492,
      "Ġbrought": 4493,
      "Ġcase": 4494,
      "une": 4495,
      "å¯»": 4496,
      "æĻ®": 4497,
      "æ£®": 4498,
      "Ġhart": 4499,
      "raak": 4500,
      "Ġä½łçļĦ": 4501,
      "æĳĨ": 4502,
      "inner": 4503,
      "?'": 4504,
      "Ġlink": 4505,
      "æī§": 4506,
      "ä¼¯": 4507,
      "Ġbijvoorbeeld": 4508,
      "Ġonce": 4509,
      "æ´ŀ": 4510,
      "Ġocc": 4511,
      "Ġmaking": 4512,
      "ä¸Ģè¾¹": 4513,
      "Ġang": 4514,
      "åī¯": 4515,
      "CD": 4516,
      "Ġnoemen": 4517,
      "å½ķ": 4518,
      "éļ¾éģĵ": 4519,
      "Ġliggen": 4520,
      "Ġav": 4521,
      "åĬ³": 4522,
      "ĠCan": 4523,
      "å®ĥçļĦ": 4524,
      "æľ¬æĿ¥": 4525,
      "Ġton": 4526,
      "æĿŁ": 4527,
      "åĨ°": 4528,
      "ĠHow": 4529,
      "çĿĢæĪĳ": 4530,
      "éĽĢ": 4531,
      "è¢ĭ": 4532,
      "ĠVan": 4533,
      "bert": 4534,
      "Ġpolitie": 4535,
      "æ¤į": 4536,
      "uil": 4537,
      "Ġæ¯ı": 4538,
      "Ġhen": 4539,
      "Ġeas": 4540,
      "Ġonge": 4541,
      "éĿ©": 4542,
      "åºĨ": 4543,
      "åĶĲ": 4544,
      "Ġniemand": 4545,
      "èĮ¶": 4546,
      "åıĤåĬł": 4547,
      "Ġwoord": 4548,
      "Ġoud": 4549,
      "ived": 4550,
      "Ġnatuurlijk": 4551,
      "åħĶåŃĲ": 4552,
      "äºļ": 4553,
      "Ġzon": 4554,
      "Ġcoll": 4555,
      "ieten": 4556,
      "Ġè¿ĻäºĽ": 4557,
      "Ġhaving": 4558,
      "Ġcannot": 4559,
      "æĶ¹åıĺ": 4560,
      "åĬªåĬĽ": 4561,
      "Ġson": 4562,
      "æīĵå¼Ģ": 4563,
      "Ġoffic": 4564,
      "Ġåıªè¦ģ": 4565,
      "ha": 4566,
      "ä¸¢": 4567,
      "Ġheld": 4568,
      "ason": 4569,
      "ular": 4570,
      "æ±½": 4571,
      "å¦Ĥä½ķ": 4572,
      "ç²¾ç¥ŀ": 4573,
      "lo": 4574,
      "æīĺ": 4575,
      "åį°": 4576,
      "ny": 4577,
      "Ġä¸ī": 4578,
      "å®ŀåľ¨": 4579,
      "ç«¯": 4580,
      "Ġidea": 4581,
      "Ġground": 4582,
      "Ġhigh": 4583,
      "æī¹": 4584,
      "ĠåĴĮ": 4585,
      "ç»Ŀå¯¹": 4586,
      "Ġet": 4587,
      "Ġä½łåĪ«": 4588,
      "ç»ıå¸¸": 4589,
      "Ġminuten": 4590,
      "Ġcook": 4591,
      "Ġtown": 4592,
      "å·§": 4593,
      "è¾ĪåŃĲ": 4594,
      "Ġhoudt": 4595,
      "ures": 4596,
      "Ġvindt": 4597,
      "ax": 4598,
      "å°±è¦ģ": 4599,
      "Ġtimes": 4600,
      "åĲµ": 4601,
      "åĬ²": 4602,
      "Ġspeel": 4603,
      "Blijf": 4604,
      "Ġmoo": 4605,
      "Ġbar": 4606,
      "aanse": 4607,
      "weede": 4608,
      "é¬¼åŃĲ": 4609,
      "Ġzag": 4610,
      "Ġkre": 4611,
      "reven": 4612,
      "iger": 4613,
      "Ġrather": 4614,
      "ahu": 4615,
      "æģ¶": 4616,
      "Ġbrand": 4617,
      "çĥ§": 4618,
      "æĶ¿åºľ": 4619,
      "Ġverhaal": 4620,
      "Ġvandaag": 4621,
      "ret": 4622,
      "çĺ": 4623,
      "ĠX": 4624,
      "ads": 4625,
      "estourn": 4626,
      "Zeg": 4627,
      "ney": 4628,
      "Ġblijft": 4629,
      "Ġconsider": 4630,
      "estournier": 4631,
      "Ġä¼ļ": 4632,
      "åĲİéĿ¢": 4633,
      "å±Ĥ": 4634,
      "å¸®æĪĳ": 4635,
      "Ġeverything": 4636,
      "vrouw": 4637,
      "åĽ°": 4638,
      "çģŃ": 4639,
      "å®ĮæĪĲ": 4640,
      "å¹¸ç¦ı": 4641,
      "esten": 4642,
      "ĠVer": 4643,
      "è¶£": 4644,
      "æ¡ĥ": 4645,
      "Ġ198": 4646,
      "Ġprobably": 4647,
      "çĪ¬": 4648,
      "Ġhowever": 4649,
      "Ġtrou": 4650,
      "Ġpast": 4651,
      "Ġprom": 4652,
      "ĠAunt": 4653,
      "Ġwerken": 4654,
      "æ¡Į": 4655,
      "çĪ±çļĦ": 4656,
      "Ġinterest": 4657,
      "inde": 4658,
      "Ġguy": 4659,
      "å¦ĤæŃ¤": 4660,
      "èħ¿": 4661,
      "èĴĻ": 4662,
      "é¢ľ": 4663,
      "å®ĮäºĨ": 4664,
      "é¡¹çĽ®": 4665,
      "åħ±äº§": 4666,
      "Where": 4667,
      "bur": 4668,
      "Ġwin": 4669,
      "èµ¢": 4670,
      "å¹´è½»": 4671,
      "Alles": 4672,
      "Ġzelfs": 4673,
      "å°¾": 4674,
      "æĭ¼": 4675,
      "åĽŀæĿ¥äºĨ": 4676,
      "Ġpretty": 4677,
      "æİ¥åıĹ": 4678,
      "ator": 4679,
      "å°ıæĹ¶": 4680,
      "èĥ½åĬĽ": 4681,
      "Ġgeweldig": 4682,
      "Ġgi": 4683,
      "Ġzoek": 4684,
      "åĽŀäºĭ": 4685,
      "Ġplant": 4686,
      "Ġsaying": 4687,
      "çĽĺ": 4688,
      "Ġ17": 4689,
      "ĠThomas": 4690,
      "éģĩåĪ°": 4691,
      "Ġmatter": 4692,
      "å®¡": 4693,
      "æĿĤ": 4694,
      "æĹħ": 4695,
      "çĶĦ": 4696,
      "ä¸ĬéĿ¢": 4697,
      "åŃĲéĩĮ": 4698,
      "çĤ¸": 4699,
      "èĩªçĦ¶": 4700,
      "æĬĬä»ĸ": 4701,
      "Ġåı¯ä»¥": 4702,
      "orth": 4703,
      "Ġdeath": 4704,
      "Ġlar": 4705,
      "ĠæĪĳè¯´": 4706,
      "ä¿¡æģ¯": 4707,
      "æł¹æį®": 4708,
      "Ġcult": 4709,
      "Ġåī": 4710,
      "ä»Ģä¹ĪæĹ¶åĢĻ": 4711,
      "rienden": 4712,
      "éĹ®ä½ł": 4713,
      "Ġgebeurd": 4714,
      "Ġoorlog": 4715,
      "åĳĹ": 4716,
      "çľĭäºĨ": 4717,
      "åįģäºĮ": 4718,
      "çľŁçļĦæĺ¯": 4719,
      "ĠZie": 4720,
      "åİŁåĽł": 4721,
      "bel": 4722,
      "ä½łæĢİä¹Ī": 4723,
      "Ġeff": 4724,
      "Ġleer": 4725,
      "Ġspel": 4726,
      "ä¼ĳæģ¯": 4727,
      "iets": 4728,
      "å¥½åĲ§": 4729,
      "Ġverz": 4730,
      "åĪ«çļĦ": 4731,
      "è§ģè¿ĩ": 4732,
      "æĹłæ³ķ": 4733,
      "åĵªéĩĮ": 4734,
      "lijke": 4735,
      "oms": 4736,
      "æĦŁè°¢": 4737,
      "Ġæĺ¯ä¸įæĺ¯": 4738,
      "Ġtalking": 4739,
      "Ġcirkel": 4740,
      "Ġä¸įè¦ģ": 4741,
      "Ġhoeveel": 4742,
      "æĳ¸": 4743,
      "ç»Ħç»ĩ": 4744,
      "Ġill": 4745,
      "orp": 4746,
      "äººæ°ĳ": 4747,
      "å¿į": 4748,
      "Ġcomes": 4749,
      "Ġä¸º": 4750,
      "Ġinv": 4751,
      "Ġoppervl": 4752,
      "éĴĪ": 4753,
      "Ġzouden": 4754,
      "$$\\": 4755,
      "å¸®åĬ©": 4756,
      "Ġfamilie": 4757,
      "Ġmak": 4758,
      "ä¸ĢåĪĩ": 4759,
      "åħį": 4760,
      "åĽŀåĪ°": 4761,
      "Ġaantal": 4762,
      "æĥľ": 4763,
      "æŁĵ": 4764,
      "æĪĳçŁ¥éģĵ": 4765,
      "Ġstem": 4766,
      "Ġdog": 4767,
      "ç¨³": 4768,
      "çĿ¡è§ī": 4769,
      "Ġcontro": 4770,
      "å«ģ": 4771,
      "Echt": 4772,
      "æĺ¯è°ģ": 4773,
      "éĢı": 4774,
      "è¿Ľåħ¥": 4775,
      "Ġruim": 4776,
      "ocht": 4777,
      "Ġbekend": 4778,
      "Ġbeaut": 4779,
      "enty": 4780,
      "å°ıå¿ĥ": 4781,
      "æĮ¥": 4782,
      "åģļäºĨ": 4783,
      "éĽ·": 4784,
      "Ġchar": 4785,
      "åĲ¬åĪ°": 4786,
      "Ġadd": 4787,
      "ON": 4788,
      "Ġvergelijk": 4789,
      "åĴĭ": 4790,
      "å§Ĳå§Ĳ": 4791,
      "gels": 4792,
      "æļ´": 4793,
      "åı¦å¤ĸ": 4794,
      "mo": 4795,
      "Ġlucht": 4796,
      "Ġkamer": 4797,
      "Ġgebied": 4798,
      "çĩ": 4799,
      "Ġbal": 4800,
      "Ġbek": 4801,
      "æķ°æį®": 4802,
      "æł¸": 4803,
      "çĿĢæĢ¥": 4804,
      "åħ±äº§åħļ": 4805,
      "bers": 4806,
      "ines": 4807,
      "Ġmus": 4808,
      "Ġbere": 4809,
      "ima": 4810,
      "Ġbreak": 4811,
      "æĽ¾ç»ı": 4812,
      "Le": 4813,
      "Ġsheep": 4814,
      "Ġsub": 4815,
      "çĶµè§Ĩ": 4816,
      "ä½ıäºĨ": 4817,
      "bal": 4818,
      "uig": 4819,
      "Ġdied": 4820,
      "Ġborn": 4821,
      "Ġhour": 4822,
      "Ġhoek": 4823,
      "å¥½å¤ļ": 4824,
      "ilijk": 4825,
      "ikt": 4826,
      "ä¸»è¦ģ": 4827,
      "çŀ§": 4828,
      "å¾ĹäºĨ": 4829,
      "ĠHer": 4830,
      "æĬĬå®ĥ": 4831,
      "Ġspelen": 4832,
      "Ġexp": 4833,
      "æĪĳè¿Ļ": 4834,
      "ä¹Ķ": 4835,
      "ä¸ĢæĿ¡": 4836,
      "Ġluister": 4837,
      "äºĶåįģ": 4838,
      "åŁİå¸Ĥ": 4839,
      "Ġsecond": 4840,
      "æ°¸è¿ľ": 4841,
      "uc": 4842,
      "åı³": 4843,
      "Ġkaart": 4844,
      "ently": 4845,
      "ä¹Łæľī": 4846,
      "å¾Ĺå¾Ī": 4847,
      "ager": 4848,
      "Ġalmost": 4849,
      "çīĮ": 4850,
      "åĽŀçŃĶ": 4851,
      "æ¸Ĳ": 4852,
      "Ġarm": 4853,
      "Ġformule": 4854,
      "Nat": 4855,
      "Ġ16": 4856,
      "æ¬§": 4857,
      "Ġbas": 4858,
      "Ġteam": 4859,
      "æĽ²": 4860,
      "åĲĥçļĦ": 4861,
      "åĲĪä½ľ": 4862,
      "åİŁæĿ¥": 4863,
      "Ġprecies": 4864,
      "Ġgebruiken": 4865,
      "Ġgebeurt": 4866,
      "éĻ¤äºĨ": 4867,
      "Luister": 4868,
      "Ġvijf": 4869,
      "åĮĹäº¬": 4870,
      "æ²ī": 4871,
      "å¿Ĩ": 4872,
      "ä¸ĭäºĨ": 4873,
      "çĤ¹åĦ¿": 4874,
      "æĹ©å°±": 4875,
      "éº»çĥ¦": 4876,
      "èŀį": 4877,
      "çļĦäºĭåĦ¿": 4878,
      "Ġthahu": 4879,
      "åľ¨è¿Ļä¸ª": 4880,
      "å¸ħ": 4881,
      "Ġ11": 4882,
      "Ġprodu": 4883,
      "çĸ¼": 4884,
      "Sh": 4885,
      "alm": 4886,
      "Ġå§": 4887,
      "Ġmove": 4888,
      "èµ·äºĨ": 4889,
      "Ġwatch": 4890,
      "æĲľ": 4891,
      "Ġpiece": 4892,
      "anc": 4893,
      "Ġdire": 4894,
      "Ġschat": 4895,
      "è§£æŀĲ": 4896,
      "Ġpersoon": 4897,
      "Ġmoeilijk": 4898,
      "rekken": 4899,
      "Ġdead": 4900,
      "èĥ½ä¸įèĥ½": 4901,
      "Ġå¹¶": 4902,
      "eken": 4903,
      "å°Ħ": 4904,
      "æľīäºĨ": 4905,
      "å·¨": 4906,
      "antwoord": 4907,
      "ĠRo": 4908,
      "å¤ĸéĿ¢": 4909,
      "è§£åĨ³": 4910,
      "Ġgroep": 4911,
      "éº¦": 4912,
      "å±ŀäºİ": 4913,
      "Ġmorgen": 4914,
      "Ġvide": 4915,
      "ohn": 4916,
      "è·¯ä¸Ĭ": 4917,
      "æĶ¯æĮģ": 4918,
      "äº¡": 4919,
      "ared": 4920,
      "oto": 4921,
      "verd": 4922,
      "Ġresp": 4923,
      "illy": 4924,
      "åľ°ä¸Ĭ": 4925,
      "Ġblack": 4926,
      "åħ³äºİ": 4927,
      "ekent": 4928,
      "éŀĭ": 4929,
      "erv": 4930,
      "hem": 4931,
      "ä½łè¿Ļ": 4932,
      "Ġbeer": 4933,
      "æķ¬": 4934,
      "ection": 4935,
      "Ġquest": 4936,
      "Then": 4937,
      "sche": 4938,
      "åĲ¹": 4939,
      "å¥½ä¸įå¥½": 4940,
      "éĤ£è¾¹": 4941,
      "ĠDuit": 4942,
      "ump": 4943,
      "Ġwhole": 4944,
      "Ġkrijg": 4945,
      "iness": 4946,
      "urs": 4947,
      "æĥ¯": 4948,
      "ilig": 4949,
      "å·¦": 4950,
      "åİ»åĲ§": 4951,
      "éĢ¼": 4952,
      "è°·": 4953,
      "è¡ĮäºĨ": 4954,
      "æĿ¡ä»¶": 4955,
      "Ġagainst": 4956,
      "çļĦæĹ¶éĹ´": 4957,
      "Ġjong": 4958,
      "ä»ĸå°±": 4959,
      "è¿ĺåľ¨": 4960,
      "ester": 4961,
      "ä¸¤å¤©": 4962,
      "èĪį": 4963,
      "é¦ĸåħĪ": 4964,
      "çĵľ": 4965,
      "Ġij": 4966,
      "ä¼ģ": 4967,
      "è°ĵ": 4968,
      "ction": 4969,
      "æľĪäº®": 4970,
      "è®¸å¤ļ": 4971,
      "åĭĩ": 4972,
      "ennis": 4973,
      "Ġbrengen": 4974,
      "ony": 4975,
      "omin": 4976,
      "roe": 4977,
      "Ġtek": 4978,
      "èĩ£": 4979,
      "ully": 4980,
      "åĪĨéĴŁ": 4981,
      "æĢ»æĺ¯": 4982,
      "éĺŁéķ¿": 4983,
      "Ġparty": 4984,
      "è·ŁæĪĳè¯´": 4985,
      "å¸Ĥåľº": 4986,
      "ront": 4987,
      "åĮ»çĶŁ": 4988,
      "é¥¿": 4989,
      "Ġ:": 4990,
      "çļĦå°±æĺ¯": 4991,
      "Ġthir": 4992,
      "ĠMad": 4993,
      "aint": 4994,
      "Ġaff": 4995,
      "euw": 4996,
      "éĿ¢åīį": 4997,
      "Ġgrot": 4998,
      "èĻļ": 4999,
      "Ġminder": 5000,
      "sn": 5001,
      "Ġfall": 5002,
      "Ġready": 5003,
      "Ġplek": 5004,
      "æĶ»": 5005,
      "Ġgetting": 5006,
      "osten": 5007,
      "å°ĨåĨĽ": 5008,
      "Ġglad": 5009,
      "Ġä¸ĭ": 5010,
      "erg": 5011,
      "Ġtijdens": 5012,
      "ĠDestournier": 5013,
      "ä¾ĭ": 5014,
      "æĢĢçĸĳ": 5015,
      "Ġtable": 5016,
      "Ġmark": 5017,
      "Ġsw": 5018,
      "å¾Ĳ": 5019,
      "Ġwasn": 5020,
      "èĳ£": 5021,
      "çĬ¶æĢģ": 5022,
      "owers": 5023,
      "ĠAB": 5024,
      "Ġbetekent": 5025,
      "è¡¨çİ°": 5026,
      "ided": 5027,
      "å¤§äºº": 5028,
      "åĨł": 5029,
      "åĲĦä½į": 5030,
      "è®¡åĪĴ": 5031,
      "èı²": 5032,
      "oemd": 5033,
      "Ġtou": 5034,
      "Ġble": 5035,
      "æĪĳçİ°åľ¨": 5036,
      "olf": 5037,
      "ä»İæĿ¥": 5038,
      "Ġpolit": 5039,
      "ä½łåľ¨": 5040,
      "è¯´ä»Ģä¹Ī": 5041,
      "Ġmens": 5042,
      "Ġåģļ": 5043,
      "ä¹Į": 5044,
      "å¾ģ": 5045,
      "Ġsuper": 5046,
      "è§£éĩĬ": 5047,
      "rouwen": 5048,
      "Stop": 5049,
      "Ġmarried": 5050,
      "æĪĳåİ»": 5051,
      "æĿ¥çľĭ": 5052,
      "æ´²": 5053,
      "çĥĪ": 5054,
      "Ġbestaat": 5055,
      "raagd": 5056,
      "by": 5057,
      "ç»ıè¿ĩ": 5058,
      "éŁ³ä¹Ĳ": 5059,
      "airs": 5060,
      "Vol": 5061,
      "zer": 5062,
      "Ġkracht": 5063,
      "ĠTro": 5064,
      "ç¾İä¸½": 5065,
      "çĵ¶": 5066,
      "åĩĢ": 5067,
      "ĠJezus": 5068,
      "æ¯ķç«Ł": 5069,
      "Toen": 5070,
      "Ġsitu": 5071,
      "Ġleng": 5072,
      "çĶŁåĳ½": 5073,
      "Ġhair": 5074,
      "ä½ľçĶ¨": 5075,
      "Ġexamen": 5076,
      "èĢĥèĻĳ": 5077,
      "Zijn": 5078,
      "å°±åĥı": 5079,
      "Ġya": 5080,
      "åİħ": 5081,
      "ĠDan": 5082,
      "ĠWhen": 5083,
      "Ġlekker": 5084,
      "åħ¨éĥ¨": 5085,
      "åıĺåĮĸ": 5086,
      "æ±½è½¦": 5087,
      "hel": 5088,
      "Ġlik": 5089,
      "Ġfact": 5090,
      "Ġfelt": 5091,
      "iezen": 5092,
      "Ġopg": 5093,
      "ĠThat": 5094,
      "å¯¹äºİ": 5095,
      "Ġå¹²": 5096,
      "æ¸¸æĪı": 5097,
      "Ġhappened": 5098,
      "Ġval": 5099,
      "ä¸Ĭæµ·": 5100,
      "éļĲ": 5101,
      "èĦ±": 5102,
      "ç¥ĸ": 5103,
      "Ġä¸Ģå®ļ": 5104,
      "Ġeigenlijk": 5105,
      "com": 5106,
      "æĪĳçľĭ": 5107,
      "oul": 5108,
      "Ġvrienden": 5109,
      "ä¸įå¤ª": 5110,
      "omet": 5111,
      "ĠæĪĳè¿Ļ": 5112,
      "å¥½åķĬ": 5113,
      "veer": 5114,
      "Ġä½łè¿Ļ": 5115,
      "æīĵçĶµè¯Ŀ": 5116,
      "Ġbegin": 5117,
      "æĴĴ": 5118,
      "Ġwrong": 5119,
      "neta": 5120,
      "æ¬º": 5121,
      "å®īæİĴ": 5122,
      "çĸ«": 5123,
      "Ġechte": 5124,
      "Erm": 5125,
      "åľ¨è¿ĻéĩĮ": 5126,
      "ĠäºĮ": 5127,
      "ĠMain": 5128,
      "ellow": 5129,
      "ĠOok": 5130,
      "çĸĹ": 5131,
      "Neem": 5132,
      "çħ§é¡¾": 5133,
      "Ġeeuw": 5134,
      "Ġpijn": 5135,
      "åľĨ": 5136,
      "å¥ĸ": 5137,
      "Ġander": 5138,
      "ape": 5139,
      "é¢Ĺ": 5140,
      "çıł": 5141,
      "Ġvrouwen": 5142,
      "Ã¶r": 5143,
      "Ġoppervlakte": 5144,
      "lish": 5145,
      "Ġduring": 5146,
      "Ġnorm": 5147,
      "è§ģåĪ°": 5148,
      "Denk": 5149,
      "ering": 5150,
      "Ġvak": 5151,
      "Ġpas": 5152,
      "æĬ½": 5153,
      "è¿Ļä¸ªäºº": 5154,
      "Ġconf": 5155,
      "å¨ĥ": 5156,
      "Kan": 5157,
      "Ġsit": 5158,
      "ĠæĪĳè¿ĺ": 5159,
      "å¼±": 5160,
      "ĠBr": 5161,
      "æĭ¥": 5162,
      "åĤ»": 5163,
      "Ġrelig": 5164,
      "Kl": 5165,
      "dra": 5166,
      "Ġty": 5167,
      "ready": 5168,
      "Ġtoday": 5169,
      "èĥĨ": 5170,
      "Ġ202": 5171,
      "houd": 5172,
      "ities": 5173,
      "Ġgeef": 5174,
      "å¥½çľĭ": 5175,
      "è´¦": 5176,
      "åºĵ": 5177,
      "Who": 5178,
      "Ġsett": 5179,
      "ä½łè¿ĺ": 5180,
      "äºĨä»ĸ": 5181,
      "å®ģ": 5182,
      "Ġcou": 5183,
      "å¥¥": 5184,
      "å¯¹æĪĳ": 5185,
      "è¿ĽæĿ¥": 5186,
      "æ··": 5187,
      "è¡¨ç¤º": 5188,
      "ä¸¤ä¸ªäºº": 5189,
      "rat": 5190,
      "ä½³": 5191,
      "ä¸įè§ģ": 5192,
      "Ġmeans": 5193,
      "å¤§åŃ¦": 5194,
      "éĻĲ": 5195,
      "æ£Ĵ": 5196,
      "Ġceremony": 5197,
      "Ġtill": 5198,
      "Ġvond": 5199,
      "æī¬": 5200,
      "å°ıçļĦ": 5201,
      "å¯¹åķĬ": 5202,
      "çĶŁçļĦ": 5203,
      "ĠJan": 5204,
      "éĽĦ": 5205,
      "Ġelder": 5206,
      "è®¾è®¡": 5207,
      "Ġim": 5208,
      "å°±åı¯ä»¥": 5209,
      "ics": 5210,
      "æĤĦ": 5211,
      "åĽĽåįģ": 5212,
      "oer": 5213,
      "sk": 5214,
      "Ġä½łæĥ³": 5215,
      "ement": 5216,
      "éĥİ": 5217,
      "ä¹Łä¸įçŁ¥éģĵ": 5218,
      "å®³æĢķ": 5219,
      "Tot": 5220,
      "Ġä»Ĭ": 5221,
      "éģĹ": 5222,
      "Ġleav": 5223,
      "schapp": 5224,
      "éĶ®": 5225,
      "éŃı": 5226,
      "10": 5227,
      "Ġtien": 5228,
      "Ġsun": 5229,
      "ieved": 5230,
      "é»ĺ": 5231,
      "çªĹ": 5232,
      "wijl": 5233,
      "Ġgiven": 5234,
      "ging": 5235,
      "Ġalong": 5236,
      "Ġgod": 5237,
      "ç®Ĺæĺ¯": 5238,
      "å¥ĩæĢª": 5239,
      "éĩįè¦ģçļĦ": 5240,
      "ĠPaulina": 5241,
      "heden": 5242,
      "Ġdruk": 5243,
      "æľīçļĦ": 5244,
      "è·ŁçĿĢ": 5245,
      "é¼ĵ": 5246,
      "Ã¶rdin": 5247,
      "Ġboek": 5248,
      "Ġfine": 5249,
      "sten": 5250,
      "éģĵçĲĨ": 5251,
      "èº²": 5252,
      "Ġåįģ": 5253,
      "Ġmonth": 5254,
      "XX": 5255,
      "Ġding": 5256,
      "ĠDo": 5257,
      "fta": 5258,
      "Ġmeter": 5259,
      "cks": 5260,
      "avid": 5261,
      "Ġontst": 5262,
      "Ġimport": 5263,
      "Ġä»¥": 5264,
      "Ġcos": 5265,
      "Ġlanden": 5266,
      "dem": 5267,
      "éĹŃ": 5268,
      "çĪĨ": 5269,
      "Ġdress": 5270,
      "çłģ": 5271,
      "del": 5272,
      "Ġhappy": 5273,
      "ada": 5274,
      "å¥½åĲĹ": 5275,
      "å®ŀéĻħ": 5276,
      "æ¯įäº²": 5277,
      "Ġvoice": 5278,
      "ĠèĻ½çĦ¶": 5279,
      "Ġpot": 5280,
      "Ġriver": 5281,
      "åģı": 5282,
      "ĠWik": 5283,
      "æĻĵ": 5284,
      "Ġgevraagd": 5285,
      "åĲĦç§į": 5286,
      "ning": 5287,
      "ĠåĲ¬": 5288,
      "åĲī": 5289,
      "Ġthrow": 5290,
      "ĠéĤ£å°±": 5291,
      "éĤ£ä¹Īå¤ļ": 5292,
      "Zie": 5293,
      "Ġå¾Ī": 5294,
      "Ġtom": 5295,
      "Ġsat": 5296,
      "å¦¹å¦¹": 5297,
      "Ġverwacht": 5298,
      "Just": 5299,
      "reden": 5300,
      "å°±èĥ½": 5301,
      "Ġstory": 5302,
      "å®ŀè¯Ŀ": 5303,
      "æĮĳæĪĺ": 5304,
      "ham": 5305,
      "wa": 5306,
      "Ġwhe": 5307,
      "ä½łåķĬ": 5308,
      "ä¸įä¸Ģæł·": 5309,
      "è¿Ļè¾¹": 5310,
      "å°±åľ¨": 5311,
      "ĠåĬ": 5312,
      "çĶľ": 5313,
      "line": 5314,
      "zy": 5315,
      "Ġéĥ½æĺ¯": 5316,
      "Ġcity": 5317,
      "reg": 5318,
      "ĠPro": 5319,
      "éĺ¶": 5320,
      "ĠIndian": 5321,
      "åŃĺåľ¨": 5322,
      "è´£ä»»": 5323,
      "ĠAmerican": 5324,
      "Go": 5325,
      "èķ": 5326,
      "Ġsing": 5327,
      "Ġsent": 5328,
      "ä¸įåľ¨": 5329,
      "ä¸įæķ¢": 5330,
      "æĹ§": 5331,
      "Ġmeat": 5332,
      "ä»Ģä¹ĪåĳĢ": 5333,
      "çĽĬ": 5334,
      "tern": 5335,
      "ĠOm": 5336,
      "werp": 5337,
      "åįĥä¸ĩ": 5338,
      "Natuurlijk": 5339,
      "Ah": 5340,
      "ijnen": 5341,
      "çģ¯": 5342,
      "Ġfeet": 5343,
      "çļĦåĲĹ": 5344,
      "ä¸ĢçĻ¾": 5345,
      "ieken": 5346,
      "Ġshop": 5347,
      "plaat": 5348,
      "Ġ30": 5349,
      "Ġgevonden": 5350,
      "åİĨåı²": 5351,
      "ç¯®": 5352,
      "Ġsince": 5353,
      "cess": 5354,
      "ico": 5355,
      "Ġhafta": 5356,
      "å¤ªéĺ³": 5357,
      "Ġafstand": 5358,
      "ç³Ĭ": 5359,
      "Ã«n": 5360,
      "Ġamong": 5361,
      "Ġgehad": 5362,
      "ined": 5363,
      "Ġhat": 5364,
      "Ġpict": 5365,
      "å®ĩ": 5366,
      "Ġlearn": 5367,
      "æīĵç®Ĺ": 5368,
      "wards": 5369,
      "Ġåĩº": 5370,
      "Mag": 5371,
      "con": 5372,
      "ĠåĲİæĿ¥": 5373,
      "Ġmacht": 5374,
      "Ġzat": 5375,
      "Ġpick": 5376,
      "Ġkru": 5377,
      "ural": 5378,
      "Ġriv": 5379,
      "åĨĴ": 5380,
      "åĵĪåĵĪåĵĪ": 5381,
      "rum": 5382,
      "Ġä½łä¸į": 5383,
      "Ġteken": 5384,
      "çĻ¾å§ĵ": 5385,
      "æĢĿèĢĥ": 5386,
      "Ġmilj": 5387,
      "Ġinformatie": 5388,
      "ude": 5389,
      "ĠHis": 5390,
      "Ġans": 5391,
      "Ġgeloven": 5392,
      "å¤ĦçĲĨ": 5393,
      "Ġsometimes": 5394,
      "did": 5395,
      "Ġzet": 5396,
      "ury": 5397,
      "ĠAt": 5398,
      "å®¶åºŃ": 5399,
      "ĠSchrijf": 5400,
      "fe": 5401,
      "å°¤": 5402,
      "ä¸Ģå®¶": 5403,
      "äººç±»": 5404,
      "ram": 5405,
      "åįł": 5406,
      "åĩºæĿ¥äºĨ": 5407,
      "gev": 5408,
      "Ġuitleg": 5409,
      "ä¸»ä»»": 5410,
      "æ¤įçī©": 5411,
      "ize": 5412,
      "Ġsound": 5413,
      "æĪĳæĿ¥": 5414,
      "Ġleeft": 5415,
      "Ġfight": 5416,
      "Ġthank": 5417,
      "rown": 5418,
      "Ġä½łè¿ĺ": 5419,
      "åĩı": 5420,
      "éĩĮè¾¹": 5421,
      "çĶŁæĦı": 5422,
      "çĻ»": 5423,
      "anger": 5424,
      "Ġchange": 5425,
      "Ġ196": 5426,
      "Ġ197": 5427,
      "å¸®ä½ł": 5428,
      "è¯ģæį®": 5429,
      "é²ľ": 5430,
      "gg": 5431,
      "sy": 5432,
      "æĺ¯åĽłä¸º": 5433,
      "å¯¹ä¸įèµ·": 5434,
      "è¾ŀ": 5435,
      "ç§ĳæĬĢ": 5436,
      "æ®µæĹ¶éĹ´": 5437,
      "éĺ¿å§¨": 5438,
      "æĹ¥æľ¬äºº": 5439,
      "ĠAgneta": 5440,
      "gan": 5441,
      "Ġä½łçŁ¥éģĵ": 5442,
      "éģ¿": 5443,
      "åĲĥäºĨ": 5444,
      "ç¡¬": 5445,
      "éªĤ": 5446,
      "è±ª": 5447,
      "Ġfloor": 5448,
      "Ġverkl": 5449,
      "aughter": 5450,
      "Ġwrit": 5451,
      "çļĦåĳĢ": 5452,
      "Ġsen": 5453,
      "Ġbesl": 5454,
      "eth": 5455,
      "ari": 5456,
      "arr": 5457,
      "çķ¥": 5458,
      "Ġå½ĵçĦ¶": 5459,
      "50": 5460,
      "ouse": 5461,
      "ä¸ĢèĪ¬": 5462,
      "ital": 5463,
      "lex": 5464,
      "ä¼°": 5465,
      "çĭĤ": 5466,
      "Ġklas": 5467,
      "æĺ¯æľī": 5468,
      "aybe": 5469,
      "ĠEl": 5470,
      "Ġdenkt": 5471,
      "cri": 5472,
      "çĽĸ": 5473,
      "æĮĤ": 5474,
      "åħ¬ä¸»": 5475,
      "Ġpost": 5476,
      "idge": 5477,
      "ijdt": 5478,
      "ĠZo": 5479,
      "åŁºæľ¬": 5480,
      "Ġgrootste": 5481,
      "Ġvergeten": 5482,
      "ĠæĹł": 5483,
      "Ġsweet": 5484,
      "ä¸Ģä½į": 5485,
      "Ġfav": 5486,
      "Ġkap": 5487,
      "ä¼ļæľī": 5488,
      "çĽ®åīį": 5489,
      "ç¼ĺ": 5490,
      "æĵį": 5491,
      "Ġhoogte": 5492,
      "Ġbirth": 5493,
      "EL": 5494,
      "Ġoef": 5495,
      "Ġmouth": 5496,
      "ä¸Ĭåİ»": 5497,
      "ello": 5498,
      "ruit": 5499,
      "çĭ¸": 5500,
      "æĿĲæĸĻ": 5501,
      "Ġvij": 5502,
      "Ġneer": 5503,
      "Ġå±": 5504,
      "roep": 5505,
      "èĩªçĶ±": 5506,
      "schijn": 5507,
      "Ġhimself": 5508,
      "Ġwords": 5509,
      "Ġè¦ģä¸į": 5510,
      "Was": 5511,
      "zij": 5512,
      "Ġmine": 5513,
      "Ġgere": 5514,
      "æĪĳæľī": 5515,
      "Ġhoort": 5516,
      "è§¦": 5517,
      "æľįåĬ¡": 5518,
      "Ġouders": 5519,
      "AP": 5520,
      "fort": 5521,
      "Ġdou": 5522,
      "ä¸Ģçľĭ": 5523,
      "ĠæĪĳåľ¨": 5524,
      "ract": 5525,
      "åİ¿": 5526,
      "è·Ŀ": 5527,
      "ĠWil": 5528,
      "II": 5529,
      "got": 5530,
      "uin": 5531,
      "xim": 5532,
      "Ġlost": 5533,
      "Ġstate": 5534,
      "iers": 5535,
      "æŀĿ": 5536,
      "ç»ĵæĿŁ": 5537,
      "æ»ļ": 5538,
      "Ġcircum": 5539,
      "Ex": 5540,
      "ä¸įçĿĢ": 5541,
      "ieu": 5542,
      "ç»ľ": 5543,
      "owed": 5544,
      "ĠSo": 5545,
      "çŁ¿": 5546,
      "æİĪ": 5547,
      "æĢİä¹ĪäºĨ": 5548,
      "è½®": 5549,
      "ichaam": 5550,
      "ç£¨": 5551,
      "Are": 5552,
      "punt": 5553,
      "Ġhang": 5554,
      "éĤ£éĩĮ": 5555,
      "Ġstep": 5556,
      "Ġåĵª": 5557,
      "Ġwachten": 5558,
      "18": 5559,
      "Over": 5560,
      "iaal": 5561,
      "moet": 5562,
      "ĠåıįæŃ£": 5563,
      "è¯ļ": 5564,
      "Ġ14": 5565,
      "è´§": 5566,
      "å¼ĢäºĨ": 5567,
      "éĶĻäºĨ": 5568,
      "Ġgeval": 5569,
      "ä»£è¡¨": 5570,
      "åĮħæĭ¬": 5571,
      "God": 5572,
      "bank": 5573,
      "aties": 5574,
      "ä¸ĢæŃ¥": 5575,
      "æ²Ī": 5576,
      "Ġring": 5577,
      "åºĦ": 5578,
      "éĿ¢å¯¹": 5579,
      "Ġsoc": 5580,
      "Ġbrief": 5581,
      "æİ¥ä¸ĭæĿ¥": 5582,
      "çļĩä¸Ĭ": 5583,
      "èľľ": 5584,
      "¹æŀľ": 5585,
      "Ġåı¯èĥ½": 5586,
      "Ġwarm": 5587,
      "çļĦåķĬ": 5588,
      "çĶ·åŃ©": 5589,
      "èİ«": 5590,
      "ket": 5591,
      "inken": 5592,
      "Ġbes": 5593,
      "arry": 5594,
      "è¯´æĺ¯": 5595,
      "éĤ£ä½ł": 5596,
      "ç«ł": 5597,
      "åħ³éĶ®": 5598,
      "ä½įç½®": 5599,
      "ĠåİŁ": 5600,
      "Nog": 5601,
      "Ã¡": 5602,
      "Ġwoon": 5603,
      "Ġmot": 5604,
      "iful": 5605,
      "Ġå¤ļ": 5606,
      "Ġband": 5607,
      "Ġhond": 5608,
      "ä¸įåı¯": 5609,
      "Ġzom": 5610,
      "Ġfield": 5611,
      "çĽĽ": 5612,
      "rijs": 5613,
      "èĤļ": 5614,
      "èº«ä»½": 5615,
      "Ġgotta": 5616,
      "ç¬¬ä¸Ģæ¬¡": 5617,
      "Get": 5618,
      "niet": 5619,
      "Ġbag": 5620,
      "ä½łåĪ«": 5621,
      "ises": 5622,
      "ĠTo": 5623,
      "Ġalsof": 5624,
      "ience": 5625,
      "èĭ¹æŀľ": 5626,
      "To": 5627,
      "kl": 5628,
      "wo": 5629,
      "Ġç»Ļ": 5630,
      "Ġeinde": 5631,
      "æľīå¤ļ": 5632,
      "ç»į": 5633,
      "Ġä½łçİ°åľ¨": 5634,
      "æŃ£å¸¸": 5635,
      "Ġbelong": 5636,
      "lagen": 5637,
      "Ġvoet": 5638,
      "Look": 5639,
      "Ġ#": 5640,
      "ä¸įçŁ¥": 5641,
      "æī°": 5642,
      "slag": 5643,
      "åĿļæĮģ": 5644,
      "ĠåºĶ": 5645,
      "ĠPatty": 5646,
      "dag": 5647,
      "Ġä¸ºäºĨ": 5648,
      "Ġbereken": 5649,
      "ĠAm": 5650,
      "æŃī": 5651,
      "Ġdoden": 5652,
      "ĠCom": 5653,
      "Ġjezelf": 5654,
      "raid": 5655,
      "åĩ¶": 5656,
      "åĴĮä½ł": 5657,
      "Ġconst": 5658,
      "Ġå·²": 5659,
      "nel": 5660,
      "ĠæĪĳçľĭ": 5661,
      "åĩī": 5662,
      "å¯¹åĲ§": 5663,
      "ç§»": 5664,
      "ĠPan": 5665,
      "æģ¨": 5666,
      "çıį": 5667,
      "zien": 5668,
      "Ġvre": 5669,
      "orden": 5670,
      "ention": 5671,
      "oep": 5672,
      "Ġhanden": 5673,
      "éª¨": 5674,
      "Ġplaying": 5675,
      "Ġfeest": 5676,
      "Sp": 5677,
      "houden": 5678,
      "Ġtakes": 5679,
      "Ġinside": 5680,
      "Ġeruit": 5681,
      "thank": 5682,
      "åĩºçļĦ": 5683,
      "ĠGeef": 5684,
      "æīįæĺ¯": 5685,
      "Ġcompl": 5686,
      "èģĶç³»": 5687,
      "Ġtest": 5688,
      "rew": 5689,
      "åºĶè¯¥æĺ¯": 5690,
      "Ġvlak": 5691,
      "Ġlaug": 5692,
      "sje": 5693,
      "ĠçľŁ": 5694,
      "Ġoh": 5695,
      "å¥Ķ": 5696,
      "ains": 5697,
      "Ġbecome": 5698,
      "æľīä¸Ģå¤©": 5699,
      "Ġbott": 5700,
      "ially": 5701,
      "ene": 5702,
      "æľ«": 5703,
      "Ġpakken": 5704,
      "æīĢè°ĵ": 5705,
      "because": 5706,
      "èĥŀ": 5707,
      "Ġprot": 5708,
      "Ġquick": 5709,
      "Ġlangs": 5710,
      "çĭĲçĭ¸": 5711,
      "akker": 5712,
      "åĩŃ": 5713,
      "ĠAd": 5714,
      "Ġgoat": 5715,
      "ç§¦": 5716,
      "rip": 5717,
      "èĢģé¼ł": 5718,
      "è¡Įä¸º": 5719,
      "æĬ¥åĳĬ": 5720,
      "Ġå¯¹ä¸įèµ·": 5721,
      "Ġuh": 5722,
      "ĠRe": 5723,
      "éĽħ": 5724,
      "åħĪèµ°äºĨ": 5725,
      "Ġbegan": 5726,
      "æķĻèĤ²": 5727,
      "æ¯Ķå¦Ĥè¯´": 5728,
      "ĠAfric": 5729,
      "è¾Ľèĭ¦": 5730,
      "Ġges": 5731,
      "Ġpa": 5732,
      "Ġcold": 5733,
      "uth": 5734,
      "éĥ½è¦ģ": 5735,
      "rying": 5736,
      "ogel": 5737,
      "Ġgreen": 5738,
      "ublic": 5739,
      "ç§ĺå¯Ĩ": 5740,
      "ä¼ģä¸ļ": 5741,
      "è¿°": 5742,
      "Ġvallen": 5743,
      "Ġleren": 5744,
      "ica": 5745,
      "çŃīçŃī": 5746,
      "æĶ¿æ²»": 5747,
      "ç§ĳåŃ¦": 5748,
      "ç«ŁçĦ¶": 5749,
      "Ġrijk": 5750,
      "Ġorder": 5751,
      "æĶ¾åľ¨": 5752,
      "ç£ģ": 5753,
      "çĮ´åŃĲ": 5754,
      "ris": 5755,
      "Ġsold": 5756,
      "Ġpull": 5757,
      "çīĻ": 5758,
      "Ġbelieved": 5759,
      "Ġgevangen": 5760,
      "ĠThen": 5761,
      "æĲ¬": 5762,
      "é¹¿": 5763,
      "æĮīçħ§": 5764,
      "ĠæĽ´": 5765,
      "åī©": 5766,
      "Ġä¸įç®¡": 5767,
      "æ°´æŀľ": 5768,
      "ĠItal": 5769,
      "åĩºæĿ¥çļĦ": 5770,
      "hoog": 5771,
      "zaam": 5772,
      "æĪĳäºĨ": 5773,
      "ä½łèĩªå·±": 5774,
      "Ġpak": 5775,
      "å¯Ĵ": 5776,
      "Ġdochter": 5777,
      "çİ°åľº": 5778,
      "ç¬¦": 5779,
      "Ġoutside": 5780,
      "æ¡¥": 5781,
      "æı¡": 5782,
      "ewijs": 5783,
      "Vert": 5784,
      "ga": 5785,
      "ieur": 5786,
      "Ġtem": 5787,
      "Ġmaxim": 5788,
      "As": 5789,
      "Ġeight": 5790,
      "rab": 5791,
      "è®¿": 5792,
      "Ġalready": 5793,
      "èµ°åĲ§": 5794,
      "æ¼«": 5795,
      "ç¼ĸ": 5796,
      "Ġgekomen": 5797,
      "åĿĹéĴ±": 5798,
      "Ġfree": 5799,
      "åľ£": 5800,
      "æĹ¦": 5801,
      "æĮ£": 5802,
      "ç»ıåİĨ": 5803,
      "çĪ±æĥħ": 5804,
      "æ¶¨": 5805,
      "Ġsever": 5806,
      "Ġtrans": 5807,
      "Meneer": 5808,
      "Pro": 5809,
      "äº¿": 5810,
      "ĠhÃ¨": 5811,
      "Ġeither": 5812,
      "Ġinc": 5813,
      "åŃ¤": 5814,
      "rag": 5815,
      "è¿ĺèĥ½": 5816,
      "arling": 5817,
      "Ġminute": 5818,
      "ä¸°": 5819,
      "Ġbaan": 5820,
      "Ġfull": 5821,
      "Ġblue": 5822,
      "åĲĪéĢĤ": 5823,
      "Ġbeginnen": 5824,
      "å¹³æĹ¶": 5825,
      "werk": 5826,
      "ĠMrs": 5827,
      "Ġanswer": 5828,
      "Te": 5829,
      "Ġage": 5830,
      "Ġaarde": 5831,
      "recht": 5832,
      "ĠDie": 5833,
      "ante": 5834,
      "Ġsnake": 5835,
      "Ġåĵ¦": 5836,
      "Ġlengte": 5837,
      "Af": 5838,
      "hand": 5839,
      "huis": 5840,
      "anen": 5841,
      "ĠTe": 5842,
      "irt": 5843,
      "æĥ³æ³ķ": 5844,
      "ĠUnited": 5845,
      "³å¦ĩ": 5846,
      "Ġfort": 5847,
      "çĮľ": 5848,
      "reng": 5849,
      "çļĦä¸ĢäºĽ": 5850,
      "æĬķèµĦ": 5851,
      "waring": 5852,
      "Ġdef": 5853,
      "Ġones": 5854,
      "å¿ĥçļĦ": 5855,
      "è½¯": 5856,
      "æ±¤": 5857,
      "èĤ¥": 5858,
      "Ġslapen": 5859,
      "Thank": 5860,
      "Omdat": 5861,
      "midd": 5862,
      "rell": 5863,
      "Ġtaking": 5864,
      "Ġwit": 5865,
      "æĪĳä¸Ģ": 5866,
      "Ġhon": 5867,
      "ĠWaar": 5868,
      "åıĺå¾Ĺ": 5869,
      "åıĹåĪ°": 5870,
      "ĠokÃ©": 5871,
      "bt": 5872,
      "ĠæĪĸèĢħ": 5873,
      "ä½łæĥ³": 5874,
      "Ġlate": 5875,
      "å¥´": 5876,
      "Ġwouldn": 5877,
      "Ġ194": 5878,
      "Ġliefde": 5879,
      "kner": 5880,
      "ana": 5881,
      "äºı": 5882,
      "ray": 5883,
      "ĠBl": 5884,
      "èĢģèĻİ": 5885,
      "éĩįæĸ°": 5886,
      "å²Ľ": 5887,
      "aulkner": 5888,
      "Ġhell": 5889,
      "Ġlay": 5890,
      "Ġongel": 5891,
      "å¸Ń": 5892,
      "Ġè¿Ļç§į": 5893,
      "åĽ½çļĦ": 5894,
      "çº³": 5895,
      "åħ¶ä¸Ń": 5896,
      "Ġwerkt": 5897,
      "ĠFrank": 5898,
      "é¢Ĩå¯¼": 5899,
      "Can": 5900,
      "ians": 5901,
      "just": 5902,
      "Ġzult": 5903,
      "Ġloc": 5904,
      "æ²¡æĥ³åĪ°": 5905,
      "ĠCott": 5906,
      "Ġleast": 5907,
      "Ġear": 5908,
      "åĬĿ": 5909,
      "Ġmogen": 5910,
      "å®ŀçİ°": 5911,
      "ĠFaulkner": 5912,
      "Ġraak": 5913,
      "æ°ĳæĹı": 5914,
      "åİĭåĬĽ": 5915,
      "æİ§åĪ¶": 5916,
      "Ġwanneer": 5917,
      "ä¸įå¤ļ": 5918,
      "Ġzes": 5919,
      "Ġvanavond": 5920,
      "ĠMet": 5921,
      "Ġproberen": 5922,
      "å«Į": 5923,
      "ĠEurope": 5924,
      "Ġvideo": 5925,
      "kig": 5926,
      "æĨ": 5927,
      "Ġsong": 5928,
      "æĺ¯åĲĹ": 5929,
      "Ġziek": 5930,
      "Ġfront": 5931,
      "ç»©": 5932,
      "Ġstond": 5933,
      "èµı": 5934,
      "Ġrij": 5935,
      "used": 5936,
      "ĠPl": 5937,
      "æ³ª": 5938,
      "Ġbeneden": 5939,
      "abel": 5940,
      "ardon": 5941,
      "iously": 5942,
      "åıĶåıĶ": 5943,
      "!'": 5944,
      "ragen": 5945,
      "eeuw": 5946,
      "å¦®": 5947,
      "ĠPer": 5948,
      "ĠFor": 5949,
      "Ġwants": 5950,
      "ĠåĵİåĳĢ": 5951,
      "ship": 5952,
      "çļĦå¿ĥ": 5953,
      "ä¸įæĩĤ": 5954,
      "èµļ": 5955,
      "ä¹Łä¸įæĺ¯": 5956,
      "imed": 5957,
      "ä»Ģä¹Īåĳ¢": 5958,
      "æĸ¹æ³ķ": 5959,
      "Ġabs": 5960,
      "Ġgedacht": 5961,
      "Zij": 5962,
      "Ġhar": 5963,
      "ä»ĸè¯´": 5964,
      "ä¼¦": 5965,
      "éĶĢ": 5966,
      "é¸Ń": 5967,
      "Ġnative": 5968,
      "ä¸¥éĩį": 5969,
      "Ġsacrifice": 5970,
      "Pap": 5971,
      "Ġtweede": 5972,
      "Ġgrou": 5973,
      "ä¸Ģåľº": 5974,
      "å¥ĭ": 5975,
      "ĠEnglish": 5976,
      "Ġçİĭ": 5977,
      "ĠæĢ»": 5978,
      "ç»ª": 5979,
      "èģļ": 5980,
      "ç¬¬ä¸ī": 5981,
      "Ġpray": 5982,
      "Ġturned": 5983,
      "Ġtrue": 5984,
      "åį±éĻ©": 5985,
      "rik": 5986,
      "çļĦå¥½": 5987,
      "çļĦæķħäºĭ": 5988,
      "Ġgame": 5989,
      "æĺĨ": 5990,
      "Ġcup": 5991,
      "åįı": 5992,
      "iken": 5993,
      "çĸ¯": 5994,
      "èĪĴæľį": 5995,
      "Ġongeveer": 5996,
      "Bij": 5997,
      "kele": 5998,
      "isk": 5999,
      "Ġsta": 6000,
      "çŁ¥éģĵäºĨ": 6001,
      "Ġwild": 6002,
      "æŁı": 6003,
      "Ġdraw": 6004,
      "å³°": 6005,
      "Ġåīį": 6006,
      "Ġvergelijking": 6007,
      "ĠCottrell": 6008,
      "haps": 6009,
      "Ġdroom": 6010,
      "çļĦéĹ®é¢ĺ": 6011,
      "Ġaren": 6012,
      "Ġgas": 6013,
      "Ġvent": 6014,
      "ä½łåİ»": 6015,
      "å¯¹ä½ł": 6016,
      "Ġ100": 6017,
      "Ġzoveel": 6018,
      "æĦıä¹ī": 6019,
      "æ¸¯": 6020,
      "æ´»åĬ¨": 6021,
      "Ġbecame": 6022,
      "æĵ¦": 6023,
      "Ġavond": 6024,
      "Ġkreeg": 6025,
      "eur": 6026,
      "zak": 6027,
      "Ġvalt": 6028,
      "Ġpoor": 6029,
      "Ġkr": 6030,
      "ism": 6031,
      "Ġrep": 6032,
      "ĠKing": 6033,
      "æĦŁåĪ°": 6034,
      "ç«Ļåľ¨": 6035,
      "æ¢¦æĥ³": 6036,
      "èĴĭ": 6037,
      "Ġbuild": 6038,
      "fully": 6039,
      "Ġdeur": 6040,
      "Ġpen": 6041,
      "vert": 6042,
      "å¯¹æĸ¹": 6043,
      "æĪĳä»¬å°±": 6044,
      "æĽ´åĬł": 6045,
      "çħ§çīĩ": 6046,
      "foon": 6047,
      "Ġdiv": 6048,
      "Ġwood": 6049,
      "Ġsqu": 6050,
      "åĲ«": 6051,
      "ä¸įä¸Ĭ": 6052,
      "åį·": 6053,
      "vers": 6054,
      "Ġverst": 6055,
      "Ġ13": 6056,
      "æ±ł": 6057,
      "Mummy": 6058,
      "ä¸Ģä»¶": 6059,
      "Ġsucc": 6060,
      "æ¶²": 6061,
      "ç¨į": 6062,
      "é£ŀæ¢¦": 6063,
      "uidelijk": 6064,
      "Ġå¿ĥ": 6065,
      "ublieft": 6066,
      "Ġå·²ç»ı": 6067,
      "Ġbody": 6068,
      "æĪĳä¼ļ": 6069,
      "orst": 6070,
      "ä¸įåı¯èĥ½": 6071,
      "Ġker": 6072,
      "åįģåĪĨ": 6073,
      "Ġorgan": 6074,
      "åĪĨæŀĲ": 6075,
      "ĠChi": 6076,
      "Ġå¼Ģ": 6077,
      "CDS": 6078,
      "Ġä»¥åĲİ": 6079,
      "Ġbouw": 6080,
      "Ġgun": 6081,
      "Ġeng": 6082,
      "åİĤ": 6083,
      "Ġalone": 6084,
      "aalde": 6085,
      "çĶ¨çļĦ": 6086,
      "Ġafraid": 6087,
      "éĶģ": 6088,
      "berg": 6089,
      "ç¡Ģ": 6090,
      "æĮºå¥½çļĦ": 6091,
      "åķĨéĩı": 6092,
      "Ġtrees": 6093,
      "Ge": 6094,
      "Good": 6095,
      "oi": 6096,
      "Ġhum": 6097,
      "å¾Ĵ": 6098,
      "äººéĥ½": 6099,
      "ĠCl": 6100,
      "éĺ»": 6101,
      "æĤĶ": 6102,
      "ĠRome": 6103,
      "èĲ¨": 6104,
      "Ġgevaar": 6105,
      "æĶ¾å¿ĥåĲ§": 6106,
      "Ġmooie": 6107,
      "Ġeffect": 6108,
      "schijnlijk": 6109,
      "cil": 6110,
      "want": 6111,
      "Ġä¹Łæĺ¯": 6112,
      "Ġlisten": 6113,
      "gend": 6114,
      "ä¸ĬçıŃ": 6115,
      "å¤©å¤©": 6116,
      "Ġalsjeblieft": 6117,
      "æŃ£å¥½": 6118,
      "Ġcouldn": 6119,
      "ä¹Łä¸įä¼ļ": 6120,
      "ç¡®å®ļ": 6121,
      "æıĲä¾Ľ": 6122,
      "Ġå¼ł": 6123,
      "å¿ĺäºĨ": 6124,
      "Ġtrouble": 6125,
      "ä»Ĺ": 6126,
      "ä¸įå®¹æĺĵ": 6127,
      "ĠBel": 6128,
      "Ġrepl": 6129,
      "éķ¿å¾Ĺ": 6130,
      "æĶ¾å¼ĥ": 6131,
      "èį£": 6132,
      "ments": 6133,
      "ç©ºéĹ´": 6134,
      "ä¸ĢçĽ´åľ¨": 6135,
      "èĽ®": 6136,
      "æľªæĿ¥": 6137,
      "åª³å¦ĩ": 6138,
      "Ġtried": 6139,
      "ades": 6140,
      "ä»Ģä¹Īäºĭ": 6141,
      "å¾Īå¿«": 6142,
      "...\"": 6143,
      "ĠJap": 6144,
      "èĤĸ": 6145,
      "çĶ±äºİ": 6146,
      "ĠAmerik": 6147,
      "sjech": 6148,
      "strijd": 6149,
      "äººåĳĺ": 6150,
      "åİļ": 6151,
      "derd": 6152,
      "ume": 6153,
      "Ġä»ĸè¯´": 6154,
      "æĸ¹åĲĳ": 6155,
      "Ġorde": 6156,
      "ä¿Ŀè¯ģ": 6157,
      "Ġverdw": 6158,
      "Ġwet": 6159,
      "ision": 6160,
      "Ġenter": 6161,
      "ä¼į": 6162,
      "ured": 6163,
      "å¯¹ä¸įå¯¹": 6164,
      "åĪĨäº«": 6165,
      "Ġslag": 6166,
      "ç©ºæ°Ķ": 6167,
      "Ġproblemen": 6168,
      "vely": 6169,
      "hell": 6170,
      "Ġdro": 6171,
      "Ġmess": 6172,
      "alth": 6173,
      "stublieft": 6174,
      "èµŀ": 6175,
      "ĠDen": 6176,
      "åºŁ": 6177,
      "å¯¹äºĨ": 6178,
      "æĭ¾": 6179,
      "åĸ½": 6180,
      "å¤ªå¤ª": 6181,
      "è¿ĽäºĨ": 6182,
      "çŃīçĿĢ": 6183,
      "çĭ±": 6184,
      "Ġpraat": 6185,
      "Ġnieuws": 6186,
      "Kun": 6187,
      "Ġdarling": 6188,
      "ino": 6189,
      "æĪĳèĩªå·±": 6190,
      "Ġdezelfde": 6191,
      "Ġent": 6192,
      "Ġervan": 6193,
      "ä¸ĭåĪĹ": 6194,
      "Ġbrother": 6195,
      "çĶµèĦĳ": 6196,
      "æĭ¿çĿĢ": 6197,
      "ä¹łæĥ¯": 6198,
      "Ġgehoord": 6199,
      "Ġmaat": 6200,
      "æĭĶ": 6201,
      "é¢Ŀ": 6202,
      "åĲĮæĦı": 6203,
      "ä¸ŃåĽ½çļĦ": 6204,
      "ä»ĭç»į": 6205,
      "âĮ": 6206,
      "ĠåħĪ": 6207,
      "éĤ£æĺ¯": 6208,
      "Ġrele": 6209,
      "å¾Īæľī": 6210,
      "å¹´åīį": 6211,
      "åŁºç¡Ģ": 6212,
      "Ġplane": 6213,
      "Ġherself": 6214,
      "Ġsituatie": 6215,
      "17": 6216,
      "Ġder": 6217,
      "Ġhulp": 6218,
      "read": 6219,
      "è¿ĺæ²¡æľī": 6220,
      "å¦ĸ": 6221,
      "opp": 6222,
      "èĢģåħ¬": 6223,
      "éķĩ": 6224,
      "Ġshort": 6225,
      "Ġafgel": 6226,
      "éĥ¨éĺŁ": 6227,
      "Ġram": 6228,
      "å¼Łå¼Ł": 6229,
      "Ġdollar": 6230,
      "Ġcircumc": 6231,
      "su": 6232,
      "çļĦæĥħåĨµ": 6233,
      "ä½łä½ł": 6234,
      "eding": 6235,
      "unch": 6236,
      "Ġmeteen": 6237,
      "gem": 6238,
      "è´¾": 6239,
      "åīĳ": 6240,
      "å¹²åĺĽ": 6241,
      "ç´«": 6242,
      "Ġgrap": 6243,
      "èİ·å¾Ĺ": 6244,
      "aien": 6245,
      "uro": 6246,
      "Ġåħ¨": 6247,
      "ĠæĹ¢çĦ¶": 6248,
      "ä¸įä»ħ": 6249,
      "aster": 6250,
      "å¤§å¤«": 6251,
      "under": 6252,
      "indelijk": 6253,
      "ekt": 6254,
      "Ġbeautiful": 6255,
      "Ar": 6256,
      "Heel": 6257,
      "uut": 6258,
      "è²": 6259,
      "Ġæīį": 6260,
      "ä¸įç®¡": 6261,
      "igheid": 6262,
      "ĠSte": 6263,
      "ĠBrit": 6264,
      "ç®±": 6265,
      "èĥ¸": 6266,
      "komt": 6267,
      "cuse": 6268,
      "lu": 6269,
      "sc": 6270,
      "èª": 6271,
      "Ġæīĵ": 6272,
      "ä»ģ": 6273,
      "å¦»": 6274,
      "ĠOr": 6275,
      "åįģåħ«": 6276,
      "æįķ": 6277,
      "Ġvolgens": 6278,
      "Ġcontin": 6279,
      "Ġstarted": 6280,
      "æ£®æŀĹ": 6281,
      "äºĨä¸ª": 6282,
      "Ġzodat": 6283,
      "ists": 6284,
      "èĪħ": 6285,
      "Ġdaarna": 6286,
      "æ·¡": 6287,
      "olle": 6288,
      "Ã³": 6289,
      "ĠæĿİ": 6290,
      "è¿ĻäºĭåĦ¿": 6291,
      "Ġfish": 6292,
      "urk": 6293,
      "éĢĶ": 6294,
      "Ġè¿Ļæ¬¡": 6295,
      "åįģäºĶ": 6296,
      "Ġgets": 6297,
      "Ġpartic": 6298,
      "è§Ĥå¯Ł": 6299,
      "éĩİéĽĢ": 6300,
      "Ġveilig": 6301,
      "ĠMainwaring": 6302,
      "Did": 6303,
      "Ġvar": 6304,
      "Ġzee": 6305,
      "Ġincl": 6306,
      "igin": 6307,
      "è¯´æĺİ": 6308,
      "åĩ¡": 6309,
      "Ġspr": 6310,
      "æī¾æĪĳ": 6311,
      "åĳ½ä»¤": 6312,
      "more": 6313,
      "zel": 6314,
      "Ġäººå®¶": 6315,
      "Ġmond": 6316,
      "Ġsister": 6317,
      "ĠSc": 6318,
      "ĠWas": 6319,
      "Ġtwenty": 6320,
      "èĪª": 6321,
      "itting": 6322,
      "ç¬¬ä¸Ģä¸ª": 6323,
      "Ġtekst": 6324,
      ".]": 6325,
      "Ġbuy": 6326,
      "iep": 6327,
      "ĠæĪĳæĢİä¹Ī": 6328,
      "ä¼¸": 6329,
      "ä¹Łå¾Ī": 6330,
      "thers": 6331,
      "rench": 6332,
      "Ġletter": 6333,
      "Ġmiljoen": 6334,
      "inig": 6335,
      "Ġhy": 6336,
      "ĠAust": 6337,
      "Ġgeworden": 6338,
      "éªĳ": 6339,
      "æĴ¤": 6340,
      "Ġtrad": 6341,
      "å®Ŀå®Ŀ": 6342,
      "Ġsupposed": 6343,
      "Ġvoelt": 6344,
      "Ġsyst": 6345,
      "ding": 6346,
      "hal": 6347,
      "iam": 6348,
      "ately": 6349,
      "ä¹ĸ": 6350,
      "ä¸Ģåı¥": 6351,
      "Ġzoeken": 6352,
      "Ġlopen": 6353,
      "Ġlichaam": 6354,
      "æĹ¶ä»£": 6355,
      "Ġnoise": 6356,
      "æĥħç»ª": 6357,
      "Ġ25": 6358,
      "ĠKl": 6359,
      "åĿĩ": 6360,
      "åı¸ä»¤": 6361,
      "Ġåį´": 6362,
      "bes": 6363,
      "ç¦ģ": 6364,
      "Ġfear": 6365,
      "åĽº": 6366,
      "ente": 6367,
      "åĬ±": 6368,
      "ä»Ģä¹Īéĥ½": 6369,
      "éĺ´": 6370,
      "Ġsomeone": 6371,
      "ä½łä»¬çļĦ": 6372,
      "æįŁ": 6373,
      "åıįåºĶ": 6374,
      "Ã¯n": 6375,
      "Help": 6376,
      "Mar": 6377,
      "pos": 6378,
      "å°¼": 6379,
      "ä¸Ģå£°": 6380,
      "ä¸įåİ»": 6381,
      "æī«": 6382,
      "Ġoper": 6383,
      "ĠMc": 6384,
      "ç»ĻäºĨ": 6385,
      "ĠJohn": 6386,
      "Ġexpl": 6387,
      "æ¶Ĥ": 6388,
      "è´Łè´£": 6389,
      "uizen": 6390,
      "Pr": 6391,
      "Ġmama": 6392,
      "Ġaw": 6393,
      "ä»ĸåľ¨": 6394,
      "rokken": 6395,
      "å·Ŀ": 6396,
      "Ġtea": 6397,
      "ĠEx": 6398,
      "æģ¢": 6399,
      "å¥³æľĭåıĭ": 6400,
      "Ġexper": 6401,
      "Ġclub": 6402,
      "éĵ¶è¡Į": 6403,
      "gegeven": 6404,
      "å±ģ": 6405,
      "eens": 6406,
      "åĨħå®¹": 6407,
      "Ġgirls": 6408,
      "Ġpopul": 6409,
      "ĠåºĶè¯¥": 6410,
      "Heeft": 6411,
      "ox": 6412,
      "ä½łæľī": 6413,
      "Ġcow": 6414,
      "åŃĶ": 6415,
      "è´Ń": 6416,
      "Ġable": 6417,
      "çĽ¸åħ³": 6418,
      "ç«ĭåĪ»": 6419,
      "åĤħ": 6420,
      "Ġvia": 6421,
      "Ġner": 6422,
      "Ġdeal": 6423,
      "Ġenkele": 6424,
      "åİ¨": 6425,
      "æ³½": 6426,
      "ĠOl": 6427,
      "Wees": 6428,
      "åīįéĿ¢": 6429,
      "æĤ¨çļĦ": 6430,
      "è¯ģæĺİ": 6431,
      "press": 6432,
      "mat": 6433,
      "nee": 6434,
      "zet": 6435,
      "Ġè¦ģæĺ¯": 6436,
      "ä¸Ī": 6437,
      "ä»ĩ": 6438,
      "Ġnoem": 6439,
      "åĳĲ": 6440,
      "è¯´æ³ķ": 6441,
      "æīĭæľ¯": 6442,
      "Ġboys": 6443,
      "çĮİ": 6444,
      "Ġterwijl": 6445,
      "Ġguess": 6446,
      "æĹģè¾¹": 6447,
      "Ġimportant": 6448,
      "OU": 6449,
      "Ġjob": 6450,
      "Ġkil": 6451,
      "ache": 6452,
      "ä»Ĭå¹´": 6453,
      "éħ¸": 6454,
      "æĢ§çļĦ": 6455,
      "Ġverteld": 6456,
      "Ġå½ĵæĹ¶": 6457,
      "At": 6458,
      "Iedereen": 6459,
      "Ġsug": 6460,
      "ä¸įæĸŃ": 6461,
      "Ġequ": 6462,
      "Ġpour": 6463,
      "Ġcas": 6464,
      "Ġbeweg": 6465,
      "Ġvoorbij": 6466,
      "è¾ĳ": 6467,
      "æĤ£": 6468,
      "ĠZw": 6469,
      "ording": 6470,
      "Ġgezicht": 6471,
      "Ġsacred": 6472,
      "Gaat": 6473,
      "Ġmach": 6474,
      "Ġvle": 6475,
      "Ġhurt": 6476,
      "Ġhetzelfde": 6477,
      "çľł": 6478,
      "Ġstil": 6479,
      "éģŃ": 6480,
      "Ġvooral": 6481,
      "ĠPr": 6482,
      "Ġgaf": 6483,
      "Ġä½Ĩæĺ¯æĪĳ": 6484,
      "ĠæĢİä¹Īæł·": 6485,
      "Ġtrying": 6486,
      "åģ¥åº·": 6487,
      "ED": 6488,
      "Gr": 6489,
      "Ġmakes": 6490,
      "arte": 6491,
      "å¤º": 6492,
      "ĠSam": 6493,
      "è¿ĩçļĦ": 6494,
      "äº§çĶŁ": 6495,
      "Her": 6496,
      "ĠæŃ¤": 6497,
      "Ġothers": 6498,
      "è¿«": 6499,
      "chn": 6500,
      "è°ĭ": 6501,
      "åĬĽéĩı": 6502,
      "èħ¾": 6503,
      "å®½": 6504,
      "Ġvanaf": 6505,
      "ĠDicks": 6506,
      "Ġdoctor": 6507,
      "æ¬£": 6508,
      "zeker": 6509,
      "Ġspreken": 6510,
      "inkt": 6511,
      "ards": 6512,
      "Ġyourself": 6513,
      "Ġago": 6514,
      "ized": 6515,
      "Ġplayed": 6516,
      "Ġpract": 6517,
      "Ġtribe": 6518,
      "æ´ĭæ´ĭ": 6519,
      "Ġclear": 6520,
      "Ġextra": 6521,
      "Nie": 6522,
      "like": 6523,
      "ser": 6524,
      "ĠæŀĹ": 6525,
      "atuur": 6526,
      "å°ıçĮª": 6527,
      "éĻĦ": 6528,
      "æľĢå¤§çļĦ": 6529,
      "å¾Īå¤ļäºº": 6530,
      "æ®ĭ": 6531,
      "éļıä¾¿": 6532,
      "è°ĥæŁ¥": 6533,
      "è¸¢": 6534,
      "ç¤¼çī©": 6535,
      "Ġpriv": 6536,
      "maken": 6537,
      "æĺ¯æĢİä¹Ī": 6538,
      "Ġkiss": 6539,
      "rap": 6540,
      "unk": 6541,
      "å¹ħ": 6542,
      "éĹª": 6543,
      "Ġè¿ĻéĩĮ": 6544,
      "åĲ¬è§ģ": 6545,
      "åĺŁ": 6546,
      "èĦ¾": 6547,
      "etting": 6548,
      "Ġantwoorden": 6549,
      "éĢĤåĲĪ": 6550,
      "reekt": 6551,
      "Ġhope": 6552,
      "ä»ª": 6553,
      "ä½łçİ°åľ¨": 6554,
      "å¤®": 6555,
      "Ġfro": 6556,
      "Ġfoto": 6557,
      "åİ»çľĭ": 6558,
      "ousin": 6559,
      "Ġ193": 6560,
      "ä¸ºä»Ģä¹Īè¦ģ": 6561,
      "èİ²": 6562,
      "Ġåıªæľī": 6563,
      "Ġmiladi": 6564,
      "Ġvraagt": 6565,
      "Aan": 6566,
      "ziek": 6567,
      "çļĦçĶŁæ´»": 6568,
      "åĲĲ": 6569,
      "Ġkent": 6570,
      "sta": 6571,
      "Ġrece": 6572,
      "æ¯ģ": 6573,
      "çĤ®": 6574,
      "åŃ©åŃĲä»¬": 6575,
      "æ»´": 6576,
      "ĠYork": 6577,
      "ergie": 6578,
      "Ġä¸Ń": 6579,
      "Ġoog": 6580,
      "äºĨè¿Ļ": 6581,
      "ç»ķ": 6582,
      "Ġricht": 6583,
      "ĠTsjech": 6584,
      "å¾Īéļ¾": 6585,
      "Ġchoc": 6586,
      "è¿Ļä¹Īè¯´": 6587,
      "æĶ¿çŃĸ": 6588,
      "äºĮéĽ¶ä¸Ģ": 6589,
      "Here": 6590,
      "dred": 6591,
      "vorm": 6592,
      "Ġwish": 6593,
      "Ġgep": 6594,
      "ĠDon": 6595,
      "å®¶äºº": 6596,
      "Ġusually": 6597,
      "åĵİåĳĢ": 6598,
      "Ġmeeste": 6599,
      "Ġacross": 6600,
      "Ġcommun": 6601,
      "Ġseveral": 6602,
      "ĠçĶ¨": 6603,
      "iter": 6604,
      "itter": 6605,
      "çİ²": 6606,
      "å°±æĺ¯æĪĳ": 6607,
      "èĢģå©Ĩ": 6608,
      "æĲŃ": 6609,
      "gramm": 6610,
      "LAN": 6611,
      "kn": 6612,
      "Ġmill": 6613,
      "Ġsend": 6614,
      "äºĨä¸Ģä¸ĭ": 6615,
      "å®ľ": 6616,
      "ĠæĪĳéĥ½": 6617,
      "ution": 6618,
      "ilt": 6619,
      "Ġergens": 6620,
      "uli": 6621,
      "Ġdank": 6622,
      "æľĢå¥½çļĦ": 6623,
      "èºº": 6624,
      "ipp": 6625,
      "åĲĪåĲĮ": 6626,
      "åĶ¯": 6627,
      "Ġpaper": 6628,
      "Ġneemt": 6629,
      "Ġdirect": 6630,
      "va": 6631,
      "Ġice": 6632,
      "orie": 6633,
      "Ġinde": 6634,
      "ĠåĶ": 6635,
      "raÃ¯": 6636,
      "genomen": 6637,
      "ĠMom": 6638,
      "åºı": 6639,
      "çĲ´": 6640,
      "æİ¥çĿĢ": 6641,
      "è§Ĩé¢ĳ": 6642,
      "çŀİ": 6643,
      "Cl": 6644,
      "Ġduidelijk": 6645,
      "Ġwou": 6646,
      "è¿¹": 6647,
      "Ġfruit": 6648,
      "Ġcap": 6649,
      "ained": 6650,
      "Ġproper": 6651,
      "key": 6652,
      "Ġgenoemd": 6653,
      "view": 6654,
      "\"ãĢĤ": 6655,
      "12": 6656,
      "Ã¼": 6657,
      "Ġearly": 6658,
      "Ġfa": 6659,
      "Ġcoun": 6660,
      "aste": 6661,
      "Ġlezen": 6662,
      "çº·": 6663,
      "æĽ¼": 6664,
      "åŁŁ": 6665,
      "åĵªä¸ª": 6666,
      "Ġ2020": 6667,
      "Ġvlucht": 6668,
      "ç»Ĩèĥŀ": 6669,
      "Rust": 6670,
      "Ġheer": 6671,
      "Ġåĥı": 6672,
      "ĠæĪĳæĪĳ": 6673,
      "ute": 6674,
      "ĠSm": 6675,
      "çİ°å®ŀ": 6676,
      "è½¨": 6677,
      "ĠOne": 6678,
      "Ġwaarheid": 6679,
      "Ġhundred": 6680,
      "åĸĿéħĴ": 6681,
      "Ġactually": 6682,
      "Ġstrong": 6683,
      "Ġsnelheid": 6684,
      "Ġdien": 6685,
      "Ġmat": 6686,
      "äºĨåĳ¢": 6687,
      "vern": 6688,
      "æĬ¬": 6689,
      "å¦Ļ": 6690,
      "Ġschuld": 6691,
      "æĴŀ": 6692,
      "Ġmeestal": 6693,
      "nieuw": 6694,
      "èģªæĺİ": 6695,
      "Re": 6696,
      "rict": 6697,
      "ya": 6698,
      "Ġmist": 6699,
      "Ġsil": 6700,
      "Ġegg": 6701,
      "Ġlab": 6702,
      "ĠåĿ": 6703,
      "urch": 6704,
      "ests": 6705,
      "æĭĴ": 6706,
      "éĥĳ": 6707,
      "å¨ľ": 6708,
      "Ġsnow": 6709,
      "æ¢ģ": 6710,
      "Ġblijf": 6711,
      "è¶³çĲĥ": 6712,
      "www": 6713,
      "Na": 6714,
      "ges": 6715,
      "kk": 6716,
      "nam": 6717,
      "won": 6718,
      "Ġhuh": 6719,
      "igde": 6720,
      "ĠæĪĳæ²¡": 6721,
      "åĵĩ": 6722,
      "geet": 6723,
      "ĠPh": 6724,
      "ä¸»äºº": 6725,
      "éľĩ": 6726,
      "Ġhoeft": 6727,
      "ç¦»å©ļ": 6728,
      "Ġzwaar": 6729,
      "åłĨ": 6730,
      "æķĮäºº": 6731,
      "ĠDuits": 6732,
      "11": 6733,
      "Verd": 6734,
      "gers": 6735,
      "åļ": 6736,
      "Ġmur": 6737,
      "Ġins": 6738,
      "ĠMan": 6739,
      "then": 6740,
      "æĭĸ": 6741,
      "å¥¹ä»¬": 6742,
      "å®ŀéªĮ": 6743,
      "Ġwaarin": 6744,
      "çĭł": 6745,
      "ä½ĵçļĦ": 6746,
      "Ġroll": 6747,
      "Ġbelief": 6748,
      "é£ŀæľº": 6749,
      "æľŁå¾ħ": 6750,
      "ä½¿çĶ¨": 6751,
      "inning": 6752,
      "ĠMaria": 6753,
      "attle": 6754,
      "ç¯ĩ": 6755,
      "è²Į": 6756,
      "ĠåĪļæīį": 6757,
      "æĺ¯åĲ¦": 6758,
      "å°ļ": 6759,
      "Ġzetten": 6760,
      "åĨ¬": 6761,
      "ĠDavid": 6762,
      "Ġallowed": 6763,
      "Ġhaal": 6764,
      "æĦıè§ģ": 6765,
      "Ġroad": 6766,
      "Ġonderzoek": 6767,
      "éĺŁä¼į": 6768,
      "æļĤ": 6769,
      "åĪ©çĶ¨": 6770,
      "é¾Ħ": 6771,
      "è¸ª": 6772,
      "Ġtouch": 6773,
      "For": 6774,
      "head": 6775,
      "ete": 6776,
      "ona": 6777,
      "Ġfell": 6778,
      "Ġopl": 6779,
      "ä¹Łä¼ļ": 6780,
      "è®©äºº": 6781,
      "ĠStates": 6782,
      "çķĻä¸ĭ": 6783,
      "çļĩå¸Ŀ": 6784,
      "Ġèĩª": 6785,
      "Ġé©¬": 6786,
      "ä¸Ģå¼ł": 6787,
      "Ġcond": 6788,
      "ĠæĪĳå°±æĺ¯": 6789,
      "åĩ¤": 6790,
      "çĶŁæĹ¥": 6791,
      "æĬĬè¿Ļ": 6792,
      "çĪ¸å¦Ī": 6793,
      "æĽ´å¤ļ": 6794,
      "Ġclose": 6795,
      "å¢Ļ": 6796,
      "Ġbusiness": 6797,
      "Ġredenen": 6798,
      "gn": 6799,
      "kw": 6800,
      "Ġacht": 6801,
      "Ġbank": 6802,
      "çĶ²": 6803,
      "è¯´å¾Ĺ": 6804,
      "Ġstick": 6805,
      "ĠMart": 6806,
      "ersch": 6807,
      "bec": 6808,
      "Ġbegint": 6809,
      "Ġrechts": 6810,
      "Ġclean": 6811,
      "ä¼¼çļĦ": 6812,
      "Ġlarge": 6813,
      "AL": 6814,
      "IJ": 6815,
      "One": 6816,
      "Ġiron": 6817,
      "reed": 6818,
      "å°±æ²¡æľī": 6819,
      "ooh": 6820,
      "Ġrijden": 6821,
      "å¯¿": 6822,
      "Ġerop": 6823,
      "ĠGra": 6824,
      "å¹´äºĨ": 6825,
      "wezen": 6826,
      "Ġchang": 6827,
      "Your": 6828,
      "Ġslim": 6829,
      "Ġontw": 6830,
      "Ġbehind": 6831,
      "Ġmilk": 6832,
      "ä¸ĵä¸ļ": 6833,
      "aptain": 6834,
      "Ġtemper": 6835,
      "oest": 6836,
      "èŁ": 6837,
      "ĠCHI": 6838,
      "Ġdaughter": 6839,
      "ä»į": 6840,
      "Ġpower": 6841,
      "ä¸ĭéĿ¢": 6842,
      "ĠCar": 6843,
      "ç»ĻæĪĳä»¬": 6844,
      "Ġplat": 6845,
      "å½ĵå¹´": 6846,
      "éĴ»": 6847,
      "ä¸ľåĮĹ": 6848,
      "Ġarr": 6849,
      "æ£µ": 6850,
      "Ġadm": 6851,
      "ĠEngel": 6852,
      "é¹°": 6853,
      "è¸ı": 6854,
      "Ġpapa": 6855,
      "Ġresult": 6856,
      "Ġmusic": 6857,
      "RO": 6858,
      "aars": 6859,
      "è¯´å®Į": 6860,
      "éĤ£æĪĳ": 6861,
      "éĴ¢": 6862,
      "åĺī": 6863,
      "åĽĽä¸ª": 6864,
      "æ»ĳ": 6865,
      "å»ºè®®": 6866,
      "Daarom": 6867,
      "pril": 6868,
      "Ġdescri": 6869,
      "Ġbezig": 6870,
      "Ġspirits": 6871,
      "è®Ńç»ĥ": 6872,
      "have": 6873,
      "Ġes": 6874,
      "Ġæ¬¢è¿İ": 6875,
      "ery": 6876,
      "çļĦæł·åŃĲ": 6877,
      "Ġbellen": 6878,
      "ä½łèĥ½": 6879,
      "Ġlady": 6880,
      "Ġport": 6881,
      "Ġfur": 6882,
      "Ġum": 6883,
      "Ġä½łè¦ģæĺ¯": 6884,
      "ä»¥åıĬ": 6885,
      "ĠHit": 6886,
      "çĶŁäº§": 6887,
      "åĢį": 6888,
      "æĤī": 6889,
      "æĪĲçļĦ": 6890,
      "è¯·ä½ł": 6891,
      "ç²®": 6892,
      "Ġpartij": 6893,
      "Alleen": 6894,
      "Ġwinter": 6895,
      "Ġruimte": 6896,
      "Moet": 6897,
      "for": 6898,
      "ming": 6899,
      "Ġéļ¾éģĵ": 6900,
      "æĪĳè·Ł": 6901,
      "iled": 6902,
      "éĹ²": 6903,
      "å§»": 6904,
      "æīĭéĩĮ": 6905,
      "Ġgele": 6906,
      "Ġoffer": 6907,
      "Ġverdomme": 6908,
      "wijs": 6909,
      "zier": 6910,
      "Ġmix": 6911,
      "æĺ¯çļĦ": 6912,
      "å®¾": 6913,
      "Ġä½łä¸įæĺ¯": 6914,
      "æķı": 6915,
      "Ġwaarbij": 6916,
      "éĶħ": 6917,
      "Ġsuff": 6918,
      "ç©·": 6919,
      "åŁ¹": 6920,
      "èį·": 6921,
      "åĿĲåľ¨": 6922,
      "Ġspeak": 6923,
      "ĠWilson": 6924,
      "ira": 6925,
      "iale": 6926,
      "Ġwinnen": 6927,
      "Ġol": 6928,
      "Ġmain": 6929,
      "Ġvuur": 6930,
      "Ġweinig": 6931,
      "Ġvoort": 6932,
      "ç§Ł": 6933,
      "åĬłæ²¹": 6934,
      "ä¼¤å®³": 6935,
      "Vooruit": 6936,
      "Ġspirit": 6937,
      "ini": 6938,
      "Ġlift": 6939,
      "Ġå¨": 6940,
      "Ġstuff": 6941,
      "åĽ½çİĭ": 6942,
      "âĳł": 6943,
      "æĻ®éĢļ": 6944,
      "Ġquestion": 6945,
      "16": 6946,
      "goed": 6947,
      "è¿Ŀ": 6948,
      "çĶĺ": 6949,
      "è¯´ä¸į": 6950,
      "å¾Īå¥½": 6951,
      "æŁ³": 6952,
      "å¸ĪçĪ¶": 6953,
      "Ġgroe": 6954,
      "ä¸ĩä¸Ģ": 6955,
      "æĦıæĢĿåķĬ": 6956,
      "Ġæ²¡äºĭ": 6957,
      "èľĤ": 6958,
      "èĳĹ": 6959,
      "âĳ¢": 6960,
      "éĢŁåº¦": 6961,
      "Ġfollowing": 6962,
      "Ġtelefoon": 6963,
      "Ġfavor": 6964,
      "'.": 6965,
      "Ġç»ĵæŀľ": 6966,
      "ä¸Ģçīĩ": 6967,
      "è¾Ĩ": 6968,
      "è´´": 6969,
      "èĦı": 6970,
      "pped": 6971,
      "Ġsmith": 6972,
      "velop": 6973,
      "¡ä¸¹": 6974,
      "ĠæľĢåĲİ": 6975,
      "omst": 6976,
      "æ²¡ä»Ģä¹Ī": 6977,
      "ä¼ļä¸įä¼ļ": 6978,
      "anten": 6979,
      "Ġvoordat": 6980,
      "çī¡ä¸¹": 6981,
      "æ¬ł": 6982,
      "å¥³çļĦ": 6983,
      "ING": 6984,
      "ç½ļ": 6985,
      "æħ§": 6986,
      "åĢĴæĺ¯": 6987,
      "Ġcolor": 6988,
      "beer": 6989,
      "Ġ&": 6990,
      "æĪĴ": 6991,
      "ita": 6992,
      "Ġki": 6993,
      "ĠSu": 6994,
      "æĪĳä»¬å®¶": 6995,
      "ç»Ļå¥¹": 6996,
      "ĠRep": 6997,
      "æĦıè¯Ĩ": 6998,
      "beelden": 6999,
      "Ġbijz": 7000,
      "Ġabove": 7001,
      "Ġgebouw": 7002,
      "Ġgemeen": 7003,
      "âĳ¡": 7004,
      "å±ħçĦ¶": 7005,
      "çĸ«æĥħ": 7006,
      "Gel": 7007,
      "see": 7008,
      "ĠMon": 7009,
      "ĠGer": 7010,
      "éļĶ": 7011,
      "ä»İå°ı": 7012,
      "Ġgeboren": 7013,
      "ĠCharl": 7014,
      "Ġeerder": 7015,
      "--\"": 7016,
      "ç¿ħ": 7017,
      "Ġanimals": 7018,
      "Ġtonight": 7019,
      "Ġè¢«": 7020,
      "Ġsinds": 7021,
      "oning": 7022,
      "è¿ĻæĹ¶": 7023,
      "ides": 7024,
      "ä¼Ł": 7025,
      "ä»Ģä¹ĪçļĦ": 7026,
      "kende": 7027,
      "Ġanc": 7028,
      "æĬĬè¿Ļä¸ª": 7029,
      "Ġ24": 7030,
      "ĠåĽ½": 7031,
      "ä¿ĿæĮģ": 7032,
      "Ġbecom": 7033,
      "Ġvierkant": 7034,
      "Ġfriends": 7035,
      "çļĦèĬ±": 7036,
      "æĢĴ": 7037,
      "æĥ³æĥ³": 7038,
      "Ġomhoog": 7039,
      "è®©å¥¹": 7040,
      "romen": 7041,
      "åĨįè¯´": 7042,
      "å£®": 7043,
      "Ġrol": 7044,
      "éļıçĿĢ": 7045,
      "amera": 7046,
      "èŃ¦å¯Ł": 7047,
      "Ġredden": 7048,
      "Ġobject": 7049,
      "Ġvliegt": 7050,
      "iod": 7051,
      "atten": 7052,
      "Ġmidden": 7053,
      "æĪĳæ²¡": 7054,
      "Ġnad": 7055,
      "éĤ£å¤©": 7056,
      "ĠSieur": 7057,
      "åľ°åĮº": 7058,
      "èµ·æĿ¥äºĨ": 7059,
      "è®©æĪĳä»¬": 7060,
      "Ġwaarden": 7061,
      "Ġorigin": 7062,
      "olly": 7063,
      "å®Ŀè´Ŀ": 7064,
      "ç½ĳç»ľ": 7065,
      "Ġmaybe": 7066,
      "èĤ¯å®ļæĺ¯": 7067,
      "Ġminutes": 7068,
      "Ġrivier": 7069,
      "Per": 7070,
      "è¿ª": 7071,
      "ä¸įå°ĳ": 7072,
      "æľīåħ³": 7073,
      "æĿ¥èĩª": 7074,
      "è¦ģä¸į": 7075,
      "deren": 7076,
      "ç§Ĵ": 7077,
      "èµ°èµ°": 7078,
      "æĸ¹ä¾¿": 7079,
      "ified": 7080,
      "ç¥¸": 7081,
      "Ġonderwerp": 7082,
      "ç®¡çĲĨ": 7083,
      "æºľ": 7084,
      "Ġgrafieken": 7085,
      "Ġbehulp": 7086,
      "Ġkennen": 7087,
      "Fr": 7088,
      "Ġmer": 7089,
      "Ġcust": 7090,
      "Ġcover": 7091,
      "äººäºĨ": 7092,
      "ĠWhy": 7093,
      "é£ĺ": 7094,
      "ĠVol": 7095,
      "ä¸»ä¹ī": 7096,
      "æĹ©ä¸Ĭ": 7097,
      "æķĻæİĪ": 7098,
      "æĶ¹éĿ©": 7099,
      "Ġbroer": 7100,
      "Ã¨re": 7101,
      "ĠBeeld": 7102,
      "Ġå¦Īå¦Ī": 7103,
      "born": 7104,
      "bye": 7105,
      "las": 7106,
      "uary": 7107,
      "repen": 7108,
      "ĠæĪĳä¼ļ": 7109,
      "ices": 7110,
      "éĥ½èĥ½": 7111,
      "ĠMay": 7112,
      "ĠSer": 7113,
      "æķ²": 7114,
      "ä¿º": 7115,
      "å¤´ä¸Ĭ": 7116,
      "Ġsnap": 7117,
      "åıĳçİ°äºĨ": 7118,
      "Ġlaw": 7119,
      "ä¸ĸçķĮä¸Ĭ": 7120,
      "Ġhardly": 7121,
      "ç¬¬äºĮå¤©": 7122,
      "Ġvermoord": 7123,
      "çļĦä½ł": 7124,
      "Ġkost": 7125,
      "omp": 7126,
      "æľīåı¯èĥ½": 7127,
      "Ġrot": 7128,
      "eeg": 7129,
      "ĠWill": 7130,
      "Ġspot": 7131,
      "ugust": 7132,
      "ĠLet": 7133,
      "Ġä»ĸçļĦ": 7134,
      "å¿ħè¦ģ": 7135,
      "Ġkeu": 7136,
      "Ġtomorrow": 7137,
      "SIS": 7138,
      "mber": 7139,
      "ĠçľŁæĺ¯": 7140,
      "enry": 7141,
      "Ġdet": 7142,
      "Ġhol": 7143,
      "éĤ£æł·": 7144,
      "Ġran": 7145,
      "antie": 7146,
      "èī¾": 7147,
      "Ġvolk": 7148,
      "æĢĿæĥ³": 7149,
      "Ġpleas": 7150,
      "ç´§å¼ł": 7151,
      "å°¤åħ¶": 7152,
      "ĠJapan": 7153,
      "HE": 7154,
      "ioen": 7155,
      "Ġåı«": 7156,
      "Ġå°ĳ": 7157,
      "ijl": 7158,
      "äººçĶŁ": 7159,
      "æ¬²": 7160,
      "éľ¸": 7161,
      "æĳĶ": 7162,
      "Ġdecim": 7163,
      "Ġvandaan": 7164,
      "Ġtelevis": 7165,
      "Ġongeluk": 7166,
      "Hoi": 7167,
      "Ġä¸¤": 7168,
      "Ġæĺİå¤©": 7169,
      "ĹçīĽ": 7170,
      "çļĦæĪĳ": 7171,
      "arken": 7172,
      "Ġho": 7173,
      "Ġless": 7174,
      "æľīå¾Īå¤ļ": 7175,
      "è®¯": 7176,
      "ç»Ļä½łä»¬": 7177,
      "å±Ī": 7178,
      "çº¯": 7179,
      "åĲ¬äºĨ": 7180,
      "Ġadv": 7181,
      "èľĹçīĽ": 7182,
      "Ġlijnstuk": 7183,
      "ä¸įåĲĮçļĦ": 7184,
      "Ġbepaalde": 7185,
      "Ġbegrijp": 7186,
      "åĽ°éļ¾": 7187,
      "å°¾å·´": 7188,
      "Rustig": 7189,
      "ĠMOT": 7190,
      "ĠæĶ¾": 7191,
      "ĠæĿ¨": 7192,
      "annen": 7193,
      "æĪĳæĢİä¹Ī": 7194,
      "Ġlid": 7195,
      "æīĶ": 7196,
      "ĠMy": 7197,
      "Ġdoel": 7198,
      "ondon": 7199,
      "æĺİæĺİ": 7200,
      "Ġä¸įèĥ½": 7201,
      "éħįåĲĪ": 7202,
      "Ġgeheim": 7203,
      "ĠMadame": 7204,
      "Ġbom": 7205,
      "ä½łåı¯ä»¥": 7206,
      "Ġfix": 7207,
      "ĠMaak": 7208,
      "sem": 7209,
      "Ġoverle": 7210,
      "æĪĲç»©": 7211,
      "Ġseems": 7212,
      "ashion": 7213,
      "å®ŀéĻħä¸Ĭ": 7214,
      "AS": 7215,
      "El": 7216,
      "TER": 7217,
      "ä¸ĳ": 7218,
      "elk": 7219,
      "äºĨèµ·æĿ¥": 7220,
      "Ġlog": 7221,
      "isc": 7222,
      "asion": 7223,
      "å°±æ²¡": 7224,
      "stad": 7225,
      "è¿ĩåİ»äºĨ": 7226,
      "ĠNick": 7227,
      "Ġdance": 7228,
      "Ġdrinken": 7229,
      "Ġclass": 7230,
      "$${": 7231,
      "æĺİçĻ½äºĨ": 7232,
      "é²ģ": 7233,
      "Ġskin": 7234,
      "dden": 7235,
      "zetten": 7236,
      "Ġpracht": 7237,
      "èĢĲ": 7238,
      "çŃĳ": 7239,
      "ĠNot": 7240,
      "åŃ¦ä¼ļ": 7241,
      "Ġsoft": 7242,
      "å¨¶": 7243,
      "æħ°": 7244,
      "éĢīæīĭ": 7245,
      "Ġontde": 7246,
      "Ġfunny": 7247,
      "âĳ£": 7248,
      "é£Łçī©": 7249,
      "åĿıäºĨ": 7250,
      "Ġposit": 7251,
      "Ġcultuur": 7252,
      "ä¼°è®¡": 7253,
      "Bel": 7254,
      "bb": 7255,
      "Ġgingen": 7256,
      "åħ¸": 7257,
      "Ġstom": 7258,
      "Ġä½łå¥½": 7259,
      "éĻ·": 7260,
      "ĠNa": 7261,
      "ĠFrench": 7262,
      "Ġschip": 7263,
      "èĻ«": 7264,
      "Ġnaast": 7265,
      "å°±ç®Ĺ": 7266,
      "åŃĿ": 7267,
      "åİ»åĵªåĦ¿": 7268,
      "ĠAmy": 7269,
      "ikk": 7270,
      "Ġleger": 7271,
      "çŁ¥è¯Ĩ": 7272,
      "éĹ¨åı£": 7273,
      "è®°ä½ı": 7274,
      "æĴĳ": 7275,
      "Ġquiet": 7276,
      "æıĲéĨĴ": 7277,
      "Ġverloren": 7278,
      "ä¹ĭéĹ´çļĦ": 7279,
      "åĪ¤æĸŃ": 7280,
      "fessor": 7281,
      "Meer": 7282,
      "ford": 7283,
      "ĸåķ": 7284,
      "å°±è¯´": 7285,
      "åĳ¦": 7286,
      "çľĭåĪ°äºĨ": 7287,
      "Ġeraan": 7288,
      "åĦ¿åķĬ": 7289,
      "ille": 7290,
      "Ġlead": 7291,
      "ç«ŀ": 7292,
      "ĠJu": 7293,
      "ä¾¦": 7294,
      "Ġcomput": 7295,
      "Ġjuist": 7296,
      "çľŁæŃ£çļĦ": 7297,
      "ĸåķ¡": 7298,
      "Beg": 7299,
      "even": 7300,
      "æĿ°": 7301,
      "Ġstar": 7302,
      "Ġstation": 7303,
      "æĢ¨": 7304,
      "amplain": 7305,
      "çĶ¨äºĨ": 7306,
      "Ġwaarvoor": 7307,
      "Ġå¦Ĥæŀľä½ł": 7308,
      "Ġserv": 7309,
      "èĨĢ": 7310,
      "ĠåİŁæĿ¥": 7311,
      "was": 7312,
      "Ġé»Ħ": 7313,
      "Ġåĳ¨": 7314,
      "Ġhit": 7315,
      "Ġfair": 7316,
      "aged": 7317,
      "ĠMil": 7318,
      "ä¸ŃéĹ´": 7319,
      "çĮĽ": 7320,
      "Ġvechten": 7321,
      "æ¬ºè´Ł": 7322,
      "è·Ŀç¦»": 7323,
      "Gew": 7324,
      "hold": 7325,
      "Ġä½ķ": 7326,
      "çļĦå¥³": 7327,
      "æĪĳæ²¡æľī": 7328,
      "æĪĳåı¯ä»¥": 7329,
      "stip": 7330,
      "ä¹Łä¸įèĥ½": 7331,
      "å°ıåŃĲ": 7332,
      "Ġreis": 7333,
      "è®©ä»ĸä»¬": 7334,
      "ãĢĤ\"\"": 7335,
      "æ¯ıæ¬¡": 7336,
      "æĩĴ": 7337,
      "Ġdriehoek": 7338,
      "Ġsterven": 7339,
      "Volgens": 7340,
      "ç¬¦åĲĪ": 7341,
      "cel": 7342,
      "gas": 7343,
      "Ġbru": 7344,
      "ĠhÃ©": 7345,
      "æĺł": 7346,
      "Ġline": 7347,
      "Ġpassen": 7348,
      "andid": 7349,
      "åľ¨åĵªåĦ¿": 7350,
      "ĠæĪĳè·Ł": 7351,
      "æ²¡éĶĻ": 7352,
      "ague": 7353,
      "ĠMas": 7354,
      "Ġgovern": 7355,
      "ached": 7356,
      "Ġregen": 7357,
      "æ°ı": 7358,
      "éķ¿å¤§": 7359,
      "schappen": 7360,
      "ä¸»åĬ¨": 7361,
      "æŁ±": 7362,
      "Ġdaarom": 7363,
      "overn": 7364,
      "vangen": 7365,
      "Ġstoppen": 7366,
      "ä¾ĿçĦ¶": 7367,
      "Ġeasy": 7368,
      "Ġpicture": 7369,
      "ae": 7370,
      "rs": 7371,
      "ror": 7372,
      "Ġmater": 7373,
      "Ġsick": 7374,
      "onde": 7375,
      "Ġloopt": 7376,
      "Ġfr": 7377,
      "uri": 7378,
      "å¿ł": 7379,
      "éĢĲ": 7380,
      "å¾Īä¹ħ": 7381,
      "ĠOf": 7382,
      "æ±¡": 7383,
      "ä¸īå¹´": 7384,
      "éĥģ": 7385,
      "é¥¼": 7386,
      "æľīä¸ĢäºĽ": 7387,
      "Ġlangu": 7388,
      "Ġgebeuren": 7389,
      "å«Ĥ": 7390,
      "Ġplaced": 7391,
      "Ġleaves": 7392,
      "Naar": 7393,
      "dien": 7394,
      "Ġtrouw": 7395,
      "inc": 7396,
      "inen": 7397,
      "ining": 7398,
      "Ġpound": 7399,
      "Ġfat": 7400,
      "Ġwear": 7401,
      "å¤©ä¸ĭ": 7402,
      "though": 7403,
      "çľŁå®ŀ": 7404,
      "åĬĽçļĦ": 7405,
      "Ġcommon": 7406,
      "Ġslaan": 7407,
      "Ġevening": 7408,
      "Ġclan": 7409,
      "å®¢æ°Ķ": 7410,
      "ä¼Ļä¼´": 7411,
      "Ġspecial": 7412,
      "Ġmonths": 7413,
      "LANK": 7414,
      "30": 7415,
      "BLANK": 7416,
      "Ġtaal": 7417,
      "Ġlange": 7418,
      "reen": 7419,
      "icult": 7420,
      "çĽ¯": 7421,
      "acter": 7422,
      "ĠBereken": 7423,
      "Ġè¿Ļå°±æĺ¯": 7424,
      "æĮ¯": 7425,
      "åĽ½éĻħ": 7426,
      "ç«¹": 7427,
      "æŃ»èĢħ": 7428,
      "Ġåĵ¥": 7429,
      "ä¼łç»Ł": 7430,
      "Ġbread": 7431,
      "ä¸ĢåĿĹåĦ¿": 7432,
      "Ġrespect": 7433,
      "lor": 7434,
      "Ġ/": 7435,
      "Ġmale": 7436,
      "Ġfijn": 7437,
      "Ġcool": 7438,
      "reet": 7439,
      "è¯´è¿ĩ": 7440,
      "Ġmevrouw": 7441,
      "ĠLondon": 7442,
      "çİ°åľ¨çļĦ": 7443,
      "Ġä»ĸæĺ¯": 7444,
      "å½ĵåľ°": 7445,
      "Ġkruis": 7446,
      "Ġlaughed": 7447,
      "Vertel": 7448,
      "Uit": 7449,
      "hij": 7450,
      "huh": 7451,
      "yst": 7452,
      "Ġtired": 7453,
      "Ġwall": 7454,
      "ä½©": 7455,
      "ä½łä¼ļ": 7456,
      "Ġliving": 7457,
      "Ġteach": 7458,
      "ĠBer": 7459,
      "Ġreact": 7460,
      "æ³¡": 7461,
      "é«ĺçļĦ": 7462,
      "Ġbetalen": 7463,
      "ç³»ç»Ł": 7464,
      "Ġwonen": 7465,
      "åĹ¨": 7466,
      "æģĭçĪ±": 7467,
      "Ġplaces": 7468,
      "ĠHitler": 7469,
      "boek": 7470,
      "lingen": 7471,
      "Ġé«ĺ": 7472,
      "ĠåĲ´": 7473,
      "Ġwa": 7474,
      "Ġzak": 7475,
      "å°ıåŃ©": 7476,
      "ĠAfter": 7477,
      "çŁĽ": 7478,
      "æ³¥": 7479,
      "bei": 7480,
      "Ġconc": 7481,
      "æŁĶ": 7482,
      "Ġgrand": 7483,
      "ector": 7484,
      "Ġmeisjes": 7485,
      "ĠQu": 7486,
      "Ġnamed": 7487,
      "Ġconsidered": 7488,
      "hello": 7489,
      "ogen": 7490,
      "ä»ĵ": 7491,
      "otte": 7492,
      "Ġanderen": 7493,
      "æīİ": 7494,
      "lease": 7495,
      "ĠæĪĳåĳĬè¯īä½ł": 7496,
      "åĪ°çļĦ": 7497,
      "ula": 7498,
      "åħ¬åŃĲ": 7499,
      "Ġsudden": 7500,
      "eget": 7501,
      "æħķ": 7502,
      "Ġgrow": 7503,
      "åħ´è¶£": 7504,
      "Ġcontact": 7505,
      "ov": 7506,
      "ĠåĪĺ": 7507,
      "Ġ$$\\": 7508,
      "çļĦè¿ĩç¨ĭ": 7509,
      "Ġgister": 7510,
      "Ġdece": 7511,
      "Ġfuck": 7512,
      "raat": 7513,
      "Ġsterk": 7514,
      "å¯¹åĳĢ": 7515,
      "æ¯«": 7516,
      "ĠWar": 7517,
      "æİª": 7518,
      "ules": 7519,
      "æī¾åĪ°äºĨ": 7520,
      "æ¶ī": 7521,
      "Ġ195": 7522,
      "ä¸Ģæł·çļĦ": 7523,
      "Ġkijkt": 7524,
      "Ġrechthoek": 7525,
      "Onze": 7526,
      "Ġmoesten": 7527,
      "æģ¢å¤į": 7528,
      "èĦ¾æ°Ķ": 7529,
      "ded": 7530,
      "gang": 7531,
      "lies": 7532,
      "¹ģ": 7533,
      "æ©": 7534,
      "ç¹ģ": 7535,
      "ette": 7536,
      "Ġlach": 7537,
      "åĪĳ": 7538,
      "ieke": 7539,
      "vember": 7540,
      "å¹¼": 7541,
      "iment": 7542,
      "que": 7543,
      "æŁ´": 7544,
      "avy": 7545,
      "å¹¶ä¸į": 7546,
      "å¡ŀ": 7547,
      "Ġassist": 7548,
      "Ġpossess": 7549,
      "Ġjuice": 7550,
      "Ġimm": 7551,
      "åľ¨ä½ł": 7552,
      "Ġopt": 7553,
      "ä¸ĬæĿ¥": 7554,
      "ĠWell": 7555,
      "å¿ĥæĥħ": 7556,
      "è½½": 7557,
      "Ġuitge": 7558,
      "Ġ22": 7559,
      "å®ļçļĦ": 7560,
      "åŁĭ": 7561,
      "çĮ®": 7562,
      "åĴ±ä¿©": 7563,
      "è¡¨æ¼Ķ": 7564,
      "Ġtijdstip": 7565,
      "Ġmuziek": 7566,
      "Ġkwamen": 7567,
      "æ»¡è¶³": 7568,
      "æłĩåĩĨ": 7569,
      "ĠUnivers": 7570,
      "Ġmaakte": 7571,
      "èĤļåŃĲ": 7572,
      "ä¸Īå¤«": 7573,
      "Mooi": 7574,
      "Or": 7575,
      "good": 7576,
      "Ġæĺ¨å¤©": 7577,
      "æĺĮ": 7578,
      "æĺ¯æĪĳçļĦ": 7579,
      "Ġfit": 7580,
      "Ġkept": 7581,
      "Ġcor": 7582,
      "åİĮ": 7583,
      "olon": 7584,
      "åĴĸåķ¡": 7585,
      "ĠLo": 7586,
      "æŁľ": 7587,
      "Ġclim": 7588,
      "å©ļå§»": 7589,
      "Zoals": 7590,
      "èĭ±éĽĦ": 7591,
      "derdaad": 7592,
      "ĠAustral": 7593,
      "Will": 7594,
      "vallen": 7595,
      "zie": 7596,
      "Ġdelen": 7597,
      "Ġbull": 7598,
      "æĺ¯ä»ĸ": 7599,
      "Ġfashion": 7600,
      "asc": 7601,
      "ĠåĢ": 7602,
      "æĥ¹": 7603,
      "æĬµ": 7604,
      "åĴ¬": 7605,
      "çĦ¦": 7606,
      "åĴĮæĪĳ": 7607,
      "åĽ½æ°ĳ": 7608,
      "æŃ»çļĦ": 7609,
      "æħĮ": 7610,
      "ĠChamplain": 7611,
      "çĽ®æłĩ": 7612,
      "æ¹¾": 7613,
      "ĠEuropa": 7614,
      "å¯»æī¾": 7615,
      "gramma": 7616,
      "æĭĴç»Ŀ": 7617,
      "Ġbor": 7618,
      "Ġbuurt": 7619,
      "åĲ¯": 7620,
      "Ġliet": 7621,
      "Ġpark": 7622,
      "iging": 7623,
      "æī®": 7624,
      "éĹº": 7625,
      "æĥ³è¿ĩ": 7626,
      "Ġmoved": 7627,
      "åħ¨çĲĥ": 7628,
      "å²¸": 7629,
      "Ġarri": 7630,
      "spraak": 7631,
      "èµĦæºĲ": 7632,
      "Pak": 7633,
      "äºĪ": 7634,
      "åıĽ": 7635,
      "ä¸įå°±": 7636,
      "ä¸įå¤Ł": 7637,
      "Ġzus": 7638,
      "ander": 7639,
      "gene": 7640,
      "å¸ģ": 7641,
      "ukt": 7642,
      "ĠæĪĳä»¬çļĦ": 7643,
      "äºĭåĦ¿åķĬ": 7644,
      "è·ĳäºĨ": 7645,
      "Ġworking": 7646,
      "ĠGrand": 7647,
      "Ġdelight": 7648,
      "Ġbekijken": 7649,
      "Ġå¾Ĺ": 7650,
      "Ġnauw": 7651,
      "äºĨå¾Īå¤ļ": 7652,
      "imin": 7653,
      "éĢĴ": 7654,
      "oppen": 7655,
      "Ġwaarschijnlijk": 7656,
      "Ġschoon": 7657,
      "è¶ģ": 7658,
      "Ġæľīä»Ģä¹Ī": 7659,
      "éĢļçŁ¥": 7660,
      "è®°èĢħ": 7661,
      "Ġplezier": 7662,
      "uebec": 7663,
      "rekt": 7664,
      "éĺ³åħī": 7665,
      "Ġveranderen": 7666,
      "æ¾³": 7667,
      "ĠMasai": 7668,
      "IT": 7669,
      "uist": 7670,
      "çĴ": 7671,
      "Ġtel": 7672,
      "Ġwakker": 7673,
      "ä½łä¸Ģ": 7674,
      "Ġlots": 7675,
      "Ġä½łæĺ¯ä¸įæĺ¯": 7676,
      "çīĪ": 7677,
      "éģĵæŃī": 7678,
      "æĢİä¹Īè¯´": 7679,
      "ç»ıéªĮ": 7680,
      "å£ģ": 7681,
      "Ġunivers": 7682,
      "Ġå°±ç®Ĺ": 7683,
      "Ġseat": 7684,
      "å¹¶æ²¡æľī": 7685,
      "å¯¼èĩ´": 7686,
      "è§Ĥä¼Ĺ": 7687,
      "Ġmeester": 7688,
      "åħ·æľī": 7689,
      "Ġperfect": 7690,
      "æ£ĢæŁ¥": 7691,
      "Ġthirty": 7692,
      "Ġdieren": 7693,
      "éĤ£å°±": 7694,
      "ically": 7695,
      "è¿ĺå¾Ĺ": 7696,
      "å½¼": 7697,
      "åĴĮå°ı": 7698,
      "Ġovert": 7699,
      "éļľ": 7700,
      "erence": 7701,
      "æľĭåıĭä»¬": 7702,
      "Ġontmoet": 7703,
      "éĵ¾": 7704,
      "iÃ«n": 7705,
      "è½»è½»": 7706,
      "ä»·åĢ¼": 7707,
      "Ġpoints": 7708,
      "Ġgroup": 7709,
      "15": 7710,
      "form": 7711,
      "water": 7712,
      "hey": 7713,
      "Ġsal": 7714,
      "Ġboos": 7715,
      "æĪĳå°±æĺ¯": 7716,
      "regen": 7717,
      "æīŃ": 7718,
      "Ġverr": 7719,
      "å¯¨": 7720,
      "èĩŃ": 7721,
      "æ°§": 7722,
      "å¿ĥçĲĨ": 7723,
      "osaur": 7724,
      "auwe": 7725,
      "egd": 7726,
      "å¤§å®¶éĥ½": 7727,
      "æ¶Īè´¹": 7728,
      "ä½łå¥½åķĬ": 7729,
      "Ġcompany": 7730,
      "nemen": 7731,
      "oom": 7732,
      "Ġæľ¬": 7733,
      "ĠäºĶ": 7734,
      "Ġdark": 7735,
      "Ġluck": 7736,
      "éĤ»": 7737,
      "è®¢": 7738,
      "ĠAan": 7739,
      "çĽ¾": 7740,
      "è¢Ń": 7741,
      "Ġthinking": 7742,
      "Ġsnijdt": 7743,
      "çĹĩ": 7744,
      "ĠåĽĽ": 7745,
      "Ġå¥½å¥½": 7746,
      "Ġgevoel": 7747,
      "eltje": 7748,
      "Ġä¹Łè®¸": 7749,
      "èĽĩ": 7750,
      "Ġmaanden": 7751,
      "èĥĮåĲİ": 7752,
      "èļĤ": 7753,
      "Ġpassed": 7754,
      "iedenis": 7755,
      "å®£å¸ĥ": 7756,
      "Zet": 7757,
      "oken": 7758,
      "½åŃĲ": 7759,
      "Ġå°Ĩ": 7760,
      "Ġè®©æĪĳ": 7761,
      "iland": 7762,
      "ĠTom": 7763,
      "åģ¶": 7764,
      "æĤ²": 7765,
      "æ¡£": 7766,
      "Ġklopt": 7767,
      "ĠæĢİä¹ĪäºĨ": 7768,
      "Ġidi": 7769,
      "Ġnummer": 7770,
      "ĠIndia": 7771,
      "Ġanimal": 7772,
      "cos": 7773,
      "æĪĳå·²ç»ı": 7774,
      "alley": 7775,
      "åľ¨å®¶": 7776,
      "roll": 7777,
      "urig": 7778,
      "å¤§æ¦Ĥ": 7779,
      "ĠDaddy": 7780,
      "å½»": 7781,
      "å§Ĩ": 7782,
      "åĿ¦": 7783,
      "Ġyours": 7784,
      "naam": 7785,
      "Ġgrapp": 7786,
      "Ġlanger": 7787,
      "å»ºè®¾": 7788,
      "æĮĩæĮ¥": 7789,
      "æĢģåº¦": 7790,
      "aj": 7791,
      "åĦ": 7792,
      "Ġè¿ŀ": 7793,
      "Ġcried": 7794,
      "stof": 7795,
      "å¤©æ°Ķ": 7796,
      "çĿĢä½ł": 7797,
      "ĠBen": 7798,
      "ĠWest": 7799,
      "Ġarea": 7800,
      "èĢĮå·²": 7801,
      "ä¸»æĴŃ": 7802,
      "å¿«çĤ¹": 7803,
      "Ġrode": 7804,
      "Alsjeblieft": 7805,
      "iefd": 7806,
      "è§Ĵåº¦": 7807,
      "selves": 7808,
      "è¿Ļä»¶äºĭæĥħ": 7809,
      "Ġwedstrijd": 7810,
      "ex": 7811,
      "ative": 7812,
      "ä»Ķ": 7813,
      "æĺ¯è¿Ļæł·": 7814,
      "Ġstellen": 7815,
      "Ġstroom": 7816,
      "æĢľ": 7817,
      "ĠAh": 7818,
      "elijkheid": 7819,
      "istory": 7820,
      "çľŁçļĦå¾Ī": 7821,
      "æĳĺ": 7822,
      "é¼»åŃĲ": 7823,
      "does": 7824,
      "Ġbroken": 7825,
      "Ġå¸¦": 7826,
      "æĿ¾é¼ł": 7827,
      "Ġgenerally": 7828,
      "Ġphone": 7829,
      "punten": 7830,
      "weer": 7831,
      "èµĮ": 7832,
      "å¹ķ": 7833,
      "åģļå¥½": 7834,
      "åħ¶ä»ĸçļĦ": 7835,
      "ç³ķ": 7836,
      "åĩłå¹´": 7837,
      "ĠæīĢä»¥æĪĳ": 7838,
      "etters": 7839,
      "æ¸©åº¦": 7840,
      "æĬĹæĹ¥": 7841,
      "äºĴçĽ¸": 7842,
      "Ġhours": 7843,
      "ozen": 7844,
      "Ġéķ¿": 7845,
      "Ġèĩªå·±": 7846,
      "ä¸§": 7847,
      "Ġdik": 7848,
      "Ġdepart": 7849,
      "Ġcousin": 7850,
      "Ġbeide": 7851,
      "èĢĹ": 7852,
      "çĤ¼": 7853,
      "emarken": 7854,
      "æĥħæĦŁ": 7855,
      "æŀľçĦ¶": 7856,
      "ä¸»æĦı": 7857,
      "ç¨Ģ": 7858,
      "Ġowner": 7859,
      "åıĳçĶŁäºĨ": 7860,
      "ĠçľĭæĿ¥": 7861,
      "Ġrunning": 7862,
      "æģĲæĢķ": 7863,
      "Ġvreem": 7864,
      "staande": 7865,
      "Maybe": 7866,
      "ĠçŁ¥éģĵ": 7867,
      "ĠåĲĥ": 7868,
      "Ġnine": 7869,
      "æĺ¯è¦ģ": 7870,
      "æĺ¯æĪĳä»¬": 7871,
      "æľ±": 7872,
      "è¿Ļéĥ¨": 7873,
      "æĿľ": 7874,
      "Ġren": 7875,
      "Ġtechn": 7876,
      "ola": 7877,
      "Ġreken": 7878,
      "ĠCon": 7879,
      "ugd": 7880,
      "uurd": 7881,
      "Ġæĺ¯æĪĳ": 7882,
      "èĩ³äºİ": 7883,
      "Ġnews": 7884,
      "Niemand": 7885,
      "Gen": 7886,
      "Wanneer": 7887,
      "cing": 7888,
      "ĠçĪ¸çĪ¸": 7889,
      "Ġdinner": 7890,
      "Ġpan": 7891,
      "è¿Ļä½į": 7892,
      "åĳĨ": 7893,
      "stellen": 7894,
      "æīĩ": 7895,
      "åĳ¢æĪĳ": 7896,
      "Ġmovie": 7897,
      "çī¢": 7898,
      "åľ°çĲĥ": 7899,
      "Ġwilden": 7900,
      "Ġrock": 7901,
      "æķħæĦı": 7902,
      "Ġå¹³": 7903,
      "Ġdifficult": 7904,
      "è¿Ļä»¶äºĭ": 7905,
      "Ġslaap": 7906,
      "gesch": 7907,
      "makes": 7908,
      "toe": 7909,
      "Ġç»ĻæĪĳ": 7910,
      "Ġzaak": 7911,
      "Ġcel": 7912,
      "ĠæĪĳåİ»": 7913,
      "ĠæĪĳå·²ç»ı": 7914,
      "æ²¿": 7915,
      "Ġä½łä¹Ł": 7916,
      "Ġrad": 7917,
      "çĶŁçī©": 7918,
      "Ġdiep": 7919,
      "éĶ¦": 7920,
      "eph": 7921,
      "itein": 7922,
      "æĽ´å¤ļçļĦ": 7923,
      "éĺŁçļĦ": 7924,
      "èİ±": 7925,
      "oops": 7926,
      "Ġpossible": 7927,
      "èĳ£äºĭ": 7928,
      "Ġsystem": 7929,
      "èļĤèļ": 7930,
      "druk": 7931,
      "zin": 7932,
      "çļĦæīĭ": 7933,
      "Ġbesp": 7934,
      "Ġnut": 7935,
      "ä¸įå¦Ĥ": 7936,
      "Ġtoys": 7937,
      "åľ¨ä¸Ģä¸ª": 7938,
      "é©¾": 7939,
      "ç½©": 7940,
      "åŃ©åŃĲçļĦ": 7941,
      "Ġå¥½äºĨ": 7942,
      "Ġå¥½åĥı": 7943,
      "Ġclot": 7944,
      "åºķä¸ĭ": 7945,
      "èµĦæĸĻ": 7946,
      "conom": 7947,
      "Ġverklaring": 7948,
      "Door": 7949,
      "fer": 7950,
      "give": 7951,
      "erst": 7952,
      "amb": 7953,
      "å¤©çļĦ": 7954,
      "Ġworry": 7955,
      "åĽ½å¤ĸ": 7956,
      "Ġä¸įçŁ¥éģĵ": 7957,
      "åı¯èĥ½ä¼ļ": 7958,
      "ĠStap": 7959,
      "Ġlovely": 7960,
      "Ġmagic": 7961,
      "ä¸ģä¸ģ": 7962,
      "åªĴ": 7963,
      "Ġaardig": 7964,
      "Ġberekening": 7965,
      "40": 7966,
      "Hello": 7967,
      "ĠYeah": 7968,
      "ä¸įåıĬ": 7969,
      "ç»ĳ": 7970,
      "åĳ¢æĺ¯": 7971,
      "ĠGovern": 7972,
      "åĽŀå¤´": 7973,
      "ĠJung": 7974,
      "lict": 7975,
      "two": 7976,
      "ugen": 7977,
      "ĠçĶļèĩ³": 7978,
      "Ġhaat": 7979,
      "Ġlives": 7980,
      "å°ıæĹ¶åĢĻ": 7981,
      "éĹ·": 7982,
      "ĠDr": 7983,
      "éĻ¶": 7984,
      "indt": 7985,
      "wegen": 7986,
      "Ġperiod": 7987,
      "ubb": 7988,
      "ominic": 7989,
      "Ġsettle": 7990,
      "Ġä¸İ": 7991,
      "Ġban": 7992,
      "Ġbaas": 7993,
      "Ġcamera": 7994,
      "è¯´åķĬ": 7995,
      "Ġenergie": 7996,
      "åĪ°çİ°åľ¨": 7997,
      "çľĭæĿ¥": 7998,
      "å®¶ä¼Ļ": 7999,
      "æĥ³çĿĢ": 8000,
      "aches": 8001,
      "è·Łå¥¹": 8002,
      "ĠRight": 8003,
      "Ġsex": 8004,
      "Ġseven": 8005,
      "Ġkwijt": 8006,
      "æĶ¶æĭ¾": 8007,
      "ĠQuebec": 8008,
      "èīºæľ¯": 8009,
      "Ġtype": 8010,
      "Ã¶rdinaten": 8011,
      "çŁĽçĽ¾": 8012,
      "Ook": 8013,
      "dom": 8014,
      "Ġwest": 8015,
      "issen": 8016,
      "Ġrug": 8017,
      "ĠDE": 8018,
      "Ġervoor": 8019,
      "å¤©ç©º": 8020,
      "çİ°è±¡": 8021,
      "Ġsport": 8022,
      "åĽ½åĨħ": 8023,
      "åıĳå¸ĥ": 8024,
      "çķª": 8025,
      "åĬłåħ¥": 8026,
      "è®¤çľŁ": 8027,
      "Ġglass": 8028,
      "Ġstrange": 8029,
      "è¯»ä¹¦": 8030,
      "ç©¶ç«Ł": 8031,
      "Ġkoningin": 8032,
      "¿½": 8033,
      "ï¿½": 8034,
      "èĢį": 8035,
      "è¡ĮåĲĹ": 8036,
      "è½°": 8037,
      "çĥĤ": 8038,
      "Ġgrass": 8039,
      "Ġhung": 8040,
      "oenen": 8041,
      "æĺ¯ä¸Ģç§į": 8042,
      "çļĦéĤ£ç§į": 8043,
      "Ġreturned": 8044,
      "Ġhorse": 8045,
      "Ġevil": 8046,
      "åĥ": 8047,
      "çļĦæĦŁè§ī": 8048,
      "Ġaand": 8049,
      "ä¸įä¸ĭ": 8050,
      "ching": 8051,
      "Ġpuz": 8052,
      "umm": 8053,
      "åıĪæĺ¯": 8054,
      "Ġconn": 8055,
      "è¡¨è¾¾": 8056,
      "ç¼©": 8057,
      "éĩıçļĦ": 8058,
      "äº¤ä»£": 8059,
      "ç¢Ĺ": 8060,
      "å¯¼æ¼Ķ": 8061,
      "Ġpresident": 8062,
      "å¾®ä¿¡": 8063,
      "offen": 8064,
      "Ġliever": 8065,
      "eptember": 8066,
      "Ġwhether": 8067,
      "Papa": 8068,
      "Ġdeceased": 8069,
      "izen": 8070,
      "kamer": 8071,
      "ä»²": 8072,
      "æĺŃ": 8073,
      "orge": 8074,
      "ä¸įåĩº": 8075,
      "è¯Ĭ": 8076,
      "ĠæĪĳè·Łä½łè¯´": 8077,
      "èµĶ": 8078,
      "ĠTr": 8079,
      "Ġformer": 8080,
      "å¾Īå¤§çļĦ": 8081,
      "ulf": 8082,
      "Ġschrijven": 8083,
      "ä½ľåĵģ": 8084,
      "å¸ĪåħĦ": 8085,
      "çİĭçĪ·": 8086,
      "Ġgemidd": 8087,
      "Ġprobeer": 8088,
      "Ġcheck": 8089,
      "å¢ŀåĬł": 8090,
      "moeten": 8091,
      "Jon": 8092,
      "Zelf": 8093,
      "aven": 8094,
      "uigen": 8095,
      "Ġapart": 8096,
      "Ġhur": 8097,
      "Ġzorg": 8098,
      "Ġeaten": 8099,
      "è¿Ļäºĭ": 8100,
      "Ġcm": 8101,
      "ĠæĪĳæ²¡æľī": 8102,
      "uture": 8103,
      "ä¸Ĭä¸Ģ": 8104,
      "æ²¡æľīäºº": 8105,
      "ĠRuss": 8106,
      "èµ°åĪ°": 8107,
      "Ġneck": 8108,
      "Ġnecess": 8109,
      "æĦŁåıĹ": 8110,
      "æı´": 8111,
      "åĲįçļĦ": 8112,
      "Ġkonden": 8113,
      "ç¬ĳçĿĢ": 8114,
      "æł¼æł¼": 8115,
      "åĽ¢éķ¿": 8116,
      "Ġinflu": 8117,
      "Ġsecret": 8118,
      "ĠSchool": 8119,
      "Ġperform": 8120,
      "Ġoccasion": 8121,
      "Ġbirthday": 8122,
      "Ġreplied": 8123,
      "dan": 8124,
      "hank": 8125,
      "Ġéĺ¿": 8126,
      "anam": 8127,
      "ature": 8128,
      "è¿Ł": 8129,
      "Ġthee": 8130,
      "æľīæĹ¶åĢĻ": 8131,
      "å°±æĬĬ": 8132,
      "Ġene": 8133,
      "ä¼ı": 8134,
      "Ġweken": 8135,
      "dern": 8136,
      "ikken": 8137,
      "éĺħ": 8138,
      "osp": 8139,
      "ruct": 8140,
      "æī¾ä½ł": 8141,
      "çĶ·æľĭåıĭ": 8142,
      "è·ĳåĪ°": 8143,
      "èĩ³å°ĳ": 8144,
      "è¯ķè¯ķ": 8145,
      "çīĽå¥¶": 8146,
      "å·®ä¸įå¤ļ": 8147,
      "éĨī": 8148,
      "è¯¯ä¼ļ": 8149,
      "Ġparents": 8150,
      "åľŁåľ°": 8151,
      "åĳ³éģĵ": 8152,
      "çĹĽèĭ¦": 8153,
      "Ġsurpr": 8154,
      "Ġfootball": 8155,
      "Ġmakkelijk": 8156,
      "halen": 8157,
      "ues": 8158,
      "ĠéĻĪ": 8159,
      "çļĦåĳ¢": 8160,
      "Ġmount": 8161,
      "Ġsummer": 8162,
      "Ġvie": 8163,
      "orld": 8164,
      "å°ĸ": 8165,
      "Ġfill": 8166,
      "Ġkor": 8167,
      "str": 8168,
      "è¯´è¯´": 8169,
      "è¦ģåİ»": 8170,
      "unior": 8171,
      "ird": 8172,
      "Ġerin": 8173,
      "çīµ": 8174,
      "æĤŁ": 8175,
      "Ġ21": 8176,
      "æŃ£æĺ¯": 8177,
      "æģŃ": 8178,
      "Ġhemel": 8179,
      "èįĴ": 8180,
      "Ġclos": 8181,
      "Ġarms": 8182,
      "ecause": 8183,
      "ç¢İ": 8184,
      "Ġå¸ĮæľĽ": 8185,
      "Ġsuppose": 8186,
      "ä¼ĺç§Ģ": 8187,
      "ĠåĮħ": 8188,
      "Ġmaximaal": 8189,
      "åĦĴ": 8190,
      "when": 8191,
      "Ġ+": 8192,
      "roon": 8193,
      "Ġè¿Ļä¸įæĺ¯": 8194,
      "Ġuite": 8195,
      "åģļä»Ģä¹Ī": 8196,
      "æĽ¹": 8197,
      "ä¾µ": 8198,
      "uiste": 8199,
      "ä¿¡ä»»": 8200,
      "play": 8201,
      "Ġrace": 8202,
      "ä»¶äºĭæĥħ": 8203,
      "Ġvriendin": 8204,
      "Ġcurious": 8205,
      "åĶ¯ä¸Ģ": 8206,
      "Ġburn": 8207,
      "ä¸ĢåĪ»": 8208,
      "å®¿": 8209,
      "Ġbeeld": 8210,
      "åŃĲä¸Ĭ": 8211,
      "å·«": 8212,
      "ä¹Łå°±": 8213,
      "æ²¡åħ³ç³»": 8214,
      "ope": 8215,
      "ĠRom": 8216,
      "Ġneg": 8217,
      "è§ģéĿ¢": 8218,
      "çĻ½åħĶ": 8219,
      "plicht": 8220,
      "Ġbegon": 8221,
      "Ġweergegeven": 8222,
      "æī¿è®¤": 8223,
      "ĠJanuary": 8224,
      "Ġquickly": 8225,
      "anamee": 8226,
      ".)": 8227,
      "Br": 8228,
      "Have": 8229,
      "hor": 8230,
      "Ġdi": 8231,
      "ä¸Ģå¤§": 8232,
      "alph": 8233,
      "æīĳ": 8234,
      "çľī": 8235,
      "Ġstood": 8236,
      "å¿½": 8237,
      "ĠSome": 8238,
      "äºĭåķĬ": 8239,
      "çĿĢåĳ¢": 8240,
      "å¯¹è±¡": 8241,
      "Ġregels": 8242,
      "Ġnoises": 8243,
      "äº²èĩª": 8244,
      "Ġbestaan": 8245,
      "å½¢æĪĲ": 8246,
      "Ġhotel": 8247,
      "Twee": 8248,
      "çĩĥ": 8249,
      "Ġgrappig": 8250,
      "Bewijs": 8251,
      "Rose": 8252,
      "med": 8253,
      "Ġbi": 8254,
      "Ġnamen": 8255,
      "ä¸įè¯´": 8256,
      "ä¸įåĬ¨": 8257,
      "Ġfly": 8258,
      "staan": 8259,
      "Ġreason": 8260,
      "åĩºéĹ¨": 8261,
      "rift": 8262,
      "åįģä¸Ģ": 8263,
      "Ġbijl": 8264,
      "Ġexam": 8265,
      "Ġå°±åĥı": 8266,
      "ä¸Ģä¸ĭåŃĲ": 8267,
      "é¥±": 8268,
      "æ®Ĭ": 8269,
      "æĿĢäºº": 8270,
      "Ġ50": 8271,
      "Ġåıªæĺ¯": 8272,
      "Ġparab": 8273,
      "åıĤä¸İ": 8274,
      "ç®ĢçĽ´": 8275,
      "ĠOlive": 8276,
      "Ġè¯¥": 8277,
      "ances": 8278,
      "Ġdig": 8279,
      "Ġdream": 8280,
      "çļĦèĢģ": 8281,
      "çļĦå·¥ä½ľ": 8282,
      "çļĦæľºä¼ļ": 8283,
      "Ġloop": 8284,
      "è¿Ļå°±æĺ¯": 8285,
      "Ġkamp": 8286,
      "Ġcorn": 8287,
      "åľ¨äºĨ": 8288,
      "CHAP": 8289,
      "Ġbeoord": 8290,
      "åİ»åķĬ": 8291,
      "Ġalstublieft": 8292,
      "åı¯ä¸į": 8293,
      "ä¸Ģä¸ªå°ı": 8294,
      "Ġdanger": 8295,
      "æľĢç»Ī": 8296,
      "Ġchair": 8297,
      "éĹ®æĪĳ": 8298,
      "eks": 8299,
      "æİ¥è§¦": 8300,
      "Ġrain": 8301,
      "ĠChin": 8302,
      "Ġdragen": 8303,
      "Ġrecord": 8304,
      "komst": 8305,
      "è¹¦": 8306,
      "Ġgroter": 8307,
      "Ġoefen": 8308,
      "æĪĳå¾Ī": 8309,
      "åı¬": 8310,
      "Ġzen": 8311,
      "çĶ³": 8312,
      "rak": 8313,
      "Ġalright": 8314,
      "çĽŁ": 8315,
      "ĠBar": 8316,
      "Ġnose": 8317,
      "éķ¿æĹ¶éĹ´": 8318,
      "åĨįæĿ¥": 8319,
      "çĲĨçĶ±": 8320,
      "çĽ¸äºĴ": 8321,
      "Ġcarried": 8322,
      "äº§ä¸ļ": 8323,
      "è§Ħå®ļ": 8324,
      "æŀģäºĨ": 8325,
      "Ġfinished": 8326,
      "ç¾İä¸½çļĦ": 8327,
      "sd": 8328,
      "vere": 8329,
      "Ġevent": 8330,
      "Ġled": 8331,
      "Ġopnieuw": 8332,
      "Ġverv": 8333,
      "ĠBig": 8334,
      "åıªå¥½": 8335,
      "è¢ģ": 8336,
      "æ°´å¹³": 8337,
      "è£Ĥ": 8338,
      "éļıæĹ¶": 8339,
      "æ¨ª": 8340,
      "æķĪæŀľ": 8341,
      "Ġrustig": 8342,
      "burg": 8343,
      "Ġnormaal": 8344,
      "plaats": 8345,
      "Ġraaklijn": 8346,
      "éĻĦè¿ĳ": 8347,
      "Please": 8348,
      "æĪª": 8349,
      "æĪļ": 8350,
      "æĪĳä¹Łæĺ¯": 8351,
      "ä¹ĺ": 8352,
      "Ġjuiste": 8353,
      "Ġcaught": 8354,
      "Ġcross": 8355,
      "stairs": 8356,
      "raal": 8357,
      "Ġmeen": 8358,
      "rok": 8359,
      "æĥ¨": 8360,
      "ä¹Łå¥½": 8361,
      "ĠDoor": 8362,
      "umb": 8363,
      "ĠéĤ£æĺ¯": 8364,
      "åĸĤ": 8365,
      "èµ°åķĬ": 8366,
      "æµ®": 8367,
      "Ġä¸įä¼ļ": 8368,
      "åı¯èĥ½æĺ¯": 8369,
      "Ġanyone": 8370,
      "æ¯ıä¸ª": 8371,
      "æĳ©": 8372,
      "anny": 8373,
      "ç¨ĭåº¦": 8374,
      "èģĬå¤©": 8375,
      "ubliek": 8376,
      "Ġwrite": 8377,
      "Ġmembers": 8378,
      "Excuse": 8379,
      "ĠAfrica": 8380,
      "Ġorganis": 8381,
      "Amer": 8382,
      "oft": 8383,
      "Ġçī¹åĪ«": 8384,
      "Ġdier": 8385,
      "Ġbos": 8386,
      "etend": 8387,
      "æĺı": 8388,
      "ijst": 8389,
      "å¤¸": 8390,
      "Ġdevelop": 8391,
      "Ġwithin": 8392,
      "ç¾½": 8393,
      "Ġä¸įçĶ¨": 8394,
      "ipper": 8395,
      "Ġbran": 8396,
      "Ġraakt": 8397,
      "ĠUk": 8398,
      "Ġstraat": 8399,
      "Ġproblem": 8400,
      "âĢķ": 8401,
      "Ġattack": 8402,
      "Ġcontrol": 8403,
      "Some": 8404,
      "pel": 8405,
      "ĠæĹ©": 8406,
      "çļĦåľ°": 8407,
      "Ġsand": 8408,
      "Ġlow": 8409,
      "reep": 8410,
      "å¥ī": 8411,
      "Ġbear": 8412,
      "äºĭå®ŀ": 8413,
      "Ġvoorbeelden": 8414,
      "eller": 8415,
      "ĠCent": 8416,
      "ä¸Ńå¤®": 8417,
      "å±ı": 8418,
      "ĠEd": 8419,
      "Ġshot": 8420,
      "Ġshoes": 8421,
      "èĲ§": 8422,
      "èĲĿ": 8423,
      "é¥®": 8424,
      "æĬ¥éģĵ": 8425,
      "çªĿ": 8426,
      "æıĲé«ĺ": 8427,
      "ç²¾å½©": 8428,
      "æİīäºĨ": 8429,
      "Ġfeeling": 8430,
      "Ġè¡ĮäºĨ": 8431,
      "æ½ľ": 8432,
      "Ġdoubt": 8433,
      ".-": 8434,
      "Dag": 8435,
      "Wh": 8436,
      "joy": 8437,
      "æ§": 8438,
      "Ġhoney": 8439,
      "Ġeet": 8440,
      "ality": 8441,
      "äººåķĬ": 8442,
      "aka": 8443,
      "entie": 8444,
      "Ġrid": 8445,
      "genoot": 8446,
      "å¹»": 8447,
      "ĠTer": 8448,
      "Ġdok": 8449,
      "è´ª": 8450,
      "æĮ¡": 8451,
      "çºł": 8452,
      "åģļåĪ°": 8453,
      "æ±ĩ": 8454,
      "Ġbridge": 8455,
      "çĽ´åĪ°": 8456,
      "ureau": 8457,
      "Ġeerlijk": 8458,
      "çİ©ç¬ĳ": 8459,
      "æ¼Ķåĳĺ": 8460,
      "Ġkleur": 8461,
      "çŀ¬": 8462,
      "Ġbusy": 8463,
      "çĨŁæĤī": 8464,
      "ä½łçŁ¥éģĵåĲĹ": 8465,
      "Ġmurder": 8466,
      "After": 8467,
      "ĠçĻ½": 8468,
      "Ġä¸ŃåĽ½": 8469,
      "Ġæį®": 8470,
      "Ġèµ¶ç´§": 8471,
      "Ġvoed": 8472,
      "å°¸": 8473,
      "ä¸įåĸľæ¬¢": 8474,
      "Ġverniet": 8475,
      "aga": 8476,
      "å¦»åŃĲ": 8477,
      "riage": 8478,
      "æĺİæĺ¾": 8479,
      "éĹ®ä¸Ģä¸ĭ": 8480,
      "ç¾¡": 8481,
      "Ġknows": 8482,
      "ç©Ĩ": 8483,
      "ivil": 8484,
      "å¸ĪåĤħ": 8485,
      "Ġgebracht": 8486,
      "å¢ħ": 8487,
      "åıįèĢĮ": 8488,
      "èħ°": 8489,
      "Ġzijde": 8490,
      "Ġrestaur": 8491,
      "Ġå¸ĪçĪ¶": 8492,
      "ĠGerman": 8493,
      "Ġdom": 8494,
      "éĤª": 8495,
      "è¿ĺåı¯ä»¥": 8496,
      "ä¿ĥ": 8497,
      "ç»ıçĲĨ": 8498,
      "Ġboom": 8499,
      "å°ĳçĪ·": 8500,
      "Ġcarry": 8501,
      "åħ±åĲĮ": 8502,
      "é¦ĸæŃĮ": 8503,
      "åı¶åŃĲ": 8504,
      "åħ·ä½ĵ": 8505,
      "Ġmiddel": 8506,
      "èĿ¶": 8507,
      "Ġmember": 8508,
      "Ġlinks": 8509,
      "Ġabsol": 8510,
      "åª³å¦ĩåĦ¿": 8511,
      "ÉĻ": 8512,
      "anje": 8513,
      "çļĦé«ĺ": 8514,
      "çļĦçī¹": 8515,
      "Ġkort": 8516,
      "å°±è¿Ļä¹Ī": 8517,
      "Ġut": 8518,
      "ĠMen": 8519,
      "ĠMark": 8520,
      "ĠDor": 8521,
      "äºĭä»¶": 8522,
      "æŃ£å¼ı": 8523,
      "èĥİ": 8524,
      "éĤ£ä¸ªæĹ¶åĢĻ": 8525,
      "ĠZijn": 8526,
      "æĸĩç«ł": 8527,
      "Ġagent": 8528,
      "æĪĺäºī": 8529,
      "Ġkwaad": 8530,
      "Ġjonge": 8531,
      "Ġmaj": 8532,
      "Ġallebei": 8533,
      "çŁ³å¤´": 8534,
      "ĠAlan": 8535,
      "åĪĽæĸ°": 8536,
      "èĥ¡åŃĲ": 8537,
      "ĠNederlandse": 8538,
      "zichtig": 8539,
      "Dr": 8540,
      "Pl": 8541,
      "Ġest": 8542,
      "Ġtal": 8543,
      "ä½łè§īå¾Ĺ": 8544,
      "Ġeye": 8545,
      "Ġlim": 8546,
      "aliz": 8547,
      "æ²Ł": 8548,
      "å¼¯": 8549,
      "è¿ĺæĮº": 8550,
      "çī²": 8551,
      "åĪ«å¢ħ": 8552,
      "ĠLu": 8553,
      "ĠVeren": 8554,
      "è¶Ł": 8555,
      "Ġsomm": 8556,
      "äº§åĵģ": 8557,
      "é¼»": 8558,
      "rops": 8559,
      "èĦĳè¢ĭ": 8560,
      "æĺ¾ç¤º": 8561,
      "Ġvisit": 8562,
      "Ġvormen": 8563,
      "regon": 8564,
      "Uw": 8565,
      "Veel": 8566,
      "nes": 8567,
      "erc": 8568,
      "Ġmam": 8569,
      "itten": 8570,
      "éĥ½å¾Ī": 8571,
      "ikel": 8572,
      "Ġè¿Ļä½į": 8573,
      "è¡Įä¸ļ": 8574,
      "ĠRock": 8575,
      "æľ¬é¢ĺ": 8576,
      "æĹ¥åĨĽ": 8577,
      "ä½łä»¬ä¿©": 8578,
      "Ġontmoeten": 8579,
      "Ġbrown": 8580,
      "Ġcareful": 8581,
      "Want": 8582,
      "Ġæĸ°": 8583,
      "Ġtun": 8584,
      "çļĦæĦıæĢĿ": 8585,
      "Ġain": 8586,
      "Ġfout": 8587,
      "stop": 8588,
      "Ġä½łåľ¨": 8589,
      "ä¹Łåı¯ä»¥": 8590,
      "å¤ļä¹ħ": 8591,
      "ĠWh": 8592,
      "ĠPol": 8593,
      "å®ŀåĬĽ": 8594,
      "ç§įåŃĲ": 8595,
      "stead": 8596,
      "Ġæĺ¯åķĬ": 8597,
      "uwelijk": 8598,
      "è®°å¿Ĩ": 8599,
      "å¢¨": 8600,
      "noon": 8601,
      "Ġhield": 8602,
      "æĺ¯ä¸į": 8603,
      "æĺ¯æľĢ": 8604,
      "äºĨå°±": 8605,
      "ä¸Ģéĺµ": 8606,
      "æī©": 8607,
      "icken": 8608,
      "ä¹Łåľ¨": 8609,
      "æĹ¶æľŁ": 8610,
      "Ġmodel": 8611,
      "è¾°": 8612,
      "è¡Įä¸įè¡Į": 8613,
      "æī¾ä¸įåĪ°": 8614,
      "å¹³åı°": 8615,
      "Ġverdien": 8616,
      "ĠåįĹ": 8617,
      "Ġneeds": 8618,
      "Ġremo": 8619,
      "volgens": 8620,
      "idence": 8621,
      "gesteld": 8622,
      "EÃ©n": 8623,
      "lk": 8624,
      "upp": 8625,
      "wood": 8626,
      "ermen": 8627,
      "Ġdin": 8628,
      "Ġgiving": 8629,
      "elle": 8630,
      "Ġnational": 8631,
      "ä¸įä¸į": 8632,
      "åĪ·": 8633,
      "å¥ı": 8634,
      "ä»ĸä¸Ģ": 8635,
      "éĤĢ": 8636,
      "æĥĳ": 8637,
      "Ġä½łåħĪ": 8638,
      "iced": 8639,
      "ä¹Łè¦ģ": 8640,
      "æłı": 8641,
      "ĠTed": 8642,
      "æŃĩ": 8643,
      "ä¿Ĭ": 8644,
      "ĠEgy": 8645,
      "éĿ¢ä¸Ĭ": 8646,
      "aalt": 8647,
      "ugs": 8648,
      "Ġschil": 8649,
      "ä¸¤ä½į": 8650,
      "åħ³å¿ĥ": 8651,
      "æ³ķå¾ĭ": 8652,
      "çģ¾": 8653,
      "å·¥ä¸ļ": 8654,
      "åı£æ°Ķ": 8655,
      "Ġcars": 8656,
      "Ġappar": 8657,
      "å¹¶ä¸įæĺ¯": 8658,
      "èĽĻ": 8659,
      "Ġvoelen": 8660,
      "ĠMarch": 8661,
      "çĽĳçĭ±": 8662,
      "å·¦åı³": 8663,
      "woners": 8664,
      "Ġå¨ĺ": 8665,
      "èļĤèļģ": 8666,
      "Net": 8667,
      "bum": 8668,
      "oelen": 8669,
      "wagen": 8670,
      "Ġé¦ĸåħĪ": 8671,
      "Ġtoek": 8672,
      "è¯´ä»ĸ": 8673,
      "Ġmeant": 8674,
      "çİ«": 8675,
      "Ġspring": 8676,
      "ĠNe": 8677,
      "åĬ¨ä½ľ": 8678,
      "èĤº": 8679,
      "çŃīæĪĳ": 8680,
      "ä¸»è¦ģæĺ¯": 8681,
      "åħ¨åĽ½": 8682,
      "Ġboot": 8683,
      "ç»ĵæŀĦ": 8684,
      "æķĻç»ĥ": 8685,
      "å»¶": 8686,
      "å¤«äºº": 8687,
      "woordig": 8688,
      "æĺŁæĺŁ": 8689,
      "ç½ĳä¸Ĭ": 8690,
      "Niets": 8691,
      "Ġmarry": 8692,
      "éĿ©åĳ½": 8693,
      "mas": 8694,
      "zoeken": 8695,
      "çļĦäºĨ": 8696,
      "çļĦè¿Ļ": 8697,
      "ites": 8698,
      "Ġkiezen": 8699,
      "ĠæĪĳä¸įæĺ¯": 8700,
      "ility": 8701,
      "å¾Ĺå¤ª": 8702,
      "ç»ĻæĤ¨": 8703,
      "ĠGel": 8704,
      "Ġschree": 8705,
      "éļĨ": 8706,
      "Ġgrens": 8707,
      "äºĶçĻ¾": 8708,
      "åıĺæĪĲäºĨ": 8709,
      "å¸®å¿Ļ": 8710,
      "æıĲåīį": 8711,
      "æľŁéĹ´": 8712,
      "anning": 8713,
      "Ġfilmp": 8714,
      "Ġzieken": 8715,
      "Ġseconden": 8716,
      "Ġbird": 8717,
      "å°Ĭéĩį": 8718,
      "æĤĦæĤĦ": 8719,
      "ç¯®çĲĥ": 8720,
      "Ken": 8721,
      "kle": 8722,
      "Ġmut": 8723,
      "æĪĳå¦Ī": 8724,
      "reat": 8725,
      "Ġtoeg": 8726,
      "åŃķ": 8727,
      "Ġmezelf": 8728,
      "å¤§å§Ĳ": 8729,
      "ĠSw": 8730,
      "æĪĳä»¬è¦ģ": 8731,
      "ĠChe": 8732,
      "ĠPart": 8733,
      "ceed": 8734,
      "arts": 8735,
      "è¢«äºº": 8736,
      "çĽ´æĴŃ": 8737,
      "FATHER": 8738,
      "åĶ®": 8739,
      "Ġvertelt": 8740,
      "Ġå¯¹äºİ": 8741,
      "ä¸įå¥½æĦıæĢĿ": 8742,
      "Ġstraal": 8743,
      "Ġwindow": 8744,
      "Ġcray": 8745,
      "Ġmachine": 8746,
      "some": 8747,
      "Ġ_": 8748,
      "Ġæĭ¿": 8749,
      "Ġéĩĳ": 8750,
      "Ġtit": 8751,
      "Ġmm": 8752,
      "æĹĹ": 8753,
      "deeld": 8754,
      "æ³°": 8755,
      "ä¸īçĻ¾": 8756,
      "æľ¬äºĭ": 8757,
      "ogn": 8758,
      "åı«åģļ": 8759,
      "å¸¦æĿ¥": 8760,
      "clus": 8761,
      "Ġgehouden": 8762,
      "Ġcurse": 8763,
      "Ġhoorde": 8764,
      "ĠåĸĤ": 8765,
      "èĶ¡": 8766,
      "Ġesc": 8767,
      "Ġvliegtuig": 8768,
      "Ġdromen": 8769,
      "çļĦåħ³ç³»": 8770,
      "Ġvor": 8771,
      "è¿Ļè¿Ļ": 8772,
      "Ġfast": 8773,
      "Ġfuture": 8774,
      "oma": 8775,
      "æľīéĴ±": 8776,
      "å°±è¿Ļæł·": 8777,
      "rodu": 8778,
      "åı¯çĪ±": 8779,
      "Ġforget": 8780,
      "å¹´çºª": 8781,
      "ĠJune": 8782,
      "ç³Ł": 8783,
      "æľºåĻ¨": 8784,
      "æ´»çĿĢ": 8785,
      "Ġ192": 8786,
      "çĸ¾": 8787,
      "ç²Ĵ": 8788,
      "ĠChina": 8789,
      "åĶī": 8790,
      "onderd": 8791,
      "çĶ·çĶŁ": 8792,
      "Hoeveel": 8793,
      "åĪ¶éĢł": 8794,
      "Ġ40": 8795,
      "Ġmonster": 8796,
      "ä»·æł¼": 8797,
      "å¡Ķ": 8798,
      "ĠEngland": 8799,
      "è±Ĩè±Ĩ": 8800,
      "ology": 8801,
      "which": 8802,
      "Ġjoden": 8803,
      "åĨłåĨĽ": 8804,
      "ĠBelg": 8805,
      "Ġcouncil": 8806,
      "NAN": 8807,
      "Sl": 8808,
      "rm": 8809,
      "çļĦå£°éŁ³": 8810,
      "Ġmic": 8811,
      "Ġsoul": 8812,
      "è¿Ķ": 8813,
      "æĪĳè¿ĺæĺ¯": 8814,
      "è¯¸": 8815,
      "ald": 8816,
      "alle": 8817,
      "æī¯": 8818,
      "Ġenkel": 8819,
      "åı¯ä¸įæĺ¯": 8820,
      "Ġerbij": 8821,
      "æĬĬå¥¹": 8822,
      "æĬĬèĩªå·±": 8823,
      "æĥħæĬ¥": 8824,
      "Ġexplain": 8825,
      "æŃ»äº¡": 8826,
      "Ġkloot": 8827,
      "åĸľæ¬¢çļĦ": 8828,
      "éĵº": 8829,
      "Ġfles": 8830,
      "shall": 8831,
      "çŃĶæ¡Īæĺ¯": 8832,
      "Schiet": 8833,
      "grond": 8834,
      "Ġleerlingen": 8835,
      "CHAPTER": 8836,
      "ç¾¡æħķ": 8837,
      "Oke": 8838,
      "Zou": 8839,
      "ube": 8840,
      "çļĦåĲ§": 8841,
      "çļĦåŃ©åŃĲ": 8842,
      "Ġsol": 8843,
      "ä¸įåģľ": 8844,
      "è¿Ļä¸įæĺ¯": 8845,
      "Ġkennis": 8846,
      "æĿ¥åĪ°äºĨ": 8847,
      "raf": 8848,
      "éĹ¯": 8849,
      "ĠHar": 8850,
      "ĠBos": 8851,
      "illen": 8852,
      "æĢİä¹ĪåĽŀäºĭ": 8853,
      "åįģå¹´": 8854,
      "è½¦ä¸Ĭ": 8855,
      "çĲĥåĳĺ": 8856,
      "ä¹¦è®°": 8857,
      "å¤±åİ»": 8858,
      "åĪ¶åº¦": 8859,
      "Ġå¤§åĵ¥": 8860,
      "è¸©": 8861,
      "èģĮä¸ļ": 8862,
      "Ġaccept": 8863,
      "ĠÃ": 8864,
      "ety": 8865,
      "è¿ħ": 8866,
      "Ġdeep": 8867,
      "Ġkopen": 8868,
      "å¥¸": 8869,
      "Ġstor": 8870,
      "åİ»çľĭçľĭ": 8871,
      "å¤ļå¹´": 8872,
      "åĢ¾": 8873,
      "ç¾ŀ": 8874,
      "oger": 8875,
      "å£³": 8876,
      "æ¯ıä¸ªäºº": 8877,
      "Ġgekregen": 8878,
      "ä¼¤å¿ĥ": 8879,
      "èĪŀåı°": 8880,
      "çŀ¬éĹ´": 8881,
      "uch": 8882,
      "Ġä»¥åīį": 8883,
      "Ġdaddy": 8884,
      "ä»¿": 8885,
      "ä»ĳ": 8886,
      "Ġhig": 8887,
      "ingers": 8888,
      "Ġleef": 8889,
      "Ġä½łåı¯": 8890,
      "esterd": 8891,
      "ĠSim": 8892,
      "è¡¡": 8893,
      "ä¸Ńå¿ĥ": 8894,
      "æ´Ľ": 8895,
      "achtig": 8896,
      "Ġprovin": 8897,
      "æģ°": 8898,
      "å¹²åķ¥": 8899,
      "åħ¨éĥ½": 8900,
      "æ¶¦": 8901,
      "èį¡": 8902,
      "ĠZuid": 8903,
      "elsel": 8904,
      "ä¸ĢçĤ¹åĦ¿": 8905,
      "Ġafternoon": 8906,
      "åħ¬åı¸çļĦ": 8907,
      "éĢłæĪĲ": 8908,
      "Ġident": 8909,
      "Ġdiscuss": 8910,
      "èĢ³æľµ": 8911,
      "fession": 8912,
      "æļĤæĹ¶": 8913,
      "esterday": 8914,
      "AM": 8915,
      "DE": 8916,
      "±ä¹Ĳ": 8917,
      "Ġäºİæĺ¯": 8918,
      "Ġwapen": 8919,
      "Ġmun": 8920,
      "Ġgang": 8921,
      "elingen": 8922,
      "esley": 8923,
      "Ġthus": 8924,
      "oorten": 8925,
      "rac": 8926,
      "Ġenorm": 8927,
      "ä¸ĬåŃ¦": 8928,
      "çĽĴ": 8929,
      "ĠBowers": 8930,
      "ĠFred": 8931,
      "åĨįæ¬¡": 8932,
      "uke": 8933,
      "æıĴ": 8934,
      "åĬŀåħ¬": 8935,
      "æ£ī": 8936,
      "ç²īä¸Ŀ": 8937,
      "Ġdistrict": 8938,
      "Ġspeelt": 8939,
      "çĩķ": 8940,
      "Ġvlakdeel": 8941,
      "Ġcases": 8942,
      "Ġdecimalen": 8943,
      "çļĦåıĳå±ķ": 8944,
      "äºĨå¥½": 8945,
      "Ġlived": 8946,
      "Ġinsp": 8947,
      "å°±å¥½äºĨ": 8948,
      "stelling": 8949,
      "Ġvanuit": 8950,
      "éĥ½å·²ç»ı": 8951,
      "åı¯æĢķ": 8952,
      "Ġforgot": 8953,
      "çĦ¶èĢĮ": 8954,
      "è´¼": 8955,
      "åģļå¾Ĺ": 8956,
      "Ġ(\"": 8957,
      "Ġblik": 8958,
      "èĥĥ": 8959,
      "ç¼ĵ": 8960,
      "ç¼ł": 8961,
      "å¤±æľĽ": 8962,
      "Ġmaand": 8963,
      "æ¯ķä¸ļ": 8964,
      "Ġvliegen": 8965,
      "Ġcertainly": 8966,
      "Ġguys": 8967,
      "Ġdokter": 8968,
      "bit": 8969,
      "ä½łåħĪ": 8970,
      "ä¸Ģåı¥è¯Ŀ": 8971,
      "Ġeconom": 8972,
      "anda": 8973,
      "Ġfant": 8974,
      "Ġcake": 8975,
      "igr": 8976,
      "Ġbeurt": 8977,
      "åĪ°è¿ĻåĦ¿": 8978,
      "æĬĳ": 8979,
      "éĥ½åı¯ä»¥": 8980,
      "å°ıèĬ±": 8981,
      "agina": 8982,
      "Ġheren": 8983,
      "ĠGa": 8984,
      "ç¬¨": 8985,
      "åĿ¡": 8986,
      "Ġbreng": 8987,
      "Ġklinkt": 8988,
      "ä»Ĭå¤©çļĦ": 8989,
      "çľ¼åīį": 8990,
      "ansas": 8991,
      "ä¸Ģå®ļæĺ¯": 8992,
      "è£ģ": 8993,
      "afel": 8994,
      "åĮĹå¹³": 8995,
      "çķĻåľ¨": 8996,
      "çŀĴ": 8997,
      "é¦Ļæ¸¯": 8998,
      "ĠåĸĿ": 8999,
      "å®ŀåľ¨æĺ¯": 9000,
      "Ġbottle": 9001,
      "Ġafgelopen": 9002,
      "Gay": 9003,
      "cream": 9004,
      "è¿ģ": 9005,
      "Ġhole": 9006,
      "ä¸įæĿ¥": 9007,
      "æī¶": 9008,
      "Ġenjoy": 9009,
      "roat": 9010,
      "Ġstone": 9011,
      "agn": 9012,
      "ĠMun": 9013,
      "ĠSe": 9014,
      "åĩºåıĳ": 9015,
      "ĠWel": 9016,
      "ĠPres": 9017,
      "æ´¥": 9018,
      "çŁ¥éģĵåĲĹ": 9019,
      "èĬ¬": 9020,
      "è§ģäºĨ": 9021,
      "å¤´åıĳ": 9022,
      "Ġroept": 9023,
      "Ġgeluid": 9024,
      "äº²æĪļ": 9025,
      "ç²Ĺ": 9026,
      "uwen": 9027,
      "pres": 9028,
      "æ¸©æļĸ": 9029,
      "Ġregion": 9030,
      "Ġhoriz": 9031,
      "Ġcontrole": 9032,
      "Ġä¸Ģå®ļè¦ģ": 9033,
      "14": 9034,
      "Lees": 9035,
      "dam": 9036,
      "zijn": 9037,
      "{}$$": 9038,
      "Ġdecl": 9039,
      "alright": 9040,
      "sters": 9041,
      "å¿§": 9042,
      "ä¹Łè®¸": 9043,
      "ĠMin": 9044,
      "ä¸ĭæĿ¥çļĦ": 9045,
      "Weg": 9046,
      "Ġshut": 9047,
      "åĿĳ": 9048,
      "inkel": 9049,
      "Ġafbeeld": 9050,
      "èĦĨ": 9051,
      "å¹²åĩĢ": 9052,
      "Ġbeteken": 9053,
      "äºĶæľĪ": 9054,
      "oeder": 9055,
      "Ġprep": 9056,
      "Ġnatuur": 9057,
      "åĪĽéĢł": 9058,
      "èĴĻåı¤": 9059,
      "éĺ¶æ®µ": 9060,
      "ĠDenemarken": 9061,
      "underline": 9062,
      "ä»Ķç»Ĩ": 9063,
      "Even": 9064,
      "Iemand": 9065,
      "Malley": 9066,
      "Pardon": 9067,
      "eh": 9068,
      "ias": 9069,
      "ki": 9070,
      "laten": 9071,
      "ping": 9072,
      "Ġåħ³": 9073,
      "Ġdest": 9074,
      "ä¸ĢæĬĬ": 9075,
      "ä¸įæĪĲ": 9076,
      "Ġkm": 9077,
      "Ġgeg": 9078,
      "åįľ": 9079,
      "ä¸ºä½ł": 9080,
      "ĠToon": 9081,
      "åĵ¼": 9082,
      "å¯¹ä»ĸ": 9083,
      "è·ŁæĪĳä»¬": 9084,
      "è¡Įè¡Į": 9085,
      "æ´ª": 9086,
      "ĠRalph": 9087,
      "ĠKe": 9088,
      "åĪĨåŃĲ": 9089,
      "ippen": 9090,
      "æıı": 9091,
      "ç¨İ": 9092,
      "laag": 9093,
      "å»·": 9094,
      "å»ºçŃĳ": 9095,
      "Ġå¿ħ": 9096,
      "Ġcheese": 9097,
      "Ġbooks": 9098,
      "ĠAllison": 9099,
      "Ġsym": 9100,
      "çĳ°": 9101,
      "vocaliz": 9102,
      "Ġsense": 9103,
      "geld": 9104,
      "rika": 9105,
      "Ġè¿ĩ": 9106,
      "Ġå¾Īå¤ļ": 9107,
      "Ġnor": 9108,
      "Ġheavy": 9109,
      "Ġjud": 9110,
      "è¯¶": 9111,
      "Ġcamp": 9112,
      "éĤ£æĹ¶åĢĻ": 9113,
      "Ġstap": 9114,
      "å¤§å£°": 9115,
      "å¿½çĦ¶": 9116,
      "æĬ¼": 9117,
      "æĬĸ": 9118,
      "Ġwhom": 9119,
      "estig": 9120,
      "åĲİæĤĶ": 9121,
      "æĥ³è±¡": 9122,
      "Ġregel": 9123,
      "çĶŁåŃĺ": 9124,
      "empt": 9125,
      "åĮª": 9126,
      "rijden": 9127,
      "èĤł": 9128,
      "Ġä¸įå¥½": 9129,
      "åĲĮäºĭ": 9130,
      "æľºæŀĦ": 9131,
      "åĽłä¸ºæĪĳ": 9132,
      "å¤įæĿĤ": 9133,
      "çĽĳæİ§": 9134,
      "è®¨åİĮ": 9135,
      "æī§è¡Į": 9136,
      "Ġcouple": 9137,
      "Ã¶rdinaat": 9138,
      "Ġvijand": 9139,
      "Ġhuman": 9140,
      "Ġsuggest": 9141,
      "Ġcomputer": 9142,
      ".,": 9143,
      "ura": 9144,
      "ĠèĢģå¸Ī": 9145,
      "Ġç¬¬äºĮ": 9146,
      "Ġvres": 9147,
      "ä¸įåĩºæĿ¥": 9148,
      "Ġzaken": 9149,
      "Ġletters": 9150,
      "igs": 9151,
      "Ġä½łè¯´ä½ł": 9152,
      "ilm": 9153,
      "ils": 9154,
      "çĽĨ": 9155,
      "Ġzeven": 9156,
      "å¯¹æīĭ": 9157,
      "ĠEast": 9158,
      "Ġwaarop": 9159,
      "Ġprof": 9160,
      "Ġprima": 9161,
      "èĭĹ": 9162,
      "Ġthema": 9163,
      "Ġvolgen": 9164,
      "ission": 9165,
      "ĠThank": 9166,
      "Ġverliefd": 9167,
      "èĦĳåŃĲ": 9168,
      "ĠæĿ¥æĿ¥æĿ¥": 9169,
      "Ġnamelijk": 9170,
      "Ġexcla": 9171,
      "æ¬§æ´²": 9172,
      "Zelfs": 9173,
      "dr": 9174,
      "Ġdad": 9175,
      "Ġnorth": 9176,
      "æĺ¯ä¸ºäºĨ": 9177,
      "Ġdev": 9178,
      "Ġpage": 9179,
      "Ġkerk": 9180,
      "Ġinhoud": 9181,
      "åľ¨ä¸Ģ": 9182,
      "ĠæĪĳæĿ¥": 9183,
      "åİ¢": 9184,
      "chtend": 9185,
      "ĠSl": 9186,
      "ä¸ĭåįĪ": 9187,
      "åĲİçļĦ": 9188,
      "Ġzeer": 9189,
      "lymp": 9190,
      "æĭ³": 9191,
      "ä¸įæĺ¯æĪĳ": 9192,
      "ĠKennis": 9193,
      "ç½¢": 9194,
      "æį¡": 9195,
      "æįī": 9196,
      "Ġslow": 9197,
      "è§£æĶ¾": 9198,
      "èĻ¾": 9199,
      "è¿ĺæľīä¸Ģä¸ª": 9200,
      "äº²çĪ±çļĦ": 9201,
      "å¤«å¦»": 9202,
      "é¾Ł": 9203,
      "éĿĴèĽĻ": 9204,
      "Ġgeschreven": 9205,
      "Ġgelukkig": 9206,
      "Ġsubject": 9207,
      "Ġnergens": 9208,
      "ĠJuly": 9209,
      "Kamba": 9210,
      "OM": 9211,
      "night": 9212,
      "Ġtail": 9213,
      "Ġtrouwen": 9214,
      "çļĦåİŁåĽł": 9215,
      "Ġsilly": 9216,
      "Ġiedere": 9217,
      "ä½łè¿Ļä¸ª": 9218,
      "äºĨåĳĢ": 9219,
      "ä¸Ģè¾ĪåŃĲ": 9220,
      "æī£": 9221,
      "ĠæĪĳæľī": 9222,
      "ä¹Łå¾Ĺ": 9223,
      "ä¼ļéķ¿": 9224,
      "Ġgoats": 9225,
      "oph": 9226,
      "çĤĴ": 9227,
      "ĠLees": 9228,
      "éĹ®ä»ĸ": 9229,
      "iviteit": 9230,
      "æ·»": 9231,
      "ĠZij": 9232,
      "éĵľ": 9233,
      "Ġzichzelf": 9234,
      "æĺŁæľŁ": 9235,
      "Ġtelling": 9236,
      "Ġaccount": 9237,
      "ĠcoÃ¶rdinaten": 9238,
      "Ġbepaald": 9239,
      "Ġbegrijpen": 9240,
      "é¢ľèī²": 9241,
      "bin": 9242,
      "ky": 9243,
      "Ġ;": 9244,
      "Ġçľĭçľĭ": 9245,
      "ares": 9246,
      "aling": 9247,
      "erecht": 9248,
      "åĩĮ": 9249,
      "ĠAugust": 9250,
      "imit": 9251,
      "ç»Ļå¤§å®¶": 9252,
      "aans": 9253,
      "ĠWorld": 9254,
      "teen": 9255,
      "Ġ28": 9256,
      "åĪĨåĪ«": 9257,
      "åħ¬åħ¬": 9258,
      "Ġpress": 9259,
      "itted": 9260,
      "çī©è´¨": 9261,
      "çł¸": 9262,
      "Ġgrew": 9263,
      "ĠåĽłä¸ºæĪĳ": 9264,
      "ç«Ļä½ı": 9265,
      "é¡ºåĪ©": 9266,
      "Ġpieces": 9267,
      "Ġgeneral": 9268,
      "ĠOnder": 9269,
      "åį°è±¡": 9270,
      "Ġgisteren": 9271,
      "çİ«çĳ°": 9272,
      "ST": 9273,
      "aus": 9274,
      "cer": 9275,
      "jij": 9276,
      "point": 9277,
      "ºçī²": 9278,
      "Ġâ": 9279,
      "ĠéĻĨ": 9280,
      "Ġmuur": 9281,
      "edia": 9282,
      "Ġpublic": 9283,
      "Ġfre": 9284,
      "Ġkoff": 9285,
      "Ġstuck": 9286,
      "å¯¹çĿĢ": 9287,
      "ĠBro": 9288,
      "çīºçī²": 9289,
      "ĠCity": 9290,
      "ĠCount": 9291,
      "ĠJones": 9292,
      "ekst": 9293,
      "Ġcomfort": 9294,
      "åı«æĪĳ": 9295,
      "Ġdrank": 9296,
      "ç¾İçļĦ": 9297,
      "bled": 9298,
      "Ġæľīäºº": 9299,
      "Ġputting": 9300,
      "æ»¡äºĨ": 9301,
      "Ġfeit": 9302,
      "slaan": 9303,
      "æĬĵä½ı": 9304,
      "å¤ļå°ĳéĴ±": 9305,
      "please": 9306,
      "Ġbelangrijkste": 9307,
      "Ġliked": 9308,
      "Ġimag": 9309,
      "ĠWaarom": 9310,
      "ĠDuitsland": 9311,
      "Ġbood": 9312,
      "ushed": 9313,
      "ĠéĤ£æĪĳä»¬": 9314,
      "ĠNow": 9315,
      "ĠJoe": 9316,
      "æĻĥ": 9317,
      "åĬ¨çļĦ": 9318,
      "Ġafspraak": 9319,
      "å¥³çĶŁ": 9320,
      "èī°": 9321,
      "ffic": 9322,
      "ections": 9323,
      "ç¾İäºº": 9324,
      "ç«ĭåį³": 9325,
      "çģ«è½¦": 9326,
      "Ġåįĥ": 9327,
      "åħ´å¥ĭ": 9328,
      "Ġijs": 9329,
      "Ġbleef": 9330,
      "äº¿åħĥ": 9331,
      "Ġcircumcised": 9332,
      "13": 9333,
      "aft": 9334,
      "Ġèĭ¥": 9335,
      "heb": 9336,
      "Ġsitting": 9337,
      "Ġhealth": 9338,
      "è¯ĳ": 9339,
      "Ġtoward": 9340,
      "åľ¨æĪĳä»¬": 9341,
      "ĠæĪĳå¦Ī": 9342,
      "Ġstat": 9343,
      "èĢ½": 9344,
      "è°İ": 9345,
      "Ġherinner": 9346,
      "å¹´é¾Ħ": 9347,
      "ä¹ĭå¤ĸ": 9348,
      "ĠRob": 9349,
      "åįģä¸ĩ": 9350,
      "èĤ©": 9351,
      "èĬ±åĽŃ": 9352,
      "åĩłä¹İ": 9353,
      "æ·ĺ": 9354,
      "åĨħéĥ¨": 9355,
      "æķħéĢī": 9356,
      "Ġverschil": 9357,
      "é¹ħ": 9358,
      "Welke": 9359,
      "Any": 9360,
      "Ġsocial": 9361,
      "Ġearth": 9362,
      "Ġinclud": 9363,
      "With": 9364,
      "doen": 9365,
      "Ġduur": 9366,
      "çļĦè¿Ļç§į": 9367,
      "Ġap": 9368,
      "Ġbracht": 9369,
      "Ġyellow": 9370,
      "ida": 9371,
      "æĹ¶åĪ»": 9372,
      "æ³ī": 9373,
      "wege": 9374,
      "å¥³ä¸»": 9375,
      "Ġsnij": 9376,
      "Ġgevol": 9377,
      "çĨ¬": 9378,
      "æ»¡æĦı": 9379,
      "Ġlonger": 9380,
      "æłĳæŀĹ": 9381,
      "Ġeating": 9382,
      "coÃ¶rdinaat": 9383,
      "Ġmotor": 9384,
      "AB": 9385,
      "hoe": 9386,
      "loos": 9387,
      "wed": 9388,
      "Ġdue": 9389,
      "äºķ": 9390,
      "çļĦæĸ°": 9391,
      "Ġhuid": 9392,
      "Ġthr": 9393,
      "ĠII": 9394,
      "icy": 9395,
      "ĠMot": 9396,
      "æĹ¶çļĦ": 9397,
      "ĠWhere": 9398,
      "Ġherinn": 9399,
      "ĠGiff": 9400,
      "osh": 9401,
      "å®ļäºĨ": 9402,
      "æľĢå¥½": 9403,
      "Ġnearly": 9404,
      "Ġkunst": 9405,
      "pper": 9406,
      "åĳ¨åĽ´": 9407,
      "Ġprobeert": 9408,
      "Ġstraks": 9409,
      "ĠIndians": 9410,
      "åģ·åģ·": 9411,
      "Ġverandert": 9412,
      "ebru": 9413,
      "Ġaangegeven": 9414,
      "Ġtemperatuur": 9415,
      "Ġlanguage": 9416,
      "Ġhorizont": 9417,
      "):": 9418,
      "Hel": 9419,
      "Uh": 9420,
      "Ġèµµ": 9421,
      "Ġzuid": 9422,
      "è¿Ļä¸¤": 9423,
      "rey": 9424,
      "ĠæĪĳä»Ĭå¤©": 9425,
      "vecht": 9426,
      "å¯º": 9427,
      "ĠAlex": 9428,
      "åĳ¢å°±æĺ¯": 9429,
      "Ġreger": 9430,
      "ĠWie": 9431,
      "æĢİæł·": 9432,
      "åĪ«åĪ«": 9433,
      "ĠRoy": 9434,
      "åįģä¸ī": 9435,
      "achtbare": 9436,
      "Ġhierheen": 9437,
      "è¿Ļä¹Īå¤§": 9438,
      "èĻ¹": 9439,
      "äº¤æĺĵ": 9440,
      "Ġloved": 9441,
      "Ġremain": 9442,
      "Ġåĸľ": 9443,
      "Ġopgave": 9444,
      "ç³Ĭæ¶Ĥ": 9445,
      "Ġparticular": 9446,
      "Ġchanged": 9447,
      "200": 9448,
      "bre": 9449,
      "cont": 9450,
      "zi": 9451,
      "ĠåĲĳ": 9452,
      "Ġduurt": 9453,
      "ä¸įåĨį": 9454,
      "ä¸įæĦ¿æĦı": 9455,
      "Ġlad": 9456,
      "è¯ŀ": 9457,
      "Ġcy": 9458,
      "Ġinwoners": 9459,
      "å°±åİ»": 9460,
      "ĠæĪĳè·Łä½ł": 9461,
      "Ġstel": 9462,
      "Ġä½łæľī": 9463,
      "veren": 9464,
      "æ²¡äºĭåĦ¿": 9465,
      "åı¯æĥľ": 9466,
      "è°ħ": 9467,
      "Ġzoiets": 9468,
      "åģļåĩº": 9469,
      "å·¥åħ·": 9470,
      "ousand": 9471,
      "Ġworked": 9472,
      "Ġæ²¡æĥ³åĪ°": 9473,
      "Ġbroke": 9474,
      "åĭ¤": 9475,
      "Ġobser": 9476,
      "Ġposition": 9477,
      "Ġlearned": 9478,
      "Ġleeftijd": 9479,
      "sych": 9480,
      "Ġpaid": 9481,
      "Ġnauwke": 9482,
      "ĠChinese": 9483,
      "ebruary": 9484,
      "IE": 9485,
      "PO": 9486,
      "UR": 9487,
      "bor": 9488,
      "za": 9489,
      "hee": 9490,
      "æĪĳåĳĢ": 9491,
      "oute": 9492,
      "Ġfail": 9493,
      "Ġkids": 9494,
      "Ġstuur": 9495,
      "Ġstof": 9496,
      "iling": 9497,
      "æĬĽ": 9498,
      "ä¹ŁæĮº": 9499,
      "ĠMum": 9500,
      "Ġalbum": 9501,
      "æĢİä¹Īä¼ļ": 9502,
      "Ġomge": 9503,
      "ä¹ĭä¸Ń": 9504,
      "ĠKamba": 9505,
      "Ġwaarvan": 9506,
      "Ġgeleerd": 9507,
      "Ġä¸ĢçĽ´": 9508,
      "rence": 9509,
      "ä¸ŃåĽ½äºº": 9510,
      "Ġå¯¹äºĨ": 9511,
      "oogle": 9512,
      "èİī": 9513,
      "å»ºç«ĭ": 9514,
      "åĨĻçļĦ": 9515,
      "å°½ç®¡": 9516,
      "ä¸ĵéĹ¨": 9517,
      "resh": 9518,
      "itude": 9519,
      "Ġoorsp": 9520,
      "Ġfinish": 9521,
      "elpunt": 9522,
      "Ġtoekomst": 9523,
      "Ġæī¾": 9524,
      "ĠéĴ±": 9525,
      "eless": 9526,
      "ä¸įå¼Ģ": 9527,
      "Ġfinger": 9528,
      "Ġyesterday": 9529,
      "ĠArab": 9530,
      "ĠApril": 9531,
      "åĦ¿çļĦ": 9532,
      "æĥ³èµ·": 9533,
      "geant": 9534,
      "ĠWho": 9535,
      "æ±ª": 9536,
      "æīįä¼ļ": 9537,
      "Ġterm": 9538,
      "äºĨä¸ĢäºĽ": 9539,
      "äº¤æµģ": 9540,
      "çĹħæ¯Ĵ": 9541,
      "æ·±åĪ»": 9542,
      "Ġseries": 9543,
      "gebied": 9544,
      "Ġweeks": 9545,
      "åĢ¼å¾Ĺ": 9546,
      "æİĮæı¡": 9547,
      "å¢ŀéķ¿": 9548,
      "produ": 9549,
      "Ġwaiting": 9550,
      "æ¾¡": 9551,
      "Ġdrive": 9552,
      "è®¨è®º": 9553,
      "ĠæĹłè®º": 9554,
      "Ġnecessary": 9555,
      "Ġexclaimed": 9556,
      "Because": 9557,
      "gar": 9558,
      "¥åĮ": 9559,
      "Ġæ¯Ķ": 9560,
      "Ġdut": 9561,
      "Ġmaan": 9562,
      "Ġsad": 9563,
      "Ġleeg": 9564,
      "oose": 9565,
      "ĠæĪĳåı¯ä»¥": 9566,
      "raken": 9567,
      "Ġvoorbeeld": 9568,
      "æĮĸ": 9569,
      "ĠOver": 9570,
      "ĠOlymp": 9571,
      "ĠRond": 9572,
      "åįģä¸ĥ": 9573,
      "å½ĵåĪĿ": 9574,
      "é¢ĺçĽ®": 9575,
      "çī©ä½ĵ": 9576,
      "éĥ¨éĹ¨": 9577,
      "Ġseason": 9578,
      "Ġhoef": 9579,
[...]
