{
  "version": "1.0",
  "truncation": null,
  "padding": null,
  "added_tokens": [
    {
      "id": 0,
      "content": "<unk>",
      "single_word": false,
      "lstrip": false,
      "rstrip": false,
      "normalized": false,
      "special": true
    },
    {
      "id": 1,
      "content": "<s>",
      "single_word": false,
      "lstrip": false,
      "rstrip": false,
      "normalized": false,
      "special": true
    },
    {
      "id": 2,
      "content": "</s>",
      "single_word": false,
      "lstrip": false,
      "rstrip": false,
      "normalized": false,
      "special": true
    },
    {
      "id": 3,
      "content": "<pad>",
      "single_word": false,
      "lstrip": false,
      "rstrip": false,
      "normalized": false,
      "special": true
    },
    {
      "id": 4,
      "content": "<mask>",
      "single_word": false,
      "lstrip": false,
      "rstrip": false,
      "normalized": false,
      "special": true
    },
    {
      "id": 5,
      "content": "，",
      "single_word": false,
      "lstrip": false,
      "rstrip": false,
      "normalized": false,
      "special": true
    },
    {
      "id": 6,
      "content": "。",
      "single_word": false,
      "lstrip": false,
      "rstrip": false,
      "normalized": false,
      "special": true
    },
    {
      "id": 7,
      "content": "、",
      "single_word": false,
      "lstrip": false,
      "rstrip": false,
      "normalized": false,
      "special": true
    },
    {
      "id": 8,
      "content": "！",
      "single_word": false,
      "lstrip": false,
      "rstrip": false,
      "normalized": false,
      "special": true
    },
    {
      "id": 9,
      "content": "？",
      "single_word": false,
      "lstrip": false,
      "rstrip": false,
      "normalized": false,
      "special": true
    },
    {
      "id": 10,
      "content": "：",
      "single_word": false,
      "lstrip": false,
      "rstrip": false,
      "normalized": false,
      "special": true
    },
    {
      "id": 11,
      "content": "；",
      "single_word": false,
      "lstrip": false,
      "rstrip": false,
      "normalized": false,
      "special": true
    },
    {
      "id": 12,
      "content": "「",
      "single_word": false,
      "lstrip": false,
      "rstrip": false,
      "normalized": false,
      "special": true
    },
    {
      "id": 13,
      "content": "」",
      "single_word": false,
      "lstrip": false,
      "rstrip": false,
      "normalized": false,
      "special": true
    },
    {
      "id": 14,
      "content": "（",
      "single_word": false,
      "lstrip": false,
      "rstrip": false,
      "normalized": false,
      "special": true
    },
    {
      "id": 15,
      "content": "）",
      "single_word": false,
      "lstrip": false,
      "rstrip": false,
      "normalized": false,
      "special": true
    },
    {
      "id": 16,
      "content": "《",
      "single_word": false,
      "lstrip": false,
      "rstrip": false,
      "normalized": false,
      "special": true
    },
    {
      "id": 17,
      "content": "》",
      "single_word": false,
      "lstrip": false,
      "rstrip": false,
      "normalized": false,
      "special": true
    },
    {
      "id": 18,
      "content": "【",
      "single_word": false,
      "lstrip": false,
      "rstrip": false,
      "normalized": false,
      "special": true
    },
    {
      "id": 19,
      "content": "】",
      "single_word": false,
      "lstrip": false,
      "rstrip": false,
      "normalized": false,
      "special": true
    }
  ],
  "normalizer": null,
  "pre_tokenizer": {
    "type": "ByteLevel",
    "add_prefix_space": true,
    "trim_offsets": true,
    "use_regex": true
  },
  "post_processor": {
    "type": "TemplateProcessing",
    "single": [
      {
        "SpecialToken": {
          "id": "<s>",
          "type_id": 0
        }
      },
      {
        "Sequence": {
          "id": "A",
          "type_id": 0
        }
      },
      {
        "SpecialToken": {
          "id": "</s>",
          "type_id": 0
        }
      }
    ],
    "pair": [
      {
        "SpecialToken": {
          "id": "<s>",
          "type_id": 0
        }
      },
      {
        "Sequence": {
          "id": "A",
          "type_id": 0
        }
      },
      {
        "SpecialToken": {
          "id": "</s>",
          "type_id": 0
        }
      },
      {
        "SpecialToken": {
          "id": "<s>",
          "type_id": 0
        }
      },
      {
        "Sequence": {
          "id": "B",
          "type_id": 0
        }
      },
      {
        "SpecialToken": {
          "id": "</s>",
          "type_id": 0
        }
      }
    ],
    "special_tokens": {
      "</s>": {
        "id": "</s>",
        "ids": [
          2
        ],
        "tokens": [
          "</s>"
        ]
      },
      "<s>": {
        "id": "<s>",
        "ids": [
          1
        ],
        "tokens": [
          "<s>"
        ]
      }
    }
  },
  "decoder": {
    "type": "ByteLevel",
    "add_prefix_space": true,
    "trim_offsets": true,
    "use_regex": true
  },
  "model": {
    "type": "BPE",
    "dropout": null,
    "unk_token": null,
    "continuing_subword_prefix": null,
    "end_of_word_suffix": null,
    "fuse_unk": false,
    "byte_fallback": false,
    "ignore_merges": false,
    "vocab": {
      "<unk>": 0,
      "<s>": 1,
      "</s>": 2,
      "<pad>": 3,
      "<mask>": 4,
      "，": 5,
      "。": 6,
      "、": 7,
      "！": 8,
      "？": 9,
      "：": 10,
      "；": 11,
      "「": 12,
      "」": 13,
      "（": 14,
      "）": 15,
      "《": 16,
      "》": 17,
      "【": 18,
      "】": 19,
      "!": 20,
      "\"": 21,
      "#": 22,
      "$": 23,
      "%": 24,
      "&": 25,
      "'": 26,
      "(": 27,
      ")": 28,
      "*": 29,
      "+": 30,
      ",": 31,
      "-": 32,
      ".": 33,
      "/": 34,
      "0": 35,
      "1": 36,
      "2": 37,
      "3": 38,
      "4": 39,
      "5": 40,
      "6": 41,
      "7": 42,
      "8": 43,
      "9": 44,
      ":": 45,
      ";": 46,
      "<": 47,
      "=": 48,
      ">": 49,
      "?": 50,
      "@": 51,
      "A": 52,
      "B": 53,
      "C": 54,
      "D": 55,
      "E": 56,
      "F": 57,
      "G": 58,
      "H": 59,
      "I": 60,
      "J": 61,
      "K": 62,
      "L": 63,
      "M": 64,
      "N": 65,
      "O": 66,
      "P": 67,
      "Q": 68,
      "R": 69,
      "S": 70,
      "T": 71,
      "U": 72,
      "V": 73,
      "W": 74,
      "X": 75,
      "Y": 76,
      "Z": 77,
      "[": 78,
      "\\": 79,
      "]": 80,
      "^": 81,
      "_": 82,
      "`": 83,
      "a": 84,
      "b": 85,
      "c": 86,
      "d": 87,
      "e": 88,
      "f": 89,
      "g": 90,
      "h": 91,
      "i": 92,
      "j": 93,
      "k": 94,
      "l": 95,
      "m": 96,
      "n": 97,
      "o": 98,
      "p": 99,
      "q": 100,
      "r": 101,
      "s": 102,
      "t": 103,
      "u": 104,
      "v": 105,
      "w": 106,
      "x": 107,
      "y": 108,
      "z": 109,
      "{": 110,
      "|": 111,
      "}": 112,
      "~": 113,
      "¡": 114,
      "¢": 115,
      "£": 116,
      "¤": 117,
      "¥": 118,
      "¦": 119,
      "§": 120,
      "¨": 121,
      "©": 122,
      "ª": 123,
      "«": 124,
      "¬": 125,
      "®": 126,
      "¯": 127,
      "°": 128,
      "±": 129,
      "²": 130,
      "³": 131,
      "´": 132,
      "µ": 133,
      "¶": 134,
      "·": 135,
      "¸": 136,
      "¹": 137,
      "º": 138,
      "»": 139,
      "¼": 140,
      "½": 141,
      "¾": 142,
      "¿": 143,
      "À": 144,
      "Á": 145,
      "Â": 146,
      "Ã": 147,
      "Ä": 148,
      "Å": 149,
      "Æ": 150,
      "Ç": 151,
      "È": 152,
      "É": 153,
      "Ê": 154,
      "Ë": 155,
      "Ì": 156,
      "Í": 157,
      "Î": 158,
      "Ï": 159,
      "Ð": 160,
      "Ñ": 161,
      "Ò": 162,
      "Ó": 163,
      "Ô": 164,
      "Õ": 165,
      "Ö": 166,
      "×": 167,
      "Ø": 168,
      "Ù": 169,
      "Ú": 170,
      "Û": 171,
      "Ü": 172,
      "Ý": 173,
      "Þ": 174,
      "ß": 175,
      "à": 176,
      "á": 177,
      "â": 178,
      "ã": 179,
      "ä": 180,
      "å": 181,
      "æ": 182,
      "ç": 183,
      "è": 184,
      "é": 185,
      "ê": 186,
      "ë": 187,
      "ì": 188,
      "í": 189,
      "î": 190,
      "ï": 191,
      "ð": 192,
      "ñ": 193,
      "ò": 194,
      "ó": 195,
      "ô": 196,
      "õ": 197,
      "ö": 198,
      "÷": 199,
      "ø": 200,
      "ù": 201,
      "ú": 202,
      "û": 203,
      "ü": 204,
      "ý": 205,
      "þ": 206,
      "ÿ": 207,
      "Ā": 208,
      "ā": 209,
      "Ă": 210,
      "ă": 211,
      "Ą": 212,
      "ą": 213,
      "Ć": 214,
      "ć": 215,
      "Ĉ": 216,
      "ĉ": 217,
      "Ċ": 218,
      "ċ": 219,
      "Č": 220,
      "č": 221,
      "Ď": 222,
      "ď": 223,
      "Đ": 224,
      "đ": 225,
      "Ē": 226,
      "ē": 227,
      "Ĕ": 228,
      "ĕ": 229,
      "Ė": 230,
      "ė": 231,
      "Ę": 232,
      "ę": 233,
      "Ě": 234,
      "ě": 235,
      "Ĝ": 236,
      "ĝ": 237,
      "Ğ": 238,
      "ğ": 239,
      "Ġ": 240,
      "ġ": 241,
      "Ģ": 242,
      "ģ": 243,
      "Ĥ": 244,
      "ĥ": 245,
      "Ħ": 246,
      "ħ": 247,
      "Ĩ": 248,
      "ĩ": 249,
      "Ī": 250,
      "ī": 251,
      "Ĭ": 252,
      "ĭ": 253,
      "Į": 254,
      "į": 255,
      "İ": 256,
      "ı": 257,
      "Ĳ": 258,
      "ĳ": 259,
      "Ĵ": 260,
      "ĵ": 261,
      "Ķ": 262,
      "ķ": 263,
      "ĸ": 264,
      "Ĺ": 265,
      "ĺ": 266,
      "Ļ": 267,
      "ļ": 268,
      "Ľ": 269,
      "ľ": 270,
      "Ŀ": 271,
      "ŀ": 272,
      "Ł": 273,
      "ł": 274,
      "Ń": 275,
      "Ġt": 276,
      "he": 277,
      "Ġa": 278,
      "in": 279,
      "en": 280,
      "Ġw": 281,
      "er": 282,
      "Ġthe": 283,
      "Ġs": 284,
      "ou": 285,
      "Ġo": 286,
      "re": 287,
      "at": 288,
      "an": 289,
      "Ġd": 290,
      "Ġb": 291,
      "Ġm": 292,
      "is": 293,
      "it": 294,
      "on": 295,
      "Ġh": 296,
      "Ġc": 297,
      "or": 298,
      "ing": 299,
      "ar": 300,
      "ed": 301,
      "ll": 302,
      "Ġf": 303,
      "nd": 304,
      "Ġg": 305,
      "es": 306,
      "Ġto": 307,
      "Ġp": 308,
      "Ġth": 309,
      "Ġn": 310,
      "Ġl": 311,
      "OT": 312,
      "Ġy": 313,
      "MOT": 314,
      "et": 315,
      "as": 316,
      "Ġhe": 317,
      "Ġin": 318,
      "Ġand": 319,
      "Ġof": 320,
      "Ġyou": 321,
      "om": 322,
      "CH": 323,
      "CHI": 324,
      "el": 325,
      "ot": 326,
      "ĠI": 327,
      "ow": 328,
      "Ġ.": 329,
      "'s": 330,
      "Ġv": 331,
      "ic": 332,
      "al": 333,
      "Ġe": 334,
      "Ġon": 335,
      "le": 336,
      "Ġis": 337,
      "st": 338,
      "Ġit": 339,
      "ad": 340,
      "ay": 341,
      "ve": 342,
      "id": 343,
      "ig": 344,
      "Ġk": 345,
      "Ġbe": 346,
      "Ġthat": 347,
      "oo": 348,
      "ch": 349,
      "ij": 350,
      "Ġu": 351,
      "Ġwas": 352,
      "Ġde": 353,
      "ut": 354,
      "hat": 355,
      "ld": 356,
      "ent": 357,
      "am": 358,
      "im": 359,
      "Ġj": 360,
      "Ġst": 361,
      "se": 362,
      "ie": 363,
      "Ġre": 364,
      "and": 365,
      "..": 366,
      "Ġr": 367,
      "ver": 368,
      "ir": 369,
      "Ġdo": 370,
      "Ġwe": 371,
      "'t": 372,
      "ĠT": 373,
      "ht": 374,
      "Ġz": 375,
      "ke": 376,
      "ac": 377,
      "ion": 378,
      "Ġfor": 379,
      "ĠS": 380,
      "ur": 381,
      "Ġme": 382,
      "Ġha": 383,
      "ĠA": 384,
      "out": 385,
      "ĠM": 386,
      "il": 387,
      "ith": 388,
      "all": 389,
      "ro": 390,
      "ter": 391,
      "Ġwith": 392,
      "her": 393,
      "ly": 394,
      "Ġan": 395,
      "ight": 396,
      "ĠH": 397,
      "ĠB": 398,
      "ea": 399,
      "ill": 400,
      "ĠC": 401,
      "Ġas": 402,
      "ee": 403,
      "Ġgo": 404,
      "ome": 405,
      "Ġwh": 406,
      "un": 407,
      "if": 408,
      "ag": 409,
      "aar": 410,
      "ant": 411,
      "Ġat": 412,
      "Ġnot": 413,
      "ĠD": 414,
      "op": 415,
      "ould": 416,
      "ce": 417,
      "Ġen": 418,
      "ct": 419,
      "Ġ,": 420,
      "Ġmo": 421,
      "Ġhave": 422,
      "Ġthis": 423,
      "ell": 424,
      "ra": 425,
      "us": 426,
      "um": 427,
      "Ġal": 428,
      "ust": 429,
      "Ġhis": 430,
      "ol": 431,
      "here": 432,
      "Ġ\"": 433,
      "Ġsh": 434,
      "ri": 435,
      "ak": 436,
      "ers": 437,
      "Ġkn": 438,
      "Ġare": 439,
      "est": 440,
      "Ġall": 441,
      "ook": 442,
      "Ġje": 443,
      "Ġeen": 444,
      "ĠP": 445,
      "th": 446,
      "Ġli": 447,
      "ĠW": 448,
      "Ġ1": 449,
      "Ġthey": 450,
      "Ġhad": 451,
      "Ġhet": 452,
      "ere": 453,
      "oor": 454,
      "ap": 455,
      "Ġone": 456,
      "Ġne": 457,
      "ain": 458,
      "Ġup": 459,
      "ĠG": 460,
      "Ġher": 461,
      "iet": 462,
      "Ġthere": 463,
      "Ġcan": 464,
      "ul": 465,
      "Ġno": 466,
      "our": 467,
      "Ġfr": 468,
      "ind": 469,
      "Ġyour": 470,
      "em": 471,
      "Ġknow": 472,
      "...": 473,
      "Ġver": 474,
      "Ġso": 475,
      "ard": 476,
      "ood": 477,
      "Ġvan": 478,
      "ĠThe": 479,
      "ab": 480,
      "eah": 481,
      "Ġ?": 482,
      "ik": 483,
      "ĠL": 484,
      "Ġwhat": 485,
      "Ġshe": 486,
      "ĠN": 487,
      "Ġdon": 488,
      "Ġop": 489,
      "ven": 490,
      "xx": 491,
      "au": 492,
      "ĠJ": 493,
      "Ġpl": 494,
      "IN": 495,
      "Ġ'": 496,
      "oug": 497,
      "Ġmy": 498,
      "end": 499,
      "Ġch": 500,
      "ĠF": 501,
      "Ġwor": 502,
      "art": 503,
      "ĠE": 504,
      "hen": 505,
      "Ġhim": 506,
      "ist": 507,
      "ack": 508,
      "Ġor": 509,
      "ĠR": 510,
      "Ġsa": 511,
      "pp": 512,
      "ink": 513,
      "Ġout": 514,
      "ry": 515,
      "os": 516,
      "ast": 517,
      "ation": 518,
      "ge": 519,
      "Ġfrom": 520,
      "Ġbut": 521,
      "ck": 522,
      "ess": 523,
      "Ġab": 524,
      "Ġge": 525,
      "AT": 526,
      "Ġte": 527,
      "INV": 528,
      "Ġer": 529,
      "oh": 530,
      "Ġsp": 531,
      "ake": 532,
      "Ġlike": 533,
      "Ġ2": 534,
      "ong": 535,
      "Ġby": 536,
      "'re": 537,
      "ijn": 538,
      "Ġwere": 539,
      "Ġget": 540,
      "Ġsu": 541,
      "The": 542,
      "ame": 543,
      "You": 544,
      "ound": 545,
      "Ġdat": 546,
      "qu": 547,
      "ä¸": 548,
      "Ġcom": 549,
      "ich": 550,
      "res": 551,
      "Ġthem": 552,
      "one": 553,
      "Ġsee": 554,
      "ok": 555,
      "no": 556,
      "itt": 557,
      "ĠO": 558,
      "ond": 559,
      "Ġse": 560,
      "Ġniet": 561,
      "Ġ(": 562,
      "--": 563,
      "own": 564,
      "Ġman": 565,
      "you": 566,
      "Ġdid": 567,
      "what": 568,
      "od": 569,
      "Ġle": 570,
      "Ġover": 571,
      ".\"": 572,
      "'m": 573,
      "ally": 574,
      "Ġsome": 575,
      "Ġcon": 576,
      "Ġex": 577,
      "Ġabout": 578,
      "ft": 579,
      "ber": 580,
      "FAT": 581,
      "Ġgot": 582,
      "ort": 583,
      "ang": 584,
      "Ġpro": 585,
      "ore": 586,
      "na": 587,
      "ive": 588,
      "Ġwant": 589,
      "ies": 590,
      "ep": 591,
      "are": 592,
      "Ik": 593,
      "Ġtw": 594,
      "Ġlook": 595,
      "ick": 596,
      "Ġthink": 597,
      "'ll": 598,
      "Ġhere": 599,
      "].": 600,
      "Ġsaid": 601,
      "Ġik": 602,
      "Ġwould": 603,
      "ine": 604,
      "ect": 605,
      "ice": 606,
      "Ġar": 607,
      "ough": 608,
      "Ġwho": 609,
      "Ġjust": 610,
      "Ġbo": 611,
      "ate": 612,
      "yeah": 613,
      "ide": 614,
      "ĠK": 615,
      "den": 616,
      "ime": 617,
      "Ġus": 618,
      "Ġif": 619,
      "Ġwill": 620,
      "Ġwat": 621,
      "oe": 622,
      "ru": 623,
      "ank": 624,
      "Ġthen": 625,
      "Ġwhen": 626,
      "Ġaf": 627,
      "ous": 628,
      "nt": 629,
      "Ġany": 630,
      "Ġbl": 631,
      "we": 632,
      "Ġbr": 633,
      "hing": 634,
      "cht": 635,
      "Ġnow": 636,
      "gen": 637,
      "Ġmet": 638,
      "to": 639,
      "other": 640,
      "ijk": 641,
      "ther": 642,
      "Ġsay": 643,
      "de": 644,
      "Ġvoor": 645,
      "ĠHe": 646,
      "Ġright": 647,
      "that": 648,
      "Ġbeen": 649,
      "ure": 650,
      "Ġag": 651,
      "ier": 652,
      "Ġ19": 653,
      "ip": 654,
      "Ġze": 655,
      "Ġcl": 656,
      "way": 657,
      ",\"": 658,
      "Ġwhich": 659,
      "Ġdown": 660,
      "ose": 661,
      "Ġ20": 662,
      "'ve": 663,
      "ire": 664,
      "Ġals": 665,
      "be": 666,
      "Ġtheir": 667,
      "Ġgr": 668,
      "ite": 669,
      "ree": 670,
      "It": 671,
      "ittle": 672,
      "We": 673,
      "xxx": 674,
      "Ġzijn": 675,
      "Ġfe": 676,
      "ity": 677,
      "ĠIt": 678,
      "Ġtime": 679,
      "Ġmore": 680,
      "Ġoff": 681,
      "ause": 682,
      "Ġhas": 683,
      "Ġback": 684,
      "ace": 685,
      "Ġ[": 686,
      "Ġlittle": 687,
      "Ġcould": 688,
      "Ġgoing": 689,
      "ish": 690,
      "Ġput": 691,
      "Ġgood": 692,
      "äº": 693,
      "He": 694,
      "iv": 695,
      "ull": 696,
      "Ġlo": 697,
      "elf": 698,
      "Ġheb": 699,
      "ens": 700,
      "Ġvery": 701,
      "ff": 702,
      "ia": 703,
      "ild": 704,
      "Ġother": 705,
      "ings": 706,
      "reat": 707,
      "Ġpe": 708,
      "aat": 709,
      "Ġpr": 710,
      "ass": 711,
      "ĠV": 712,
      "ze": 713,
      "Ġ...": 714,
      "Ġqu": 715,
      "ars": 716,
      "AR": 717,
      "my": 718,
      "age": 719,
      "nder": 720,
      "Ġtwo": 721,
      "cause": 722,
      "orn": 723,
      "pl": 724,
      "ian": 725,
      "che": 726,
      "Ġdie": 727,
      "the": 728,
      "Ġever": 729,
      "ken": 730,
      "Ġtr": 731,
      "What": 732,
      "çļ": 733,
      "ade": 734,
      "Ġel": 735,
      "yes": 736,
      "iss": 737,
      "çļĦ": 738,
      "Ġro": 739,
      "Ġplay": 740,
      "urn": 741,
      "alk": 742,
      "And": 743,
      "ble": 744,
      "aug": 745,
      "Ġco": 746,
      "ud": 747,
      "ĠSt": 748,
      "Ġbet": 749,
      "ä»": 750,
      "ople": 751,
      "per": 752,
      "ment": 753,
      "hy": 754,
      "ĠCh": 755,
      "Ġinto": 756,
      "ary": 757,
      "mer": 758,
      "ord": 759,
      "irst": 760,
      "ase": 761,
      "Ġaan": 762,
      "eld": 763,
      "ĠU": 764,
      "Ġagain": 765,
      "av": 766,
      "omet": 767,
      "pt": 768,
      "Ġcome": 769,
      "ought": 770,
      "Ġfl": 771,
      "ount": 772,
      "act": 773,
      "Ġsch": 774,
      "ans": 775,
      "ne": 776,
      "æĪ": 777,
      "og": 778,
      "ied": 779,
      "Ġway": 780,
      "Ġom": 781,
      "ĠIn": 782,
      "ance": 783,
      "aan": 784,
      "Ġhand": 785,
      "Ġpeople": 786,
      "bl": 787,
      "uh": 788,
      "Ġday": 789,
      "ien": 790,
      "ue": 791,
      "sh": 792,
      "his": 793,
      "Ġhow": 794,
      "Ġwhere": 795,
      "Ġcall": 796,
      "Ġam": 797,
      "ark": 798,
      "ng": 799,
      "Oh": 800,
      "Ġmake": 801,
      "onna": 802,
      "cl": 803,
      "00": 804,
      "Ġwork": 805,
      "ely": 806,
      "Ġsc": 807,
      "Ġfirst": 808,
      "Ġwell": 809,
      "Ġxxx": 810,
      "No": 811,
      "ise": 812,
      "ach": 813,
      "ty": 814,
      "Ġtoo": 815,
      "Ġpart": 816,
      "ool": 817,
      "Ġuit": 818,
      "ho": 819,
      "ile": 820,
      "Yeah": 821,
      "Ġmu": 822,
      "ä½": 823,
      "Ġgonna": 824,
      "Ġ-": 825,
      "te": 826,
      "è¿": 827,
      "Ġafter": 828,
      "ug": 829,
      "Ġdoes": 830,
      "fore": 831,
      "æĪĳ": 832,
      "Ġye": 833,
      "int": 834,
      "land": 835,
      "wn": 836,
      "Ġthr": 837,
      "ĠDe": 838,
      "air": 839,
      "Ġsomet": 840,
      "Ġpre": 841,
      "Ġad": 842,
      "je": 843,
      "Ġonly": 844,
      "Ġtell": 845,
      "Ġtake": 846,
      "orm": 847,
      "hed": 848,
      "Ġsl": 849,
      "self": 850,
      "eren": 851,
      "ost": 852,
      "Ġun": 853,
      "Ġcar": 854,
      "uck": 855,
      "Ġmade": 856,
      "do": 857,
      "Ġour": 858,
      "ather": 859,
      "ved": 860,
      "ress": 861,
      "hm": 862,
      "æĺ": 863,
      "cc": 864,
      "ob": 865,
      "ek": 866,
      "Ġevery": 867,
      "Ġshould": 868,
      "Ġlet": 869,
      "ĠFr": 870,
      "Ġneed": 871,
      "able": 872,
      "ving": 873,
      "ert": 874,
      "ath": 875,
      "ys": 876,
      "Ġdoor": 877,
      "ouse": 878,
      "ated": 879,
      "red": 880,
      "Ġthan": 881,
      "Ġsm": 882,
      "Ġthese": 883,
      "ady": 884,
      "ew": 885,
      "Ġzo": 886,
      "ory": 887,
      "That": 888,
      "ict": 889,
      "Ġmuch": 890,
      "riend": 891,
      "ting": 892,
      "But": 893,
      "Ġword": 894,
      "Ġeven": 895,
      "okay": 896,
      "Ġ!": 897,
      "oll": 898,
      "ife": 899,
      "Ġper": 900,
      "iz": 901,
      "where": 902,
      "get": 903,
      "rij": 904,
      "Ġlong": 905,
      "unn": 906,
      "Ġmaar": 907,
      "als": 908,
      "?\"": 909,
      "Ġim": 910,
      "ls": 911,
      "man": 912,
      "der": 913,
      "ER": 914,
      "Ġbel": 915,
      "ci": 916,
      "thing": 917,
      "ah": 918,
      "Ġdis": 919,
      "Ġalso": 920,
      "Ġ3": 921,
      "æĺ¯": 922,
      "there": 923,
      "ĠY": 924,
      "inn": 925,
      "Ġhel": 926,
      "Ã©": 927,
      "Ġapp": 928,
      "Well": 929,
      "Ġhapp": 930,
      "Ġnaar": 931,
      "Ġdr": 932,
      "Ġaway": 933,
      "Ġbu": 934,
      "Ġbefore": 935,
      "ions": 936,
      "Ġdidn": 937,
      "ave": 938,
      "ons": 939,
      "Ġmoet": 940,
      "ater": 941,
      "Ġbig": 942,
      "ten": 943,
      "Ġbeg": 944,
      "Ġmak": 945,
      "Ġwent": 946,
      "ock": 947,
      "Ġunder": 948,
      "iff": 949,
      "Ġwr": 950,
      "Ġsec": 951,
      "ward": 952,
      "day": 953,
      "Het": 954,
      "Ġbecause": 955,
      "Ġsomething": 956,
      "Ġgir": 957,
      "Ġdan": 958,
      "ves": 959,
      "Ġold": 960,
      "ix": 961,
      "Ġcomp": 962,
      "Ġgu": 963,
      "amp": 964,
      "Ġcame": 965,
      "ful": 966,
      "äºĨ": 967,
      "Ġrem": 968,
      "Ġreally": 969,
      "ä½ł": 970,
      "'d": 971,
      "een": 972,
      "ody": 973,
      "----": 974,
      "Ġmay": 975,
      "Ġact": 976,
      "Ġben": 977,
      "Ġgreat": 978,
      "Ġhij": 979,
      "Ġwater": 980,
      "å¤": 981,
      "Je": 982,
      "aal": 983,
      "eg": 984,
      "Ġcont": 985,
      "kay": 986,
      "up": 987,
      "sp": 988,
      "Ġwel": 989,
      "right": 990,
      "In": 991,
      "Ġnever": 992,
      "aw": 993,
      "å°": 994,
      "æľ": 995,
      "anna": 996,
      "Ġbij": 997,
      "Ġkind": 998,
      "De": 999,
      "Ġtalk": 1000,
      "ĠMr": 1001,
      "ail": 1002,
      "oot": 1003,
      "Ġthree": 1004,
      "ors": 1005,
      "old": 1006,
      "Ġhead": 1007,
      "ious": 1008,
      "åĲ": 1009,
      "ign": 1010,
      "Ġcr": 1011,
      "ä¹": 1012,
      "Ġhelp": 1013,
      "les": 1014,
      "Ġmean": 1015,
      "ĠZ": 1016,
      "Ġmany": 1017,
      "ence": 1018,
      "Ġdoing": 1019,
      "aak": 1020,
      "look": 1021,
      "ried": 1022,
      "aby": 1023,
      "but": 1024,
      "Ġter": 1025,
      "PAR": 1026,
      "Ġthose": 1027,
      "Ġwer": 1028,
      "Ġask": 1029,
      "!\"": 1030,
      "åı": 1031,
      "Ġmin": 1032,
      "Ġthrough": 1033,
      "iver": 1034,
      "ste": 1035,
      "Ġ_": 1036,
      "elijk": 1037,
      "dy": 1038,
      "Ġlast": 1039,
      "Ġcomm": 1040,
      "Ġturn": 1041,
      "eep": 1042,
      "ult": 1043,
      "oint": 1044,
      "Ġser": 1045,
      "Ġbed": 1046,
      "Yes": 1047,
      "Ġthought": 1048,
      "Ġook": 1049,
      "Ġple": 1050,
      "oc": 1051,
      "Ġcalled": 1052,
      "ĠShe": 1053,
      "omen": 1054,
      "ub": 1055,
      "Ġ201": 1056,
      "igh": 1057,
      "Ġfind": 1058,
      "ä¸į": 1059,
      "Ġnog": 1060,
      "Ġtra": 1061,
      "ren": 1062,
      "Ġmust": 1063,
      "Ġhouse": 1064,
      "ä¸Ģ": 1065,
      "Ġstill": 1066,
      "Ġmen": 1067,
      "oss": 1068,
      "Ġnew": 1069,
      "Ġ4": 1070,
      "Ġkan": 1071,
      "Ġthing": 1072,
      "augh": 1073,
      "Ġwaar": 1074,
      "Ġhome": 1075,
      "Ġfound": 1076,
      "Ġbest": 1077,
      "So": 1078,
      "Ġnight": 1079,
      "Ġeat": 1080,
      "Ġgl": 1081,
      "Ġstart": 1082,
      "Ġits": 1083,
      "Ġbit": 1084,
      "acht": 1085,
      "Ġbook": 1086,
      "Ġdone": 1087,
      "ever": 1088,
      "Ġanother": 1089,
      "well": 1090,
      "ily": 1091,
      "SI": 1092,
      "Ġwon": 1093,
      "Wat": 1094,
      "Ġthings": 1095,
      "ened": 1096,
      "xt": 1097,
      "els": 1098,
      "wer": 1099,
      "ait": 1100,
      "oud": 1101,
      "Ġbot": 1102,
      "ates": 1103,
      "arl": 1104,
      "ĠAnd": 1105,
      "oy": 1106,
      "ents": 1107,
      "ps": 1108,
      "port": 1109,
      "can": 1110,
      "Ġwanna": 1111,
      "Ġwar": 1112,
      "ope": 1113,
      "ss": 1114,
      "ces": 1115,
      "eft": 1116,
      "ouw": 1117,
      "ben": 1118,
      "come": 1119,
      "Ġgive": 1120,
      "Ġsn": 1121,
      "ĠUn": 1122,
      "Ġhier": 1123,
      "ummy": 1124,
      "Ġmost": 1125,
      "eel": 1126,
      "ont": 1127,
      "Ġmight": 1128,
      "Ġinter": 1129,
      "Ġchild": 1130,
      "Ġshow": 1131,
      "ister": 1132,
      "Ġcount": 1133,
      "Ġlea": 1134,
      "Ġname": 1135,
      "Ġboy": 1136,
      "unt": 1137,
      "Ġche": 1138,
      "Ġrec": 1139,
      "ĠThey": 1140,
      "du": 1141,
      "ĠBr": 1142,
      "Ġdes": 1143,
      "They": 1144,
      "Ġtak": 1145,
      "Ġheeft": 1146,
      "Ġown": 1147,
      "ms": 1148,
      "Ġdiff": 1149,
      "Ġsuch": 1150,
      "ember": 1151,
      "ually": 1152,
      "ange": 1153,
      "ief": 1154,
      "ye": 1155,
      "è¯": 1156,
      "Ġmom": 1157,
      "ET": 1158,
      "Ġyears": 1159,
      "Ġused": 1160,
      "Ġgoed": 1161,
      "imes": 1162,
      "Ġgen": 1163,
      "ale": 1164,
      "onder": 1165,
      "elen": 1166,
      "ele": 1167,
      "Ġfriend": 1168,
      "è¿Ļ": 1169,
      "oon": 1170,
      "Ġtry": 1171,
      "Dat": 1172,
      "ger": 1173,
      "ical": 1174,
      "åľ": 1175,
      "Ġstr": 1176,
      "Ġbaby": 1177,
      "Ġaround": 1178,
      "row": 1179,
      "let": 1180,
      "Ġhebben": 1181,
      "Ġlife": 1182,
      "Ġatt": 1183,
      "outh": 1184,
      "This": 1185,
      "Ġbeing": 1186,
      "ited": 1187,
      "Ġend": 1188,
      "Ġsle": 1189,
      "AN": 1190,
      "Ġplace": 1191,
      "Ġdit": 1192,
      "ition": 1193,
      "Ġcare": 1194,
      "Ġhu": 1195,
      "ijd": 1196,
      "oney": 1197,
      "Ġlot": 1198,
      "En": 1199,
      "Th": 1200,
      "med": 1201,
      "aughs": 1202,
      "Ġgirl": 1203,
      "ĠTh": 1204,
      "ince": 1205,
      "pe": 1206,
      "elt": 1207,
      "Ġmijn": 1208,
      "Ġcour": 1209,
      "There": 1210,
      "å®": 1211,
      "LD": 1212,
      "ways": 1213,
      "Ġisn": 1214,
      "Ġpres": 1215,
      "ins": 1216,
      "uk": 1217,
      "apt": 1218,
      "Ġbetter": 1219,
      "body": 1220,
      "over": 1221,
      "ww": 1222,
      "Ġschool": 1223,
      "Ġsame": 1224,
      "eer": 1225,
      "Ġhem": 1226,
      "uss": 1227,
      "Ġbre": 1228,
      "¿½": 1229,
      "uur": 1230,
      "Ġwil": 1231,
      "Ġwhile": 1232,
      "ĠAl": 1233,
      "hes": 1234,
      "men": 1235,
      "ï¿½": 1236,
      "arly": 1237,
      "uit": 1238,
      "Ġgeen": 1239,
      "Ġmat": 1240,
      "orry": 1241,
      "vel": 1242,
      "Ġfar": 1243,
      "so": 1244,
      "mhm": 1245,
      "ations": 1246,
      "Ġhard": 1247,
      "Ġreg": 1248,
      "ib": 1249,
      "ph": 1250,
      "ĠBut": 1251,
      "åĪ": 1252,
      "Ġsupp": 1253,
      "Ġfour": 1254,
      "ingen": 1255,
      "Ġpers": 1256,
      "Ġpol": 1257,
      "ĠAmer": 1258,
      "side": 1259,
      "led": 1260,
      "She": 1261,
      "ST": 1262,
      "aten": 1263,
      "Ġmon": 1264,
      "Ġnum": 1265,
      "Ġ5": 1266,
      "Ġset": 1267,
      "app": 1268,
      "Ġcol": 1269,
      "ende": 1270,
      "addy": 1271,
      "Ġsure": 1272,
      "Ġhal": 1273,
      "Ġfeel": 1274,
      "ird": 1275,
      "Ġfam": 1276,
      "Ġkeep": 1277,
      "ĠEng": 1278,
      "Ġwhy": 1279,
      "Ġfin": 1280,
      "Ġmother": 1281,
      "gg": 1282,
      "gr": 1283,
      "Ġvo": 1284,
      "Ġbus": 1285,
      "Ġanything": 1286,
      "),": 1287,
      "ower": 1288,
      "me": 1289,
      "ãĢ": 1290,
      "ced": 1291,
      "ike": 1292,
      "ĠYou": 1293,
      "arn": 1294,
      "Ġsw": 1295,
      "Ġnext": 1296,
      "Ġmeer": 1297,
      "Ġhun": 1298,
      "ican": 1299,
      "Ġalways": 1300,
      "å¥": 1301,
      "Ġland": 1302,
      "Ġopen": 1303,
      "Ġstop": 1304,
      "Ġtold": 1305,
      "ove": 1306,
      "Ġleft": 1307,
      "Ġonder": 1308,
      "ness": 1309,
      "Ġelse": 1310,
      ".]": 1311,
      "Ġ200": 1312,
      "br": 1313,
      "CHILD": 1314,
      "æĿ": 1315,
      "ident": 1316,
      ").": 1317,
      "this": 1318,
      "pr": 1319,
      "ple": 1320,
      "laughs": 1321,
      "Ġminut": 1322,
      "Ġsit": 1323,
      "Ġroom": 1324,
      "ial": 1325,
      "ann": 1326,
      "åħ": 1327,
      "az": 1328,
      "urt": 1329,
      "Ġtook": 1330,
      "Ġdeze": 1331,
      "Ġsaw": 1332,
      "If": 1333,
      "aught": 1334,
      "AD": 1335,
      "St": 1336,
      "Ġlove": 1337,
      "Ġunt": 1338,
      "How": 1339,
      "TAR": 1340,
      "Ġdoesn": 1341,
      "ret": 1342,
      "oun": 1343,
      "Ġcle": 1344,
      "GET": 1345,
      "Ġbro": 1346,
      "Ġret": 1347,
      "ĠMar": 1348,
      "bru": 1349,
      "Ġacc": 1350,
      "Ġhaar": 1351,
      "\".": 1352,
      "Ġpu": 1353,
      "form": 1354,
      "Er": 1355,
      "TARGET": 1356,
      "Ġmil": 1357,
      "ãĢĤ": 1358,
      "Ġres": 1359,
      "vent": 1360,
      "Ġdaar": 1361,
      "eder": 1362,
      "Ġexp": 1363,
      "she": 1364,
      "Ġnice": 1365,
      "Ġlooks": 1366,
      "ream": 1367,
      "ĠGod": 1368,
      "oord": 1369,
      "ĠThis": 1370,
      "ec": 1371,
      "icht": 1372,
      "Ġob": 1373,
      "eak": 1374,
      "ows": 1375,
      "ä¸ª": 1376,
      "Ġyes": 1377,
      "Ġyeah": 1378,
      "ote": 1379,
      "Ġwordt": 1380,
      "Ġnu": 1381,
      "ige": 1382,
      "Ġpass": 1383,
      "Ġrel": 1384,
      "Hij": 1385,
      "Ġac": 1386,
      "Ġ18": 1387,
      "Ġuse": 1388,
      "they": 1389,
      "MA": 1390,
      "now": 1391,
      "Ġvol": 1392,
      "Is": 1393,
      "Ġerm": 1394,
      "Ġthough": 1395,
      "Ġsur": 1396,
      "Ġweek": 1397,
      "Ġworden": 1398,
      "ets": 1399,
      "not": 1400,
      "put": 1401,
      "Ġokay": 1402,
      "mber": 1403,
      "All": 1404,
      "Ġseen": 1405,
      "Ġgaan": 1406,
      "ĠAn": 1407,
      "Ġside": 1408,
      "ished": 1409,
      "orning": 1410,
      "Ġenough": 1411,
      "Ġmar": 1412,
      "ject": 1413,
      "Ġdoen": 1414,
      "gether": 1415,
      "Ġtot": 1416,
      "Ġread": 1417,
      "Ġfather": 1418,
      "Do": 1419,
      "ta": 1420,
      "Ġgone": 1421,
      "Ġsays": 1422,
      "Ġ6": 1423,
      "OR": 1424,
      "gt": 1425,
      "Why": 1426,
      "Ġdist": 1427,
      "Ġpoint": 1428,
      "Ġyoung": 1429,
      "Ġkill": 1430,
      "stand": 1431,
      "enn": 1432,
      "Ġcons": 1433,
      "Ġball": 1434,
      "ster": 1435,
      "Ġstand": 1436,
      "ĠAr": 1437,
      "æľī": 1438,
      "ina": 1439,
      "ames": 1440,
      "Ġâ": 1441,
      "oof": 1442,
      "io": 1443,
      "Ġhor": 1444,
      "Ġmind": 1445,
      "Ġgoes": 1446,
      "rew": 1447,
      "mm": 1448,
      "Ġrest": 1449,
      "ased": 1450,
      "erent": 1451,
      "Ġlight": 1452,
      "ross": 1453,
      "go": 1454,
      "rist": 1455,
      "oman": 1456,
      "Ġknown": 1457,
      "Ġzou": 1458,
      "Ġwalk": 1459,
      "Ġpret": 1460,
      "how": 1461,
      "ump": 1462,
      "Ġuntil": 1463,
      "Ġhold": 1464,
      "ired": 1465,
      "Ze": 1466,
      "ures": 1467,
      "akes": 1468,
      "ters": 1469,
      "HE": 1470,
      "ohn": 1471,
      "Ġshall": 1472,
      "Ġworld": 1473,
      "Ġbeh": 1474,
      "ash": 1475,
      "Ġsk": 1476,
      "Ġcat": 1477,
      "åŃ": 1478,
      "who": 1479,
      "iets": 1480,
      "Ġcoming": 1481,
      "ork": 1482,
      "ieve": 1483,
      "agen": 1484,
      "åľ¨": 1485,
      "Ġmoney": 1486,
      "ches": 1487,
      "ered": 1488,
      "å°±": 1489,
      "Ġmorning": 1490,
      "Ġem": 1491,
      "Ġwind": 1492,
      "Ġsecond": 1493,
      "Ġhoe": 1494,
      "Ġeyes": 1495,
      "Ġfew": 1496,
      "Ġweet": 1497,
      "Ġwait": 1498,
      "orth": 1499,
      "Ġcourse": 1500,
      "Ġkl": 1501,
      "ĠInd": 1502,
      "Ġeach": 1503,
      "eter": 1504,
      "Ġjij": 1505,
      "Ġsmall": 1506,
      "vol": 1507,
      "Ġgra": 1508,
      "Ġface": 1509,
      "Ġmag": 1510,
      "Ġent": 1511,
      "Ġtogether": 1512,
      "Ġsing": 1513,
      "Ġplease": 1514,
      "any": 1515,
      "ker": 1516,
      "Ġ202": 1517,
      "ween": 1518,
      "irect": 1519,
      "Ġnothing": 1520,
      "Ġlater": 1521,
      "ries": 1522,
      "Ġfive": 1523,
      "of": 1524,
      "ational": 1525,
      "Ġid": 1526,
      "Ġonce": 1527,
      "ush": 1528,
      "Ġquite": 1529,
      "GMA": 1530,
      "uring": 1531,
      "ellow": 1532,
      "Ġdra": 1533,
      "Now": 1534,
      "Ġround": 1535,
      "ible": 1536,
      "Ġboth": 1537,
      "Ġupon": 1538,
      "bab": 1539,
      "tle": 1540,
      "ollow": 1541,
      "ĠGr": 1542,
      "Come": 1543,
      "Ġgaat": 1544,
      "Ġhalf": 1545,
      "Ġhear": 1546,
      "Ġkom": 1547,
      "Don": 1548,
      "Ġlar": 1549,
      "Ġasked": 1550,
      "ipp": 1551,
      "Ġtre": 1552,
      "Ġdog": 1553,
      "ä»¬": 1554,
      "reen": 1555,
      "Ġpie": 1556,
      "Ġbec": 1557,
      "Ġbent": 1558,
      "Ġste": 1559,
      "Ġdifferent": 1560,
      "OU": 1561,
      "ä»ĸ": 1562,
      "mand": 1563,
      "aut": 1564,
      "ane": 1565,
      "ma": 1566,
      "Ġ7": 1567,
      "Ġreal": 1568,
      "Ġsoon": 1569,
      "ullie": 1570,
      "bo": 1571,
      "åĳ": 1572,
      "une": 1573,
      "Ġlang": 1574,
      "ept": 1575,
      "Ġhimself": 1576,
      "Ġbox": 1577,
      "--------": 1578,
      "Ġtru": 1579,
      "aster": 1580,
      "Ġbad": 1581,
      "af": 1582,
      "cle": 1583,
      "Ġons": 1584,
      "Ġont": 1585,
      "HER": 1586,
      "Ġhands": 1587,
      "unnen": 1588,
      "Ġremember": 1589,
      "Ġsleep": 1590,
      "Ġnat": 1591,
      "Ġyear": 1592,
      "don": 1593,
      "Ġind": 1594,
      "EN": 1595,
      "wh": 1596,
      "ĥ½": 1597,
      "ĠÂ": 1598,
      "ics": 1599,
      "Ġpop": 1600,
      "its": 1601,
      "ines": 1602,
      "ama": 1603,
      "SIS": 1604,
      "Ġheard": 1605,
      "Ġbetween": 1606,
      "idd": 1607,
      "Ġyet": 1608,
      "ĠWe": 1609,
      "Waar": 1610,
      "Ġden": 1611,
      "jes": 1612,
      "Ġlooking": 1613,
      "aps": 1614,
      "Ġwithout": 1615,
      "ç»": 1616,
      "Ġfire": 1617,
      "uff": 1618,
      "ĠNew": 1619,
      "Ġperson": 1620,
      "lijk": 1621,
      "Ġred": 1622,
      "ants": 1623,
      "Ġsound": 1624,
      "Ġdec": 1625,
      "ats": 1626,
      "Ġhigh": 1627,
      "Ġnumber": 1628,
      "Ġcent": 1629,
      "huh": 1630,
      "ently": 1631,
      "most": 1632,
      "why": 1633,
      "Ġfall": 1634,
      "Ġgew": 1635,
      "ĠThere": 1636,
      "cept": 1637,
      "ape": 1638,
      "Ġchar": 1639,
      "Ġdisc": 1640,
      "ĠIs": 1641,
      "Ġma": 1642,
      "Ġanim": 1643,
      "zen": 1644,
      "ason": 1645,
      "Ġkunnen": 1646,
      "Ġmiss": 1647,
      "Ġagainst": 1648,
      "Ġmij": 1649,
      "Ġleg": 1650,
      "cy": 1651,
      "æī": 1652,
      "ling": 1653,
      "Let": 1654,
      "æĿ¥": 1655,
      "Ġbes": 1656,
      "Ġint": 1657,
      "eten": 1658,
      "Ġpap": 1659,
      "Ġdirect": 1660,
      "å¾": 1661,
      "Ġmus": 1662,
      "less": 1663,
      "Ġfollow": 1664,
      "Ġgetting": 1665,
      "urch": 1666,
      "ĠBe": 1667,
      "ined": 1668,
      "ĠSp": 1669,
      "ared": 1670,
      "Ġstud": 1671,
      "heid": 1672,
      "Als": 1673,
      "Ġpict": 1674,
      "Ġpar": 1675,
      "Ġmoment": 1676,
      "Ġlist": 1677,
      "atie": 1678,
      "Ġsix": 1679,
      "Ġstory": 1680,
      "Ġ8": 1681,
      "Ġpick": 1682,
      "\",": 1683,
      "ĠHet": 1684,
      "Ġhaving": 1685,
      "Ġveel": 1686,
      "ä¹Ī": 1687,
      "Ġfoot": 1688,
      "ball": 1689,
      "vie": 1690,
      "oed": 1691,
      "Ġdrink": 1692,
      "ating": 1693,
      "Ġart": 1694,
      "Ġdays": 1695,
      "æĹ": 1696,
      "Ġvers": 1697,
      "Ġdear": 1698,
      "osed": 1699,
      "Ġsy": 1700,
      "Ġgro": 1701,
      "ched": 1702,
      "Ġoh": 1703,
      "erd": 1704,
      "sel": 1705,
      "Ġair": 1706,
      "Ġtop": 1707,
      "racht": 1708,
      "Ġstay": 1709,
      "Ġwatch": 1710,
      "aptain": 1711,
      "Ġnear": 1712,
      "kt": 1713,
      "Ġdep": 1714,
      "Ġtoday": 1715,
      "Maar": 1716,
      "dat": 1717,
      "ĠJohn": 1718,
      "ĠSh": 1719,
      "ual": 1720,
      "Ġph": 1721,
      "Ġwanted": 1722,
      "Ġrun": 1723,
      "ertain": 1724,
      "Ġcity": 1725,
      "Ġmens": 1726,
      "cial": 1727,
      "åķ": 1728,
      "äºº": 1729,
      "Ġbreak": 1730,
      "ole": 1731,
      "by": 1732,
      "pen": 1733,
      "ĠUnited": 1734,
      "amen": 1735,
      "Ġleave": 1736,
      "uw": 1737,
      "ĠWhat": 1738,
      "Ġ199": 1739,
      "Ġheart": 1740,
      "Ġlooked": 1741,
      "omm": 1742,
      "Ġknew": 1743,
      "ield": 1744,
      "uth": 1745,
      "ĠKing": 1746,
      "Ġzal": 1747,
      "tw": 1748,
      "ular": 1749,
      "Ġblack": 1750,
      "çľ": 1751,
      "ĠNo": 1752,
      "aakt": 1753,
      "aint": 1754,
      "ustr": 1755,
      "åĽ": 1756,
      "ift": 1757,
      "Ġvind": 1758,
      "Ġcountry": 1759,
      "eth": 1760,
      "ĠAmerican": 1761,
      "Not": 1762,
      "fta": 1763,
      "igen": 1764,
      "Ġhebt": 1765,
      "Ġgave": 1766,
      "Ġgev": 1767,
      "itten": 1768,
      "Ġalong": 1769,
      "Ġchildren": 1770,
      "Ġhour": 1771,
      "My": 1772,
      "çĶ": 1773,
      "Ġfeet": 1774,
      "ots": 1775,
      "Ġborn": 1776,
      "Ġcut": 1777,
      "ready": 1778,
      "ĠChrist": 1779,
      "Ġsir": 1780,
      "Ġdied": 1781,
      "On": 1782,
      "did": 1783,
      "Ġans": 1784,
      "Ġmaking": 1785,
      "è¯´": 1786,
      "ĠAs": 1787,
      "Ġass": 1788,
      "vis": 1789,
      "Ġeer": 1790,
      "ĠJe": 1791,
      "Ġincl": 1792,
      "ither": 1793,
      "Ġvr": 1794,
      "éĤ": 1795,
      "Ġiets": 1796,
      "Ġhaven": 1797,
      "Ġgel": 1798,
      "bruik": 1799,
      "Ġmove": 1800,
      "iness": 1801,
      "oop": 1802,
      "Ġext": 1803,
      "ected": 1804,
      "ully": 1805,
      "Ġna": 1806,
      "Ġhappened": 1807,
      "Ġbecame": 1808,
      "Een": 1809,
      "Nee": 1810,
      "ung": 1811,
      "Ġsort": 1812,
      "Ġwhite": 1813,
      "Ġhafta": 1814,
      "Ġsorry": 1815,
      "mb": 1816,
      "Ġdri": 1817,
      "Ġtalking": 1818,
      "cess": 1819,
      "Ġsil": 1820,
      "Hey": 1821,
      "Ġjullie": 1822,
      "Ġstra": 1823,
      "sch": 1824,
      "zz": 1825,
      "ern": 1826,
      "ĠAf": 1827,
      "ton": 1828,
      "Ġproble": 1829,
      "Ġwonder": 1830,
      "Ġref": 1831,
      "cent": 1832,
      "Ġwhe": 1833,
      "éĤ£": 1834,
      "MOTHER": 1835,
      "very": 1836,
      "ĠBl": 1837,
      "Ġboys": 1838,
      "Ġready": 1839,
      "Ġimp": 1840,
      "Ġadd": 1841,
      "Be": 1842,
      "Ġweer": 1843,
      "Ġdro": 1844,
      "ax": 1845,
      "ĠCl": 1846,
      "Ġtegen": 1847,
      "Ġged": 1848,
      "ï¿½ï¿½": 1849,
      "Ġreturn": 1850,
      "Ġwild": 1851,
      "ison": 1852,
      "Ġrep": 1853,
      "Ġlive": 1854,
      "Thank": 1855,
      "Ġtrain": 1856,
      "Ġmoeten": 1857,
      "Ġsub": 1858,
      "An": 1859,
      "olog": 1860,
      "und": 1861,
      "Ġsign": 1862,
      "Ġanswer": 1863,
      "Ġfil": 1864,
      "ctor": 1865,
      "oke": 1866,
      "Ġeverything": 1867,
      "Ġbelieve": 1868,
      "Ġdel": 1869,
      "å¥½": 1870,
      "Ġson": 1871,
      "ury": 1872,
      "ey": 1873,
      "Ġ9": 1874,
      "ĠFrank": 1875,
      "ä¼": 1876,
      "ĠÂ·": 1877,
      "wards": 1878,
      "ader": 1879,
      "å¦": 1880,
      "Ġterug": 1881,
      "Ġstarted": 1882,
      "Ġtown": 1883,
      "Ġspe": 1884,
      "ric": 1885,
      "Ġteam": 1886,
      ".'": 1887,
      "Ġsaying": 1888,
      "ĠTom": 1889,
      "ages": 1890,
      "Ġzien": 1891,
      "ks": 1892,
      "Ġprodu": 1893,
      "Ġga": 1894,
      "Ġtri": 1895,
      "aces": 1896,
      "Ġinst": 1897,
      "Ġfact": 1898,
      "When": 1899,
      "Ġspeak": 1900,
      "aring": 1901,
      "ĠSc": 1902,
      "gy": 1903,
      "IG": 1904,
      "omas": 1905,
      "enty": 1906,
      "lish": 1907,
      "ction": 1908,
      "Ġsent": 1909,
      "Ã«": 1910,
      "Ġwhole": 1911,
      "ised": 1912,
      "Okay": 1913,
      "19": 1914,
      "Ġmed": 1915,
      "ives": 1916,
      "Ġ10": 1917,
      "LO": 1918,
      "oup": 1919,
      "ĠThen": 1920,
      "Ġweg": 1921,
      "orrow": 1922,
      "Ġdef": 1923,
      "Ġcur": 1924,
      "tern": 1925,
      "Ġnoise": 1926,
      "000": 1927,
      "Ġgener": 1928,
      "ude": 1929,
      "ĠAt": 1930,
      "Ġalmost": 1931,
      "Ġconf": 1932,
      "Ġsince": 1933,
      "read": 1934,
      "bably": 1935,
      "ĠSo": 1936,
      "||": 1937,
      "åķĬ": 1938,
      "Ġform": 1939,
      "ĠMummy": 1940,
      "Ġposs": 1941,
      "Ġbuild": 1942,
      "åİ": 1943,
      "Ġten": 1944,
      "Ġbrother": 1945,
      "ific": 1946,
      "Ġum": 1947,
      "Ġwasn": 1948,
      "ĠPr": 1949,
      "aur": 1950,
      "âĮ": 1951,
      "Ch": 1952,
      "ese": 1953,
      "ivers": 1954,
      "ids": 1955,
      "Ġbring": 1956,
      "Ġresp": 1957,
      "Ġdoll": 1958,
      "ĠQ": 1959,
      "iam": 1960,
      "ities": 1961,
      "Ġfloor": 1962,
      "Ġfamily": 1963,
      "Ġmatter": 1964,
      "Ġmensen": 1965,
      "Ġbegan": 1966,
      "Ġquest": 1967,
      "ged": 1968,
      "Ġpretty": 1969,
      "Ġtable": 1970,
      "Ġfood": 1971,
      "Ġchair": 1972,
      "innen": 1973,
      "Ġbeaut": 1974,
      "Ġtimes": 1975,
      "Mm": 1976,
      "Ġswe": 1977,
      "chter": 1978,
      "Ġnie": 1979,
      "use": 1980,
      "son": 1981,
      "ĠStates": 1982,
      "Ġmeet": 1983,
      "Ġgi": 1984,
      "Ġthank": 1985,
      "Ġbrought": 1986,
      "_,": 1987,
      "ery": 1988,
      "Ġhair": 1989,
      "æĢ": 1990,
      "Ġhot": 1991,
      "illy": 1992,
      "ying": 1993,
      "Ġvis": 1994,
      "II": 1995,
      "Ġfell": 1996,
      "Ġoften": 1997,
      "unny": 1998,
      "ital": 1999,
      "www": 2000,
      "oth": 2001,
      "Ġsim": 2002,
      "ement": 2003,
      "å¤§": 2004,
      "ides": 2005,
      "oes": 2006,
      "ship": 2007,
      "Ġactually": 2008,
      "Ġdead": 2009,
      "Ġvert": 2010,
      "amed": 2011,
      "key": 2012,
      "Ġsong": 2013,
      "Hoe": 2014,
      "bs": 2015,
      "fect": 2016,
      "Ja": 2017,
      "Ġmaken": 2018,
      "Ġcoll": 2019,
      "Ġalready": 2020,
      "Ġtrying": 2021,
      "Ġalleen": 2022,
      "¦ģ": 2023,
      "Ġinv": 2024,
      "eef": 2025,
      "æ²": 2026,
      "å¿": 2027,
      "ming": 2028,
      "Ġ198": 2029,
      "Ġinterest": 2030,
      "Ġgame": 2031,
      "ef": 2032,
      "ards": 2033,
      "ex": 2034,
      "Ġev": 2035,
      "è¦ģ": 2036,
      "org": 2037,
      "Ġed": 2038,
      "Ġcomes": 2039,
      "Ġunderstand": 2040,
      "ize": 2041,
      "iek": 2042,
      "Ġlik": 2043,
      "Ġduring": 2044,
      "Ġfriends": 2045,
      "Ġhund": 2046,
      "Where": 2047,
      "ring": 2048,
      "amer": 2049,
      "Ġmee": 2050,
      "aid": 2051,
      "Ġhundred": 2052,
      "Ġfight": 2053,
      "Ġhum": 2054,
      "Ġsqu": 2055,
      "ĠAll": 2056,
      "å°ı": 2057,
      "Ġtwee": 2058,
      "Ġmusic": 2059,
      "Ġoffic": 2060,
      "Ġkrij": 2061,
      "Ġeens": 2062,
      "Ġsun": 2063,
      "Ġges": 2064,
      "Ġeas": 2065,
      "Ġtaken": 2066,
      "see": 2067,
      "ĠHow": 2068,
      "mp": 2069,
      "ouch": 2070,
      "ĠGer": 2071,
      "Ġwoman": 2072,
      "Ġwrong": 2073,
      "arth": 2074,
      "Ġgez": 2075,
      "Ġhorse": 2076,
      "Ġdeath": 2077,
      "Ġkomt": 2078,
      "Ġfun": 2079,
      "eng": 2080,
      "iful": 2081,
      "Ġcolor": 2082,
      "Then": 2083,
      "ained": 2084,
      "ĠMiss": 2085,
      "Ġjob": 2086,
      "ijke": 2087,
      "èĢ": 2088,
      "dig": 2089,
      "Ġzich": 2090,
      "Ġpicture": 2091,
      "Ġcertain": 2092,
      "Ġeight": 2093,
      "Ġcompl": 2094,
      "Who": 2095,
      "Ġfull": 2096,
      "éĩ": 2097,
      "more": 2098,
      "Ġgirls": 2099,
      "Ġtijd": 2100,
      "DS": 2101,
      "NAN": 2102,
      "ĠEnglish": 2103,
      "Ġorder": 2104,
      "ider": 2105,
      "anger": 2106,
      "Ġfore": 2107,
      "Ġzeg": 2108,
      "Ġmouth": 2109,
      ",'": 2110,
      "Ġlost": 2111,
      "Ġpresent": 2112,
      "Al": 2113,
      "Dit": 2114,
      "bed": 2115,
      "æĥ": 2116,
      "Ġtea": 2117,
      "ĠGe": 2118,
      "Ġplayed": 2119,
      "Ġsat": 2120,
      "Ġseemed": 2121,
      "room": 2122,
      "ON": 2123,
      "Ġgebruik": 2124,
      "åį": 2125,
      "aim": 2126,
      "ara": 2127,
      "Ġfuck": 2128,
      "Ġlaat": 2129,
      "Ġmeans": 2130,
      "ĠPh": 2131,
      "vo": 2132,
      "anc": 2133,
      "Ġpoor": 2134,
      "Ġshort": 2135,
      "oek": 2136,
      "Ġsever": 2137,
      "ains": 2138,
      "ha": 2139,
      "Just": 2140,
      "Ġserv": 2141,
      "Ġparty": 2142,
      "Ġpolit": 2143,
      "Ġpubl": 2144,
      "Ġwouldn": 2145,
      "Ġpat": 2146,
      "ized": 2147,
      "Ġminute": 2148,
      "Ġmer": 2149,
      "Ġleven": 2150,
      "ober": 2151,
      "Ġkw": 2152,
      "vern": 2153,
      "Ġblue": 2154,
      "Ġpur": 2155,
      "haps": 2156,
      "ĠLe": 2157,
      "ilt": 2158,
      "got": 2159,
      "Ġcontin": 2160,
      "Look": 2161,
      "Ġidea": 2162,
      "Ġclose": 2163,
      "Ġinc": 2164,
      "Ġ197": 2165,
      "Ġaw": 2166,
      "ony": 2167,
      "Ġstick": 2168,
      "airs": 2169,
      "alt": 2170,
      "Ġprobably": 2171,
      "Ġkle": 2172,
      "ĠWill": 2173,
      "off": 2174,
      "Ġes": 2175,
      "Ġru": 2176,
      "ĠHis": 2177,
      "ney": 2178,
      "Ġbur": 2179,
      "Ġeff": 2180,
      "inner": 2181,
      "Ġmonth": 2182,
      "ium": 2183,
      "eds": 2184,
      "Ġgem": 2185,
      "good": 2186,
      "ient": 2187,
      "Ġpay": 2188,
      "Ġless": 2189,
      "Ġ15": 2190,
      "å¸": 2191,
      "Ġwood": 2192,
      "Ġship": 2193,
      "ĠWhen": 2194,
      "Ġturned": 2195,
      "ĠOn": 2196,
      "Ġjou": 2197,
      "ones": 2198,
      "Kom": 2199,
      "just": 2200,
      "oog": 2201,
      "Ġgreen": 2202,
      "Ġmakes": 2203,
      "ped": 2204,
      "Ġbird": 2205,
      "Ġquick": 2206,
      "itting": 2207,
      "Ġrecord": 2208,
      "EST": 2209,
      "èµ": 2210,
      "Ġlie": 2211,
      "iding": 2212,
      "åĩ": 2213,
      "Ġcup": 2214,
      "Ġexpl": 2215,
      "Ġlarge": 2216,
      "ĠTHE": 2217,
      "ooit": 2218,
      "ron": 2219,
      "Ġ12": 2220,
      "Ġbody": 2221,
      "ott": 2222,
      "Ġdark": 2223,
      "Ġplaying": 2224,
      "ommy": 2225,
      "Ġfront": 2226,
      "Ġcover": 2227,
      "Ġimport": 2228,
      "Ġbar": 2229,
      "Ġbehind": 2230,
      "Are": 2231,
      "Ġking": 2232,
      "fl": 2233,
      "open": 2234,
      "ises": 2235,
      "Ġprom": 2236,
      "aybe": 2237,
      "çİ": 2238,
      "Ġhappy": 2239,
      "Ġkomen": 2240,
      "Ġecht": 2241,
      "å¯": 2242,
      "ĠSch": 2243,
      "ĠBob": 2244,
      "ided": 2245,
      "åĬ": 2246,
      "Ġeng": 2247,
      "iter": 2248,
      "Ġhope": 2249,
      "Ġdou": 2250,
      "fully": 2251,
      "Ġmark": 2252,
      "As": 2253,
      "lo": 2254,
      "Ġgiven": 2255,
      "Ġlearn": 2256,
      "Ġwife": 2257,
      "Ġ17": 2258,
      "because": 2259,
      "ured": 2260,
      "ative": 2261,
      "Ġbear": 2262,
      "LOI": 2263,
      "ĠLord": 2264,
      "idge": 2265,
      "Ġpiece": 2266,
      "Ġrock": 2267,
      "ĠBrit": 2268,
      "ĠThomas": 2269,
      "ĠX": 2270,
      "selves": 2271,
      "è§": 2272,
      "è®": 2273,
      "raag": 2274,
      "Ġblij": 2275,
      "Ġchurch": 2276,
      "åĪ°": 2277,
      "Ġprov": 2278,
      "Ġbusiness": 2279,
      "Mr": 2280,
      "ĠDaddy": 2281,
      "ues": 2282,
      "Ġfine": 2283,
      "Ġpower": 2284,
      "ians": 2285,
      "Ġbat": 2286,
      "Ġandere": 2287,
      "Ġjaar": 2288,
      "Good": 2289,
      "head": 2290,
      "thank": 2291,
      "used": 2292,
      "Ġcreat": 2293,
      "To": 2294,
      "Ġpast": 2295,
      "Ġyourself": 2296,
      "Ġstate": 2297,
      "Ġbas": 2298,
      "Ġplan": 2299,
      "Ġable": 2300,
      "Ġpri": 2301,
      "ica": 2302,
      "Ġgovern": 2303,
      "Ġcir": 2304,
      "ention": 2305,
      "gens": 2306,
      "like": 2307,
      "åĨ": 2308,
      "Ġpull": 2309,
      "ists": 2310,
      "SIB": 2311,
      "Ġheel": 2312,
      "Ġ196": 2313,
      "Ġinform": 2314,
      "å¼": 2315,
      "Ġpaper": 2316,
      "ator": 2317,
      "ĠEd": 2318,
      "eden": 2319,
      "ĠMrs": 2320,
      "Ġground": 2321,
      "for": 2322,
      "Ġie": 2323,
      "voor": 2324,
      "van": 2325,
      "ments": 2326,
      "20": 2327,
      "åĵ": 2328,
      "å·": 2329,
      "ĠFor": 2330,
      "Ġcook": 2331,
      "ĠEl": 2332,
      "Ġstuff": 2333,
      "Ġwerd": 2334,
      "ench": 2335,
      "ĠEur": 2336,
      "ES": 2337,
      "ode": 2338,
      "Ġwerk": 2339,
      "Ġrele": 2340,
      "Ġelect": 2341,
      "Ġaren": 2342,
      "Ġdraw": 2343,
      "Ġbeautiful": 2344,
      "Ġhele": 2345,
      "Ġmovie": 2346,
      "rying": 2347,
      "Ġocc": 2348,
      "Ġrepl": 2349,
      "CDS": 2350,
      "ĠFrance": 2351,
      "Ġkon": 2352,
      "Ġrather": 2353,
      "ander": 2354,
      "Ġverd": 2355,
      "Ġloc": 2356,
      "Ġstrong": 2357,
      "ately": 2358,
      "ä¸Ĭ": 2359,
      "born": 2360,
      "Ġwords": 2361,
      "Mummy": 2362,
      "ts": 2363,
      "rom": 2364,
      "ĠThat": 2365,
      "ING": 2366,
      "å¹": 2367,
      "Ġtoch": 2368,
      "Ġuh": 2369,
      "Ġve": 2370,
      "Ġoutside": 2371,
      "Ġnooit": 2372,
      "Ġcouldn": 2373,
      "irth": 2374,
      "ische": 2375,
      "ĠCHI": 2376,
      "Ġones": 2377,
      "ience": 2378,
      "Ġtree": 2379,
      "reet": 2380,
      "onden": 2381,
      "Ġcamp": 2382,
      "Ġnet": 2383,
      "ATOR": 2384,
      "DAD": 2385,
      "Ġchang": 2386,
      "Ġtrans": 2387,
      "Ġvl": 2388,
      "unch": 2389,
      "gel": 2390,
      "Ġwin": 2391,
      "Ġpos": 2392,
      "cher": 2393,
      "onn": 2394,
      "ĠZe": 2395,
      "Ã©n": 2396,
      "Ġcra": 2397,
      "åİ»": 2398,
      "Ġgotta": 2399,
      "Ġyellow": 2400,
      "Ġju": 2401,
      "Ġexc": 2402,
      "Ġwants": 2403,
      "Ġcold": 2404,
      "Sh": 2405,
      "Ġsea": 2406,
      "ĠJan": 2407,
      "aj": 2408,
      "ening": 2409,
      "Ġlaw": 2410,
      "oel": 2411,
      "Ġtem": 2412,
      "Ġage": 2413,
      "Ġalt": 2414,
      "Ġvoice": 2415,
      "Right": 2416,
      "vers": 2417,
      "Ġsister": 2418,
      "Ġgek": 2419,
      "Ġlad": 2420,
      "Ġhurt": 2421,
      "Did": 2422,
      "Ġsometimes": 2423,
      "ĠCan": 2424,
      "Ġline": 2425,
      "Ġfelt": 2426,
      "Ġzelf": 2427,
      "ached": 2428,
      "Ġanimals": 2429,
      "Ġty": 2430,
      "Go": 2431,
      "ĠEr": 2432,
      "æĬ": 2433,
      "éĥ½": 2434,
      "Ġmyself": 2435,
      "åŃĲ": 2436,
      "ĠJoe": 2437,
      "Ġstar": 2438,
      "Ġrece": 2439,
      "Ġtrou": 2440,
      "ESTIG": 2441,
      "INVESTIG": 2442,
      "INVESTIGATOR": 2443,
      "Ġstaat": 2444,
      "zelf": 2445,
      "Ġbag": 2446,
      "Ġlady": 2447,
      "Ġseveral": 2448,
      "è¿ĺ": 2449,
      "cri": 2450,
      "erv": 2451,
      "Ġfav": 2452,
      "lor": 2453,
      "Ġalone": 2454,
      "ĠAd": 2455,
      "arr": 2456,
      "ald": 2457,
      "aughter": 2458,
      "ĠRe": 2459,
      "Ġheld": 2460,
      "Ġelk": 2461,
      "Ġfree": 2462,
      "æ²¡": 2463,
      "Ġjong": 2464,
      "Can": 2465,
      "ended": 2466,
      "Ġothers": 2467,
      "æł": 2468,
      "Ġtaking": 2469,
      "Ġpage": 2470,
      "Ġsold": 2471,
      "alie": 2472,
      "çľĭ": 2473,
      "Ġlate": 2474,
      "oorden": 2475,
      "Ġleast": 2476,
      "Ġfair": 2477,
      "ĠBen": 2478,
      "Ġcase": 2479,
      "Ġhon": 2480,
      "Ġaut": 2481,
      "Ġmaybe": 2482,
      "ressed": 2483,
      "ADU": 2484,
      "mon": 2485,
      "Ġearly": 2486,
      "Ġprot": 2487,
      "Ġinclud": 2488,
      "Ġgrand": 2489,
      "ederland": 2490,
      "uid": 2491,
      "Ġlay": 2492,
      "stem": 2493,
      "Ġtele": 2494,
      "Ġimportant": 2495,
      "Ġhat": 2496,
      "Ġgeb": 2497,
      "Ġmine": 2498,
      "Ġra": 2499,
      "Ġroad": 2500,
      "irty": 2501,
      "ox": 2502,
      "Ġzw": 2503,
      "uc": 2504,
      "Ģ¢": 2505,
      "ner": 2506,
      "rop": 2507,
      "ĠHer": 2508,
      "Ġchange": 2509,
      "Ġamong": 2510,
      "aren": 2511,
      "ĠYork": 2512,
      "bye": 2513,
      "Ġguess": 2514,
      "Ġminutes": 2515,
      "Ġappe": 2516,
      "Ġalles": 2517,
      "Ġblood": 2518,
      "gry": 2519,
      "Ġhuh": 2520,
      "ĠOh": 2521,
      "Ġprof": 2522,
      "uis": 2523,
      "ense": 2524,
      "Ġtrue": 2525,
      "Ġlead": 2526,
      "Get": 2527,
      "arch": 2528,
      "fort": 2529,
      "Ġquestion": 2530,
      "Ġgun": 2531,
      "ĠEngland": 2532,
      "Ġinside": 2533,
      "aced": 2534,
      "ĠOr": 2535,
      "ices": 2536,
      "Ġsweet": 2537,
      "Ġfig": 2538,
      "RO": 2539,
      "Ġmain": 2540,
      "ĠGerman": 2541,
      "Ġcap": 2542,
      "inc": 2543,
      "Ġago": 2544,
      "iel": 2545,
      "owing": 2546,
      "Ġacross": 2547,
      "For": 2548,
      "inging": 2549,
      "ä¹Ł": 2550,
      "Ġbirth": 2551,
      "Ġadm": 2552,
      "Ġnodig": 2553,
      "Ġtill": 2554,
      "ĠTo": 2555,
      "ĠNederland": 2556,
      "iously": 2557,
      "AL": 2558,
      "eph": 2559,
      "ĠFrench": 2560,
      "orgen": 2561,
      "è·": 2562,
      "gan": 2563,
      "ousand": 2564,
      "æĪĳä»¬": 2565,
      "mo": 2566,
      "hey": 2567,
      "avy": 2568,
      "ges": 2569,
      "orld": 2570,
      "ales": 2571,
      "though": 2572,
      "Ġcor": 2573,
      "Ġobject": 2574,
      "ai": 2575,
      "ution": 2576,
      "æŃ": 2577,
      "Ġeither": 2578,
      "Ġreason": 2579,
      "Ġbra": 2580,
      "Ġmess": 2581,
      "Ġtoys": 2582,
      "ussen": 2583,
      "Ġmis": 2584,
      "Ġvill": 2585,
      "iting": 2586,
      "ived": 2587,
      "Ġjo": 2588,
      "pped": 2589,
      "ĠIf": 2590,
      "vely": 2591,
      "Ġonze": 2592,
      "ouden": 2593,
      "Ġ16": 2594,
      "artment": 2595,
      "oos": 2596,
      "gest": 2597,
      "ĠMay": 2598,
      "urs": 2599,
      "Ġwall": 2600,
      "ana": 2601,
      "eeft": 2602,
      "At": 2603,
      "val": 2604,
      "Ġtoe": 2605,
      "rest": 2606,
      "Ġfast": 2607,
      "unning": 2608,
      "ummer": 2609,
      "erk": 2610,
      "olly": 2611,
      "Ġdeal": 2612,
      "aag": 2613,
      "Ġcond": 2614,
      "pro": 2615,
      "aken": 2616,
      "alen": 2617,
      "Ġsaf": 2618,
      "Ġarm": 2619,
      "Ġclass": 2620,
      "bij": 2621,
      "eared": 2622,
      "ract": 2623,
      "atch": 2624,
      "Ġmill": 2625,
      "Ġbecome": 2626,
      "shall": 2627,
      "ĠEn": 2628,
      "Ġkunt": 2629,
      "ĠPro": 2630,
      "åı¯": 2631,
      "Ġgroup": 2632,
      "Ġshop": 2633,
      "oms": 2634,
      "Ġclean": 2635,
      "ä¸º": 2636,
      "uary": 2637,
      "ä¼ļ": 2638,
      "ism": 2639,
      "----------------": 2640,
      "cil": 2641,
      "bt": 2642,
      "Ġice": 2643,
      "Ġclot": 2644,
      "Ġwomen": 2645,
      "ubl": 2646,
      "rict": 2647,
      "Ġkijk": 2648,
      "ham": 2649,
      "Ġmot": 2650,
      "isc": 2651,
      "ĠIk": 2652,
      "hold": 2653,
      "Ġstru": 2654,
      "Ġthousand": 2655,
      "Ġzei": 2656,
      "ued": 2657,
      "Ġnorth": 2658,
      "çĿ": 2659,
      "owed": 2660,
      "chien": 2661,
      "Ġnamed": 2662,
      "Ġkilled": 2663,
      "éĹ": 2664,
      "ijf": 2665,
      "ellen": 2666,
      "Ġconst": 2667,
      "igin": 2668,
      "ural": 2669,
      "Ġarea": 2670,
      "å¾Ĺ": 2671,
      "ieren": 2672,
      "Ġguy": 2673,
      "does": 2674,
      "Af": 2675,
      "GR": 2676,
      "Ġi": 2677,
      "Ġaltijd": 2678,
      "å¦Ī": 2679,
      "Your": 2680,
      "Ġcompany": 2681,
      "ĠAb": 2682,
      "Ġtwenty": 2683,
      "Ġhist": 2684,
      "Ġmount": 2685,
      "ĠJu": 2686,
      "arm": 2687,
      "Ġzit": 2688,
      "osp": 2689,
      "åĲİ": 2690,
      "Waarom": 2691,
      "Ġ14": 2692,
      "Ġboat": 2693,
      "veel": 2694,
      "oops": 2695,
      "èĥ½": 2696,
      "Ġhowever": 2697,
      "alth": 2698,
      "Ġgets": 2699,
      "Ġ194": 2700,
      "Ġgebe": 2701,
      "sc": 2702,
      "Ġkept": 2703,
      "11": 2704,
      "Ġfro": 2705,
      "rap": 2706,
      "iÃ«": 2707,
      "band": 2708,
      "EX": 2709,
      "Ġ*": 2710,
      "Ġfly": 2711,
      "raid": 2712,
      "Ġdag": 2713,
      "ering": 2714,
      "iving": 2715,
      "Ġvast": 2716,
      "Ġsamen": 2717,
      "icks": 2718,
      "beeld": 2719,
      "Ġtried": 2720,
      "Ġexper": 2721,
      "Ah": 2722,
      "ja": 2723,
      "Ġap": 2724,
      "Ġachter": 2725,
      "ugust": 2726,
      "Ġsomeone": 2727,
      "Ġeigen": 2728,
      "ĠPl": 2729,
      "Ġwish": 2730,
      "entle": 2731,
      "arb": 2732,
      "Ġins": 2733,
      "ä»¥": 2734,
      "bit": 2735,
      "ically": 2736,
      "even": 2737,
      "ĠWh": 2738,
      "æĹ¶": 2739,
      "Ġglad": 2740,
      "Ġspec": 2741,
      "ä»Ģ": 2742,
      "Ġ2020": 2743,
      "Ġband": 2744,
      "morrow": 2745,
      "Ġfish": 2746,
      "ĠMOT": 2747,
      "Ġcorn": 2748,
      "Ġzegt": 2749,
      "Ġfif": 2750,
      "Ġworking": 2751,
      "ä»Ģä¹Ī": 2752,
      "Ġhur": 2753,
      "orge": 2754,
      "Ġ195": 2755,
      "Ġpo": 2756,
      "Ġvriend": 2757,
      "Ġ11": 2758,
      "apan": 2759,
      "Ġzeggen": 2760,
      "dden": 2761,
      "Ġlived": 2762,
      "ĠWorld": 2763,
      "Ġbuy": 2764,
      "ĠCount": 2765,
      "Ġstep": 2766,
      "have": 2767,
      "ĠÃ©": 2768,
      "Ġfur": 2769,
      "Ġseven": 2770,
      "Ġpartic": 2771,
      "inning": 2772,
      "oort": 2773,
      "Ħ¿": 2774,
      "allen": 2775,
      "Ġmilk": 2776,
      "Ġpost": 2777,
      "Ġdinner": 2778,
      "iden": 2779,
      "Ġjump": 2780,
      "Ġsucc": 2781,
      "uhhuh": 2782,
      "Ġegg": 2783,
      "Here": 2784,
      "Ġpot": 2785,
      "Ġstood": 2786,
      "Ġliving": 2787,
      "ances": 2788,
      "Ġlaug": 2789,
      "Ġtek": 2790,
      "Ġthemselves": 2791,
      "Ġvar": 2792,
      "Ġwithin": 2793,
      "Ġdus": 2794,
      "Ġcried": 2795,
      "Ġfunny": 2796,
      "ĠHij": 2797,
      "å¯¹": 2798,
      "aged": 2799,
      "llo": 2800,
      "Ġthinking": 2801,
      "Ġafraid": 2802,
      "iversity": 2803,
      "Ġroll": 2804,
      "IT": 2805,
      "æĸ": 2806,
      "Ġsudden": 2807,
      "Ġmarried": 2808,
      "bur": 2809,
      "ley": 2810,
      "Ġsuper": 2811,
      "ä¸ĭ": 2812,
      "å¤©": 2813,
      "åĴ": 2814,
      "ED": 2815,
      "éĿ": 2816,
      "Ġversch": 2817,
      "]?": 2818,
      "velop": 2819,
      "ĠPhil": 2820,
      "pos": 2821,
      "Ġsystem": 2822,
      "com": 2823,
      "Ġfootball": 2824,
      "aul": 2825,
      "kken": 2826,
      "ession": 2827,
      "arden": 2828,
      "One": 2829,
      "Ġusually": 2830,
      "Ġfing": 2831,
      "Ġcommon": 2832,
      "Ġguys": 2833,
      "friend": 2834,
      "att": 2835,
      "ories": 2836,
      "è¿ĩ": 2837,
      "ĠYes": 2838,
      "Ġtakes": 2839,
      "Ġconc": 2840,
      "stead": 2841,
      "Ġbooks": 2842,
      "aam": 2843,
      "ello": 2844,
      "arling": 2845,
      "å®¶": 2846,
      "ford": 2847,
      "Ġhang": 2848,
      "die": 2849,
      "ullen": 2850,
      "iger": 2851,
      "Ġlangu": 2852,
      "ĠEen": 2853,
      "Ġclim": 2854,
      "Ġtest": 2855,
      "Ġhors": 2856,
      "Ġadv": 2857,
      "ĠMan": 2858,
      "ending": 2859,
      "Ġexcl": 2860,
      "two": 2861,
      "ĠJapan": 2862,
      "Ġalle": 2863,
      "con": 2864,
      "oofd": 2865,
      "ĠIndian": 2866,
      "rijk": 2867,
      "Ġca": 2868,
      "ĠJack": 2869,
      "ocal": 2870,
      "Ġfinished": 2871,
      "Ġran": 2872,
      "ility": 2873,
      "aats": 2874,
      "Ġdoctor": 2875,
      "ĠTr": 2876,
      "Ġdenk": 2877,
      "Ġcross": 2878,
      "ĠCom": 2879,
      "ene": 2880,
      "lease": 2881,
      "çĪ": 2882,
      "ĠSouth": 2883,
      "aff": 2884,
      "ĠCar": 2885,
      "ĠJanuary": 2886,
      "Ġdood": 2887,
      "Ġgeh": 2888,
      "ijden": 2889,
      "ĠFe": 2890,
      "AP": 2891,
      "ĠBritish": 2892,
      "Ġfa": 2893,
      "ays": 2894,
      "Ġcontro": 2895,
      "ĠÃ©Ã©n": 2896,
      "par": 2897,
      "ĠNorth": 2898,
      "dracht": 2899,
      "Ġlu": 2900,
      "asure": 2901,
      "Of": 2902,
      "ĠCaptain": 2903,
      "unk": 2904,
      "Ġquiet": 2905,
      "Ġwaren": 2906,
      "TER": 2907,
      "Ġhours": 2908,
      "uren": 2909,
      "Ġpen": 2910,
      "ager": 2911,
      "EL": 2912,
      "ondon": 2913,
      "10": 2914,
      "unic": 2915,
      "ills": 2916,
      "Ġgod": 2917,
      "gram": 2918,
      "Ġniets": 2919,
      "ality": 2920,
      "åĳ¢": 2921,
      "ulation": 2922,
      "ĠâĢ¢": 2923,
      "éģ": 2924,
      "ĠEurope": 2925,
      "Jij": 2926,
      "wij": 2927,
      "ging": 2928,
      "Ġattack": 2929,
      "when": 2930,
      "Ġdiv": 2931,
      "ĠDr": 2932,
      "Ġelkaar": 2933,
      "ounds": 2934,
      "Ġdaughter": 2935,
      "Ġtoen": 2936,
      "aking": 2937,
      "Ġgovernment": 2938,
      "Ġton": 2939,
      "Ġtouch": 2940,
      "EXP": 2941,
      "Re": 2942,
      "ining": 2943,
      "hern": 2944,
      "Ġtrouble": 2945,
      "ĠPeter": 2946,
      "Ġvragen": 2947,
      "Ġmidd": 2948,
      "ĠWat": 2949,
      "Ġill": 2950,
      "éĩĮ": 2951,
      "Ġiemand": 2952,
      "inet": 2953,
      "Ġrunning": 2954,
      "Ġ13": 2955,
      "Ġchance": 2956,
      "ral": 2957,
      "Ġcal": 2958,
      "ĠAls": 2959,
      "bles": 2960,
      "Ġtekst": 2961,
      "åĦ¿": 2962,
      "ĠPar": 2963,
      "Ġfield": 2964,
      "then": 2965,
      "Ġcomplet": 2966,
      "reed": 2967,
      "Ġlaten": 2968,
      "Ġvolg": 2969,
      "Ġpassed": 2970,
      "ĠDo": 2971,
      "Ġnose": 2972,
      "Ġorgan": 2973,
      "teen": 2974,
      "Wh": 2975,
      "Ġsche": 2976,
      "emaal": 2977,
      "ler": 2978,
      "Ġsol": 2979,
      "Ġhit": 2980,
      "Ġsoft": 2981,
      "geven": 2982,
      "Ġletter": 2983,
      "ĠâĨ": 2984,
      "oose": 2985,
      "Ġnee": 2986,
      "ĠJune": 2987,
      "Ġvrouw": 2988,
      "aimed": 2989,
      "Ġtoy": 2990,
      "Ġsail": 2991,
      "Ġdream": 2992,
      "ument": 2993,
      "acter": 2994,
      "ĠHar": 2995,
      "Ġgrote": 2996,
      "Ġsitting": 2997,
      "ĠMarch": 2998,
      "äºĭ": 2999,
      "lex": 3000,
      "ĠJuly": 3001,
      "gelijk": 3002,
      "Ġreport": 3003,
      "Ġhuis": 3004,
      "Ġgold": 3005,
      "ĠNe": 3006,
      "Ġproper": 3007,
      "ĠYOU": 3008,
      "Ġdiscover": 3009,
      "acher": 3010,
      "vision": 3011,
      "etje": 3012,
      "ample": 3013,
      "pril": 3014,
      "Ġdoe": 3015,
      "ĠAfter": 3016,
      "è°": 3017,
      "Ġbell": 3018,
      "eek": 3019,
      "Ġsurpr": 3020,
      "Ġfilm": 3021,
      "oren": 3022,
      "Ġboard": 3023,
      "erence": 3024,
      "Ġwhether": 3025,
      "Ġkeer": 3026,
      "Ġabove": 3027,
      "Ġblock": 3028,
      "?'": 3029,
      "ĠLondon": 3030,
      "Ġanswered": 3031,
      "èĩ": 3032,
      "Ġclos": 3033,
      "ĠItal": 3034,
      "isten": 3035,
      "ĠAugust": 3036,
      "ĠWest": 3037,
      "Daar": 3038,
      "Ġ30": 3039,
      "Ġsuppose": 3040,
      "Ġeffect": 3041,
      "Ġgentle": 3042,
      "Ġinde": 3043,
      "Ġkiss": 3044,
      "Ġkinderen": 3045,
      "Miss": 3046,
      "mas": 3047,
      "oen": 3048,
      "Ġearth": 3049,
      "Ġspecial": 3050,
      "Ġclothes": 3051,
      "Ġtired": 3052,
      "Ġstat": 3053,
      "ctober": 3054,
      "Ġmonths": 3055,
      "ardon": 3056,
      "Ġweten": 3057,
      "åº": 3058,
      "oeg": 3059,
      "owers": 3060,
      "è¡": 3061,
      "Ġbank": 3062,
      "makes": 3063,
      "Ġreleased": 3064,
      "Ġstri": 3065,
      "isch": 3066,
      "Ġlives": 3067,
      "Ġwindow": 3068,
      "Ġsnow": 3069,
      "Sorry": 3070,
      "ĠCol": 3071,
      "Ġbirthday": 3072,
      "dom": 3073,
      "Ex": 3074,
      "cember": 3075,
      "Ġpublic": 3076,
      "irt": 3077,
      "aard": 3078,
      "Ġwarm": 3079,
      "eptember": 3080,
      "Ġdiffic": 3081,
      "Ġkun": 3082,
      "ĠCal": 3083,
      "ĠGu": 3084,
      "Ġpossible": 3085,
      "aven": 3086,
      "rouw": 3087,
      "point": 3088,
      "Ġ193": 3089,
      "Ġherself": 3090,
      "Ġfamil": 3091,
      "Ga": 3092,
      "Ġvide": 3093,
      "Ġnearly": 3094,
      "ius": 3095,
      "Ġmist": 3096,
      "Ġerg": 3097,
      "Ġbinnen": 3098,
      "ips": 3099,
      "Ġeerste": 3100,
      "Ġzoals": 3101,
      "Ġproblem": 3102,
      "Ġled": 3103,
      "amb": 3104,
      "iod": 3105,
      "yy": 3106,
      "Ġlow": 3107,
      "rit": 3108,
      "Ġbang": 3109,
      "inea": 3110,
      "bum": 3111,
      "resent": 3112,
      "è¿Ļä¸ª": 3113,
      "Ġclear": 3114,
      "Ġcaptain": 3115,
      "Ġfix": 3116,
      "Ġsand": 3117,
      "Ġbuilt": 3118,
      "Ġcou": 3119,
      "ĠWar": 3120,
      "king": 3121,
      "Ġla": 3122,
      "æĥ³": 3123,
      "ĠSw": 3124,
      "Ġsuff": 3125,
      "å½": 3126,
      "ior": 3127,
      "çĿĢ": 3128,
      "sl": 3129,
      "ĠMc": 3130,
      "Ġknows": 3131,
      "ored": 3132,
      "Ġgroot": 3133,
      "Ġfit": 3134,
      "Ġsomebody": 3135,
      "Ġtrees": 3136,
      "uthor": 3137,
      "Ġalright": 3138,
      "12": 3139,
      "Ġdarling": 3140,
      "Ġdru": 3141,
      "Ġorigin": 3142,
      "rijf": 3143,
      "Die": 3144,
      "Ġdoet": 3145,
      "Ġverl": 3146,
      "._": 3147,
      "Ġdevelop": 3148,
      "chen": 3149,
      "night": 3150,
      "Ġseries": 3151,
      "Ġtreat": 3152,
      "ĠBy": 3153,
      "Ġgewoon": 3154,
      "Ġdeep": 3155,
      "Ġcannot": 3156,
      "Ġreplied": 3157,
      "wo": 3158,
      "Ġperfect": 3159,
      "ĠBlack": 3160,
      "Ġdet": 3161,
      "hel": 3162,
      "elijke": 3163,
      "Ġregion": 3164,
      "Ġdest": 3165,
      "ature": 3166,
      "Ġmember": 3167,
      "Ġcow": 3168,
      "Ġhappen": 3169,
      "Ġseems": 3170,
      "Ġtruck": 3171,
      "ĠDon": 3172,
      "elling": 3173,
      "Ġsingle": 3174,
      "Ġprison": 3175,
      "Ġperhaps": 3176,
      "ute": 3177,
      "gue": 3178,
      "Ġbright": 3179,
      "æ°": 3180,
      "Ġnational": 3181,
      "Ġir": 3182,
      "Ġdanger": 3183,
      "Please": 3184,
      "Ġhuman": 3185,
      "gs": 3186,
      "ĠOctober": 3187,
      "Ġquar": 3188,
      "Ġoper": 3189,
      "Ġwij": 3190,
      "Ġriver": 3191,
      "ĠJim": 3192,
      "alright": 3193,
      "Ġwrite": 3194,
      "Ġshot": 3195,
      "Ġstraight": 3196,
      "ĠCounty": 3197,
      "ĠCon": 3198,
      "bruary": 3199,
      "cer": 3200,
      "åĲĹ": 3201,
      "Bl": 3202,
      "hi": 3203,
      "ov": 3204,
      "kom": 3205,
      "IC": 3206,
      "Ġcos": 3207,
      "Ġvader": 3208,
      "gas": 3209,
      "Ġhop": 3210,
      "Ġeye": 3211,
      "Ġlonger": 3212,
      "æĦ": 3213,
      "çĽ": 3214,
      "Ġabs": 3215,
      "Ġphone": 3216,
      "het": 3217,
      "Ġformer": 3218,
      "ĠSeptember": 3219,
      "Ġ25": 3220,
      "ection": 3221,
      "IS": 3222,
      "Ġbelang": 3223,
      "ĠOne": 3224,
      "Ġrain": 3225,
      "Ġeasy": 3226,
      "Ġdoubt": 3227,
      "éĢ": 3228,
      "llustr": 3229,
      "que": 3230,
      "Ġya": 3231,
      "play": 3232,
      "ping": 3233,
      "Ġmoo": 3234,
      "Ġest": 3235,
      "ĠDor": 3236,
      "Ġvraag": 3237,
      "Ġequ": 3238,
      "Ġvillage": 3239,
      "ä¸Ģä¸ª": 3240,
      "ĠWith": 3241,
      "Goed": 3242,
      "umm": 3243,
      "ĠMe": 3244,
      "ĠPer": 3245,
      "Ġarri": 3246,
      "Ġval": 3247,
      "ĠBill": 3248,
      "Every": 3249,
      "Ġdaddy": 3250,
      "umb": 3251,
      "Ġeind": 3252,
      "Because": 3253,
      "Mijn": 3254,
      "ĠDav": 3255,
      "singing": 3256,
      "Ġforward": 3257,
      "ends": 3258,
      "Ġappro": 3259,
      "ĠNove": 3260,
      "Ġwet": 3261,
      "åĩº": 3262,
      "Ġforget": 3263,
      "ĠNovember": 3264,
      "'.": 3265,
      "uwe": 3266,
      "Ġpolice": 3267,
      "Ġcatch": 3268,
      "Ġvinden": 3269,
      "Some": 3270,
      "Ġthird": 3271,
      "Ġuw": 3272,
      "åĲ§": 3273,
      "ggest": 3274,
      "Ġreached": 3275,
      "door": 3276,
      "Ġzitten": 3277,
      "With": 3278,
      "æķ": 3279,
      "Ġav": 3280,
      "iew": 3281,
      "Ġzie": 3282,
      "èĢģ": 3283,
      "Ġverk": 3284,
      "Ġgrow": 3285,
      "Ġbase": 3286,
      "Ġpract": 3287,
      "ray": 3288,
      "çĦ": 3289,
      "ĠYeah": 3290,
      "iny": 3291,
      "Ġdad": 3292,
      "iten": 3293,
      "Ġpoints": 3294,
      "Ġwhom": 3295,
      "Ġmillion": 3296,
      "ases": 3297,
      "Ġreturned": 3298,
      "net": 3299,
      "Ġevening": 3300,
      "ĠHelen": 3301,
      "Ġlovely": 3302,
      "Or": 3303,
      "work": 3304,
      "Ġtomorrow": 3305,
      "Ġtoward": 3306,
      "ĠSam": 3307,
      "ĠAm": 3308,
      "emy": 3309,
      "Ġpain": 3310,
      "Ġmoved": 3311,
      "Ġsuggest": 3312,
      "which": 3313,
      "Ġesc": 3314,
      "Ġrad": 3315,
      "Ġsteeds": 3316,
      "ustral": 3317,
      "ĠRos": 3318,
      "Ġmur": 3319,
      "Ġarms": 3320,
      "Ġworked": 3321,
      "tered": 3322,
      "Heb": 3323,
      "After": 3324,
      "Ġsight": 3325,
      "Ġfucking": 3326,
      "Ġhus": 3327,
      "Ġpark": 3328,
      "actly": 3329,
      "å¤ļ": 3330,
      "Ġcheck": 3331,
      "Ġglass": 3332,
      "ĠFebruary": 3333,
      "Ġtussen": 3334,
      "omers": 3335,
      "ĠGrand": 3336,
      "Ġnine": 3337,
      "Ġwillen": 3338,
      "UN": 3339,
      "ada": 3340,
      "min": 3341,
      "ram": 3342,
      "ĠDat": 3343,
      "Ġallemaal": 3344,
      "Ġbroken": 3345,
      "rat": 3346,
      "Ã¨": 3347,
      "Ġied": 3348,
      "omin": 3349,
      "ooh": 3350,
      "ĠPe": 3351,
      "zer": 3352,
      "æĭ": 3353,
      "æ¯": 3354,
      "ç»Ļ": 3355,
      "cially": 3356,
      "Ġseem": 3357,
      "çĦ¶": 3358,
      "Ġlisten": 3359,
      "sy": 3360,
      "itch": 3361,
      "Ġexample": 3362,
      "Ġlots": 3363,
      "Ġgedaan": 3364,
      "ĠâĨĴ": 3365,
      "Ġindeed": 3366,
      "ĠApril": 3367,
      "Ġeating": 3368,
      "Ġvolgende": 3369,
      "fast": 3370,
      "ĠMy": 3371,
      "Ġhorses": 3372,
      "SO": 3373,
      "ĠSome": 3374,
      "Ġspace": 3375,
      "Ġbuilding": 3376,
      "da": 3377,
      "Ġgeld": 3378,
      "ology": 3379,
      "ror": 3380,
      "Ġsad": 3381,
      "Have": 3382,
      "emen": 3383,
      "Ġwaiting": 3384,
      "ising": 3385,
      "chn": 3386,
      "Ġreact": 3387,
      "Ġbott": 3388,
      "RE": 3389,
      "Ġdam": 3390,
      "Ġhungry": 3391,
      "Ġfavor": 3392,
      "Ġdrie": 3393,
      "Ġbab": 3394,
      "Ġbez": 3395,
      "Ġforgot": 3396,
      "ĠMin": 3397,
      "ĠDecember": 3398,
      "mbers": 3399,
      "Ġnaam": 3400,
      "Ġber": 3401,
      "Ġalbum": 3402,
      "åľ°": 3403,
      "çŁ": 3404,
      "Ġtowards": 3405,
      "Ġpig": 3406,
      "ijt": 3407,
      "Ġmembers": 3408,
      "empt": 3409,
      "Laat": 3410,
      "iers": 3411,
      "ified": 3412,
      "Ġcool": 3413,
      "rible": 3414,
      "Ġclub": 3415,
      "çİ°": 3416,
      "Ġbath": 3417,
      "Ġcry": 3418,
      "Ġwritten": 3419,
      "Ġsick": 3420,
      "stairs": 3421,
      "Ġbreat": 3422,
      "stof": 3423,
      "Cl": 3424,
      "Ġmid": 3425,
      "Ġmiles": 3426,
      "éģĵ": 3427,
      "zy": 3428,
      "ision": 3429,
      "usp": 3430,
      "Ġshut": 3431,
      "ceed": 3432,
      "Ġperiod": 3433,
      "baar": 3434,
      "with": 3435,
      "Ġke": 3436,
      "unity": 3437,
      "ereen": 3438,
      "Ġinstead": 3439,
      "Ġplaces": 3440,
      "Ġstars": 3441,
      "Ġshoes": 3442,
      "Ġreach": 3443,
      "Ġknock": 3444,
      "ĠThese": 3445,
      "Ġstanding": 3446,
      "å¿ĥ": 3447,
      "Ġengine": 3448,
      "Ġsuccess": 3449,
      "ĠComm": 3450,
      "Ġrequ": 3451,
      "ender": 3452,
      "Ġslow": 3453,
      "Ġstation": 3454,
      "Ġyours": 3455,
      "Ġfollowed": 3456,
      "uld": 3457,
      "Ġheavy": 3458,
      "water": 3459,
      "ouncil": 3460,
      "Ġgeneral": 3461,
      "eed": 3462,
      "ask": 3463,
      "Ġstaan": 3464,
      "Ġnoises": 3465,
      "Ġmaj": 3466,
      "Ġrul": 3467,
      "Ġfort": 3468,
      "Ġcast": 3469,
      "eech": 3470,
      "Ġwereld": 3471,
      "Ġsupport": 3472,
      "Ġbroke": 3473,
      "joy": 3474,
      "yn": 3475,
      "ĠII": 3476,
      "ĠOp": 3477,
      "kÃ©": 3478,
      "your": 3479,
      "Ġdecl": 3480,
      "18": 3481,
      "Ġprogram": 3482,
      "Ġfarm": 3483,
      "wel": 3484,
      "Ġdepartment": 3485,
      "Ġhoofd": 3486,
      "ades": 3487,
      "Ġcre": 3488,
      "Ġcaught": 3489,
      "ĠDan": 3490,
      "Ġquickly": 3491,
      "Ġwee": 3492,
      "ĠSu": 3493,
      "Ġsouth": 3494,
      "Ġresult": 3495,
      "ĠTO": 3496,
      "ĠAustral": 3497,
      "å°±æĺ¯": 3498,
      "ç§": 3499,
      "ĠQue": 3500,
      "Ġcop": 3501,
      "ĠLou": 3502,
      "Ġbeter": 3503,
      "Ġposition": 3504,
      "Ġtonight": 3505,
      "lin": 3506,
      "erde": 3507,
      "Ġfill": 3508,
      "ĠOF": 3509,
      "Ġvideo": 3510,
      "Ġspir": 3511,
      "Ben": 3512,
      "aart": 3513,
      "Ġwhose": 3514,
      "ĠUniversity": 3515,
      "Ġthrow": 3516,
      "Ġexcept": 3517,
      "15": 3518,
      "Ġmoeder": 3519,
      "Ġputs": 3520,
      "ĠHen": 3521,
      "Ġplant": 3522,
      "mat": 3523,
      "Ġlig": 3524,
      "Ġcake": 3525,
      "ourn": 3526,
      "cing": 3527,
      "was": 3528,
      "Ġcouple": 3529,
      "Ġbev": 3530,
      "Ġwhatever": 3531,
      "Ġomdat": 3532,
      "Ġrespect": 3533,
      "Ġdesign": 3534,
      "Ġord": 3535,
      "idence": 3536,
      "Ġplayer": 3537,
      "aas": 3538,
      "log": 3539,
      "Ġport": 3540,
      "Ġappear": 3541,
      "Ġhusband": 3542,
      "ording": 3543,
      "Dan": 3544,
      "ener": 3545,
      "Ġdress": 3546,
      "Ġpress": 3547,
      "Ġstrange": 3548,
      "Ġsilver": 3549,
      "Ġchanged": 3550,
      "Ġfollowing": 3551,
      "Zo": 3552,
      "ege": 3553,
      "ĠNot": 3554,
      "rey": 3555,
      "Ġsecret": 3556,
      "Ġextra": 3557,
      "iol": 3558,
      "Ġluck": 3559,
      "Ġview": 3560,
      "Ġalthough": 3561,
      "Ġperform": 3562,
      "arp": 3563,
      "Wel": 3564,
      "Ġbow": 3565,
      "Ġshoot": 3566,
      "ĠMaar": 3567,
      "ding": 3568,
      "Ġtelling": 3569,
      "Ġlegs": 3570,
      "Ġjouw": 3571,
      "Ġmeant": 3572,
      "Ġann": 3573,
      "ĠPat": 3574,
      "Ġpieces": 3575,
      "Ġast": 3576,
      "Ġreceived": 3577,
      "sn": 3578,
      "çī": 3579,
      "Ġsend": 3580,
      "Ġopened": 3581,
      "Ġoffice": 3582,
      "Ġnieuwe": 3583,
      "othy": 3584,
      "Ġfear": 3585,
      "Ġstopped": 3586,
      "Ġadded": 3587,
      "Ġfellow": 3588,
      "ĠGood": 3589,
      "èĩª": 3590,
      "bers": 3591,
      "anne": 3592,
      "Ġcareer": 3593,
      "Ġvisit": 3594,
      "Ġsnel": 3595,
      "Ġexclaimed": 3596,
      "ae": 3597,
      "Ġahead": 3598,
      "reg": 3599,
      "Ġnou": 3600,
      "Ġlanguage": 3601,
      "æŀ": 3602,
      "Ġauthor": 3603,
      "Ġmaster": 3604,
      "Ġhell": 3605,
      "Ġcompet": 3606,
      "Ġdescri": 3607,
      "Ġwear": 3608,
      "Voor": 3609,
      "some": 3610,
      "Niet": 3611,
      "reek": 3612,
      "Ġfeeling": 3613,
      "box": 3614,
      "oten": 3615,
      "Ġ24": 3616,
      "Ġcertainly": 3617,
      "Ġging": 3618,
      "Ġpun": 3619,
      "ĠCity": 3620,
      "æĶ": 3621,
      "ĠTH": 3622,
      "Ġpresident": 3623,
      "house": 3624,
      "ighb": 3625,
      "See": 3626,
      "Ġanders": 3627,
      "Erm": 3628,
      "Fr": 3629,
      "Ġputting": 3630,
      "Ġsupposed": 3631,
      "Ġhistory": 3632,
      "ille": 3633,
      "Ġservice": 3634,
      "çĤ": 3635,
      "leep": 3636,
      "ĠWel": 3637,
      "çĶŁ": 3638,
      "Ġburn": 3639,
      "Ġnorm": 3640,
      "terday": 3641,
      "Ġsitu": 3642,
      "Ġworry": 3643,
      "Ġbutter": 3644,
      "Ġcharacter": 3645,
      "Hello": 3646,
      "Ġcarry": 3647,
      "13": 3648,
      "Ġdev": 3649,
      "Ġtelevision": 3650,
      "ĠRep": 3651,
      "Ġcomput": 3652,
      "Ġcentury": 3653,
      "ieved": 3654,
      "rem": 3655,
      "iment": 3656,
      "fer": 3657,
      "åĢ": 3658,
      "Ġkit": 3659,
      "Ġsounds": 3660,
      "Ġseat": 3661,
      "Ġdrive": 3662,
      "nen": 3663,
      "iety": 3664,
      "itted": 3665,
      "Ġwilde": 3666,
      "ĠMet": 3667,
      "ijkt": 3668,
      "Ġanimal": 3669,
      "Ġtail": 3670,
      "noon": 3671,
      "ted": 3672,
      "rodu": 3673,
      "Ġhol": 3674,
      "olk": 3675,
      "åģ": 3676,
      "gar": 3677,
      "Ġdi": 3678,
      "ĠWell": 3679,
      "Ġkids": 3680,
      "ĠCent": 3681,
      "Ġobs": 3682,
      "Ġkrijgen": 3683,
      "Ġgest": 3684,
      "'?": 3685,
      "Ġconsider": 3686,
      "ino": 3687,
      "Ġpray": 3688,
      "cient": 3689,
      "Ġpupp": 3690,
      "MAR": 3691,
      "Ġlim": 3692,
      "ĠPres": 3693,
      "Ġaccept": 3694,
      "RY": 3695,
      "ais": 3696,
      "rab": 3697,
      "ĠRoman": 3698,
      "ĠGeorge": 3699,
      "maal": 3700,
      "Ġho": 3701,
      "ĠJames": 3702,
      "Ġplaats": 3703,
      "ounter": 3704,
      "Ġweeks": 3705,
      "Ġfle": 3706,
      "Ġworth": 3707,
      "ĠRuss": 3708,
      "Ġcarried": 3709,
      "oul": 3710,
      "Ġmaakt": 3711,
      "Ġhast": 3712,
      "Ġtel": 3713,
      "Ġain": 3714,
      "Ġusing": 3715,
      "Ġworks": 3716,
      "Ġcirc": 3717,
      "Ġcareful": 3718,
      ".,": 3719,
      "Ġoor": 3720,
      "isk": 3721,
      "Ġneck": 3722,
      "Ġeverybody": 3723,
      "Ġgemaakt": 3724,
      "Ġincluding": 3725,
      "Kijk": 3726,
      "Maybe": 3727,
      "amm": 3728,
      "Ġwrote": 3729,
      "17": 3730,
      "Ġmass": 3731,
      "ĠSm": 3732,
      "Ġshout": 3733,
      "Ġmad": 3734,
      "eling": 3735,
      "Ġbreakfast": 3736,
      "ĠAN": 3737,
      "Ġopdracht": 3738,
      "Ġgoede": 3739,
      "Stop": 3740,
      "Daddy": 3741,
      "æİ": 3742,
      "ĠVer": 3743,
      "Ġhappens": 3744,
      "Ġafternoon": 3745,
      "Ġgeven": 3746,
      "gie": 3747,
      "ĠIN": 3748,
      "Ġpopulation": 3749,
      "ID": 3750,
      "è¾": 3751,
      "Ġhig": 3752,
      "Ġverh": 3753,
      "Ġdistrict": 3754,
      "Ġ0": 3755,
      "Ġgas": 3756,
      "iled": 3757,
      "Ġimag": 3758,
      "Ġpopular": 3759,
      "rang": 3760,
      "noise": 3761,
      "view": 3762,
      "iot": 3763,
      "Ġsusp": 3764,
      "ushed": 3765,
      "Ġneeds": 3766,
      "Ġcompan": 3767,
      "Ġsuddenly": 3768,
      "chten": 3769,
      "ospital": 3770,
      "nie": 3771,
      "ĠNow": 3772,
      "CHAP": 3773,
      "Ġkid": 3774,
      "Ġdecided": 3775,
      "è·Ł": 3776,
      "14": 3777,
      "say": 3778,
      "Ġseason": 3779,
      "åŃ©": 3780,
      "ris": 3781,
      "Ġgarden": 3782,
      "ĠPaul": 3783,
      "bert": 3784,
      "roy": 3785,
      "woord": 3786,
      "ads": 3787,
      "bled": 3788,
      "Ġrust": 3789,
      "Ġbelong": 3790,
      "ashing": 3791,
      "Ġsport": 3792,
      "Ġanyway": 3793,
      "Ġcommand": 3794,
      "Ġsafe": 3795,
      "Ġ$": 3796,
      "ĠTe": 3797,
      "Ġantw": 3798,
      "Ġappeared": 3799,
      "hello": 3800,
      "Ġevent": 3801,
      "ĠSy": 3802,
      "ĠChristmas": 3803,
      "CHAPTER": 3804,
      "Ġdu": 3805,
      "Ġmaak": 3806,
      "Ġpaar": 3807,
      "Ġtit": 3808,
      "rel": 3809,
      "ogn": 3810,
      "æł·": 3811,
      "ĠHall": 3812,
      "ribut": 3813,
      "Ġisland": 3814,
      "child": 3815,
      "iks": 3816,
      "pose": 3817,
      "Ġfail": 3818,
      "æ¬": 3819,
      "Ġpack": 3820,
      "Ġener": 3821,
      "ĠOf": 3822,
      "Ġanyone": 3823,
      "hand": 3824,
      "turn": 3825,
      "Ġmod": 3826,
      "ĠAmerica": 3827,
      "sk": 3828,
      "Ġuur": 3829,
      "Ġnews": 3830,
      "Ġmiddle": 3831,
      "ees": 3832,
      "Ġmach": 3833,
      "Ġexam": 3834,
      "Ġdifficult": 3835,
      "itions": 3836,
      "ĠSir": 3837,
      "abel": 3838,
      "Ġshape": 3839,
      "arty": 3840,
      "ĠRich": 3841,
      "ipe": 3842,
      "Ġninet": 3843,
      "Ġtruth": 3844,
      "Ġring": 3845,
      "STE": 3846,
      "achten": 3847,
      "ĠWilliam": 3848,
      "Ġcost": 3849,
      "Wie": 3850,
      "åī": 3851,
      "Ġbrand": 3852,
      "Any": 3853,
      "ket": 3854,
      "ula": 3855,
      "will": 3856,
      "Ġtape": 3857,
      "str": 3858,
      "THE": 3859,
      "Ġhen": 3860,
      "Ġbottom": 3861,
      "ĠSe": 3862,
      "oeken": 3863,
      "Ġcoff": 3864,
      "Ġswim": 3865,
      "Ġexpect": 3866,
      "pers": 3867,
      "Ġmommy": 3868,
      "KAT": 3869,
      "Ġmoest": 3870,
      "ression": 3871,
      "OM": 3872,
      "Ġhy": 3873,
      "Ġpaint": 3874,
      "Ġlos": 3875,
      "Ġ100": 3876,
      "Ġzeker": 3877,
      "would": 3878,
      "Ġwie": 3879,
      "Ġsilly": 3880,
      "Ġthou": 3881,
      "bing": 3882,
      "maybe": 3883,
      "ĠNational": 3884,
      "!'": 3885,
      "Ġfurther": 3886,
      "burg": 3887,
      "Ġsave": 3888,
      "ä¸Ń": 3889,
      "Ġverschill": 3890,
      "LE": 3891,
      "Op": 3892,
      "icle": 3893,
      "Ġspl": 3894,
      "Ġbread": 3895,
      "ician": 3896,
      "Ġoud": 3897,
      "Ġride": 3898,
      "Ġrelig": 3899,
      "çŁ¥": 3900,
      "å§": 3901,
      "Ġverb": 3902,
      "angen": 3903,
      "16": 3904,
      "Ġzij": 3905,
      "Ġeten": 3906,
      "Ġble": 3907,
      "Ġlift": 3908,
      "ĠCr": 3909,
      "Ġshit": 3910,
      "Ġexactly": 3911,
      "AS": 3912,
      "Will": 3913,
      "Ġarmy": 3914,
      "Ġtrad": 3915,
      "ĠIndia": 3916,
      "light": 3917,
      "Ġenjoy": 3918,
      "Ġbull": 3919,
      "Ġitself": 3920,
      "ission": 3921,
      "Ġkitchen": 3922,
      "zo": 3923,
      "isted": 3924,
      "Ġwaarom": 3925,
      "çĻ": 3926,
      "Ġstuck": 3927,
      "Ġstreet": 3928,
      "Ġcomfort": 3929,
      "ĠDavid": 3930,
      "aser": 3931,
      "igg": 3932,
      "Ġant": 3933,
      "Ġvrij": 3934,
      "Ġbek": 3935,
      "ieft": 3936,
      "Ġyesterday": 3937,
      "oem": 3938,
      "Ġrepresent": 3939,
      "ĠQu": 3940,
      "Ġjuice": 3941,
      "Ġster": 3942,
      "Ġziet": 3943,
      "ĠMad": 3944,
      "ĠEll": 3945,
      "Ġ192": 3946,
      "time": 3947,
      "Ġsal": 3948,
      "Ġplays": 3949,
      "co": 3950,
      "ĠCath": 3951,
      "Ġhole": 3952,
      "Ġcust": 3953,
      "oto": 3954,
      "ĠDaar": 3955,
      "Ġneighb": 3956,
      "Ġteeth": 3957,
      "ites": 3958,
      "uts": 3959,
      "Ġcause": 3960,
      "Ġleuk": 3961,
      "iles": 3962,
      "Ġchick": 3963,
      "pes": 3964,
      "uke": 3965,
      "Ġseeing": 3966,
      "ĠVan": 3967,
      "ijs": 3968,
      "overn": 3969,
      "Ġwest": 3970,
      "å¾Ī": 3971,
      "Ġfre": 3972,
      "Ġgiving": 3973,
      "çĤ¹": 3974,
      "Ġbottle": 3975,
      "åĮ": 3976,
      "Ġaard": 3977,
      "Ġfat": 3978,
      "Ġpriv": 3979,
      "olf": 3980,
      "ively": 3981,
      "Âł": 3982,
      "roll": 3983,
      "rijven": 3984,
      "Ġcurr": 3985,
      "ĠMary": 3986,
      "Ġtick": 3987,
      "Ġmeest": 3988,
      "åĴĮ": 3989,
      "erry": 3990,
      "ett": 3991,
      "ĠMark": 3992,
      "board": 3993,
      "Ġmajor": 3994,
      "ocol": 3995,
      "Ġontst": 3996,
      "ishing": 3997,
      "Ġbrown": 3998,
      "Wait": 3999,
      "Ġcamer": 4000,
      "Ġorange": 4001,
      "iant": 4002,
      "iday": 4003,
      "Ġbrief": 4004,
      "æĢİ": 4005,
      "riage": 4006,
      "ĠGl": 4007,
      "Ġduck": 4008,
      "Ġeleph": 4009,
      "want": 4010,
      "å¥¹": 4011,
      "Ġfigure": 4012,
      "Ġou": 4013,
      "Ġself": 4014,
      "ĠSer": 4015,
      "ilar": 4016,
      "Ġalive": 4017,
      "Ġsex": 4018,
      "looks": 4019,
      "Ġkwam": 4020,
      "ĠMother": 4021,
      "Ġ22": 4022,
      "ds": 4023,
      "iest": 4024,
      "enk": 4025,
      "ival": 4026,
      "pecially": 4027,
      "por": 4028,
      "Ġmoving": 4029,
      "Ġought": 4030,
      "Ġlunch": 4031,
      "cuse": 4032,
      "Ġthee": 4033,
      "aches": 4034,
      "Ġmoder": 4035,
      "ĠNath": 4036,
      "Ġsomewhere": 4037,
      "waar": 4038,
      "wood": 4039,
      "Ġforest": 4040,
      "Take": 4041,
      "Ġcab": 4042,
      "ĠReg": 4043,
      "Ġwilt": 4044,
      "Ġconcern": 4045,
      "oken": 4046,
      "ï¿½ï¿½ï¿½ï¿½": 4047,
      "Ġbased": 4048,
      "iced": 4049,
      "acy": 4050,
      "ĠWhy": 4051,
      "åĽŀ": 4052,
      "uch": 4053,
      "wow": 4054,
      "omb": 4055,
      "Ġmix": 4056,
      "ico": 4057,
      "Ġkant": 4058,
      "Ġteacher": 4059,
      "Ġcreated": 4060,
      "Ge": 4061,
      "Me": 4062,
      "cul": 4063,
      "shire": 4064,
      "Ġdistance": 4065,
      "anneer": 4066,
      "æĢİä¹Ī": 4067,
      "roeg": 4068,
      "Ġwatching": 4069,
      "Ġjud": 4070,
      "Ġrecogn": 4071,
      "Ġaccount": 4072,
      "conom": 4073,
      "Ġzullen": 4074,
      "ĠPol": 4075,
      "Ġnecess": 4076,
      "Ġpictures": 4077,
      "æĬĬ": 4078,
      "ĠAng": 4079,
      "ĠDit": 4080,
      "Ġsky": 4081,
      "His": 4082,
      "ĠMommy": 4083,
      "Ġincre": 4084,
      "ä¸įæĺ¯": 4085,
      "Ġcapital": 4086,
      "Ġsummer": 4087,
      "ĠTed": 4088,
      "Ġfeed": 4089,
      "Sp": 4090,
      "Ġslecht": 4091,
      "gu": 4092,
      "estern": 4093,
      "Hier": 4094,
      "anden": 4095,
      "Ġ23": 4096,
      "Ġwoods": 4097,
      "Ġtemper": 4098,
      "ä¿": 4099,
      "Ġgezien": 4100,
      "Ġbirds": 4101,
      "Ġtast": 4102,
      "Ġmurder": 4103,
      "ĠHoe": 4104,
      "Ġaff": 4105,
      "Ġtrack": 4106,
      "ization": 4107,
      "Ġgesch": 4108,
      "Ġsense": 4109,
      "Ġproduct": 4110,
      "Ġprec": 4111,
      "Ġprep": 4112,
      "Ġparents": 4113,
      "Ġcontinued": 4114,
      "Ġgeeft": 4115,
      "ĠRob": 4116,
      "Ġgrass": 4117,
      "Ġflowers": 4118,
      "Ġgames": 4119,
      "Ġholding": 4120,
      "Ġtype": 4121,
      "AM": 4122,
      "Ġinformation": 4123,
      "Ġrub": 4124,
      "Ġentire": 4125,
      "vocal": 4126,
      "Ġkijken": 4127,
      "rek": 4128,
      "Ġcommune": 4129,
      "ael": 4130,
      "Ġearn": 4131,
      "Uh": 4132,
      "Ġbegin": 4133,
      "ampion": 4134,
      "Ar": 4135,
      "ĠHouse": 4136,
      "Ġallowed": 4137,
      "æ²¡æľī": 4138,
      "God": 4139,
      "Ġdry": 4140,
      "aves": 4141,
      "Ġstorm": 4142,
      "Ġbeginning": 4143,
      "Ġbought": 4144,
      "aker": 4145,
      "ounded": 4146,
      "Weet": 4147,
      "Ġklaar": 4148,
      "Ġlocal": 4149,
      "uten": 4150,
      "reng": 4151,
      "å¼Ģ": 4152,
      "Ġkop": 4153,
      "points": 4154,
      "ya": 4155,
      "ita": 4156,
      "Ġcorner": 4157,
      "Illustr": 4158,
      "enen": 4159,
      "Ġnor": 4160,
      "Ġleaves": 4161,
      "ĠEast": 4162,
      "hood": 4163,
      "Ġhasn": 4164,
      "Ġturns": 4165,
      "ĠChristian": 4166,
      "èµ·": 4167,
      "Ver": 4168,
      "geb": 4169,
      "Ġzonder": 4170,
      "Ġparts": 4171,
      "baby": 4172,
      "cks": 4173,
      "Ġspoke": 4174,
      "Nu": 4175,
      "Ġfinally": 4176,
      "Ġtrust": 4177,
      "Br": 4178,
      "UR": 4179,
      "Ġvand": 4180,
      "ĠBar": 4181,
      "komen": 4182,
      "uurlijk": 4183,
      "Ġhelemaal": 4184,
      "Ġcult": 4185,
      "Ġpet": 4186,
      "Ġcountries": 4187,
      "Ġremark": 4188,
      "Ġhospital": 4189,
      "Ġfres": 4190,
      "urd": 4191,
      "ipped": 4192,
      "bling": 4193,
      "Ġcell": 4194,
      "Ġfamous": 4195,
      "Ġwalking": 4196,
      "éĿ¢": 4197,
      "sit": 4198,
      "acing": 4199,
      "Ġcounty": 4200,
      "under": 4201,
      "Ġing": 4202,
      "Ġblow": 4203,
      "Ġwalked": 4204,
      "SOA": 4205,
      "Ġblijven": 4206,
      "Ġmention": 4207,
      "essor": 4208,
      "Ġweren": 4209,
      "Ġnames": 4210,
      "Ġleaving": 4211,
      "Ġattempt": 4212,
      "Om": 4213,
      "erve": 4214,
      "Ġiss": 4215,
      "ĠLea": 4216,
      "iteit": 4217,
      "ivil": 4218,
      "åĸ": 4219,
      "ĠEx": 4220,
      "Ġactiv": 4221,
      "Ġ2018": 4222,
      "Ġbusy": 4223,
      "ĠScott": 4224,
      "Ġlaughed": 4225,
      "Ġcontrol": 4226,
      "wise": 4227,
      "yle": 4228,
      "Ġpra": 4229,
      "Ġforce": 4230,
      "Ġeveryone": 4231,
      "Ġdig": 4232,
      "Ġhouden": 4233,
      "ĠPark": 4234,
      "Ġletters": 4235,
      "Ġcru": 4236,
      "ancy": 4237,
      "Ġmeis": 4238,
      "ĠBij": 4239,
      "OK": 4240,
      "line": 4241,
      "vin": 4242,
      "Ġgrew": 4243,
      "Ġmoe": 4244,
      "appen": 4245,
      "Ġdacht": 4246,
      "ruct": 4247,
      "Ġbeste": 4248,
      "Ġvict": 4249,
      "ume": 4250,
      "hys": 4251,
      "BRO": 4252,
      "Ġdingen": 4253,
      "Ġcand": 4254,
      "Ġprim": 4255,
      "ennis": 4256,
      "âĮī": 4257,
      "Ġbelangrijk": 4258,
      "Illustration": 4259,
      "Ġja": 4260,
      "Ġtechn": 4261,
      "Ġattention": 4262,
      "Ġsubject": 4263,
      "Ġeerst": 4264,
      "éĻ": 4265,
      "Ġpak": 4266,
      "Ġhealth": 4267,
      "la": 4268,
      "Ġrepe": 4269,
      "Ġlikes": 4270,
      "ĠHenry": 4271,
      "itary": 4272,
      "enny": 4273,
      "Ġmeeting": 4274,
      "Ġbuiten": 4275,
      "50": 4276,
      "give": 4277,
      "Ġthy": 4278,
      "Ġpolic": 4279,
      "Ġwinter": 4280,
      "unicip": 4281,
      "agon": 4282,
      "Ġplane": 4283,
      "osaur": 4284,
      "Ġlaatste": 4285,
      "IL": 4286,
      "za": 4287,
      "Ġcard": 4288,
      "ĠVoor": 4289,
      "appy": 4290,
      "Ġgebruikt": 4291,
      "ĠGermany": 4292,
      "åıª": 4293,
      "Ġespecially": 4294,
      "30": 4295,
      "iling": 4296,
      "lymp": 4297,
      "Ġtall": 4298,
      "Ġboven": 4299,
      "Ġfrog": 4300,
      "Ġopl": 4301,
      "Ġhardly": 4302,
      "elde": 4303,
      "Ġears": 4304,
      "Ġsilence": 4305,
      "ĠDorothy": 4306,
      "oit": 4307,
      "ination": 4308,
      "Ġinfl": 4309,
      "Ġstone": 4310,
      "ĠTim": 4311,
      "asion": 4312,
      "ĠGovern": 4313,
      "Ġhelpen": 4314,
      "Ġmatch": 4315,
      "Ġhost": 4316,
      "Ġterm": 4317,
      "uits": 4318,
      "Ġlose": 4319,
      "Ġstad": 4320,
      "Ġzet": 4321,
      "Ġverm": 4322,
      "cious": 4323,
      "Ã¶": 4324,
      "cell": 4325,
      "ĠRiver": 4326,
      "Ġ2021": 4327,
      "âĮĭ": 4328,
      "Ġcrow": 4329,
      "ĠPresident": 4330,
      "raph": 4331,
      "Ġcray": 4332,
      "ground": 4333,
      "Ġdropped": 4334,
      "Ġconn": 4335,
      "Ġeh": 4336,
      "è¯Ŀ": 4337,
      "ĠSchool": 4338,
      "Misschien": 4339,
      "antly": 4340,
      "Ġlevel": 4341,
      "Ġprocess": 4342,
      "Ġthirty": 4343,
      "Ġvaak": 4344,
      "aden": 4345,
      "Ġanybody": 4346,
      "Ġwed": 4347,
      "ĠEle": 4348,
      "aper": 4349,
      "Ġcrying": 4350,
      "Ġaant": 4351,
      "Ġut": 4352,
      "eh": 4353,
      "Ġdue": 4354,
      "Ġniks": 4355,
      "Ġinf": 4356,
      "Ġjack": 4357,
      "Ġgewe": 4358,
      "çľŁ": 4359,
      "Ġcovered": 4360,
      "Ġcoffee": 4361,
      "ĠMaj": 4362,
      "Ġwist": 4363,
      "Ġinh": 4364,
      "ustri": 4365,
      "Per": 4366,
      "Ġ&": 4367,
      "Ġpraten": 4368,
      "rant": 4369,
      "è´": 4370,
      "Ġlaugh": 4371,
      "ires": 4372,
      "ĠIr": 4373,
      "Ġcheese": 4374,
      "å±": 4375,
      "omes": 4376,
      "inds": 4377,
      "Ġprofession": 4378,
      "éķ": 4379,
      "éĺ": 4380,
      "Ġhoor": 4381,
      "ĠOlymp": 4382,
      "Ġmoon": 4383,
      "astic": 4384,
      "Ġconvers": 4385,
      "Ġanymore": 4386,
      "Dus": 4387,
      "ams": 4388,
      "Ġlaughs": 4389,
      "ĠDad": 4390,
      "ploy": 4391,
      "åĪ«": 4392,
      "Wil": 4393,
      "Ġwoorden": 4394,
      "Ġloud": 4395,
      "çŁ¥éģĵ": 4396,
      "Ã¡": 4397,
      "çĭ": 4398,
      "Ġban": 4399,
      "Ġhall": 4400,
      "ĠBra": 4401,
      "Ġalinea": 4402,
      "Ġcomb": 4403,
      "clock": 4404,
      "çŃ": 4405,
      "Ġrid": 4406,
      "Ġrap": 4407,
      "Ġbridge": 4408,
      "Ġsimp": 4409,
      "Ġfinish": 4410,
      "bel": 4411,
      "Ġprop": 4412,
      "Ġshowed": 4413,
      "Ġbere": 4414,
      "Ġ28": 4415,
      "Ġstudy": 4416,
      "kn": 4417,
      "Ġ26": 4418,
      "Ġcharge": 4419,
      "Ġlearned": 4420,
      "Ġcamera": 4421,
      "Ġpal": 4422,
      "aded": 4423,
      "ĠHowever": 4424,
      "CAT": 4425,
      "oom": 4426,
      "elve": 4427,
      "ĠMich": 4428,
      "iforn": 4429,
      "ĠGreat": 4430,
      "Ġfir": 4431,
      "Ġwhis": 4432,
      "Ġcomputer": 4433,
      "Ġinvol": 4434,
      "Ġspring": 4435,
      "Ġwriting": 4436,
      "Ġdelight": 4437,
      "Ġsize": 4438,
      "Ġviol": 4439,
      "Ġrond": 4440,
      "Ġ50": 4441,
      "Ġdiscuss": 4442,
      "\"'": 4443,
      "ĠâĮ": 4444,
      "å¹´": 4445,
      "Ġfinger": 4446,
      "zet": 4447,
      "isf": 4448,
      "Ġcapt": 4449,
      "Ġlying": 4450,
      "Ġkick": 4451,
      "Ġlargest": 4452,
      "Ġdiscovered": 4453,
      "RYA": 4454,
      "whis": 4455,
      "Ġhate": 4456,
      "Ġpush": 4457,
      "Ġbran": 4458,
      "Ġfifty": 4459,
      "ĠRichard": 4460,
      "Ġplaced": 4461,
      "itty": 4462,
      "Ġeggs": 4463,
      "gasps": 4464,
      "Ġfem": 4465,
      "Ġloved": 4466,
      "ĠQueen": 4467,
      "RI": 4468,
      "Ġfool": 4469,
      "Ġpink": 4470,
      "Ġterrible": 4471,
      "Ġgenoeg": 4472,
      "Ġinclude": 4473,
      "takes": 4474,
      "ograp": 4475,
      "itude": 4476,
      "Ġox": 4477,
      "ĠMed": 4478,
      "Ġconsid": 4479,
      "è®©": 4480,
      "ils": 4481,
      "estig": 4482,
      "medi": 4483,
      "ĠRepubl": 4484,
      "Ġhoney": 4485,
      "uture": 4486,
      "uses": 4487,
      "aining": 4488,
      "ouses": 4489,
      "Ġserious": 4490,
      "Ġdisapp": 4491,
      "ĠLouis": 4492,
      "By": 4493,
      "back": 4494,
      "atur": 4495,
      "Ġgives": 4496,
      "Ġate": 4497,
      "izes": 4498,
      "Ġmonkey": 4499,
      "åĳĢ": 4500,
      "AY": 4501,
      "Ġpaid": 4502,
      "Ġrose": 4503,
      "uel": 4504,
      "ĠMon": 4505,
      "Ġspot": 4506,
      "Ġnature": 4507,
      "pardon": 4508,
      "ĠSomers": 4509,
      "ĠMat": 4510,
      "Ġbelow": 4511,
      "Ġep": 4512,
      "erson": 4513,
      "auw": 4514,
      "Ġpuzz": 4515,
      "Ġauto": 4516,
      "Ġnieuw": 4517,
      "Ġeduc": 4518,
      "uct": 4519,
      "Ġham": 4520,
      "ably": 4521,
      "bes": 4522,
      "omp": 4523,
      "ĠChar": 4524,
      "iar": 4525,
      "Ġet": 4526,
      "Ġbeetje": 4527,
      "Ġmountain": 4528,
      "pret": 4529,
      "Ġdeel": 4530,
      "ĠSec": 4531,
      "Ġnatural": 4532,
      "kelijk": 4533,
      "Ġ29": 4534,
      "ĠRosalie": 4535,
      "ka": 4536,
      "ours": 4537,
      "Ġsheep": 4538,
      "ometimes": 4539,
      "GRA": 4540,
      "ĠCaliforn": 4541,
      "Pro": 4542,
      "itive": 4543,
      "Ġcourt": 4544,
      "Ġlief": 4545,
      "Ġleng": 4546,
      "Ġmedic": 4547,
      "Ġiedereen": 4548,
      "JEN": 4549,
      "counter": 4550,
      "Ġ=": 4551,
      "ching": 4552,
      "ĠBrown": 4553,
      "hod": 4554,
      "Ġasleep": 4555,
      "Ġverschillende": 4556,
      "dr": 4557,
      "tell": 4558,
      "Ġpit": 4559,
      "uty": 4560,
      "outs": 4561,
      "Ġholds": 4562,
      "Thanks": 4563,
      "Ġwash": 4564,
      "Ġtravel": 4565,
      "Ġtherefore": 4566,
      "Ġspeed": 4567,
      "ĠLet": 4568,
      "zelfde": 4569,
      "Ġdemand": 4570,
      "ums": 4571,
      "Ġsharp": 4572,
      "Ġ21": 4573,
      "ä¹ĭ": 4574,
      "Ġwonderful": 4575,
      "rect": 4576,
      "Ġhou": 4577,
      "Ġpeace": 4578,
      "æĥħ": 4579,
      "ashed": 4580,
      "Ġspijt": 4581,
      "Ġsuit": 4582,
      "Ġwelke": 4583,
      "ny": 4584,
      "asant": 4585,
      "ĠFl": 4586,
      "gypt": 4587,
      "erm": 4588,
      "Ġrace": 4589,
      "Ġbigger": 4590,
      "\")": 4591,
      "viously": 4592,
      "Ġeast": 4593,
      "Ġstub": 4594,
      "è§ī": 4595,
      "ption": 4596,
      "æľĢ": 4597,
      "Ġ2019": 4598,
      "Ġ#": 4599,
      "ĠEm": 4600,
      "orthern": 4601,
      "Ġsimilar": 4602,
      "obert": 4603,
      "utenant": 4604,
      "ĠNor": 4605,
      "Ġplate": 4606,
      "Ġsett": 4607,
      "Ġfaith": 4608,
      "æĮ": 4609,
      "imin": 4610,
      "ulp": 4611,
      "ĠLa": 4612,
      "Ġneem": 4613,
      "Tell": 4614,
      "hal": 4615,
      "ky": 4616,
      "esus": 4617,
      "Ġ40": 4618,
      "Ġshows": 4619,
      "rican": 4620,
      "Ġdeed": 4621,
      "Ġbelieved": 4622,
      "ounced": 4623,
      "Ġgraag": 4624,
      "Ġda": 4625,
      "Ġlid": 4626,
      "oopt": 4627,
      "ĠBel": 4628,
      "Ġonderz": 4629,
      "sm": 4630,
      "Ġearl": 4631,
      "ĠMag": 4632,
      "ilig": 4633,
      "Ġfright": 4634,
      "ijna": 4635,
      "onnen": 4636,
      "å¦Īå¦Ī": 4637,
      "nes": 4638,
      "Ġstories": 4639,
      "ĠBert": 4640,
      "pty": 4641,
      "Ġliked": 4642,
      "mother": 4643,
      "anor": 4644,
      "arrow": 4645,
      "stop": 4646,
      "vert": 4647,
      "Ġneg": 4648,
      "Ġbeat": 4649,
      "Ġforth": 4650,
      "Ġneeded": 4651,
      "Ġserved": 4652,
      "OW": 4653,
      "OkÃ©": 4654,
      "atter": 4655,
      "Ġhide": 4656,
      "Ġchocol": 4657,
      "Ġrefer": 4658,
      "Met": 4659,
      "eless": 4660,
      "please": 4661,
      "Ġinterested": 4662,
      "Ġofficer": 4663,
      "Ġstuk": 4664,
      "ĠNed": 4665,
      "Ġquestions": 4666,
      "Mum": 4667,
      "æĤ": 4668,
      "Ġvroeg": 4669,
      "istory": 4670,
      "ĠOok": 4671,
      "Ġverw": 4672,
      "æ´": 4673,
      "Ġsens": 4674,
      "Ġproject": 4675,
      "Ġ2022": 4676,
      "Ġsleeping": 4677,
      "ĠSpan": 4678,
      "Ġwide": 4679,
      "Ġmater": 4680,
      "Ġmunicip": 4681,
      "Ġpock": 4682,
      "idden": 4683,
      "ĠAlex": 4684,
      "oph": 4685,
      "Ġchief": 4686,
      "Ġspirit": 4687,
      "Ġsmell": 4688,
      "Gr": 4689,
      "Ã³": 4690,
      "Ġ+": 4691,
      "incess": 4692,
      "Ġwand": 4693,
      "oring": 4694,
      "Ġspent": 4695,
      "ĠUS": 4696,
      "Ġjoined": 4697,
      "Ġ2017": 4698,
      "Ġklein": 4699,
      "Ġverand": 4700,
      "Ġshouldn": 4701,
      "aald": 4702,
      "arliam": 4703,
      "raw": 4704,
      "ĠEgypt": 4705,
      "Ġdogs": 4706,
      "Ġgeweest": 4707,
      "ç¬": 4708,
      "apen": 4709,
      "ankt": 4710,
      "Ġformed": 4711,
      "Ġtwelve": 4712,
      "ieden": 4713,
      "Ġkrijgt": 4714,
      "Ġfavorite": 4715,
      "field": 4716,
      "ĠBo": 4717,
      "ĠJust": 4718,
      "Ġelephant": 4719,
      "Geef": 4720,
      "Ġfuture": 4721,
      "Ġbew": 4722,
      "Ġur": 4723,
      "iller": 4724,
      "Ġcloud": 4725,
      "Ġconsidered": 4726,
      "bout": 4727,
      "Ġdin": 4728,
      "Ġslight": 4729,
      "set": 4730,
      "Ġah": 4731,
      "Ġgele": 4732,
      "Ġways": 4733,
      "å½ĵ": 4734,
      "Ġlength": 4735,
      "Ġeconom": 4736,
      "è¡Į": 4737,
      "çĲ": 4738,
      "è½": 4739,
      "Ġmanner": 4740,
      "Ġmannen": 4741,
      "anks": 4742,
      "Ġ190": 4743,
      "Ġjongen": 4744,
      "Dr": 4745,
      "Ġmm": 4746,
      "Ġcit": 4747,
      "Ġ(\"": 4748,
      "å·±": 4749,
      "Like": 4750,
      "dd": 4751,
      "ores": 4752,
      "Ġtower": 4753,
      "Ġmem": 4754,
      "Ġ27": 4755,
      "_.": 4756,
      "elp": 4757,
      "Ġsepar": 4758,
      "Ġbedoel": 4759,
      "Ġpicks": 4760,
      "Ġwheel": 4761,
      "arliament": 4762,
      "down": 4763,
      "Ġlaid": 4764,
      "ĠDeze": 4765,
      "Ġsurr": 4766,
      "ENT": 4767,
      "Ġvlie": 4768,
      "Ġdirty": 4769,
      "Ġlock": 4770,
      "ails": 4771,
      "ette": 4772,
      "ĠHigh": 4773,
      "olut": 4774,
      "æīĢ": 4775,
      "Ġintrodu": 4776,
      "voorbeeld": 4777,
      "ero": 4778,
      "Ġheaven": 4779,
      "ests": 4780,
      "Ġmanier": 4781,
      "Ġgeweld": 4782,
      "Ġbattle": 4783,
      "Ġinformatie": 4784,
      "æ³": 4785,
      "ari": 4786,
      "Ġthus": 4787,
      "ĠMot": 4788,
      "Ġplann": 4789,
      "Mhm": 4790,
      "ĠSan": 4791,
      "Ġblank": 4792,
      "Ġhoud": 4793,
      "lands": 4794,
      "Ġdirection": 4795,
      "Ġiron": 4796,
      "Ġide": 4797,
      "ental": 4798,
      "Ġzorgen": 4799,
      "ĠColl": 4800,
      "three": 4801,
      "ĠGener": 4802,
      "Ġlikely": 4803,
      "Ġcircle": 4804,
      "Hi": 4805,
      "ĠMal": 4806,
      "åĽ½": 4807,
      "èĩªå·±": 4808,
      "Un": 4809,
      "ijken": 4810,
      "ugh": 4811,
      "Was": 4812,
      "met": 4813,
      "ning": 4814,
      "yond": 4815,
      "ĠHier": 4816,
      "Ġshore": 4817,
      "Ġdestroy": 4818,
      "Ġmodern": 4819,
      "éķ¿": 4820,
      "Dank": 4821,
      "Ġlab": 4822,
      "Ġriv": 4823,
      "ĠWho": 4824,
      "Ġclosed": 4825,
      "Ġnumbers": 4826,
      "astern": 4827,
      "Ġmarket": 4828,
      "ĠParis": 4829,
      "Ġdance": 4830,
      "Ġbill": 4831,
      "ples": 4832,
      "Ġminder": 4833,
      "sings": 4834,
      "stit": 4835,
      "Ġstore": 4836,
      "ĠBea": 4837,
      "ĠCo": 4838,
      "ĠCharl": 4839,
      "åıĳ": 4840,
      "Ġjuist": 4841,
      "Ġvarious": 4842,
      "Ġantwoord": 4843,
      "Ġarch": 4844,
      "Even": 4845,
      "face": 4846,
      "Ġbal": 4847,
      "Ġpil": 4848,
      "Ġvindt": 4849,
      "Sch": 4850,
      "ĠChe": 4851,
      "ivid": 4852,
      "Ġcrazy": 4853,
      "Ġsac": 4854,
      "Ġooit": 4855,
      "Ġdeter": 4856,
      "izen": 4857,
      "Ġapple": 4858,
      "çİ°åľ¨": 4859,
      "gaan": 4860,
      "Ġcars": 4861,
      "Ġnone": 4862,
      "Ġang": 4863,
      "Ġraised": 4864,
      "ĠCalifornia": 4865,
      "asing": 4866,
      "Ġanx": 4867,
      "Ġnemen": 4868,
      "udd": 4869,
      "Ġkleine": 4870,
      "arc": 4871,
      "Ġlower": 4872,
      "Ġvess": 4873,
      "Ġhoeveel": 4874,
      "ijdens": 4875,
      "IF": 4876,
      "asc": 4877,
      "Ġolder": 4878,
      "Ġfingers": 4879,
      "éĽ": 4880,
      "Ġthick": 4881,
      "Ġweather": 4882,
      "Ġconcl": 4883,
      "åĲĥ": 4884,
      "æĦı": 4885,
      "ĠNathalie": 4886,
      "ester": 4887,
      "Ġsatisf": 4888,
      "Ġbreath": 4889,
      "reken": 4890,
      "Ġhadden": 4891,
      "Ġlaughing": 4892,
      "erved": 4893,
      "Ġregard": 4894,
      "Ġsurprise": 4895,
      "åģļ": 4896,
      "gd": 4897,
      "hip": 4898,
      "Ġbound": 4899,
      "dam": 4900,
      "Ã¯": 4901,
      "omme": 4902,
      "Ġcrit": 4903,
      "çĶ¨": 4904,
      "Ġinteresting": 4905,
      "Ġpan": 4906,
      "Ġshare": 4907,
      "Ġdrop": 4908,
      "ĠLeague": 4909,
      "Pl": 4910,
      "oted": 4911,
      "Ġvier": 4912,
      "Ġforty": 4913,
      "ĠSund": 4914,
      "Ġbegrij": 4915,
      "Geen": 4916,
      "Le": 4917,
      "Ġrich": 4918,
      "Ġnote": 4919,
      "epend": 4920,
      "Ġimmedi": 4921,
      "Ġspecies": 4922,
      "ĠMinister": 4923,
      "John": 4924,
      "han": 4925,
      "ĠPal": 4926,
      "Ġsinging": 4927,
      "Ġear": 4928,
      "aving": 4929,
      "]!": 4930,
      "Ġbite": 4931,
      "Ġnam": 4932,
      "big": 4933,
      "Ġsoort": 4934,
      "istan": 4935,
      "åīį": 4936,
      "Ġheen": 4937,
      "ĠDie": 4938,
      "Ġmisschien": 4939,
      "Ġrule": 4940,
      "Ġdeclared": 4941,
      "anta": 4942,
      "upid": 4943,
      "å®ŀ": 4944,
      "Ġcaused": 4945,
      "take": 4946,
      "Ġaud": 4947,
      "ĠChi": 4948,
      "æĪĲ": 4949,
      "Ġdirected": 4950,
      "200": 4951,
      "Ne": 4952,
      "vl": 4953,
      "æµ": 4954,
      "Ġlink": 4955,
      "ĠPort": 4956,
      "Ġscared": 4957,
      "Ġsmile": 4958,
      "iction": 4959,
      "Ġasking": 4960,
      "ç»ı": 4961,
      "ffic": 4962,
      "Ġapart": 4963,
      "Ġmachine": 4964,
      "ĠMom": 4965,
      "Ġspread": 4966,
      "Ġbroad": 4967,
      "Ġsquare": 4968,
      "Mommy": 4969,
      "wich": 4970,
      "ĠRed": 4971,
      "ensus": 4972,
      "ĠChurch": 4973,
      "Ġwerken": 4974,
      "Ġcolors": 4975,
      "anny": 4976,
      "Ġarrived": 4977,
      "åĢĻ": 4978,
      "AC": 4979,
      "çº": 4980,
      "inary": 4981,
      "Ġjoy": 4982,
      "ĠHere": 4983,
      "uhoh": 4984,
      "ä»ĸä»¬": 4985,
      "Ġsteps": 4986,
      "iber": 4987,
      "Ġverder": 4988,
      "Ġleader": 4989,
      "Ġidee": 4990,
      "Ġquarter": 4991,
      "Ġchicken": 4992,
      "Ġconversation": 4993,
      "Ġrese": 4994,
      "Ġflat": 4995,
      "Ġreading": 4996,
      "gin": 4997,
      "Ġcream": 4998,
      "Ġrough": 4999,
      "Ġblind": 5000,
      "Ġamount": 5001,
      "Ġentered": 5002,
      "Man": 5003,
      "gev": 5004,
      "Ġ2010": 5005,
      "Ġfresh": 5006,
      "wanna": 5007,
      "Doe": 5008,
      "kel": 5009,
      "yep": 5010,
      "é¢": 5011,
      "Ġwit": 5012,
      "Ġpath": 5013,
      "Ġdate": 5014,
      "name": 5015,
      "éĴ": 5016,
      "Ġbord": 5017,
      "Ġlijkt": 5018,
      "outhern": 5019,
      "ĠLee": 5020,
      "ĠFlor": 5021,
      "äºĽ": 5022,
      "Ġpicked": 5023,
      "Ġder": 5024,
      "Ġoppos": 5025,
      "ĠAND": 5026,
      "Give": 5027,
      "Ġenemy": 5028,
      "ĠPet": 5029,
      "ĠLo": 5030,
      "Ġcho": 5031,
      "ĠRome": 5032,
      "ĠChina": 5033,
      "icro": 5034,
      "Ġbesch": 5035,
      "Ġeasily": 5036,
      "Ġslowly": 5037,
      "UT": 5038,
      "olutely": 5039,
      "Ġ2016": 5040,
      "Ġvertellen": 5041,
      "Ġtax": 5042,
      "Ġfighting": 5043,
      "Ġpurpose": 5044,
      "Ġprovince": 5045,
      "uister": 5046,
      "Ġtiny": 5047,
      "ĠRoy": 5048,
      "gl": 5049,
      "Ġrab": 5050,
      "ago": 5051,
      "Ġenergy": 5052,
      "Ġrob": 5053,
      "Ġ2011": 5054,
      "Ġproblems": 5055,
      "Ġgar": 5056,
      "Ġkey": 5057,
      "Ġnobody": 5058,
      "These": 5059,
      "Ġwhisper": 5060,
      "Ġworse": 5061,
      "Ġguard": 5062,
      "Ġoploss": 5063,
      "Nothing": 5064,
      "tr": 5065,
      "antic": 5066,
      "elly": 5067,
      "Ġsocial": 5068,
      "ously": 5069,
      "Ġchem": 5070,
      "Ġliter": 5071,
      "ĠSar": 5072,
      "jebl": 5073,
      "Ġprotect": 5074,
      "Ġoriginal": 5075,
      "ache": 5076,
      "ĠDick": 5077,
      "elle": 5078,
      "ĠAustralia": 5079,
      "ĠEarth": 5080,
      "Ġsimply": 5081,
      "PAT": 5082,
      "Ġphys": 5083,
      "Ġboek": 5084,
      "Ġparticular": 5085,
      "aturday": 5086,
      "Ġdicht": 5087,
      "Ġhill": 5088,
      "leg": 5089,
      "ousin": 5090,
      "Ġelke": 5091,
      "AND": 5092,
      "åĽł": 5093,
      "ially": 5094,
      "Ġdw": 5095,
      "Ġger": 5096,
      "Ġdeg": 5097,
      "ĠAir": 5098,
      "raft": 5099,
      "ushing": 5100,
      "ĠJane": 5101,
      "Ġchoo": 5102,
      "Ġsearch": 5103,
      "Ġsituation": 5104,
      "Ġwerden": 5105,
      "Ġtrail": 5106,
      "cast": 5107,
      "watch": 5108,
      "itor": 5109,
      "Ġvorm": 5110,
      "ande": 5111,
      "Ġverz": 5112,
      "Ġbless": 5113,
      "Ġbren": 5114,
      "Ġligt": 5115,
      "aa": 5116,
      "picks": 5117,
      "oming": 5118,
      "Ġturning": 5119,
      "Ġproduced": 5120,
      "jeblieft": 5121,
      "Hall": 5122,
      "yer": 5123,
      "ĠWhere": 5124,
      "Ġthanks": 5125,
      "LT": 5126,
      "Wacht": 5127,
      "Ġbod": 5128,
      "ĠAnt": 5129,
      "ĠParty": 5130,
      "Ġattract": 5131,
      "Ġclever": 5132,
      "æĹ¶åĢĻ": 5133,
      "fly": 5134,
      "ĠScot": 5135,
      "Ġhero": 5136,
      "urches": 5137,
      "Ġappar": 5138,
      "Ġwelcome": 5139,
      "Her": 5140,
      "ĠLaur": 5141,
      "Ġuncle": 5142,
      "puts": 5143,
      "Ġonge": 5144,
      "Ġnotice": 5145,
      "ola": 5146,
      "ĠClare": 5147,
      "èµ°": 5148,
      "midd": 5149,
      "aud": 5150,
      "ampionship": 5151,
      "vies": 5152,
      "ĠAg": 5153,
      "arts": 5154,
      "ĠAnn": 5155,
      "Ġdeliver": 5156,
      "uin": 5157,
      "wait": 5158,
      "omething": 5159,
      "ibly": 5160,
      "ios": 5161,
      "Ġtong": 5162,
      "ĠCome": 5163,
      "Ġhelped": 5164,
      "ĠIsra": 5165,
      "æīĭ": 5166,
      "ĠEuropean": 5167,
      "Ġnecessary": 5168,
      "Ġinflu": 5169,
      "Ġdrew": 5170,
      "Ġhouses": 5171,
      "Ġgelijk": 5172,
      "Ġbeyond": 5173,
      "ĠIntern": 5174,
      "Ġskin": 5175,
      "Ġbesl": 5176,
      "incip": 5177,
      "çĻ½": 5178,
      "From": 5179,
      "Ste": 5180,
      "eddy": 5181,
      "amma": 5182,
      "eem": 5183,
      "Ġfeat": 5184,
      "Ġbetek": 5185,
      "Ġstarts": 5186,
      "Ġintern": 5187,
      "Ġupstairs": 5188,
      "ularly": 5189,
      "Ġemploy": 5190,
      "ĠBobby": 5191,
      "Tot": 5192,
      "asons": 5193,
      "Ġstem": 5194,
      "ĠAunt": 5195,
      "osh": 5196,
      "ĠFranc": 5197,
      "åĨį": 5198,
      "Ġbijna": 5199,
      "Ġnest": 5200,
      "werp": 5201,
      "Ġwid": 5202,
      "Ġstreng": 5203,
      "Ġfruit": 5204,
      "berg": 5205,
      "Ġpolitician": 5206,
      "four": 5207,
      "lijke": 5208,
      "Ġbye": 5209,
      "Ġminister": 5210,
      "åįģ": 5211,
      "inct": 5212,
      "Ġsell": 5213,
      "Ġdressed": 5214,
      "aling": 5215,
      "ĠTV": 5216,
      "Ġangry": 5217,
      "Ġshr": 5218,
      "ĠState": 5219,
      "Ġorders": 5220,
      "Ġthuis": 5221,
      "Ġpolitical": 5222,
      "Ġescape": 5223,
      "Jullie": 5224,
      "eat": 5225,
      "ena": 5226,
      "Ġaction": 5227,
      "Ġmeaning": 5228,
      "--------------------------------": 5229,
      "ĠWhite": 5230,
      "Ġcivil": 5231,
      "Ġspoon": 5232,
      "Ġarrang": 5233,
      "avond": 5234,
      "Ġ2014": 5235,
      "ç§į": 5236,
      "IR": 5237,
      "yal": 5238,
      "hered": 5239,
      "Ġsettle": 5240,
      "Ġawful": 5241,
      "Ġcrowd": 5242,
      "ography": 5243,
      "has": 5244,
      "Ġappoint": 5245,
      "Ġ2012": 5246,
      "Ġfinal": 5247,
      "Ġhonest": 5248,
      "Qu": 5249,
      "Ġusual": 5250,
      "æĽ": 5251,
      "ĠÃ": 5252,
      "ooi": 5253,
      "oles": 5254,
      "Ġprobe": 5255,
      "Ġow": 5256,
      "Ġcalling": 5257,
      "å°ıåŃ©": 5258,
      "VE": 5259,
      "ĠST": 5260,
      "ops": 5261,
      "Ġshel": 5262,
      "Ġjoin": 5263,
      "xim": 5264,
      "icole": 5265,
      "ĠRobert": 5266,
      "ĠIts": 5267,
      "Ġhoren": 5268,
      "Ġedge": 5269,
      "Ġfilled": 5270,
      "Bed": 5271,
      "sil": 5272,
      "lem": 5273,
      "ĠSen": 5274,
      "Ġenc": 5275,
      "Ġsevent": 5276,
      "ashion": 5277,
      "jo": 5278,
      "Ġwoord": 5279,
      "Ġinsp": 5280,
      "omer": 5281,
      "Ġzin": 5282,
      "Ġappl": 5283,
      "Ġhalen": 5284,
      "Ġgeluk": 5285,
      "Ġhoog": 5286,
      "Ġpir": 5287,
      "Ġthreat": 5288,
      "elden": 5289,
      "Ġvre": 5290,
      "Ġjour": 5291,
      "ĠWil": 5292,
      "Ġclaim": 5293,
      "Ġkoning": 5294,
      "Ġlucht": 5295,
      "Ġchocolate": 5296,
      "Nou": 5297,
      "kker": 5298,
      "Ġident": 5299,
      "hest": 5300,
      "Ġpretend": 5301,
      "Ġrespons": 5302,
      "Ġaantal": 5303,
      "sey": 5304,
      "ĠMer": 5305,
      "ĠBer": 5306,
      "ĠRo": 5307,
      "Ġbasket": 5308,
      "Ġmooi": 5309,
      "ĠJo": 5310,
      "Ġcoat": 5311,
      "Ġended": 5312,
      "ĠHarry": 5313,
      "Ġgate": 5314,
      "ĠOm": 5315,
      "ä½łä»¬": 5316,
      "Ġimpro": 5317,
      "Ġpromise": 5318,
      "åĿ": 5319,
      "Ġ/": 5320,
      "Ġrecht": 5321,
      "usion": 5322,
      "Ġamb": 5323,
      "ouwen": 5324,
      "Ġmilitary": 5325,
      "Ġhotel": 5326,
      "æĻ": 5327,
      "atic": 5328,
      "Ġpounds": 5329,
      "aled": 5330,
      "utch": 5331,
      "Ġstream": 5332,
      "Ġancient": 5333,
      "Ġcoast": 5334,
      "Ġpleasure": 5335,
      "zicht": 5336,
      "ĠFather": 5337,
      "Ġspr": 5338,
      "å®ļ": 5339,
      "ĠAmerik": 5340,
      "azing": 5341,
      "ĠMil": 5342,
      "Ġtalked": 5343,
      "Ġelection": 5344,
      "Ġflying": 5345,
      "aped": 5346,
      "Ġhuge": 5347,
      "Ġsurv": 5348,
      "Ġofficers": 5349,
      "Ġpractice": 5350,
      "Ġbud": 5351,
      "Ġbep": 5352,
      "ĠFirst": 5353,
      "ijnen": 5354,
      "assen": 5355,
      "Ġheads": 5356,
      "Ġ2015": 5357,
      "Ġoude": 5358,
      "40": 5359,
      "Sure": 5360,
      "Very": 5361,
      "umber": 5362,
      "Ġcoach": 5363,
      "Ġbru": 5364,
      "isney": 5365,
      "Pe": 5366,
      "Ġstupid": 5367,
      "andy": 5368,
      "ruction": 5369,
      "Ġcrack": 5370,
      "åħ¬": 5371,
      "Ġarticle": 5372,
      "Would": 5373,
      "èĬ": 5374,
      "Ġexist": 5375,
      "Ġsla": 5376,
      "ledge": 5377,
      "Ġaccident": 5378,
      "æīĵ": 5379,
      "å¦Ĥ": 5380,
      "Ġprofessional": 5381,
      "Mom": 5382,
      "pill": 5383,
      "ĠMos": 5384,
      "Ġchurches": 5385,
      "ĠItaly": 5386,
      "ittee": 5387,
      "Ġdifference": 5388,
      "Ġund": 5389,
      "Ġstage": 5390,
      "Ġdogg": 5391,
      "ĠCup": 5392,
      "Ġcarefully": 5393,
      "Ġ2008": 5394,
      "Ġdenken": 5395,
      "Ġsimple": 5396,
      "25": 5397,
      "inter": 5398,
      "weg": 5399,
      "Ġoorlog": 5400,
      "Ġmeisje": 5401,
      "VAL": 5402,
      "Ġdust": 5403,
      "icious": 5404,
      "ĠBarb": 5405,
      "Ġchap": 5406,
      "Ġadvent": 5407,
      "Ġbestaat": 5408,
      "ban": 5409,
      "oly": 5410,
      "ç®": 5411,
      "Ġï¿½": 5412,
      "oured": 5413,
      "Ġlines": 5414,
      "ĠTer": 5415,
      "Ġmovies": 5416,
      "ensch": 5417,
      "ä½Ĩ": 5418,
      "ini": 5419,
      "ĠCouncil": 5420,
      "Ġbijvoorbeeld": 5421,
      "Ġeffort": 5422,
      "Ġoccasion": 5423,
      "ĠJapanese": 5424,
      "El": 5425,
      "Over": 5426,
      "Ġwo": 5427,
      "cean": 5428,
      "Ġgrond": 5429,
      "Ġcollege": 5430,
      "Ġdangerous": 5431,
      "vell": 5432,
      "Ġpocket": 5433,
      "mee": 5434,
      "arf": 5435,
      "Ġkans": 5436,
      "Ġbeast": 5437,
      "Ġstre": 5438,
      "Ġevidence": 5439,
      "Ġordered": 5440,
      "Ġthrew": 5441,
      "ament": 5442,
      "åĲ¬": 5443,
      "è§ģ": 5444,
      "Ġsides": 5445,
      "Ġmogelijk": 5446,
      "ĠJose": 5447,
      "Ġspeel": 5448,
      "Ġmostly": 5449,
      "Ġguns": 5450,
      "Ġpp": 5451,
      "Ġproud": 5452,
      "Ġklas": 5453,
      "ements": 5454,
      "ĠFrom": 5455,
      "Ġgebruiken": 5456,
      "åı¯ä»¥": 5457,
      "Our": 5458,
      "Ġenige": 5459,
      "Ġdrawing": 5460,
      "Excuse": 5461,
      "ĠSmith": 5462,
      "',": 5463,
      "col": 5464,
      "edy": 5465,
      "imit": 5466,
      "ĠAss": 5467,
      "rupt": 5468,
      "ĠCarol": 5469,
      "ĠSunday": 5470,
      ",--": 5471,
      "ĠNa": 5472,
      "rijd": 5473,
      "Ġsel": 5474,
      "Ġweap": 5475,
      "ulf": 5476,
      "Zeg": 5477,
      "æ¸": 5478,
      "Ġheet": 5479,
      "Ġarg": 5480,
      "cles": 5481,
      "Ġhappening": 5482,
      "volution": 5483,
      "Listen": 5484,
      "ims": 5485,
      "rib": 5486,
      "Ġ2013": 5487,
      "centr": 5488,
      "ato": 5489,
      "book": 5490,
      "ule": 5491,
      "icles": 5492,
      "ĠAre": 5493,
      "ĠMus": 5494,
      "ols": 5495,
      "Ġunc": 5496,
      "Ġzoon": 5497,
      "Ġstrength": 5498,
      "Ġsoul": 5499,
      "igs": 5500,
      "ceeded": 5501,
      "Ġgeze": 5502,
      "Ġcheer": 5503,
      "Ġfemale": 5504,
      "Ġpa": 5505,
      "Ġhadn": 5506,
      "ĠUncle": 5507,
      "Ġempty": 5508,
      "Ġcompletely": 5509,
      "Mo": 5510,
      "Mama": 5511,
      "èĤ": 5512,
      "ida": 5513,
      "ĠMount": 5514,
      "Ġtotal": 5515,
      "IM": 5516,
      "mark": 5517,
      "ville": 5518,
      "heden": 5519,
      "olen": 5520,
      "äºĮ": 5521,
      "Ġcorrect": 5522,
      "reven": 5523,
      "Ġding": 5524,
      "Ġnon": 5525,
      "inder": 5526,
      "Ġthinks": 5527,
      "Ġoffer": 5528,
      "Ġrole": 5529,
      "Ġbeside": 5530,
      "Ġimmediately": 5531,
      "bu": 5532,
      "dad": 5533,
      "kl": 5534,
      "ĠBilly": 5535,
      "ĠWal": 5536,
      "ĠOl": 5537,
      "Ġtone": 5538,
      "ĠLady": 5539,
      "Ġgehe": 5540,
      "offen": 5541,
      "éĹ´": 5542,
      "Hou": 5543,
      "Ġpill": 5544,
      "ĠGeef": 5545,
      "Ġgegeven": 5546,
      "oger": 5547,
      "ĠZo": 5548,
      "rica": 5549,
      "Ġdefin": 5550,
      "âĮĬ": 5551,
      "uidelijk": 5552,
      "gro": 5553,
      "Ġbi": 5554,
      "Ġzag": 5555,
      "deel": 5556,
      "aughty": 5557,
      "Ġspeaking": 5558,
      "Ġzelfs": 5559,
      "éĹ®": 5560,
      "Ġhurry": 5561,
      "Wij": 5562,
      "erst": 5563,
      "Ġweak": 5564,
      "ĠSal": 5565,
      "Ġmeat": 5566,
      "ĠMama": 5567,
      "those": 5568,
      "Ġexpected": 5569,
      "Ġoccur": 5570,
      "Ġmotor": 5571,
      "ĠMichael": 5572,
      "Ġcy": 5573,
      "Ġtrip": 5574,
      "ĠItalian": 5575,
      "ĠTur": 5576,
      "Ġplain": 5577,
      "istr": 5578,
      "Ġagreed": 5579,
      "Ġmissing": 5580,
      "Ġgenerally": 5581,
      "Ġhigher": 5582,
      "Ġkap": 5583,
      "ify": 5584,
      "ĠWaar": 5585,
      "rot": 5586,
      "Ġmum": 5587,
      "ĠAc": 5588,
      "ĠLu": 5589,
      "brother": 5590,
      "Ġearlier": 5591,
      "Ġjaren": 5592,
      "Ġgrad": 5593,
      "sych": 5594,
      "Ġstret": 5595,
      "Ġsmart": 5596,
      "Ġmeneer": 5597,
      "Ġzouden": 5598,
      "éĤ£ä¸ª": 5599,
      "igd": 5600,
      "Ġdem": 5601,
      "ĠGo": 5602,
      "ikk": 5603,
      "Ġhey": 5604,
      "Ġlog": 5605,
      "Ġsoldiers": 5606,
      "orough": 5607,
      "Ġcommunity": 5608,
      "Ġpleased": 5609,
      "åŃ¦": 5610,
      "oups": 5611,
      "Ġonto": 5612,
      "ĠSaturday": 5613,
      "ĠMex": 5614,
      "ĠCarl": 5615,
      "Ġflower": 5616,
      "Ġfault": 5617,
      "Ġ:": 5618,
      "Ġmult": 5619,
      "Ġrat": 5620,
      "opt": 5621,
      "Ġsaved": 5622,
      "Ġfallen": 5623,
      "Ġdriving": 5624,
      "Ġniemand": 5625,
      "kk": 5626,
      "wat": 5627,
      "Ġcrew": 5628,
      "ĠCor": 5629,
      "Ġspend": 5630,
      "looking": 5631,
      "Ġestab": 5632,
      "æĤ¨": 5633,
      "ocht": 5634,
      "wr": 5635,
      "Ġloss": 5636,
      "Ġfalling": 5637,
      "Ġjongens": 5638,
      "Ġbabies": 5639,
      "Ġbetekent": 5640,
      "Two": 5641,
      "Ġflight": 5642,
      "Ġcontact": 5643,
      "soci": 5644,
      "Ġtaste": 5645,
      "hh": 5646,
      "Ġshown": 5647,
      "Ġmarriage": 5648,
      "Really": 5649,
      "ĠGeneral": 5650,
      "Aye": 5651,
      "bre": 5652,
      "Ġcere": 5653,
      "aries": 5654,
      "Ġander": 5655,
      "ĠWik": 5656,
      "Ġleer": 5657,
      "ĠFraser": 5658,
      "æĸ¹": 5659,
      "Van": 5660,
      "aad": 5661,
      "five": 5662,
      "pet": 5663,
      "ables": 5664,
      "Ġprincip": 5665,
      "Ġimm": 5666,
      "Ġstruck": 5667,
      "ube": 5668,
      "vious": 5669,
      "Ġtight": 5670,
      "Ġopening": 5671,
      "Ġprivate": 5672,
      "Ġdinosaur": 5673,
      "History": 5674,
      "eent": 5675,
      "istics": 5676,
      "ĠON": 5677,
      "Te": 5678,
      "icated": 5679,
      "Ġrout": 5680,
      "ushes": 5681,
      "ĠJwww": 5682,
      "arted": 5683,
      "esp": 5684,
      "Ġassoci": 5685,
      "ĠDem": 5686,
      "Ġperm": 5687,
      "ĠCanada": 5688,
      "ADULT": 5689,
      "æŀľ": 5690,
      "ÃŃ": 5691,
      "ĠMont": 5692,
      "ä¸ī": 5693,
      "Ġpublished": 5694,
      "Ġgebeurt": 5695,
      "ellig": 5696,
      "çĦ¶åĲİ": 5697,
      "Mag": 5698,
      "Tr": 5699,
      "gem": 5700,
      "Ġleren": 5701,
      "Ġweight": 5702,
      "Ġarrest": 5703,
      "åĪĨ": 5704,
      "Ġcenter": 5705,
      "Hallo": 5706,
      "west": 5707,
      "ä¾": 5708,
      "è¢": 5709,
      "Ġogen": 5710,
      "Ġhug": 5711,
      "ĠMany": 5712,
      "aughing": 5713,
      "Ġmotion": 5714,
      "Ġverhaal": 5715,
      "Ġtradition": 5716,
      "Ġcrayon": 5717,
      "yard": 5718,
      "amin": 5719,
      "Ġschat": 5720,
      "Ġ2007": 5721,
      "Ġ2009": 5722,
      "Ġrelation": 5723,
      "Ġstrugg": 5724,
      "22": 5725,
      "bie": 5726,
      "Ġbuck": 5727,
      "roat": 5728,
      "these": 5729,
      "ĠSim": 5730,
      "ĠHil": 5731,
      "Deze": 5732,
      "Ġmilj": 5733,
      "Ġphot": 5734,
      "Ġwatched": 5735,
      "Thomas": 5736,
      "Ġtaught": 5737,
      "ikt": 5738,
      "Ġopt": 5739,
      "Ġmyster": 5740,
      "Ġanywhere": 5741,
      "kening": 5742,
      "Does": 5743,
      "Ġinj": 5744,
      "Ġee": 5745,
      "Ġallow": 5746,
      "Ġmissed": 5747,
      "Ġmunicipality": 5748,
      "ziek": 5749,
      "Ġdread": 5750,
      "Ġwis": 5751,
      "Ġplenty": 5752,
      "chester": 5753,
      "Ġfavour": 5754,
      "aft": 5755,
      "Ġdoc": 5756,
      "ĠAct": 5757,
      "Ġstarting": 5758,
      "ev": 5759,
      "Ġhiding": 5760,
      "ourt": 5761,
      "...?": 5762,
      "Ġexec": 5763,
      "aret": 5764,
      "Ġaffect": 5765,
      "Ġunless": 5766,
      "ocks": 5767,
      "Ġsymb": 5768,
      "ĠKingdom": 5769,
      "ĠSov": 5770,
      "III": 5771,
      "Ġpuppet": 5772,
      "SE": 5773,
      "ba": 5774,
      "Ġmir": 5775,
      "Ġscient": 5776,
      "Ġscene": 5777,
      "Ġgeleden": 5778,
      "Which": 5779,
      "Ġreactie": 5780,
      "GE": 5781,
      "maar": 5782,
      "ĠMor": 5783,
      "ĠMac": 5784,
      "umn": 5785,
      "werk": 5786,
      "Ġ2006": 5787,
      "Ġaccording": 5788,
      "Ġgrave": 5789,
      "Ġjourney": 5790,
      "èº": 5791,
      "Ġgeef": 5792,
      "ĠEvery": 5793,
      "Ġassist": 5794,
      "Ġstraw": 5795,
      "Ġoccup": 5796,
      "Ġbrain": 5797,
      "dag": 5798,
      "ç«": 5799,
      "ĠTheir": 5800,
      "ĠHey": 5801,
      "ĠStreet": 5802,
      "ä»İ": 5803,
      "inese": 5804,
      "Ġexperience": 5805,
      "ĠDoctor": 5806,
      "Ġimagine": 5807,
      "dro": 5808,
      "rees": 5809,
      "road": 5810,
      "Ġflag": 5811,
      "Ġscream": 5812,
      "Ġtraining": 5813,
      "car": 5814,
      "Ġtou": 5815,
      "Ġspoken": 5816,
      "Ġradio": 5817,
      "eken": 5818,
      "Ġroof": 5819,
      "olic": 5820,
      "Ġtwice": 5821,
      "aws": 5822,
      "Bob": 5823,
      "laughing": 5824,
      "Ġwake": 5825,
      "Ġgang": 5826,
      "Ġvac": 5827,
      "ala": 5828,
      "Ġkil": 5829,
      "known": 5830,
      "orden": 5831,
      "Ġpor": 5832,
      "blue": 5833,
      "Ġsongs": 5834,
      "åĬ¨": 5835,
      "Car": 5836,
      "nest": 5837,
      "Ġstof": 5838,
      "Ġrot": 5839,
      "icked": 5840,
      "ords": 5841,
      "ĠUnion": 5842,
      "Ġdriver": 5843,
      "Ġcouncil": 5844,
      "Ġnurs": 5845,
      "umper": 5846,
      "Ġspelen": 5847,
      "ibility": 5848,
      "ĠCharles": 5849,
      "Mar": 5850,
      "Ġtent": 5851,
      "Ġnoticed": 5852,
      "ĠDisney": 5853,
      "å®ĥ": 5854,
      "Ġpromised": 5855,
      "é¡": 5856,
      "ators": 5857,
      "aked": 5858,
      "pper": 5859,
      "quir": 5860,
      "ä¸¤": 5861,
      "host": 5862,
      "Ġterms": 5863,
      "Ġcheek": 5864,
      "bank": 5865,
      "nee": 5866,
      "Ġteddy": 5867,
      "using": 5868,
      "akken": 5869,
      "elebr": 5870,
      "ipper": 5871,
      "zil": 5872,
      "Ġopport": 5873,
      "Ġhistor": 5874,
      "Ġmoeil": 5875,
      "fin": 5876,
      "Ġcousin": 5877,
      "ĠHu": 5878,
      "Ġknife": 5879,
      "oking": 5880,
      "Ġactor": 5881,
      "æľ¬": 5882,
      "Ġmagnet": 5883,
      "Ġannounced": 5884,
      "HAT": 5885,
      "Sir": 5886,
      "rie": 5887,
      "Ġcro": 5888,
      "alina": 5889,
      "lect": 5890,
      "Ġzee": 5891,
      "ĠAmy": 5892,
      "Ġsav": 5893,
      "Ġagree": 5894,
      "Ġgroups": 5895,
      "Ġhandle": 5896,
      "æĺİ": 5897,
      "Ġshoulder": 5898,
      "Ġgroep": 5899,
      "Ġwings": 5900,
      "ĠCong": 5901,
      "ikel": 5902,
      "Ġprint": 5903,
      "Ġrocks": 5904,
      "Ġsurprised": 5905,
      "Ġvandaag": 5906,
      "Ġmorgen": 5907,
      "asp": 5908,
      "rian": 5909,
      "weet": 5910,
      "aterpill": 5911,
      "rows": 5912,
      "Ġdouble": 5913,
      "37": 5914,
      "åĹ": 5915,
      "Ġhart": 5916,
      "edia": 5917,
      "Ġrug": 5918,
      "ĠMart": 5919,
      "rain": 5920,
      "ĠFred": 5921,
      "Ġkrijg": 5922,
      "Ġcurrent": 5923,
      "ĠIsrael": 5924,
      "Ġhond": 5925,
      "Ġgift": 5926,
      "ĠIT": 5927,
      "Ġrail": 5928,
      "Ġareas": 5929,
      "ĠPri": 5930,
      "Ġboats": 5931,
      "Ġ[?": 5932,
      "ograph": 5933,
      "ä½ľ": 5934,
      "Ġeverywhere": 5935,
      "Ġevents": 5936,
      "Ġappearance": 5937,
      "Ġgezegd": 5938,
      "],": 5939,
      "atives": 5940,
      "Ġcensus": 5941,
      "ĠBet": 5942,
      "Ġgrowing": 5943,
      "itein": 5944,
      "Ġ189": 5945,
      "Ġsinger": 5946,
      "Ġrules": 5947,
      "Ġdeterm": 5948,
      "ials": 5949,
      "rag": 5950,
      "Ġtim": 5951,
      "Ġneedta": 5952,
      "Ġremain": 5953,
      "Ġpersonal": 5954,
      "Ġblocks": 5955,
      "Ġduidelijk": 5956,
      "orst": 5957,
      "å¸Ī": 5958,
      "Ġchanges": 5959,
      "è¶": 5960,
      "itter": 5961,
      "Ġlion": 5962,
      "Ġslide": 5963,
      "Ġhoop": 5964,
      "aly": 5965,
      "sequ": 5966,
      "ĠSea": 5967,
      "illiant": 5968,
      "Ġavail": 5969,
      "Ġduty": 5970,
      "Ġrange": 5971,
      "Ġwearing": 5972,
      "Ġsuc": 5973,
      "Ġprevent": 5974,
      "Ġmistake": 5975,
      "Ġtongue": 5976,
      "Dad": 5977,
      "Gu": 5978,
      "mommy": 5979,
      "Ġnarrow": 5980,
      "Ġvijf": 5981,
      "veer": 5982,
      "ĠYour": 5983,
      "ĠPrince": 5984,
      "Sc": 5985,
      "eur": 5986,
      "akt": 5987,
      "Ġneither": 5988,
      "ictor": 5989,
      "ĠIndians": 5990,
      "ĠAfrica": 5991,
      "organ": 5992,
      "Ġeigenlijk": 5993,
      "ummie": 5994,
      "Say": 5995,
      "kin": 5996,
      "é£": 5997,
      "Ġtur": 5998,
      "Ġdise": 5999,
      "alle": 6000,
      "ensive": 6001,
      "Ġindivid": 6002,
      "Ġfamilie": 6003,
      "ety": 6004,
      "Ġgreatest": 6005,
      "Ġdesert": 6006,
      "Ġprobleem": 6007,
      "ĠSpanish": 6008,
      "21": 6009,
      "ĠEmp": 6010,
      "ĠRus": 6011,
      "ugg": 6012,
      "å¹²": 6013,
      "Ġharm": 6014,
      "Ġpound": 6015,
      "Ġdeck": 6016,
      "onds": 6017,
      "Ġtrade": 6018,
      "ĠChild": 6019,
      "Ġwerkt": 6020,
      "Ġblijft": 6021,
      "Ġtells": 6022,
      "Ġchoice": 6023,
      "åĽłä¸º": 6024,
      "oved": 6025,
      "ĠJul": 6026,
      "è¿Ľ": 6027,
      "è°¢": 6028,
      "ading": 6029,
      "ĠTy": 6030,
      "Ġadult": 6031,
      "åħĪ": 6032,
      "Ġsurface": 6033,
      "Ġruns": 6034,
      "ephone": 6035,
      "ashington": 6036,
      "80": 6037,
      "Ġcases": 6038,
      "Ġspeech": 6039,
      "untary": 6040,
      "Ġcollect": 6041,
      "Ġworst": 6042,
      "Ġtears": 6043,
      "Ġprice": 6044,
      "èĢĮ": 6045,
      "Ġlocated": 6046,
      "Ġwalls": 6047,
      "Ġmountains": 6048,
      "Ġgentleman": 6049,
      "oemd": 6050,
      "Ġpuzzle": 6051,
      "60": 6052,
      "Laten": 6053,
      "father": 6054,
      "Ġshoe": 6055,
      "äºİ": 6056,
      "Ġindepend": 6057,
      "Ġclimb": 6058,
      "ĠMic": 6059,
      "ĠLat": 6060,
      "Ġdesp": 6061,
      "Ġregular": 6062,
      "Ġruim": 6063,
      "Ġhoudt": 6064,
      "ĠIII": 6065,
      "ĠNet": 6066,
      "Ġvolgens": 6067,
      "Ġsmaller": 6068,
      "Ġexcited": 6069,
      "ĠAngel": 6070,
      "Ġprepared": 6071,
      "LL": 6072,
      "Pr": 6073,
      "Ġobl": 6074,
      "ĠBE": 6075,
      "elled": 6076,
      "aanse": 6077,
      "Ġlights": 6078,
      "Ġemb": 6079,
      "Ġheat": 6080,
      "Ġstairs": 6081,
      "Ġreden": 6082,
      "ĠKe": 6083,
      "Ġfounded": 6084,
      "Ġtrem": 6085,
      "Ġconduct": 6086,
      "Ġfirm": 6087,
      ".)": 6088,
      "Ġdagen": 6089,
      "otion": 6090,
      "Ġopin": 6091,
      "pping": 6092,
      "ĠOver": 6093,
      "ennen": 6094,
      "Ġmagn": 6095,
      "Ġbatter": 6096,
      "lag": 6097,
      "sen": 6098,
      "Ġsoms": 6099,
      "Ġduur": 6100,
      "ella": 6101,
      "å¿«": 6102,
      "zaam": 6103,
      "Ġwacht": 6104,
      "Ġgrown": 6105,
      "ossible": 6106,
      "Ġbrothers": 6107,
      "Ġservices": 6108,
      "Ġhorn": 6109,
      "Ġlake": 6110,
      "sta": 6111,
      "Ġzat": 6112,
      "Ġrights": 6113,
      "Ġexplain": 6114,
      "akker": 6115,
      "ĠParliament": 6116,
      "ĠLittle": 6117,
      "Ġgesl": 6118,
      "Ġoplossing": 6119,
      "ĠJoseph": 6120,
      "len": 6121,
      "Ġvond": 6122,
      "Ġvote": 6123,
      "ĠMa": 6124,
      "ĠMum": 6125,
      "Ġbrush": 6126,
      "Ġaged": 6127,
      "should": 6128,
      "Ġfarmer": 6129,
      "annel": 6130,
      "eland": 6131,
      "add": 6132,
      "åıĪ": 6133,
      "Bedankt": 6134,
      "HT": 6135,
      "Mother": 6136,
      "Ġaver": 6137,
      "ĠMel": 6138,
      "Ġmoves": 6139,
      "Ġplants": 6140,
      "Help": 6141,
      "rid": 6142,
      "uf": 6143,
      "wee": 6144,
      "irl": 6145,
      "Ġwilling": 6146,
      "ĠChinese": 6147,
      "Ġsandwich": 6148,
      "æĶ¾": 6149,
      "Perhaps": 6150,
      "Ã¼": 6151,
      "itely": 6152,
      "Ġfant": 6153,
      "Ġlicht": 6154,
      "Ġvia": 6155,
      "Ġken": 6156,
      "ĠHind": 6157,
      "ĠCO": 6158,
      "acks": 6159,
      "Ġ2000": 6160,
      "ĠVir": 6161,
      "pton": 6162,
      "Ġscrew": 6163,
      "è¿Ļæł·": 6164,
      "çĪ¸": 6165,
      "23": 6166,
      "nam": 6167,
      "Ġsour": 6168,
      "urity": 6169,
      "ĠGreen": 6170,
      "bey": 6171,
      "ĠVol": 6172,
      "åħ¶": 6173,
      "going": 6174,
      "Ġships": 6175,
      "Ġelectric": 6176,
      "Ġinvolved": 6177,
      "åĺ": 6178,
      "Ġtro": 6179,
      "ieten": 6180,
      "Ġkeeping": 6181,
      "ĠSchrijf": 6182,
      "May": 6183,
      "ĠArab": 6184,
      "rik": 6185,
      "angers": 6186,
      "ĠSte": 6187,
      "Ġforgotten": 6188,
      "Ġlucky": 6189,
      "Ġswimming": 6190,
      "Ġles": 6191,
      "ĠTwo": 6192,
      "ĠNin": 6193,
      "Ġchoose": 6194,
      "geten": 6195,
      "Ġadmir": 6196,
      "Ġcomplete": 6197,
      "70": 6198,
      "boy": 6199,
      "hum": 6200,
      "ç¾": 6201,
      "Ġrisk": 6202,
      "ĠKl": 6203,
      "Ġoffered": 6204,
      "ĠâĮĪ": 6205,
      "itie": 6206,
      "Ġstates": 6207,
      "Ġmob": 6208,
      "Ġgentlemen": 6209,
      "Ġapproach": 6210,
      "ĠWelke": 6211,
      "make": 6212,
      "Ġwanneer": 6213,
      "Ġfaces": 6214,
      "ĠBu": 6215,
      "ĠJesus": 6216,
      "Ġtext": 6217,
      "Ġexpand": 6218,
      "Ġstruct": 6219,
      "Ġcircum": 6220,
      "Ġtitle": 6221,
      "iation": 6222,
      "æģ": 6223,
      "Ġsite": 6224,
      "ĠBay": 6225,
      "Ġplat": 6226,
      "Ġafterwards": 6227,
      "æ¯Ķ": 6228,
      "Ġeducation": 6229,
      "ĠHaw": 6230,
      "eman": 6231,
      "Ġremained": 6232,
      "æĦŁ": 6233,
      "Ġflew": 6234,
      "Ġonderzoek": 6235,
      "Never": 6236,
      "craft": 6237,
      "oons": 6238,
      "Ġtijdens": 6239,
      "athy": 6240,
      "Ġrate": 6241,
      "Ġsoc": 6242,
      "ä»Ĭ": 6243,
      "ĠPeople": 6244,
      "ares": 6245,
      "Ġmut": 6246,
      "ona": 6247,
      "Ġpair": 6248,
      "Ġnut": 6249,
      "Ġcloth": 6250,
      "erences": 6251,
      "Ġpurple": 6252,
      "éĴ±": 6253,
      "ĠWashington": 6254,
      "istic": 6255,
      "apped": 6256,
      "Ġdollars": 6257,
      "Ġburied": 6258,
      "ĠEdward": 6259,
      "arily": 6260,
      "stra": 6261,
      "Ġrare": 6262,
      "illa": 6263,
      "Ġtrick": 6264,
      "issen": 6265,
      "Ġmagaz": 6266,
      "Ġlistening": 6267,
      "gress": 6268,
      "va": 6269,
      "Ġmel": 6270,
      "Ġcart": 6271,
      "Ġkort": 6272,
      "STER": 6273,
      "Ġminuten": 6274,
      "ĠIsland": 6275,
      "ification": 6276,
      "Ġpulled": 6277,
      "éļ": 6278,
      "Ġdieren": 6279,
      "inger": 6280,
      "adow": 6281,
      "ademy": 6282,
      "alley": 6283,
      "æīį": 6284,
      "Ġevil": 6285,
      "Ġdeveloped": 6286,
      "ĠRepublic": 6287,
      "KE": 6288,
      "rick": 6289,
      "Ġtiger": 6290,
      "ĠEven": 6291,
      "Ġ()": 6292,
      "Ġcalls": 6293,
      "Ġdrag": 6294,
      "ĠScotland": 6295,
      "Ġlich": 6296,
      "Ġobjects": 6297,
      "Ġbrengen": 6298,
      "COU": 6299,
      "hah": 6300,
      "ĠPers": 6301,
      "Ġsmoke": 6302,
      "å¤´": 6303,
      "Ġpleasant": 6304,
      "Ġacqu": 6305,
      "Ġlarger": 6306,
      "Ġstudio": 6307,
      "ĠFranklin": 6308,
      "Ġbloody": 6309,
      "ELL": 6310,
      "Ġbevat": 6311,
      "ĠCharlie": 6312,
      "ĠRoyal": 6313,
      "bury": 6314,
      "Ġpsych": 6315,
      "urry": 6316,
      "Ġknowledge": 6317,
      "Ġopp": 6318,
      "ccording": 6319,
      "Ġcommander": 6320,
      "Ġfourth": 6321,
      "Alles": 6322,
      "Ġfrequ": 6323,
      "Ġcelebr": 6324,
      "Ġzod": 6325,
      "ĠLeg": 6326,
      "Ġpurs": 6327,
      "yl": 6328,
      "¥¿": 6329,
      "Ġvent": 6330,
      "ĠHugh": 6331,
      "ĠJew": 6332,
      "Ġgoodness": 6333,
      "Mrs": 6334,
      "Ġgebeurd": 6335,
      "Che": 6336,
      "Ġtoast": 6337,
      "ĠSanta": 6338,
      "Ġsake": 6339,
      "æī¾": 6340,
      "Ġevident": 6341,
      "Ġrapid": 6342,
      "dog": 6343,
      "ucht": 6344,
      "Ġmama": 6345,
      "Ġcities": 6346,
      "Ġfashion": 6347,
      "otte": 6348,
      "Ġstom": 6349,
      "apes": 6350,
      "Ġschools": 6351,
      "Ġwheels": 6352,
      "Ġpowerful": 6353,
      "Ġladies": 6354,
      "Ġnineteen": 6355,
      "pre": 6356,
      "Ġmonster": 6357,
      "Ġbowl": 6358,
      "Ġepis": 6359,
      "24": 6360,
      "éĶ": 6361,
      "inig": 6362,
      "Ġrom": 6363,
      "eller": 6364,
      "raak": 6365,
      "ĠRock": 6366,
      "Ġwalks": 6367,
      "whoops": 6368,
      "çİĭ": 6369,
      "Ġhonor": 6370,
      "Ġsuggested": 6371,
      "ĠBrazil": 6372,
      "HÃ©": 6373,
      "é©": 6374,
      "Ġdare": 6375,
      "Ġprincess": 6376,
      "Luister": 6377,
      "bird": 6378,
      "ç©": 6379,
      "stood": 6380,
      "Ġopge": 6381,
      "Ġwriter": 6382,
      "uiten": 6383,
      "Ġdenkt": 6384,
      "Ġpunten": 6385,
      "ĠAustri": 6386,
      "aine": 6387,
      "Ġverke": 6388,
      "ective": 6389,
      "izza": 6390,
      "Ġautom": 6391,
      "ĠProf": 6392,
      "Ġboss": 6393,
      "Ġmile": 6394,
      "Ġvooral": 6395,
      "Only": 6396,
      "è¾¹": 6397,
      "nons": 6398,
      "Ġhunt": 6399,
      "ĠME": 6400,
      "illed": 6401,
      "ĠOK": 6402,
      "Ġtweed": 6403,
      "Ġversion": 6404,
      "Ġgevaar": 6405,
      "è§īå¾Ĺ": 6406,
      "Ġsettled": 6407,
      "pot": 6408,
      "ĠFel": 6409,
      "ighs": 6410,
      "åħ³": 6411,
      "Ġaddition": 6412,
      "æ°´": 6413,
      "Got": 6414,
      "cries": 6415,
      "itz": 6416,
      "Ġgat": 6417,
      "Ġrope": 6418,
      "Ġconv": 6419,
      "berry": 6420,
      "ruk": 6421,
      "æĪĳçļĦ": 6422,
      "ĠYe": 6423,
      "å·²": 6424,
      "æ°Ķ": 6425,
      "whisper": 6426,
      "happy": 6427,
      "Ġnacht": 6428,
      "Ġzuur": 6429,
      "Ġhearing": 6430,
      "Ġmoeilijk": 6431,
      "åĹ¯": 6432,
      "fe": 6433,
      "yellow": 6434,
      "Ġdun": 6435,
      "Ġvoll": 6436,
      "ĠMike": 6437,
      "ĠSteven": 6438,
      "Ġappre": 6439,
      "Ġstands": 6440,
      "Ġveilig": 6441,
      "holds": 6442,
      "bal": 6443,
      "Ġstap": 6444,
      "Ġrow": 6445,
      "ĠJer": 6446,
      "osta": 6447,
      "Ġenter": 6448,
      "Ã«n": 6449,
      "Ġteach": 6450,
      "ĠOlympics": 6451,
      "OO": 6452,
      "ym": 6453,
      "invol": 6454,
      "isn": 6455,
      "Ġcong": 6456,
      "Ġcred": 6457,
      "Ġpale": 6458,
      "Ġinvent": 6459,
      "Ġren": 6460,
      "alled": 6461,
      "essie": 6462,
      "Ġgreater": 6463,
      "Ġcolon": 6464,
      "Ġonderwerp": 6465,
      "Ġvrienden": 6466,
      "bow": 6467,
      "Ġnaughty": 6468,
      "ĠDep": 6469,
      "ĠLang": 6470,
      "Ġsomewhat": 6471,
      "ucky": 6472,
      "Ġpercent": 6473,
      "Ġdecision": 6474,
      "ĠSpain": 6475,
      "Ġstudent": 6476,
      "åĵª": 6477,
      "æŃ£": 6478,
      "Ġcastle": 6479,
      "cut": 6480,
      "oven": 6481,
      "Ġpas": 6482,
      "Ġshirt": 6483,
      "ĠStone": 6484,
      "Ġhunting": 6485,
      "Ġgevonden": 6486,
      "Ġaddress": 6487,
      "Ġfellows": 6488,
      "Ġreligion": 6489,
      "89": 6490,
      "æ±": 6491,
      "Ġtour": 6492,
      "Ġlips": 6493,
      "Ġeleven": 6494,
      "ocrat": 6495,
      "Fuck": 6496,
      "rum": 6497,
      "Ġmale": 6498,
      "itect": 6499,
      "asy": 6500,
      "iezen": 6501,
      "Ġziek": 6502,
      "ĠWood": 6503,
      "Ġworried": 6504,
      "ĠOld": 6505,
      "ateg": 6506,
      "Ġdrinking": 6507,
      "Ġbeauty": 6508,
      "bare": 6509,
      "heen": 6510,
      "Ġfully": 6511,
      "Ġkitty": 6512,
      "ĠBest": 6513,
      "Ġbloed": 6514,
      "çģ": 6515,
      "aties": 6516,
      "Ġfought": 6517,
      "Ġ..": 6518,
      "Ġbeach": 6519,
      "ĠDutch": 6520,
      "Ġplayers": 6521,
      "osten": 6522,
      "è¿Ļä¹Ī": 6523,
      "Ġretired": 6524,
      "Ġnormal": 6525,
      "æ¬¡": 6526,
      "ĠCathalina": 6527,
      "Ġrepeated": 6528,
      "Ġrabbit": 6529,
      "sters": 6530,
      "vey": 6531,
      "ĠFin": 6532,
      "Ġsugar": 6533,
      "Ġlezen": 6534,
      "Ġloves": 6535,
      "Ġbits": 6536,
      "Ġhighest": 6537,
      "ĠEmpire": 6538,
      "ique": 6539,
      "èĻ": 6540,
      "another": 6541,
      "anda": 6542,
      "ila": 6543,
      "ĠDid": 6544,
      "ĠLab": 6545,
      "ĠNorm": 6546,
      "Ġelected": 6547,
      "airman": 6548,
      "Ġcontract": 6549,
      "Ġmessage": 6550,
      "Ġcondition": 6551,
      "ĠSarah": 6552,
      "Nat": 6553,
      "erc": 6554,
      "Ġinno": 6555,
      "ented": 6556,
      "Ġscience": 6557,
      "Ġthrown": 6558,
      "Ġmedicine": 6559,
      "choo": 6560,
      "Ġash": 6561,
      "Ġbub": 6562,
      "Ġrecover": 6563,
      "Ġsupper": 6564,
      "Ġplanet": 6565,
      "involuntary": 6566,
      "zij": 6567,
      "Ġyouth": 6568,
      "Ġeager": 6569,
      "ijst": 6570,
      "Ġune": 6571,
      "Ġcarrying": 6572,
      "Ġsnap": 6573,
      "ontin": 6574,
      "duct": 6575,
      "Ġtelephone": 6576,
      "Ġtweede": 6577,
      "Ġoil": 6578,
      "Ġfoto": 6579,
      "think": 6580,
      "apa": 6581,
      "--\"": 6582,
      "oday": 6583,
      "beren": 6584,
      "coh": 6585,
      "ned": 6586,
      "ston": 6587,
      "keep": 6588,
      "ĠBig": 6589,
      "Ġkinds": 6590,
      "Ġvoed": 6591,
      "Ġmentioned": 6592,
      "Ġgeweldig": 6593,
      "Ġfolk": 6594,
      "ĠMaak": 6595,
      "antwoord": 6596,
      "esty": 6597,
      "Ġwindows": 6598,
      "Ġdirector": 6599,
      "fortun": 6600,
      "Ġcalm": 6601,
      "Ġninety": 6602,
      "Ġfrightened": 6603,
      "Ind": 6604,
      "ences": 6605,
      "Ġhm": 6606,
      "sex": 6607,
      "ĠBru": 6608,
      "Ġcrime": 6609,
      "Ġplek": 6610,
      "yyy": 6611,
      "è¢«": 6612,
      "aus": 6613,
      "ano": 6614,
      "ĠDay": 6615,
      "Ġlies": 6616,
      "ĠJud": 6617,
      "Ġcommunic": 6618,
      "Ġstudents": 6619,
      "Ġmiljoen": 6620,
      "èº«": 6621,
      "iens": 6622,
      "Ġhello": 6623,
      "Ġmeal": 6624,
      "Ġgoin": 6625,
      "abama": 6626,
      "Ġlekker": 6627,
      "Ġlanden": 6628,
      "Ġcloser": 6629,
      "55": 6630,
      "fall": 6631,
      "sorry": 6632,
      "vir": 6633,
      "å£": 6634,
      "igan": 6635,
      "abeth": 6636,
      "Ġwatches": 6637,
      "Ġbroer": 6638,
      "Ġdrawn": 6639,
      "Ġfigures": 6640,
      "Ġfixed": 6641,
      "bon": 6642,
      "adian": 6643,
      "ĠMost": 6644,
      "Ġactress": 6645,
      "ooth": 6646,
      "Ġrelated": 6647,
      "Ġabsolutely": 6648,
      "Ġouders": 6649,
      "âĮī.": 6650,
      "çŃī": 6651,
      "zuur": 6652,
      "ĠLand": 6653,
      "Ġimpossible": 6654,
      "Ġinvestig": 6655,
      "Ġgehad": 6656,
      "Ġavailable": 6657,
      "ĠMars": 6658,
      "Ġenorm": 6659,
      "ĠLaw": 6660,
      "å¤ª": 6661,
      "ĠAlice": 6662,
      "Ġleading": 6663,
      "wijl": 6664,
      "Ġdevelopment": 6665,
      "ĠEleanor": 6666,
      "Ġvessel": 6667,
      "Am": 6668,
      "kig": 6669,
      "Ġsen": 6670,
      "Ġbisc": 6671,
      "Ġgall": 6672,
      "esh": 6673,
      "Ġserve": 6674,
      "Ġfinding": 6675,
      "Ġeaten": 6676,
      "Ġshowing": 6677,
      "Ġcreature": 6678,
      "Ġhurried": 6679,
      "âĮĭ.": 6680,
      "Ell": 6681,
      "IE": 6682,
      "Ġtheory": 6683,
      "Ġbarn": 6684,
      "ĠSummer": 6685,
      "Ġmovement": 6686,
      "Ġsilent": 6687,
      "ĠPlay": 6688,
      "People": 6689,
      "Ġtar": 6690,
      "Ġwachten": 6691,
      "alf": 6692,
      "Ġclock": 6693,
      "ĠStap": 6694,
      "Ġsnake": 6695,
      "Ġ2005": 6696,
      "Ġincluded": 6697,
      "Ġdruk": 6698,
      "Ġholiday": 6699,
      "Ġbekend": 6700,
      "uig": 6701,
      "Ġboo": 6702,
      "Ġstock": 6703,
      "peror": 6704,
      "Ġpersoon": 6705,
      "vocalizes": 6706,
      "green": 6707,
      "mond": 6708,
      "Ġlord": 6709,
      "Ġlopen": 6710,
      "ĠSl": 6711,
      "Ġuses": 6712,
      "Ġgrot": 6713,
      "whoa": 6714,
      "Ġcentral": 6715,
      "Maak": 6716,
      "bro": 6717,
      "upp": 6718,
      "orse": 6719,
      "Ġkm": 6720,
      "ima": 6721,
      "Ġredu": 6722,
      "ĠLake": 6723,
      "ĠRose": 6724,
      "izing": 6725,
      "äºĨæĪĳ": 6726,
      "199": 6727,
      "ĠRussia": 6728,
      "Ġopposite": 6729,
      "aterpillar": 6730,
      "Ġtries": 6731,
      "Ġstir": 6732,
      "quar": 6733,
      "ishop": 6734,
      "while": 6735,
      "Ġbescher": 6736,
      "ĠLaura": 6737,
      "é«": 6738,
      "Ġax": 6739,
      "ĠAsh": 6740,
      "ĠDist": 6741,
      "Ġmanaged": 6742,
      "Ġresc": 6743,
      "hin": 6744,
      "Ġmummy": 6745,
      "Ġpijn": 6746,
      "Ġpool": 6747,
      "ota": 6748,
      "Ġmeasure": 6749,
      "uster": 6750,
      "ĠFar": 6751,
      "ĠOther": 6752,
      "Ġfifteen": 6753,
      "Ġmaterial": 6754,
      "é«ĺ": 6755,
      "fish": 6756,
      "vrouw": 6757,
      "zak": 6758,
      "Ġbare": 6759,
      "Ġvocal": 6760,
      "ĠBoy": 6761,
      "ĠGold": 6762,
      "Ġmarry": 6763,
      "ĠArt": 6764,
      "Ġperfectly": 6765,
      "Could": 6766,
      "ias": 6767,
      "ĠPur": 6768,
      "ulty": 6769,
      "Ġverg": 6770,
      "iverse": 6771,
      "apping": 6772,
      "Ġ2001": 6773,
      "Ġdaarna": 6774,
      "Act": 6775,
      "[.": 6776,
      "wing": 6777,
      "Ġtum": 6778,
      "Ġnomin": 6779,
      "ĠTor": 6780,
      "Ġshock": 6781,
      "Three": 6782,
      "grim": 6783,
      "Ġsigned": 6784,
      "Ġlawyer": 6785,
      "Ġluister": 6786,
      "could": 6787,
      "è¥¿": 6788,
      "Ġdom": 6789,
      "sell": 6790,
      "ante": 6791,
      "ĠPost": 6792,
      "ĠGreek": 6793,
      "action": 6794,
      "year": 6795,
      "Ġquietly": 6796,
      "Ġopportunity": 6797,
      "fa": 6798,
      "Ġtien": 6799,
      "oned": 6800,
      "Ġkracht": 6801,
      "rol": 6802,
      "ĠBang": 6803,
      "ĠRight": 6804,
      "Ġschoon": 6805,
      "Ġpresence": 6806,
      "ĠErnest": 6807,
      "komst": 6808,
      "ĠBelg": 6809,
      "uze": 6810,
      "æŁ": 6811,
      "èĥ": 6812,
      "ĠIS": 6813,
      "Ġvij": 6814,
      "Ġstyle": 6815,
      "Ġrank": 6816,
      "ĠSil": 6817,
      "Ġlibr": 6818,
      "Ġmethod": 6819,
      "Ġdownstairs": 6820,
      "Ġnewsp": 6821,
      "Ġdistribut": 6822,
      "Ġofficial": 6823,
      "ĠEddie": 6824,
      "ĠMajor": 6825,
      "Ġfaint": 6826,
      "Ġdozen": 6827,
      "ĠSk": 6828,
      "Ġ2004": 6829,
      "ĠTHAT": 6830,
      "ĠIrish": 6831,
      "Ġaverage": 6832,
      "ux": 6833,
      "Â°": 6834,
      "Ġmicro": 6835,
      "Ġemer": 6836,
      "Ġwebs": 6837,
      "Ġballs": 6838,
      "Ġdirectly": 6839,
      "Ġcraw": 6840,
      "ĠSuper": 6841,
      "cellent": 6842,
      "ĠHilary": 6843,
      "AU": 6844,
      "whe": 6845,
      "Ġmate": 6846,
      "Ġknee": 6847,
      "Ġcris": 6848,
      "phone": 6849,
      "æĹ¥": 6850,
      "Ġjumped": 6851,
      "Nog": 6852,
      "hib": 6853,
      "mie": 6854,
      "Ġneer": 6855,
      "essed": 6856,
      "Ġexamen": 6857,
      "reeg": 6858,
      "Amer": 6859,
      "Tom": 6860,
      "ih": 6861,
      "Ġdiam": 6862,
      "ĠBas": 6863,
      "Ġspell": 6864,
      "Ġbrilliant": 6865,
      "Ġdancing": 6866,
      "Ġresol": 6867,
      "ĠNederlandse": 6868,
      "regen": 6869,
      "Ġthin": 6870,
      "agan": 6871,
      "Ġeruit": 6872,
      "Ġmanager": 6873,
      "epen": 6874,
      "ĠChampionship": 6875,
      "Ġwaarsch": 6876,
      "zzz": 6877,
      "Ġpolitie": 6878,
      "Ġongeveer": 6879,
      "Kan": 6880,
      "MO": 6881,
      "gh": 6882,
      "Ġaand": 6883,
      "ĠhÃ¨": 6884,
      "Ġfoc": 6885,
      "iep": 6886,
      "Ġ35": 6887,
      "Ġchest": 6888,
      "ĠGeorg": 6889,
      "Ġfailed": 6890,
      "Ġmodel": 6891,
      "Ġcomfortable": 6892,
      "éĥ": 6893,
      "ĠBaby": 6894,
      "ĠDuke": 6895,
      "Ġlangs": 6896,
      "Ġexcuse": 6897,
      "Ġbrave": 6898,
      "ĠInternational": 6899,
      "Put": 6900,
      "aning": 6901,
      "Ġtoil": 6902,
      "ested": 6903,
      "nods": 6904,
      "Ġcrown": 6905,
      "Ġfairly": 6906,
      "Ġpoet": 6907,
      "Ġproperty": 6908,
      "atory": 6909,
      "Ġhulp": 6910,
      "Ġcards": 6911,
      "Ġstro": 6912,
      "Ġzoeken": 6913,
      "ĠSaint": 6914,
      "ĠPak": 6915,
      "geant": 6916,
      "ä¸»": 6917,
      "ilder": 6918,
      "Ġdoors": 6919,
      "Ġsits": 6920,
      "Ġnatuurlijk": 6921,
      "Ġlieutenant": 6922,
      "Hold": 6923,
      "IV": 6924,
      "law": 6925,
      "ĠGet": 6926,
      "Ġbackground": 6927,
      "Ġstudied": 6928,
      "ĠXX": 6929,
      "Ġtelef": 6930,
      "Ġideas": 6931,
      "Ġbodies": 6932,
      "Ġwise": 6933,
      "ĠSally": 6934,
      "Ġbutton": 6935,
      "aily": 6936,
      "Ġbitch": 6937,
      "Ġyounger": 6938,
      "Ġindic": 6939,
      "Ġopinion": 6940,
      "YOU": 6941,
      "tje": 6942,
      "ĠCast": 6943,
      "Ġbegins": 6944,
      "Ġcolour": 6945,
      "Ġobt": 6946,
      "uwen": 6947,
      "IGHT": 6948,
      "Ġdollar": 6949,
      "Ġ1980": 6950,
      "Ġconcerned": 6951,
      "Ġcircumst": 6952,
      "Zijn": 6953,
      "ridge": 6954,
      "Ġ--": 6955,
      "enced": 6956,
      "reland": 6957,
      "ĠKore": 6958,
      "igned": 6959,
      "Ġdisease": 6960,
      "Kl": 6961,
      "SS": 6962,
      "Ġbother": 6963,
      "Ġrif": 6964,
      "ĠDO": 6965,
      "icking": 6966,
      "Ġbeginnen": 6967,
      "ockey": 6968,
      "Ġmatters": 6969,
      "Ġbuildings": 6970,
      "peech": 6971,
      "èĪ": 6972,
      "èĭ": 6973,
      "Ġce": 6974,
      "arry": 6975,
      "Ġnation": 6976,
      "amber": 6977,
      "thur": 6978,
      "Ġdata": 6979,
      "Ġobviously": 6980,
      "åĨĽ": 6981,
      "Ġparticularly": 6982,
      "Ġentirely": 6983,
      "æ³ķ": 6984,
      "Ġdegree": 6985,
      "nonspeech": 6986,
      "GH": 6987,
      "huis": 6988,
      "ĠCa": 6989,
      "ĠFil": 6990,
      "åĲĮ": 6991,
      "Ġweekend": 6992,
      "Ġbringing": 6993,
      "26": 6994,
      "Ph": 6995,
      "kele": 6996,
      "yr": 6997,
      "ç¦": 6998,
      "icy": 6999,
      "Ġafford": 7000,
      "gency": 7001,
      "Ġ31": 7002,
      "Ġ1990": 7003,
      "ĠCollege": 7004,
      "Ġlap": 7005,
      "Ġyards": 7006,
      "ado": 7007,
      "ĠAward": 7008,
      "ĠMax": 7009,
      "Ġboot": 7010,
      "ishment": 7011,
      "Ġbedroom": 7012,
      "Toen": 7013,
      "è°ģ": 7014,
      "Ġdemanded": 7015,
      "ĠCongress": 7016,
      "zie": 7017,
      "ata": 7018,
      "isa": 7019,
      "Ġchat": 7020,
      "Ġfond": 7021,
      "Ġstones": 7022,
      "ĠBern": 7023,
      "Ġjezelf": 7024,
      "ĠWind": 7025,
      "Ġsection": 7026,
      "ĠAlabama": 7027,
      "å¥³": 7028,
      "ĠBritain": 7029,
      ",-": 7030,
      "Ooh": 7031,
      "lam": 7032,
      "ragen": 7033,
      "Ġwink": 7034,
      "isl": 7035,
      "itation": 7036,
      "Ġfac": 7037,
      "esc": 7038,
      "ential": 7039,
      "urse": 7040,
      "Ġcommun": 7041,
      "Ġpapa": 7042,
      "ĠLeon": 7043,
      "\"?": 7044,
      "orie": 7045,
      "Ġfired": 7046,
      "ĠDel": 7047,
      "ĠGro": 7048,
      "iano": 7049,
      "Ġcompanion": 7050,
      "ĠGovernment": 7051,
      "BC": 7052,
      "pa": 7053,
      "zel": 7054,
      "Ġdebut": 7055,
      "ĠCourt": 7056,
      "about": 7057,
      "Ġplans": 7058,
      "enden": 7059,
      "Ġdesk": 7060,
      "Ġexpression": 7061,
      "Ġastron": 7062,
      "Ġjudge": 7063,
      "Ġlichaam": 7064,
      "Cal": 7065,
      "bell": 7066,
      "onse": 7067,
      "Ġnorthern": 7068,
      "Ġvir": 7069,
      "Ġkreeg": 7070,
      "ems": 7071,
      "Ġvergelijk": 7072,
      "Ġstayed": 7073,
      "åĬĽ": 7074,
      "ĠEllen": 7075,
      "Denk": 7076,
      "Ġhoort": 7077,
      "ĠJerry": 7078,
      "Ġprefer": 7079,
      "äºĨä½ł": 7080,
      "bra": 7081,
      "gn": 7082,
      "rich": 7083,
      "win": 7084,
      "Ġaang": 7085,
      "Ġbug": 7086,
      "oning": 7087,
      "onge": 7088,
      "Ġfart": 7089,
      "Ġvalt": 7090,
      "Ġdeb": 7091,
      "estival": 7092,
      "Ġmeteen": 7093,
      "Ġ60": 7094,
      "Ġfalls": 7095,
      "Ġpossibly": 7096,
      "Ġsuccessful": 7097,
      "daddy": 7098,
      "laugh": 7099,
      "æį": 7100,
      "Ġpants": 7101,
      "ĠIreland": 7102,
      "ĠVictor": 7103,
      "Ġqual": 7104,
      "Ġuitge": 7105,
      "GRM": 7106,
      "Ġfamiliar": 7107,
      "Cos": 7108,
      "Vol": 7109,
      "åĥ": 7110,
      "Ġbunny": 7111,
      "Ġlif": 7112,
      "ĠSun": 7113,
      "ĠWas": 7114,
      "ension": 7115,
      "izabeth": 7116,
      "Ġalsof": 7117,
      "Ġindust": 7118,
      "Ġreply": 7119,
      "Ġtypes": 7120,
      "Ġvraagt": 7121,
      "èĢģå¸Ī": 7122,
      "29": 7123,
      "cream": 7124,
      "ga": 7125,
      "six": 7126,
      "èĦ": 7127,
      "Ġtie": 7128,
      "Ġghost": 7129,
      "Ġweinig": 7130,
      "ĠDuring": 7131,
      "Ġalcoh": 7132,
      "Ġagent": 7133,
      "Ġhung": 7134,
      "Ġmagic": 7135,
      "ĠAfrican": 7136,
      "ĠHoward": 7137,
      "Ġlanguages": 7138,
      "Ġsociety": 7139,
      "First": 7140,
      "ware": 7141,
      "Ġthroat": 7142,
      "omed": 7143,
      "ĠWestern": 7144,
      "onde": 7145,
      "Ġbenef": 7146,
      "éĩį": 7147,
      "Ġprecies": 7148,
      "vels": 7149,
      "Ġwine": 7150,
      "chan": 7151,
      "ĠDen": 7152,
      "ä¸ľ": 7153,
      "ĠArmy": 7154,
      "Ġwaited": 7155,
      "Ġcookie": 7156,
      "45": 7157,
      "nic": 7158,
      "Ġdeur": 7159,
      "ĠHam": 7160,
      "ĠBur": 7161,
      "aars": 7162,
      "Ġnoem": 7163,
      "ĠRoss": 7164,
      "ĠRec": 7165,
      "oden": 7166,
      "Ġzoveel": 7167,
      "Ġhelping": 7168,
      "Ġcontinue": 7169,
      "Ġexplained": 7170,
      "Frank": 7171,
      "æİ¥": 7172,
      "çĲĨ": 7173,
      "zing": 7174,
      "Ġfund": 7175,
      "etter": 7176,
      "ĠHot": 7177,
      "iform": 7178,
      "ĠJones": 7179,
      "Ġspel": 7180,
      "Ġ2003": 7181,
      "Ġontmo": 7182,
      "æ¡": 7183,
      "Ġaward": 7184,
      "atuur": 7185,
      "ĠTob": 7186,
      "umph": 7187,
      "Ġupset": 7188,
      "Ġknowing": 7189,
      "Ġschrij": 7190,
      "ĠFriday": 7191,
      "ciation": 7192,
      "every": 7193,
      "Ġsports": 7194,
      "Peter": 7195,
      "cel": 7196,
      "gent": 7197,
      "Ġfurn": 7198,
      "ĠSand": 7199,
      "ĠWales": 7200,
      "ĠGra": 7201,
      "asty": 7202,
      "çļĦæĹ¶åĢĻ": 7203,
      "SISTER": 7204,
      "Ġnative": 7205,
      "Ġcurious": 7206,
      "Ġvalue": 7207,
      "æ´»": 7208,
      "lie": 7209,
      "xide": 7210,
      "Ġess": 7211,
      "Ġrode": 7212,
      "onday": 7213,
      "ordon": 7214,
      "ä½į": 7215,
      "Ġprofessor": 7216,
      "Ġadmin": 7217,
      "Ġliggen": 7218,
      "Ġdescribed": 7219,
      "Ġpolicy": 7220,
      "Keep": 7221,
      "Ġsouthern": 7222,
      "orter": 7223,
      "edig": 7224,
      "ulous": 7225,
      "Ġcomment": 7226,
      "ĠOkay": 7227,
      "Ġclown": 7228,
      "Ġunderstood": 7229,
      "åħ¨": 7230,
      "Ġgezicht": 7231,
      "Ġechte": 7232,
      "Ġrelease": 7233,
      "Ġreported": 7234,
      "çī¹": 7235,
      "Ġanxious": 7236,
      "åĥı": 7237,
      "Dor": 7238,
      "cr": 7239,
      "reden": 7240,
      "Ġbump": 7241,
      "Ġbeer": 7242,
      "ĠSn": 7243,
      "aging": 7244,
      "Ġhers": 7245,
      "oughs": 7246,
      "iaal": 7247,
      "Ġterror": 7248,
      "Ġinterview": 7249,
      "æĹł": 7250,
      "Alright": 7251,
      "ĠAustralian": 7252,
      "Ġneighbor": 7253,
      "from": 7254,
      "worth": 7255,
      "Ġtip": 7256,
      "Ġavo": 7257,
      "uries": 7258,
      "ĠLie": 7259,
      "ppen": 7260,
      "Ġschrijven": 7261,
      "Ġcentre": 7262,
      "Ġgevoel": 7263,
      "ĠEurop": 7264,
      "Ġcompanies": 7265,
      "iqu": 7266,
      "Ġfancy": 7267,
      "Ġheav": 7268,
      "ĠIllustr": 7269,
      "ĠTra": 7270,
      "Ġforces": 7271,
      "agement": 7272,
      "Ġorde": 7273,
      "Ġfeather": 7274,
      "Ġbiggest": 7275,
      "Ġdesc": 7276,
      "ĠYoung": 7277,
      "Ġlaws": 7278,
      "Captain": 7279,
      "zien": 7280,
      "Ġotherwise": 7281,
      "Ġrestaur": 7282,
      "ĠSecret": 7283,
      "Ġarchitect": 7284,
      "Steven": 7285,
      "Great": 7286,
      "las": 7287,
      "too": 7288,
      "Ġsum": 7289,
      "Ġpages": 7290,
      "omst": 7291,
      "aming": 7292,
      "ĠMo": 7293,
      "Ġshake": 7294,
      "ĠFat": 7295,
      "Ġscore": 7296,
      "Ġgenoemd": 7297,
      "Ġpassing": 7298,
      "ommige": 7299,
      "Ġgeloof": 7300,
      "Ġliever": 7301,
      "åºĶ": 7302,
      "Ġgrootste": 7303,
      "Ġmeeste": 7304,
      "ä¿¡": 7305,
      "Ġutter": 7306,
      "è¯¥": 7307,
      "Ġkilling": 7308,
      "Ġmaxim": 7309,
      "Ġrelationship": 7310,
      "sure": 7311,
      "Ġervoor": 7312,
      "Ġourselves": 7313,
      "Ġpointed": 7314,
      "Ġpapers": 7315,
      "Ġproperly": 7316,
      "Ed": 7317,
      "Ġsorrow": 7318,
      "Ġpushed": 7319,
      "icago": 7320,
      "Ġdoel": 7321,
      "åıĭ": 7322,
      "Ġnursery": 7323,
      "Ġdetermined": 7324,
      "Ġ)": 7325,
      "reme": 7326,
      "orp": 7327,
      "urance": 7328,
      "ĠBro": 7329,
      "Ġprove": 7330,
      "ensen": 7331,
      "unnel": 7332,
      "Ġnatuur": 7333,
      "Ġinhab": 7334,
      "Ġnieuws": 7335,
      "Ġfeatures": 7336,
      "ĠMexico": 7337,
      "35": 7338,
      "Bij": 7339,
      "rad": 7340,
      "imate": 7341,
      "Ġzout": 7342,
      "ĠHay": 7343,
      "appe": 7344,
      "Ġleger": 7345,
      "ounce": 7346,
      "Ġreceive": 7347,
      "Ġtid": 7348,
      "Ġdying": 7349,
      "isher": 7350,
      "ede": 7351,
      "Ġfol": 7352,
      "Ġdemon": 7353,
      "Ġwhist": 7354,
      "Ġslept": 7355,
      "Ġontw": 7356,
      "Ġvrouwen": 7357,
      "Ġeinde": 7358,
      "Ġknocked": 7359,
      "About": 7360,
      "Nin": 7361,
      "yan": 7362,
      "itan": 7363,
      "Ġrang": 7364,
      "ionen": 7365,
      "Ġforced": 7366,
      "lyn": 7367,
      "ĠDoor": 7368,
      "Ġsees": 7369,
      "Ġcontain": 7370,
      "Ġsword": 7371,
      "Ġeasier": 7372,
      "Ġeighty": 7373,
      "Ġpatient": 7374,
      "Ġcontinues": 7375,
      "Ġkleur": 7376,
      "Ġmemory": 7377,
      "76": 7378,
      "vat": 7379,
      "zes": 7380,
      "zig": 7381,
      "Ã±": 7382,
      "è±": 7383,
      "Ġmail": 7384,
      "Ġcage": 7385,
      "Ġstond": 7386,
      "iken": 7387,
      "Ġshoulders": 7388,
      "ä¸Ģä¸ĭ": 7389,
      "Those": 7390,
      "Ġkeeps": 7391,
      "Neem": 7392,
      "âĮĪ": 7393,
      "Ġontstaan": 7394,
      "Ġcruel": 7395,
      "Ġestabl": 7396,
      "bar": 7397,
      "Ġbark": 7398,
      "Ġvallen": 7399,
      "ĠCamp": 7400,
      "Ġbutt": 7401,
      "ĠAnne": 7402,
      "Ġtransport": 7403,
      "ĠComp": 7404,
      "making": 7405,
      "walk": 7406,
      "ĠChief": 7407,
      "Ġschuld": 7408,
      "Ġmission": 7409,
      "Ġtyp": 7410,
      "Ġhanging": 7411,
      "Ġbranches": 7412,
      "bot": 7413,
      "icans": 7414,
      "Ġnoemen": 7415,
      "Ġsmiled": 7416,
      "Ġ2023": 7417,
      "ç½": 7418,
      "Ġere": 7419,
      "rec": 7420,
      "sect": 7421,
      "Ġconstit": 7422,
      "Ġdisappeared": 7423,
      "Ġclouds": 7424,
      "ĠVirgin": 7425,
      "EA": 7426,
      "ç¥": 7427,
      "heart": 7428,
      "itzer": 7429,
      "stone": 7430,
      "Ġaange": 7431,
      "Ġdism": 7432,
      "Ġexpress": 7433,
      "Ġremembered": 7434,
      "aisy": 7435,
      "èĬ±": 7436,
      "é©¬": 7437,
      "mom": 7438,
      "çķ": 7439,
      "idents": 7440,
      "semb": 7441,
      "Ġzoek": 7442,
      "Ġupper": 7443,
      "Ġhanden": 7444,
      "Ġbegint": 7445,
      "ä½łçļĦ": 7446,
      "Ġtrap": 7447,
      "Ġteams": 7448,
      "voice": 7449,
      "ĠJackson": 7450,
      "Ġdamn": 7451,
      "Ġcustom": 7452,
      "85": 7453,
      "po": 7454,
      "Ġtor": 7455,
      "Ġleeft": 7456,
      "iemand": 7457,
      "ĠRay": 7458,
      "Ġschip": 7459,
      "åı«": 7460,
      "ĠAnna": 7461,
      "Ġreligious": 7462,
      "ĠGovernor": 7463,
      "sembly": 7464,
      "Ġpic": 7465,
      "Ġloose": 7466,
      "Ġenkele": 7467,
      "ĠHead": 7468,
      "Ġgreatly": 7469,
      "Ġintellig": 7470,
      "Blijf": 7471,
      "Ġbutterfly": 7472,
      "Ġsacr": 7473,
      "ĠSoviet": 7474,
      "bits": 7475,
      "Ġtummy": 7476,
      "Ġsons": 7477,
      "attle": 7478,
      "Ġkamer": 7479,
      "æŃ»": 7480,
      "Bye": 7481,
      "Com": 7482,
      "kes": 7483,
      "wers": 7484,
      "ĠTex": 7485,
      "Ġconcentr": 7486,
      "ocr": 7487,
      "Ġremarked": 7488,
      "ç¬¬": 7489,
      "Ġresearch": 7490,
      "39": 7491,
      "bus": 7492,
      "âĢ¢": 7493,
      "Ġaster": 7494,
      "Ġlatter": 7495,
      "Ġdoin": 7496,
      "Ġzak": 7497,
      "illing": 7498,
      "Ġmole": 7499,
      "ĠRuth": 7500,
      "osen": 7501,
      "ĠKim": 7502,
      "obile": 7503,
      "ekt": 7504,
      "ipping": 7505,
      "Ġdisappoint": 7506,
      "Ġrivier": 7507,
      "Ġfout": 7508,
      "ĠSee": 7509,
      "ĠMen": 7510,
      "Ġaside": 7511,
      "angle": 7512,
      "ĠChairman": 7513,
      "Ġslapen": 7514,
      "leden": 7515,
      "ĠBecause": 7516,
      "Ġcooking": 7517,
      "Ġladder": 7518,
      "Ġfamilies": 7519,
      "acle": 7520,
      "ĠHE": 7521,
      "Ġmatches": 7522,
      "Ġformula": 7523,
      "Ġincludes": 7524,
      "Ġhammer": 7525,
      "VER": 7526,
      "Ġoef": 7527,
      "Ġfence": 7528,
      "Ġstaff": 7529,
      "uns": 7530,
      "ĠPop": 7531,
      "Ġneat": 7532,
      "Ġextrem": 7533,
      "çĽ´": 7534,
      "Everything": 7535,
      "Ġpainting": 7536,
      "Ġglasses": 7537,
      "Ġauthority": 7538,
      "ĠRussian": 7539,
      "Ġbranch": 7540,
      "Ġwhispered": 7541,
      "Ġapparently": 7542,
      "una": 7543,
      "opher": 7544,
      "ĠGar": 7545,
      "Ġexerc": 7546,
      "Ġremains": 7547,
      "ĠCanadian": 7548,
      "Ġthousands": 7549,
      "ournal": 7550,
      "Ġwitness": 7551,
      "staande": 7552,
      "75": 7553,
      "WE": 7554,
      "draw": 7555,
      "eral": 7556,
      "Ġhi": 7557,
      "Ġforms": 7558,
      "Ġervan": 7559,
      "Ġqueer": 7560,
      "Ġroyal": 7561,
      "spect": 7562,
      "Ġthoughts": 7563,
      "Ġ45": 7564,
      "Ġdesire": 7565,
      "ãĢĤ\"": 7566,
      "Ġproblemen": 7567,
      "ological": 7568,
      "ĠLees": 7569,
      "Ad": 7570,
      "ners": 7571,
      "èģ": 7572,
      "Ġwished": 7573,
      "ani": 7574,
      "Ġmud": 7575,
      "Ġlon": 7576,
      "rip": 7577,
      "Ġthroughout": 7578,
      "ĠArch": 7579,
      "Ġartist": 7580,
      "Ġshouted": 7581,
      "Omdat": 7582,
      "ĠFlorida": 7583,
      "å·²ç»ı": 7584,
      "28": 7585,
      "Want": 7586,
      "rough": 7587,
      "çĮ": 7588,
      "igr": 7589,
      "uro": 7590,
      "Ġmeas": 7591,
      "ĠDiv": 7592,
      "rak": 7593,
      "emd": 7594,
      "Ġplastic": 7595,
      "Ġmanage": 7596,
      "ussy": 7597,
      "Ġseconds": 7598,
      "Ġlistened": 7599,
      "turns": 7600,
      "Se": 7601,
      "ients": 7602,
      "little": 7603,
      "Ġx": 7604,
      "lly": 7605,
      "ĠSid": 7606,
      "Ġhetzelfde": 7607,
      "uls": 7608,
      "Ġspect": 7609,
      "Ġagre": 7610,
      "ĠVal": 7611,
      "iance": 7612,
      "ĠChicago": 7613,
      "eerd": 7614,
      "Ġdecide": 7615,
      "ĠJean": 7616,
      "Ġresponse": 7617,
      "é¢ĺ": 7618,
      "Ġoblig": 7619,
      "Lea": 7620,
      "RA": 7621,
      "æı": 7622,
      "Ġbike": 7623,
      "ami": 7624,
      "Ġhabit": 7625,
      "ĠHarr": 7626,
      "ipl": 7627,
      "Ġfeels": 7628,
      "actually": 7629,
      "Ġrecorded": 7630,
      "çĪ·": 7631,
      "å§Ĳ": 7632,
      "Ġmixed": 7633,
      "Ġstreets": 7634,
      "ĠAcademy": 7635,
      "vy": 7636,
      "Ġmor": 7637,
      "Ġgay": 7638,
      "Ġmogen": 7639,
      "Ġsaus": 7640,
      "Ġteken": 7641,
      "Ġboom": 7642,
      "Ġ36": 7643,
      "iddle": 7644,
      "Ġphil": 7645,
      "schap": 7646,
      "å¤§å®¶": 7647,
      "å¸¦": 7648,
      "è§£": 7649,
      "Ġbasis": 7650,
      "Ġveget": 7651,
      "Ġprisoners": 7652,
      "ĠMartin": 7653,
      "çĥ": 7654,
      "chief": 7655,
      "Ġproberen": 7656,
      "Ġboots": 7657,
      "åĪļ": 7658,
      "Ġbecoming": 7659,
      "Ġartikel": 7660,
      "Before": 7661,
      "Ġinstant": 7662,
      "Ġinstruct": 7663,
      "Ġshopping": 7664,
      "Ġdestroyed": 7665,
      "Ġinternational": 7666,
      "Ġdocument": 7667,
      "lt": 7668,
      "pect": 7669,
      "ingu": 7670,
      "Ġpour": 7671,
      "Ġvak": 7672,
      "Ġzon": 7673,
      "agina": 7674,
      "ĠBear": 7675,
      "Ġbreaking": 7676,
      "Ġcute": 7677,
      "Ġdifficulty": 7678,
      "åĸľ": 7679,
      "Ġzodat": 7680,
      "TH": 7681,
      "mans": 7682,
      "Ġtal": 7683,
      "ĠCons": 7684,
      "rier": 7685,
      "indelijk": 7686,
      "Ġshell": 7687,
      "ienst": 7688,
      "Ġbene": 7689,
      "Ġbecomes": 7690,
      "Ġeerder": 7691,
      "Ġwondering": 7692,
      "Ġprize": 7693,
      "Ġmainly": 7694,
      "Ġalcohol": 7695,
      "pull": 7696,
      "ç´": 7697,
      "Ġwaves": 7698,
      "Ġocean": 7699,
      "Ġhook": 7700,
      "Ġpure": 7701,
      "Ġpizza": 7702,
      "ĠHol": 7703,
      "Ġshook": 7704,
      "Ġnoble": 7705,
      "Ġsposta": 7706,
      "ĠKenn": 7707,
      "Ġwaters": 7708,
      "è¿Ļæĺ¯": 7709,
      "Ġattend": 7710,
      "Ġexperiment": 7711,
      "Ġpuppy": 7712,
      "MIC": 7713,
      "Ġwa": 7714,
      "Ġgere": 7715,
      "Ġinit": 7716,
      "Ġreck": 7717,
      "Ġris": 7718,
      "inda": 7719,
      "weer": 7720,
      "Ġfeest": 7721,
      "Ġthrowing": 7722,
      "mann": 7723,
      "Ġbelief": 7724,
      "Ġcompos": 7725,
      "Ġbitter": 7726,
      "Ġgrab": 7727,
      "idding": 7728,
      "ĠJeff": 7729,
      "Ġfilms": 7730,
      "Ġmerch": 7731,
      "Ġdarkness": 7732,
      "ropical": 7733,
      "ĠWhile": 7734,
      "Ġorganis": 7735,
      "Ġsymbol": 7736,
      "é»": 7737,
      "Ġfox": 7738,
      "Ġgather": 7739,
      "ĠBart": 7740,
      "raat": 7741,
      "Ġcock": 7742,
      "Ġvoel": 7743,
      "brand": 7744,
      "after": 7745,
      "Ġprovide": 7746,
      "Ġontstaat": 7747,
      "silence": 7748,
      "houd": 7749,
      "é¥": 7750,
      "Ġsalt": 7751,
      "Ġtoek": 7752,
      "Ġloopt": 7753,
      "Ġyyy": 7754,
      "Ġbee": 7755,
      "Ġrise": 7756,
      "opl": 7757,
      "Ġmuziek": 7758,
      "90": 7759,
      "Since": 7760,
      "try": 7761,
      "wick": 7762,
      "èī": 7763,
      "hemat": 7764,
      "Ġwore": 7765,
      "edereen": 7766,
      "Ġfier": 7767,
      "Ġreasons": 7768,
      "urb": 7769,
      "uhuh": 7770,
      "Ġvoet": 7771,
      "Ġaccomp": 7772,
      "Ġ186": 7773,
      "Ġadvant": 7774,
      "wijs": 7775,
      "Ġdrugs": 7776,
      "Ġaim": 7777,
      "ĠFore": 7778,
      "rue": 7779,
      "Ġpartner": 7780,
      "Ġfriendly": 7781,
      "Ġballoon": 7782,
      "Ġdrove": 7783,
      "ĠProv": 7784,
      "affe": 7785,
      "ĠConf": 7786,
      "Ġrequired": 7787,
      "Ġtouched": 7788,
      "viron": 7789,
      "Men": 7790,
      "Zij": 7791,
      "oft": 7792,
      "Ġdank": 7793,
      "oorten": 7794,
      "ĠJac": 7795,
      "place": 7796,
      "Ġyew": 7797,
      "Ġsmiling": 7798,
      "å°Ĩ": 7799,
      "Ġends": 7800,
      "ĠJohnny": 7801,
      "reedom": 7802,
      "Ġdamage": 7803,
      "ĠCatholic": 7804,
      "Ġargument": 7805,
      "ugen": 7806,
      "æ¼": 7807,
      "Ġmouse": 7808,
      "Ġgently": 7809,
      "Ġvuur": 7810,
      "alo": 7811,
      "Ġriding": 7812,
      "ĠMur": 7813,
      "ilities": 7814,
      "ĠDuits": 7815,
      "ĠPion": 7816,
      "Ġnois": 7817,
      "Ġsofa": 7818,
      "itte": 7819,
      "ichting": 7820,
      "Ġobserved": 7821,
      "36": 7822,
      "Ho": 7823,
      "Nicole": 7824,
      "nem": 7825,
      "ĠCH": 7826,
      "Ġwounded": 7827,
      "Ġsau": 7828,
      "Ġweird": 7829,
      "ĠBell": 7830,
      "riet": 7831,
      "ĠGil": 7832,
      "Ġchain": 7833,
      "aved": 7834,
      "ĠPrime": 7835,
      "Ġforever": 7836,
      "ĠGrandma": 7837,
      "Ġcells": 7838,
      "Ġblanket": 7839,
      "Ġmagazine": 7840,
      "Sn": 7841,
      "Ġach": 7842,
      "Ġpin": 7843,
      "imp": 7844,
      "anten": 7845,
      "inkt": 7846,
      "Ġconsequ": 7847,
      "uckles": 7848,
      "Ġwaarin": 7849,
      "ĠBeck": 7850,
      "å¸¸": 7851,
      "è¿ĺæľī": 7852,
      "Ġgebied": 7853,
      "Ġadvice": 7854,
      "ĠProfessor": 7855,
      "Ġtoilet": 7856,
      "ĠPakistan": 7857,
      "Ġï¿½ï¿½ï¿½ï¿½": 7858,
      "Ġtv": 7859,
      "Ġhom": 7860,
      "Ġknees": 7861,
      "Ġchosen": 7862,
      "ĠFox": 7863,
      "Ġcontribut": 7864,
      "åĲĪ": 7865,
      "Ġboxes": 7866,
      "Ġsignal": 7867,
      "Ġmedia": 7868,
      "Ġrecords": 7869,
      "æīĢä»¥": 7870,
      "Ġdefinitely": 7871,
      "OY": 7872,
      "veren": 7873,
      "Ġqueen": 7874,
      "order": 7875,
      "Ġtravell": 7876,
      "Ġkingdom": 7877,
      "åĵ¥": 7878,
      "Ġissue": 7879,
      "Ġzetten": 7880,
      "Ġwedding": 7881,
      "ĠDistrict": 7882,
      "Ġlibrary": 7883,
      "Helen": 7884,
      "Other": 7885,
      "Rem": 7886,
      "Vert": 7887,
      "reck": 7888,
      "owder": 7889,
      "Ġwashing": 7890,
      "Ġreview": 7891,
      "Ġlied": 7892,
      "ĠFort": 7893,
      "Ġspreken": 7894,
      "rub": 7895,
      "ä½ĵ": 7896,
      "innie": 7897,
      "Ġsteam": 7898,
      "Ġjobs": 7899,
      "Ġforeign": 7900,
      "Ġburst": 7901,
      "Ġburning": 7902,
      "æ¬¢": 7903,
      "Ġneemt": 7904,
      "Ġpilot": 7905,
      "Ġsem": 7906,
      "Ġcouch": 7907,
      "Ġnerv": 7908,
      "Ġalarm": 7909,
      "Ġshame": 7910,
      "Ġergens": 7911,
      "actor": 7912,
      "ailed": 7913,
      "Ġcats": 7914,
      "çĪ±": 7915,
      "Ġeffects": 7916,
      "Ġcabin": 7917,
      "MAT": 7918,
      "iven": 7919,
      "etch": 7920,
      "Ġreve": 7921,
      "Ġreaches": 7922,
      "ilty": 7923,
      "Ġcommer": 7924,
      "Ġguide": 7925,
      "Ġacting": 7926,
      "Ġcourage": 7927,
      "Ġswing": 7928,
      "Ġsoldier": 7929,
      "Ġsoftly": 7930,
      "Ġexecut": 7931,
      "Ma": 7932,
      "èį": 7933,
      "Ġwou": 7934,
      "rekken": 7935,
      "Ġyard": 7936,
      "ooper": 7937,
      "Ġjoke": 7938,
      "aka": 7939,
      "emies": 7940,
      "Ġentr": 7941,
      "Ġsafety": 7942,
      "Ġpressure": 7943,
      "ĠLatin": 7944,
      "Ġepisode": 7945,
      "Ġgathered": 7946,
      "cat": 7947,
      "hall": 7948,
      "heast": 7949,
      "Ġaunt": 7950,
      "Ġkru": 7951,
      "ĠCook": 7952,
      "opter": 7953,
      "Ġgevol": 7954,
      "Ġmetal": 7955,
      "ĠHeb": 7956,
      "Ġalsjeblieft": 7957,
      "ĠStar": 7958,
      "Ġmuse": 7959,
      "ibr": 7960,
      "ĠMaria": 7961,
      "ederal": 7962,
      "ĠElizabeth": 7963,
      "Ġraise": 7964,
      "Ġstatistics": 7965,
      "Welke": 7966,
      "Ġslightly": 7967,
      "84": 7968,
      "ĠBos": 7969,
      "eps": 7970,
      "Ġterwijl": 7971,
      "goed": 7972,
      "Ġvliegt": 7973,
      "Ġinfluence": 7974,
      "27": 7975,
      "AB": 7976,
      "Beg": 7977,
      "Most": 7978,
      "Ġhar": 7979,
      "Ġkent": 7980,
      "irk": 7981,
      "ĠHill": 7982,
      "usted": 7983,
      "Ġscr": 7984,
      "Ġprem": 7985,
      "Ġprevious": 7986,
      "Ġsticks": 7987,
      "è¿ĺæĺ¯": 7988,
      "Ġgehoord": 7989,
      "komt": 7990,
      "Ġmooie": 7991,
      "Ġshooting": 7992,
      "mes": 7993,
      "lle": 7994,
      "Ġinn": 7995,
      "Ġgray": 7996,
      "aalde": 7997,
      "Ġnummer": 7998,
      "Ġrooms": 7999,
      "azed": 8000,
      "Ġawake": 8001,
      "å¸®": 8002,
      "åĩł": 8003,
      "Ġ1960": 8004,
      "Ġperformed": 8005,
      "Ġaston": 8006,
      "GER": 8007,
      "éľ": 8008,
      "Ġsoup": 8009,
      "Ġbones": 8010,
      "Ġhills": 8011,
      "Ġcant": 8012,
      "Ġtooth": 8013,
      "Ġnick": 8014,
      "Ġvot": 8015,
      "Ġvle": 8016,
      "Ġrising": 8017,
      "Ġwealth": 8018,
      "ĠNic": 8019,
      "Ġplot": 8020,
      "ĠFOR": 8021,
      "Ġconce": 8022,
      "Ġproved": 8023,
      "Ġload": 8024,
      "Ġ34": 8025,
      "Ġcommittee": 8026,
      "Ġ2002": 8027,
      "Ġ1991": 8028,
      "oogle": 8029,
      "Ġcompetition": 8030,
      "ders": 8031,
      "Ġwipe": 8032,
      "Ġwaste": 8033,
      "sem": 8034,
      "Ġsore": 8035,
      "together": 8036,
      "äºĨä¸Ģ": 8037,
      "Ġgolden": 8038,
      "ĠJimmie": 8039,
      "çĽ¸": 8040,
      "Ele": 8041,
      "Wow": 8042,
      "Zie": 8043,
      "niet": 8044,
      "Ġtap": 8045,
      "Ġnic": 8046,
      "chair": 8047,
      "ĠPeg": 8048,
      "Ġkinda": 8049,
      "Isn": 8050,
      "Ġsignific": 8051,
      "Ġstrike": 8052,
      "Ġsuffered": 8053,
      "çľŁçļĦ": 8054,
      "GMO": 8055,
      "Sm": 8056,
      "UST": 8057,
      "ti": 8058,
      "åĶ": 8059,
      "Ġaft": 8060,
      "rels": 8061,
      "Ġcaterpillar": 8062,
      "esse": 8063,
      "Ġnovel": 8064,
      "Ġspo": 8065,
      "icky": 8066,
      "plane": 8067,
      "Ġrecomm": 8068,
      "Ġstring": 8069,
      "Ġsixty": 8070,
      "Ġpencil": 8071,
      "Ġaccepted": 8072,
      "Ġestablished": 8073,
      "Um": 8074,
      "aign": 8075,
      "Ġhidden": 8076,
      "Ġpracht": 8077,
      "Ġanderen": 8078,
      "Ġrush": 8079,
      "Ġgoal": 8080,
      "ĠGO": 8081,
      "ulations": 8082,
      "Ġovert": 8083,
      "Ġrealize": 8084,
      "Ġgarage": 8085,
      "Ġastero": 8086,
      "87": 8087,
      "pass": 8088,
      "woorden": 8089,
      "Ġturt": 8090,
      "anen": 8091,
      "Ġfal": 8092,
      "aga": 8093,
      "Ġcancer": 8094,
      "Ġvergeten": 8095,
      "ĠLos": 8096,
      "istry": 8097,
      "ĠRand": 8098,
      "Ġpropos": 8099,
      "Ġgrant": 8100,
      "Ġrecently": 8101,
      "ANT": 8102,
      "Ġrefused": 8103,
      "Ġveh": 8104,
      "Ġfields": 8105,
      "ä½Ĩæĺ¯": 8106,
      "ca": 8107,
      "Ġmacht": 8108,
      "ingly": 8109,
      "Ġtowel": 8110,
      "stant": 8111,
      "amel": 8112,
      "Ġzult": 8113,
      "ĠHon": 8114,
      "ĠLong": 8115,
      "Ġflo": 8116,
      "Ġharder": 8117,
      "Ġpersons": 8118,
      "Ġstoppen": 8119,
      "Ġintended": 8120,
      "Ġprisoner": 8121,
      "Ġbathroom": 8122,
      "Ġlifted": 8123,
      "Echt": 8124,
      "Ser": 8125,
      "anced": 8126,
      "Ġheer": 8127,
      "icient": 8128,
      "igde": 8129,
      "Ġkaart": 8130,
      "Ġdoden": 8131,
      "ĠSher": 8132,
      "ĠMonday": 8133,
      "ĠCat": 8134,
      "ĠEarl": 8135,
      "ĠOx": 8136,
      "Ġuitleg": 8137,
      "Ġcarav": 8138,
      "Ġgeworden": 8139,
      "Ġgroe": 8140,
      "Once": 8141,
      "Ġfunction": 8142,
      "æĸ°": 8143,
      "Ġdesigned": 8144,
      "ĠCentral": 8145,
      "Ha": 8146,
      "uut": 8147,
      "Ġdiss": 8148,
      "Ġmaat": 8149,
      "Ġhath": 8150,
      "Ġfab": 8151,
      "Ġfoll": 8152,
      "Ġfaster": 8153,
      "elet": 8154,
      "stelling": 8155,
      "berries": 8156,
      "Ġunivers": 8157,
      "Ġwaardoor": 8158,
      "Ġsnee": 8159,
      "Ġdesper": 8160,
      "atsy": 8161,
      "Ġaarde": 8162,
      "Ġetc": 8163,
      "Ġencour": 8164,
      "Ġinhabit": 8165,
      ",...": 8166,
      "uous": 8167,
      "çĸ": 8168,
      "Ġoven": 8169,
      "Ġcode": 8170,
      "Ġkool": 8171,
      "ĠBuck": 8172,
      "Ġenemies": 8173,
      "Ġbron": 8174,
      "Ġinternet": 8175,
      "Ġdreams": 8176,
      "çī©": 8177,
      "Ġfleet": 8178,
      "NA": 8179,
      "Ġwakker": 8180,
      "really": 8181,
      "Ġworship": 8182,
      "inks": 8183,
      "Ġconqu": 8184,
      "Ġtroops": 8185,
      "ĠStud": 8186,
      "icted": 8187,
      "Ġdistant": 8188,
      "ĠArthur": 8189,
      "babbles": 8190,
      "Ġ80": 8191,
      "playing": 8192,
      "ĠWilson": 8193,
      "Ġfarther": 8194,
      "kins": 8195,
      "were": 8196,
      "Ġsinds": 8197,
      "Ġsterk": 8198,
      "Ġaller": 8199,
      "ĠLuc": 8200,
      "icket": 8201,
      "å¤ĸ": 8202,
      "Ġterrit": 8203,
      "Ġuseful": 8204,
      "ĠAtl": 8205,
      "Ġconfir": 8206,
      "otted": 8207,
      "Ġcritic": 8208,
      "Natuurlijk": 8209,
      "ĠTexas": 8210,
      "Ġbeneath": 8211,
      "vironment": 8212,
      "Con": 8213,
      "bin": 8214,
      "Ġnap": 8215,
      "icing": 8216,
      "stuk": 8217,
      "umed": 8218,
      "aval": 8219,
      "Ġdrank": 8220,
      "Ġdrama": 8221,
      "Ġleaf": 8222,
      "Ġfeelings": 8223,
      "Ġsymp": 8224,
      "engers": 8225,
      "Ġculture": 8226,
      "Ġintroduced": 8227,
      "Ġeeuw": 8228,
      "oma": 8229,
      "aland": 8230,
      "acters": 8231,
      "umin": 8232,
      "ĠLook": 8233,
      "oston": 8234,
      "Ġbedo": 8235,
      "ä¸įèĥ½": 8236,
      "åľº": 8237,
      "Ġclearly": 8238,
      "Ġaccess": 8239,
      "Ġtrial": 8240,
      "Chi": 8241,
      "Ġgovernor": 8242,
      "proken": 8243,
      "Ġdivided": 8244,
      "Bel": 8245,
      "Verd": 8246,
      "Ġtied": 8247,
      "elia": 8248,
      "ctions": 8249,
      "ä½ı": 8250,
      "Ġtalks": 8251,
      "åıĺ": 8252,
      "Alleen": 8253,
      "Ġengaged": 8254,
      "Ġmaakte": 8255,
      "Ġcircumstances": 8256,
      "BO": 8257,
      "Bill": 8258,
      "Ġtender": 8259,
      "aned": 8260,
      "Ġvog": 8261,
      "ĠAan": 8262,
      "ĠMaster": 8263,
      "Ġsocks": 8264,
      "Ġmeter": 8265,
      "Ġunus": 8266,
      "Ġredden": 8267,
      "Ġhighly": 8268,
      "Ġwondered": 8269,
      "Ġinstance": 8270,
      "Ġ1970": 8271,
      "isco": 8272,
      "Ġresults": 8273,
      "Ġmajority": 8274,
      "Ġweapons": 8275,
      "Ġkilomet": 8276,
      "Meer": 8277,
      "yay": 8278,
      "isse": 8279,
      "Ġpause": 8280,
      "Ġstuur": 8281,
      "ĠTem": 8282,
      "ĠMass": 8283,
      "Ġadvert": 8284,
      "Ġuniversity": 8285,
      "Ġairport": 8286,
      "Ġservants": 8287,
      "raagd": 8288,
      "ĠTrans": 8289,
      "Ġgods": 8290,
      "éĥ¨": 8291,
      "toe": 8292,
      "Ġbin": 8293,
      "Ġbunch": 8294,
      "onel": 8295,
      "Ġzes": 8296,
      "inding": 8297,
      "ĠNorthern": 8298,
      "Ġgrat": 8299,
      "Ġcrimin": 8300,
      "ukt": 8301,
      "Ġrealized": 8302,
      "Ġcreatures": 8303,
      "ALL": 8304,
      "beep": 8305,
      "ĠokÃ©": 8306,
      "ishes": 8307,
      "Ġverv": 8308,
      "ĠLater": 8309,
      "Ġlanded": 8310,
      "nothing": 8311,
      "Ġ1999": 8312,
      "ancing": 8313,
      "Ġmerry": 8314,
      "Ġwooden": 8315,
      "Ġburned": 8316,
      "34": 8317,
      "Ġwrest": 8318,
      "erous": 8319,
      "Ġbos": 8320,
      "Ġlamp": 8321,
      "Ġrings": 8322,
      "Ġzoo": 8323,
      "ĠEric": 8324,
      "shine": 8325,
      "Ġthrone": 8326,
      "Ġuniform": 8327,
      "Ġguilty": 8328,
      "Ġbeneden": 8329,
      "Ġtreasure": 8330,
      "ĠBefore": 8331,
      "å·¥": 8332,
      "Ġtreated": 8333,
      "Ġfortune": 8334,
      "Ġordinary": 8335,
      "Ġseparate": 8336,
      "ĠWalter": 8337,
      "ocratic": 8338,
      "77": 8339,
      "EC": 8340,
      "KN": 8341,
      "Something": 8342,
      "pie": 8343,
      "atr": 8344,
      "esides": 8345,
      "Ġongel": 8346,
      "ĠSus": 8347,
      "ĠSalle": 8348,
      "ĠMore": 8349,
      "ĠWater": 8350,
      "Ġprogress": 8351,
      "ĠKent": 8352,
      "å°ĳ": 8353,
      "Ġowner": 8354,
      "Ġpresently": 8355,
      "ĠAmericans": 8356,
      "Ġhearts": 8357,
      "nieuw": 8358,
      "Ġrapidly": 8359,
      "Ġappreci": 8360,
      "Ġindustry": 8361,
      "Ġtoekomst": 8362,
      "bour": 8363,
      "won": 8364,
      "åŁ": 8365,
      "Ġfold": 8366,
      "ĠIV": 8367,
      "ĠSince": 8368,
      "eable": 8369,
      "ulated": 8370,
      "ĠFire": 8371,
      "Ġbricks": 8372,
      "Ġprince": 8373,
      "Ġaware": 8374,
      "Ġfifth": 8375,
      "Ġequal": 8376,
      "arcely": 8377,
      "86": 8378,
      "EW": 8379,
      "Niemand": 8380,
      "gers": 8381,
      "ki": 8382,
      "nice": 8383,
      "talk": 8384,
      "Ġtorn": 8385,
      "Ġdans": 8386,
      "Ġfiets": 8387,
      "Ġpant": 8388,
      "Ġpaard": 8389,
      "alys": 8390,
      "amn": 8391,
      "Ġjam": 8392,
      "Ġstil": 8393,
      "Ġliber": 8394,
      "Ġtotally": 8395,
      "Ġbesides": 8396,
      "Ġappears": 8397,
      "oenen": 8398,
      "Ġkunst": 8399,
      "Ġkeys": 8400,
      "Ġincrease": 8401,
      "Ġappointed": 8402,
      "ä»Ĭå¤©": 8403,
      "Jack": 8404,
      "Joe": 8405,
      "uper": 8406,
      "anch": 8407,
      "adel": 8408,
      "Ġdeer": 8409,
      "ĠPil": 8410,
      "ĠWin": 8411,
      "ĠWomen": 8412,
      "iana": 8413,
      "Ġelement": 8414,
      "ä½łè¯´": 8415,
      "Ġsurely": 8416,
      "Ġsteamer": 8417,
      "Ġ1996": 8418,
      "Ġvertrouw": 8419,
      "åĬŀ": 8420,
      "Ġclosely": 8421,
      "Ġsuffer": 8422,
      "Ġverkl": 8423,
      "ILL": 8424,
      "ĠHubert": 8425,
      "Sl": 8426,
      "filler": 8427,
      "Ġstoffen": 8428,
      "ĠBook": 8429,
      "Ġowned": 8430,
      "å®Į": 8431,
      "åĳĬ": 8432,
      "Ġspeaks": 8433,
      "Ġservant": 8434,
      "Shut": 8435,
      "adesh": 8436,
      "ç¾İ": 8437,
      "sung": 8438,
      "Ġwolf": 8439,
      "adi": 8440,
      "entje": 8441,
      "Ġreign": 8442,
      "Ġrol": 8443,
      "ĠSur": 8444,
      "oln": 8445,
      "emon": 8446,
      "ĠKennis": 8447,
      "ä»»": 8448,
      "leding": 8449,
      "Ġ500": 8450,
      "Ġhorrible": 8451,
      "Ġbadly": 8452,
      "Ġdecor": 8453,
      "ITH": 8454,
      "Ġcopy": 8455,
      "non": 8456,
      "rell": 8457,
      "Ġcurt": 8458,
      "Ġinsect": 8459,
      "ador": 8460,
      "igger": 8461,
      "ĠCle": 8462,
      "Ġsupply": 8463,
      "Ġdaarom": 8464,
      "Ġhandsome": 8465,
      "Ġnearer": 8466,
      "Ġgebeuren": 8467,
      "Ġgradu": 8468,
      "Ġmond": 8469,
      "Ġcash": 8470,
      "iders": 8471,
      "Ġkoff": 8472,
      "Ġbears": 8473,
      "iev": 8474,
      "rokken": 8475,
      "Ġoverle": 8476,
      "ousers": 8477,
      "Ġactive": 8478,
      "Ġcrash": 8479,
      "Ġ44": 8480,
      "Ġgeval": 8481,
      "Ġlearning": 8482,
      "Ġpulling": 8483,
      "Ġcompeted": 8484,
      "Ġjuiste": 8485,
      "Ġsatisfied": 8486,
      "Ġborder": 8487,
      "dri": 8488,
      "sing": 8489,
      "ights": 8490,
      "unior": 8491,
      "umps": 8492,
      "berta": 8493,
      "Ġvoordat": 8494,
      "Ġbelt": 8495,
      "Ġsecurity": 8496,
      "Ġremoved": 8497,
      "åħī": 8498,
      "çĶµ": 8499,
      "Ġgiant": 8500,
      "Ġjumping": 8501,
      "Ġdetails": 8502,
      "Ġbezig": 8503,
      "Ġstubs": 8504,
      "ĠSecretary": 8505,
      "Early": 8506,
      "ois": 8507,
      "å©": 8508,
      "Ġwave": 8509,
      "Ġkost": 8510,
      "Ġdezelfde": 8511,
      "hens": 8512,
      "Ġcliff": 8513,
      "aalt": 8514,
      "Ġdrinken": 8515,
      "Ġsigns": 8516,
      "Ġdolly": 8517,
      "åĵİ": 8518,
      "Ġcraft": 8519,
      "ervation": 8520,
      "ĠNorman": 8521,
      "Care": 8522,
      "Nice": 8523,
      "çĹ": 8524,
      "Ġaank": 8525,
      "Ġodd": 8526,
      "Ġmyth": 8527,
      "ĠKN": 8528,
      "arson": 8529,
      "æľĭ": 8530,
      "Whoa": 8531,
      "åĴ±": 8532,
      "remember": 8533,
      "è½¦": 8534,
      "Ġindividual": 8535,
      "EF": 8536,
      "houden": 8537,
      "part": 8538,
      "Ġincome": 8539,
      "ĠMu": 8540,
      "Ġaanv": 8541,
      "show": 8542,
      "gets": 8543,
      "Ġterr": 8544,
      "Ġmening": 8545,
      "Ġmathemat": 8546,
      "Ġswall": 8547,
      "Ġcharacters": 8548,
      "Ġinvited": 8549,
      "Ġrecognized": 8550,
      "ION": 8551,
      "Ġta": 8552,
      "inal": 8553,
      "kee": 8554,
      "ĠMY": 8555,
      "ĠMills": 8556,
      "ĠGa": 8557,
      "ĠNap": 8558,
      "okes": 8559,
      "ureau": 8560,
      "æľĪ": 8561,
      "Ġtrains": 8562,
      "Ġtraffic": 8563,
      "Ġunto": 8564,
      "Ġpassage": 8565,
      "Ġdolls": 8566,
      "While": 8567,
      "Ġactivity": 8568,
      "LU": 8569,
      "mag": 8570,
      "æ¶": 8571,
      "Ġtunnel": 8572,
      "ouder": 8573,
      "Ġregen": 8574,
      "Ġrib": 8575,
      "ĠCap": 8576,
      "Ġmighty": 8577,
      "Ġprovided": 8578,
      "å¼ł": 8579,
      "Didn": 8580,
      "åı¯èĥ½": 8581,
      "Ġpoison": 8582,
      "äºĭåĦ¿": 8583,
      "æ¯ı": 8584,
      "whispers": 8585,
      "stitute": 8586,
      "æľĭåıĭ": 8587,
      "kiss": 8588,
      "Ġwan": 8589,
      "Ġpipe": 8590,
      "stellen": 8591,
      "Ġzorg": 8592,
      "inky": 8593,
      "ivity": 8594,
      "çļĦäºº": 8595,
      "Ġadvan": 8596,
      "----\"": 8597,
      "Ġentertain": 8598,
      "Ġgeloven": 8599,
      "Ġbags": 8600,
      "Ġruimte": 8601,
      "TUR": 8602,
      "ju": 8603,
      "Ġwander": 8604,
      "ati": 8605,
      "Ġpitch": 8606,
      "Ġner": 8607,
      "ĠMir": 8608,
      "ability": 8609,
      "Ġshower": 8610,
      "ĠThank": 8611,
      "å®ī": 8612,
      "Ġstaying": 8613,
      "Ġchanging": 8614,
      "incoln": 8615,
      "Ġperformance": 8616,
      "Ġholy": 8617,
      "Ġbegrijp": 8618,
      "Ġevidently": 8619,
      "PL": 8620,
      "past": 8621,
      "squ": 8622,
      "yo": 8623,
      "âĢ": 8624,
      "Ġrij": 8625,
      "ĠSol": 8626,
      "Ġopens": 8627,
      "Ġspite": 8628,
      "Ġseized": 8629,
      "Ġexcellent": 8630,
      "achte": 8631,
      "Ġhoeft": 8632,
      "volgens": 8633,
      "Christ": 8634,
      "Ġsquee": 8635,
      "Ġcampaign": 8636,
      "Ġfairy": 8637,
      "Ġoriginally": 8638,
      "Ġcurrently": 8639,
      "Ġdwarf": 8640,
      "ĠAuntie": 8641,
      "Ġsucceeded": 8642,
      "åħ¶å®ŀ": 8643,
      "éĶĻ": 8644,
      "Father": 8645,
      "lk": 8646,
      "mine": 8647,
      "aron": 8648,
      "Ġpity": 8649,
      "Ġkennen": 8650,
      "ieke": 8651,
      "ĠTw": 8652,
      "ĠHA": 8653,
      "ĠGree": 8654,
      "ĠGoogle": 8655,
      "ĠRom": 8656,
      "inking": 8657,
      "Ġtrunk": 8658,
      "Ġcontr": 8659,
      "Ġmoments": 8660,
      "Ġgevangen": 8661,
      "Ġresponsible": 8662,
      "Ġroute": 8663,
      "Ag": 8664,
      "ç³": 8665,
      "é¦": 8666,
      "only": 8667,
      "ĠWE": 8668,
      "ĠWall": 8669,
      "Ġfrag": 8670,
      "Ġschrijf": 8671,
      "Ġamazing": 8672,
      "rijke": 8673,
      "Ġcontent": 8674,
      "awa": 8675,
      "æĢ»": 8676,
      "Ġtransl": 8677,
      "Ġvloe": 8678,
      "Ġlads": 8679,
      "Ġprotection": 8680,
      "Ġspecific": 8681,
      "ĠPerhaps": 8682,
      "Ġcreate": 8683,
      "åŃ©åŃĲ": 8684,
      "Grand": 8685,
      "ĠAngeles": 8686,
      "Ġinhabitants": 8687,
      "New": 8688,
      "Ġij": 8689,
      "Ġtask": 8690,
      "Ġaye": 8691,
      "Ġhomes": 8692,
      "Ġstam": 8693,
      "Ġrevol": 8694,
      "ĠApp": 8695,
      "ĠPenn": 8696,
      "Ġveroor": 8697,
      "æĪĳå°±": 8698,
      "Ġmakkelijk": 8699,
      "Ġvoices": 8700,
      "ĠProt": 8701,
      "Ġbelangrijkste": 8702,
      "Ġselected": 8703,
      "Ġlee": 8704,
      "ication": 8705,
      "Ġrushed": 8706,
      "Ġflash": 8707,
      "Ġadvis": 8708,
      "Ġwarning": 8709,
      "Ġ1998": 8710,
      "åĽĽ": 8711,
      "Ġrecorder": 8712,
      "Ġexciting": 8713,
      "Ġdivision": 8714,
      "Ġvictory": 8715,
      "æĽ´": 8716,
      "itzerland": 8717,
      "Ġadvantage": 8718,
      "32": 8719,
      "ko": 8720,
      "round": 8721,
      "uzz": 8722,
      "Ġtaal": 8723,
      "Ġbomb": 8724,
      "itar": 8725,
      "entie": 8726,
      "Ġstroom": 8727,
      "ĠSometimes": 8728,
      "Ġangel": 8729,
      "ĠGordon": 8730,
      "ĠLy": 8731,
      "ijnlijk": 8732,
      "Ġtrouw": 8733,
      "Ġbuurt": 8734,
      "Ġproduce": 8735,
      "Ġexcit": 8736,
      "ĠMoses": 8737,
      "Gew": 8738,
      "ault": 8739,
      "Ġnurse": 8740,
      "Ġrear": 8741,
      "ĠHolly": 8742,
      "Ġvoorbij": 8743,
      "uded": 8744,
      "Ġcontains": 8745,
      "Ġaircraft": 8746,
      "Ġapolog": 8747,
      "cow": 8748,
      "delen": 8749,
      "sw": 8750,
      "Ġfishing": 8751,
      "ĠLife": 8752,
      "Ġexhib": 8753,
      "thew": 8754,
      "ĠUt": 8755,
      "neath": 8756,
      "Ġomge": 8757,
      "Ġscreen": 8758,
      "Ġbreast": 8759,
      "Ġstandard": 8760,
      "Ġgekomen": 8761,
      "Ġantwoorden": 8762,
      "Ġconnected": 8763,
      "Ġstomach": 8764,
      "Door": 8765,
      "cod": 8766,
      "pher": 8767,
      "pop": 8768,
      "uigen": 8769,
      "Ġhesit": 8770,
      "ĠCorn": 8771,
      "iences": 8772,
      "Ġscen": 8773,
      "ception": 8774,
      "Ġrifle": 8775,
      "Ġadministr": 8776,
      "83": 8777,
      "Ġsig": 8778,
      "Ġfate": 8779,
      "Ġgaf": 8780,
      "Ġtoes": 8781,
      "Ġeastern": 8782,
      "Ġaltogether": 8783,
      "Ġsomehow": 8784,
      "ansas": 8785,
      "Ġcomplex": 8786,
      "Ġsuppl": 8787,
      "Ġconcert": 8788,
      "Ġcrossed": 8789,
      "Ġattacked": 8790,
      "Ġspirits": 8791,
      "Ġcandid": 8792,
      "Ġproposed": 8793,
      "iedenis": 8794,
      "Ġlonely": 8795,
      "CE": 8796,
      "mar": 8797,
      "rence": 8798,
      "Ġpump": 8799,
      "eta": 8800,
      "oost": 8801,
      "ĠJoh": 8802,
      "Ġplaat": 8803,
      "Ġ(;": 8804,
      "Ġblame": 8805,
      "unts": 8806,
      "lets": 8807,
      "Ġemp": 8808,
      "ĠAsso": 8809,
      "Ġoccurred": 8810,
      "Ġdunno": 8811,
      "Ġinnocent": 8812,
      "Ġfolks": 8813,
      ".[": 8814,
      "Wanneer": 8815,
      "nope": 8816,
      "Ġijs": 8817,
      "Ġpile": 8818,
      "Ġlack": 8819,
      "ammy": 8820,
      "achel": 8821,
      "eau": 8822,
      "Ġliqu": 8823,
      "plaats": 8824,
      "atherine": 8825,
      "inned": 8826,
      "ĠZijn": 8827,
      "Ġmerely": 8828,
      "Ġpulls": 8829,
      "Ġapartment": 8830,
      "Ġbanana": 8831,
      "ĠAlexander": 8832,
      "Leave": 8833,
      "Ġnervous": 8834,
      "Iedereen": 8835,
      "sighs": 8836,
      "Ġdere": 8837,
      "Ġdump": 8838,
      "Ġcoun": 8839,
      "Ġlat": 8840,
      "Ġdocent": 8841,
      "ĠPolly": 8842,
      "Ġspots": 8843,
      "Ġvoort": 8844,
      "Ġhelps": 8845,
      "Ġcolumn": 8846,
      "Ġenth": 8847,
      "Ġ1997": 8848,
      "Ġswear": 8849,
      "Ġpaying": 8850,
      "Ġleaders": 8851,
      "Ġstructure": 8852,
      "Ġextremely": 8853,
      "99": 8854,
      "jamin": 8855,
      "ç±": 8856,
      "Ġwinning": 8857,
      "Ġdier": 8858,
      "Ġfoss": 8859,
      "Ġpoo": 8860,
      "ali": 8861,
      "rose": 8862,
      "ĠPre": 8863,
      "ĠPict": 8864,
      "ĠNat": 8865,
      "HERE": 8866,
      "çľ¼": 8867,
      "Ġrespond": 8868,
      "Ġchairs": 8869,
      "useum": 8870,
      "Ġexplan": 8871,
      "ĠSwitzerland": 8872,
      "Ġpalace": 8873,
      "Ġverwacht": 8874,
      "Ġmirror": 8875,
      "pur": 8876,
      "Ġaid": 8877,
      "ĠPo": 8878,
      "ĠFoot": 8879,
      "Ġscarcely": 8880,
      "æĪĳæĺ¯": 8881,
      "Ġours": 8882,
      "Ġcommission": 8883,
      "ä¸įä¼ļ": 8884,
      "Ġinterrupt": 8885,
      "ĠIsa": 8886,
      "Ġdrops": 8887,
      "Ġpriest": 8888,
      "Ġsplend": 8889,
      "Ġpraat": 8890,
      "gly": 8891,
      "och": 8892,
      "Ġtort": 8893,
      "Ġwow": 8894,
      "atre": 8895,
      "ente": 8896,
      "Ġchannel": 8897,
      "iste": 8898,
      "genomen": 8899,
      "Ġtrousers": 8900,
      "ĠStep": 8901,
      "Ġflood": 8902,
      "izer": 8903,
      "æľº": 8904,
      "åıĹ": 8905,
      "ĠAndrew": 8906,
      "ç»ĵ": 8907,
      "Ġsorts": 8908,
      "Ġcups": 8909,
      "éĥ½æĺ¯": 8910,
      "Ġrolling": 8911,
      "Ġsplit": 8912,
      "hem": 8913,
      "Ġdim": 8914,
      "Ġborrow": 8915,
      "Ġinqu": 8916,
      "Ġbeeld": 8917,
      "tering": 8918,
      "ĠCross": 8919,
      "ĠDE": 8920,
      "opes": 8921,
      "ulate": 8922,
      "ĠFour": 8923,
      "Ġslim": 8924,
      "ekijk": 8925,
      "Ġhousehold": 8926,
      "Ġsetting": 8927,
      "Ġtowns": 8928,
      "æĭ¿": 8929,
      "OME": 8930,
      "Ġlosing": 8931,
      "Ġpakken": 8932,
      "enschap": 8933,
      "åĺĽ": 8934,
      "ĠSteve": 8935,
      "Ġwebsite": 8936,
      "100": 8937,
      "æ»": 8938,
      "ĠTony": 8939,
      "keys": 8940,
      "ĠHa": 8941,
      "illgrim": 8942,
      "ria": 8943,
      "abet": 8944,
      "Ġslag": 8945,
      "Ġdisplay": 8946,
      "ĠBeeld": 8947,
      "Ġ1992": 8948,
      "Ġpresented": 8949,
      "Ġlessons": 8950,
      "Ġreplaced": 8951,
      "ĠZealand": 8952,
      "coming": 8953,
      "Ġescaped": 8954,
      "ĠScottish": 8955,
      "å¦Ĥæŀľ": 8956,
      "Ġavoid": 8957,
      "FRI": 8958,
      "hang": 8959,
      "anse": 8960,
      "adem": 8961,
      "Ġnoted": 8962,
      "Ġverr": 8963,
      "ĠRh": 8964,
      "Ġfever": 8965,
      "ĠAnnie": 8966,
      "æĿ¥äºĨ": 8967,
      "Ġ1994": 8968,
      "Ġfilmp": 8969,
      "Ġzwaar": 8970,
      "Ġconditions": 8971,
      "Ġavond": 8972,
      "Ġarranged": 8973,
      "Ġimprove": 8974,
      "CO": 8975,
      "More": 8976,
      "Na": 8977,
      "lf": 8978,
      "Ġdish": 8979,
      "isme": 8980,
      "Ġpeak": 8981,
      "staan": 8982,
      "Ġzaken": 8983,
      "ura": 8984,
      "ĠBoston": 8985,
      "Ġvanavond": 8986,
      "ĠUp": 8987,
      "shouts": 8988,
      "Ġbegon": 8989,
      "ĠZij": 8990,
      "ouwd": 8991,
      "è¯·": 8992,
      "Ġpresents": 8993,
      "Ġproduction": 8994,
      "Ġverdw": 8995,
      "Ġinhoud": 8996,
      "nesday": 8997,
      "Ġlocked": 8998,
      "Ġplanning": 8999,
      "ĠLois": 9000,
      "Ġtelefoon": 9001,
      "ĠLeonard": 9002,
      "Ġexcitement": 9003,
      "eens": 9004,
      "press": 9005,
      "Ġmas": 9006,
      "Ġgained": 9007,
      "Ġgreet": 9008,
      "owel": 9009,
      "ĠTot": 9010,
      "antie": 9011,
      "raken": 9012,
      "Ġaltern": 9013,
      "ĠRoger": 9014,
      "Ġjustice": 9015,
      "Ġcarriage": 9016,
      "ĠAsia": 9017,
      "product": 9018,
      "Ġicecream": 9019,
      "Ġclimbed": 9020,
      "Ġportion": 9021,
      "Ġdiag": 9022,
      "pretend": 9023,
      "ricane": 9024,
      "Ġnewspaper": 9025,
      "33": 9026,
      "88": 9027,
      "gone": 9028,
      "Ġwestern": 9029,
      "Ġsumm": 9030,
      "Ġdur": 9031,
      "Ġfreedom": 9032,
      "leiding": 9033,
      "Ġreis": 9034,
      "Ġnotes": 9035,
      "ĠJam": 9036,
      "ĠRem": 9037,
      "Ġspark": 9038,
      "--_": 9039,
      "oekt": 9040,
      "Ġconfl": 9041,
      "Ġverteld": 9042,
      "Shit": 9043,
      "éĿŀ": 9044,
      "Ġillustr": 9045,
      "Ġpainted": 9046,
      "Ġindependent": 9047,
      ":\"": 9048,
      "IED": 9049,
      "JES": 9050,
      "lingen": 9051,
      "Ġign": 9052,
      "Ġtab": 9053,
      "isions": 9054,
      "Ġkonden": 9055,
      "ĠAD": 9056,
      "ĠAh": 9057,
      "Ġexch": 9058,
      "Ġdrown": 9059,
      "Ġmusical": 9060,
      "Ġreflect": 9061,
      "Ġ90": 9062,
      "uesday": 9063,
      "Ġbaseball": 9064,
      "Ġincreased": 9065,
      "Ġissues": 9066,
      "PO": 9067,
      "bly": 9068,
      "Ġtough": 9069,
      "ednesday": 9070,
      "ĠHi": 9071,
      "opdracht": 9072,
      "Ġsoap": 9073,
      "Ġseats": 9074,
      "ĠKen": 9075,
      "ĠVen": 9076,
      "plant": 9077,
      "Ġparties": 9078,
      "ciale": 9079,
      "Ġontde": 9080,
      "Ġdepart": 9081,
      "Ġadmit": 9082,
      "ĠColumb": 9083,
      "Ġholes": 9084,
      "Ġcaptured": 9085,
      "TT": 9086,
      "wen": 9087,
      "Ġmap": 9088,
      "Ġpine": 9089,
      "Ġlun": 9090,
      "Ġkat": 9091,
      "ĠHoll": 9092,
      "Ġshining": 9093,
      "Ġspin": 9094,
      "ateful": 9095,
      "Heel": 9096,
      "ĠUit": 9097,
      "izens": 9098,
      "Ġcutting": 9099,
      "Ġshops": 9100,
      "cup": 9101,
      "maken": 9102,
      "rs": 9103,
      "Ġbone": 9104,
      "Ġkeen": 9105,
      "each": 9106,
      "ĠDuck": 9107,
      "Ġzeer": 9108,
      "Ġquality": 9109,
      "avi": 9110,
      "onsense": 9111,
      "Ġgevraagd": 9112,
      "ĠTommy": 9113,
      "Ġsisters": 9114,
      "Ġtreatment": 9115,
      "Ġbelongs": 9116,
      "Ġsource": 9117,
      "64": 9118,
      "Aan": 9119,
      "hu": 9120,
      "rent": 9121,
      "atively": 9122,
      "Ġcows": 9123,
      "Ġloop": 9124,
      "Ġkopen": 9125,
      "Ġdochter": 9126,
      "ĠSpe": 9127,
      "ague": 9128,
      "Ġliet": 9129,
      "ĠLara": 9130,
      "Ġstops": 9131,
      "azen": 9132,
      "Alsjeblieft": 9133,
      "Ġadvance": 9134,
      "ĠBlacky": 9135,
      "Ġnormally": 9136,
      "Ġprayer": 9137,
      "éĺŁ": 9138,
      "quarters": 9139,
      "Ġphilos": 9140,
      "rift": 9141,
      "Ġbast": 9142,
      "esch": 9143,
      "ete": 9144,
      "char": 9145,
      "ands": 9146,
      "ĠDu": 9147,
      "genoot": 9148,
      "Ġwrit": 9149,
      "Ġseriously": 9150,
      "ĠClub": 9151,
      "Ġrecording": 9152,
      "Ġmarks": 9153,
      "Ġkijkt": 9154,
      "burger": 9155,
      "Ġtechnology": 9156,
      "aire": 9157,
      "boek": 9158,
      "case": 9159,
      "fire": 9160,
      "ç²": 9161,
      "Ġbree": 9162,
      "onia": 9163,
      "orange": 9164,
      "orgt": 9165,
      "Ġgast": 9166,
      "ĠIm": 9167,
      "Ġbewe": 9168,
      "amas": 9169,
      "ili": 9170,
      "Ġenvironment": 9171,
      "apitein": 9172,
      "uli": 9173,
      "bec": 9174,
      "ava": 9175,
      "Ġunable": 9176,
      "stein": 9177,
      "Ġ70": 9178,
      "ĠCompton": 9179,
      "Ġcompleted": 9180,
      "ĠSweden": 9181,
      "Ã¨re": 9182,
      "igsaw": 9183,
      "ç¦»": 9184,
      "Eh": 9185,
      "Sometimes": 9186,
      "erable": 9187,
      "Ġtools": 9188,
      "alm": 9189,
      "ĠDes": 9190,
      "esten": 9191,
      "Ġprecious": 9192,
      "Ġgezond": 9193,
      "Ġgebeur": 9194,
      "Ġtemperature": 9195,
      "ĠMajesty": 9196,
      "Ġnamelijk": 9197,
      "Heeft": 9198,
      "rig": 9199,
      "cha": 9200,
      "ĠBus": 9201,
      "ĠPooh": 9202,
      "oses": 9203,
      "ĠUN": 9204,
      "ekst": 9205,
      "Ġ39": 9206,
      "Ġfinan": 9207,
      "Ġmedical": 9208,
      "Ġinvest": 9209,
      "Ġhumans": 9210,
      "Ġzichzelf": 9211,
      "åĬł": 9212,
      "å¹³": 9213,
      "Ġroads": 9214,
      "Ġconstruction": 9215,
      "Ġ1950": 9216,
      "Ġorganization": 9217,
      "pointing": 9218,
      "Ġoperation": 9219,
      "çĻ¾": 9220,
      "Ġrecognize": 9221,
      "ĠWaarom": 9222,
      "Gaat": 9223,
      "HO": 9224,
      "eight": 9225,
      "hop": 9226,
      "push": 9227,
      "rr": 9228,
      "æ·": 9229,
      "Ġselling": 9230,
      "Ġatm": 9231,
      "ika": 9232,
      "ĠJess": 9233,
      "Ġerop": 9234,
      "ĠOur": 9235,
      "Ġunits": 9236,
      "Ġactual": 9237,
      "ulture": 9238,
      "Ġrecent": 9239,
      "Ġpointing": 9240,
      "Ġlanger": 9241,
      "éĤ£ä¹Ī": 9242,
      "Ġcollection": 9243,
      "ĠGebruik": 9244,
      "Ġparticip": 9245,
      "Ġmistress": 9246,
      "Ġearnest": 9247,
      "ĠYear": 9248,
      "Ġcredit": 9249,
      "OH": 9250,
      "zijn": 9251,
      "Ġwound": 9252,
      "Ġpowder": 9253,
      "ompl": 9254,
      "Ġvoy": 9255,
      "ĠPatsy": 9256,
      "ĠWay": 9257,
      "ĠFre": 9258,
      "Ġsprang": 9259,
      "Ġschol": 9260,
      "Ġsmooth": 9261,
      "Ġapples": 9262,
      "ĠAlberta": 9263,
      "ãĢģ": 9264,
      "Ġsweep": 9265,
      "æĢĿ": 9266,
      "Ġchurchyard": 9267,
      "åĵĪ": 9268,
      "Ġtemple": 9269,
      "ursday": 9270,
      "ĠVirginia": 9271,
      "ji": 9272,
      "Ġwire": 9273,
      "Ġfed": 9274,
      "strijd": 9275,
      "Ġrac": 9276,
      "Ġmechan": 9277,
      "ĠDolly": 9278,
      "ĠGames": 9279,
      "ĠNick": 9280,
      "Ġcomedy": 9281,
      "Ġafbeeld": 9282,
      "Ġgrace": 9283,
      "ä½ķ": 9284,
      "Ġunfortun": 9285,
      "Ġ1995": 9286,
      "ĠBlue": 9287,
      "ĠOnly": 9288,
      "Ġmarked": 9289,
      "ĠCommand": 9290,
      "Ġsuspect": 9291,
      "Ġliefde": 9292,
      "Ġreferred": 9293,
      "zichtig": 9294,
      "Ġdoggie": 9295,
      "Ġadvanced": 9296,
      "Open": 9297,
      "ouches": 9298,
      "Ġdomin": 9299,
      "eding": 9300,
      "Ġpist": 9301,
      "Ġsta": 9302,
      "ĠServ": 9303,
      "ilen": 9304,
      "ĠPan": 9305,
      "arte": 9306,
      "odes": 9307,
      "iteindelijk": 9308,
      "äºĶ": 9309,
      "udden": 9310,
      "Ġuns": 9311,
      "Ġdrunk": 9312,
      "ä¸įè¦ģ": 9313,
      "soft": 9314,
      "ĠManchester": 9315,
      "Ġstatement": 9316,
      "Ġhoped": 9317,
      "ĠIllustrations": 9318,
      "Fine": 9319,
      "Ġtale": 9320,
      "Ġfijn": 9321,
      "alous": 9322,
      "Ġbeads": 9323,
      "Ġrent": 9324,
      "ĠHard": 9325,
      "ĠBed": 9326,
      "ĠDar": 9327,
      "ĠGel": 9328,
      "ĠLike": 9329,
      "Ġchips": 9330,
      "ATE": 9331,
      "ä¸ĩ": 9332,
      "Ġseated": 9333,
      "Ġunit": 9334,
      "Ġkindly": 9335,
      "Ġstranger": 9336,
      "Ġextent": 9337,
      "Ġproducer": 9338,
      "Ġpattern": 9339,
      "ĠâĮĬ": 9340,
      "ĠBerta": 9341,
      "ĠBarbara": 9342,
      "ĠToby": 9343,
      "TV": 9344,
      "gang": 9345,
      "lang": 9346,
      "çª": 9347,
      "éª": 9348,
      "Ġacht": 9349,
      "Ġdaily": 9350,
      "Ġpier": 9351,
      "Ġjail": 9352,
      "Ġfork": 9353,
      "uman": 9354,
      "ĠLiber": 9355,
      "ĠNicole": 9356,
      "Ġgep": 9357,
      "Ġseek": 9358,
      "ĠVI": 9359,
      "Ġbetalen": 9360,
      "Ġunf": 9361,
      "åı£": 9362,
      "ĠThree": 9363,
      "Ġ185": 9364,
      "Ġgesp": 9365,
      "Ġkissed": 9366,
      "Everyone": 9367,
      "iggles": 9368,
      "ĠRobin": 9369,
      "Ġvictim": 9370,
      "Ġveranderen": 9371,
      "Ġlabor": 9372,
      "ä¸ľè¥¿": 9373,
      "During": 9374,
      "Pas": 9375,
      "Ã¤": 9376,
      "ç¤": 9377,
      "Ġdik": 9378,
      "Ġpiano": 9379,
      "Ġeuro": 9380,
      "Ġzus": 9381,
      "ĠPillgrim": 9382,
      "ĠFair": 9383,
      "Ġvoorbeeld": 9384,
      "Ġgram": 9385,
[...]
