{
  "version": "1.0",
  "truncation": null,
  "padding": null,
  "added_tokens": [
    {
      "id": 0,
      "content": "<unk>",
      "single_word": false,
      "lstrip": false,
      "rstrip": false,
      "normalized": false,
      "special": true
    },
    {
      "id": 1,
      "content": "<s>",
      "single_word": false,
      "lstrip": false,
      "rstrip": false,
      "normalized": false,
      "special": true
    },
    {
      "id": 2,
      "content": "</s>",
      "single_word": false,
      "lstrip": false,
      "rstrip": false,
      "normalized": false,
      "special": true
    },
    {
      "id": 3,
      "content": "<pad>",
      "single_word": false,
      "lstrip": false,
      "rstrip": false,
      "normalized": false,
      "special": true
    },
    {
      "id": 4,
      "content": "<mask>",
      "single_word": false,
      "lstrip": false,
      "rstrip": false,
      "normalized": false,
      "special": true
    },
    {
      "id": 5,
      "content": "，",
      "single_word": false,
      "lstrip": false,
      "rstrip": false,
      "normalized": false,
      "special": true
    },
    {
      "id": 6,
      "content": "。",
      "single_word": false,
      "lstrip": false,
      "rstrip": false,
      "normalized": false,
      "special": true
    },
    {
      "id": 7,
      "content": "、",
      "single_word": false,
      "lstrip": false,
      "rstrip": false,
      "normalized": false,
      "special": true
    },
    {
      "id": 8,
      "content": "！",
      "single_word": false,
      "lstrip": false,
      "rstrip": false,
      "normalized": false,
      "special": true
    },
    {
      "id": 9,
      "content": "？",
      "single_word": false,
      "lstrip": false,
      "rstrip": false,
      "normalized": false,
      "special": true
    },
    {
      "id": 10,
      "content": "：",
      "single_word": false,
      "lstrip": false,
      "rstrip": false,
      "normalized": false,
      "special": true
    },
    {
      "id": 11,
      "content": "；",
      "single_word": false,
      "lstrip": false,
      "rstrip": false,
      "normalized": false,
      "special": true
    },
    {
      "id": 12,
      "content": "「",
      "single_word": false,
      "lstrip": false,
      "rstrip": false,
      "normalized": false,
      "special": true
    },
    {
      "id": 13,
      "content": "」",
      "single_word": false,
      "lstrip": false,
      "rstrip": false,
      "normalized": false,
      "special": true
    },
    {
      "id": 14,
      "content": "（",
      "single_word": false,
      "lstrip": false,
      "rstrip": false,
      "normalized": false,
      "special": true
    },
    {
      "id": 15,
      "content": "）",
      "single_word": false,
      "lstrip": false,
      "rstrip": false,
      "normalized": false,
      "special": true
    },
    {
      "id": 16,
      "content": "《",
      "single_word": false,
      "lstrip": false,
      "rstrip": false,
      "normalized": false,
      "special": true
    },
    {
      "id": 17,
      "content": "》",
      "single_word": false,
      "lstrip": false,
      "rstrip": false,
      "normalized": false,
      "special": true
    },
    {
      "id": 18,
      "content": "【",
      "single_word": false,
      "lstrip": false,
      "rstrip": false,
      "normalized": false,
      "special": true
    },
    {
      "id": 19,
      "content": "】",
      "single_word": false,
      "lstrip": false,
      "rstrip": false,
      "normalized": false,
      "special": true
    }
  ],
  "normalizer": null,
  "pre_tokenizer": {
    "type": "ByteLevel",
    "add_prefix_space": false,
    "trim_offsets": true,
    "use_regex": true
  },
  "post_processor": {
    "type": "ByteLevel",
    "add_prefix_space": true,
    "trim_offsets": false,
    "use_regex": true
  },
  "decoder": {
    "type": "ByteLevel",
    "add_prefix_space": true,
    "trim_offsets": true,
    "use_regex": true
  },
  "model": {
    "type": "BPE",
    "dropout": null,
    "unk_token": null,
    "continuing_subword_prefix": null,
    "end_of_word_suffix": null,
    "fuse_unk": false,
    "byte_fallback": false,
    "ignore_merges": false,
    "vocab": {
      "<unk>": 0,
      "<s>": 1,
      "</s>": 2,
      "<pad>": 3,
      "<mask>": 4,
      "，": 5,
      "。": 6,
      "、": 7,
      "！": 8,
      "？": 9,
      "：": 10,
      "；": 11,
      "「": 12,
      "」": 13,
      "（": 14,
      "）": 15,
      "《": 16,
      "》": 17,
      "【": 18,
      "】": 19,
      "!": 20,
      "\"": 21,
      "#": 22,
      "$": 23,
      "%": 24,
      "&": 25,
      "'": 26,
      "(": 27,
      ")": 28,
      "*": 29,
      "+": 30,
      ",": 31,
      "-": 32,
      ".": 33,
      "/": 34,
      "0": 35,
      "1": 36,
      "2": 37,
      "3": 38,
      "4": 39,
      "5": 40,
      "6": 41,
      "7": 42,
      "8": 43,
      "9": 44,
      ":": 45,
      ";": 46,
      "<": 47,
      "=": 48,
      ">": 49,
      "?": 50,
      "@": 51,
      "A": 52,
      "B": 53,
      "C": 54,
      "D": 55,
      "E": 56,
      "F": 57,
      "G": 58,
      "H": 59,
      "I": 60,
      "J": 61,
      "K": 62,
      "L": 63,
      "M": 64,
      "N": 65,
      "O": 66,
      "P": 67,
      "Q": 68,
      "R": 69,
      "S": 70,
      "T": 71,
      "U": 72,
      "V": 73,
      "W": 74,
      "X": 75,
      "Y": 76,
      "Z": 77,
      "[": 78,
      "\\": 79,
      "]": 80,
      "^": 81,
      "_": 82,
      "`": 83,
      "a": 84,
      "b": 85,
      "c": 86,
      "d": 87,
      "e": 88,
      "f": 89,
      "g": 90,
      "h": 91,
      "i": 92,
      "j": 93,
      "k": 94,
      "l": 95,
      "m": 96,
      "n": 97,
      "o": 98,
      "p": 99,
      "q": 100,
      "r": 101,
      "s": 102,
      "t": 103,
      "u": 104,
      "v": 105,
      "w": 106,
      "x": 107,
      "y": 108,
      "z": 109,
      "{": 110,
      "|": 111,
      "}": 112,
      "~": 113,
      "¡": 114,
      "¢": 115,
      "£": 116,
      "¤": 117,
      "¥": 118,
      "¦": 119,
      "§": 120,
      "¨": 121,
      "©": 122,
      "ª": 123,
      "«": 124,
      "¬": 125,
      "®": 126,
      "¯": 127,
      "°": 128,
      "±": 129,
      "²": 130,
      "³": 131,
      "´": 132,
      "µ": 133,
      "¶": 134,
      "·": 135,
      "¸": 136,
      "¹": 137,
      "º": 138,
      "»": 139,
      "¼": 140,
      "½": 141,
      "¾": 142,
      "¿": 143,
      "À": 144,
      "Á": 145,
      "Â": 146,
      "Ã": 147,
      "Ä": 148,
      "Å": 149,
      "Æ": 150,
      "Ç": 151,
      "È": 152,
      "É": 153,
      "Ê": 154,
      "Ë": 155,
      "Ì": 156,
      "Í": 157,
      "Î": 158,
      "Ï": 159,
      "Ð": 160,
      "Ñ": 161,
      "Ò": 162,
      "Ó": 163,
      "Ô": 164,
      "Õ": 165,
      "Ö": 166,
      "×": 167,
      "Ø": 168,
      "Ù": 169,
      "Ú": 170,
      "Û": 171,
      "Ü": 172,
      "Ý": 173,
      "Þ": 174,
      "ß": 175,
      "à": 176,
      "á": 177,
      "â": 178,
      "ã": 179,
      "ä": 180,
      "å": 181,
      "æ": 182,
      "ç": 183,
      "è": 184,
      "é": 185,
      "ê": 186,
      "ë": 187,
      "ì": 188,
      "í": 189,
      "î": 190,
      "ï": 191,
      "ð": 192,
      "ñ": 193,
      "ò": 194,
      "ó": 195,
      "ô": 196,
      "õ": 197,
      "ö": 198,
      "÷": 199,
      "ø": 200,
      "ù": 201,
      "ú": 202,
      "û": 203,
      "ü": 204,
      "ý": 205,
      "þ": 206,
      "ÿ": 207,
      "Ā": 208,
      "ā": 209,
      "Ă": 210,
      "ă": 211,
      "Ą": 212,
      "ą": 213,
      "Ć": 214,
      "ć": 215,
      "Ĉ": 216,
      "ĉ": 217,
      "Ċ": 218,
      "ċ": 219,
      "Č": 220,
      "č": 221,
      "Ď": 222,
      "ď": 223,
      "Đ": 224,
      "đ": 225,
      "Ē": 226,
      "ē": 227,
      "Ĕ": 228,
      "ĕ": 229,
      "Ė": 230,
      "ė": 231,
      "Ę": 232,
      "ę": 233,
      "Ě": 234,
      "ě": 235,
      "Ĝ": 236,
      "ĝ": 237,
      "Ğ": 238,
      "ğ": 239,
      "Ġ": 240,
      "ġ": 241,
      "Ģ": 242,
      "ģ": 243,
      "Ĥ": 244,
      "ĥ": 245,
      "Ħ": 246,
      "ħ": 247,
      "Ĩ": 248,
      "ĩ": 249,
      "Ī": 250,
      "ī": 251,
      "Ĭ": 252,
      "ĭ": 253,
      "Į": 254,
      "į": 255,
      "İ": 256,
      "ı": 257,
      "Ĳ": 258,
      "ĳ": 259,
      "Ĵ": 260,
      "ĵ": 261,
      "Ķ": 262,
      "ķ": 263,
      "ĸ": 264,
      "Ĺ": 265,
      "ĺ": 266,
      "Ļ": 267,
      "ļ": 268,
      "Ľ": 269,
      "ľ": 270,
      "Ŀ": 271,
      "ŀ": 272,
      "Ł": 273,
      "ł": 274,
      "Ń": 275,
      "Ġt": 276,
      "he": 277,
      "Ġa": 278,
      "in": 279,
      "en": 280,
      "er": 281,
      "Ġw": 282,
      "ou": 283,
      "Ġs": 284,
      "Ġthe": 285,
      "Ġo": 286,
      "at": 287,
      "re": 288,
      "an": 289,
      "Ġd": 290,
      "Ġb": 291,
      "it": 292,
      "is": 293,
      "Ġm": 294,
      "on": 295,
      "Ġh": 296,
      "Ġc": 297,
      "or": 298,
      "ing": 299,
      "Ġg": 300,
      "ll": 301,
      "ar": 302,
      "ed": 303,
      "Ġf": 304,
      "es": 305,
      "nd": 306,
      "Ġto": 307,
      "Ġp": 308,
      "OT": 309,
      "Ġth": 310,
      "MOT": 311,
      "Ġy": 312,
      "Ġn": 313,
      "Ġl": 314,
      "et": 315,
      "CH": 316,
      "Ġhe": 317,
      "as": 318,
      "Ġin": 319,
      "Ġyou": 320,
      "CHI": 321,
      "Ġand": 322,
      "Ġof": 323,
      "om": 324,
      "el": 325,
      "ĠI": 326,
      "ot": 327,
      "'s": 328,
      "ow": 329,
      "Ġv": 330,
      "Ġ.": 331,
      "ic": 332,
      "al": 333,
      "Ġe": 334,
      "Ġon": 335,
      "Ġit": 336,
      "Ġis": 337,
      "le": 338,
      "st": 339,
      "ay": 340,
      "ve": 341,
      "ad": 342,
      "id": 343,
      "ig": 344,
      "Ġk": 345,
      "Ġthat": 346,
      "Ġbe": 347,
      "oo": 348,
      "Ġu": 349,
      "Ġde": 350,
      "ch": 351,
      "ij": 352,
      "hat": 353,
      "ut": 354,
      "Ġwas": 355,
      "ent": 356,
      "ld": 357,
      "am": 358,
      "..": 359,
      "se": 360,
      "Ġj": 361,
      "im": 362,
      "ie": 363,
      "Ġst": 364,
      "'t": 365,
      "Ġre": 366,
      "and": 367,
      "Ġdo": 368,
      "ro": 369,
      "Ġwe": 370,
      "ke": 371,
      "ver": 372,
      "ht": 373,
      "ac": 374,
      "ir": 375,
      "ion": 376,
      "Ġz": 377,
      "Ġme": 378,
      "Ġfor": 379,
      "ĠS": 380,
      "Ġha": 381,
      "ĠT": 382,
      "ur": 383,
      "out": 384,
      "Ġr": 385,
      "ĠM": 386,
      "ĠA": 387,
      "all": 388,
      "ter": 389,
      "ly": 390,
      "ith": 391,
      "Ġan": 392,
      "ight": 393,
      "her": 394,
      "ea": 395,
      "ee": 396,
      "Ġgo": 397,
      "Ġwith": 398,
      "il": 399,
      "ome": 400,
      "ĠB": 401,
      "ĠC": 402,
      "ĠH": 403,
      "ill": 404,
      "Ġas": 405,
      "un": 406,
      "ant": 407,
      "if": 408,
      "aar": 409,
      "ag": 410,
      "Ġwh": 411,
      "Ġat": 412,
      "Ġnot": 413,
      "ce": 414,
      "ould": 415,
      "ct": 416,
      "ĠD": 417,
      "um": 418,
      "Ġ,": 419,
      "Ġhave": 420,
      "Ġen": 421,
      "ell": 422,
      "Ġthis": 423,
      "op": 424,
      "us": 425,
      "here": 426,
      "ust": 427,
      "ra": 428,
      "Ġ\"": 429,
      "ol": 430,
      "Ġkn": 431,
      "Ġmo": 432,
      "ers": 433,
      "xx": 434,
      "Ġare": 435,
      "ook": 436,
      "Ġal": 437,
      "Ġli": 438,
      "ak": 439,
      "Ġall": 440,
      "Ġhet": 441,
      "Ġ1": 442,
      "ri": 443,
      "Ġeen": 444,
      "Ġhis": 445,
      "Ġsh": 446,
      "oor": 447,
      "est": 448,
      "th": 449,
      "Ġje": 450,
      "Ġthey": 451,
      "Ġvan": 452,
      "Ġone": 453,
      "...": 454,
      "ere": 455,
      "ĠP": 456,
      "pp": 457,
      "au": 458,
      "Ġcan": 459,
      "IN": 460,
      "Ġne": 461,
      "Ġup": 462,
      "Ġthere": 463,
      "ĠW": 464,
      "Ġknow": 465,
      "Ġhad": 466,
      "eah": 467,
      "Ġyour": 468,
      "Ġher": 469,
      "em": 470,
      "Ġver": 471,
      "ain": 472,
      "our": 473,
      "Ġdon": 474,
      "iet": 475,
      "Ġno": 476,
      "INV": 477,
      "ind": 478,
      "Ġfr": 479,
      "ab": 480,
      "Ġwhat": 481,
      "ĠG": 482,
      "Ġso": 483,
      "Ġ?": 484,
      "ik": 485,
      "ack": 486,
      "end": 487,
      "Ġshe": 488,
      "Ġpl": 489,
      "hen": 490,
      "ood": 491,
      "ĠN": 492,
      "ul": 493,
      "Ġwor": 494,
      "ard": 495,
      "art": 496,
      "Ġmy": 497,
      "ap": 498,
      "ink": 499,
      "ist": 500,
      "Ġout": 501,
      "Ġer": 502,
      "ry": 503,
      "ven": 504,
      "oug": 505,
      "Ġsa": 506,
      "ĠL": 507,
      "ĠR": 508,
      "Ġor": 509,
      "ĠJ": 510,
      "oh": 511,
      "ĠF": 512,
      "Ġop": 513,
      "Ġ'": 514,
      "ge": 515,
      "Ġch": 516,
      "ation": 517,
      "Ġge": 518,
      "Ġget": 519,
      "Ġab": 520,
      "Ġlike": 521,
      "'re": 522,
      "ck": 523,
      "ake": 524,
      "Ġ2": 525,
      "AT": 526,
      "ĠE": 527,
      "Ġsp": 528,
      "Ġfrom": 529,
      "Ġhim": 530,
      "ast": 531,
      "The": 532,
      "os": 533,
      "Ġbut": 534,
      "ong": 535,
      "You": 536,
      "ĠThe": 537,
      "ess": 538,
      "no": 539,
      "ijn": 540,
      "Ġsu": 541,
      "ound": 542,
      "Ġte": 543,
      "one": 544,
      "qu": 545,
      "Ġdat": 546,
      "Ġwere": 547,
      "you": 548,
      "Ġby": 549,
      "Ġsee": 550,
      "what": 551,
      "ok": 552,
      "ame": 553,
      "Ġcom": 554,
      "itt": 555,
      "Ġthem": 556,
      "ä¸": 557,
      "'m": 558,
      "ich": 559,
      "na": 560,
      "res": 561,
      "ond": 562,
      "Ġse": 563,
      "Ġdid": 564,
      "own": 565,
      "Ġgot": 566,
      "ĠO": 567,
      "'ll": 568,
      "Ġniet": 569,
      "Ġover": 570,
      "Ġman": 571,
      "ft": 572,
      "Ġabout": 573,
      "Ġsome": 574,
      "Ġbo": 575,
      "ally": 576,
      "ort": 577,
      "Ġ(": 578,
      "Ġle": 579,
      ".\"": 580,
      "Ġcon": 581,
      "yeah": 582,
      "FAT": 583,
      "Ġex": 584,
      "ber": 585,
      "Ġthink": 586,
      "Ġwant": 587,
      "Ġhere": 588,
      "ive": 589,
      "ine": 590,
      "Ġtw": 591,
      "ick": 592,
      "xxx": 593,
      "ies": 594,
      "ep": 595,
      "Ġpro": 596,
      "Ik": 597,
      "Ġsaid": 598,
      "Ġlook": 599,
      "ang": 600,
      "ice": 601,
      "].": 602,
      "Ġjust": 603,
      "den": 604,
      "are": 605,
      "Ġik": 606,
      "ect": 607,
      "de": 608,
      "Ġaf": 609,
      "Ġwould": 610,
      "ore": 611,
      "ime": 612,
      "Ġar": 613,
      "Ġwho": 614,
      "ate": 615,
      "we": 616,
      "hing": 617,
      "Ġthen": 618,
      "to": 619,
      "Ġif": 620,
      "ough": 621,
      "ide": 622,
      "Ġbl": 623,
      "ru": 624,
      ",\"": 625,
      "Ġsay": 626,
      "Ġus": 627,
      "Ġwill": 628,
      "Ġnow": 629,
      "Ġany": 630,
      "ank": 631,
      "ier": 632,
      "Ġright": 633,
      "nt": 634,
      "cht": 635,
      "other": 636,
      "Ġwhen": 637,
      "Ġmet": 638,
      "that": 639,
      "Ġvoor": 640,
      "gen": 641,
      "od": 642,
      "ous": 643,
      "Ġwat": 644,
      "ĠK": 645,
      "be": 646,
      "oe": 647,
      "'ve": 648,
      "Ġ19": 649,
      "Ġ20": 650,
      "Ġbr": 651,
      "Ġdown": 652,
      "ther": 653,
      "ijk": 654,
      "ip": 655,
      "Ġag": 656,
      "Ġback": 657,
      "ree": 658,
      "Ġput": 659,
      "ause": 660,
      "Ġgr": 661,
      "Ġcl": 662,
      "ittle": 663,
      "way": 664,
      "It": 665,
      "ĠHe": 666,
      "We": 667,
      "Ġoff": 668,
      "ure": 669,
      "Ġze": 670,
      "Ġbeen": 671,
      "ite": 672,
      "Ġtime": 673,
      "AR": 674,
      "Ġzijn": 675,
      "ose": 676,
      "Ġgoing": 677,
      "Ġro": 678,
      "Ġhas": 679,
      "Ġals": 680,
      "ire": 681,
      "my": 682,
      "ity": 683,
      "Ġtheir": 684,
      "Ġwhich": 685,
      "Ġfe": 686,
      "Ġcould": 687,
      "ff": 688,
      "ish": 689,
      "ĠIt": 690,
      "Ġlittle": 691,
      "ings": 692,
      "iv": 693,
      "ze": 694,
      "ace": 695,
      "cause": 696,
      "Ġmore": 697,
      "the": 698,
      "Ġvery": 699,
      "He": 700,
      "ens": 701,
      "äº": 702,
      "Ġ...": 703,
      "Ġgood": 704,
      "nder": 705,
      "ia": 706,
      "Ġheb": 707,
      "Ġlo": 708,
      "aug": 709,
      "elf": 710,
      "Ġpe": 711,
      "Ġ[": 712,
      "Ġother": 713,
      "Ġtwo": 714,
      "Ġqu": 715,
      "yes": 716,
      "ull": 717,
      "eld": 718,
      "ild": 719,
      "Ġxxx": 720,
      "aat": 721,
      "pl": 722,
      "ass": 723,
      "ken": 724,
      "Ġdie": 725,
      "iss": 726,
      "uh": 727,
      "ans": 728,
      "alk": 729,
      "What": 730,
      "ĠV": 731,
      "age": 732,
      "Ġtr": 733,
      "ars": 734,
      "Ġplay": 735,
      "--": 736,
      "che": 737,
      "te": 738,
      "And": 739,
      "ĠCh": 740,
      "mer": 741,
      "reat": 742,
      "ĠU": 743,
      "orn": 744,
      "Ġco": 745,
      "çļ": 746,
      "urn": 747,
      "Ġcome": 748,
      "omet": 749,
      "Ġinto": 750,
      "Ġpr": 751,
      "Ġbet": 752,
      "çļĦ": 753,
      "Ġel": 754,
      "ople": 755,
      "very": 756,
      "og": 757,
      "ble": 758,
      "ade": 759,
      "ment": 760,
      "irst": 761,
      "onna": 762,
      "ase": 763,
      "wh": 764,
      "ud": 765,
      "ty": 766,
      "Ġway": 767,
      "per": 768,
      "Ġagain": 769,
      "ought": 770,
      "Ġaan": 771,
      "aan": 772,
      "ied": 773,
      "act": 774,
      "ah": 775,
      "bl": 776,
      "ance": 777,
      "Ġsch": 778,
      "ount": 779,
      "Ġgonna": 780,
      "ien": 781,
      "Ġpeople": 782,
      "Ġwork": 783,
      "Ġuit": 784,
      "ord": 785,
      "ĠIn": 786,
      "av": 787,
      "Oh": 788,
      "ĠSt": 789,
      "ary": 790,
      "Ġfl": 791,
      "00": 792,
      "Ġdoes": 793,
      "æĪ": 794,
      "ä»": 795,
      "Ġhow": 796,
      "Ġhand": 797,
      "ne": 798,
      "Ġwhere": 799,
      "No": 800,
      "Ġcall": 801,
      "Ġwell": 802,
      "Th": 803,
      "Ġpart": 804,
      "Ġmake": 805,
      "Ġom": 806,
      "sh": 807,
      "ian": 808,
      "Ġday": 809,
      "ys": 810,
      "ool": 811,
      "Ġsomet": 812,
      "do": 813,
      "Ġfirst": 814,
      "ue": 815,
      "ely": 816,
      "pt": 817,
      "Ġmu": 818,
      "Ġam": 819,
      "Ġtoo": 820,
      "Ġtake": 821,
      "cl": 822,
      "ach": 823,
      "Yeah": 824,
      "okay": 825,
      "Ġtell": 826,
      "Ġsc": 827,
      "Ġdoor": 828,
      "hm": 829,
      "ark": 830,
      "ug": 831,
      "orm": 832,
      "ng": 833,
      "Ġafter": 834,
      "ĠDe": 835,
      "int": 836,
      "Ġlet": 837,
      "Ġpre": 838,
      "Ġneed": 839,
      "ile": 840,
      "ob": 841,
      "ost": 842,
      "land": 843,
      "Ġ-": 844,
      "ise": 845,
      "?\"": 846,
      "Ġsl": 847,
      "hed": 848,
      "Ġthr": 849,
      "Ġour": 850,
      "ä½": 851,
      "è¿": 852,
      "ouse": 853,
      "ving": 854,
      "fore": 855,
      "where": 856,
      "Ġonly": 857,
      "æĪĳ": 858,
      "Ġun": 859,
      "Ġcar": 860,
      "wn": 861,
      "Ġad": 862,
      "ather": 863,
      "self": 864,
      "That": 865,
      "cc": 866,
      "je": 867,
      "ved": 868,
      "Ġye": 869,
      "unn": 870,
      "eren": 871,
      "able": 872,
      "oll": 873,
      "air": 874,
      "ress": 875,
      "ting": 876,
      "ek": 877,
      "red": 878,
      "iz": 879,
      "get": 880,
      "uck": 881,
      "Ġword": 882,
      "But": 883,
      "æĺ": 884,
      "Ġshould": 885,
      "riend": 886,
      "Ġzo": 887,
      "ĠTh": 888,
      "Ġlong": 889,
      "there": 890,
      "Ġmade": 891,
      "Ġsm": 892,
      "Ġmuch": 893,
      "ated": 894,
      "Ġdis": 895,
      "ady": 896,
      "right": 897,
      "Ġevery": 898,
      "ory": 899,
      "Ġthese": 900,
      "inn": 901,
      "Ġper": 902,
      "als": 903,
      "Ġdidn": 904,
      "day": 905,
      "ĠFr": 906,
      "Well": 907,
      "Ġnaar": 908,
      "Ġdr": 909,
      "dy": 910,
      "Ġsomething": 911,
      "Ġhel": 912,
      "man": 913,
      "Ġim": 914,
      "ock": 915,
      "ps": 916,
      "oc": 917,
      "een": 918,
      "Ã©": 919,
      "Ġthan": 920,
      "Ġbig": 921,
      "ave": 922,
      "Ġbu": 923,
      "'d": 924,
      "ert": 925,
      "irl": 926,
      "Ġhapp": 927,
      "ER": 928,
      "old": 929,
      "Ġbel": 930,
      "ew": 931,
      "ten": 932,
      "thing": 933,
      "Ġaway": 934,
      "ions": 935,
      "Ġmaar": 936,
      "der": 937,
      "Ġeven": 938,
      "Yes": 939,
      "anna": 940,
      "iff": 941,
      "Ġwr": 942,
      "ict": 943,
      "ife": 944,
      "Ġdan": 945,
      "Ġbecause": 946,
      "Ġtalk": 947,
      "rij": 948,
      "sp": 949,
      "Ġalso": 950,
      "Ġact": 951,
      "æĺ¯": 952,
      "augh": 953,
      "Ġapp": 954,
      "kay": 955,
      "Ġunder": 956,
      "Ġcont": 957,
      "In": 958,
      "Ġ!": 959,
      "ial": 960,
      "Ġbefore": 961,
      "ix": 962,
      "Ġmean": 963,
      "ater": 964,
      "Ġ3": 965,
      "Ġsec": 966,
      "Ġter": 967,
      "ath": 968,
      "Ġrem": 969,
      "PAR": 970,
      "Ġbeg": 971,
      "Ġwent": 972,
      "Ġbij": 973,
      "Ġreally": 974,
      "aal": 975,
      "Ġgu": 976,
      "ward": 977,
      "Ġmoet": 978,
      "Ġmak": 979,
      "Het": 980,
      "Ġwel": 981,
      "Wh": 982,
      "ious": 983,
      "Ġben": 984,
      "Ġdoing": 985,
      "ves": 986,
      "EX": 987,
      "ons": 988,
      "ec": 989,
      "eg": 990,
      "ĠMr": 991,
      "Ġcomp": 992,
      "Ġold": 993,
      "look": 994,
      "Je": 995,
      "EXP": 996,
      "Ġgirl": 997,
      "Ġthree": 998,
      "IS": 999,
      "ence": 1000,
      "oot": 1001,
      "well": 1002,
      "De": 1003,
      "Ġmin": 1004,
      "iver": 1005,
      "omen": 1006,
      "äºĨ": 1007,
      "ET": 1008,
      "Ġeat": 1009,
      "Ġask": 1010,
      "amp": 1011,
      "but": 1012,
      "Ġwer": 1013,
      "les": 1014,
      "aw": 1015,
      "Ġwaar": 1016,
      "Ġthose": 1017,
      "Ġhij": 1018,
      "Ġmay": 1019,
      "å¤": 1020,
      "ä½ł": 1021,
      "So": 1022,
      "Ġhouse": 1023,
      "æľ": 1024,
      "up": 1025,
      "ĠShe": 1026,
      "Ġcame": 1027,
      "Ġbed": 1028,
      "Ġwater": 1029,
      "Ġhelp": 1030,
      "Ġhome": 1031,
      "Ġmany": 1032,
      "Ġwon": 1033,
      "Ġthrough": 1034,
      "Ġturn": 1035,
      "Ġ201": 1036,
      "Ġhead": 1037,
      "Ġnever": 1038,
      "Ġthing": 1039,
      "ful": 1040,
      "Ġthought": 1041,
      "ub": 1042,
      "Ġthings": 1043,
      "Ġnew": 1044,
      "Ġmust": 1045,
      "ren": 1046,
      "Ġkind": 1047,
      "Ġwanna": 1048,
      "ĠZ": 1049,
      "ä¹": 1050,
      "aby": 1051,
      "ail": 1052,
      "LD": 1053,
      "ste": 1054,
      "åı": 1055,
      "ummy": 1056,
      "Ġcr": 1057,
      "oint": 1058,
      "Ġstart": 1059,
      "can": 1060,
      "Ġbook": 1061,
      "ouw": 1062,
      "Ġgreat": 1063,
      "ign": 1064,
      "Ġbit": 1065,
      "Ġook": 1066,
      "åĲ": 1067,
      "ĠY": 1068,
      "Ġlast": 1069,
      "!\"": 1070,
      "aak": 1071,
      "ried": 1072,
      "Ġtra": 1073,
      ".]": 1074,
      "Ġanother": 1075,
      "oss": 1076,
      "Ġinter": 1077,
      "Ġple": 1078,
      "å°": 1079,
      "Ġfind": 1080,
      "elijk": 1081,
      "Wat": 1082,
      "wer": 1083,
      "Ġcalled": 1084,
      "ait": 1085,
      "Ġgive": 1086,
      "come": 1087,
      "Ġser": 1088,
      "du": 1089,
      "Ġkan": 1090,
      "Ġdone": 1091,
      "arl": 1092,
      "xt": 1093,
      "Ġbest": 1094,
      "ult": 1095,
      "ä¸Ģ": 1096,
      "oed": 1097,
      "ĠUn": 1098,
      "Ġmen": 1099,
      "Ġgen": 1100,
      "oy": 1101,
      "Ġstill": 1102,
      "ody": 1103,
      "Ġcomm": 1104,
      "Ġmom": 1105,
      "ates": 1106,
      "ily": 1107,
      "eep": 1108,
      "now": 1109,
      "ben": 1110,
      "Ġnog": 1111,
      "eft": 1112,
      "ä¸į": 1113,
      "els": 1114,
      "ents": 1115,
      "ors": 1116,
      "Ġfound": 1117,
      "oon": 1118,
      "Ġwar": 1119,
      "aughs": 1120,
      "pe": 1121,
      "CHILD": 1122,
      "igh": 1123,
      "ened": 1124,
      "ually": 1125,
      "Ġdiff": 1126,
      "They": 1127,
      "Ġlea": 1128,
      "Ġrec": 1129,
      "ph": 1130,
      "TAR": 1131,
      "Ġgl": 1132,
      "GET": 1133,
      "acht": 1134,
      "ces": 1135,
      "SIS": 1136,
      "Ġheeft": 1137,
      "ĠBr": 1138,
      "Ġhier": 1139,
      "eel": 1140,
      "TARGET": 1141,
      "ical": 1142,
      "Ġits": 1143,
      "AN": 1144,
      "ember": 1145,
      "Ġcount": 1146,
      "ms": 1147,
      "Ġche": 1148,
      "let": 1149,
      "Ġerm": 1150,
      "Ġmight": 1151,
      "ister": 1152,
      "Ġnight": 1153,
      "Ġbot": 1154,
      "Ġdit": 1155,
      "oud": 1156,
      "port": 1157,
      "unt": 1158,
      "body": 1159,
      "TE": 1160,
      "ever": 1161,
      "Ġschool": 1162,
      "Ġchild": 1163,
      "Ġhebben": 1164,
      "Ġown": 1165,
      "Ġshow": 1166,
      "Ġlot": 1167,
      "ss": 1168,
      "elen": 1169,
      "ange": 1170,
      "Ġtry": 1171,
      "ont": 1172,
      "Ġfriend": 1173,
      "Ġtak": 1174,
      "Ġboy": 1175,
      "me": 1176,
      "ende": 1177,
      "uss": 1178,
      "Ġname": 1179,
      "Ġaround": 1180,
      "ingen": 1181,
      "ls": 1182,
      "ye": 1183,
      "This": 1184,
      "Dat": 1185,
      "Ġend": 1186,
      "urt": 1187,
      "ĠThey": 1188,
      "Ġisn": 1189,
      "Ġmost": 1190,
      "ĠAmer": 1191,
      "She": 1192,
      "Ġbaby": 1193,
      "oney": 1194,
      "orry": 1195,
      "imes": 1196,
      "Ġhu": 1197,
      "ited": 1198,
      "Ġatt": 1199,
      "Ġdeze": 1200,
      "En": 1201,
      "onder": 1202,
      "There": 1203,
      "ief": 1204,
      "men": 1205,
      "è¯": 1206,
      "Ġstr": 1207,
      "Ġmother": 1208,
      "Ġyears": 1209,
      "Ġplace": 1210,
      "Ġfin": 1211,
      "Ġbetter": 1212,
      "ele": 1213,
      "è¿Ļ": 1214,
      "ijd": 1215,
      "vel": 1216,
      "side": 1217,
      "outh": 1218,
      "Ġused": 1219,
      "Ġsuch": 1220,
      "ww": 1221,
      "Ġpol": 1222,
      "ĠMar": 1223,
      "Ġsle": 1224,
      "Ġsupp": 1225,
      "Ġfour": 1226,
      "Ġpers": 1227,
      "med": 1228,
      "Ġdes": 1229,
      "Ġcour": 1230,
      "uit": 1231,
      "Ġreg": 1232,
      "Ġbeing": 1233,
      "ins": 1234,
      "mhm": 1235,
      "app": 1236,
      "Ġ4": 1237,
      "Ġfeel": 1238,
      "so": 1239,
      "Ġ200": 1240,
      "Ġbre": 1241,
      "åĪ": 1242,
      "Ġhem": 1243,
      "aten": 1244,
      "ition": 1245,
      "Ġbus": 1246,
      "Ġgoed": 1247,
      "laughs": 1248,
      "Ġcare": 1249,
      "atter": 1250,
      "Ġmijn": 1251,
      "ale": 1252,
      "Ġlife": 1253,
      "ike": 1254,
      "åľ": 1255,
      "ĠYou": 1256,
      "Ġnum": 1257,
      "å®": 1258,
      "row": 1259,
      "Ġwil": 1260,
      "Ġwhy": 1261,
      "Ġminut": 1262,
      "Ġonder": 1263,
      "ways": 1264,
      "gg": 1265,
      "hes": 1266,
      "Ġgeen": 1267,
      "ird": 1268,
      "this": 1269,
      ").": 1270,
      "they": 1271,
      "Ġpres": 1272,
      "ican": 1273,
      "she": 1274,
      "uk": 1275,
      "Ġdoesn": 1276,
      "Ġfam": 1277,
      "Ġroom": 1278,
      "Ġnext": 1279,
      "Ġsame": 1280,
      "Ġmon": 1281,
      "ote": 1282,
      "Ġelse": 1283,
      "Ġnice": 1284,
      "ations": 1285,
      "gr": 1286,
      "addy": 1287,
      "arly": 1288,
      "Ġsit": 1289,
      "io": 1290,
      "ib": 1291,
      "ced": 1292,
      "St": 1293,
      "Ġsure": 1294,
      "MCH": 1295,
      "ĠAnd": 1296,
      "ger": 1297,
      "Ġanything": 1298,
      "Ġres": 1299,
      "Ġmeer": 1300,
      "Ġopen": 1301,
      "Ġyes": 1302,
      "Ġworden": 1303,
      "ince": 1304,
      "Ġwordt": 1305,
      "Ġpu": 1306,
      "Er": 1307,
      "Ġhun": 1308,
      "Ġwhile": 1309,
      "Ġhard": 1310,
      "ret": 1311,
      "Ġfar": 1312,
      "ets": 1313,
      "led": 1314,
      "ann": 1315,
      "ove": 1316,
      "elt": 1317,
      "Ġstop": 1318,
      "pr": 1319,
      "If": 1320,
      "oord": 1321,
      "ident": 1322,
      "Ġsn": 1323,
      "How": 1324,
      "åħ": 1325,
      "Ġokay": 1326,
      "over": 1327,
      "Ġgeb": 1328,
      "Ġvo": 1329,
      "icht": 1330,
      "Ġsays": 1331,
      "eer": 1332,
      "å¥": 1333,
      "Ġhal": 1334,
      "Ġkeep": 1335,
      "Hij": 1336,
      "\".": 1337,
      "Ġnu": 1338,
      "Ġleft": 1339,
      "how": 1340,
      "oun": 1341,
      "ige": 1342,
      "Ġcat": 1343,
      "Ġcol": 1344,
      "Ġgone": 1345,
      "Ġalways": 1346,
      "All": 1347,
      "ple": 1348,
      "Ġmil": 1349,
      "uur": 1350,
      "enn": 1351,
      "Ġfather": 1352,
      "Is": 1353,
      "aught": 1354,
      "Ġ5": 1355,
      "Ġland": 1356,
      "Ġ18": 1357,
      "Ġcle": 1358,
      "Ġgoes": 1359,
      "eak": 1360,
      "Ġbro": 1361,
      "ower": 1362,
      "ump": 1363,
      "ina": 1364,
      "Ġexp": 1365,
      "vol": 1366,
      "Ġyeah": 1367,
      "AD": 1368,
      "ma": 1369,
      "ished": 1370,
      "not": 1371,
      "Ġtold": 1372,
      "Ġlove": 1373,
      "Ġweek": 1374,
      "Ġsaw": 1375,
      "Ġph": 1376,
      "atie": 1377,
      "Ġrel": 1378,
      "put": 1379,
      "eder": 1380,
      "af": 1381,
      "tw": 1382,
      "who": 1383,
      "Ġret": 1384,
      "Ġhaar": 1385,
      "arn": 1386,
      "æĿ": 1387,
      "Ġset": 1388,
      "Ġsw": 1389,
      "Ġdaar": 1390,
      "Ġread": 1391,
      "mber": 1392,
      "Ġtot": 1393,
      "vent": 1394,
      "Ġtook": 1395,
      "Ġpass": 1396,
      "Ġgaan": 1397,
      "ream": 1398,
      "Ġuse": 1399,
      "form": 1400,
      "erent": 1401,
      "Ġbeh": 1402,
      "Ġsing": 1403,
      "TEA": 1404,
      "Ġcoming": 1405,
      "Ġunt": 1406,
      "ä¸ª": 1407,
      "rist": 1408,
      "Ġacc": 1409,
      "ope": 1410,
      "orning": 1411,
      "Ġpoint": 1412,
      "Ġmind": 1413,
      "Do": 1414,
      "ash": 1415,
      "az": 1416,
      "ĠBut": 1417,
      "Ġball": 1418,
      "ased": 1419,
      "ĠAl": 1420,
      "br": 1421,
      "Ġsur": 1422,
      "Ġgro": 1423,
      "Ġac": 1424,
      "æľī": 1425,
      "Ġhold": 1426,
      "oman": 1427,
      "mm": 1428,
      "ĠEng": 1429,
      "stand": 1430,
      "ker": 1431,
      "orth": 1432,
      "don": 1433,
      "ta": 1434,
      "Ġenough": 1435,
      "Ġquite": 1436,
      "Ġever": 1437,
      "raw": 1438,
      "Ġstand": 1439,
      "Ġwalk": 1440,
      "Why": 1441,
      "Ġfive": 1442,
      "gether": 1443,
      "jes": 1444,
      "Ġkill": 1445,
      "akes": 1446,
      "Ġmoney": 1447,
      "Ġplease": 1448,
      "ĠGr": 1449,
      "Ġwait": 1450,
      "oof": 1451,
      "Ġvol": 1452,
      "ĠSp": 1453,
      "Ġrest": 1454,
      "Ġlight": 1455,
      "Ġpie": 1456,
      "Ġhear": 1457,
      "Ġround": 1458,
      "ject": 1459,
      "ollow": 1460,
      "ween": 1461,
      "ness": 1462,
      "Ġpret": 1463,
      "go": 1464,
      "Ġcourse": 1465,
      "gt": 1466,
      "Now": 1467,
      "Ġob": 1468,
      "Ġside": 1469,
      "Ġdist": 1470,
      "ational": 1471,
      "uring": 1472,
      "unnen": 1473,
      "huh": 1474,
      "Ġuntil": 1475,
      "ible": 1476,
      "Ġdifferent": 1477,
      "Ġsecond": 1478,
      "Ġmorning": 1479,
      "irect": 1480,
      "Ġcons": 1481,
      "erd": 1482,
      "Ġbox": 1483,
      "Ġfire": 1484,
      "ãĢ": 1485,
      "Ġlooks": 1486,
      "HE": 1487,
      "eter": 1488,
      "ĠAn": 1489,
      "Ġsk": 1490,
      "Mm": 1491,
      "rew": 1492,
      "apt": 1493,
      "ush": 1494,
      "Ġent": 1495,
      "Ġperson": 1496,
      "ork": 1497,
      "Ġid": 1498,
      "Ġ202": 1499,
      "any": 1500,
      "Ġwind": 1501,
      "å°±": 1502,
      "Don": 1503,
      "Ġmar": 1504,
      "Ġasked": 1505,
      "Ġthough": 1506,
      "bab": 1507,
      "Ġjij": 1508,
      "ipp": 1509,
      "fta": 1510,
      "Ġvers": 1511,
      "Ġkom": 1512,
      "Ġfew": 1513,
      "ĠThis": 1514,
      "Waar": 1515,
      "ieve": 1516,
      "Ġdoen": 1517,
      "Ġeyes": 1518,
      "ries": 1519,
      "RO": 1520,
      "Ġface": 1521,
      "why": 1522,
      "ĠAr": 1523,
      "agen": 1524,
      "Ġpop": 1525,
      "Ġhoe": 1526,
      "Ze": 1527,
      "ters": 1528,
      "Ã«": 1529,
      "Ġkunnen": 1530,
      "Ġsmall": 1531,
      "Ġworld": 1532,
      "Ġsix": 1533,
      "Ġtogether": 1534,
      "Ġzou": 1535,
      "Ġseen": 1536,
      "Ġlater": 1537,
      "Ġremember": 1538,
      "Ġgaat": 1539,
      "Ġyear": 1540,
      "uw": 1541,
      "cy": 1542,
      "Ġtru": 1543,
      "LO": 1544,
      "Ġsound": 1545,
      "Ġgra": 1546,
      "Ġhafta": 1547,
      "Ġlooking": 1548,
      "bo": 1549,
      "its": 1550,
      "ames": 1551,
      "),": 1552,
      "Ġbetween": 1553,
      "ellow": 1554,
      "sel": 1555,
      "ered": 1556,
      "Ġreal": 1557,
      "Ġweet": 1558,
      "ross": 1559,
      "Ġknown": 1560,
      "Ġind": 1561,
      "Ġass": 1562,
      "Ġkl": 1563,
      "ohn": 1564,
      "Ġpick": 1565,
      "Ġbent": 1566,
      "Ġem": 1567,
      "Ġhalf": 1568,
      "Ġmiss": 1569,
      "Ġeach": 1570,
      "Ġspec": 1571,
      "HER": 1572,
      "Ġbad": 1573,
      "Ġnumber": 1574,
      "Ġdog": 1575,
      "FCH": 1576,
      "mand": 1577,
      "Ġstay": 1578,
      "åľ¨": 1579,
      "Ġnothing": 1580,
      "cle": 1581,
      "aps": 1582,
      "une": 1583,
      "Ġboth": 1584,
      "åĳ": 1585,
      "idd": 1586,
      "ton": 1587,
      "Ġsort": 1588,
      "Ġsy": 1589,
      "Ġ199": 1590,
      "ĠSh": 1591,
      "¿½": 1592,
      "iets": 1593,
      "Come": 1594,
      "ey": 1595,
      "Ġgew": 1596,
      "ape": 1597,
      "Ġlar": 1598,
      "Ġfall": 1599,
      "ä»¬": 1600,
      "Ġsleep": 1601,
      "Ġtoday": 1602,
      "aster": 1603,
      "Ġden": 1604,
      "Ġyet": 1605,
      "ures": 1606,
      "ics": 1607,
      "ãĢĤ": 1608,
      "Ġma": 1609,
      "Ġyoung": 1610,
      "isten": 1611,
      "Ġgetting": 1612,
      "Ġdec": 1613,
      "ï¿½": 1614,
      "Ġfollow": 1615,
      "Ġlang": 1616,
      "ĠBl": 1617,
      "zen": 1618,
      "uff": 1619,
      "reen": 1620,
      "Ġpap": 1621,
      "ines": 1622,
      "of": 1623,
      "ating": 1624,
      "ĠGod": 1625,
      "åŃ": 1626,
      "Ġste": 1627,
      "Ġupon": 1628,
      "eten": 1629,
      "ts": 1630,
      "Ġons": 1631,
      "ĠWe": 1632,
      "ired": 1633,
      "ept": 1634,
      "Ġmoment": 1635,
      "dat": 1636,
      "Ġum": 1637,
      "oop": 1638,
      "ĥ½": 1639,
      "Ġbec": 1640,
      "oek": 1641,
      "Ġonce": 1642,
      "ç»": 1643,
      "rop": 1644,
      "Ġdirect": 1645,
      "ĠNew": 1646,
      "Ġpar": 1647,
      "Ġhands": 1648,
      "Ġbreak": 1649,
      "ball": 1650,
      "Ġcut": 1651,
      "lijk": 1652,
      "Ġred": 1653,
      "ason": 1654,
      "Ġchar": 1655,
      "Ġcent": 1656,
      "Ġint": 1657,
      "cept": 1658,
      "Ġdrink": 1659,
      "å¾": 1660,
      "ertain": 1661,
      "ĠAmerican": 1662,
      "Ġrun": 1663,
      "ched": 1664,
      "æī": 1665,
      "ently": 1666,
      "Ġboys": 1667,
      "Maar": 1668,
      "ĠUnited": 1669,
      "ane": 1670,
      "Ġdisc": 1671,
      "did": 1672,
      "ling": 1673,
      "rouw": 1674,
      "Ġnat": 1675,
      "ants": 1676,
      "Ġtrain": 1677,
      "Ġleave": 1678,
      "heid": 1679,
      "Ġsoon": 1680,
      "Ġ6": 1681,
      "by": 1682,
      "ama": 1683,
      "Ġwatch": 1684,
      "ĠThere": 1685,
      "Ġhimself": 1686,
      "Ġtre": 1687,
      "tle": 1688,
      "Ġtop": 1689,
      "Ġbes": 1690,
      "ullie": 1691,
      "Ġoh": 1692,
      "\",": 1693,
      "Ġhor": 1694,
      "Ġfoot": 1695,
      "ared": 1696,
      "Ġmag": 1697,
      "Ġveel": 1698,
      "ats": 1699,
      "Ġhaving": 1700,
      "ĠHet": 1701,
      "äºº": 1702,
      "ual": 1703,
      "Ġhaven": 1704,
      "ĠBe": 1705,
      "Ġshall": 1706,
      "Ġmens": 1707,
      "OR": 1708,
      "pen": 1709,
      "Ch": 1710,
      "ole": 1711,
      "Ġtalking": 1712,
      "ches": 1713,
      "Als": 1714,
      "ĠæĪĳ": 1715,
      "cent": 1716,
      "Ġleg": 1717,
      "RA": 1718,
      "ES": 1719,
      "amen": 1720,
      "Ġwithout": 1721,
      "OU": 1722,
      "most": 1723,
      "Ġstud": 1724,
      "Ġheard": 1725,
      "Ġchildren": 1726,
      "Ġna": 1727,
      "iek": 1728,
      "ĠChrist": 1729,
      "vie": 1730,
      "ctor": 1731,
      "Let": 1732,
      "uth": 1733,
      "Ġdear": 1734,
      "Ġhappened": 1735,
      "Ġsorry": 1736,
      "Ġdep": 1737,
      "Ġans": 1738,
      "Ġlooked": 1739,
      "Ġproble": 1740,
      "Ġdays": 1741,
      "Ġagainst": 1742,
      "osed": 1743,
      "æĿ¥": 1744,
      "Ġmus": 1745,
      "ĠInd": 1746,
      "vis": 1747,
      "000": 1748,
      "gan": 1749,
      "und": 1750,
      "Ġmatter": 1751,
      "ows": 1752,
      "ä»ĸ": 1753,
      "Ġfact": 1754,
      "Ġdri": 1755,
      "Ġprodu": 1756,
      "ster": 1757,
      "Ġmove": 1758,
      "Ġwanted": 1759,
      "åĽ": 1760,
      "Ġhigh": 1761,
      "Ġstory": 1762,
      "Ġalong": 1763,
      "Ġanim": 1764,
      "olog": 1765,
      "Ġtwee": 1766,
      "ular": 1767,
      "kt": 1768,
      "Ġalleen": 1769,
      "Ġincl": 1770,
      "Ġair": 1771,
      "ield": 1772,
      "EL": 1773,
      "itten": 1774,
      "Nee": 1775,
      "ots": 1776,
      "beeld": 1777,
      "ready": 1778,
      "fect": 1779,
      "less": 1780,
      "ĠAf": 1781,
      "åķ": 1782,
      "Ġmij": 1783,
      "enty": 1784,
      "ient": 1785,
      "Ġgev": 1786,
      "ung": 1787,
      "Not": 1788,
      "ĠMiss": 1789,
      "racht": 1790,
      "Ġcountry": 1791,
      "ĠÂ": 1792,
      "Ġzal": 1793,
      "My": 1794,
      "On": 1795,
      "ivers": 1796,
      "ony": 1797,
      "ruik": 1798,
      "ric": 1799,
      "ĠWhat": 1800,
      "An": 1801,
      "oup": 1802,
      "Ġeer": 1803,
      "Ġsub": 1804,
      "Ġont": 1805,
      "aut": 1806,
      "Ġref": 1807,
      "ither": 1808,
      "aakt": 1809,
      "Ġpict": 1810,
      "Ġvind": 1811,
      "Be": 1812,
      "Ġweer": 1813,
      "ä¹Ī": 1814,
      "igen": 1815,
      "ĠMummy": 1816,
      "MOTHER": 1817,
      "Een": 1818,
      "Ġten": 1819,
      "Ġlive": 1820,
      "Ġnear": 1821,
      "Ġ7": 1822,
      "Ġdied": 1823,
      "Thank": 1824,
      "Ġknew": 1825,
      "Ġmaking": 1826,
      "è¯´": 1827,
      "Ġgel": 1828,
      "Ġmed": 1829,
      "Ġcity": 1830,
      "Ġheart": 1831,
      "ĠGer": 1832,
      "ĠNo": 1833,
      "EN": 1834,
      "Ġged": 1835,
      "Ġanswer": 1836,
      "ĠWh": 1837,
      "æĹ": 1838,
      "omm": 1839,
      "çľ": 1840,
      "Ġteam": 1841,
      "ĠJohn": 1842,
      "Ġhour": 1843,
      "ific": 1844,
      "çĶ": 1845,
      "When": 1846,
      "Ja": 1847,
      "Ġborn": 1848,
      "Ġreturn": 1849,
      "ober": 1850,
      "Ġzien": 1851,
      "ral": 1852,
      "ction": 1853,
      "Ġsong": 1854,
      "Ġsaying": 1855,
      "Ġdel": 1856,
      "Ġ8": 1857,
      "ommy": 1858,
      "Hey": 1859,
      "Ġtable": 1860,
      "ined": 1861,
      "Ġga": 1862,
      "Ġready": 1863,
      "aur": 1864,
      "see": 1865,
      "off": 1866,
      "room": 1867,
      "Ġext": 1868,
      "ities": 1869,
      "Ġhebt": 1870,
      "ĠAs": 1871,
      "oke": 1872,
      "Ġgave": 1873,
      "Ġcomes": 1874,
      "ully": 1875,
      "ader": 1876,
      "pro": 1877,
      "Ġgame": 1878,
      "ax": 1879,
      "sch": 1880,
      "Okay": 1881,
      "Ġiets": 1882,
      "Ġquest": 1883,
      "ĠStates": 1884,
      "ä¼": 1885,
      "omas": 1886,
      "Ġeight": 1887,
      "Ġstarted": 1888,
      "unny": 1889,
      "wards": 1890,
      "ages": 1891,
      "Ġnoise": 1892,
      "ĠIs": 1893,
      "aul": 1894,
      "Ġspeak": 1895,
      "Ġwhe": 1896,
      "Hoe": 1897,
      "Ġwasn": 1898,
      "Ġhot": 1899,
      "Ġwonder": 1900,
      "Ġbring": 1901,
      "ern": 1902,
      "chter": 1903,
      "Ġconf": 1904,
      "ov": 1905,
      "bably": 1906,
      "Ġfloor": 1907,
      "Ġeverything": 1908,
      "Ġbuild": 1909,
      "LOI": 1910,
      "Ġsince": 1911,
      "ese": 1912,
      "Ġblack": 1913,
      "aring": 1914,
      "19": 1915,
      "ijke": 1916,
      "Ġwhole": 1917,
      "ha": 1918,
      "ĠMrs": 1919,
      "ital": 1920,
      "Ġmeet": 1921,
      "Ġfamily": 1922,
      "Ġtri": 1923,
      "ying": 1924,
      "Ġfood": 1925,
      "DS": 1926,
      "ives": 1927,
      "Ġbelieve": 1928,
      "atch": 1929,
      "Ġwoman": 1930,
      "Ġfil": 1931,
      "Ġju": 1932,
      "Ġhair": 1933,
      "ring": 1934,
      "åİ": 1935,
      "innen": 1936,
      "iness": 1937,
      "eral": 1938,
      "Ġmoeten": 1939,
      "Ġtea": 1940,
      "orrow": 1941,
      "NAN": 1942,
      "cess": 1943,
      "éĤ": 1944,
      "Ġactually": 1945,
      "Ġ198": 1946,
      "ised": 1947,
      "Ġnie": 1948,
      "Ġbecame": 1949,
      "ted": 1950,
      "Ġthank": 1951,
      "Ġposs": 1952,
      "iÃ«": 1953,
      "use": 1954,
      "Ġwhite": 1955,
      "ĠJe": 1956,
      "oes": 1957,
      "ement": 1958,
      "mb": 1959,
      "Ġdef": 1960,
      "Ġtegen": 1961,
      "Ġwild": 1962,
      "ship": 1963,
      "Ġpretty": 1964,
      "Ġinterest": 1965,
      "ks": 1966,
      "ery": 1967,
      "ĠAll": 1968,
      "Ġgez": 1969,
      "ected": 1970,
      "Ġtown": 1971,
      "Ġfeet": 1972,
      "ische": 1973,
      "www": 1974,
      "ĠSc": 1975,
      "ex": 1976,
      "Ġjullie": 1977,
      "anc": 1978,
      "Ġweg": 1979,
      "Ġresp": 1980,
      "Ġcur": 1981,
      "Ġterug": 1982,
      "Ġswe": 1983,
      "Ġadd": 1984,
      "Ġ10": 1985,
      "Ġcoll": 1986,
      "éĤ£": 1987,
      "aid": 1988,
      "Ġ9": 1989,
      "Ġsil": 1990,
      "ef": 1991,
      "Ġuh": 1992,
      "åķĬ": 1993,
      "Ġsign": 1994,
      "ison": 1995,
      "Ġdoll": 1996,
      "eef": 1997,
      "Ġsim": 1998,
      "Ġminute": 1999,
      "eb": 2000,
      "good": 2001,
      "Ġeff": 2002,
      "oen": 2003,
      "Mummy": 2004,
      "Ġsent": 2005,
      "Ġduring": 2006,
      "Ġå": 2007,
      "Ġ_": 2008,
      "aces": 2009,
      "airs": 2010,
      "tern": 2011,
      "Ġoffic": 2012,
      "Where": 2013,
      "Ġpay": 2014,
      "Ġalready": 2015,
      "Ġplaying": 2016,
      "Ġinst": 2017,
      "ged": 2018,
      "Ġbegan": 2019,
      "æ²": 2020,
      "Ġtimes": 2021,
      "Ġzich": 2022,
      "key": 2023,
      "Ġcontin": 2024,
      "ues": 2025,
      "just": 2026,
      "Ġcertain": 2027,
      "iding": 2028,
      "eth": 2029,
      "Ġjob": 2030,
      "Ġart": 2031,
      "Ġtrying": 2032,
      "Who": 2033,
      "Ġidea": 2034,
      "Ġunderstand": 2035,
      "Just": 2036,
      "Ġmensen": 2037,
      "å¥½": 2038,
      "Ġalmost": 2039,
      "ids": 2040,
      "Ġform": 2041,
      "ĠCl": 2042,
      "Ġvert": 2043,
      "GRA": 2044,
      "lish": 2045,
      "ises": 2046,
      "Ġwouldn": 2047,
      "ĠQ": 2048,
      "Ġeas": 2049,
      "Ġwrong": 2050,
      "Ġpolit": 2051,
      "Ġpur": 2052,
      "Ġvis": 2053,
      "Ġexpl": 2054,
      "raag": 2055,
      "Then": 2056,
      "Ġeens": 2057,
      "ĠAt": 2058,
      "ĠBob": 2059,
      "ude": 2060,
      "Ġfight": 2061,
      "Ġkomt": 2062,
      "bed": 2063,
      "ouch": 2064,
      "Ġbrother": 2065,
      "Ġi": 2066,
      "ering": 2067,
      "Ġsqu": 2068,
      "ury": 2069,
      "Ġed": 2070,
      "Ġmee": 2071,
      "Ġrep": 2072,
      "ĠEu": 2073,
      "amer": 2074,
      "gy": 2075,
      "Ġimport": 2076,
      "Ġinv": 2077,
      "Al": 2078,
      "Ġtijd": 2079,
      "Ġplayed": 2080,
      "Ġlik": 2081,
      "read": 2082,
      "Ġlost": 2083,
      "Ġ197": 2084,
      "Ġmaken": 2085,
      "Ġson": 2086,
      "bs": 2087,
      "Ġandere": 2088,
      "Ġfriends": 2089,
      "æĢ": 2090,
      "Ġhum": 2091,
      "iam": 2092,
      "Ġdead": 2093,
      "ided": 2094,
      "Ġstick": 2095,
      "zz": 2096,
      "Dit": 2097,
      "illy": 2098,
      "Ġgi": 2099,
      "Ġpubl": 2100,
      "Ġpiece": 2101,
      "èµ": 2102,
      "Ġorder": 2103,
      "oog": 2104,
      "Ġjaar": 2105,
      "vers": 2106,
      "Ġkw": 2107,
      "got": 2108,
      "æĥ": 2109,
      "Ġpain": 2110,
      "ards": 2111,
      "Ġrecord": 2112,
      "haps": 2113,
      "Ġfun": 2114,
      "Ġship": 2115,
      "Ġwerd": 2116,
      "ming": 2117,
      "Ġoften": 2118,
      "Ġpaper": 2119,
      "Ġä½ł": 2120,
      "ĠSch": 2121,
      "åį": 2122,
      "eds": 2123,
      "Ġparty": 2124,
      "inner": 2125,
      "Ġkle": 2126,
      "ADU": 2127,
      "ijf": 2128,
      "Ġhund": 2129,
      "Ġclose": 2130,
      "Ġgebruik": 2131,
      "Kom": 2132,
      "Ġstra": 2133,
      "ĠPr": 2134,
      "itting": 2135,
      "ON": 2136,
      "Ġhundred": 2137,
      "Ġaren": 2138,
      "Ġev": 2139,
      "mp": 2140,
      "Ġges": 2141,
      "because": 2142,
      "ize": 2143,
      "Ġturned": 2144,
      "Ġhope": 2145,
      "BRO": 2146,
      "Ġlaat": 2147,
      "Look": 2148,
      "Ġprobably": 2149,
      "like": 2150,
      "Ġloc": 2151,
      "Ġpresent": 2152,
      "éĩ": 2153,
      "ience": 2154,
      "Ġkrij": 2155,
      "rying": 2156,
      "aybe": 2157,
      "Ġbear": 2158,
      "ieren": 2159,
      "Ġquick": 2160,
      "Ġaw": 2161,
      "ai": 2162,
      "ists": 2163,
      "ron": 2164,
      "Ġcompl": 2165,
      "ĠÂ·": 2166,
      "Ġvoice": 2167,
      "Ġbehind": 2168,
      "Ġcir": 2169,
      "Ġgem": 2170,
      "ĠDaddy": 2171,
      "Ġfull": 2172,
      "ĠBrit": 2173,
      "fl": 2174,
      "Ġmeans": 2175,
      "erv": 2176,
      "CDS": 2177,
      "Ġmusic": 2178,
      "ator": 2179,
      "open": 2180,
      "åĩ": 2181,
      "ĠHow": 2182,
      "åĬ": 2183,
      "Ġable": 2184,
      "Ġgotta": 2185,
      "Ġes": 2186,
      "ured": 2187,
      "Ġbrought": 2188,
      "Are": 2189,
      "Ġchair": 2190,
      "¦ģ": 2191,
      "Ġpull": 2192,
      "thank": 2193,
      "è®": 2194,
      "Ġline": 2195,
      "IG": 2196,
      "Ġsat": 2197,
      "Ġtree": 2198,
      "Ã©n": 2199,
      "Ġmonth": 2200,
      "Ġgirls": 2201,
      "Ġcolor": 2202,
      "more": 2203,
      "Ġsir": 2204,
      "----": 2205,
      "è¦ģ": 2206,
      "Ġmouth": 2207,
      "vern": 2208,
      "Ġblue": 2209,
      "Sh": 2210,
      "Ġfront": 2211,
      "Ġoutside": 2212,
      "ĠPh": 2213,
      "van": 2214,
      "ĠThomas": 2215,
      "Ġvl": 2216,
      "Ġwants": 2217,
      "ized": 2218,
      "ides": 2219,
      "Ġjou": 2220,
      "rom": 2221,
      "Ġdraw": 2222,
      "Ġkomen": 2223,
      "Ġmakes": 2224,
      "for": 2225,
      "Ġyourself": 2226,
      "ĠGerman": 2227,
      "son": 2228,
      "eng": 2229,
      "llo": 2230,
      "Ġinc": 2231,
      "Ġzeg": 2232,
      "inc": 2233,
      "Right": 2234,
      "uc": 2235,
      "Ġrock": 2236,
      "Ġbas": 2237,
      "amed": 2238,
      "Ġhurt": 2239,
      "Ġless": 2240,
      "ained": 2241,
      "Ġrele": 2242,
      "arm": 2243,
      "aim": 2244,
      "Ġcook": 2245,
      "Ġwin": 2246,
      "lor": 2247,
      "ellen": 2248,
      "ĠGe": 2249,
      "Ġ196": 2250,
      "Ġpoor": 2251,
      "Ġsever": 2252,
      "ouble": 2253,
      "dig": 2254,
      "Ġseemed": 2255,
      "hey": 2256,
      "As": 2257,
      "ped": 2258,
      "Ġocc": 2259,
      "Ġleven": 2260,
      "Ġpower": 2261,
      "Ġlady": 2262,
      "Ġshort": 2263,
      "Ġhappy": 2264,
      "ĠFrank": 2265,
      "Ġprom": 2266,
      "selves": 2267,
      "MA": 2268,
      "Ġeng": 2269,
      "è§": 2270,
      "ately": 2271,
      "ica": 2272,
      "Ġcouldn": 2273,
      "reet": 2274,
      "Ġfell": 2275,
      "Ġve": 2276,
      "åĪ°": 2277,
      "ones": 2278,
      "irth": 2279,
      "Ġminutes": 2280,
      "olly": 2281,
      "Ġnet": 2282,
      "aren": 2283,
      "ider": 2284,
      "Ġpicture": 2285,
      "Ġpat": 2286,
      "Ġfore": 2287,
      "anger": 2288,
      "ĠTHE": 2289,
      "Did": 2290,
      "eden": 2291,
      "iden": 2292,
      "Ġbloed": 2293,
      "å¿": 2294,
      "ooit": 2295,
      "ï¿½ï¿½": 2296,
      "ara": 2297,
      "Ġgek": 2298,
      "onden": 2299,
      "Ġimp": 2300,
      "ussen": 2301,
      "ium": 2302,
      "Ġtaken": 2303,
      "Ġdeath": 2304,
      "Ġhuh": 2305,
      "Ġbird": 2306,
      "jor": 2307,
      "Ġtoch": 2308,
      "pped": 2309,
      "unch": 2310,
      "ING": 2311,
      "Ġbag": 2312,
      "Ġlarge": 2313,
      "Ġ17": 2314,
      "Ġmain": 2315,
      "ĠHis": 2316,
      "ative": 2317,
      "vo": 2318,
      "onn": 2319,
      "Ġ15": 2320,
      "alt": 2321,
      "Ġfine": 2322,
      "voor": 2323,
      "fully": 2324,
      "Ġâ": 2325,
      "Ġorgan": 2326,
      "Ġmine": 2327,
      "åŃĲ": 2328,
      "Ġrather": 2329,
      "ift": 2330,
      "ederland": 2331,
      "ĠEnglish": 2332,
      "ĠHar": 2333,
      "Ġsold": 2334,
      "ains": 2335,
      "Ġimportant": 2336,
      "ĠOn": 2337,
      "Ġcamp": 2338,
      "æĬ": 2339,
      "å·": 2340,
      "Ġru": 2341,
      "bit": 2342,
      "Ġty": 2343,
      "used": 2344,
      "head": 2345,
      "Ġgreen": 2346,
      "Ġpri": 2347,
      "ĠJack": 2348,
      "å¤§": 2349,
      "çİ": 2350,
      "Ġecht": 2351,
      "æ²¡": 2352,
      "erk": 2353,
      "Ġcup": 2354,
      "ention": 2355,
      "Ġstrong": 2356,
      "Ġmark": 2357,
      "Ġones": 2358,
      "Ġbeaut": 2359,
      "Ġlearn": 2360,
      "Ġwords": 2361,
      "Good": 2362,
      "iter": 2363,
      "oth": 2364,
      "Ġgovern": 2365,
      "Ġstuff": 2366,
      "irty": 2367,
      "Ġtaking": 2368,
      "Ġserv": 2369,
      "Ġpos": 2370,
      "acter": 2371,
      "ĠJan": 2372,
      "Ġversch": 2373,
      "stem": 2374,
      "II": 2375,
      "For": 2376,
      "Ġelk": 2377,
      "Ġplan": 2378,
      "Ġexc": 2379,
      "å¼": 2380,
      "åĨ": 2381,
      "Ġie": 2382,
      "Ġpast": 2383,
      "Ġhappen": 2384,
      "arch": 2385,
      "Ġmovie": 2386,
      "Ġgroup": 2387,
      "Ġfelt": 2388,
      "Ġsun": 2389,
      "ĠFor": 2390,
      "ilt": 2391,
      "Ġopp": 2392,
      "Ġchang": 2393,
      "Ġinside": 2394,
      "ĠThen": 2395,
      "Ġfur": 2396,
      "ris": 2397,
      "å¯": 2398,
      "Mr": 2399,
      "Ġage": 2400,
      "Ġcold": 2401,
      "Ġelect": 2402,
      "Ġguess": 2403,
      ".'": 2404,
      "ĠWhen": 2405,
      "ney": 2406,
      "Ġmaybe": 2407,
      "Ġmyself": 2408,
      "llen": 2409,
      "Ġtwenty": 2410,
      "Ġhele": 2411,
      "have": 2412,
      "Ġdro": 2413,
      "Ġeither": 2414,
      "Ġbody": 2415,
      "Ġprot": 2416,
      "å¸": 2417,
      "ments": 2418,
      "Ġdress": 2419,
      "iously": 2420,
      "Ġgiven": 2421,
      "cil": 2422,
      "ĠFrance": 2423,
      "Ġinclud": 2424,
      "Ġbirth": 2425,
      "ĠKing": 2426,
      "Ġbusiness": 2427,
      "oel": 2428,
      "ism": 2429,
      "Ġlaw": 2430,
      "ley": 2431,
      "Ġago": 2432,
      "ense": 2433,
      "ä¸Ĭ": 2434,
      "ges": 2435,
      "ĠNederland": 2436,
      "Ġclass": 2437,
      "icks": 2438,
      "ution": 2439,
      "Ġtrans": 2440,
      "Ġwerk": 2441,
      "Ġinform": 2442,
      "Ġtele": 2443,
      "Ġground": 2444,
      "Ġtoys": 2445,
      "Ġrepl": 2446,
      "ĠThat": 2447,
      "å¹": 2448,
      "door": 2449,
      "Ġwomen": 2450,
      "iting": 2451,
      "Ġnooit": 2452,
      "ians": 2453,
      "ĠEd": 2454,
      "Ġlate": 2455,
      "inging": 2456,
      "Can": 2457,
      "Ġvrouw": 2458,
      "Ġ12": 2459,
      "Ġverd": 2460,
      "acher": 2461,
      "Ġothers": 2462,
      "aptain": 2463,
      "Ġmess": 2464,
      "Ġwood": 2465,
      "Ġgets": 2466,
      "Ġexper": 2467,
      "bye": 2468,
      "rest": 2469,
      "Go": 2470,
      "Ġtem": 2471,
      "ä¹Ł": 2472,
      "ĠCar": 2473,
      "Ġwife": 2474,
      "ja": 2475,
      "Ġprov": 2476,
      "ĠIf": 2477,
      "ear": 2478,
      "æĸ": 2479,
      "Ġstate": 2480,
      "èĢ": 2481,
      "Ġfree": 2482,
      "Ġra": 2483,
      "eph": 2484,
      "born": 2485,
      "arling": 2486,
      "Ġzw": 2487,
      "sc": 2488,
      "ev": 2489,
      "Ġzelf": 2490,
      "Ġbur": 2491,
      "Ġpartic": 2492,
      "Ġrece": 2493,
      "aats": 2494,
      "Ġshop": 2495,
      "Ġquestion": 2496,
      "Ġroad": 2497,
      "oops": 2498,
      "Ġgrand": 2499,
      "Ġ16": 2500,
      "Ġchange": 2501,
      "Ġkilled": 2502,
      "morrow": 2503,
      "ĠYork": 2504,
      "Ġworking": 2505,
      "Ġsister": 2506,
      "ached": 2507,
      "è¿ĺ": 2508,
      "zelf": 2509,
      "Ġcase": 2510,
      "Ġband": 2511,
      "Ġgun": 2512,
      "iful": 2513,
      "ĠAust": 2514,
      "åİ»": 2515,
      "ĠMay": 2516,
      "Ġsometimes": 2517,
      "ald": 2518,
      "ubl": 2519,
      "arth": 2520,
      "Ġarea": 2521,
      "when": 2522,
      "Ġcap": 2523,
      "urs": 2524,
      "elijke": 2525,
      "Ġkon": 2526,
      "ially": 2527,
      "Ġlead": 2528,
      "Ġsea": 2529,
      "Ġseven": 2530,
      "Ġlisten": 2531,
      "ĠCan": 2532,
      "osp": 2533,
      "Ġheld": 2534,
      "ĠEuro": 2535,
      "ĠSam": 2536,
      "iving": 2537,
      "Ġcontro": 2538,
      "LT": 2539,
      "ĠDo": 2540,
      "Ġhit": 2541,
      "mo": 2542,
      "iversity": 2543,
      "Ġearly": 2544,
      "éĥ½": 2545,
      "Ġfig": 2546,
      "Ġlie": 2547,
      "geven": 2548,
      "ner": 2549,
      "ract": 2550,
      "ĠHer": 2551,
      "Ġaut": 2552,
      "gry": 2553,
      "Ġleast": 2554,
      "Ġcover": 2555,
      "Ġfav": 2556,
      "ummer": 2557,
      "Ġbar": 2558,
      "Ġsweet": 2559,
      "unning": 2560,
      "Ġdark": 2561,
      "ĠAd": 2562,
      "Ġspecial": 2563,
      "orld": 2564,
      "does": 2565,
      "ench": 2566,
      "two": 2567,
      "ana": 2568,
      "ĠJim": 2569,
      "çľĭ": 2570,
      "Ġstaat": 2571,
      "ĠWill": 2572,
      "Ġanimals": 2573,
      "owing": 2574,
      "ousand": 2575,
      "ham": 2576,
      "cher": 2577,
      "Ġheel": 2578,
      "Ġfunny": 2579,
      "Ġsomeone": 2580,
      "Ġacross": 2581,
      "eed": 2582,
      "Ġmount": 2583,
      "Ġlay": 2584,
      "Ġfinished": 2585,
      "tijd": 2586,
      "Ġfro": 2587,
      "Ġblij": 2588,
      "att": 2589,
      "Ġalone": 2590,
      "zoek": 2591,
      "Waarom": 2592,
      "ouden": 2593,
      "ĠZe": 2594,
      "Ġseveral": 2595,
      "Ġcor": 2596,
      "eeft": 2597,
      "Ġsucc": 2598,
      "Ġmot": 2599,
      "shall": 2600,
      "Ã©Ã©n": 2601,
      "Ġprof": 2602,
      "Ġwall": 2603,
      "Ġmill": 2604,
      "Ġjo": 2605,
      "æł": 2606,
      "20": 2607,
      "At": 2608,
      "reed": 2609,
      "Ġalles": 2610,
      "kken": 2611,
      "aced": 2612,
      "Ġvill": 2613,
      "Ġlu": 2614,
      "ĠJap": 2615,
      "idge": 2616,
      "artment": 2617,
      "Ġmilk": 2618,
      "Ġfing": 2619,
      "ijden": 2620,
      "Ġhorse": 2621,
      "aag": 2622,
      "Ġdeal": 2623,
      "ford": 2624,
      "Ġletter": 2625,
      "å¾Ĺ": 2626,
      "con": 2627,
      "Ġhat": 2628,
      "Ġfif": 2629,
      "velop": 2630,
      "Ġpot": 2631,
      "mas": 2632,
      "avy": 2633,
      "Ġ2020": 2634,
      "Ġwish": 2635,
      "ADULT": 2636,
      "ĠDon": 2637,
      "gest": 2638,
      "Ġdu": 2639,
      "Ġfish": 2640,
      "Ġtrue": 2641,
      "Ġcompany": 2642,
      "ĠÃ©Ã©n": 2643,
      "Ġfast": 2644,
      "aken": 2645,
      "Ġzei": 2646,
      "Get": 2647,
      "uary": 2648,
      "rict": 2649,
      "Ġthousand": 2650,
      "Ġ194": 2651,
      "oorden": 2652,
      "gens": 2653,
      "amb": 2654,
      "Ġcreat": 2655,
      "Ġtill": 2656,
      "Ġplant": 2657,
      "aam": 2658,
      "band": 2659,
      "allen": 2660,
      "Ġboat": 2661,
      "Ġjong": 2662,
      "veel": 2663,
      "Ġjump": 2664,
      "Ġarm": 2665,
      "Ġ195": 2666,
      "Ġamong": 2667,
      "Ġguy": 2668,
      "Ġfair": 2669,
      "Ġhist": 2670,
      "cri": 2671,
      "oren": 2672,
      "Ġkijk": 2673,
      "Ġblood": 2674,
      "Ġhon": 2675,
      "EST": 2676,
      "To": 2677,
      "Ġbra": 2678,
      "vely": 2679,
      "ices": 2680,
      "ĠRe": 2681,
      "Ġclot": 2682,
      "uis": 2683,
      "Ġnodig": 2684,
      "inet": 2685,
      "ĠPro": 2686,
      "isch": 2687,
      "Ġpost": 2688,
      "Ah": 2689,
      "Ġstru": 2690,
      "iel": 2691,
      "Your": 2692,
      "fort": 2693,
      "net": 2694,
      "orgen": 2695,
      "inning": 2696,
      "Ġbuy": 2697,
      "bum": 2698,
      "ration": 2699,
      "ived": 2700,
      "Ġclean": 2701,
      "ically": 2702,
      "beelding": 2703,
      "bij": 2704,
      "mon": 2705,
      "Ġusually": 2706,
      "ging": 2707,
      "ragen": 2708,
      "Ġvar": 2709,
      "eem": 2710,
      "aughter": 2711,
      "åı¯": 2712,
      "ĠSo": 2713,
      "ural": 2714,
      "oort": 2715,
      "Af": 2716,
      "Ġpopul": 2717,
      "AL": 2718,
      "Ġsend": 2719,
      "Ġdarling": 2720,
      "ounds": 2721,
      "then": 2722,
      "teen": 2723,
      "Ġsystem": 2724,
      "Ġgrote": 2725,
      "vision": 2726,
      "emy": 2727,
      "oos": 2728,
      "Ġlangu": 2729,
      "'.": 2730,
      "Here": 2731,
      "èĥ½": 2732,
      "Ġlad": 2733,
      "Ġblock": 2734,
      "åĵ": 2735,
      "PAT": 2736,
      "ä¸º": 2737,
      "Ġcond": 2738,
      "Ġsaf": 2739,
      "min": 2740,
      "ĠWorld": 2741,
      "Ġbecome": 2742,
      "Ħ¿": 2743,
      "aking": 2744,
      "éĹ": 2745,
      "Ġice": 2746,
      "owed": 2747,
      "ession": 2748,
      "ĠJapan": 2749,
      "Ġadv": 2750,
      "Ġmer": 2751,
      "oem": 2752,
      "Ġnine": 2753,
      "Ġalle": 2754,
      "ĠLe": 2755,
      "ĠJu": 2756,
      "å°ı": 2757,
      "Ġtried": 2758,
      "though": 2759,
      "Ġvast": 2760,
      "Ġtoen": 2761,
      "Ġfuck": 2762,
      "org": 2763,
      "gram": 2764,
      "hi": 2765,
      "zy": 2766,
      "Ġstar": 2767,
      "Ġliving": 2768,
      "Ġpage": 2769,
      "ĠCount": 2770,
      "ĠEurope": 2771,
      "Ġyellow": 2772,
      "Ġlaug": 2773,
      "Ġreason": 2774,
      "æĹ¶": 2775,
      "eared": 2776,
      "Ġclim": 2777,
      "||": 2778,
      "Ġgebe": 2779,
      "è·": 2780,
      "Ġvriend": 2781,
      "Ġbooks": 2782,
      "ĠOr": 2783,
      "ogra": 2784,
      "]?": 2785,
      "Ġran": 2786,
      "Ġreport": 2787,
      "Ġdinner": 2788,
      "friend": 2789,
      "uren": 2790,
      "Ġtruck": 2791,
      "UN": 2792,
      "Ġ11": 2793,
      "Ġpen": 2794,
      "ager": 2795,
      "Ġalright": 2796,
      "lo": 2797,
      "ued": 2798,
      "Ġsomebody": 2799,
      "Ġsoc": 2800,
      "ument": 2801,
      "Ġconc": 2802,
      "ories": 2803,
      "omp": 2804,
      "ĠOh": 2805,
      "çĿ": 2806,
      "Ġsitting": 2807,
      "Ġdi": 2808,
      "ĠMan": 2809,
      "ĠX": 2810,
      "Of": 2811,
      "eek": 2812,
      "Ġdag": 2813,
      "oms": 2814,
      "Ġattack": 2815,
      "Ġachter": 2816,
      "igin": 2817,
      "ĠBritish": 2818,
      "æŃ": 2819,
      "Ġap": 2820,
      "IT": 2821,
      "Ġmommy": 2822,
      "Ġfly": 2823,
      "ays": 2824,
      "Wel": 2825,
      "Ġmidd": 2826,
      "Ġins": 2827,
      "die": 2828,
      "Ġwrite": 2829,
      "Ġtouch": 2830,
      "ĠEn": 2831,
      "Ġeffect": 2832,
      "Ġphone": 2833,
      "Ġnorth": 2834,
      "Ġbeautiful": 2835,
      "Ġtakes": 2836,
      "Ġca": 2837,
      "Ġkunt": 2838,
      "Ġglad": 2839,
      "ĠBlack": 2840,
      "ility": 2841,
      "Ġguys": 2842,
      "ada": 2843,
      "Ġlived": 2844,
      "aged": 2845,
      "Ġaltijd": 2846,
      "alright": 2847,
      "Ġherself": 2848,
      "pril": 2849,
      "AS": 2850,
      "Ga": 2851,
      "makes": 2852,
      "ott": 2853,
      "Ġegg": 2854,
      "ĠEen": 2855,
      "ä¼ļ": 2856,
      "Ġonze": 2857,
      "Ġobject": 2858,
      "Ġstep": 2859,
      "ĠPar": 2860,
      "ended": 2861,
      "ĠEr": 2862,
      "ĠJanuary": 2863,
      "Ġfellow": 2864,
      "Ġalbum": 2865,
      "Ġroll": 2866,
      "ĠMa": 2867,
      "Ġwaren": 2868,
      "Ġtussen": 2869,
      "Ġtoe": 2870,
      "Ġperhaps": 2871,
      "Ġproblem": 2872,
      "One": 2873,
      "Ġlist": 2874,
      "Ġbirthday": 2875,
      "Ġelkaar": 2876,
      "Ġzit": 2877,
      "ĠPl": 2878,
      "ox": 2879,
      "arden": 2880,
      "Ġrunning": 2881,
      "hello": 2882,
      "Ġreleased": 2883,
      "Ġfootball": 2884,
      "ality": 2885,
      "ances": 2886,
      "irt": 2887,
      "Jij": 2888,
      "Daar": 2889,
      "Ġthinking": 2890,
      "ĠCHI": 2891,
      "ping": 2892,
      "Ġquiet": 2893,
      "Ġdoctor": 2894,
      "ugust": 2895,
      "Ġgener": 2896,
      "Ġdoe": 2897,
      "alen": 2898,
      "iger": 2899,
      "uhhuh": 2900,
      "alth": 2901,
      "ĠSw": 2902,
      "gel": 2903,
      "Ġda": 2904,
      "Ġ14": 2905,
      "yl": 2906,
      "éĿ": 2907,
      "rijk": 2908,
      "Ġwet": 2909,
      "ĠTr": 2910,
      "ocal": 2911,
      "unk": 2912,
      "wij": 2913,
      "Ġfix": 2914,
      "Ġoper": 2915,
      "Ġdenk": 2916,
      "Sorry": 2917,
      "Ġdevelop": 2918,
      "Ġsoft": 2919,
      "Ġwindow": 2920,
      "urg": 2921,
      "oose": 2922,
      "UR": 2923,
      "ĠIk": 2924,
      "ĠNorth": 2925,
      "raid": 2926,
      "Ġresult": 2927,
      "par": 2928,
      "Ġtoy": 2929,
      "aser": 2930,
      "iers": 2931,
      "Ġdra": 2932,
      "Ġdrie": 2933,
      "Ġconst": 2934,
      "Ġvolg": 2935,
      "Ġtomorrow": 2936,
      "Ġya": 2937,
      "Ġtrouble": 2938,
      "Re": 2939,
      "orge": 2940,
      "Ġhuis": 2941,
      "âĮ": 2942,
      "Ġgroot": 2943,
      "Ġanswered": 2944,
      "hel": 2945,
      "Ġbinnen": 2946,
      "Ġhur": 2947,
      "Ġton": 2948,
      "ello": 2949,
      "Ġfit": 2950,
      "omin": 2951,
      "owers": 2952,
      "que": 2953,
      "åĦ¿": 2954,
      "Ġsuppose": 2955,
      "Ġzegt": 2956,
      "chen": 2957,
      "lex": 2958,
      "ĠEl": 2959,
      "rat": 2960,
      "ĠTom": 2961,
      "unic": 2962,
      "bles": 2963,
      "ĠGrand": 2964,
      "oofd": 2965,
      "kom": 2966,
      "Ġeigen": 2967,
      "Ġwithin": 2968,
      "Ġthemselves": 2969,
      "Erm": 2970,
      "Ġverl": 2971,
      "ĠJune": 2972,
      "Ġkept": 2973,
      "Ġfamil": 2974,
      "çĪ": 2975,
      "åĲİ": 2976,
      "Ġcried": 2977,
      "ctober": 2978,
      "ĠFrench": 2979,
      "ATOR": 2980,
      "sl": 2981,
      "Ġill": 2982,
      "ĠCon": 2983,
      "emaal": 2984,
      "ĠPat": 2985,
      "Ġseries": 2986,
      "Ġdiffic": 2987,
      "Ġ193": 2988,
      "Ġsurpr": 2989,
      "Ġgovernment": 2990,
      "ondon": 2991,
      "ĠMarch": 2992,
      "val": 2993,
      "eptember": 2994,
      "TER": 2995,
      "Ġcou": 2996,
      "ĠTo": 2997,
      "Ġiemand": 2998,
      "Ġhang": 2999,
      "elling": 3000,
      "Ġlives": 3001,
      "dden": 3002,
      "geb": 3003,
      "Ġexcl": 3004,
      "Ġzeggen": 3005,
      "Ġsamen": 3006,
      "INVEST": 3007,
      "IGATOR": 3008,
      "INVESTIGATOR": 3009,
      "co": 3010,
      "Ġdood": 3011,
      "ä»¥": 3012,
      "aff": 3013,
      "ining": 3014,
      "Ġchance": 3015,
      "ba": 3016,
      "Ġdiv": 3017,
      "ĠPeter": 3018,
      "Ġpig": 3019,
      "Ġstood": 3020,
      "Ġzoals": 3021,
      "cer": 3022,
      "Ġfilm": 3023,
      "cember": 3024,
      "Ġclos": 3025,
      "Ġain": 3026,
      "erg": 3027,
      "chien": 3028,
      "Ġeating": 3029,
      "AP": 3030,
      "uwe": 3031,
      "Ġsnow": 3032,
      "ander": 3033,
      "ĠWar": 3034,
      "rit": 3035,
      "Ġafraid": 3036,
      "stead": 3037,
      "å¤©": 3038,
      "Ġnose": 3039,
      ",'": 3040,
      "hern": 3041,
      "ute": 3042,
      "aart": 3043,
      "Ġshot": 3044,
      "ĠDr": 3045,
      "Ġmis": 3046,
      "Ġnamed": 3047,
      "ardon": 3048,
      "zer": 3049,
      "ales": 3050,
      "Ġproper": 3051,
      "Ġcatch": 3052,
      "Ġdou": 3053,
      "Ġhowever": 3054,
      "è¿ĩ": 3055,
      "ullen": 3056,
      "Ġsche": 3057,
      "Ġpossible": 3058,
      "Ġknows": 3059,
      "Ġsingle": 3060,
      "Ġcannot": 3061,
      "ä¸ĭ": 3062,
      "Because": 3063,
      "Ġkeer": 3064,
      "Ġsudden": 3065,
      "Ġwarm": 3066,
      "Ġcheck": 3067,
      "Ġworked": 3068,
      "ĠAng": 3069,
      "çĽ": 3070,
      "Ġappro": 3071,
      "Ġrain": 3072,
      "Ġcomplet": 3073,
      "Ġeerste": 3074,
      "king": 3075,
      "eling": 3076,
      "Ġdeep": 3077,
      "Heb": 3078,
      "Ġtired": 3079,
      "Ġcal": 3080,
      "Ġlaten": 3081,
      "åĴ": 3082,
      "Ġdus": 3083,
      "ĠEngland": 3084,
      "Ġcross": 3085,
      "Ġgeh": 3086,
      "ĠSte": 3087,
      "point": 3088,
      "Ġgod": 3089,
      "Ġabs": 3090,
      "Ġclothes": 3091,
      "ĠAb": 3092,
      "Ġsuper": 3093,
      "åº": 3094,
      "urch": 3095,
      "erence": 3096,
      "Ġnational": 3097,
      "Ġabove": 3098,
      "å®¶": 3099,
      "Die": 3100,
      "Ġverk": 3101,
      "ĠLord": 3102,
      "Ġteacher": 3103,
      "Ġir": 3104,
      "Ġsol": 3105,
      "Ġnoises": 3106,
      "ĠSpan": 3107,
      "mat": 3108,
      "Ġpublic": 3109,
      "Ġla": 3110,
      "Ġequ": 3111,
      "ĠSouth": 3112,
      "lease": 3113,
      "Ġniets": 3114,
      "ä»Ģ": 3115,
      "Ġbath": 3116,
      "Ġprogram": 3117,
      "ample": 3118,
      "ouncil": 3119,
      "éģ": 3120,
      "ending": 3121,
      "Ġpress": 3122,
      "Ġkun": 3123,
      "Ġyours": 3124,
      "ĠOctober": 3125,
      "ä»Ģä¹Ī": 3126,
      "oto": 3127,
      "itch": 3128,
      "Ġmoved": 3129,
      "andy": 3130,
      "ler": 3131,
      "icken": 3132,
      "ĠApril": 3133,
      "Ex": 3134,
      "ĠSeptember": 3135,
      "Ġafbeelding": 3136,
      "Ġwhether": 3137,
      "çĿĢ": 3138,
      "Some": 3139,
      "å¯¹": 3140,
      "Ġhours": 3141,
      "Ġlovely": 3142,
      "gue": 3143,
      "aard": 3144,
      "Miss": 3145,
      "Ġcorn": 3146,
      "com": 3147,
      "Goed": 3148,
      "singing": 3149,
      "ene": 3150,
      "which": 3151,
      "Ġfield": 3152,
      "ĠChristmas": 3153,
      "Ġbank": 3154,
      "ips": 3155,
      "Ġregion": 3156,
      "Ġmarried": 3157,
      "Ġputting": 3158,
      "æķ": 3159,
      "Bl": 3160,
      "kÃ©": 3161,
      "uthor": 3162,
      "umb": 3163,
      "fer": 3164,
      "Ġcra": 3165,
      "æĥ³": 3166,
      "Ġwij": 3167,
      "ĠCounty": 3168,
      "Ġmonths": 3169,
      "Ġvillage": 3170,
      "fast": 3171,
      "Ġ13": 3172,
      "äºĭ": 3173,
      "Ġcommon": 3174,
      "Ġpassed": 3175,
      "ebru": 3176,
      "igg": 3177,
      "ĠAls": 3178,
      "Ġplaats": 3179,
      "Ġzie": 3180,
      "ebruary": 3181,
      "Ġdet": 3182,
      "ggest": 3183,
      "Ġbang": 3184,
      "Ġmember": 3185,
      "èĩ": 3186,
      "Ġerg": 3187,
      "ection": 3188,
      "hold": 3189,
      "iten": 3190,
      "iew": 3191,
      "Ġrad": 3192,
      "Ġtape": 3193,
      "å¦": 3194,
      "Ġcos": 3195,
      "éĩĮ": 3196,
      "Ġaant": 3197,
      "ision": 3198,
      "ĠYOU": 3199,
      "ä¸Ģä¸ª": 3200,
      "Fr": 3201,
      "Ġkiss": 3202,
      "ĠLondon": 3203,
      "åĩº": 3204,
      "Ġclear": 3205,
      "Ġsounds": 3206,
      "Ġgewoon": 3207,
      "Ġstaan": 3208,
      "ĠAfter": 3209,
      "Ġeasy": 3210,
      "Ġforward": 3211,
      "Ġthird": 3212,
      "Ġsuggest": 3213,
      "Ġseems": 3214,
      "ĠNove": 3215,
      "ĠJuly": 3216,
      "Ġhus": 3217,
      "ĠHij": 3218,
      "oeg": 3219,
      "nie": 3220,
      "Ġboard": 3221,
      "Ġsuccess": 3222,
      "attle": 3223,
      "entle": 3224,
      "aimed": 3225,
      "Ġknock": 3226,
      "Ġtest": 3227,
      "erm": 3228,
      "Ġlow": 3229,
      "Ġmid": 3230,
      "Ġbron": 3231,
      "nam": 3232,
      "ĠOne": 3233,
      "æ¯": 3234,
      "erde": 3235,
      "wo": 3236,
      "Ġtreat": 3237,
      "ĠAugust": 3238,
      "Ġorigin": 3239,
      "ĠNovember": 3240,
      "Have": 3241,
      "Ġantw": 3242,
      "Ġclub": 3243,
      "Ġsupport": 3244,
      "Ġdad": 3245,
      "ature": 3246,
      "Ġverschill": 3247,
      "gas": 3248,
      "Ġstation": 3249,
      "ĠItal": 3250,
      "your": 3251,
      "Ġsight": 3252,
      "asure": 3253,
      "éĢ": 3254,
      "Mijn": 3255,
      "çī": 3256,
      "bt": 3257,
      "Ġging": 3258,
      "aint": 3259,
      "play": 3260,
      "SO": 3261,
      "was": 3262,
      "Ġnorm": 3263,
      "Ġbelang": 3264,
      "å¤ļ": 3265,
      "Ġweten": 3266,
      "Ġ30": 3267,
      "Ġpolice": 3268,
      "Ġfeeling": 3269,
      "ĠUniversity": 3270,
      "Ġperfect": 3271,
      "åĳ¢": 3272,
      "Ġmemb": 3273,
      "enny": 3274,
      "Ġstraight": 3275,
      "ĠAustral": 3276,
      "Ġpoints": 3277,
      "etje": 3278,
      "ask": 3279,
      "ĠMc": 3280,
      "Ġest": 3281,
      "het": 3282,
      "Ġlots": 3283,
      "Ġdaughter": 3284,
      "dracht": 3285,
      "Ġreached": 3286,
      "Ġring": 3287,
      "Ġarms": 3288,
      "ĠMOT": 3289,
      "Ġluck": 3290,
      "ograph": 3291,
      "Ġmoo": 3292,
      "Ġcow": 3293,
      "Ġuw": 3294,
      "æĦ": 3295,
      "ĠDecember": 3296,
      "Ġhuman": 3297,
      "Ġdream": 3298,
      "è¿Ļä¸ª": 3299,
      "Laat": 3300,
      "å½": 3301,
      "stairs": 3302,
      "GMA": 3303,
      "rijf": 3304,
      "Ġgarden": 3305,
      "Ġgrow": 3306,
      "Ġwelke": 3307,
      "Ġtelevision": 3308,
      "RI": 3309,
      "ram": 3310,
      "Ġvide": 3311,
      "Ġverh": 3312,
      "obert": 3313,
      "ees": 3314,
      "Ġsuff": 3315,
      "Ġval": 3316,
      "ĠPres": 3317,
      "æĪĳä»¬": 3318,
      "Ġhol": 3319,
      "with": 3320,
      "ising": 3321,
      "Ġpo": 3322,
      "Ġvraag": 3323,
      "Ġallemaal": 3324,
      "Ġmist": 3325,
      "æĭ": 3326,
      "Ġwaiting": 3327,
      "Ġhop": 3328,
      "Ġreturned": 3329,
      "joy": 3330,
      "Ġlonger": 3331,
      "Ġfavor": 3332,
      "Ġhusband": 3333,
      "Ġsick": 3334,
      "Ġking": 3335,
      "umm": 3336,
      "ĠFebruary": 3337,
      "rey": 3338,
      "Ġbreat": 3339,
      "ases": 3340,
      "Ġexact": 3341,
      "Ġesc": 3342,
      "ills": 3343,
      "night": 3344,
      "Ġgeld": 3345,
      "ĠBar": 3346,
      "Ġshoes": 3347,
      "Ġbuilding": 3348,
      "ED": 3349,
      "è¡": 3350,
      "Ġsand": 3351,
      "Ġshout": 3352,
      "ĠPhil": 3353,
      "Ġarri": 3354,
      "Ġsteeds": 3355,
      "Ġmembers": 3356,
      "Ġforget": 3357,
      "Ġcry": 3358,
      "ĠRuss": 3359,
      "ĠYes": 3360,
      "Ġkit": 3361,
      "Ġsitu": 3362,
      "Every": 3363,
      "Ġtel": 3364,
      "Ġninet": 3365,
      "Ġquickly": 3366,
      "Ġfrog": 3367,
      "ified": 3368,
      "Ġcouple": 3369,
      "Ġhy": 3370,
      "Ġwear": 3371,
      "Ġoffice": 3372,
      "Ġcompet": 3373,
      "Ġvinden": 3374,
      "Ġjuice": 3375,
      "Ġcop": 3376,
      "ooh": 3377,
      "ĠMin": 3378,
      "ereen": 3379,
      "Ġsail": 3380,
      "Ġnearly": 3381,
      "Ġmillion": 3382,
      "ĠCol": 3383,
      "unity": 3384,
      "ashing": 3385,
      "Ġant": 3386,
      "iol": 3387,
      "isper": 3388,
      "Ġslow": 3389,
      "Ġthrow": 3390,
      "Ġview": 3391,
      "Ġ25": 3392,
      "Ġwereld": 3393,
      "Ġgedaan": 3394,
      "ijt": 3395,
      "Ġexample": 3396,
      "Or": 3397,
      "some": 3398,
      "ospital": 3399,
      "iday": 3400,
      "Zo": 3401,
      "ror": 3402,
      "Ġeye": 3403,
      "Ġengine": 3404,
      "Ġdaddy": 3405,
      "ior": 3406,
      "Ġpract": 3407,
      "ĠWest": 3408,
      "Ġnieuwe": 3409,
      "Ġ#": 3410,
      "Ġdanger": 3411,
      "Ġanyway": 3412,
      "Ġputs": 3413,
      "åĲĹ": 3414,
      "Ġreplied": 3415,
      "Ġav": 3416,
      "Ġvragen": 3417,
      "Ġcre": 3418,
      "Ġstri": 3419,
      "Please": 3420,
      "Ġied": 3421,
      "Ġdam": 3422,
      "Ġbroken": 3423,
      "iment": 3424,
      "Ġcaught": 3425,
      "Ġled": 3426,
      "å°±æĺ¯": 3427,
      "ç»Ļ": 3428,
      "Ġjuist": 3429,
      "Ġdoet": 3430,
      "ĠCal": 3431,
      "Ġlig": 3432,
      "Ġanders": 3433,
      "Ġfollowing": 3434,
      "Ġposition": 3435,
      "Ġgeneral": 3436,
      "Ġmajor": 3437,
      "ĠGen": 3438,
      "dom": 3439,
      "Ġcake": 3440,
      "Ġwhatever": 3441,
      "Ġtonight": 3442,
      "Ġsouth": 3443,
      "arr": 3444,
      "ĠOl": 3445,
      "Ġzij": 3446,
      "Ġbev": 3447,
      "Ġcirc": 3448,
      "Ġinde": 3449,
      "ĠPe": 3450,
      "ology": 3451,
      "work": 3452,
      "Ġstad": 3453,
      "See": 3454,
      "Ġmach": 3455,
      "Ġstat": 3456,
      "After": 3457,
      "Ġforgot": 3458,
      "Ġtoward": 3459,
      "Ġwillen": 3460,
      "Ġadm": 3461,
      "uel": 3462,
      "zo": 3463,
      "Ġevening": 3464,
      "åľ°": 3465,
      "pes": 3466,
      "Ġgentle": 3467,
      "Ġvader": 3468,
      "empt": 3469,
      "rie": 3470,
      "Ġheavy": 3471,
      "Ġexcept": 3472,
      "Ġeverybody": 3473,
      "Ġpark": 3474,
      "Ġrequ": 3475,
      "lands": 3476,
      "ĠRep": 3477,
      "ored": 3478,
      "Ġkinderen": 3479,
      "ico": 3480,
      "ĠNor": 3481,
      "Ġtrack": 3482,
      "Ġdepartment": 3483,
      "Stop": 3484,
      "would": 3485,
      "Ġdest": 3486,
      "Ġbroke": 3487,
      "bers": 3488,
      "ino": 3489,
      "Ġzitten": 3490,
      "Ġspir": 3491,
      "çŁ": 3492,
      "è°": 3493,
      "Ġeind": 3494,
      "Ġshut": 3495,
      "say": 3496,
      "Ġseem": 3497,
      "åĲ§": 3498,
      "Ġpieces": 3499,
      "Ġkids": 3500,
      "Ġcost": 3501,
      "ĠSu": 3502,
      "resent": 3503,
      "Dan": 3504,
      "sk": 3505,
      "Ġann": 3506,
      "ades": 3507,
      "Ġdecided": 3508,
      "Ġtrees": 3509,
      "wel": 3510,
      "Ġstanding": 3511,
      "sings": 3512,
      "ya": 3513,
      "Ġcarry": 3514,
      "Ġcertainly": 3515,
      "aven": 3516,
      "ding": 3517,
      "ID": 3518,
      "Ġplaces": 3519,
      "chn": 3520,
      "Ġformer": 3521,
      "Ġseat": 3522,
      "Ġomdat": 3523,
      "Ġfollowed": 3524,
      "rent": 3525,
      "ç§": 3526,
      "Ġah": 3527,
      "reek": 3528,
      "Ġtowards": 3529,
      "Ġneeds": 3530,
      "cing": 3531,
      "Ġbuilt": 3532,
      "Ġvolgende": 3533,
      "da": 3534,
      "Ã¯": 3535,
      "terday": 3536,
      "iety": 3537,
      "Ġprop": 3538,
      "Ġbreakfast": 3539,
      "Ġauthor": 3540,
      "Ġopened": 3541,
      "Ġperform": 3542,
      "å¥¹": 3543,
      "even": 3544,
      "iles": 3545,
      "ocol": 3546,
      "Ġmiddle": 3547,
      "anden": 3548,
      "Any": 3549,
      "iny": 3550,
      "Ġmeest": 3551,
      "clock": 3552,
      "Ġweeks": 3553,
      "Ġchanged": 3554,
      "Ġbab": 3555,
      "ĠPaul": 3556,
      "ĠJoe": 3557,
      "With": 3558,
      "maybe": 3559,
      "water": 3560,
      "ĠSome": 3561,
      "Ġvisit": 3562,
      "Ġahead": 3563,
      "Ġdru": 3564,
      "icy": 3565,
      "str": 3566,
      "Ġlanguage": 3567,
      "ancy": 3568,
      "Ġonderzoek": 3569,
      "pers": 3570,
      "Ã¨": 3571,
      "itty": 3572,
      "give": 3573,
      "gelijk": 3574,
      "ĠTO": 3575,
      "Ġwilde": 3576,
      "Ġworry": 3577,
      "ĠFlor": 3578,
      "Ġhungry": 3579,
      "Ġoor": 3580,
      "Ġshoot": 3581,
      "ius": 3582,
      "Ġearth": 3583,
      "emen": 3584,
      "Ġwritten": 3585,
      "bre": 3586,
      "Ġhig": 3587,
      "Ġlaughs": 3588,
      "Ġreach": 3589,
      "ĠAm": 3590,
      "Ġhors": 3591,
      "Ġke": 3592,
      "ĠCity": 3593,
      "Ġfill": 3594,
      "ishing": 3595,
      "Ġmm": 3596,
      "Ġduck": 3597,
      "Ġhole": 3598,
      "ushed": 3599,
      "icro": 3600,
      "Ġafterno": 3601,
      "çĤ": 3602,
      "Ġnews": 3603,
      "Ġinstead": 3604,
      "çİ°": 3605,
      "Ġriver": 3606,
      "Ġdisapp": 3607,
      "Ġbott": 3608,
      "10": 3609,
      "Ġpuzz": 3610,
      "çĦ": 3611,
      "Ġkitchen": 3612,
      "Hello": 3613,
      "child": 3614,
      "gro": 3615,
      "åģ": 3616,
      "Ġmur": 3617,
      "Ġnou": 3618,
      "Ġcomput": 3619,
      "STE": 3620,
      "gu": 3621,
      "Ġprec": 3622,
      "baar": 3623,
      "Ġspl": 3624,
      "isk": 3625,
      "Ġhoofd": 3626,
      "ĠMy": 3627,
      "ĠAN": 3628,
      "Ġusing": 3629,
      "ĠTH": 3630,
      "angen": 3631,
      "Ġsnel": 3632,
      "gar": 3633,
      "æŀ": 3634,
      "Ġcareful": 3635,
      "Ġdistrict": 3636,
      "éģĵ": 3637,
      "Ġmeant": 3638,
      "Ġquar": 3639,
      "Ġworks": 3640,
      "çĶŁ": 3641,
      "Ġfail": 3642,
      "ĠComm": 3643,
      "Ġseason": 3644,
      "ELS": 3645,
      "Ġ0": 3646,
      "rel": 3647,
      "Ġbi": 3648,
      "Ġport": 3649,
      "oten": 3650,
      "ĠWat": 3651,
      "ends": 3652,
      "Ġanyone": 3653,
      "rang": 3654,
      "abel": 3655,
      "ĠOp": 3656,
      "Ġcharacter": 3657,
      "Niet": 3658,
      "rab": 3659,
      "ipe": 3660,
      "Ġlocal": 3661,
      "ĠHarry": 3662,
      "Op": 3663,
      "Ġut": 3664,
      "ĠGu": 3665,
      "ĠPer": 3666,
      "Ben": 3667,
      "Ġhell": 3668,
      "Ġhistory": 3669,
      "ä¿": 3670,
      "Ġactiv": 3671,
      "sy": 3672,
      "ĠYeah": 3673,
      "Ġincluding": 3674,
      "Ġsecret": 3675,
      "Ġglass": 3676,
      "çĦ¶": 3677,
      "will": 3678,
      "æ¬": 3679,
      "Ġexpect": 3680,
      "Ġwie": 3681,
      "Ġservice": 3682,
      "ĠMe": 3683,
      "arty": 3684,
      "Ġreceived": 3685,
      "bing": 3686,
      "Ġgold": 3687,
      "ĠDit": 3688,
      "rible": 3689,
      "la": 3690,
      "Ġvideo": 3691,
      "Ġafternoon": 3692,
      "ä¸Ń": 3693,
      "Ġkrijgen": 3694,
      "Ġdifficult": 3695,
      "èĩª": 3696,
      "Ġcommand": 3697,
      "Ġfarm": 3698,
      "board": 3699,
      "Ġlegs": 3700,
      "Ġdrive": 3701,
      "Ġstuck": 3702,
      "rem": 3703,
      "Ġcool": 3704,
      "Ġgiving": 3705,
      "idence": 3706,
      "cuse": 3707,
      "Ġsupposed": 3708,
      "Ġpresident": 3709,
      "Âł": 3710,
      "è¾": 3711,
      "Ġuur": 3712,
      "sit": 3713,
      "æ°": 3714,
      "æĶ": 3715,
      "Ġcast": 3716,
      "Ġpack": 3717,
      "Ġmoeder": 3718,
      "stof": 3719,
      "ĠBet": 3720,
      "avid": 3721,
      "ground": 3722,
      "ĠIndian": 3723,
      "Daddy": 3724,
      "ender": 3725,
      "Maybe": 3726,
      "hal": 3727,
      "Ġverm": 3728,
      "Ġpopulation": 3729,
      "ĠPol": 3730,
      "Ġdiscover": 3731,
      "ket": 3732,
      "åĢ": 3733,
      "rodu": 3734,
      "rupt": 3735,
      "Ġstopped": 3736,
      "lean": 3737,
      "Ġrab": 3738,
      "ikk": 3739,
      "Ġsad": 3740,
      "Ġmass": 3741,
      "ĠBen": 3742,
      "ogn": 3743,
      "Ġtelling": 3744,
      "iation": 3745,
      "uid": 3746,
      "Ġmat": 3747,
      "leep": 3748,
      "Ġprison": 3749,
      "Ġwaarom": 3750,
      "house": 3751,
      "Ġ*": 3752,
      "Ġvoed": 3753,
      "Ġfort": 3754,
      "Ġbelong": 3755,
      "Ġextra": 3756,
      "Ġbought": 3757,
      "ĠMommy": 3758,
      "ĠPort": 3759,
      "ray": 3760,
      "reg": 3761,
      "Ġplayer": 3762,
      "anne": 3763,
      "Ġfinish": 3764,
      "Ġfurther": 3765,
      "Voor": 3766,
      "Ġeten": 3767,
      "Ġmix": 3768,
      "Ġdescri": 3769,
      "Ġmedic": 3770,
      "Ġtast": 3771,
      "cul": 3772,
      "Ġmad": 3773,
      "iod": 3774,
      "Ġwee": 3775,
      "want": 3776,
      "agon": 3777,
      "Ġwrote": 3778,
      "name": 3779,
      "olf": 3780,
      "æł·": 3781,
      "Ġkid": 3782,
      "OM": 3783,
      "Ġenjoy": 3784,
      "usp": 3785,
      "ĠAmerica": 3786,
      "Ġvlie": 3787,
      "Ġcontrol": 3788,
      "zet": 3789,
      "Ġhospital": 3790,
      "ĠBij": 3791,
      "Ġpupp": 3792,
      "Ġaantal": 3793,
      "Ġzet": 3794,
      "ĠMary": 3795,
      "Ġcareer": 3796,
      "Ġexclaimed": 3797,
      "ounter": 3798,
      "Ġcentury": 3799,
      "ĠNational": 3800,
      "Ġbase": 3801,
      "icle": 3802,
      "Ġmod": 3803,
      "Ġdesign": 3804,
      "Mar": 3805,
      "RE": 3806,
      "itions": 3807,
      "Ġswim": 3808,
      "conom": 3809,
      "Wie": 3810,
      "por": 3811,
      "OTH": 3812,
      "ĠCaptain": 3813,
      "Ġdoubt": 3814,
      "Ar": 3815,
      "Ġstreet": 3816,
      "yy": 3817,
      "Ġtick": 3818,
      "Ġvrij": 3819,
      "oph": 3820,
      "ĠOF": 3821,
      "Ġcoff": 3822,
      "view": 3823,
      "ĠCent": 3824,
      "ĠNow": 3825,
      "è´": 3826,
      "Ġoud": 3827,
      "Ġsense": 3828,
      "oeken": 3829,
      "Ġbek": 3830,
      "ivil": 3831,
      "11": 3832,
      "Ġpriv": 3833,
      "Ġparents": 3834,
      "æİ": 3835,
      "Ġho": 3836,
      "ceed": 3837,
      "itted": 3838,
      "ijkt": 3839,
      "Ġhasn": 3840,
      "Ġindeed": 3841,
      "Ġoo": 3842,
      "acy": 3843,
      "Weet": 3844,
      "Ġthirty": 3845,
      "ĠIN": 3846,
      "Ġproduct": 3847,
      "Ġfigure": 3848,
      "CHAP": 3849,
      "Ġride": 3850,
      "eh": 3851,
      "arp": 3852,
      "ieved": 3853,
      "ĠDat": 3854,
      "Ġtemper": 3855,
      "Ġbased": 3856,
      "Ġcause": 3857,
      "Ġbeter": 3858,
      "Mhm": 3859,
      "Ġbow": 3860,
      "Ġgest": 3861,
      "Ġbep": 3862,
      "Ġworth": 3863,
      "ording": 3864,
      "Ġsomewhere": 3865,
      "Ġber": 3866,
      "Ġble": 3867,
      "Ġrub": 3868,
      "Ġallowed": 3869,
      "Ġord": 3870,
      "llust": 3871,
      "Ġevent": 3872,
      "Ġalthough": 3873,
      "Ġ192": 3874,
      "Ġhappens": 3875,
      "roy": 3876,
      "Ġconvers": 3877,
      "iteit": 3878,
      "Ġstrange": 3879,
      "CHAPTER": 3880,
      "ST": 3881,
      "Ġexactly": 3882,
      "Ġcarried": 3883,
      "MAR": 3884,
      "18": 3885,
      "Sp": 3886,
      "Ġprep": 3887,
      "ampion": 3888,
      "Ġaccept": 3889,
      "Ġnaam": 3890,
      "waar": 3891,
      "Ġyesterday": 3892,
      "Ġgas": 3893,
      "Ġwhose": 3894,
      "aj": 3895,
      "Ġburn": 3896,
      "isc": 3897,
      "Ġbell": 3898,
      "light": 3899,
      "laugh": 3900,
      "ourn": 3901,
      "Ġdacht": 3902,
      "ae": 3903,
      "ĠNot": 3904,
      "ĠGeorge": 3905,
      "nen": 3906,
      "Ġmaakt": 3907,
      "Ġsheep": 3908,
      "ille": 3909,
      "chten": 3910,
      "LL": 3911,
      "è·Ł": 3912,
      "Cl": 3913,
      "ively": 3914,
      "Ġcompan": 3915,
      "Ġverschillende": 3916,
      "ician": 3917,
      "Ġholding": 3918,
      "Ġmoving": 3919,
      "ka": 3920,
      "ĠPresident": 3921,
      "Ġeld": 3922,
      "Ġlunch": 3923,
      "Ġchicken": 3924,
      "maal": 3925,
      "Ġing": 3926,
      "elde": 3927,
      "Ġsave": 3928,
      "enen": 3929,
      "bled": 3930,
      "Ġantwoord": 3931,
      "iks": 3932,
      "æĤ": 3933,
      "Ġinvol": 3934,
      "ribut": 3935,
      "Ġtrad": 3936,
      "éĻ": 3937,
      "Ġrecogn": 3938,
      "esus": 3939,
      "Ġgeven": 3940,
      "Ġleaving": 3941,
      "Ġobs": 3942,
      "Ġwhom": 3943,
      "ula": 3944,
      "ĠMag": 3945,
      "æ²¡æľī": 3946,
      "ijdens": 3947,
      "ume": 3948,
      "auw": 3949,
      "Kijk": 3950,
      "Ġhart": 3951,
      "turn": 3952,
      "Ġè¿Ļ": 3953,
      "eil": 3954,
      "Ġtail": 3955,
      "ression": 3956,
      "Ġ2018": 3957,
      "Ġaard": 3958,
      "Ġremark": 3959,
      "Ġturns": 3960,
      "--------": 3961,
      "ĠâĢ": 3962,
      "oris": 3963,
      "Ġgames": 3964,
      "Ġwatching": 3965,
      "rek": 3966,
      "Ġfat": 3967,
      "ĠSir": 3968,
      "ĠRob": 3969,
      "ĠRobert": 3970,
      "Ġappear": 3971,
      "å¿ĥ": 3972,
      "Ġtype": 3973,
      "Ġought": 3974,
      "Ġsport": 3975,
      "Ġhoney": 3976,
      "Ġinfl": 3977,
      "ocket": 3978,
      "Ġbusy": 3979,
      "Ġbull": 3980,
      "Ġ100": 3981,
      "uld": 3982,
      "Ġmeat": 3983,
      "ĠThese": 3984,
      "Br": 3985,
      "å§": 3986,
      "Ġiss": 3987,
      "Ġanybody": 3988,
      "Ġontst": 3989,
      "oul": 3990,
      "Ġneck": 3991,
      "overn": 3992,
      "Ġdeel": 3993,
      "Ġja": 3994,
      "Ġwriting": 3995,
      "çĤ¹": 3996,
      "ael": 3997,
      "Ġorange": 3998,
      "reng": 3999,
      "za": 4000,
      "Ġbegin": 4001,
      "field": 4002,
      "wow": 4003,
      "Ġfear": 4004,
      "Ġvier": 4005,
      "aches": 4006,
      "Ġspace": 4007,
      "OkÃ©": 4008,
      "hand": 4009,
      "ijs": 4010,
      "Ġjouw": 4011,
      "ieft": 4012,
      "pper": 4013,
      "ization": 4014,
      "Ġmeeting": 4015,
      "Ġinformation": 4016,
      "Ġsilly": 4017,
      "burg": 4018,
      "Ġimag": 4019,
      "ighb": 4020,
      "Ġkwam": 4021,
      "Will": 4022,
      "komen": 4023,
      "iled": 4024,
      "Ġ24": 4025,
      "leanor": 4026,
      "gie": 4027,
      "ĠWith": 4028,
      "ĠFraser": 4029,
      "åĴĮ": 4030,
      "Ġtek": 4031,
      "Ġperiod": 4032,
      "ĠDoctor": 4033,
      "ode": 4034,
      "Ġletters": 4035,
      "Ġbutter": 4036,
      "ĠGermany": 4037,
      "å±": 4038,
      "Ġsusp": 4039,
      "Ġlim": 4040,
      "ĠGl": 4041,
      "Ġbread": 4042,
      "Ġfinger": 4043,
      "ĠHelen": 4044,
      "aker": 4045,
      "Ġbuiten": 4046,
      "Ġhoor": 4047,
      "Take": 4048,
      "Ġtall": 4049,
      "ĠUS": 4050,
      "Ġloud": 4051,
      "ĠVan": 4052,
      "Ġeveryone": 4053,
      "ecially": 4054,
      "Ġeduc": 4055,
      "Ġterm": 4056,
      "Thanks": 4057,
      "time": 4058,
      "Ġfut": 4059,
      "Ġpaar": 4060,
      "Ġbez": 4061,
      "ĠMaar": 4062,
      "spra": 4063,
      "Ġcere": 4064,
      "å¾Ī": 4065,
      "Dus": 4066,
      "mommy": 4067,
      "Ġspot": 4068,
      "Ġmiles": 4069,
      "Ġgemaakt": 4070,
      "Ã¡": 4071,
      "akken": 4072,
      "medi": 4073,
      "vl": 4074,
      "uts": 4075,
      "Ġziet": 4076,
      "Ġmountain": 4077,
      "Ġbrown": 4078,
      "Ġanimal": 4079,
      "vocal": 4080,
      "under": 4081,
      "Ġnecess": 4082,
      "ieden": 4083,
      "ilar": 4084,
      "Ġdut": 4085,
      "Ġcommune": 4086,
      "Ġwilt": 4087,
      "Ġ21": 4088,
      "Ġsubject": 4089,
      "Ġgar": 4090,
      "Ġpush": 4091,
      "Ġgoede": 4092,
      "hip": 4093,
      "Ġcamer": 4094,
      "estern": 4095,
      "Ġtruth": 4096,
      "oom": 4097,
      "åī": 4098,
      "Ġears": 4099,
      "acing": 4100,
      "Ġappeared": 4101,
      "Ġbeginning": 4102,
      "çŁ¥": 4103,
      "Ġcapt": 4104,
      "ĠCom": 4105,
      "Ġsilence": 4106,
      "æĬĬ": 4107,
      "hah": 4108,
      "Ġself": 4109,
      "ĠSm": 4110,
      "Ġsafe": 4111,
      "Ġvict": 4112,
      "anks": 4113,
      "Ġdry": 4114,
      "Ġcomb": 4115,
      "aald": 4116,
      "Ġpopular": 4117,
      "Ġcapital": 4118,
      "looks": 4119,
      "Ġnatuur": 4120,
      "Ġquestions": 4121,
      "ege": 4122,
      "ran": 4123,
      "Ġmoest": 4124,
      "ipped": 4125,
      "Ġcoffee": 4126,
      "elve": 4127,
      "Ġzeker": 4128,
      "line": 4129,
      "Ġsal": 4130,
      "Ġhen": 4131,
      "ĠMon": 4132,
      "Ġtrust": 4133,
      "zelfde": 4134,
      "Ġwest": 4135,
      "stop": 4136,
      "Ġster": 4137,
      "inds": 4138,
      "oger": 4139,
      "ĠWell": 4140,
      "Me": 4141,
      "ĠLea": 4142,
      "å¹´": 4143,
      "gasps": 4144,
      "NA": 4145,
      "Ġcrying": 4146,
      "iest": 4147,
      "Ġweren": 4148,
      "Ġforce": 4149,
      "Ġbright": 4150,
      "Ġlos": 4151,
      "roeg": 4152,
      "ressed": 4153,
      "bout": 4154,
      "Ġmaak": 4155,
      "Ġtit": 4156,
      "Ġfre": 4157,
      "ĠDaar": 4158,
      "ĠRich": 4159,
      "ensch": 4160,
      "Ġbottom": 4161,
      "viously": 4162,
      "Ġincre": 4163,
      "Ġtour": 4164,
      "Ġdev": 4165,
      "ĠEx": 4166,
      "Ġteeth": 4167,
      "Ġattempt": 4168,
      "Wait": 4169,
      "Ġrul": 4170,
      "artin": 4171,
      "Hier": 4172,
      "THE": 4173,
      "Ġitself": 4174,
      "ĠSe": 4175,
      "Ġopdracht": 4176,
      "Ġpray": 4177,
      "please": 4178,
      "Ġleuk": 4179,
      "åĽŀ": 4180,
      "Ġsuddenly": 4181,
      "Ġarmy": 4182,
      "Ġwalked": 4183,
      "aden": 4184,
      "Ġzullen": 4185,
      "ĠHier": 4186,
      "æĢİ": 4187,
      "LE": 4188,
      "ennis": 4189,
      "Ġcreated": 4190,
      "Ġkijken": 4191,
      "unicip": 4192,
      "Ġcult": 4193,
      "Ġcountries": 4194,
      "Ġattention": 4195,
      "Ġsocial": 4196,
      "woord": 4197,
      "Ġwalking": 4198,
      "Ġspecies": 4199,
      "Ġrespect": 4200,
      "ds": 4201,
      "Ġspoke": 4202,
      "Ġslecht": 4203,
      "SOA": 4204,
      "Ġwed": 4205,
      "Ġverand": 4206,
      "Ġfruit": 4207,
      "Ġcomfort": 4208,
      "Ġcars": 4209,
      "Ġconcern": 4210,
      "ounded": 4211,
      "Illust": 4212,
      "Ġblow": 4213,
      "Mum": 4214,
      "Ġpaid": 4215,
      "iller": 4216,
      "ĠFred": 4217,
      "ploy": 4218,
      "Ġmilit": 4219,
      "Ġpun": 4220,
      "ĠDad": 4221,
      "Ġdistance": 4222,
      "Ġteach": 4223,
      "OK": 4224,
      "erl": 4225,
      "Ġzonder": 4226,
      "Ġrust": 4227,
      "Ġsky": 4228,
      "God": 4229,
      "Ġwerden": 4230,
      "Ġ&": 4231,
      "omes": 4232,
      "Ġshape": 4233,
      "isted": 4234,
      "Ġ2021": 4235,
      "ĠWhy": 4236,
      "atuur": 4237,
      "aper": 4238,
      "èµ·": 4239,
      "Ġwinter": 4240,
      "gs": 4241,
      "Ġlaugh": 4242,
      "Ġgrass": 4243,
      "Ġparts": 4244,
      "éķ": 4245,
      "Ġenemy": 4246,
      "ĠRoy": 4247,
      "Ġrelig": 4248,
      "log": 4249,
      "Ġvorm": 4250,
      "Ġbrief": 4251,
      "aves": 4252,
      "ĠDan": 4253,
      "Ġmoder": 4254,
      "Ġgezien": 4255,
      "Ġadded": 4256,
      "ĠBy": 4257,
      "osaur": 4258,
      "Ġou": 4259,
      "Ġgives": 4260,
      "èĢģ": 4261,
      "æĮ": 4262,
      "rect": 4263,
      "Ġstars": 4264,
      "Ġrace": 4265,
      "ĠAunt": 4266,
      "Ġgewe": 4267,
      "ä¸įæĺ¯": 4268,
      "Ġcounty": 4269,
      "volution": 4270,
      "Ġprocess": 4271,
      "Ġentire": 4272,
      "Ġhous": 4273,
      "uses": 4274,
      "Ġshit": 4275,
      "Ġneighb": 4276,
      "ulp": 4277,
      "Ġchocol": 4278,
      "Ġsex": 4279,
      "ination": 4280,
      "ĠPark": 4281,
      "Ġ(\"": 4282,
      "achten": 4283,
      "ĠAmerik": 4284,
      "CAT": 4285,
      "åĮ": 4286,
      "asion": 4287,
      "Ġcontinued": 4288,
      "pardon": 4289,
      "Ġsummer": 4290,
      "Ġdecl": 4291,
      "Ġboven": 4292,
      "æĢİä¹Ī": 4293,
      "Nu": 4294,
      "Ġanymore": 4295,
      "Ġconsider": 4296,
      "back": 4297,
      "Ġbew": 4298,
      "Ġlevel": 4299,
      "Ġeleph": 4300,
      "Ġfifty": 4301,
      "Ġfuture": 4302,
      "Ġlab": 4303,
      "ometimes": 4304,
      "bie": 4305,
      "zie": 4306,
      "izen": 4307,
      "offen": 4308,
      "Ġblijven": 4309,
      "ĠRiver": 4310,
      "baby": 4311,
      "antly": 4312,
      "ĠSer": 4313,
      "ission": 4314,
      "Ġfinally": 4315,
      "Ġhate": 4316,
      "Ġlaatste": 4317,
      "Illustration": 4318,
      "bes": 4319,
      "yn": 4320,
      "ites": 4321,
      "Ġpet": 4322,
      "ads": 4323,
      "Ġwash": 4324,
      "Ġconn": 4325,
      "Ġdropped": 4326,
      "ĠRepubl": 4327,
      "Met": 4328,
      "ĠChina": 4329,
      "enry": 4330,
      "Ġcard": 4331,
      "ĠSat": 4332,
      "resh": 4333,
      "bling": 4334,
      "Ġsmell": 4335,
      "Ġleaves": 4336,
      "Ġeerst": 4337,
      "Ġlaughed": 4338,
      "His": 4339,
      "ais": 4340,
      "ĠMet": 4341,
      "Ġplays": 4342,
      "iot": 4343,
      "Ġproblems": 4344,
      "Ġmention": 4345,
      "estig": 4346,
      "Ġfle": 4347,
      "anten": 4348,
      "gegeven": 4349,
      "ĠDeze": 4350,
      "box": 4351,
      "Ġsoldiers": 4352,
      "Ġpounds": 4353,
      "ĠBra": 4354,
      "Ġinterested": 4355,
      "Ġlikes": 4356,
      "ĠOliver": 4357,
      "Ġbom": 4358,
      "Ġverder": 4359,
      "mother": 4360,
      "tell": 4361,
      "ĠBel": 4362,
      "ĠFl": 4363,
      "Ġchurch": 4364,
      "ĠAc": 4365,
      "Ġstore": 4366,
      "Ġlying": 4367,
      "Ġvand": 4368,
      "éĿ¢": 4369,
      "uch": 4370,
      "Ġnieuw": 4371,
      "Ã³": 4372,
      "ĠWel": 4373,
      "çŃ": 4374,
      "Ġcand": 4375,
      "urd": 4376,
      "Ġalive": 4377,
      "Per": 4378,
      "wait": 4379,
      "Ġmater": 4380,
      "ĠMad": 4381,
      "ils": 4382,
      "ruct": 4383,
      "uhoh": 4384,
      "ugh": 4385,
      "Ġindust": 4386,
      "Ġdiscuss": 4387,
      "ĠGeneral": 4388,
      "Ġdue": 4389,
      "cks": 4390,
      "Ġhelpen": 4391,
      "Ġgeeft": 4392,
      "Ġeconom": 4393,
      "ĠCarl": 4394,
      "anny": 4395,
      "Ġconsid": 4396,
      "take": 4397,
      "appy": 4398,
      "Ġmachine": 4399,
      "astic": 4400,
      "Ġbelangrijk": 4401,
      "Ġ23": 4402,
      "ĠSchool": 4403,
      "Ġcomputer": 4404,
      "met": 4405,
      "Ġ22": 4406,
      "Ġgroep": 4407,
      "ault": 4408,
      "ĠQu": 4409,
      "Ġbal": 4410,
      "Ġexam": 4411,
      "Ġtwelve": 4412,
      "Ġaccount": 4413,
      "AY": 4414,
      "worth": 4415,
      "Ġdig": 4416,
      "Ġstudy": 4417,
      "Ġcab": 4418,
      "ĠLaur": 4419,
      "åĽ½": 4420,
      "aith": 4421,
      "Ġdrop": 4422,
      "Ġhouden": 4423,
      "Ġmem": 4424,
      "Ġverb": 4425,
      "Ġintern": 4426,
      "Ġbottle": 4427,
      "Ġbirds": 4428,
      "ston": 4429,
      "epend": 4430,
      "ĠIndia": 4431,
      "Ġhealth": 4432,
      "ĠJust": 4433,
      "Ġmaster": 4434,
      "Ġplate": 4435,
      "ĠChi": 4436,
      "Ġprofession": 4437,
      "Uh": 4438,
      "yep": 4439,
      "Ġpictures": 4440,
      "Ġlose": 4441,
      "pecially": 4442,
      "Ġcell": 4443,
      "Ġhelemaal": 4444,
      "itive": 4445,
      "isf": 4446,
      "Ġnor": 4447,
      "ĠOf": 4448,
      "ĠMor": 4449,
      "Ġserious": 4450,
      "Ġintrodu": 4451,
      "Ġauto": 4452,
      "Ġtekst": 4453,
      "50": 4454,
      "Ġlink": 4455,
      "ĠMark": 4456,
      "åĪ«": 4457,
      "Ġmicro": 4458,
      "ĠGovern": 4459,
      "ĠStan": 4460,
      "Ġneeded": 4461,
      "Ġ2019": 4462,
      "åĳĢ": 4463,
      "Ġsilver": 4464,
      "Ġrepresent": 4465,
      "å¼Ģ": 4466,
      "Ã¼": 4467,
      "three": 4468,
      "Ġreading": 4469,
      "Ġpicks": 4470,
      "ĠHowever": 4471,
      "Ġnee": 4472,
      "Ġrese": 4473,
      "Ġseeing": 4474,
      "ĠChar": 4475,
      "Ġways": 4476,
      "Gr": 4477,
      "Ġgesch": 4478,
      "Ġinclude": 4479,
      "12": 4480,
      "Ġgenoeg": 4481,
      "oring": 4482,
      "Ġstorm": 4483,
      "ĠTe": 4484,
      "ival": 4485,
      "Wil": 4486,
      "æ³": 4487,
      "Ġhou": 4488,
      "Ġflat": 4489,
      "ĠRoman": 4490,
      "aughing": 4491,
      "Ġ2010": 4492,
      "ĠUnion": 4493,
      "Ġcharge": 4494,
      "\")": 4495,
      "Ġisland": 4496,
      "Ġgebruikt": 4497,
      "ĠâĢ¢": 4498,
      "Ġneem": 4499,
      "Ġinf": 4500,
      "ĠHouse": 4501,
      "ankt": 4502,
      "Ġcamera": 4503,
      "dr": 4504,
      "onnen": 4505,
      "Was": 4506,
      "cellen": 4507,
      "oken": 4508,
      "Ġfeed": 4509,
      "Ġlucht": 4510,
      "Like": 4511,
      "Ġcream": 4512,
      "Ġmoon": 4513,
      "Ġbelow": 4514,
      "Ġfamous": 4515,
      "Ġbesch": 4516,
      "Ġsimp": 4517,
      "points": 4518,
      "eddy": 4519,
      "Om": 4520,
      "Ġfir": 4521,
      "Ġur": 4522,
      "Ġparticular": 4523,
      "yle": 4524,
      "Ġstub": 4525,
      "isha": 4526,
      "aughty": 4527,
      "Ġ50": 4528,
      "ĠWilliam": 4529,
      "Ġpuzzle": 4530,
      "Ġstage": 4531,
      "ĠReg": 4532,
      "ichael": 4533,
      "Ġflowers": 4534,
      "Ġshouldn": 4535,
      "UNK": 4536,
      "ima": 4537,
      "Ġmurder": 4538,
      "Ġjud": 4539,
      "lymp": 4540,
      "?'": 4541,
      "sm": 4542,
      "Ġlif": 4543,
      "alley": 4544,
      "izes": 4545,
      "Ġfucking": 4546,
      "Ġhast": 4547,
      "VE": 4548,
      "allo": 4549,
      "anneer": 4550,
      "ĠTur": 4551,
      "Ġbedoel": 4552,
      "Ġvarious": 4553,
      "ires": 4554,
      "Ġder": 4555,
      "ĠEm": 4556,
      "Ġconversation": 4557,
      "enk": 4558,
      "ashed": 4559,
      "essor": 4560,
      "çº": 4561,
      "Ġfoto": 4562,
      "ĠParty": 4563,
      "ably": 4564,
      "Ġide": 4565,
      "Ġrepe": 4566,
      "Ġsinging": 4567,
      "Ġhide": 4568,
      "tered": 4569,
      "Ġanc": 4570,
      "rian": 4571,
      "ĠQue": 4572,
      "eat": 4573,
      "erve": 4574,
      "Ġsuit": 4575,
      "gaan": 4576,
      "olut": 4577,
      "bert": 4578,
      "Ġcheese": 4579,
      "Ġannoun": 4580,
      "Pro": 4581,
      "laughing": 4582,
      "Ġpocket": 4583,
      "ĠAngel": 4584,
      "Ġiedereen": 4585,
      "Ġ$": 4586,
      "Ġsoort": 4587,
      "Ġnames": 4588,
      "Ġscared": 4589,
      "Ġhorses": 4590,
      "IC": 4591,
      "Ġdance": 4592,
      "ĠVoor": 4593,
      "Ġdogs": 4594,
      "Ġdingen": 4595,
      "Ġgrew": 4596,
      "Ġleng": 4597,
      "Ġvaak": 4598,
      "Ġkey": 4599,
      ",--": 4600,
      "Ġcray": 4601,
      "Ġmunicip": 4602,
      "Ġpink": 4603,
      "Ġbrand": 4604,
      "AND": 4605,
      "Un": 4606,
      "çĲ": 4607,
      "Ġearl": 4608,
      "roll": 4609,
      "ĠLet": 4610,
      "Ġemp": 4611,
      "Sch": 4612,
      "atic": 4613,
      "Ġsharp": 4614,
      "Ġchief": 4615,
      "Ġspijt": 4616,
      "Ġfinal": 4617,
      "Ġate": 4618,
      "è¯Ŀ": 4619,
      "Ġsimilar": 4620,
      "Ġbasket": 4621,
      "éķ¿": 4622,
      "Ġkick": 4623,
      "omething": 4624,
      "apen": 4625,
      "Pl": 4626,
      "ĠSy": 4627,
      "aining": 4628,
      "Ġpraten": 4629,
      "rican": 4630,
      "anch": 4631,
      "riage": 4632,
      "Ġlaughing": 4633,
      "ĠSund": 4634,
      "ĠDavid": 4635,
      "Ġserved": 4636,
      "nee": 4637,
      "çĻ": 4638,
      "Ġpit": 4639,
      "leg": 4640,
      "ĠGreat": 4641,
      "Ġtechn": 4642,
      "Ġclosed": 4643,
      "Ġinteresting": 4644,
      "Ġfingers": 4645,
      "set": 4646,
      "urday": 4647,
      "Ġrid": 4648,
      "æĥħ": 4649,
      "book": 4650,
      "Ġliked": 4651,
      "Ġcircle": 4652,
      "watch": 4653,
      "Ġbeat": 4654,
      "amm": 4655,
      "ĠBoris": 4656,
      "è½": 4657,
      "rec": 4658,
      "Ġlich": 4659,
      "omer": 4660,
      "Ġstuk": 4661,
      "Ġhall": 4662,
      "ivid": 4663,
      "ä¹ĭ": 4664,
      "Ġï¿½": 4665,
      "Ġban": 4666,
      "iced": 4667,
      "Ġproject": 4668,
      "Ġdin": 4669,
      "elp": 4670,
      "erson": 4671,
      "Ġfavorite": 4672,
      "17": 4673,
      "stit": 4674,
      "Ġbigger": 4675,
      "ĠMinister": 4676,
      "Ġrabbit": 4677,
      "kk": 4678,
      "Ġeast": 4679,
      "Ġcrow": 4680,
      "Ġminder": 4681,
      "Ġgeweld": 4682,
      "15": 4683,
      "down": 4684,
      "erry": 4685,
      "Ġdem": 4686,
      "iforn": 4687,
      "Ġet": 4688,
      "istory": 4689,
      "Ġimmedi": 4690,
      "appen": 4691,
      "Ġklaar": 4692,
      "cel": 4693,
      "Ġrond": 4694,
      "Ġshare": 4695,
      "Ġplann": 4696,
      "Ġradio": 4697,
      "Ġmeis": 4698,
      "ĠMum": 4699,
      "iling": 4700,
      "berg": 4701,
      "Ġ2022": 4702,
      "centr": 4703,
      "é¢": 4704,
      "Ġ26": 4705,
      "aas": 4706,
      "Ġduh": 4707,
      "Ġ27": 4708,
      "çľŁ": 4709,
      "Ġdirection": 4710,
      "ĠBobby": 4711,
      "Ġgeweest": 4712,
      "GER": 4713,
      "åįģ": 4714,
      "hood": 4715,
      "Ġlid": 4716,
      "ijken": 4717,
      "rag": 4718,
      "Ġwist": 4719,
      "eech": 4720,
      "assen": 4721,
      "Ġ2011": 4722,
      "Ġ)": 4723,
      "Ġearn": 4724,
      "ĠHoe": 4725,
      "Ġ28": 4726,
      "Ġlargest": 4727,
      "Ġmut": 4728,
      "Ġmatch": 4729,
      "Ġlief": 4730,
      "asant": 4731,
      "upid": 4732,
      "Ġ2017": 4733,
      "Ġcrack": 4734,
      "Ġsleeping": 4735,
      "Ġjoined": 4736,
      "ĠLo": 4737,
      "Ġsepar": 4738,
      "æĪĲ": 4739,
      "Ġchem": 4740,
      "Ġofficer": 4741,
      "Ġsens": 4742,
      "Ġsevent": 4743,
      "Ġreden": 4744,
      "ĠJames": 4745,
      "èµ°": 4746,
      "Ġmarket": 4747,
      "Dank": 4748,
      "Ġsel": 4749,
      "Ġenc": 4750,
      "Ġpurp": 4751,
      "ĠSec": 4752,
      "å®ŀ": 4753,
      "æĤ¨": 4754,
      "Ġlower": 4755,
      "Ġarg": 4756,
      "Ġiron": 4757,
      "Ġcorner": 4758,
      "Ġmeth": 4759,
      "iction": 4760,
      "Ġmonkey": 4761,
      "Ġcust": 4762,
      "asing": 4763,
      "uten": 4764,
      "ously": 4765,
      "Ġkleine": 4766,
      "OW": 4767,
      "aded": 4768,
      "uits": 4769,
      "ĠSpanish": 4770,
      "han": 4771,
      "pret": 4772,
      "Ġdogg": 4773,
      "ests": 4774,
      "Ġspent": 4775,
      "Ġamount": 4776,
      "ashington": 4777,
      "Ġslowly": 4778,
      "kker": 4779,
      "ari": 4780,
      "Ġnobody": 4781,
      "Ġshows": 4782,
      "ĠéĤ£": 4783,
      "Ġrecht": 4784,
      "gin": 4785,
      "IM": 4786,
      "vert": 4787,
      "ensus": 4788,
      "Ġpra": 4789,
      "ĠOlymp": 4790,
      "Ġcovered": 4791,
      "antic": 4792,
      "Ġdelight": 4793,
      "Ġappar": 4794,
      "ails": 4795,
      "Ġpretend": 4796,
      "Geef": 4797,
      "Ġpolitical": 4798,
      "ato": 4799,
      "ĠII": 4800,
      "Ġforest": 4801,
      "Ġinflu": 4802,
      "Ġvroeg": 4803,
      "Ġstreng": 4804,
      "Ġwheel": 4805,
      "Ġkrijgt": 4806,
      "Ġsurprise": 4807,
      "By": 4808,
      "Ġnurs": 4809,
      "Ġdeed": 4810,
      "ĠMot": 4811,
      "ĠMex": 4812,
      "åıĳ": 4813,
      "Ġshowed": 4814,
      "pre": 4815,
      "Ġwid": 4816,
      "Ġviol": 4817,
      "Ġappe": 4818,
      "å®ļ": 4819,
      "çĶ¨": 4820,
      "Ġespecially": 4821,
      "ĠLeague": 4822,
      "éĺ": 4823,
      "Ġpound": 4824,
      "Ġniks": 4825,
      "oopt": 4826,
      "Ġstories": 4827,
      "Ġrob": 4828,
      "Ġspirit": 4829,
      "inary": 4830,
      "Ġlock": 4831,
      "åıª": 4832,
      "Ġhoeveel": 4833,
      "Ġblocks": 4834,
      "Ġtax": 4835,
      "Ġcivil": 4836,
      "Ġanx": 4837,
      "ushing": 4838,
      "Ġorganis": 4839,
      "åĸ": 4840,
      "Ġvia": 4841,
      "ours": 4842,
      "ĠBetty": 4843,
      "bu": 4844,
      "Ġ29": 4845,
      "Ġrefer": 4846,
      "è§ī": 4847,
      "åģļ": 4848,
      "Ġsac": 4849,
      "Ġjack": 4850,
      "Ġfighting": 4851,
      "è¡Į": 4852,
      "Ġlichaam": 4853,
      "Ġbere": 4854,
      "cell": 4855,
      "Ġplaced": 4856,
      "Ġpeace": 4857,
      "Ġjongen": 4858,
      "igs": 4859,
      "pping": 4860,
      "Ġslight": 4861,
      "dam": 4862,
      "Ġbud": 4863,
      "Ġbeetje": 4864,
      "Ġasleep": 4865,
      "ibly": 4866,
      "Ġpicked": 4867,
      "ache": 4868,
      "Ġbod": 4869,
      "Ġwaardoor": 4870,
      "Ge": 4871,
      "Ġkm": 4872,
      "urse": 4873,
      "Ġtravel": 4874,
      "phone": 4875,
      "Ġidee": 4876,
      "rica": 4877,
      "ĠEuropean": 4878,
      "Ġeggs": 4879,
      "ĠCaliforn": 4880,
      "æ´": 4881,
      "eless": 4882,
      "Ġstone": 4883,
      "ĠLou": 4884,
      "Ġrole": 4885,
      "Ġturning": 4886,
      "kin": 4887,
      "wise": 4888,
      "Ġep": 4889,
      "Ġformed": 4890,
      "ä»ĸä»¬": 4891,
      "Ġsituation": 4892,
      "Ġpolitician": 4893,
      "ampionship": 4894,
      "Give": 4895,
      "ores": 4896,
      "wood": 4897,
      "Ġfright": 4898,
      "Ġspoon": 4899,
      "æĦı": 4900,
      "Ġreact": 4901,
      "Ġhadden": 4902,
      "ijna": 4903,
      "äºĮ": 4904,
      "Hi": 4905,
      "ffic": 4906,
      "Ġklein": 4907,
      "Ġsatisf": 4908,
      "Ġmel": 4909,
      "Ġdeg": 4910,
      "ĠBill": 4911,
      "Ġasking": 4912,
      "John": 4913,
      "cast": 4914,
      "Ġpan": 4915,
      "Ġstarts": 4916,
      "Ġexperience": 4917,
      "Ġapart": 4918,
      "Ġcrazy": 4919,
      "Even": 4920,
      "HAT": 4921,
      "Tell": 4922,
      "Ġangry": 4923,
      "Ġsla": 4924,
      "Ġsurr": 4925,
      "Ġwide": 4926,
      "Ġthick": 4927,
      "ĠMartin": 4928,
      "ĠAustralia": 4929,
      "14": 4930,
      "Ġsize": 4931,
      "Ġheen": 4932,
      "Ġmedicine": 4933,
      "wanna": 4934,
      "Ġbite": 4935,
      "ĠCouncil": 4936,
      "Ġmogelijk": 4937,
      "orthern": 4938,
      "order": 4939,
      "Ġhelped": 4940,
      "Ġbroad": 4941,
      "Ġphys": 4942,
      "ç»ı": 4943,
      "Ġeffort": 4944,
      "ett": 4945,
      "Ġkant": 4946,
      "ĠNe": 4947,
      "produ": 4948,
      "Ġthanks": 4949,
      "ography": 4950,
      "iw": 4951,
      "Ġnone": 4952,
      "Ġspring": 4953,
      "å·±": 4954,
      "ĠAcad": 4955,
      "Ġbattle": 4956,
      "Ġcaptain": 4957,
      "ĠMil": 4958,
      "ĠBru": 4959,
      "Ġnatural": 4960,
      "car": 4961,
      "lla": 4962,
      "Ġbey": 4963,
      "Ġlikely": 4964,
      "çİ°åľ¨": 4965,
      "Ġhoud": 4966,
      "Ġfresh": 4967,
      "aling": 4968,
      "Ġnemen": 4969,
      "essie": 4970,
      "Doe": 4971,
      "Ġfem": 4972,
      "Ġfool": 4973,
      "Ġforty": 4974,
      "aped": 4975,
      "Ġmanier": 4976,
      "Ġident": 4977,
      "heden": 4978,
      "Ġdeter": 4979,
      "Ġear": 4980,
      "outhern": 4981,
      "Ġterrible": 4982,
      "Ġbeste": 4983,
      "æīĢ": 4984,
      "has": 4985,
      "âĢ": 4986,
      "Ġdirty": 4987,
      "ande": 4988,
      "Ġapple": 4989,
      "Ġgraag": 4990,
      "Ġdemand": 4991,
      "ĠMother": 4992,
      "ĠDick": 4993,
      "ĠGra": 4994,
      "aving": 4995,
      "face": 4996,
      "Ġhost": 4997,
      "Ġeh": 4998,
      "Ġwonderful": 4999,
      "åĢĻ": 5000,
      "Ver": 5001,
      "aa": 5002,
      "dd": 5003,
      "Ġee": 5004,
      "Ġ2014": 5005,
      "ï¿½ï¿½ï¿½ï¿½": 5006,
      "Misschien": 5007,
      "çŁ¥éģĵ": 5008,
      "ĠEast": 5009,
      "Ġ[?": 5010,
      "AM": 5011,
      "ĠMom": 5012,
      "Ġooit": 5013,
      "Ġmum": 5014,
      "ĠSant": 5015,
      "Ġwhisper": 5016,
      "Ġrose": 5017,
      "Ġholds": 5018,
      "Ġcaused": 5019,
      "iant": 5020,
      "lag": 5021,
      "nes": 5022,
      "Ġger": 5023,
      "ĠAnt": 5024,
      "gev": 5025,
      "Ġaffect": 5026,
      "Ġentered": 5027,
      "incip": 5028,
      "Ġlearned": 5029,
      "èĩªå·±": 5030,
      "ĠSunday": 5031,
      "OL": 5032,
      "iar": 5033,
      "Ġ=": 5034,
      "olutely": 5035,
      "Ġkans": 5036,
      "Ġgebruiken": 5037,
      "Geen": 5038,
      "Ġcro": 5039,
      "Ġworse": 5040,
      "ĠIntern": 5041,
      "Peter": 5042,
      "Ġkaart": 5043,
      "ĠHenry": 5044,
      "ĠRed": 5045,
      "Ġmodern": 5046,
      "five": 5047,
      "Ġbacter": 5048,
      "itude": 5049,
      "ĠTV": 5050,
      "Ġverw": 5051,
      "rijven": 5052,
      "Ġsimply": 5053,
      "oven": 5054,
      "lect": 5055,
      "Ġligt": 5056,
      "Ġchocolate": 5057,
      "Ġdagen": 5058,
      "arah": 5059,
      "æľĢ": 5060,
      "Ġcourt": 5061,
      "inter": 5062,
      "ĠLa": 5063,
      "Ġwarn": 5064,
      "Ġnumbers": 5065,
      "',": 5066,
      "Her": 5067,
      "Ġow": 5068,
      "Ġcho": 5069,
      "Ġchoo": 5070,
      "Ġcoast": 5071,
      "Ġemploy": 5072,
      "Ġstrength": 5073,
      "Hallo": 5074,
      "Ġhoog": 5075,
      "aanse": 5076,
      "avond": 5077,
      "Ġdirected": 5078,
      "Ġarrived": 5079,
      "Ġconsidered": 5080,
      "oet": 5081,
      "Ġziek": 5082,
      "olen": 5083,
      "Ġimm": 5084,
      "pa": 5085,
      "ening": 5086,
      "ĠWashington": 5087,
      "URS": 5088,
      "Wacht": 5089,
      "Ġontw": 5090,
      "akant": 5091,
      "arts": 5092,
      "Ġbridge": 5093,
      "Ġloved": 5094,
      "Ġaction": 5095,
      "Ġelephant": 5096,
      "éĽ": 5097,
      "Ġweather": 5098,
      "Ġboek": 5099,
      "200": 5100,
      "Pr": 5101,
      "hin": 5102,
      "ĠLeg": 5103,
      "Ġtalked": 5104,
      "vious": 5105,
      "Ġwand": 5106,
      "Ġfeat": 5107,
      "these": 5108,
      "Ġrespons": 5109,
      "Ġund": 5110,
      "ĠJesus": 5111,
      "Ġterms": 5112,
      "æīĵ": 5113,
      "Bed": 5114,
      "wr": 5115,
      "Ġsell": 5116,
      "Ġgelijk": 5117,
      "Ġexist": 5118,
      "ateg": 5119,
      "Ġ2013": 5120,
      "SC": 5121,
      "Tr": 5122,
      "ĠHall": 5123,
      "ularly": 5124,
      "ĠLu": 5125,
      "ä½Ĩ": 5126,
      "hy": 5127,
      "edy": 5128,
      "Ġsmile": 5129,
      "Ġlength": 5130,
      "inct": 5131,
      "Ġweap": 5132,
      "ĠSan": 5133,
      "Ġang": 5134,
      "rap": 5135,
      "ijnen": 5136,
      "Ġblank": 5137,
      "Ġappl": 5138,
      "ouwen": 5139,
      "Ġfol": 5140,
      "Ġvindt": 5141,
      "Ġofficers": 5142,
      "Ġduty": 5143,
      "Ġmilitary": 5144,
      "vell": 5145,
      "Ġregard": 5146,
      "Ġclever": 5147,
      "æĹ¶åĢĻ": 5148,
      "kn": 5149,
      "Ã¶": 5150,
      "ç®": 5151,
      "ago": 5152,
      "ĠFranc": 5153,
      "ledge": 5154,
      "Ġsett": 5155,
      "Le": 5156,
      "Lu": 5157,
      "cia": 5158,
      "ergy": 5159,
      "Ġbill": 5160,
      "Ġnature": 5161,
      "Ġoccasion": 5162,
      "Ġwit": 5163,
      "Ġhiding": 5164,
      "arrow": 5165,
      "Ġliter": 5166,
      "asons": 5167,
      "Ġagreed": 5168,
      "ĠAND": 5169,
      "ç¬": 5170,
      "rees": 5171,
      "idden": 5172,
      "Ġaff": 5173,
      "13": 5174,
      "Van": 5175,
      "oming": 5176,
      "Ġonge": 5177,
      "ĠMus": 5178,
      "Ġleader": 5179,
      "ĠChris": 5180,
      "Ġmilj": 5181,
      "uin": 5182,
      "Ġtong": 5183,
      "ental": 5184,
      "Ġstem": 5185,
      "Ġdiscovered": 5186,
      "!'": 5187,
      "Ġtherefore": 5188,
      "Ġcoat": 5189,
      "Ġguard": 5190,
      "Ġproduced": 5191,
      "Ġsquare": 5192,
      "Ġinsp": 5193,
      "ĠOld": 5194,
      "Ġcrit": 5195,
      "ĠSl": 5196,
      "äºĽ": 5197,
      "Ġ2007": 5198,
      "Ġnineteen": 5199,
      "Ġzorgen": 5200,
      "Ġsearch": 5201,
      "Ġ2016": 5202,
      "Ġspeaking": 5203,
      "voorbeeld": 5204,
      "Ġbreath": 5205,
      "Ġbeyond": 5206,
      "Ġcouncil": 5207,
      "zeg": 5208,
      "Ġbelieved": 5209,
      "ĠCanada": 5210,
      "Ġprotect": 5211,
      "ĠAcademy": 5212,
      "Listen": 5213,
      "Ġdrawing": 5214,
      "Ġconcl": 5215,
      "jebl": 5216,
      "Ġflying": 5217,
      "ola": 5218,
      "Ġspend": 5219,
      "æĸ¹": 5220,
      "ĠParis": 5221,
      "Sure": 5222,
      "Ġtower": 5223,
      "Ġlaid": 5224,
      "Ġheet": 5225,
      "ĠOok": 5226,
      "Ġjoin": 5227,
      "wee": 5228,
      "Ġspeel": 5229,
      "Ġgrad": 5230,
      "Ġcorrect": 5231,
      "ziek": 5232,
      "Ġtijdens": 5233,
      "Ġham": 5234,
      "Ġcru": 5235,
      "Ġrail": 5236,
      "Ġsongs": 5237,
      "Ġvertellen": 5238,
      "arry": 5239,
      "noise": 5240,
      "udd": 5241,
      "Ġopport": 5242,
      "Ġaud": 5243,
      "Ġgele": 5244,
      "Ġvac": 5245,
      "rib": 5246,
      "åīį": 5247,
      "ĠCalifornia": 5248,
      "Ġhey": 5249,
      "Ġjaren": 5250,
      "hered": 5251,
      "Ġ2012": 5252,
      "åħ¬": 5253,
      "Ġpaint": 5254,
      "Ġwoods": 5255,
      "ny": 5256,
      "Ġmov": 5257,
      "ĠRo": 5258,
      "issen": 5259,
      "Ġmeaning": 5260,
      "Ġdestroy": 5261,
      "'?": 5262,
      "kelijk": 5263,
      "è¢": 5264,
      "Ġnest": 5265,
      "Ġnaughty": 5266,
      "Ġlicht": 5267,
      "Ġplane": 5268,
      "Ġarrang": 5269,
      "Ġgroe": 5270,
      "Ġhotel": 5271,
      "iÃ«n": 5272,
      "ĠAlex": 5273,
      "elly": 5274,
      "Ġwelcome": 5275,
      "Ġhigher": 5276,
      "four": 5277,
      "Ġteddy": 5278,
      "ĠMed": 5279,
      "Ġtotal": 5280,
      "Pe": 5281,
      "mee": 5282,
      "Ġupstairs": 5283,
      "ĠEgy": 5284,
      "These": 5285,
      "ä¸ī": 5286,
      "Ġwerken": 5287,
      "Ġ2015": 5288,
      "Ġclock": 5289,
      "Mom": 5290,
      "Ġhers": 5291,
      "Ġinterrupt": 5292,
      "ĠAnn": 5293,
      "Ġoppos": 5294,
      "Ġutter": 5295,
      "Nou": 5296,
      "ida": 5297,
      "umber": 5298,
      "ĠGood": 5299,
      "istan": 5300,
      "Would": 5301,
      "Ġtiny": 5302,
      "Ġrap": 5303,
      "ums": 5304,
      "Ġmisschien": 5305,
      "inese": 5306,
      "Ġdriving": 5307,
      "Ġestab": 5308,
      "Ġroof": 5309,
      "Ġdate": 5310,
      "Nothing": 5311,
      "Ġdressed": 5312,
      "Ġpal": 5313,
      "ĠLee": 5314,
      "Ġsimple": 5315,
      "Ġinformatie": 5316,
      "big": 5317,
      "Ġthreat": 5318,
      "ĠSim": 5319,
      "ĠCath": 5320,
      "ppen": 5321,
      "ĠNet": 5322,
      "Ġcalling": 5323,
      "Does": 5324,
      "Ġmissing": 5325,
      "astern": 5326,
      "jeblieft": 5327,
      "outs": 5328,
      "Ġnote": 5329,
      "åŃ¦": 5330,
      "Ġnam": 5331,
      "Ġlines": 5332,
      "Ġstupid": 5333,
      "Ġcloud": 5334,
      "Ġolder": 5335,
      "Ġtraining": 5336,
      "ĠFlorence": 5337,
      "Mag": 5338,
      "ups": 5339,
      "oups": 5340,
      "ĠBo": 5341,
      "ements": 5342,
      "Ġ2008": 5343,
      "Ġaccident": 5344,
      "Ġnecessary": 5345,
      "Hou": 5346,
      "iber": 5347,
      "ikt": 5348,
      "Ġconv": 5349,
      "Ġ2000": 5350,
      "Ġgrond": 5351,
      "Ġattract": 5352,
      "aft": 5353,
      "Ġthuis": 5354,
      "ĠHere": 5355,
      "Ġmannen": 5356,
      "aret": 5357,
      "Ġpublished": 5358,
      "Very": 5359,
      "bel": 5360,
      "cean": 5361,
      "Ġspeed": 5362,
      "Ġbackground": 5363,
      "16": 5364,
      "pot": 5365,
      "ester": 5366,
      "ĠWhere": 5367,
      "Ġcurrent": 5368,
      "Dr": 5369,
      "mond": 5370,
      "asc": 5371,
      "Ġriv": 5372,
      "oorten": 5373,
      "ĠIts": 5374,
      "Ġindivid": 5375,
      "Two": 5376,
      "gent": 5377,
      "imin": 5378,
      "ify": 5379,
      "Ġeasily": 5380,
      "Ġprofessional": 5381,
      "Amer": 5382,
      "ocht": 5383,
      "æµ": 5384,
      "eman": 5385,
      "Ġpromise": 5386,
      "Ġassist": 5387,
      "Excuse": 5388,
      "aties": 5389,
      "igd": 5390,
      "Ġstom": 5391,
      "alle": 5392,
      "Ġopt": 5393,
      "Ġprobe": 5394,
      "Ġtrade": 5395,
      "Ġcontact": 5396,
      "Ġdifference": 5397,
      "Ġarticle": 5398,
      "è®©": 5399,
      "Ġvijf": 5400,
      "Ġonto": 5401,
      "Ġplat": 5402,
      "ĠStreet": 5403,
      "rijd": 5404,
      "Ġ2009": 5405,
      "Ġrelation": 5406,
      "Ġgeluk": 5407,
      "Ġraised": 5408,
      "Ġstrugg": 5409,
      "Ġhoop": 5410,
      "Ġhandle": 5411,
      "ĠSaturday": 5412,
      "erved": 5413,
      "]!": 5414,
      "ĠTony": 5415,
      "Ġuitspra": 5416,
      "Ġscar": 5417,
      "Ġadvent": 5418,
      "æĺİ": 5419,
      "Ġhappening": 5420,
      "ĠJapanese": 5421,
      "uct": 5422,
      "roat": 5423,
      "ĠCo": 5424,
      "Ġunless": 5425,
      "Ġskin": 5426,
      "Ġmooi": 5427,
      "Ġbren": 5428,
      "Really": 5429,
      "Ġtaste": 5430,
      "lim": 5431,
      "ÃŃ": 5432,
      "hest": 5433,
      "Ġspelen": 5434,
      "Ġmotor": 5435,
      "Ġeducation": 5436,
      "Ġrough": 5437,
      "aud": 5438,
      "ĠKen": 5439,
      "Ġescape": 5440,
      "wat": 5441,
      "ĠNa": 5442,
      "Ġoffer": 5443,
      "Ġcheek": 5444,
      "sey": 5445,
      "Ġstraw": 5446,
      "ĠBilly": 5447,
      "Over": 5448,
      "ĠVer": 5449,
      "Ġ2006": 5450,
      "Ġfalling": 5451,
      "Ġvoedsel": 5452,
      "ieten": 5453,
      "Ġclaim": 5454,
      "Ġindepend": 5455,
      "Ġoriginal": 5456,
      "eken": 5457,
      "æ±": 5458,
      "oured": 5459,
      "Ġeager": 5460,
      "ĠFirst": 5461,
      "berry": 5462,
      "ĠStone": 5463,
      "annel": 5464,
      "Ġsnake": 5465,
      "Ġfamilie": 5466,
      "Cos": 5467,
      "Ġbijna": 5468,
      "ä¸¤": 5469,
      "Ġbabies": 5470,
      "Ġstream": 5471,
      "ĠJul": 5472,
      "Ġbegrij": 5473,
      "Ġtrip": 5474,
      "Ġimmediately": 5475,
      "every": 5476,
      "Ġtone": 5477,
      "Ġcous": 5478,
      "ruction": 5479,
      "Ġelke": 5480,
      "Ġended": 5481,
      "ĠPortug": 5482,
      "Leg": 5483,
      "Ġnon": 5484,
      "ĠTs": 5485,
      "ĠCome": 5486,
      "esta": 5487,
      "Ġhistor": 5488,
      "å½ĵ": 5489,
      "ube": 5490,
      "Ġdicht": 5491,
      "Ġkil": 5492,
      "ĠCO": 5493,
      "rain": 5494,
      "Ġarch": 5495,
      "Ġ186": 5496,
      "ashion": 5497,
      "è§ģ": 5498,
      "ĠCarol": 5499,
      "Qu": 5500,
      "Ġ:": 5501,
      "Ġaunt": 5502,
      "Ġwoorden": 5503,
      "Ġoil": 5504,
      "Ġkop": 5505,
      "ĠColl": 5506,
      "Ġimpro": 5507,
      "Ġtv": 5508,
      "Ġlijkt": 5509,
      "Ġhero": 5510,
      "Ġmeal": 5511,
      "Ġallow": 5512,
      "those": 5513,
      "ourt": 5514,
      "ephone": 5515,
      "Ġzelfs": 5516,
      "Ne": 5517,
      "Ġanywhere": 5518,
      "Ġcontract": 5519,
      "Ġbedroom": 5520,
      "Ġpulled": 5521,
      "ĠKingdom": 5522,
      "ique": 5523,
      "Ġ~": 5524,
      "Ġgate": 5525,
      "elden": 5526,
      "Ġgehe": 5527,
      "ucky": 5528,
      "Ġprivate": 5529,
      "From": 5530,
      "ky": 5531,
      "Ġtight": 5532,
      "another": 5533,
      "onel": 5534,
      "esp": 5535,
      "ooi": 5536,
      "Ġstarting": 5537,
      "IF": 5538,
      "isme": 5539,
      "Ġthrew": 5540,
      "oughs": 5541,
      "Ġinvolved": 5542,
      "ĠCharles": 5543,
      "alo": 5544,
      "Ġzee": 5545,
      "ĠBro": 5546,
      "Ġverz": 5547,
      "ĠRock": 5548,
      "Ġthinks": 5549,
      "ĠCharl": 5550,
      "Ġ40": 5551,
      "Ġdrew": 5552,
      "icious": 5553,
      "ĠCup": 5554,
      "History": 5555,
      "Ġbound": 5556,
      "Ġthus": 5557,
      "Ġareas": 5558,
      "Ġplenty": 5559,
      "ption": 5560,
      "Ġhardly": 5561,
      "Ġshel": 5562,
      "ĠState": 5563,
      "Ġmovies": 5564,
      "Ġlion": 5565,
      "Ġlod": 5566,
      "utch": 5567,
      "ables": 5568,
      "ĠPet": 5569,
      "Deze": 5570,
      "Mama": 5571,
      "mit": 5572,
      "Ġmult": 5573,
      "Ġzag": 5574,
      "...?": 5575,
      "ĠPur": 5576,
      "YOU": 5577,
      "Ġwoord": 5578,
      "ĠCr": 5579,
      "ĠDem": 5580,
      "Ġadult": 5581,
      "Ġsupper": 5582,
      "åĽł": 5583,
      "wich": 5584,
      "erc": 5585,
      "Ġzouden": 5586,
      "ĠAfrica": 5587,
      "Ġoccur": 5588,
      "Ġquarter": 5589,
      "ishes": 5590,
      "ĠVol": 5591,
      "Ġopening": 5592,
      "ĠAdam": 5593,
      "Ġcircum": 5594,
      "Ġcrowd": 5595,
      "30": 5596,
      "æ¸": 5597,
      "éļ": 5598,
      "Ġrich": 5599,
      "opl": 5600,
      "Ġsugar": 5601,
      "Ġlights": 5602,
      "Welke": 5603,
      ".,": 5604,
      "zicht": 5605,
      "Ġhadn": 5606,
      "Ġminister": 5607,
      "åĬ¨": 5608,
      "aign": 5609,
      "make": 5610,
      "ĠChe": 5611,
      "Ġenige": 5612,
      "ĠPri": 5613,
      "Ġgroups": 5614,
      "Ġcompletely": 5615,
      "Bedankt": 5616,
      "usion": 5617,
      "osh": 5618,
      "gency": 5619,
      "Ġwatched": 5620,
      "utenant": 5621,
      "Ġmama": 5622,
      "Ġpa": 5623,
      "ĠNed": 5624,
      "Ġrode": 5625,
      "Ġdefin": 5626,
      "DAD": 5627,
      "Jullie": 5628,
      "could": 5629,
      "Ġbru": 5630,
      "Ġblind": 5631,
      "shire": 5632,
      "Ġmeneer": 5633,
      "Ġsinger": 5634,
      "Our": 5635,
      "Ġknife": 5636,
      "ĠJwww": 5637,
      "ensive": 5638,
      "Ġflight": 5639,
      "Ġhuge": 5640,
      "Sc": 5641,
      "ban": 5642,
      "bird": 5643,
      "mark": 5644,
      "åĿ": 5645,
      "Ġdust": 5646,
      "Ġbye": 5647,
      "æŀľ": 5648,
      "Ġscience": 5649,
      "arliam": 5650,
      "oved": 5651,
      "Ġsoul": 5652,
      "Ġbatter": 5653,
      "ĠGo": 5654,
      "Ġhoren": 5655,
      "lijke": 5656,
      "ita": 5657,
      "iform": 5658,
      "umper": 5659,
      "Ġappoint": 5660,
      "Ġmonster": 5661,
      "ENT": 5662,
      "dad": 5663,
      "ĠMel": 5664,
      "iÃ«nt": 5665,
      "Tot": 5666,
      "Wij": 5667,
      "host": 5668,
      "Ġpath": 5669,
      "Ġrout": 5670,
      "ĠMat": 5671,
      "going": 5672,
      "ĠWhite": 5673,
      "ĠChinese": 5674,
      "Ġgebeurt": 5675,
      "Ġdinosaur": 5676,
      "arliament": 5677,
      "Ġwake": 5678,
      "Ġprim": 5679,
      "Ġhouses": 5680,
      "aled": 5681,
      "rett": 5682,
      "Ġlocated": 5683,
      "ĠNorah": 5684,
      "Ġenergy": 5685,
      "Ġarrest": 5686,
      "Ġgeleden": 5687,
      "Ġmunicipality": 5688,
      "AI": 5689,
      "bal": 5690,
      "Ġjour": 5691,
      "ĠMany": 5692,
      "Thomas": 5693,
      "Ġsmart": 5694,
      "Ġpersonal": 5695,
      "Ġmotion": 5696,
      "ĠIT": 5697,
      "ĠHugh": 5698,
      "Ġchap": 5699,
      "Ġedge": 5700,
      "Ġloss": 5701,
      "Ġzoek": 5702,
      "Ġshirt": 5703,
      "ĠSpain": 5704,
      "Ġexplain": 5705,
      "Ġlucky": 5706,
      "Ġpurpose": 5707,
      "tr": 5708,
      "Ġcases": 5709,
      "Ġcensus": 5710,
      "Ġprincip": 5711,
      "Which": 5712,
      "Ġbeside": 5713,
      "Mommy": 5714,
      "Ġdieren": 5715,
      "Ġhill": 5716,
      "åĲĮ": 5717,
      "ĠEgypt": 5718,
      "father": 5719,
      "maar": 5720,
      "Ġhm": 5721,
      "Ġplain": 5722,
      "Ġslide": 5723,
      "fin": 5724,
      "urton": 5725,
      "å¥³": 5726,
      "Ġoccup": 5727,
      "Ġchanges": 5728,
      "Ġavail": 5729,
      "FRI": 5730,
      "HT": 5731,
      "éĴ": 5732,
      "Ġvent": 5733,
      "lem": 5734,
      "ieke": 5735,
      "ĠMac": 5736,
      "ilig": 5737,
      "inder": 5738,
      "Ġscient": 5739,
      "Ġsurv": 5740,
      "Ġtrem": 5741,
      "Ġcollect": 5742,
      "keep": 5743,
      "Ġamb": 5744,
      "Ġdenken": 5745,
      "Ġruns": 5746,
      "Ġmountains": 5747,
      "Ġhonest": 5748,
      "cries": 5749,
      "ç«": 5750,
      "veer": 5751,
      "Ġshoulder": 5752,
      "Aye": 5753,
      "oted": 5754,
      "ente": 5755,
      "ĠAss": 5756,
      "Ġgoin": 5757,
      "Ġnotice": 5758,
      "ĠWik": 5759,
      "brother": 5760,
      "Ġexcited": 5761,
      "mie": 5762,
      "sn": 5763,
      "ĠAward": 5764,
      "actually": 5765,
      "Ġdriver": 5766,
      "Ġearlier": 5767,
      "col": 5768,
      "uy": 5769,
      "Ġaang": 5770,
      "Ġwearing": 5771,
      "ĠMama": 5772,
      "ĠDis": 5773,
      "ä»İ": 5774,
      "reedom": 5775,
      "Ġorders": 5776,
      "Ġbuck": 5777,
      "Ġstre": 5778,
      "ellig": 5779,
      "Ġschools": 5780,
      "Ġgebied": 5781,
      "Ġmethod": 5782,
      "HÃ©": 5783,
      "SE": 5784,
      "aalde": 5785,
      "Ġcolors": 5786,
      "Ġmissed": 5787,
      "è¢«": 5788,
      "erst": 5789,
      "Ġsides": 5790,
      "Ġvond": 5791,
      "Ġenk": 5792,
      "Ġmostly": 5793,
      "ibility": 5794,
      "ĠScot": 5795,
      "Mrs": 5796,
      "ĠOm": 5797,
      "Ġtells": 5798,
      "ontin": 5799,
      "ĠChristian": 5800,
      "Ġsteps": 5801,
      "Ġdevelopment": 5802,
      "ĠRussian": 5803,
      "Ġogen": 5804,
      "Ġstret": 5805,
      "opt": 5806,
      "Ġbutton": 5807,
      "weg": 5808,
      "Ġontwikk": 5809,
      "UT": 5810,
      "Zeg": 5811,
      "iate": 5812,
      "Ġdun": 5813,
      "rake": 5814,
      "Ġshoe": 5815,
      "å¤ª": 5816,
      "Ġawful": 5817,
      "Ġapproach": 5818,
      "AC": 5819,
      "May": 5820,
      "Ġcart": 5821,
      "Ġcrew": 5822,
      "owel": 5823,
      "ria": 5824,
      "ocrat": 5825,
      "Dad": 5826,
      "yer": 5827,
      "elet": 5828,
      "ĠLat": 5829,
      "Ġspell": 5830,
      "Ġniemand": 5831,
      "é£": 5832,
      "Ġstates": 5833,
      "ĠFather": 5834,
      "ittee": 5835,
      "Ġfounded": 5836,
      "oemd": 5837,
      "Ġfellows": 5838,
      "Ġverhaal": 5839,
      "Ġannounced": 5840,
      "fe": 5841,
      "ials": 5842,
      "ucht": 5843,
      "Ġtap": 5844,
      "Ġredu": 5845,
      "Ġdoc": 5846,
      "ĠTheir": 5847,
      "Ġsmoke": 5848,
      "Ġcheer": 5849,
      "ĠItalian": 5850,
      "ĠRichard": 5851,
      "gl": 5852,
      "Ġtou": 5853,
      "ĠMaster": 5854,
      "ĠBessie": 5855,
      "--\"": 5856,
      "ĠDoor": 5857,
      "ops": 5858,
      "Ġuncle": 5859,
      "Ġexpected": 5860,
      "Am": 5861,
      "icans": 5862,
      "Ġeleven": 5863,
      "Ġhello": 5864,
      "Ġproud": 5865,
      "picks": 5866,
      "Ġboss": 5867,
      "Ġmir": 5868,
      "Ġkort": 5869,
      "ĠTer": 5870,
      "ĠHigh": 5871,
      "ĠWil": 5872,
      "æīĭ": 5873,
      "ĠWho": 5874,
      "Ġsurprised": 5875,
      "Ġdangerous": 5876,
      "Ġprepared": 5877,
      "èº": 5878,
      "Ġtaught": 5879,
      "heart": 5880,
      "Ġemer": 5881,
      "ĠON": 5882,
      "Ġremain": 5883,
      "Ġcarefully": 5884,
      "azing": 5885,
      "Ġmiljoen": 5886,
      "gain": 5887,
      "va": 5888,
      "Ġrug": 5889,
      "Ġgezeg": 5890,
      "iana": 5891,
      "Ġpercent": 5892,
      "Ġversion": 5893,
      "Ġnomin": 5894,
      "rol": 5895,
      "Ġweight": 5896,
      "Ġtwice": 5897,
      "Ġgenerally": 5898,
      "Ġtradition": 5899,
      "GE": 5900,
      "èĤ": 5901,
      "Ġtim": 5902,
      "icated": 5903,
      "Ġforces": 5904,
      "ĠSov": 5905,
      "deel": 5906,
      "Ġagree": 5907,
      "Ġscream": 5908,
      "Ġbestaat": 5909,
      "æī¾": 5910,
      "Ġontstaan": 5911,
      "Ġhi": 5912,
      "orough": 5913,
      "Ġforth": 5914,
      "ĠMichael": 5915,
      "ĠAz": 5916,
      "Ġbijvoorbeeld": 5917,
      "Ġphot": 5918,
      "âĢķ": 5919,
      "Bob": 5920,
      "gress": 5921,
      "Ġaand": 5922,
      "ĠAre": 5923,
      "cles": 5924,
      "ĠBrown": 5925,
      "ety": 5926,
      "illa": 5927,
      "Ġlog": 5928,
      "Ġhurry": 5929,
      "Ġaward": 5930,
      "otion": 5931,
      "Ġspread": 5932,
      "ruk": 5933,
      "ossible": 5934,
      "werp": 5935,
      "Ġ2001": 5936,
      "Ġobviously": 5937,
      "Ġfilled": 5938,
      "ĠÃ": 5939,
      "orden": 5940,
      "Ġander": 5941,
      "Ġvakant": 5942,
      "Ġuitge": 5943,
      "Ġactor": 5944,
      "Ġcommunity": 5945,
      "Ġ2004": 5946,
      "ĠâĮ": 5947,
      "aad": 5948,
      "pet": 5949,
      "tje": 5950,
      "Ġfaith": 5951,
      "ammy": 5952,
      "ĠMic": 5953,
      "ĠDNA": 5954,
      "ĠWaar": 5955,
      "Ġscene": 5956,
      "Ġunc": 5957,
      "ĠFrom": 5958,
      "Ġempty": 5959,
      "KE": 5960,
      "Ste": 5961,
      "boy": 5962,
      "counter": 5963,
      "ala": 5964,
      "Ġweak": 5965,
      "ĠAct": 5966,
      "ĠYour": 5967,
      "Ġplanten": 5968,
      "komst": 5969,
      "kl": 5970,
      "Ġcraw": 5971,
      "Ġnacht": 5972,
      "Ġheat": 5973,
      "äºİ": 5974,
      "Ġguns": 5975,
      "Ġjongens": 5976,
      "Ġstruct": 5977,
      "Ġsuggested": 5978,
      "sters": 5979,
      "ĠSus": 5980,
      "ante": 5981,
      "ĠDen": 5982,
      "Ġchoose": 5983,
      "Ġbrush": 5984,
      "ĠIsland": 5985,
      "åĨį": 5986,
      "Ġeeuw": 5987,
      "Ġbat": 5988,
      "Ġpil": 5989,
      "ette": 5990,
      "urry": 5991,
      "ĠNesta": 5992,
      "Ġgegeven": 5993,
      "ĠEarth": 5994,
      "oking": 5995,
      "Ġbetek": 5996,
      "Ġpleasure": 5997,
      "Ġmeisje": 5998,
      "isn": 5999,
      "Ġlift": 6000,
      "ĠAir": 6001,
      "abr": 6002,
      "åĲ¬": 6003,
      "ĠFrancis": 6004,
      "El": 6005,
      "dog": 6006,
      "Ġharm": 6007,
      "ĠBig": 6008,
      "Ġflag": 6009,
      "Ġregular": 6010,
      "ification": 6011,
      "LY": 6012,
      "sil": 6013,
      "ä¾": 6014,
      "Ġevidence": 6015,
      "Ġjumped": 6016,
      "åı¯ä»¥": 6017,
      "win": 6018,
      "izing": 6019,
      "Ġcontinues": 6020,
      "éĹ®": 6021,
      "iens": 6022,
      "Ġbin": 6023,
      "ora": 6024,
      "Ġpair": 6025,
      "ĠLittle": 6026,
      "Ġpersoon": 6027,
      "Ġhalen": 6028,
      "Ġexpand": 6029,
      "Ġgevonden": 6030,
      "æŃ£": 6031,
      "vocalizes": 6032,
      "Ġpin": 6033,
      "uckles": 6034,
      "Ġclimb": 6035,
      "Ġhoudt": 6036,
      "Never": 6037,
      "ĠDie": 6038,
      "Ġplans": 6039,
      "ighs": 6040,
      "Ġlistening": 6041,
      "sych": 6042,
      "vir": 6043,
      "Ġpool": 6044,
      "ĠSal": 6045,
      "ĠBest": 6046,
      "Ġlips": 6047,
      "istics": 6048,
      "Ġusual": 6049,
      "orst": 6050,
      "ĠOver": 6051,
      "Ġheads": 6052,
      "Ġpolic": 6053,
      "ĠEurop": 6054,
      "ummie": 6055,
      "ç§į": 6056,
      "zil": 6057,
      "ispers": 6058,
      "ĠSoc": 6059,
      "ella": 6060,
      "ĠEleanor": 6061,
      "essed": 6062,
      "Ġtroops": 6063,
      "Ġbegins": 6064,
      "å¤´": 6065,
      "Ġseconds": 6066,
      "Ġdollar": 6067,
      "Ġcookie": 6068,
      "uro": 6069,
      "é¡": 6070,
      "Ġtur": 6071,
      "onse": 6072,
      "elle": 6073,
      "geant": 6074,
      "ropical": 6075,
      "Ġdouble": 6076,
      "ĠST": 6077,
      "ĠAB": 6078,
      "ĠBE": 6079,
      "Ġshr": 6080,
      "Ġneedta": 6081,
      "ĠScott": 6082,
      "Ġstruck": 6083,
      "Ġargument": 6084,
      "Ġpak": 6085,
      "ĠRay": 6086,
      "Ġspoken": 6087,
      "Help": 6088,
      "Ġtoil": 6089,
      "Ġsaved": 6090,
      "Ġvooral": 6091,
      "Ġtrick": 6092,
      "ords": 6093,
      "aws": 6094,
      "Ġsymb": 6095,
      "Ġfallen": 6096,
      "Ġholiday": 6097,
      "Ġtro": 6098,
      "Ġrot": 6099,
      "Ġgevol": 6100,
      "Ġspr": 6101,
      "Ġ190": 6102,
      "åıĪ": 6103,
      "Ġelection": 6104,
      "Could": 6105,
      "Ġess": 6106,
      "Ġcy": 6107,
      "ä½ľ": 6108,
      "ĠFriday": 6109,
      "uiten": 6110,
      "Ġ2005": 6111,
      "Ġklas": 6112,
      "Ġdirector": 6113,
      "éĹ´": 6114,
      "Ġtelephone": 6115,
      "won": 6116,
      "Ġinj": 6117,
      "inda": 6118,
      "ĠChild": 6119,
      "Ġzoon": 6120,
      "åħ¶": 6121,
      "jorie": 6122,
      "Ġimagine": 6123,
      "uig": 6124,
      "west": 6125,
      "Ġobl": 6126,
      "ĠMal": 6127,
      "puts": 6128,
      "Ġships": 6129,
      "Ġrocks": 6130,
      "xim": 6131,
      "Ġä¸į": 6132,
      "Ġaver": 6133,
      "Ġsour": 6134,
      "ennen": 6135,
      "Ġmission": 6136,
      "âĮĭ": 6137,
      "ĠConf": 6138,
      "Ġrapid": 6139,
      "ares": 6140,
      "æĽ": 6141,
      "itation": 6142,
      "Ġgang": 6143,
      "Ġthroat": 6144,
      "whisper": 6145,
      "werk": 6146,
      "Ġpractice": 6147,
      "Ġfault": 6148,
      "Ġrate": 6149,
      "ĠRoger": 6150,
      "Ġblad": 6151,
      "Ġgrowing": 6152,
      "Ġteams": 6153,
      "Ġveget": 6154,
      "Ġmistake": 6155,
      "Ġresearch": 6156,
      "Ġnursery": 6157,
      "Ġavailable": 6158,
      "iated": 6159,
      "è¶": 6160,
      "ero": 6161,
      "ona": 6162,
      "Ġinh": 6163,
      "raft": 6164,
      "oorz": 6165,
      "Ġgrown": 6166,
      "Ġmovement": 6167,
      "Ġpromised": 6168,
      "Ġfifteen": 6169,
      "Ġbekend": 6170,
      "apa": 6171,
      "Ġfixed": 6172,
      "Ġideas": 6173,
      "Ġcrayon": 6174,
      "iance": 6175,
      "ini": 6176,
      "Ġhug": 6177,
      "asp": 6178,
      "Ġbits": 6179,
      "Ġkeeping": 6180,
      "Ã«n": 6181,
      "Ġgesl": 6182,
      "Ġdiag": 6183,
      "midd": 6184,
      "rant": 6185,
      "Ġta": 6186,
      "ators": 6187,
      "abet": 6188,
      "Ġgrot": 6189,
      "èĢĮ": 6190,
      "Ġlanguages": 6191,
      "æ¯Ķ": 6192,
      "Ġswimming": 6193,
      "Man": 6194,
      "VAL": 6195,
      "atives": 6196,
      "omme": 6197,
      "enda": 6198,
      "ĠFin": 6199,
      "ĠEllen": 6200,
      "Ġsees": 6201,
      "Alles": 6202,
      "Ġmagaz": 6203,
      "Ġelectric": 6204,
      "ios": 6205,
      "ule": 6206,
      "zij": 6207,
      "itor": 6208,
      "Ġles": 6209,
      "Ġkree": 6210,
      "urity": 6211,
      "ĠME": 6212,
      "onde": 6213,
      "genomen": 6214,
      "Ġfourth": 6215,
      "Ġdenkt": 6216,
      "Ġmicrophone": 6217,
      "bra": 6218,
      "Ġtoast": 6219,
      "ols": 6220,
      "think": 6221,
      "Ġmanner": 6222,
      "Ġbrave": 6223,
      "FAD": 6224,
      "ga": 6225,
      "gem": 6226,
      "Ġvre": 6227,
      "ĠMos": 6228,
      "onds": 6229,
      "geten": 6230,
      "Ġwerkt": 6231,
      "ĠItaly": 6232,
      "Ġoude": 6233,
      "his": 6234,
      "olic": 6235,
      "angers": 6236,
      "Ġcampaign": 6237,
      "Ġsuccessful": 6238,
      "Ġdeterm": 6239,
      "Ph": 6240,
      "åĺ": 6241,
      "enth": 6242,
      "Ġplants": 6243,
      "Ġqual": 6244,
      "ĠPeople": 6245,
      "Ġchoice": 6246,
      "su": 6247,
      "ville": 6248,
      "Ġox": 6249,
      "Ġgat": 6250,
      "Ġmoeil": 6251,
      "ĠRome": 6252,
      "oseph": 6253,
      "Ġvandaag": 6254,
      "Ġgezegd": 6255,
      "jo": 6256,
      "zing": 6257,
      "æĻ": 6258,
      "Ġsite": 6259,
      "reven": 6260,
      "itar": 6261,
      "aked": 6262,
      "ĠGeef": 6263,
      "åĪĨ": 6264,
      "Ġstudio": 6265,
      "Ġabsolutely": 6266,
      "Ġgeweldig": 6267,
      "rid": 6268,
      "sure": 6269,
      "asy": 6270,
      "Ġrisk": 6271,
      "oln": 6272,
      "Ġteken": 6273,
      "Ġwilling": 6274,
      "izza": 6275,
      "Ġdecision": 6276,
      "bank": 6277,
      "Ġast": 6278,
      "Ġfund": 6279,
      "ELL": 6280,
      "Ġbowl": 6281,
      "gra": 6282,
      "ushes": 6283,
      "Ġshore": 6284,
      "ĠJo": 6285,
      "Ġschat": 6286,
      "Ġcalls": 6287,
      "Ġwriter": 6288,
      "Ġparticularly": 6289,
      "Ġdeveloped": 6290,
      "making": 6291,
      "arily": 6292,
      "irgin": 6293,
      "ĠGro": 6294,
      "ulf": 6295,
      "Ġeaten": 6296,
      "Ġpolicy": 6297,
      "Ġassoc": 6298,
      "Ġpuppet": 6299,
      "BA": 6300,
      "First": 6301,
      "ĠSen": 6302,
      "Ġrare": 6303,
      "Ġprevent": 6304,
      "Ġlanden": 6305,
      "Ġbesl": 6306,
      "Ġconcerned": 6307,
      "Ġach": 6308,
      "stad": 6309,
      "Ġrights": 6310,
      "Ġtongue": 6311,
      "Ġjourney": 6312,
      "rot": 6313,
      "åŁ": 6314,
      "ç¾": 6315,
      "Ġbother": 6316,
      "Ġmorgen": 6317,
      "ĠKe": 6318,
      "Ġcentre": 6319,
      "ĠSamuel": 6320,
      "Ġfemale": 6321,
      "Ġsum": 6322,
      "ede": 6323,
      "Ġpad": 6324,
      "ĠComp": 6325,
      "quar": 6326,
      "should": 6327,
      "Ġevents": 6328,
      "Ġtar": 6329,
      "illed": 6330,
      "Ġmanaged": 6331,
      "Ġshouted": 6332,
      "bouw": 6333,
      "ĠCor": 6334,
      "onday": 6335,
      "ordon": 6336,
      "looking": 6337,
      "Ġincluded": 6338,
      "minist": 6339,
      "Ġfirm": 6340,
      "Ġongeveer": 6341,
      "ses": 6342,
      "zien": 6343,
      "reken": 6344,
      "Ġlopen": 6345,
      "Ġinn": 6346,
      "Ġrange": 6347,
      "using": 6348,
      "Ġcommun": 6349,
      "Ġdollars": 6350,
      "incoln": 6351,
      "Ġservices": 6352,
      "Ġding": 6353,
      "Ġhom": 6354,
      "sta": 6355,
      "Ġzod": 6356,
      "Ġmoves": 6357,
      "Ġopge": 6358,
      "while": 6359,
      "Ġbenef": 6360,
      "ĠBear": 6361,
      "bon": 6362,
      "bare": 6363,
      "Ġä»ĸ": 6364,
      "ĠRec": 6365,
      "Ġdeliver": 6366,
      "Ġofficial": 6367,
      "Ġladies": 6368,
      "å¦Ī": 6369,
      "Ġoorlog": 6370,
      "ĠRoyal": 6371,
      "dro": 6372,
      "Ġpill": 6373,
      "Ġken": 6374,
      "aine": 6375,
      "Ġcarrying": 6376,
      "ĠUncle": 6377,
      "Ġeasier": 6378,
      "ĠAtl": 6379,
      "wijl": 6380,
      "Ġouders": 6381,
      "Ġtitle": 6382,
      "bro": 6383,
      "sequ": 6384,
      "anda": 6385,
      "Ġsav": 6386,
      "Ġ()": 6387,
      "whoops": 6388,
      "Ġenter": 6389,
      "Ġ1990": 6390,
      "Ġdrinking": 6391,
      "âĮī": 6392,
      "Maak": 6393,
      "Te": 6394,
      "Ġkee": 6395,
      "Ġourselves": 6396,
      "elebr": 6397,
      "after": 6398,
      "Ġelders": 6399,
      "fly": 6400,
      "mans": 6401,
      "Ġtiger": 6402,
      "Ġdise": 6403,
      "Ġgeef": 6404,
      "ented": 6405,
      "Ġjoy": 6406,
      "ĠDep": 6407,
      "Ġshown": 6408,
      "åħ³": 6409,
      "Ġordered": 6410,
      "Ġrule": 6411,
      "Ġkoning": 6412,
      "Ġvrienden": 6413,
      "Ġninety": 6414,
      "IR": 6415,
      "rs": 6416,
      "Ġpants": 6417,
      "Ġdancing": 6418,
      "Ġaccording": 6419,
      "ĠArmy": 6420,
      "Chris": 6421,
      "Ġexplained": 6422,
      "Ġruim": 6423,
      "ĠBlackie": 6424,
      "ĠMexico": 6425,
      "Sir": 6426,
      "èĬ": 6427,
      "é«": 6428,
      "ena": 6429,
      "Ġactress": 6430,
      "Ġ189": 6431,
      "ipper": 6432,
      "schijn": 6433,
      "oly": 6434,
      "ĠMount": 6435,
      "Ġneg": 6436,
      "Ġlekker": 6437,
      "ĠAnnie": 6438,
      "Ġbrain": 6439,
      "alf": 6440,
      "Ġprice": 6441,
      "Ġacqu": 6442,
      "Ġshopping": 6443,
      "Ġsociety": 6444,
      "Ġdeclared": 6445,
      "Ġopportunity": 6446,
      "Got": 6447,
      "ĠNick": 6448,
      "è¿Ľ": 6449,
      "Ġpleased": 6450,
      "Ġvrouwen": 6451,
      "Bet": 6452,
      "cream": 6453,
      "Ġbike": 6454,
      "Ġfant": 6455,
      "eland": 6456,
      "idelijk": 6457,
      "aging": 6458,
      "Ġsake": 6459,
      "Ġspeech": 6460,
      "ĠOK": 6461,
      "Ġtweed": 6462,
      "Ġsettle": 6463,
      "Ġverkl": 6464,
      "Ġnormal": 6465,
      "squ": 6466,
      "sorry": 6467,
      "uf": 6468,
      "edia": 6469,
      "Ġpour": 6470,
      "ĠSarah": 6471,
      "ĠBurton": 6472,
      "Ġuniversity": 6473,
      "Ġsurface": 6474,
      "Ġgebeurd": 6475,
      "Ġancient": 6476,
      "ĠQueen": 6477,
      "Jack": 6478,
      "cod": 6479,
      "ym": 6480,
      "itely": 6481,
      "Ġbeide": 6482,
      "Ġverg": 6483,
      "itte": 6484,
      "Ġkinds": 6485,
      "Ġ2003": 6486,
      "Ġminuten": 6487,
      "Ġ188": 6488,
      "Ġsmaller": 6489,
      "Ġleading": 6490,
      "Ġcalm": 6491,
      "Ġmixed": 6492,
      "ĠSmith": 6493,
      "é«ĺ": 6494,
      "Kan": 6495,
      "lin": 6496,
      "ingu": 6497,
      "iezen": 6498,
      "æľ¬": 6499,
      "Ġmessage": 6500,
      "Ġmentioned": 6501,
      "ĠBrazil": 6502,
      "EA": 6503,
      "cut": 6504,
      "Ġsoms": 6505,
      "blue": 6506,
      "Ġontmo": 6507,
      "itie": 6508,
      "Ġdeck": 6509,
      "Ġash": 6510,
      "istry": 6511,
      "ĠEmp": 6512,
      "Ġnewsp": 6513,
      "Laten": 6514,
      "Ġtie": 6515,
      "hee": 6516,
      "Ġcong": 6517,
      "ĠBird": 6518,
      "ĠDun": 6519,
      "Ġexec": 6520,
      "Ġgoodness": 6521,
      "ĠChampionship": 6522,
      "Ġpurple": 6523,
      "æĦŁ": 6524,
      "little": 6525,
      "oons": 6526,
      "icole": 6527,
      "aly": 6528,
      "ĠCong": 6529,
      "Ġcenter": 6530,
      "ournal": 6531,
      "Ed": 6532,
      "Ġboo": 6533,
      "Ġrow": 6534,
      "acks": 6535,
      "ĠLaw": 6536,
      "Ġdesp": 6537,
      "Ġresc": 6538,
      "Ġfalls": 6539,
      "Ġblijft": 6540,
      "ĠGrandma": 6541,
      "ceeded": 6542,
      "èº«": 6543,
      "isy": 6544,
      "ĠSummer": 6545,
      "ĠDutch": 6546,
      "Ġneither": 6547,
      "Ġdownstairs": 6548,
      "åĲĥ": 6549,
      "Ġcomplete": 6550,
      "Che": 6551,
      "Toen": 6552,
      "aries": 6553,
      "Ġleren": 6554,
      "opher": 6555,
      "Ġexamen": 6556,
      "Ġaged": 6557,
      "Ġbloody": 6558,
      "Ġhighest": 6559,
      "æ¬¡": 6560,
      "ÉĻ": 6561,
      "Ġhar": 6562,
      "ĠWay": 6563,
      "zeker": 6564,
      "Ġdoors": 6565,
      "ĠZo": 6566,
      "Ġinternational": 6567,
      "ences": 6568,
      "Ġwalls": 6569,
      "è§īå¾Ĺ": 6570,
      "fessor": 6571,
      "yr": 6572,
      "éĥ": 6573,
      "anen": 6574,
      "Ġfashion": 6575,
      "Ġlap": 6576,
      "Ġzat": 6577,
      "Ġnoticed": 6578,
      "Ġenorm": 6579,
      "ĠPal": 6580,
      "ĠPak": 6581,
      "ples": 6582,
      "Ġremained": 6583,
      "åħĪ": 6584,
      "ommige": 6585,
      "Ġcousin": 6586,
      "hum": 6587,
      "vey": 6588,
      "Ġstyle": 6589,
      "ä¿¡": 6590,
      "Ġoog": 6591,
      "Ġpause": 6592,
      "ĠNoord": 6593,
      "Ġopin": 6594,
      "uhuh": 6595,
      "Ġ31": 6596,
      "Ġprobleem": 6597,
      "yal": 6598,
      "Ġtries": 6599,
      "amma": 6600,
      "ä»Ĭ": 6601,
      "Ġexperiment": 6602,
      "Ġfairly": 6603,
      "ĠRepublic": 6604,
      "Carl": 6605,
      "Ġwan": 6606,
      "Ġstairs": 6607,
      "ĠBu": 6608,
      "umn": 6609,
      "Ġrestaur": 6610,
      "Ġstayed": 6611,
      "Ġkrijg": 6612,
      "Ġmaterial": 6613,
      "Gen": 6614,
      "ading": 6615,
      "ĠTex": 6616,
      "Ġshake": 6617,
      "Ġmeeste": 6618,
      "Perhaps": 6619,
      "Luister": 6620,
      "Ġsen": 6621,
      "Ġbug": 6622,
      "Ġpages": 6623,
      "Ġvog": 6624,
      "alph": 6625,
      "Ġrelated": 6626,
      "Ġgehad": 6627,
      "People": 6628,
      "fall": 6629,
      "yon": 6630,
      "ani": 6631,
      "iano": 6632,
      "Ġfinding": 6633,
      "Ġbetekent": 6634,
      "wing": 6635,
      "Ġcities": 6636,
      "ective": 6637,
      "Ġeverywhere": 6638,
      "Ġresponse": 6639,
      "Ġcondition": 6640,
      "itter": 6641,
      "Ġcellen": 6642,
      "etch": 6643,
      "Ġvess": 6644,
      "icago": 6645,
      "chan": 6646,
      "ĠCourt": 6647,
      "ĠGreen": 6648,
      "ĠLincoln": 6649,
      "Ġlever": 6650,
      "Ġafford": 6651,
      "erences": 6652,
      "ĠAfrican": 6653,
      "çĶµ": 6654,
      "\"'": 6655,
      "+~": 6656,
      "å£": 6657,
      "é©": 6658,
      "reden": 6659,
      "Ġbunny": 6660,
      "omed": 6661,
      "Ġ..": 6662,
      "ĠChurch": 6663,
      "Ġepis": 6664,
      "Ġrelationship": 6665,
      "Ġmor": 6666,
      "Ġinqu": 6667,
      "adow": 6668,
      "ĠArab": 6669,
      "ĠDay": 6670,
      "ĠDid": 6671,
      "Ġknee": 6672,
      "icked": 6673,
      "å®ĥ": 6674,
      "ĠSteven": 6675,
      "Ġrepeated": 6676,
      "ĠTsar": 6677,
      "40": 6678,
      "Ind": 6679,
      "mes": 6680,
      "éĶ": 6681,
      "Ġbump": 6682,
      "Ġcit": 6683,
      "Ġghost": 6684,
      "enten": 6685,
      "sect": 6686,
      "Ġremarked": 6687,
      "----------------": 6688,
      "Su": 6689,
      "loop": 6690,
      "lly": 6691,
      "Ġstoffen": 6692,
      "akker": 6693,
      "Ġveroorz": 6694,
      "Ġnovel": 6695,
      "Ġinvestig": 6696,
      "Ġimpossible": 6697,
      "Ġproperly": 6698,
      "Ġtum": 6699,
      "Ġfought": 6700,
      "Ġbeer": 6701,
      "Ġsoldier": 6702,
      "ĠMaggie": 6703,
      "EC": 6704,
      "ION": 6705,
      "_,": 6706,
      "bar": 6707,
      "rad": 6708,
      "wan": 6709,
      "oned": 6710,
      "Ġzoeken": 6711,
      "ĠDolly": 6712,
      "Ġupset": 6713,
      "Ġknowledge": 6714,
      "ä¸»": 6715,
      "Ġwelk": 6716,
      "Ġgentleman": 6717,
      "Ġappearance": 6718,
      "nic": 6719,
      "isa": 6720,
      "Ġpor": 6721,
      "Ġworried": 6722,
      "Ġboats": 6723,
      "ephen": 6724,
      "Ġelected": 6725,
      "aval": 6726,
      "åĬĽ": 6727,
      "Ġfailed": 6728,
      "Ġwolf": 6729,
      "Ġdiam": 6730,
      "Ġpas": 6731,
      "Ġwheels": 6732,
      "Ġaddition": 6733,
      "Ġpencil": 6734,
      "Ġquietly": 6735,
      "vels": 6736,
      "Ġsna": 6737,
      "Ġhorn": 6738,
      "weet": 6739,
      "ension": 6740,
      "ju": 6741,
      "six": 6742,
      "incess": 6743,
      "atory": 6744,
      "onen": 6745,
      "Ġnut": 6746,
      "Ġnarrow": 6747,
      "Ġvle": 6748,
      "Ġvocal": 6749,
      "Ġkamer": 6750,
      "epen": 6751,
      "Ġshowing": 6752,
      "offrey": 6753,
      "Ġcontinue": 6754,
      "Ġmodel": 6755,
      "cely": 6756,
      "ners": 6757,
      "isher": 6758,
      "Ġnurse": 6759,
      "stood": 6760,
      "agement": 6761,
      "Ġzoveel": 6762,
      "athan": 6763,
      "Ġfilms": 6764,
      "Ġaddress": 6765,
      "å¦Ĥ": 6766,
      "Say": 6767,
      "uke": 6768,
      "ĠEric": 6769,
      "Ġnative": 6770,
      "Ġpossibly": 6771,
      "ĠBritain": 6772,
      "ĠCanad": 6773,
      "rum": 6774,
      "zig": 6775,
      "ijst": 6776,
      "ĠSea": 6777,
      "alled": 6778,
      "each": 6779,
      "action": 6780,
      "Ġ2002": 6781,
      "æĶ¾": 6782,
      "ĠGovernment": 6783,
      "æ³ķ": 6784,
      "Ġtweede": 6785,
      "ias": 6786,
      "Ġcards": 6787,
      "Ġinit": 6788,
      "Ġfrightened": 6789,
      "Ġ/": 6790,
      "Ġmouse": 6791,
      "omb": 6792,
      "otte": 6793,
      "stelling": 6794,
      "Ġprint": 6795,
      "ä½ĵ": 6796,
      "Ġeigenlijk": 6797,
      "Ġbepaalde": 6798,
      "Ġmemory": 6799,
      "igsaw": 6800,
      "Ġfaces": 6801,
      "Ġwashing": 6802,
      "Ġzin": 6803,
      "ulty": 6804,
      "Ġconcentr": 6805,
      "æīį": 6806,
      "Ġstudents": 6807,
      "Ġtoilet": 6808,
      "Ġmoeilijk": 6809,
      "Ma": 6810,
      "tain": 6811,
      "uns": 6812,
      "Ġprevious": 6813,
      "Ġalsof": 6814,
      "Ġaverage": 6815,
      "çķ": 6816,
      "ĠIS": 6817,
      "ĠRose": 6818,
      "ĠEvery": 6819,
      "Ġboot": 6820,
      "Ġleer": 6821,
      "osta": 6822,
      "Ġstands": 6823,
      "Ġbringing": 6824,
      "IGHT": 6825,
      "ĠInternational": 6826,
      "Ġestabl": 6827,
      "lie": 6828,
      "ti": 6829,
      "æģ": 6830,
      "ential": 6831,
      "ĠRight": 6832,
      "199": 6833,
      "æŁ": 6834,
      "Ġsau": 6835,
      "regen": 6836,
      "Ġbeach": 6837,
      "Ġsomewhat": 6838,
      "ĠKitty": 6839,
      "Ġflower": 6840,
      "Ġterrit": 6841,
      "ĠMarcia": 6842,
      "Ġcollege": 6843,
      "Ġsigned": 6844,
      "Ġteachers": 6845,
      "Ġforgotten": 6846,
      "huis": 6847,
      "takes": 6848,
      "Ã¤": 6849,
      "èĥ": 6850,
      "ĠIr": 6851,
      "Ġstock": 6852,
      "ĠKore": 6853,
      "plant": 6854,
      "Ġplek": 6855,
      "eta": 6856,
      "igan": 6857,
      "imm": 6858,
      "ĠGold": 6859,
      "ĠChief": 6860,
      "Ġtrail": 6861,
      "Ġactivity": 6862,
      "Ġpsych": 6863,
      "Ġforced": 6864,
      "Ġrat": 6865,
      "ĠNin": 6866,
      "Ġweekend": 6867,
      "Ġgeloof": 6868,
      "Ġprotest": 6869,
      "åºĶ": 6870,
      "ĠWelke": 6871,
      "ĠTurk": 6872,
      "known": 6873,
      "Ooh": 6874,
      "bits": 6875,
      "Ġbark": 6876,
      "Ġboots": 6877,
      "icking": 6878,
      "ĠHey": 6879,
      "ahhah": 6880,
      "Ġgreatest": 6881,
      "Ġpleasant": 6882,
      "Chi": 6883,
      "Only": 6884,
      "Ġdamn": 6885,
      "åĽłä¸º": 6886,
      "Ġcelebr": 6887,
      "inger": 6888,
      "Ġnation": 6889,
      "ĠDist": 6890,
      "Ġperm": 6891,
      "Ġcentral": 6892,
      "Ġreported": 6893,
      "Ġliggen": 6894,
      "eur": 6895,
      "mom": 6896,
      "èĭ": 6897,
      "aning": 6898,
      "Ġclown": 6899,
      "Ġdrag": 6900,
      "å·¥": 6901,
      "Ġexcuse": 6902,
      "gebied": 6903,
      "Ġkunst": 6904,
      "Put": 6905,
      "TH": 6906,
      "vy": 6907,
      "Ġwa": 6908,
      "Ġmummy": 6909,
      "Ġcred": 6910,
      "icles": 6911,
      "Ġbewer": 6912,
      "istic": 6913,
      "ĠFil": 6914,
      "weer": 6915,
      "Ġrope": 6916,
      "çĽ¸": 6917,
      "Ġfrequ": 6918,
      "Ġwink": 6919,
      "igde": 6920,
      "acters": 6921,
      "Ġris": 6922,
      "actor": 6923,
      "å¤ĸ": 6924,
      "Ġclearly": 6925,
      "Ġdirectly": 6926,
      "å¹²": 6927,
      "Eleanor": 6928,
      "aka": 6929,
      "Ġsuc": 6930,
      "Ġdisp": 6931,
      "ä½łä»¬": 6932,
      "Ġcommunic": 6933,
      "ussy": 6934,
      "ĠMarjorie": 6935,
      "Ġtransport": 6936,
      "ients": 6937,
      "Ġinvent": 6938,
      "Ġmole": 6939,
      "Ġinterview": 6940,
      "Ġballs": 6941,
      "éĤ£ä¸ª": 6942,
      "Ġrelease": 6943,
      "Ġduidelijk": 6944,
      "Ġsandwich": 6945,
      "25": 6946,
      "pop": 6947,
      "zes": 6948,
      "llie": 6949,
      "Ġdemon": 6950,
      "ĠTor": 6951,
      "Ġren": 6952,
      "Ġhetzelfde": 6953,
      "throw": 6954,
      "beren": 6955,
      "Ġuses": 6956,
      "Ġoffered": 6957,
      "Ġdecide": 6958,
      "ĠJean": 6959,
      "Ġadvant": 6960,
      "Ġperfectly": 6961,
      "è°¢": 6962,
      "Ġbrengen": 6963,
      "Hold": 6964,
      "try": 6965,
      "Ġtien": 6966,
      "Ġtummy": 6967,
      "Ġwings": 6968,
      "ouder": 6969,
      "Ġmate": 6970,
      "ĠMost": 6971,
      "...\"": 6972,
      "iverse": 6973,
      "Ġwalks": 6974,
      "è¾¹": 6975,
      "ç½": 6976,
      "çĭ": 6977,
      "stra": 6978,
      "igr": 6979,
      "ooth": 6980,
      "Ġcrime": 6981,
      "ĠSchrijf": 6982,
      "å¸¸": 6983,
      "viron": 6984,
      "dis": 6985,
      "lam": 6986,
      "rif": 6987,
      "Ġhond": 6988,
      "Ġvij": 6989,
      "ĠDuring": 6990,
      "enden": 6991,
      "ĠJer": 6992,
      "Ġloves": 6993,
      "Ġ187": 6994,
      "zerba": 6995,
      "Ġrules": 6996,
      "Ġhut": 6997,
      "Ġfishing": 6998,
      "ĠAmy": 6999,
      "Ġgreater": 7000,
      "raagd": 7001,
      "Ġrecorder": 7002,
      "Ġlawyer": 7003,
      "Ġfavour": 7004,
      "cellent": 7005,
      "ĠSanta": 7006,
      "zerbaij": 7007,
      "æı": 7008,
      "Ġmale": 7009,
      "Ġkap": 7010,
      "uno": 7011,
      "ĠFOR": 7012,
      "Ġbutt": 7013,
      "Ġdism": 7014,
      "isteren": 7015,
      "Ġneemt": 7016,
      "\"]": 7017,
      "dag": 7018,
      "ata": 7019,
      "Ġgall": 7020,
      "Ġfurn": 7021,
      "Ġstir": 7022,
      "ĠJane": 7023,
      "Ġafterwards": 7024,
      "ANN": 7025,
      "Ġtelef": 7026,
      "çĲĨ": 7027,
      "VER": 7028,
      "draw": 7029,
      "ih": 7030,
      "èī": 7031,
      "Ġsem": 7032,
      "Ġvote": 7033,
      "ĠMax": 7034,
      "ĠDel": 7035,
      "Ġtext": 7036,
      "Ġmanager": 7037,
      "ĠChicago": 7038,
      "Ġchest": 7039,
      "babbles": 7040,
      "Ġ60": 7041,
      "Ġgrootste": 7042,
      "çī¹": 7043,
      "cious": 7044,
      "pull": 7045,
      "Ġrevol": 7046,
      "Ġtears": 7047,
      "odes": 7048,
      "inned": 7049,
      "ĠSuper": 7050,
      "Ġvliegt": 7051,
      "aus": 7052,
      "hib": 7053,
      "sen": 7054,
      "reland": 7055,
      "eau": 7056,
      "Ġmyster": 7057,
      "Ġhelping": 7058,
      "å¿«": 7059,
      "Ġfamilies": 7060,
      "Ġgentlemen": 7061,
      "Ġgarage": 7062,
      "ĠLouis": 7063,
      "æ¶": 7064,
      "Ġfac": 7065,
      "Ġfoc": 7066,
      "thew": 7067,
      "Ġpartner": 7068,
      "ockey": 7069,
      "Ġevil": 7070,
      "ĠAustralian": 7071,
      "Ġcircumst": 7072,
      "About": 7073,
      "Cal": 7074,
      "èĦ": 7075,
      "ĠhÃ¨": 7076,
      "Ġthin": 7077,
      "ĠMen": 7078,
      "ĠMer": 7079,
      "okes": 7080,
      "Ġboom": 7081,
      "ccording": 7082,
      "åħ¨": 7083,
      "Ġphil": 7084,
      "Ġmagic": 7085,
      "æĸ°": 7086,
      "Ġpressure": 7087,
      "Ġvictim": 7088,
      "Ġpijn": 7089,
      "Ġpale": 7090,
      "ilities": 7091,
      "Ġworst": 7092,
      "oday": 7093,
      "Ġfeest": 7094,
      "blad": 7095,
      "Ġtalks": 7096,
      "Ġgenoemd": 7097,
      "ipping": 7098,
      "Ġbrothers": 7099,
      "åĩł": 7100,
      "iggles": 7101,
      "Ġwhispered": 7102,
      "Great": 7103,
      "Mother": 7104,
      "Nog": 7105,
      "gn": 7106,
      "enced": 7107,
      "Ġorde": 7108,
      "Ġgevoel": 7109,
      "Ġzwart": 7110,
      "Ġfigures": 7111,
      "Ġjuiste": 7112,
      "Ġkeeps": 7113,
      "UST": 7114,
      "Vol": 7115,
      "WE": 7116,
      "ware": 7117,
      "zaam": 7118,
      "æį": 7119,
      "heen": 7120,
      "inig": 7121,
      "Ġdom": 7122,
      "Ġcel": 7123,
      "Ġner": 7124,
      "Ġkracht": 7125,
      "amil": 7126,
      "Ġserve": 7127,
      "è¿Ļä¹Ī": 7128,
      "Ġstudied": 7129,
      "ĠJeff": 7130,
      "Ġsettled": 7131,
      "pill": 7132,
      "Ġchat": 7133,
      "Ġnic": 7134,
      "ĠIreland": 7135,
      "ieu": 7136,
      "angle": 7137,
      "Ġprefer": 7138,
      "Ġsixty": 7139,
      "Ġevident": 7140,
      "Ġindustry": 7141,
      "ĠScotland": 7142,
      "bish": 7143,
      "happy": 7144,
      "ki": 7145,
      "Ġhulp": 7146,
      "Ġforms": 7147,
      "ĠSun": 7148,
      "ĠTim": 7149,
      "ĠCat": 7150,
      "ĠLion": 7151,
      "Ġcoach": 7152,
      "çļĦæĹ¶åĢĻ": 7153,
      "Ġcats": 7154,
      "Ġdaarna": 7155,
      "Ġlarger": 7156,
      "ĠæĪĳä»¬": 7157,
      "Neem": 7158,
      "Ġissue": 7159,
      "ĠPurdie": 7160,
      "itzer": 7161,
      "Ġfence": 7162,
      "Ġheaven": 7163,
      "Ġstam": 7164,
      "Ġrib": 7165,
      "Ġverv": 7166,
      "Ġterror": 7167,
      "Ġ1999": 7168,
      "Ġcharacters": 7169,
      "Ġbasis": 7170,
      "Ġsoftly": 7171,
      "çĪ¸": 7172,
      "Ġglasses": 7173,
      "Ġcastle": 7174,
      "Ġcandid": 7175,
      "éĴ±": 7176,
      "umps": 7177,
      "Ġcoal": 7178,
      "çŃī": 7179,
      "Ġkreeg": 7180,
      "Ġwachten": 7181,
      "aron": 7182,
      "Ġjigsaw": 7183,
      "Ġreasons": 7184,
      "ĠMonday": 7185,
      "Ġmob": 7186,
      "Ġplayers": 7187,
      "Ġfriendly": 7188,
      "Ġsnap": 7189,
      "Ġmarriage": 7190,
      "ergie": 7191,
      "çĦ¶åĲİ": 7192,
      "Ġencour": 7193,
      "ĥı": 7194,
      "onge": 7195,
      "Ġdezelfde": 7196,
      "ctions": 7197,
      "Ġdistribut": 7198,
      "ELA": 7199,
      "Before": 7200,
      "Ġknocked": 7201,
      "ĠTexas": 7202,
      "23": 7203,
      "cr": 7204,
      "èģ": 7205,
      "Ġwanneer": 7206,
      "esc": 7207,
      "Ġmeasure": 7208,
      "ĠBund": 7209,
      "about": 7210,
      "Ġagent": 7211,
      "show": 7212,
      "ĠAmericans": 7213,
      "iode": 7214,
      "Ġbathroom": 7215,
      "Ġpoet": 7216,
      "ĠRussia": 7217,
      "Ġnatuurlijk": 7218,
      "ĠOlympics": 7219,
      "Ġdegree": 7220,
      "Zijn": 7221,
      "rekken": 7222,
      "Ġlatter": 7223,
      "Ġzuur": 7224,
      "ĠTwo": 7225,
      "Ġgoat": 7226,
      "Ġshock": 7227,
      "Ġlezen": 7228,
      "whispers": 7229,
      "unnel": 7230,
      "Ġbuff": 7231,
      "ictor": 7232,
      "æľº": 7233,
      "Ġmarry": 7234,
      "Ġmatters": 7235,
      "ĠGeoffrey": 7236,
      "å·²": 7237,
      "è¿ĺæĺ¯": 7238,
      "ĠBelg": 7239,
      "ji": 7240,
      "ç©": 7241,
      "Ġwacht": 7242,
      "Ġsoorten": 7243,
      "ref": 7244,
      "idt": 7245,
      "rokken": 7246,
      "Ġfarmer": 7247,
      "ĠEdward": 7248,
      "Ġelder": 7249,
      "Ġtheory": 7250,
      "cky": 7251,
      "Ġconfir": 7252,
      "Ġobjects": 7253,
      "Ġdivided": 7254,
      "Fraser": 7255,
      "Ġvalue": 7256,
      "æ¡": 7257,
      "Ġtid": 7258,
      "Ġdare": 7259,
      "itan": 7260,
      "Ġrif": 7261,
      "Ġcancer": 7262,
      "ĠRuth": 7263,
      "Ġprogress": 7264,
      "Ġresol": 7265,
      "'-": 7266,
      "Ġfancy": 7267,
      "Ġmeas": 7268,
      "aga": 7269,
      "ĠDO": 7270,
      "Ġcomment": 7271,
      "Ġcontain": 7272,
      "ĠYoung": 7273,
      "case": 7274,
      "Ġtent": 7275,
      "Ġwave": 7276,
      "Ġwaste": 7277,
      "Ġriding": 7278,
      "ĠPolly": 7279,
      "abeth": 7280,
      "Ġsupply": 7281,
      "Ġontde": 7282,
      "Ġ1980": 7283,
      "Ġincludes": 7284,
      "ĠSoviet": 7285,
      "IE": 7286,
      "ogen": 7287,
      "vin": 7288,
      "Ġdomin": 7289,
      "itz": 7290,
      "Ġkost": 7291,
      "ĠNorm": 7292,
      "ĠJew": 7293,
      "ĠOkay": 7294,
      "Ġeighty": 7295,
      "Ġpowerful": 7296,
      "Ġnieuws": 7297,
      "Ġzodat": 7298,
      "Fuck": 7299,
      "kig": 7300,
      "och": 7301,
      "tjes": 7302,
      "lle": 7303,
      "Ġvoll": 7304,
      "igger": 7305,
      "Ġrom": 7306,
      "asty": 7307,
      "iaal": 7308,
      "place": 7309,
      "iley": 7310,
      "Ġstring": 7311,
      "Ġpapa": 7312,
      "Ġconduct": 7313,
      "Ġdisappeared": 7314,
      "Bij": 7315,
      "Rem": 7316,
      "Ġtal": 7317,
      "Ġkitty": 7318,
      "ĠBern": 7319,
      "ĠOther": 7320,
      "Those": 7321,
      "Ġproduction": 7322,
      "Ġpainting": 7323,
      "Ġprovince": 7324,
      "from": 7325,
      "rich": 7326,
      "choo": 7327,
      "ĠMike": 7328,
      "Ġmanage": 7329,
      "Ġrol": 7330,
      "Three": 7331,
      "Ġactive": 7332,
      "Ġtravell": 7333,
      "Ġgevaar": 7334,
      "Ġburied": 7335,
      "Ġreceive": 7336,
      "Echt": 7337,
      "RY": 7338,
      "fish": 7339,
      "èĲ": 7340,
      "Ġdere": 7341,
      "edereen": 7342,
      "ĠHi": 7343,
      "Ġunivers": 7344,
      "Ã¯n": 7345,
      "Ġdescribed": 7346,
      "product": 7347,
      "ijl": 7348,
      "Ġreck": 7349,
      "ĠAld": 7350,
      "ĠCub": 7351,
      "Ġwhist": 7352,
      "Ġfired": 7353,
      "Ġbecoming": 7354,
      "Ġmagn": 7355,
      "ocratic": 7356,
      "çĥ": 7357,
      "Ġax": 7358,
      "Ġhook": 7359,
      "Ġgere": 7360,
      "Ġwebs": 7361,
      "illiant": 7362,
      "ĠWal": 7363,
      "ects": 7364,
      "Ġdepart": 7365,
      "Ġbags": 7366,
      "ĠPlay": 7367,
      "Ġkilomet": 7368,
      "Bye": 7369,
      "yellow": 7370,
      "Ġliber": 7371,
      "nods": 7372,
      "Ġscrew": 7373,
      "Ġwaarin": 7374,
      "Ġfeelings": 7375,
      "Ġretired": 7376,
      "Ġanxious": 7377,
      "Ġopposite": 7378,
      "Ġlodge": 7379,
      "aire": 7380,
      "mouth": 7381,
      "Ġdelen": 7382,
      "orter": 7383,
      "Ġgather": 7384,
      "Ġune": 7385,
      "acon": 7386,
      "ĠPen": 7387,
      "ĠVirgin": 7388,
      "Ġacting": 7389,
      "Ġwindows": 7390,
      "Ġbescher": 7391,
      "ological": 7392,
      "Ġmedia": 7393,
      "æĹł": 7394,
      "Ġflew": 7395,
      "Ġrivier": 7396,
      "Ġestablished": 7397,
      "BO": 7398,
      "LA": 7399,
      "ano": 7400,
      "anches": 7401,
      "Ġleeft": 7402,
      "Ġvir": 7403,
      "indelijk": 7404,
      "Ġcutting": 7405,
      "Ġproperty": 7406,
      "Ġcompanies": 7407,
      "coughs": 7408,
      "houd": 7409,
      "sung": 7410,
      "Ġdik": 7411,
      "only": 7412,
      "Ġdozen": 7413,
      "ura": 7414,
      "ĠHol": 7415,
      "emon": 7416,
      "ĠLy": 7417,
      "Ġmeteen": 7418,
      "Ġemb": 7419,
      "Ġkeu": 7420,
      "ĠEmpire": 7421,
      "vironment": 7422,
      "Na": 7423,
      "Ġtip": 7424,
      "Ġbisc": 7425,
      "Ġvallen": 7426,
      "amin": 7427,
      "imp": 7428,
      "ĠGet": 7429,
      "ĠRon": 7430,
      "ĠJenny": 7431,
      "ĠKim": 7432,
      "Ġotherwise": 7433,
      "Ġcompos": 7434,
      "Ġthoughts": 7435,
      "Ġhuid": 7436,
      "è¯¥": 7437,
      "Ġdesert": 7438,
      "Ġinstant": 7439,
      "ferring": 7440,
      "Ġapparently": 7441,
      "60": 7442,
      "åĥı": 7443,
      "Ġsalt": 7444,
      "organ": 7445,
      "Ġtooth": 7446,
      "Ġvalt": 7447,
      "Ġdoct": 7448,
      "ĠMiles": 7449,
      "ĠGab": 7450,
      "Ġgep": 7451,
      "osen": 7452,
      "Ġsuppl": 7453,
      "Ġresist": 7454,
      "ederal": 7455,
      "ĠIndians": 7456,
      "éĩį": 7457,
      "Ġpatient": 7458,
      "Ġhanging": 7459,
      "Ġentirely": 7460,
      "Bel": 7461,
      "bin": 7462,
      "Ġinsect": 7463,
      "Ġstaff": 7464,
      "ĠAzerbaij": 7465,
      "Ġasp": 7466,
      "Ġlies": 7467,
      "ĠJud": 7468,
      "ipl": 7469,
      "ishment": 7470,
      "Ġbeginnen": 7471,
      "Ġmagnet": 7472,
      "Ġgevraagd": 7473,
      "Ġinfluence": 7474,
      "rans": 7475,
      "too": 7476,
      "Ġeiw": 7477,
      "eeuw": 7478,
      "Ġsocks": 7479,
      "ĠRol": 7480,
      "ĠRalph": 7481,
      "Ġvoort": 7482,
      "arsh": 7483,
      "Ġballoon": 7484,
      "Alright": 7485,
      "Ġcloser": 7486,
      "Blijf": 7487,
      "Ġbevat": 7488,
      "schijnlijk": 7489,
      "US": 7490,
      "Ġtor": 7491,
      "Ġhoort": 7492,
      "Ġfox": 7493,
      "imate": 7494,
      "opter": 7495,
      "Ġknowing": 7496,
      "iken": 7497,
      "ĠRoss": 7498,
      "Ġwatches": 7499,
      "Ġbub": 7500,
      "çİĭ": 7501,
      "Ġdifficulty": 7502,
      "Ġdetermined": 7503,
      "Nie": 7504,
      "¥¿": 7505,
      "åĹ": 7506,
      "ĠBoy": 7507,
      "akt": 7508,
      "ika": 7509,
      "ĠJoseph": 7510,
      "Ġbiggest": 7511,
      "Ġremembered": 7512,
      "Ġextrem": 7513,
      "Ġreply": 7514,
      "Ġaarde": 7515,
      "Ġsports": 7516,
      "ĠSecret": 7517,
      "nice": 7518,
      "Ġavo": 7519,
      "Ġdread": 7520,
      "antwoord": 7521,
      "ĠWind": 7522,
      "ĠGO": 7523,
      "ĠGreek": 7524,
      "Ġpresence": 7525,
      "Ġvoel": 7526,
      "Ġboxes": 7527,
      "Ġintellig": 7528,
      "Ġverdw": 7529,
      "Ġadvice": 7530,
      "Ġconstit": 7531,
      "Ġshooting": 7532,
      "Ġreligious": 7533,
      "ä½Ĩæĺ¯": 7534,
      "silence": 7535,
      "Denk": 7536,
      "Keep": 7537,
      "bour": 7538,
      "Ġnorthern": 7539,
      "sell": 7540,
      "iland": 7541,
      "igned": 7542,
      "Isn": 7543,
      "Ġcooking": 7544,
      "Car": 7545,
      "Ġsterk": 7546,
      "ĠApp": 7547,
      "ĠParliament": 7548,
      "ulation": 7549,
      "Ġscreen": 7550,
      "Ġslag": 7551,
      "Ġthrown": 7552,
      "Ġnummer": 7553,
      "Ġburst": 7554,
      "Ġhonor": 7555,
      "bell": 7556,
      "Ġwou": 7557,
      "Ġsouthern": 7558,
      "ĠBart": 7559,
      "Ġrealize": 7560,
      "Ġsymp": 7561,
      "Ġ1970": 7562,
      "Ġprovide": 7563,
      "Ġcustom": 7564,
      "Ġopinion": 7565,
      ".)": 7566,
      "daddy": 7567,
      "walk": 7568,
      "Ġaft": 7569,
      "Ġpizza": 7570,
      "aland": 7571,
      "Ġweinig": 7572,
      "ira": 7573,
      "ĠSpe": 7574,
      "Ġlibr": 7575,
      "ĠNan": 7576,
      "ĠKl": 7577,
      "Ġfeels": 7578,
      "ĠChair": 7579,
      "Ġunderstood": 7580,
      "Ġexpress": 7581,
      "Ġgrab": 7582,
      "Ġsignific": 7583,
      "Ġtouched": 7584,
      "craft": 7585,
      "Ġwra": 7586,
      "Ġsink": 7587,
      "Ġmile": 7588,
      "Ġpushed": 7589,
      "Ġtrou": 7590,
      "ĠUk": 7591,
      "stein": 7592,
      "Ġrecently": 7593,
      "ĠMaria": 7594,
      "fortun": 7595,
      "playing": 7596,
      "Ġcompanion": 7597,
      "\"?": 7598,
      "Act": 7599,
      "ç´": 7600,
      "Ġwol": 7601,
      "Ġwounded": 7602,
      "Ġinfect": 7603,
      "Ġnoem": 7604,
      "Ġmeter": 7605,
      "Ġhanden": 7606,
      "Ġcrash": 7607,
      "leden": 7608,
      "eerd": 7609,
      "Ġhearing": 7610,
      "ĠGeorg": 7611,
      "ursday": 7612,
      "komt": 7613,
      "Ġdruk": 7614,
      "Ġdisease": 7615,
      "bet": 7616,
      "bur": 7617,
      "mony": 7618,
      "rick": 7619,
      "Ġtask": 7620,
      "Ġaim": 7621,
      "Ġmaat": 7622,
      "Ġpipe": 7623,
      "Ġyer": 7624,
      "Ġnap": 7625,
      "Ġmuziek": 7626,
      "Ġvoet": 7627,
      "ĠPrime": 7628,
      "Ġeinde": 7629,
      "æ°Ķ": 7630,
      "nesday": 7631,
      "Ġziekte": 7632,
      "oi": 7633,
      "Ġtied": 7634,
      "Ġaer": 7635,
      "orp": 7636,
      "Ġlange": 7637,
      "Ġheav": 7638,
      "ams": 7639,
      "Ġzowel": 7640,
      "ĠBay": 7641,
      "ĠCam": 7642,
      "Ġexerc": 7643,
      "eps": 7644,
      "Ġaange": 7645,
      "æľĪ": 7646,
      "Ġsits": 7647,
      "Ġstaying": 7648,
      "åŃ©": 7649,
      "Ġproblemen": 7650,
      "Frank": 7651,
      "ĠTHAT": 7652,
      "å±±": 7653,
      "Beg": 7654,
      "COL": 7655,
      "Jim": 7656,
      "Since": 7657,
      "iven": 7658,
      "law": 7659,
      "ç¥": 7660,
      "Ġocean": 7661,
      "Ġjournal": 7662,
      "ĠCamp": 7663,
      "Ġmogen": 7664,
      "ĠLady": 7665,
      "plane": 7666,
      "Ġrecover": 7667,
      "Ġpassing": 7668,
      "Ġrespond": 7669,
      "Ġtypes": 7670,
      "ĠFlorida": 7671,
      "rently": 7672,
      "Ġmail": 7673,
      "Ġyouth": 7674,
      "Ġzoo": 7675,
      "ĠGordon": 7676,
      "Ġsore": 7677,
      "Ġproberen": 7678,
      "Ġveilig": 7679,
      "ĠCanadian": 7680,
      "nel": 7681,
      "çĹ": 7682,
      "Ġbarn": 7683,
      "ĠSk": 7684,
      "ĠHA": 7685,
      "ĠHaw": 7686,
      "Ġervan": 7687,
      "Ġcommer": 7688,
      "Ġmetal": 7689,
      "ensen": 7690,
      "ilder": 7691,
      "ocr": 7692,
      "Ġbelief": 7693,
      "rijke": 7694,
      "è¿Ļæł·": 7695,
      "åĪ©": 7696,
      "Ġdrove": 7697,
      "Ġmagazine": 7698,
      "BC": 7699,
      "mine": 7700,
      "war": 7701,
      "iring": 7702,
      "Ġrang": 7703,
      "ector": 7704,
      "toe": 7705,
      "Ġbless": 7706,
      "Christ": 7707,
      "åİŁ": 7708,
      "Ġvictory": 7709,
      "Aha": 7710,
      "Want": 7711,
      "green": 7712,
      "wers": 7713,
      "Ġdank": 7714,
      "icate": 7715,
      "Ġstond": 7716,
      "Ġdoin": 7717,
      "ĠWestern": 7718,
      "ĠLake": 7719,
      "ĠJones": 7720,
      "ĠHeb": 7721,
      "Ġcode": 7722,
      "ekijk": 7723,
      "Ġtrains": 7724,
      "Ġwaited": 7725,
      "å¸¦": 7726,
      "Ġladder": 7727,
      "Ġcompetition": 7728,
      "ĠbacteriÃ«n": 7729,
      "Ġenkele": 7730,
      "bow": 7731,
      "Ġcijf": 7732,
      "Ġgift": 7733,
      "Ġtowel": 7734,
      "Ġpatter": 7735,
      "tering": 7736,
      "ila": 7737,
      "Ġshook": 7738,
      "Ġsticks": 7739,
      "Grand": 7740,
      "ĠNether": 7741,
      "gh": 7742,
      "Ĥ¬": 7743,
      "Ġsoup": 7744,
      "atoes": 7745,
      "referring": 7746,
      "Ġmond": 7747,
      "Ġnerv": 7748,
      "otter": 7749,
      "steem": 7750,
      "Ġdey": 7751,
      "ĠMont": 7752,
      "ĠMolly": 7753,
      "ĠBur": 7754,
      "ĠEven": 7755,
      "ĠUit": 7756,
      "Ġapprec": 7757,
      "unts": 7758,
      "Ġbecomes": 7759,
      "Ġsilent": 7760,
      "ĠNederlandse": 7761,
      "ĠSpani": 7762,
      "ĠCentral": 7763,
      "Ġcomfortable": 7764,
      "Ġseparate": 7765,
      "Ġbodies": 7766,
      "Ġfeatures": 7767,
      "é©¬": 7768,
      "21": 7769,
      "Other": 7770,
      "oft": 7771,
      "talk": 7772,
      "Ġ--": 7773,
      "ota": 7774,
      "ĠLos": 7775,
      "ä¸ľ": 7776,
      "Ġremoved": 7777,
      "Ġowner": 7778,
      "Ġgiant": 7779,
      "Ġechte": 7780,
      "Ġbeauty": 7781,
      "Ġstomach": 7782,
      "Paul": 7783,
      "Tom": 7784,
      "cat": 7785,
      "vrouw": 7786,
      "ç³": 7787,
      "heast": 7788,
      "Ġfully": 7789,
      "Ġbeast": 7790,
      "rog": 7791,
      "Ġaside": 7792,
      "Ġeruit": 7793,
      "ĠViet": 7794,
      "Ġgezicht": 7795,
      "åĨĽ": 7796,
      "ĠProv": 7797,
      "Ġdrawn": 7798,
      "æ´»": 7799,
      "Kl": 7800,
      "wind": 7801,
      "èį": 7802,
      "really": 7803,
      "berries": 7804,
      "æĪĳçļĦ": 7805,
      "ocks": 7806,
      "ĠBrad": 7807,
      "soft": 7808,
      "Ġbroer": 7809,
      "Ġweergegeven": 7810,
      "Ġforeign": 7811,
      "Ġgrandma": 7812,
      "Ġetc": 7813,
      "cow": 7814,
      "çģ": 7815,
      "Ġwoon": 7816,
      "Ġlake": 7817,
      "Ġthrowing": 7818,
      "ä½į": 7819,
      "Ġuniform": 7820,
      "Ġcolour": 7821,
      "Ġyounger": 7822,
      "Ġpapers": 7823,
      "Ġjobs": 7824,
      "Ġmainly": 7825,
      "ĠPatty": 7826,
      "Ġvraagt": 7827,
      "Ġceremony": 7828,
      "sw": 7829,
      "Ġkol": 7830,
      "Ġreis": 7831,
      "road": 7832,
      "estival": 7833,
      "Ġuitleg": 7834,
      "ichting": 7835,
      "Ġtotally": 7836,
      "Ġfunction": 7837,
      "Ġaware": 7838,
      "æ°´": 7839,
      "NN": 7840,
      "Ġwo": 7841,
      "ĠPost": 7842,
      "ĠWed": 7843,
      "ĠLuc": 7844,
      "annine": 7845,
      "Ġpassage": 7846,
      "ĠAnna": 7847,
      "åĽĽ": 7848,
      "ungle": 7849,
      "æĹ¥": 7850,
      "Ġfamiliar": 7851,
      "æ¬¢": 7852,
      "stitute": 7853,
      "åĸľ": 7854,
      "24": 7855,
      "éħ": 7856,
      "oma": 7857,
      "Ġkru": 7858,
      "ĠMur": 7859,
      "lyn": 7860,
      "Ġbranches": 7861,
      "iences": 7862,
      "Ġsmiled": 7863,
      "Ġtyp": 7864,
      "holds": 7865,
      "Ġmatches": 7866,
      "Ġcabin": 7867,
      "çĻ¾": 7868,
      "ca": 7869,
      "Ġmud": 7870,
      "Ġbewe": 7871,
      "Ġrank": 7872,
      "ĠDiv": 7873,
      "Ġknees": 7874,
      "ĠWE": 7875,
      "ĠOx": 7876,
      "Ġcris": 7877,
      "Ġ1996": 7878,
      "III": 7879,
      "enschap": 7880,
      "wart": 7881,
      "Ġwine": 7882,
      "Ġcater": 7883,
      "Ġjam": 7884,
      "ĠOnder": 7885,
      "Ġunus": 7886,
      "çĽ´": 7887,
      "Ġrequired": 7888,
      "yyy": 7889,
      "Ġcrocod": 7890,
      "ategory": 7891,
      "Gu": 7892,
      "Ġfold": 7893,
      "Ġvet": 7894,
      "icient": 7895,
      "iders": 7896,
      "Ġdeb": 7897,
      "Ġreview": 7898,
      "kee": 7899,
      "Ġzes": 7900,
      "ĠGal": 7901,
      "Ġadvan": 7902,
      "Ġthroughout": 7903,
      "year": 7904,
      "Ġends": 7905,
      "Ġbehand": 7906,
      "Ġentertain": 7907,
      "idding": 7908,
      "Ġproduce": 7909,
      "Ġplanet": 7910,
      "Ġsafety": 7911,
      "ĠNetherlands": 7912,
      "Lea": 7913,
      "rific": 7914,
      "Ġloopt": 7915,
      "iep": 7916,
      "ieur": 7917,
      "rip": 7918,
      "emd": 7919,
      "Ġspider": 7920,
      "Ġ1995": 7921,
      "Ġprovided": 7922,
      "staande": 7923,
      "Se": 7924,
      "jest": 7925,
      "niet": 7926,
      "æ¼": 7927,
      "èĪ": 7928,
      "Ġwestern": 7929,
      "Ġpiano": 7930,
      "Ġrings": 7931,
      "ĠCook": 7932,
      "umed": 7933,
      "Ġneer": 7934,
      "ĠStephen": 7935,
      "achter": 7936,
      "Ġowned": 7937,
      "Ġfinanc": 7938,
      "Ġdesper": 7939,
      "ĠAndrew": 7940,
      "Once": 7941,
      "Ġprogramme": 7942,
      "Ġprecies": 7943,
      "Ġgradu": 7944,
      "Ġindividual": 7945,
      "FA": 7946,
      "OH": 7947,
      "ç¡": 7948,
      "Ġoven": 7949,
      "Ġdarm": 7950,
      "etjes": 7951,
      "Ġstof": 7952,
      "iraff": 7953,
      "Ġhabit": 7954,
      "aars": 7955,
      "Ġshell": 7956,
      "Ġplastic": 7957,
      "Ġvoordat": 7958,
      "Ġterwijl": 7959,
      "Ġguitar": 7960,
      "Ġ2023": 7961,
      "Ġlangs": 7962,
      "Ġinstruct": 7963,
      "Ġconditions": 7964,
      "Ġauthority": 7965,
      "Ġdisappoint": 7966,
      "ĠPakistan": 7967,
      "Something": 7968,
      "aver": 7969,
      "long": 7970,
      "Ġæĺ¯": 7971,
      "ĠokÃ©": 7972,
      "ĠTw": 7973,
      "bey": 7974,
      "Ġschuld": 7975,
      "ugg": 7976,
      "Ġstandard": 7977,
      "Ġspecific": 7978,
      "Ġ1994": 7979,
      "Ġzetten": 7980,
      "overy": 7981,
      "ros": 7982,
      "ĠAwards": 7983,
      "Ġsection": 7984,
      "Ġbricks": 7985,
      "Ġswing": 7986,
      "çĻ½": 7987,
      "Ġgathered": 7988,
      "Ġadvantage": 7989,
      "Helen": 7990,
      "recht": 7991,
      "Ġonts": 7992,
      "Ġdeur": 7993,
      "Ġreve": 7994,
      "ĠBang": 7995,
      "ĠLib": 7996,
      "Ġbegint": 7997,
      "Ġcrown": 7998,
      "Ġklim": 7999,
      "Ġ1960": 8000,
      "Ġforever": 8001,
      "æİ¥": 8002,
      "Ġbomb": 8003,
      "ç¬¬": 8004,
      "ĠCollege": 8005,
      "fa": 8006,
      "push": 8007,
      "elingen": 8008,
      "Ġdebut": 8009,
      "ĠMass": 8010,
      "Ġprove": 8011,
      "issa": 8012,
      "Ġadminist": 8013,
      "Ġcontribut": 8014,
      "Ġtrap": 8015,
      "å°ĳ": 8016,
      "Ġentr": 8017,
      "ĠpatiÃ«nt": 8018,
      "Ġdrops": 8019,
      "Ġequip": 8020,
      "ĠKenyon": 8021,
      "Ġrapidly": 8022,
      "cos": 8023,
      "delen": 8024,
      "Ġsig": 8025,
      "Ġdier": 8026,
      "ĠHER": 8027,
      "Ġspel": 8028,
      "Ġzeer": 8029,
      "athy": 8030,
      "Ġaccomp": 8031,
      "Ġintroduced": 8032,
      "Ġstubs": 8033,
      "é¢ĺ": 8034,
      "ĠAssoc": 8035,
      "Sm": 8036,
      "kins": 8037,
      "Ġdying": 8038,
      "Ġboun": 8039,
      "isl": 8040,
      "Ġpow": 8041,
      "Ġinno": 8042,
      "ĠMidd": 8043,
      "ĠHot": 8044,
      "ĠDuits": 8045,
      "Ġbelt": 8046,
      "Ġcute": 8047,
      "Ġkwamen": 8048,
      "çĪ·": 8049,
      "haha": 8050,
      "lf": 8051,
      "Ġcant": 8052,
      "omst": 8053,
      "amn": 8054,
      "Ġzon": 8055,
      "eller": 8056,
      "Ġneat": 8057,
      "venue": 8058,
      "ĠFort": 8059,
      "ĠFox": 8060,
      "Ġsposta": 8061,
      "wezig": 8062,
      "avi": 8063,
      "Ġbene": 8064,
      "Ġexpression": 8065,
      "Ġlaws": 8066,
      "éĥ¨": 8067,
      "di": 8068,
      "lt": 8069,
      "Ġtunnel": 8070,
      "ĠHE": 8071,
      "ĠVictor": 8072,
      "aved": 8073,
      "Ġmuse": 8074,
      "Ġdesk": 8075,
      "Ġpolitie": 8076,
      "Ġrecorded": 8077,
      "Ġautom": 8078,
      "Ġthousands": 8079,
      "ĠSteve": 8080,
      "Ġperformed": 8081,
      "å§Ĳ": 8082,
      "Ġcaptured": 8083,
      "Door": 8084,
      "round": 8085,
      "chuckles": 8086,
      "Ġstro": 8087,
      "ĠSur": 8088,
      "Ġjezelf": 8089,
      "ĠLab": 8090,
      "oses": 8091,
      "ä¸ĩ": 8092,
      "Ġbush": 8093,
      "Ġgekomen": 8094,
      "è¿ĺæľī": 8095,
      "Ġwedding": 8096,
      "Ġcircumstances": 8097,
      "Ġå°±": 8098,
      "reme": 8099,
      "Ġbos": 8100,
      "Ġkonden": 8101,
      "ching": 8102,
      "ĠAD": 8103,
      "ĠBert": 8104,
      "Ġvanaf": 8105,
      "Ġverke": 8106,
      "Ġadvert": 8107,
      "Ġpointing": 8108,
      "ĠWhile": 8109,
      "Ġordinary": 8110,
      "atuurlijk": 8111,
      "ĠConfeder": 8112,
      ".[": 8113,
      "pea": 8114,
      "Ġ+": 8115,
      "Ġbare": 8116,
      "Ġpump": 8117,
      "Ġevolution": 8118,
      "Ġitem": 8119,
      "Ġkat": 8120,
      "sex": 8121,
      "ĠServ": 8122,
      "thur": 8123,
      "Ġfrag": 8124,
      "ansen": 8125,
      "åĵ¥": 8126,
      "Ġteaching": 8127,
      "Ġhoeveelheid": 8128,
      "ĠCharlie": 8129,
      "Ġpattern": 8130,
      "Con": 8131,
      "Ġyum": 8132,
      "strijd": 8133,
      "ĠCap": 8134,
      "ĠFire": 8135,
      "Ġtractor": 8136,
      "Ġsecurity": 8137,
      "Ġattend": 8138,
      "Ġenth": 8139,
      "Ġ1998": 8140,
      "Ġgeworden": 8141,
      "Ġconcert": 8142,
      "ĠLaurie": 8143,
      "ĠAngeles": 8144,
      "Ġblanket": 8145,
      "itzerland": 8146,
      "eight": 8147,
      "sing": 8148,
      "were": 8149,
      "zak": 8150,
      "isions": 8151,
      "ami": 8152,
      "Ġjoke": 8153,
      "urance": 8154,
      "Ġrise": 8155,
      "Ġrushed": 8156,
      "ĠGar": 8157,
      "izabeth": 8158,
      "standig": 8159,
      "Ġrecording": 8160,
      "Didn": 8161,
      "ĠProfessor": 8162,
      "åı¯èĥ½": 8163,
      "åĵª": 8164,
      "Ġoperation": 8165,
      "Ġdamage": 8166,
      "Ġobserved": 8167,
      "ĠLaura": 8168,
      "hol": 8169,
      "mar": 8170,
      "Ġcurt": 8171,
      "Ġfout": 8172,
      "ĠHoll": 8173,
      "Ġlied": 8174,
      "Ġnoemen": 8175,
      "Ġplus": 8176,
      "Ġoverle": 8177,
      "ousers": 8178,
      "Ġalsjeblieft": 8179,
      "Ġminor": 8180,
      "nothing": 8181,
      "Ġpicking": 8182,
      "Ġsorts": 8183,
      "Ġspeaks": 8184,
      "Ġvakantie": 8185,
      "coh": 8186,
      "è¥¿": 8187,
      "é¦": 8188,
      "Ġcig": 8189,
      "Ġfaster": 8190,
      "cha": 8191,
      "Ġstones": 8192,
      "Ġchannel": 8193,
      "Ġbranch": 8194,
      "Ġdesc": 8195,
      "Ġ1997": 8196,
      "ĠJimmie": 8197,
      "Ġcopy": 8198,
      "Ġjudge": 8199,
      "ĠDisney": 8200,
      "MEL": 8201,
      "Sam": 8202,
      "sighs": 8203,
      "Ġacht": 8204,
      "Ġbord": 8205,
      "oning": 8206,
      "Ġlit": 8207,
      "stuk": 8208,
      "amas": 8209,
      "ĠSqu": 8210,
      "ĠCast": 8211,
      "Ġenvironment": 8212,
      "elled": 8213,
      "ĠWAS": 8214,
      "ĠNob": 8215,
      "è§£": 8216,
      "help": 8217,
      "Ġlifted": 8218,
      "Ġlocked": 8219,
      "28": 8220,
      "Ad": 8221,
      "Vert": 8222,
      "hem": 8223,
      "Ġwore": 8224,
      "Ġwrest": 8225,
      "ompl": 8226,
      "adi": 8227,
      "ĠAh": 8228,
      "ĠLand": 8229,
      "ä¸ļ": 8230,
      "Ġflo": 8231,
      "Ġdrama": 8232,
      "Ġpresently": 8233,
      "ĠBecause": 8234,
      "Ġeffects": 8235,
      "Everything": 8236,
      "ĠAmerikaanse": 8237,
      "Ġhammer": 8238,
      "Ġodd": 8239,
      "ication": 8240,
      "Ġregen": 8241,
      "ĠSee": 8242,
      "ĠLie": 8243,
      "Ġwaters": 8244,
      "Ġgras": 8245,
      "Ġsmiling": 8246,
      "å®Į": 8247,
      "Ġdistur": 8248,
      "ception": 8249,
      "Ġ80": 8250,
      "schap": 8251,
      "ĠEdna": 8252,
      "Ġicecream": 8253,
      "ĠSwitzerland": 8254,
      "Ġaccepted": 8255,
      "Ġculture": 8256,
      "Ġreligion": 8257,
      "æīĢä»¥": 8258,
      "Ġweapons": 8259,
      "Ġdefinitely": 8260,
      "Early": 8261,
      "boek": 8262,
      "cup": 8263,
      "kle": 8264,
      "Ġwire": 8265,
      "Ġpic": 8266,
      "Ġpir": 8267,
      "Ġheight": 8268,
      "rael": 8269,
      "rik": 8270,
      "ulk": 8271,
      "Ġmaanden": 8272,
      "Ġbuildings": 8273,
      "voer": 8274,
      "Ġliever": 8275,
      "Ġsolid": 8276,
      "ĠGovernor": 8277,
      "Ġdoggie": 8278,
      "Ġplatform": 8279,
      "Ġscarcely": 8280,
      "Ġdocument": 8281,
      "Ġinhab": 8282,
      "Ġtarget": 8283,
      "Iedereen": 8284,
      "non": 8285,
      "ois": 8286,
      "past": 8287,
      "Ġdiss": 8288,
      "Ġbast": 8289,
      "Ġgaf": 8290,
      "ĠSalle": 8291,
      "inden": 8292,
      "Ġproved": 8293,
      "ĠStap": 8294,
      "ä½ı": 8295,
      "whoa": 8296,
      "azz": 8297,
      "Ġresults": 8298,
      "OME": 8299,
      "Ġseventy": 8300,
      "cial": 8301,
      "uz": 8302,
      "Ġwished": 8303,
      "Ġdish": 8304,
      "Ġcash": 8305,
      "orse": 8306,
      "Ġlorry": 8307,
      "ament": 8308,
      "Ġrent": 8309,
      "Ġgoal": 8310,
      "ĠPac": 8311,
      "ĠWater": 8312,
      "ĠWomen": 8313,
      "Ġchop": 8314,
      "rub": 8315,
      "Ġscore": 8316,
      "Ġnucle": 8317,
      "Ġgovernor": 8318,
      "Ġhurried": 8319,
      "Ġgehoord": 8320,
      "Ġoriginally": 8321,
      "Ġtemperature": 8322,
      "ç¾İ": 8323,
      "Men": 8324,
      "æ¥": 8325,
      "Ġfond": 8326,
      "Ġjun": 8327,
      "together": 8328,
      "assing": 8329,
      "Ġshoulders": 8330,
      "Ġwonen": 8331,
      "Ġgreatly": 8332,
      "åĲĪ": 8333,
      "Ġshower": 8334,
      "Ġmusical": 8335,
      "Ġissues": 8336,
      "Omdat": 8337,
      "Ġslightly": 8338,
      "Ġstructure": 8339,
      "ĠEuropa": 8340,
      "pie": 8341,
      "tes": 8342,
      "Ġcups": 8343,
      "Ġpowers": 8344,
      "Ġbevol": 8345,
      "aming": 8346,
      "aboo": 8347,
      "ĠNancy": 8348,
      "ĠJon": 8349,
      "Ġagre": 8350,
      "Ġelement": 8351,
      "Ġeats": 8352,
      "Ġrealized": 8353,
      "Ġeerder": 8354,
      "çī©": 8355,
      "è°ģ": 8356,
      "Ġresponsible": 8357,
      "Zij": 8358,
      "_.": 8359,
      "å¨": 8360,
      "Ġmap": 8361,
      "Ġpaard": 8362,
      "idents": 8363,
      "Ġweird": 8364,
      "Ġvanavond": 8365,
      "apes": 8366,
      "Ġuseta": 8367,
      "å°Ĩ": 8368,
      "uesday": 8369,
      "Ġfifth": 8370,
      "Ġstrike": 8371,
      "Ġliefde": 8372,
      "Ġweapon": 8373,
      "Ġdestroyed": 8374,
      "ĠChairman": 8375,
      "._": 8376,
      "Heeft": 8377,
      "Moet": 8378,
      "nemen": 8379,
      "rough": 8380,
      "Ġsinds": 8381,
      "Ġhills": 8382,
      "Ġanderen": 8383,
      "stick": 8384,
      "Ġmechan": 8385,
      "Ġrush": 8386,
      "ĠLook": 8387,
      "reekt": 8388,
      "Ġ35": 8389,
      "Ġslept": 8390,
      "apping": 8391,
      "Ġpresents": 8392,
      "Ġhunter": 8393,
      "Ġ1992": 8394,
      "Ġeighteen": 8395,
      "197": 8396,
      "Ġpaying": 8397,
      "Ġsplit": 8398,
      "Ġoblig": 8399,
      "Ġtelefoon": 8400,
      "Most": 8401,
      "rated": 8402,
      "wa": 8403,
      "Ġond": 8404,
      "ĠRy": 8405,
      "Ġspreken": 8406,
      "Ġbrings": 8407,
      "åĪļ": 8408,
      "Ġonderwerp": 8409,
      "Ġrooms": 8410,
      "Ġcurious": 8411,
      "Ġartist": 8412,
      "Ġpulling": 8413,
      "Ġclimbed": 8414,
      "Ġspirits": 8415,
      "Ġstreets": 8416,
      "Ġequipment": 8417,
      "uous": 8418,
      "ĠIran": 8419,
      "irteen": 8420,
      "rier": 8421,
      "Ġergens": 8422,
      "ĠArt": 8423,
      "Ġdecor": 8424,
      "Ġexciting": 8425,
      "slag": 8426,
      "New": 8427,
      "NOW": 8428,
      "iqu": 8429,
      "something": 8430,
      "uan": 8431,
      "Ġtabel": 8432,
      "adem": 8433,
      "Ġshame": 8434,
      "ĠWas": 8435,
      "çļĦäºº": 8436,
      "Ġschip": 8437,
      "Ġhunting": 8438,
      "198": 8439,
      "Shit": 8440,
      "Ġexcit": 8441,
      "Ġreplaced": 8442,
      "Ġrolled": 8443,
      "Ġclosely": 8444,
      "Ġburning": 8445,
      "Ġwitness": 8446,
      "éļ¾": 8447,
      "Ha": 8448,
      "mpt": 8449,
      "nope": 8450,
      "ado": 8451,
      "Ġparties": 8452,
      "Ġharder": 8453,
      "Ġdefe": 8454,
      "Ġdolly": 8455,
      "Ġsucces": 8456,
      "ĠLatin": 8457,
      "Ġmirror": 8458,
      "PO": 8459,
      "Zie": 8460,
      "aria": 8461,
      "Ġyard": 8462,
      "Ġreaches": 8463,
      "ilen": 8464,
      "ĠBer": 8465,
      "Ġatm": 8466,
      "While": 8467,
      "Ġstoppen": 8468,
      "akespea": 8469,
      "Anyway": 8470,
      "care": 8471,
      "tained": 8472,
      "éª": 8473,
      "anced": 8474,
      "Ġdien": 8475,
      "Ġtoes": 8476,
      "Ġheer": 8477,
      "ĠSandy": 8478,
      "ĠGina": 8479,
      "ĠVal": 8480,
      "Ġstudent": 8481,
      "Ġgeloven": 8482,
      "Ġkijkt": 8483,
      "Ġnormally": 8484,
      "Ġdoggy": 8485,
      "akespeare": 8486,
      "GAI": 8487,
      "vorm": 8488,
      "itect": 8489,
      "edig": 8490,
      "Ġjail": 8491,
      "again": 8492,
      "Ġalarm": 8493,
      "oston": 8494,
      "Ġsystems": 8495,
      "Ġpunten": 8496,
      "Ġphilos": 8497,
      "Ġzuurstof": 8498,
      "ĠWednesday": 8499,
      "Out": 8500,
      "VID": 8501,
      "last": 8502,
      "lagen": 8503,
      "Ã§": 8504,
      "Ġtank": 8505,
      "amps": 8506,
      "Ġaltern": 8507,
      "Ġvoorkomen": 8508,
      "peror": 8509,
      "ANT": 8510,
      "Ġdrinken": 8511,
      "Ġhoge": 8512,
      "Ġoccurred": 8513,
      "ĠCongress": 8514,
      "know": 8515,
      "part": 8516,
      "ito": 8517,
      "orie": 8518,
      "Ġfart": 8519,
      "esides": 8520,
      "Ġlack": 8521,
      "äºĶ": 8522,
      "Ġbitter": 8523,
      "Ġdesire": 8524,
      "Alleen": 8525,
      "Ġuseful": 8526,
      "bridge": 8527,
      "Ġbadly": 8528,
      "Ġ1993": 8529,
      "Ġwondering": 8530,
      "Ġtransl": 8531,
      "yay": 8532,
      "erb": 8533,
      "Ġhunt": 8534,
      "Ġkool": 8535,
      "imit": 8536,
      "ĠMo": 8537,
      "ĠMack": 8538,
      "Ġvoorbij": 8539,
      "ĠUN": 8540,
      "Ġmighty": 8541,
      "ukt": 8542,
      "Stay": 8543,
      "Ġlanded": 8544,
      "åĳĬ": 8545,
      "Ġcurrently": 8546,
      "Ġengaged": 8547,
      "Ġsisters": 8548,
      "Ġescaped": 8549,
      "Ġbelongs": 8550,
      "Ġbezig": 8551,
      "Ġlosing": 8552,
      "ĠStonewell": 8553,
      "uyu": 8554,
      "uut": 8555,
      "uizen": 8556,
      "zaak": 8557,
      "å©": 8558,
      "Ġbunch": 8559,
      "Ġnick": 8560,
      "ĠAT": 8561,
      "ĠHon": 8562,
      "raine": 8563,
      "Ġvergeten": 8564,
      "ikel": 8565,
      "ulous": 8566,
      "ĠKik": 8567,
      "Ġomge": 8568,
      "Ġslapen": 8569,
      "Ġ500": 8570,
      "Ġgrave": 8571,
      "Ġnaast": 8572,
      "æĿ¥äºĨ": 8573,
      "Ġcookies": 8574,
      "Ġequal": 8575,
      "nieuw": 8576,
      "Ġenjoyed": 8577,
      "Ġeventually": 8578,
      "å·²ç»ı": 8579,
      "Ġlibrary": 8580,
      "bor": 8581,
      "pat": 8582,
      "Ġwinning": 8583,
      "Ġcounter": 8584,
      "keys": 8585,
      "Ġzout": 8586,
      "ĠSince": 8587,
      "usted": 8588,
      "ability": 8589,
      "ĠGil": 8590,
      "Ġconsequ": 8591,
      "Ġcolon": 8592,
      "Ġpointed": 8593,
      "Ġkilling": 8594,
      "Ġgeval": 8595,
      "Ġplanning": 8596,
      "Ġfolks": 8597,
      "Ġindependent": 8598,
      "Ġexecut": 8599,
      "During": 8600,
      "kiss": 8601,
      "las": 8602,
      "woorden": 8603,
      "eding": 8604,
      "Ġsta": 8605,
      "Ġstap": 8606,
      "ĠAan": 8607,
      "uls": 8608,
      "Ġopens": 8609,
      "Ġquality": 8610,
      "åı«": 8611,
      "Ġleague": 8612,
      "Ġrefused": 8613,
      "Ġpurse": 8614,
      "ĠCatholic": 8615,
      "Ġbeneath": 8616,
      "Ġloose": 8617,
      "urally": 8618,
      "olars": 8619,
      "Ġcliff": 8620,
      "intend": 8621,
      "Ġsurely": 8622,
      "Ġhoeft": 8623,
      "Ġstepped": 8624,
      "ervation": 8625,
      "Ġveh": 8626,
      "ITH": 8627,
      "Ġticket": 8628,
      "ĠCommand": 8629,
      "ĠAmerika": 8630,
      "Ġlinks": 8631,
      "Ġgevolg": 8632,
      "Ġnewspaper": 8633,
      "Ġrestaurant": 8634,
      "rence": 8635,
      "yo": 8636,
      "Ġaid": 8637,
      "Ġdim": 8638,
      "Ġgrey": 8639,
      "Ġeet": 8640,
      "Ġzu": 8641,
      "ĠSing": 8642,
      "ĠMY": 8643,
      "ript": 8644,
      "inding": 8645,
      "ĠOut": 8646,
      "Ġqueen": 8647,
      "chester": 8648,
      "ĠStar": 8649,
      "Ġslipped": 8650,
      "Ġgenet": 8651,
      "lets": 8652,
      "Ġpurs": 8653,
      "wijs": 8654,
      "American": 8655,
      "åĹ¯": 8656,
      "dle": 8657,
      "fire": 8658,
      "kant": 8659,
      "rift": 8660,
      "Ġfal": 8661,
      "ĠSil": 8662,
      "ĠBC": 8663,
      "raat": 8664,
      "Ġsomehow": 8665,
      "Ġarrow": 8666,
      "Ġhelps": 8667,
      "Ġrecent": 8668,
      "Ġtrial": 8669,
      "Ġtribe": 8670,
      "Ġlearning": 8671,
      "Ġadvance": 8672,
      "Ġneighbor": 8673,
      "Ġuitspraken": 8674,
      "Ġadvanced": 8675,
      "Ġexcitement": 8676,
      "hot": 8677,
      "Ġbone": 8678,
      "Ġpussy": 8679,
      "Ġforgive": 8680,
      "ĠSpr": 8681,
      "Ġervoor": 8682,
      "Ġ(;": 8683,
      "Ġtrousers": 8684,
      "ĠUt": 8685,
      "Ġadvis": 8686,
      "annah": 8687,
      "Ġpositive": 8688,
      "æĸĩ": 8689,
      "Ġdivision": 8690,
      "ĠSusan": 8691,
      "22": 8692,
      "Wow": 8693,
      "gang": 8694,
      "Ġpure": 8695,
      "Ġzen": 8696,
      "inkt": 8697,
      "inky": 8698,
      "resp": 8699,
      "ĠKennis": 8700,
      "Ġslim": 8701,
      "ĠZij": 8702,
      "Ġaccess": 8703,
      "Ġconfl": 8704,
      "Ġnetwork": 8705,
      "Ġshops": 8706,
      "Ġcompeted": 8707,
      "Ġpuppy": 8708,
      "Ġrecognized": 8709,
      "Ġhasta": 8710,
      "iat": 8711,
      "wijk": 8712,
      "Ġpracht": 8713,
      "Ġbrilliant": 8714,
      "kening": 8715,
      "ĠThanks": 8716,
      "ecial": 8717,
      "Ġpersons": 8718,
      "volgens": 8719,
      "Ġbesides": 8720,
      "ĠBefore": 8721,
      "Ġsignal": 8722,
      "æŃ»": 8723,
      "Ġpropos": 8724,
      "Ġprisoners": 8725,
      "EW": 8726,
      "Fine": 8727,
      "Meer": 8728,
      "Ok": 8729,
      "foot": 8730,
      "gers": 8731,
      "giggles": 8732,
      "Ġoef": 8733,
      "Ġspite": 8734,
      "Ġcomr": 8735,
      "ĠVeren": 8736,
      "Ġcock": 8737,
      "Ġaanwezig": 8738,
      "inny": 8739,
      "Ġbedo": 8740,
      "Ġkinda": 8741,
      "ailed": 8742,
      "azed": 8743,
      "OUT": 8744,
      "Ġhighly": 8745,
      "ALL": 8746,
      "è½¦": 8747,
      "Ġdemanded": 8748,
      "ĠâĮĪ": 8749,
      "åĺĽ": 8750,
      "Ġveroorzaakt": 8751,
      "Verd": 8752,
      "[.": 8753,
      "vaten": 8754,
      "Ġgal": 8755,
      "stellen": 8756,
      "Ġhaha": 8757,
      "ĠBrian": 8758,
      "rika": 8759,
      "Ġsequ": 8760,
      "Ġamazing": 8761,
      "Ġprem": 8762,
      "Ġvoices": 8763,
      "Ġawake": 8764,
      "Ġdarkness": 8765,
      "Ġtreated": 8766,
      "Ġmooie": 8767,
      "Ġshouting": 8768,
      "Ġbepaald": 8769,
      "èĻ": 8770,
      "Ġwaves": 8771,
      "Ġgently": 8772,
      "Ġnood": 8773,
      "icing": 8774,
      "idays": 8775,
      "chair": 8776,
      "entie": 8777,
      "herry": 8778,
      "ested": 8779,
      "ĠPop": 8780,
      "Ġexcellent": 8781,
      "ĠUK": 8782,
      "Ġscr": 8783,
      "Ġtraffic": 8784,
      "Ġleaf": 8785,
      "Ġsixteen": 8786,
      "Ġ1991": 8787,
      "Ġlegal": 8788,
      "proken": 8789,
      "ĠZealand": 8790,
      "Ġfields": 8791,
      "Ġantwoorden": 8792,
      "ĠBruce": 8793,
      "Ġdunno": 8794,
      "ĠDistrict": 8795,
      "houden": 8796,
      "ii": 8797,
      "tin": 8798,
      "Ġtin": 8799,
      "Ġfiction": 8800,
      "Ġeiland": 8801,
      "Ġzorg": 8802,
      "ĠHad": 8803,
      "ĠHave": 8804,
      "ĠNorthern": 8805,
      "Ġspect": 8806,
      "Ġprepar": 8807,
      "Ġcarriage": 8808,
      "Ġhung": 8809,
      "Ġattacked": 8810,
      "Ġastron": 8811,
      "Ġcaterpill": 8812,
      "Eh": 8813,
      "Father": 8814,
      "Ten": 8815,
      "ynam": 8816,
      "Ġfier": 8817,
      "esh": 8818,
      "oty": 8819,
      "Ġbeeld": 8820,
      "amber": 8821,
      "Ġrear": 8822,
      "ĠMiller": 8823,
      "umes": 8824,
      "endid": 8825,
      "Ġchosen": 8826,
      "Ġmannet": 8827,
      "Ġbloem": 8828,
      "phy": 8829,
      "Ġmaag": 8830,
      "æĢ»": 8831,
      "Ġgeme": 8832,
      "ĠâĤ¬": 8833,
      "Ġredenen": 8834,
      "ç¦": 8835,
      "Ġx": 8836,
      "Ġhomes": 8837,
      "Ġpony": 8838,
      "Ġpakken": 8839,
      "Ġjar": 8840,
      "eeg": 8841,
      "ĠCons": 8842,
      "Ġexch": 8843,
      "Ġpartij": 8844,
      "Ġunion": 8845,
      "Ġactual": 8846,
      "Ġbreaking": 8847,
      "Ġraise": 8848,
      "Ġlistened": 8849,
      "Ġlabor": 8850,
      "27": 8851,
      "ME": 8852,
      "ç¨": 8853,
      "Ġfreedom": 8854,
      "ĠJac": 8855,
      "ĠJerry": 8856,
      "ureau": 8857,
      "Ġbegon": 8858,
      "Ġasks": 8859,
      "ouwd": 8860,
      "Ġexped": 8861,
      "åĪ°äºĨ": 8862,
      "çĪ±": 8863,
      "Ġspeelt": 8864,
      "ĠAzerbaijan": 8865,
      "Niemand": 8866,
      "Um": 8867,
      "Ġtough": 8868,
      "Ġdur": 8869,
      "Ġlon": 8870,
      "Ġhesit": 8871,
      "sten": 8872,
      "ooper": 8873,
      "ĠMah": 8874,
      "ifer": 8875,
      "ĠRel": 8876,
      "ĠJam": 8877,
      "ĠFar": 8878,
      "ĠOost": 8879,
      "apped": 8880,
      "ĠAsia": 8881,
      "romos": 8882,
      "Ġjumping": 8883,
      "Ġcritic": 8884,
      "Ġuitspraak": 8885,
      "Ġbegrijp": 8886,
      "Ġijs": 8887,
      "Ġgingen": 8888,
      "Ġloop": 8889,
      "uther": 8890,
      "Ġdochter": 8891,
      "ĠTandy": 8892,
      "ĠAg": 8893,
      "ĠBat": 8894,
      "ĠBoston": 8895,
      "ĠDar": 8896,
      "ATT": 8897,
      "plaats": 8898,
      "ĠArmen": 8899,
      "Ġadmit": 8900,
      "Ġdrugs": 8901,
      "remember": 8902,
      "Ġvliegen": 8903,
      "Ġbuffalo": 8904,
      "Aan": 8905,
      "eens": 8906,
      "ties": 8907,
      "çł": 8908,
      "inen": 8909,
      "isse": 8910,
      "Ġce": 8911,
      "Ġweken": 8912,
      "ĠMist": 8913,
      "rial": 8914,
      "ä¸Ģä¸ĭ": 8915,
      "Ġcourage": 8916,
      "Ġairport": 8917,
      "Ġmedical": 8918,
      "Ġvertrouw": 8919,
      "Ġleaders": 8920,
      "Ġdesigned": 8921,
      "Ġimprove": 8922,
      "ĠIrish": 8923,
      "iraffe": 8924,
      "Care": 8925,
      "OD": 8926,
      "contin": 8927,
      "kel": 8928,
      "Ġgast": 8929,
      "Ġfate": 8930,
      "Ġnad": 8931,
      "Ġbears": 8932,
      "entje": 8933,
      "odd": 8934,
      "iteindelijk": 8935,
      "Ġschrijven": 8936,
      "Ġbuurt": 8937,
      "ĠPrince": 8938,
      "Ġparticip": 8939,
      "Ġ1950": 8940,
      "ĠMajor": 8941,
      "Ġverwacht": 8942,
      "Ġwarning": 8943,
      "Ġclouds": 8944,
      "Ġnervous": 8945,
      "bus": 8946,
      "lk": 8947,
      "ua": 8948,
      "zoeken": 8949,
      "Ġok": 8950,
      "Ġleef": 8951,
      "Ġvot": 8952,
      "Ġongel": 8953,
      "Ġkeen": 8954,
      "Ġdeer": 8955,
      "achel": 8956,
      "ĠMore": 8957,
      "ĠDave": 8958,
      "Ġverr": 8959,
      "Ġblijkt": 8960,
      "ĠHein": 8961,
      "Ġtrunk": 8962,
      "shakes": 8963,
      "Ġours": 8964,
      "Ġcontr": 8965,
      "Ġpotatoes": 8966,
      "45": 8967,
      "IV": 8968,
      "Natuurlijk": 8969,
      "rr": 8970,
      "Ã±": 8971,
      "Ġbouw": 8972,
      "Ġpant": 8973,
      "Ġpeak": 8974,
      "Ġbee": 8975,
      "Ġbeans": 8976,
      "Ġanno": 8977,
      "Ġverzeker": 8978,
      "Ġworn": 8979,
      "Ġgrant": 8980,
      "Ġcontent": 8981,
      "Ġbeneden": 8982,
      "Ġdistant": 8983,
      "Ġreflect": 8984,
      "Ġchanging": 8985,
      "ublieft": 8986,
      "Ġsweetheart": 8987,
      "Ġincrease": 8988,
      "Ġsatisfied": 8989,
      "Ġstruggle": 8990,
      "Ġ~+": 8991,
      "Ġemergency": 8992,
      "âĮī.": 8993,
      "Ġextremely": 8994,
      "Sometimes": 8995,
      "first": 8996,
      "gonna": 8997,
      "listen": 8998,
      "Ġhoo": 8999,
      "edish": 9000,
      "uries": 9001,
      "Ġnotes": 9002,
      "ĠDoug": 9003,
      "Ġspare": 9004,
      "ĠThank": 9005,
      "Ġsetting": 9006,
      "Ġclimbing": 9007,
      "Ġancest": 9008,
      "Ġaudience": 9009,
      "ĠOxford": 9010,
      "Ġentrance": 9011,
      "ĠAssociation": 9012,
      "Tw": 9013,
      "WHAT": 9014,
      "Ġere": 9015,
      "Ġtoer": 9016,
      "Ġtoek": 9017,
      "Ġeig": 9018,
      "stublieft": 9019,
      "ulance": 9020,
      "Ġsprang": 9021,
      "Ġseeds": 9022,
      "icket": 9023,
      "Ġminim": 9024,
      "Ġ45": 9025,
      "boom": 9026,
      "Ġsteam": 9027,
      "loren": 9028,
      "Ġverschil": 9029,
      "Ġappears": 9030,
      "Ġjacket": 9031,
      "ĠBruin": 9032,
      "âĮĭ.": 9033,
      "Ġbenefit": 9034,
      "éĶĻ": 9035,
      "Ġzenuw": 9036,
      "Sl": 9037,
      "best": 9038,
      "ux": 9039,
      "æ·": 9040,
      "ĠĊ": 9041,
      "Ġlag": 9042,
      "ete": 9043,
      "urrent": 9044,
      "ĠMaak": 9045,
      "eaut": 9046,
      "ĠCle": 9047,
      "Ġgray": 9048,
      "ĠThursday": 9049,
      "å®ī": 9050,
      "Ġdriven": 9051,
      "Ġnearer": 9052,
      "Ġadmir": 9053,
      "ĠCarolina": 9054,
      "Ġpoliceman": 9055,
      "onia": 9056,
      "Ġhadta": 9057,
      "Ġpeas": 9058,
      "Ġadem": 9059,
      "Ġmoments": 9060,
      "Ġglance": 9061,
      "Ġsleut": 9062,
      "Ġbushes": 9063,
      "Ġpassen": 9064,
      "HERE": 9065,
      "mbly": 9066,
      "Ġåĵ": 9067,
      "Ġsuffered": 9068,
      "sky": 9069,
      "Ġperformance": 9070,
      "ĠDemocratic": 9071,
      "ĠHAVE": 9072,
      "rate": 9073,
      "hemat": 9074,
      "aned": 9075,
      "Ġdoo": 9076,
      "Ġmal": 9077,
      "Ġgreet": 9078,
      "Ġupper": 9079,
      "ĠSouthern": 9080,
      "ĠBaby": 9081,
      "ĠHal": 9082,
      "una": 9083,
      "uments": 9084,
      "Ġenergie": 9085,
      "Ġoverw": 9086,
      "Ġremains": 9087,
      "ä¸įèĥ½": 9088,
      "anning": 9089,
      "ĠShakespeare": 9090,
      "Ġstudies": 9091,
      "Ġhurts": 9092,
      "Ġapolog": 9093,
      "pointing": 9094,
      "Ġproposed": 9095,
      "iedenis": 9096,
      "Ġconnected": 9097,
      "ĠAngela": 9098,
      "Ġscientific": 9099,
      "Jesus": 9100,
      "KAT": 9101,
      "Nice": 9102,
      "maken": 9103,
      "Ġmacht": 9104,
      "Ġgre": 9105,
      "Ġpity": 9106,
      "ali": 9107,
      "Ġdoel": 9108,
      "rose": 9109,
      "ĠAto": 9110,
      "inkle": 9111,
      "mann": 9112,
      "Ġwaarbij": 9113,
      "åıĺ": 9114,
      "Ġbreast": 9115,
      "ĠAndor": 9116,
      "Ġpresented": 9117,
      "Ġmajority": 9118,
      "Ġkeys": 9119,
      "ĠHierdoor": 9120,
      "Ġbanana": 9121,
      "ĠRoad": 9122,
      "Ġepisode": 9123,
      "ĠSecretary": 9124,
      "Hurry": 9125,
      "Nin": 9126,
      "ei": 9127,
      "erable": 9128,
      "Ġhidden": 9129,
      "stal": 9130,
      "seven": 9131,
      "Ġanal": 9132,
      "ĠBattle": 9133,
      "ĠDE": 9134,
      "Ġchick": 9135,
      "ĠOff": 9136,
      "Ġbeds": 9137,
      "ĠBeeld": 9138,
      "Ġ70": 9139,
      "Ġprofessor": 9140,
      "éĹ¨": 9141,
      "ĠTrans": 9142,
      "nament": 9143,
      "çľŁçļĦ": 9144,
      "Remember": 9145,
      "Make": 9146,
      "Ġwitte": 9147,
      "onk": 9148,
      "Ġthirst": 9149,
      "ĠIII": 9150,
      "sterd": 9151,
      "Ġkennen": 9152,
      "ili": 9153,
      "ĠHard": 9154,
      "Ġmoe": 9155,
      "Ġliqu": 9156,
      "ĠLater": 9157,
      "ĠRus": 9158,
      "Ġbetalen": 9159,
      "åľº": 9160,
      "Ġintended": 9161,
      "Ġcontroll": 9162,
      "Ġgebeuren": 9163,
      "Ġdreams": 9164,
      "Ġvermoord": 9165,
      "Ġrubbish": 9166,
      "goed": 9167,
      "oer": 9168,
      "Ġtropical": 9169,
      "Ġdial": 9170,
      "elic": 9171,
      "sembly": 9172,
      "Ġstack": 9173,
      "ĠBible": 9174,
      "Ġlect": 9175,
      "ĠInter": 9176,
      "ĠStud": 9177,
      "Think": 9178,
      "onsense": 9179,
      "goes": 9180,
      "ancing": 9181,
      "ĠClub": 9182,
      "æĢĿ": 9183,
      "Ġprize": 9184,
      "ĠVirginia": 9185,
      "Com": 9186,
      "Ser": 9187,
      "],": 9188,
      "Ġwow": 9189,
      "Ġduur": 9190,
      "Ġgit": 9191,
      "Ġstil": 9192,
      "ĠSometimes": 9193,
      "Ġrij": 9194,
      "beelden": 9195,
      "ĠUnder": 9196,
      "æĪĺ": 9197,
      "Ġ185": 9198,
      "Ġgevangen": 9199,
      "Another": 9200,
      "Ġ1984": 9201,
      "å¸Ī": 9202,
      "Ġselected": 9203,
      "Ġbudget": 9204,
      "ĠMuslim": 9205,
      "ĠPortugal": 9206,
      "ĠSpaniards": 9207,
      "\").": 9208,
      "Huh": 9209,
      "sche": 9210,
      "Ġthorough": 9211,
      "Ġdoden": 9212,
      "ĠSn": 9213,
      "Ġseed": 9214,
      "Heel": 9215,
      "olle": 9216,
      "Ġbitch": 9217,
      "Ġhorrible": 9218,
      "attles": 9219,
      "Ġbelangrijke": 9220,
      "ç®Ĺ": 9221,
      "Ġappointed": 9222,
      "ĠRaymond": 9223,
      "35": 9224,
      "iture": 9225,
      "Ġyyy": 9226,
      "Ġlamp": 9227,
      "ador": 9228,
      "Ġwashed": 9229,
      "Ġstroom": 9230,
      "ĠMister": 9231,
      "alls": 9232,
      "illing": 9233,
      "uman": 9234,
      "emies": 9235,
      "beeldingen": 9236,
      "Ġformula": 9237,
      "ĠSweden": 9238,
      "Ġtreatment": 9239,
      "ĠBarb": 9240,
      "Ġfleet": 9241,
      "Ġearnest": 9242,
      "Ġpraat": 9243,
      "Ġdegrees": 9244,
      "Ġroute": 9245,
      "Ġrescue": 9246,
      "Ġunusual": 9247,
      "'...": 9248,
      "ko": 9249,
      "mers": 9250,
      "press": 9251,
      "rels": 9252,
      "Ġverst": 9253,
      "ĠRos": 9254,
      "Ġconce": 9255,
      "Ġblame": 9256,
      "gery": 9257,
      "Ġgezond": 9258,
      "Ġtowns": 9259,
      "Ġsquee": 9260,
      "Ġmiddel": 9261,
      "Ġmidship": 9262,
      "Ġtracks": 9263,
      "Ġphysical": 9264,
      "Ġvessel": 9265,
      "29": 9266,
      "OS": 9267,
      "Robert": 9268,
      "kend": 9269,
      "iner": 9270,
      "erland": 9271,
      "Ġwoke": 9272,
      "Ġsets": 9273,
      "Ġdump": 9274,
      "Ġbum": 9275,
      "Ġhong": 9276,
      "Ġyo": 9277,
      "Ġkent": 9278,
      "Ġkopen": 9279,
      "uster": 9280,
      "ĠRE": 9281,
      "Ġcomedy": 9282,
      "ĠKenn": 9283,
      "udden": 9284,
      "ĠInstitute": 9285,
      "Ġunits": 9286,
      "egd": 9287,
      "ä½łçļĦ": 9288,
      "Ġmustn": 9289,
      "Ġseriously": 9290,
      "Ġdaarom": 9291,
      "Ġavond": 9292,
      "ĠGraham": 9293,
      "Ġeagerly": 9294,
      "Has": 9295,
      "Pres": 9296,
      "bage": 9297,
      "Ġmort": 9298,
      "Ġdata": 9299,
      "Ġseized": 9300,
      "anker": 9301,
      "Ġwhenever": 9302,
      "Ġslip": 9303,
      "Ġcomplex": 9304,
      "Ġsword": 9305,
      "Ġmedal": 9306,
      "ĠGermans": 9307,
      "ĠAbout": 9308,
      "Ġdetails": 9309,
      "Ġcreate": 9310,
      "quarters": 9311,
      "ä»Ĭå¤©": 9312,
      "ĠRoland": 9313,
      "Ġavoid": 9314,
      "rument": 9315,
      "uart": 9316,
      "Ġign": 9317,
      "Ġfan": 9318,
      "esch": 9319,
      "Ġyards": 9320,
      "Ġvanuit": 9321,
      "ivity": 9322,
      "Ġtrouw": 9323,
      "Ġoldest": 9324,
      "Ġwaarde": 9325,
      "Ġrelief": 9326,
      "ãĢģ": 9327,
      "ĠArch": 9328,
      "Ġsubst": 9329,
      "Ġconfidence": 9330,
      "Ġexplos": 9331,
      "Ġwooden": 9332,
      "Ġsuffer": 9333,
      "Ġincreased": 9334,
      "cohol": 9335,
      "Ġlonely": 9336,
      "More": 9337,
      "Pol": 9338,
      "Pardon": 9339,
      "nem": 9340,
      "Ġfaint": 9341,
      "Ġthunder": 9342,
      "Ġweb": 9343,
      "ĠTuesday": 9344,
      "Ġrhy": 9345,
      "riet": 9346,
      "Ġplot": 9347,
      "Ġeraan": 9348,
      "ĠJess": 9349,
      "gene": 9350,
      "åı£": 9351,
      "Ġregret": 9352,
      "åĳĺ": 9353,
      "Ġwondered": 9354,
      "Ġverteld": 9355,
      "è®°": 9356,
      "eekaboo": 9357,
      "ĠCommittee": 9358,
      "Ġmaakte": 9359,
      "çĲĥ": 9360,
      "Ġplanned": 9361,
      "ĠAtlantic": 9362,
      "Ġenthus": 9363,
      "Mad": 9364,
      "TV": 9365,
      "ao": 9366,
      "filler": 9367,
      "pool": 9368,
      "é»": 9369,
      "Ġtab": 9370,
      "imme": 9371,
      "ĠBerl": 9372,
      "agina": 9373,
      "tha": 9374,
      "ĠPas": 9375,
      "ĠNavy": 9376,
      "inks": 9377,
      "Ġgrat": 9378,
      "Ġschoon": 9379,
      "neath": 9380,
      "inton": 9381,
      "Ġsmooth": 9382,
      "åıĭ": 9383,
      "ĠBruno": 9384,
      "åħī": 9385,
      "Ġ1986": 9386,
      "Ġdefend": 9387,
      "Ġinstrument": 9388,
      "Black": 9389,
      "adesh": 9390,
      "Ġgolden": 9391,
      "Ġprisoner": 9392,
      "Ġvormen": 9393,
      "Ġfolk": 9394,
      "Ġsource": 9395,
      ":\"": 9396,
      "Gew": 9397,
      "NO": 9398,
      "loo": 9399,
      "Ġborrow": 9400,
      "Ġcows": 9401,
      "Ġvold": 9402,
      "ĠHun": 9403,
      "ankelijk": 9404,
      "Ġworkers": 9405,
      "Ġbijz": 9406,
      "Ġexpensive": 9407,
      "vention": 9408,
      "Ġslaap": 9409,
      "Ġefforts": 9410,
      "Ġdiagram": 9411,
      "Best": 9412,
      "Cont": 9413,
      "crying": 9414,
      "hun": 9415,
      "Ġborder": 9416,
      "Ġpup": 9417,
      "Ġlamb": 9418,
      "omi": 9419,
      "ĠTop": 9420,
      "ĠMoon": 9421,
      "Ġaltogether": 9422,
      "ĠLife": 9423,
      "Ġchairs": 9424,
      "Ġspo": 9425,
      "ĠOz": 9426,
      "Ġgoods": 9427,
      "Ġ37": 9428,
      "eaking": 9429,
      "Ġinvited": 9430,
      "icycle": 9431,
      "enschapp": 9432,
      "Ġchemical": 9433,
      "Ġarranged": 9434,
      "Leave": 9435,
      "Ġvuur": 9436,
[...]
