{
  "version": "1.0",
  "truncation": null,
  "padding": null,
  "added_tokens": [
    {
      "id": 0,
      "content": "<unk>",
      "single_word": false,
      "lstrip": false,
      "rstrip": false,
      "normalized": false,
      "special": true
    },
    {
      "id": 1,
      "content": "<s>",
      "single_word": false,
      "lstrip": false,
      "rstrip": false,
      "normalized": false,
      "special": true
    },
    {
      "id": 2,
      "content": "</s>",
      "single_word": false,
      "lstrip": false,
      "rstrip": false,
      "normalized": false,
      "special": true
    },
    {
      "id": 3,
      "content": "<pad>",
      "single_word": false,
      "lstrip": false,
      "rstrip": false,
      "normalized": false,
      "special": true
    },
    {
      "id": 4,
      "content": "<mask>",
      "single_word": false,
      "lstrip": false,
      "rstrip": false,
      "normalized": false,
      "special": true
    }
  ],
  "normalizer": null,
  "pre_tokenizer": {
    "type": "ByteLevel",
    "add_prefix_space": false,
    "trim_offsets": true,
    "use_regex": true
  },
  "post_processor": {
    "type": "ByteLevel",
    "add_prefix_space": true,
    "trim_offsets": false,
    "use_regex": true
  },
  "decoder": {
    "type": "ByteLevel",
    "add_prefix_space": true,
    "trim_offsets": true,
    "use_regex": true
  },
  "model": {
    "type": "BPE",
    "dropout": null,
    "unk_token": null,
    "continuing_subword_prefix": null,
    "end_of_word_suffix": null,
    "fuse_unk": false,
    "byte_fallback": false,
    "ignore_merges": false,
    "vocab": {
      "<unk>": 0,
      "<s>": 1,
      "</s>": 2,
      "<pad>": 3,
      "<mask>": 4,
      "!": 5,
      "\"": 6,
      "#": 7,
      "$": 8,
      "%": 9,
      "&": 10,
      "'": 11,
      "(": 12,
      ")": 13,
      "*": 14,
      "+": 15,
      ",": 16,
      "-": 17,
      ".": 18,
      "/": 19,
      "0": 20,
      "1": 21,
      "2": 22,
      "3": 23,
      "4": 24,
      "5": 25,
      "6": 26,
      "7": 27,
      "8": 28,
      "9": 29,
      ":": 30,
      ";": 31,
      "<": 32,
      "=": 33,
      ">": 34,
      "?": 35,
      "@": 36,
      "A": 37,
      "B": 38,
      "C": 39,
      "D": 40,
      "E": 41,
      "F": 42,
      "G": 43,
      "H": 44,
      "I": 45,
      "J": 46,
      "K": 47,
      "L": 48,
      "M": 49,
      "N": 50,
      "O": 51,
      "P": 52,
      "Q": 53,
      "R": 54,
      "S": 55,
      "T": 56,
      "U": 57,
      "V": 58,
      "W": 59,
      "X": 60,
      "Y": 61,
      "Z": 62,
      "[": 63,
      "\\": 64,
      "]": 65,
      "^": 66,
      "_": 67,
      "`": 68,
      "a": 69,
      "b": 70,
      "c": 71,
      "d": 72,
      "e": 73,
      "f": 74,
      "g": 75,
      "h": 76,
      "i": 77,
      "j": 78,
      "k": 79,
      "l": 80,
      "m": 81,
      "n": 82,
      "o": 83,
      "p": 84,
      "q": 85,
      "r": 86,
      "s": 87,
      "t": 88,
      "u": 89,
      "v": 90,
      "w": 91,
      "x": 92,
      "y": 93,
      "z": 94,
      "{": 95,
      "|": 96,
      "}": 97,
      "~": 98,
      "¡": 99,
      "¢": 100,
      "£": 101,
      "¤": 102,
      "¥": 103,
      "¦": 104,
      "§": 105,
      "¨": 106,
      "©": 107,
      "ª": 108,
      "«": 109,
      "¬": 110,
      "®": 111,
      "¯": 112,
      "°": 113,
      "±": 114,
      "²": 115,
      "³": 116,
      "´": 117,
      "µ": 118,
      "¶": 119,
      "·": 120,
      "¸": 121,
      "¹": 122,
      "º": 123,
      "»": 124,
      "¼": 125,
      "½": 126,
      "¾": 127,
      "¿": 128,
      "À": 129,
      "Á": 130,
      "Â": 131,
      "Ã": 132,
      "Ä": 133,
      "Å": 134,
      "Æ": 135,
      "Ç": 136,
      "È": 137,
      "É": 138,
      "Ê": 139,
      "Ë": 140,
      "Ì": 141,
      "Í": 142,
      "Î": 143,
      "Ï": 144,
      "Ð": 145,
      "Ñ": 146,
      "Ò": 147,
      "Ó": 148,
      "Ô": 149,
      "Õ": 150,
      "Ö": 151,
      "×": 152,
      "Ø": 153,
      "Ù": 154,
      "Ú": 155,
      "Û": 156,
      "Ü": 157,
      "Ý": 158,
      "Þ": 159,
      "ß": 160,
      "à": 161,
      "á": 162,
      "â": 163,
      "ã": 164,
      "ä": 165,
      "å": 166,
      "æ": 167,
      "ç": 168,
      "è": 169,
      "é": 170,
      "ê": 171,
      "ë": 172,
      "ì": 173,
      "í": 174,
      "î": 175,
      "ï": 176,
      "ð": 177,
      "ñ": 178,
      "ò": 179,
      "ó": 180,
      "ô": 181,
      "õ": 182,
      "ö": 183,
      "÷": 184,
      "ø": 185,
      "ù": 186,
      "ú": 187,
      "û": 188,
      "ü": 189,
      "ý": 190,
      "þ": 191,
      "ÿ": 192,
      "Ā": 193,
      "ā": 194,
      "Ă": 195,
      "ă": 196,
      "Ą": 197,
      "ą": 198,
      "Ć": 199,
      "ć": 200,
      "Ĉ": 201,
      "ĉ": 202,
      "Ċ": 203,
      "ċ": 204,
      "Č": 205,
      "č": 206,
      "Ď": 207,
      "ď": 208,
      "Đ": 209,
      "đ": 210,
      "Ē": 211,
      "ē": 212,
      "Ĕ": 213,
      "ĕ": 214,
      "Ė": 215,
      "ė": 216,
      "Ę": 217,
      "ę": 218,
      "Ě": 219,
      "ě": 220,
      "Ĝ": 221,
      "ĝ": 222,
      "Ğ": 223,
      "ğ": 224,
      "Ġ": 225,
      "ġ": 226,
      "Ģ": 227,
      "ģ": 228,
      "Ĥ": 229,
      "ĥ": 230,
      "Ħ": 231,
      "ħ": 232,
      "Ĩ": 233,
      "ĩ": 234,
      "Ī": 235,
      "ī": 236,
      "Ĭ": 237,
      "ĭ": 238,
      "Į": 239,
      "į": 240,
      "İ": 241,
      "ı": 242,
      "Ĳ": 243,
      "ĳ": 244,
      "Ĵ": 245,
      "ĵ": 246,
      "Ķ": 247,
      "ķ": 248,
      "ĸ": 249,
      "Ĺ": 250,
      "ĺ": 251,
      "Ļ": 252,
      "ļ": 253,
      "Ľ": 254,
      "ľ": 255,
      "Ŀ": 256,
      "ŀ": 257,
      "Ł": 258,
      "ł": 259,
      "Ń": 260,
      "en": 261,
      "er": 262,
      "Ġt": 263,
      "an": 264,
      "he": 265,
      "Ġd": 266,
      "in": 267,
      "Ġw": 268,
      "at": 269,
      "Ġo": 270,
      "Ġm": 271,
      "Ġ.": 272,
      "Ġa": 273,
      "Ġs": 274,
      "Ġb": 275,
      "ä¸": 276,
      "ou": 277,
      "Ġi": 278,
      "et": 279,
      "Ġg": 280,
      "or": 281,
      "ar": 282,
      "Ġv": 283,
      "el": 284,
      "Ġh": 285,
      "ij": 286,
      "Ġn": 287,
      "Ġthe": 288,
      "on": 289,
      "es": 290,
      "Ġhe": 291,
      "ed": 292,
      "Ġde": 293,
      "it": 294,
      "ing": 295,
      "äº": 296,
      "ch": 297,
      "Ġl": 298,
      "Ġp": 299,
      "Ġe": 300,
      "and": 301,
      "Ġz": 302,
      "Ġf": 303,
      "çļ": 304,
      "çļĦ": 305,
      "al": 306,
      "Ġc": 307,
      "Ġin": 308,
      "is": 309,
      "Ġk": 310,
      "Ġj": 311,
      "Ġth": 312,
      "re": 313,
      "as": 314,
      "om": 315,
      "Ġto": 316,
      "ä»": 317,
      "ie": 318,
      "æĪ": 319,
      "Ġis": 320,
      "OT": 321,
      "MOT": 322,
      "ä½": 323,
      "Ġy": 324,
      "aar": 325,
      "è¿": 326,
      "æĪĳ": 327,
      "æĺ": 328,
      "ll": 329,
      "Ġ,": 330,
      "Ġyou": 331,
      "Ġof": 332,
      "CH": 333,
      "CHI": 334,
      "ig": 335,
      "ot": 336,
      "st": 337,
      "Ġand": 338,
      "æĺ¯": 339,
      "ĠI": 340,
      "Ġeen": 341,
      "Ġje": 342,
      "Ġon": 343,
      "ä½ł": 344,
      "Ġhet": 345,
      "oor": 346,
      "le": 347,
      "Ġå": 348,
      "äºĨ": 349,
      "æľ": 350,
      "oo": 351,
      "Ġvan": 352,
      "ad": 353,
      "ä¹": 354,
      "ere": 355,
      "å¤": 356,
      "Ġbe": 357,
      "id": 358,
      "Ġu": 359,
      "Ġ?": 360,
      "'s": 361,
      "åĲ": 362,
      "ow": 363,
      "ä¸Ģ": 364,
      "ä¸į": 365,
      "Ġr": 366,
      "Ġen": 367,
      "..": 368,
      "ve": 369,
      "Ġme": 370,
      "åı": 371,
      "ur": 372,
      "Ġge": 373,
      "ut": 374,
      "Ġst": 375,
      "ak": 376,
      "Ġit": 377,
      "am": 378,
      "å°": 379,
      "Ġwe": 380,
      "iet": 381,
      "ijn": 382,
      "ay": 383,
      "è¯": 384,
      "è¿Ļ": 385,
      "il": 386,
      "ic": 387,
      "ver": 388,
      "ent": 389,
      "ra": 390,
      "Ġwas": 391,
      "Ġop": 392,
      "å®": 393,
      "un": 394,
      "Ġver": 395,
      "cht": 396,
      "åľ": 397,
      "oe": 398,
      "ee": 399,
      "Ġdat": 400,
      "åĪ": 401,
      "gen": 402,
      "Ġthat": 403,
      "de": 404,
      "Ġniet": 405,
      "Ġwh": 406,
      "den": 407,
      "æĿ": 408,
      "ä¸ª": 409,
      "ĠA": 410,
      "Ik": 411,
      "se": 412,
      "æľī": 413,
      "Ġte": 414,
      "ĠS": 415,
      "åħ": 416,
      "ĠD": 417,
      "ĠM": 418,
      "ro": 419,
      "å¥": 420,
      "Ġik": 421,
      "Ġdo": 422,
      "ĠT": 423,
      "im": 424,
      "ag": 425,
      "ol": 426,
      "est": 427,
      "Ġal": 428,
      "der": 429,
      "'t": 430,
      "ken": 431,
      "th": 432,
      "ir": 433,
      "ant": 434,
      "åĳ": 435,
      "ĠH": 436,
      "ik": 437,
      "ĥ½": 438,
      "ac": 439,
      "ijk": 440,
      "Ġfor": 441,
      "ven": 442,
      "Ġer": 443,
      "ht": 444,
      "æī": 445,
      "åŃ": 446,
      "ft": 447,
      "ç»": 448,
      "ä»¬": 449,
      "Ġ'": 450,
      "å¾": 451,
      "Ġgo": 452,
      "å°±": 453,
      "ly": 454,
      "åľ¨": 455,
      "ĠB": 456,
      "Ġmet": 457,
      "us": 458,
      "ä¹Ī": 459,
      "ion": 460,
      "Ġvoor": 461,
      "ĠæĪĳ": 462,
      "ãĢ": 463,
      "åķ": 464,
      "ä»ĸ": 465,
      "æĿ¥": 466,
      "op": 467,
      "ell": 468,
      "Ġzijn": 469,
      "ld": 470,
      "Ġha": 471,
      "æĹ": 472,
      "äºº": 473,
      "Ġre": 474,
      "Ġze": 475,
      "ge": 476,
      "çĶ": 477,
      "ier": 478,
      "çľ": 479,
      "ill": 480,
      "Ġ1": 481,
      "ĠC": 482,
      "è¯´": 483,
      "ith": 484,
      "Ġheb": 485,
      "Ġ...": 486,
      "Ġmo": 487,
      "Ġwor": 488,
      "ers": 489,
      "ãĢĤ": 490,
      "ä¼": 491,
      "ap": 492,
      "åĽ": 493,
      "éĤ": 494,
      "Ġall": 495,
      "aat": 496,
      "ight": 497,
      "åķĬ": 498,
      "éĤ£": 499,
      "Ġno": 500,
      "ome": 501,
      "ct": 502,
      "Ġä½ł": 503,
      "Ġdie": 504,
      "Ġan": 505,
      "æĢ": 506,
      "ĠW": 507,
      "em": 508,
      "ter": 509,
      "Ġwith": 510,
      "åİ": 511,
      "Ġaan": 512,
      "ri": 513,
      "æĥ": 514,
      "ĠP": 515,
      "æ²": 516,
      "èµ": 517,
      "ok": 518,
      "¦ģ": 519,
      "å¥½": 520,
      "éĩ": 521,
      "è¦ģ": 522,
      "xx": 523,
      "um": 524,
      "Ġnot": 525,
      "hat": 526,
      "aan": 527,
      "åį": 528,
      "ul": 529,
      "Ġle": 530,
      "all": 531,
      "ze": 532,
      "è®": 533,
      "åĬ": 534,
      "Ġas": 535,
      "ust": 536,
      "è§": 537,
      "ah": 538,
      "ce": 539,
      "èĢ": 540,
      "ould": 541,
      "nd": 542,
      "å¿": 543,
      "Ġ\"": 544,
      "Ġhad": 545,
      "ĠE": 546,
      "Ġsp": 547,
      "je": 548,
      "åĩ": 549,
      "åĪ°": 550,
      "ĠG": 551,
      "Ġhave": 552,
      "ind": 553,
      "Ġover": 554,
      "ä¸Ĭ": 555,
      "ĠN": 556,
      "te": 557,
      "eld": 558,
      "å·": 559,
      "æĬ": 560,
      "Ġkn": 561,
      "Ġ2": 562,
      "å¤§": 563,
      "Ġwat": 564,
      "åŃĲ": 565,
      "Ġuit": 566,
      "Ġom": 567,
      "å¹": 568,
      "Ġat": 569,
      "Ġpl": 570,
      "Ġals": 571,
      "å¼": 572,
      "å¸": 573,
      "çİ": 574,
      "æ²¡": 575,
      "ood": 576,
      "ä¹Ł": 577,
      "ĠJ": 578,
      "Ġher": 579,
      "Ġare": 580,
      "os": 581,
      "åĨ": 582,
      "ten": 583,
      "Ġthis": 584,
      "ĠR": 585,
      "å¯": 586,
      "ook": 587,
      "è¿ĺ": 588,
      "éĥ½": 589,
      "...": 590,
      "be": 591,
      "ĠO": 592,
      "Ġzo": 593,
      "å¾Ĺ": 594,
      "Ġne": 595,
      "ĠL": 596,
      "Ġsh": 597,
      "åİ»": 598,
      "Ġdan": 599,
      "èĥ½": 600,
      "we": 601,
      "Ġshe": 602,
      "ug": 603,
      "ä¼ļ": 604,
      "çľĭ": 605,
      "æł": 606,
      "ien": 607,
      "æĸ": 608,
      "ä¸º": 609,
      "art": 610,
      "Ġone": 611,
      "Ġcan": 612,
      "éĹ": 613,
      "ab": 614,
      "rou": 615,
      "ang": 616,
      "è·": 617,
      "We": 618,
      "aal": 619,
      "ĠF": 620,
      "Ħ¿": 621,
      "Ġbl": 622,
      "Ġ!": 623,
      "ast": 624,
      "ess": 625,
      "æŃ": 626,
      "æĹ¶": 627,
      "Ġ(": 628,
      "eah": 629,
      "ink": 630,
      "åĵ": 631,
      "çĿ": 632,
      "ru": 633,
      "Ġman": 634,
      "nen": 635,
      "Ġmaar": 636,
      "ä»¥": 637,
      "ist": 638,
      "å¦": 639,
      "pp": 640,
      "Ġnaar": 641,
      "rom": 642,
      "Ġyour": 643,
      "å°ı": 644,
      "Ġknow": 645,
      "sen": 646,
      "elijk": 647,
      "ĠK": 648,
      "Ġmy": 649,
      "ain": 650,
      "ond": 651,
      "Ġdon": 652,
      "Ġwaar": 653,
      "Het": 654,
      "åĦ¿": 655,
      "Ġget": 656,
      "Ġup": 657,
      "ä»Ģ": 658,
      "her": 659,
      "Ġthey": 660,
      "åĴ": 661,
      "ä»Ģä¹Ī": 662,
      "Ġthere": 663,
      "AT": 664,
      "You": 665,
      "ike": 666,
      "Ã©": 667,
      "ry": 668,
      "Ġor": 669,
      "rij": 670,
      "ä¸ĭ": 671,
      "å¤©": 672,
      "ich": 673,
      "è¡": 674,
      "uur": 675,
      "ard": 676,
      "ĠDe": 677,
      "éģ": 678,
      "Ġtw": 679,
      "out": 680,
      "éĿ": 681,
      "Ġch": 682,
      "Ġmoet": 683,
      "Ġsch": 684,
      "Ġso": 685,
      "if": 686,
      "Ġbij": 687,
      "eer": 688,
      "Ġdoor": 689,
      "äºĭ": 690,
      "Je": 691,
      "åı¯": 692,
      "å®¶": 693,
      "èĩ": 694,
      "Ġhis": 695,
      "çĽ": 696,
      "een": 697,
      "æĥ³": 698,
      "ake": 699,
      "eft": 700,
      "Ġwhat": 701,
      "è¿ĩ": 702,
      "ä¸Ģä¸ª": 703,
      "ĠThe": 704,
      "oh": 705,
      "ull": 706,
      "IN": 707,
      "Ġben": 708,
      "åĳ¢": 709,
      "sch": 710,
      "çĪ": 711,
      "AR": 712,
      "åº": 713,
      "Ġaf": 714,
      "Ġkan": 715,
      "åĲİ": 716,
      "Ġhij": 717,
      "ck": 718,
      "Ġwel": 719,
      "ĠV": 720,
      "éĢ": 721,
      "Ġ-": 722,
      "çĿĢ": 723,
      "ong": 724,
      "Ġsa": 725,
      "Ġout": 726,
      "æķ": 727,
      "'re": 728,
      "end": 729,
      "åĲĹ": 730,
      "Ġè¿Ļ": 731,
      "Ġpro": 732,
      "De": 733,
      "ies": 734,
      "å¯¹": 735,
      "aak": 736,
      "acht": 737,
      "Ġab": 738,
      "ank": 739,
      "Ġwer": 740,
      "Ġlike": 741,
      "Ġgr": 742,
      "æĦ": 743,
      "Ġbut": 744,
      "ore": 745,
      "ine": 746,
      "Ġel": 747,
      "ack": 748,
      "è°": 749,
      "Ġwil": 750,
      "æĭ": 751,
      "INV": 752,
      "éĩĮ": 753,
      "Ġex": 754,
      "åĲ§": 755,
      "æŀ": 756,
      "æ¯": 757,
      "eel": 758,
      "Wat": 759,
      "ation": 760,
      "çŁ": 761,
      "Ġook": 762,
      "å¤ļ": 763,
      "The": 764,
      "Dat": 765,
      "çī": 766,
      "Ġfrom": 767,
      "Ġheeft": 768,
      "åĩº": 769,
      "æ°": 770,
      "çĤ": 771,
      "xxx": 772,
      "ç§": 773,
      "çĶŁ": 774,
      "çİ°": 775,
      "you": 776,
      "one": 777,
      "Ġhier": 778,
      "Ġword": 779,
      "Ġnog": 780,
      "Ġpr": 781,
      "qu": 782,
      "ive": 783,
      "Ġkun": 784,
      "å½": 785,
      "Ġsu": 786,
      "åľ°": 787,
      "Ġcon": 788,
      "éģĵ": 789,
      "ijd": 790,
      "æĪĳä»¬": 791,
      "ç»Ļ": 792,
      "ame": 793,
      "Ġhim": 794,
      "èĩª": 795,
      "ben": 796,
      "no": 797,
      "che": 798,
      "Ġsee": 799,
      "Ġwant": 800,
      "ber": 801,
      "Ġgot": 802,
      "au": 803,
      "Ze": 804,
      "çĦ": 805,
      "Ġdit": 806,
      "Ġmijn": 807,
      "Ġdid": 808,
      "Ġcom": 809,
      "od": 810,
      "elf": 811,
      "Ġkom": 812,
      "here": 813,
      "'ll": 814,
      "Ġsome": 815,
      "ke": 816,
      "æĶ": 817,
      "è¾": 818,
      "00": 819,
      "Ġwere": 820,
      "ET": 821,
      "ls": 822,
      "ä¸Ń": 823,
      "Ġwill": 824,
      "'m": 825,
      "Ġby": 826,
      "LD": 827,
      "è¿Ļä¸ª": 828,
      "åģ": 829,
      "çĦ¶": 830,
      "our": 831,
      "En": 832,
      "ste": 833,
      "æ¬": 834,
      "è·Ł": 835,
      "na": 836,
      "Ġbr": 837,
      "og": 838,
      "CHILD": 839,
      "oed": 840,
      "åĢ": 841,
      "ree": 842,
      "ort": 843,
      "Ġmen": 844,
      "çĤ¹": 845,
      "Ġhebben": 846,
      "Ġse": 847,
      "iv": 848,
      "own": 849,
      "Ġgoed": 850,
      "åĴĮ": 851,
      "Ġthem": 852,
      ".\"": 853,
      "å¿ĥ": 854,
      "what": 855,
      "ip": 856,
      "æł·": 857,
      "TAR": 858,
      "GET": 859,
      "TARGET": 860,
      "Ġdeze": 861,
      "aten": 862,
      "itt": 863,
      "æİ": 864,
      "ally": 865,
      "Ġabout": 866,
      "ä¿": 867,
      "FAT": 868,
      "æĢİ": 869,
      "Ġhem": 870,
      "ĠIn": 871,
      "Ġbo": 872,
      "pen": 873,
      "Ġsaid": 874,
      "çŁ¥": 875,
      "å°±æĺ¯": 876,
      "He": 877,
      "Ġbet": 878,
      "Ġthink": 879,
      "Ġå°": 880,
      "æ²¡æľī": 881,
      "eren": 882,
      "èĢģ": 883,
      "oug": 884,
      "Ġun": 885,
      "æĬĬ": 886,
      "è´": 887,
      "æĢİä¹Ī": 888,
      "ick": 889,
      "uk": 890,
      "åĮ": 891,
      "Ġwordt": 892,
      "orm": 893,
      "ff": 894,
      "ä¸įæĺ¯": 895,
      "å¾Ī": 896,
      "Ġthen": 897,
      "Ġif": 898,
      "å±": 899,
      "åĳĢ": 900,
      "Ġ19": 901,
      "Ġhere": 902,
      "èµ·": 903,
      "ia": 904,
      "ide": 905,
      "Ġgeen": 906,
      "åī": 907,
      "oek": 908,
      "ingen": 909,
      "å§": 910,
      "ings": 911,
      "'ve": 912,
      "ite": 913,
      "la": 914,
      "éķ": 915,
      "to": 916,
      "Ġworden": 917,
      "Hij": 918,
      "Ġwould": 919,
      "uis": 920,
      "Ġdr": 921,
      "ice": 922,
      "oord": 923,
      "oon": 924,
      "çľŁ": 925,
      "Ġlook": 926,
      "ate": 927,
      "ĠéĤ£": 928,
      "çŃ": 929,
      "pl": 930,
      "è¡Į": 931,
      "ĠHe": 932,
      "Ġmeer": 933,
      "å¼Ģ": 934,
      "per": 935,
      "uit": 936,
      "ets": 937,
      "æ³": 938,
      "è½": 939,
      "Ġhaar": 940,
      "æĮ": 941,
      "Ġjust": 942,
      "Ġsay": 943,
      "Ġgaan": 944,
      "å¹´": 945,
      "Ġwho": 946,
      "ele": 947,
      "åĽŀ": 948,
      "éĻ": 949,
      "hing": 950,
      "éĿ¢": 951,
      "Ġany": 952,
      "aken": 953,
      "åĽ½": 954,
      "éķ¿": 955,
      "pt": 956,
      "are": 957,
      "Ġright": 958,
      "yeah": 959,
      "Ġus": 960,
      "ous": 961,
      "Ġgeb": 962,
      "åĪ«": 963,
      "è¯Ŀ": 964,
      "mer": 965,
      "icht": 966,
      "elen": 967,
      "Ġhas": 968,
      "Ġonder": 969,
      "Ġdaar": 970,
      "Ġsn": 971,
      "é¢": 972,
      "way": 973,
      "eten": 974,
      "ime": 975,
      "eden": 976,
      "ä¹ĭ": 977,
      "æĥħ": 978,
      "æ´": 979,
      "Ġter": 980,
      "unt": 981,
      "ige": 982,
      "ose": 983,
      "æīĢ": 984,
      "è§ī": 985,
      "that": 986,
      "éĺ": 987,
      "Ġjij": 988,
      "Ġgra": 989,
      "It": 990,
      "iek": 991,
      "lijk": 992,
      "åĸ": 993,
      "Ġnow": 994,
      "other": 995,
      "Ġgoing": 996,
      "av": 997,
      "Ġbeen": 998,
      "Ġbel": 999,
      "ittle": 1000,
      "Ġwhen": 1001,
      "å¦Ī": 1002,
      "æĤ": 1003,
      "çŁ¥éģĵ": 1004,
      ",\"": 1005,
      "çº": 1006,
      "æĦı": 1007,
      "Ġoff": 1008,
      "ĠCh": 1009,
      "å·±": 1010,
      "ç»ı": 1011,
      "åıĳ": 1012,
      "ect": 1013,
      "æĪĲ": 1014,
      "å¥¹": 1015,
      "ker": 1016,
      "zen": 1017,
      "Ġhand": 1018,
      "Ġzou": 1019,
      "Ġnu": 1020,
      "ew": 1021,
      "ullie": 1022,
      "åįģ": 1023,
      "èĩªå·±": 1024,
      "Ġweet": 1025,
      "age": 1026,
      "Ġdoen": 1027,
      "Ġsl": 1028,
      "ĠIt": 1029,
      "ost": 1030,
      "Ġcould": 1031,
      "çĻ": 1032,
      "ä½Ĩ": 1033,
      "èµ°": 1034,
      "Ġvol": 1035,
      "å®ŀ": 1036,
      "].": 1037,
      "yes": 1038,
      "ool": 1039,
      "ek": 1040,
      "çĲ": 1041,
      "In": 1042,
      "åĢĻ": 1043,
      "Waar": 1044,
      "ĠZ": 1045,
      "å®ļ": 1046,
      "æľĢ": 1047,
      "ĠSt": 1048,
      "Ġbeg": 1049,
      "Ġgew": 1050,
      "çİ°åľ¨": 1051,
      "Ġ3": 1052,
      "Ġåı": 1053,
      "Ġro": 1054,
      "bl": 1055,
      "åģļ": 1056,
      "Ġlittle": 1057,
      "Ġag": 1058,
      "Ġhou": 1059,
      "Yeah": 1060,
      "ear": 1061,
      "ound": 1062,
      "rouw": 1063,
      "è®©": 1064,
      "ren": 1065,
      "Ġback": 1066,
      "gt": 1067,
      "ans": 1068,
      "men": 1069,
      "æīĵ": 1070,
      "æĹ¶åĢĻ": 1071,
      "jes": 1072,
      "Ġcl": 1073,
      "ç¬": 1074,
      "Ġdown": 1075,
      "Ġhoe": 1076,
      "Ġbent": 1077,
      "Ġgaat": 1078,
      "ER": 1079,
      "Ġkl": 1080,
      "æµ": 1081,
      "iss": 1082,
      "Ġga": 1083,
      "atie": 1084,
      "äºĽ": 1085,
      "nt": 1086,
      "ud": 1087,
      "èĬ": 1088,
      "ĠU": 1089,
      "Ġä»ĸ": 1090,
      "Ġeven": 1091,
      "çĶ¨": 1092,
      "als": 1093,
      "Ġvery": 1094,
      "ace": 1095,
      "ach": 1096,
      "ble": 1097,
      "Ġ20": 1098,
      "Ġtwee": 1099,
      "els": 1100,
      "åīį": 1101,
      "Als": 1102,
      "Ġå°±": 1103,
      "Ġbed": 1104,
      "Ġkunnen": 1105,
      "heid": 1106,
      "ep": 1107,
      "ade": 1108,
      "ther": 1109,
      "ause": 1110,
      "Ġput": 1111,
      "ç®": 1112,
      "Ġgood": 1113,
      "ass": 1114,
      "Ġbest": 1115,
      "eder": 1116,
      "Ja": 1117,
      "Oh": 1118,
      "dat": 1119,
      "ure": 1120,
      "Maar": 1121,
      "ity": 1122,
      "Ġont": 1123,
      "ç«": 1124,
      "uw": 1125,
      "Ġmij": 1126,
      "Ġpe": 1127,
      "Ġtime": 1128,
      "alk": 1129,
      "åĿ": 1130,
      "éĴ": 1131,
      "å½ĵ": 1132,
      "Ġmin": 1133,
      "ert": 1134,
      "Ġons": 1135,
      "Ġgel": 1136,
      "Ġsom": 1137,
      "Ġgev": 1138,
      "æŀľ": 1139,
      "ne": 1140,
      "Een": 1141,
      "What": 1142,
      "Ġfig": 1143,
      "åŃ¦": 1144,
      "ä¸ī": 1145,
      "Ġzal": 1146,
      "my": 1147,
      "éĽ": 1148,
      "Ġwhich": 1149,
      "Ġgen": 1150,
      "oll": 1151,
      "Ã«": 1152,
      "æĸ¹": 1153,
      "æĻ": 1154,
      "åĬ¨": 1155,
      "Ġjou": 1156,
      "Ġqu": 1157,
      "onder": 1158,
      "oc": 1159,
      "Ġar": 1160,
      "èĤ": 1161,
      "äºĮ": 1162,
      "Th": 1163,
      "ase": 1164,
      "æĽ": 1165,
      "Nee": 1166,
      "æ±": 1167,
      "oof": 1168,
      "ish": 1169,
      "Ġsm": 1170,
      "èĢĮ": 1171,
      "ire": 1172,
      "éĹ®": 1173,
      "æĺİ": 1174,
      "åĲĥ": 1175,
      "è§ģ": 1176,
      "Ġjullie": 1177,
      "omen": 1178,
      "land": 1179,
      "Ġhebt": 1180,
      "ied": 1181,
      "aakt": 1182,
      "éĹ´": 1183,
      "ç§į": 1184,
      "äºİ": 1185,
      "æīĭ": 1186,
      "Ġtot": 1187,
      "cause": 1188,
      "hy": 1189,
      "åĨį": 1190,
      "æ¸": 1191,
      "ĠTh": 1192,
      "Ġmore": 1193,
      "é¡": 1194,
      "æĤ¨": 1195,
      "åıª": 1196,
      "Ġweg": 1197,
      "Ġxxx": 1198,
      "Ġfl": 1199,
      "Ġna": 1200,
      "ief": 1201,
      "ild": 1202,
      "Ġeer": 1203,
      "Ġged": 1204,
      "é£": 1205,
      "åĪĨ": 1206,
      "the": 1207,
      "oel": 1208,
      "orn": 1209,
      "ä½ľ": 1210,
      "amen": 1211,
      "Ġtwo": 1212,
      "eg": 1213,
      "act": 1214,
      "ian": 1215,
      "And": 1216,
      "Ġhel": 1217,
      "éļ": 1218,
      "Ġvra": 1219,
      "è¢": 1220,
      "Ġä¸į": 1221,
      "aren": 1222,
      "ä¸¤": 1223,
      "ment": 1224,
      "Ġcar": 1225,
      "ç¾": 1226,
      "int": 1227,
      "ä»İ": 1228,
      "old": 1229,
      "Ġmu": 1230,
      "igen": 1231,
      "èº": 1232,
      "Ġinto": 1233,
      "è§īå¾Ĺ": 1234,
      "ger": 1235,
      "ople": 1236,
      "Er": 1237,
      "Ġfiguur": 1238,
      "è¶": 1239,
      "æŃ£": 1240,
      "Ġcome": 1241,
      "ough": 1242,
      "Ġiets": 1243,
      "åı¯ä»¥": 1244,
      "ale": 1245,
      "enk": 1246,
      "Ġweer": 1247,
      "å¤ª": 1248,
      "very": 1249,
      "Ġper": 1250,
      "Ġalleen": 1251,
      "Ġtheir": 1252,
      "Ġtijd": 1253,
      "Ġveel": 1254,
      "æľ¬": 1255,
      "Ġplay": 1256,
      "fter": 1257,
      "Ġzit": 1258,
      "ng": 1259,
      "ĠHet": 1260,
      "ater": 1261,
      "ance": 1262,
      "pr": 1263,
      "èĥ": 1264,
      "Ġecht": 1265,
      "riend": 1266,
      "Ġpart": 1267,
      "gens": 1268,
      "æģ": 1269,
      "Ġtr": 1270,
      "Hoe": 1271,
      "åĲ¬": 1272,
      "racht": 1273,
      "Ġhun": 1274,
      "urn": 1275,
      "Ġzien": 1276,
      "ult": 1277,
      "Kom": 1278,
      "åħ³": 1279,
      "Ġtegen": 1280,
      "Ġwater": 1281,
      "å¥³": 1282,
      "Ġå¥": 1283,
      "æ¯Ķ": 1284,
      "æīį": 1285,
      "æī¾": 1286,
      "łä¸º": 1287,
      "ett": 1288,
      "Ġpeople": 1289,
      "ue": 1290,
      "ellen": 1291,
      "esch": 1292,
      "ä¾": 1293,
      "Ġtake": 1294,
      "å®ĥ": 1295,
      "me": 1296,
      "Ġam": 1297,
      "innen": 1298,
      "Ġvert": 1299,
      "è¿Ľ": 1300,
      "oot": 1301,
      "ä»Ĭ": 1302,
      "Ġother": 1303,
      "Ġwell": 1304,
      "Ġ[": 1305,
      "ob": 1306,
      "åĺ": 1307,
      "éĶ": 1308,
      "reat": 1309,
      "åħ¬": 1310,
      "ord": 1311,
      "Ġhow": 1312,
      "Ġmee": 1313,
      "man": 1314,
      "ely": 1315,
      "åıĪ": 1316,
      "ä»ĸä»¬": 1317,
      "Ġmensen": 1318,
      "irst": 1319,
      "Ġcall": 1320,
      "alen": 1321,
      "æ¬¡": 1322,
      "ary": 1323,
      "ark": 1324,
      "Ġeens": 1325,
      "af": 1326,
      "å¹²": 1327,
      "è¿Ļä¹Ī": 1328,
      "do": 1329,
      "No": 1330,
      "é«": 1331,
      "?\"": 1332,
      "çŃī": 1333,
      "ount": 1334,
      "Ġzich": 1335,
      "å¤´": 1336,
      "å¦Ĥ": 1337,
      "æĦŁ": 1338,
      "Dit": 1339,
      "åħĪ": 1340,
      "é«ĺ": 1341,
      "geven": 1342,
      "éĤ£ä¸ª": 1343,
      "Ġterug": 1344,
      "oog": 1345,
      "èº«": 1346,
      "Ġmoeten": 1347,
      "Ġtra": 1348,
      "Ġwork": 1349,
      "Ġlo": 1350,
      "è°¢": 1351,
      "ave": 1352,
      "ĠY": 1353,
      "Ġkomt": 1354,
      "sh": 1355,
      "Ġple": 1356,
      "ä½łä»¬": 1357,
      "èĦ": 1358,
      "onna": 1359,
      "oren": 1360,
      "Ġ4": 1361,
      "Ġagain": 1362,
      "cc": 1363,
      "åĲĮ": 1364,
      "Ġway": 1365,
      "St": 1366,
      "æ°Ķ": 1367,
      "Ġsomet": 1368,
      "Ġlaat": 1369,
      "æ³ķ": 1370,
      "å·²": 1371,
      "éĥ": 1372,
      "ders": 1373,
      "erd": 1374,
      "è¢«": 1375,
      "ä¸»": 1376,
      "mp": 1377,
      "Ġmake": 1378,
      "Ġday": 1379,
      "ens": 1380,
      "wer": 1381,
      "Ġå¤": 1382,
      "chter": 1383,
      "Ġkon": 1384,
      "Ok": 1385,
      "ather": 1386,
      "æŁ": 1387,
      "æĶ¾": 1388,
      "iz": 1389,
      "Ġonly": 1390,
      "Ġtoo": 1391,
      "åĬĽ": 1392,
      "èģ": 1393,
      "ĥı": 1394,
      "HER": 1395,
      "åŃ©": 1396,
      "iÃ«": 1397,
      "That": 1398,
      "Ġdoes": 1399,
      "elt": 1400,
      "è¾¹": 1401,
      "Ġad": 1402,
      "éĩį": 1403,
      "dig": 1404,
      "of": 1405,
      "woord": 1406,
      "Ġtell": 1407,
      "æĹ¥": 1408,
      "Ġmuch": 1409,
      "Ġgonna": 1410,
      "æį": 1411,
      "Ġleven": 1412,
      "Ġmaken": 1413,
      "æĸ°": 1414,
      "Ġgek": 1415,
      "çĭ": 1416,
      "çĲĨ": 1417,
      "Ã©n": 1418,
      "ç³": 1419,
      "Ġlet": 1420,
      "Ġblij": 1421,
      "çļĦæĹ¶åĢĻ": 1422,
      "ä½Ĩæĺ¯": 1423,
      "Ġgez": 1424,
      "æĹł": 1425,
      "æīĢä»¥": 1426,
      "é©": 1427,
      "Ġandere": 1428,
      "å£": 1429,
      "ç½": 1430,
      "ç¥": 1431,
      "voor": 1432,
      "Ġtoch": 1433,
      "æľº": 1434,
      "Ġzeg": 1435,
      "æ¡": 1436,
      "ub": 1437,
      "æĪĳçļĦ": 1438,
      "Ġnie": 1439,
      "red": 1440,
      "esp": 1441,
      "ise": 1442,
      "Ġlang": 1443,
      "çģ": 1444,
      "Ġvl": 1445,
      "åºĶ": 1446,
      "Ġwerk": 1447,
      "é¢ĺ": 1448,
      "çķ": 1449,
      "å¿«": 1450,
      "Ġkrij": 1451,
      "ĠæĪĳä»¬": 1452,
      "ä¸ľ": 1453,
      "Ġwhere": 1454,
      "Ġfirst": 1455,
      "ife": 1456,
      "wn": 1457,
      "Ġelk": 1458,
      "Ġkomen": 1459,
      "çĦ¶åĲİ": 1460,
      "ci": 1461,
      "fore": 1462,
      "ç´": 1463,
      "¥¿": 1464,
      "Ġ5": 1465,
      "Ġneed": 1466,
      "Is": 1467,
      "Ġla": 1468,
      "åĥı": 1469,
      "Ġapp": 1470,
      "å¸¸": 1471,
      "èĬ±": 1472,
      "ile": 1473,
      "roug": 1474,
      "Ġland": 1475,
      "Ġant": 1476,
      "æ°´": 1477,
      "åŁ": 1478,
      "ath": 1479,
      "éĴ±": 1480,
      "Ġcont": 1481,
      "iver": 1482,
      "çĶµ": 1483,
      "è½¦": 1484,
      "Ġkw": 1485,
      "beeld": 1486,
      "ont": 1487,
      "Ġgem": 1488,
      "Ġkle": 1489,
      "ought": 1490,
      "ann": 1491,
      "ooit": 1492,
      "ock": 1493,
      "åĵª": 1494,
      "ç©": 1495,
      "oen": 1496,
      "there": 1497,
      "Ġshould": 1498,
      "çĥ": 1499,
      "Ġdidn": 1500,
      "oop": 1501,
      "æ¬¢": 1502,
      "Ġsec": 1503,
      "ader": 1504,
      "uh": 1505,
      "Ġstr": 1506,
      "Ġact": 1507,
      "kend": 1508,
      "Ġthese": 1509,
      "arl": 1510,
      "å·¥": 1511,
      "--": 1512,
      "ix": 1513,
      "è¿Ļæł·": 1514,
      "Ġafter": 1515,
      "çĽ¸": 1516,
      "ote": 1517,
      "MOTHER": 1518,
      "!\"": 1519,
      "Ġsc": 1520,
      "è¿ĺæĺ¯": 1521,
      "èī": 1522,
      "çĪ¸": 1523,
      "sp": 1524,
      "å¤ĸ": 1525,
      "çĮ": 1526,
      "èĭ": 1527,
      "åĸľ": 1528,
      "Ġstaat": 1529,
      "Ġåħ": 1530,
      "'d": 1531,
      "åħ¨": 1532,
      "ĠShe": 1533,
      ").": 1534,
      "idd": 1535,
      "orry": 1536,
      "Ġwerd": 1537,
      "Ġhele": 1538,
      "ving": 1539,
      "gr": 1540,
      "oeg": 1541,
      "çī¹": 1542,
      "Ġfe": 1543,
      "Ġgro": 1544,
      "æŃ»": 1545,
      "ussen": 1546,
      "Ġbeh": 1547,
      "wh": 1548,
      "Ĺ¯": 1549,
      "over": 1550,
      "Ġlong": 1551,
      "èĪ": 1552,
      "Ġmade": 1553,
      "Ġmag": 1554,
      "uy": 1555,
      "ä½ĵ": 1556,
      "eef": 1557,
      "è¯¥": 1558,
      "å¨": 1559,
      "Well": 1560,
      "amp": 1561,
      "è§£": 1562,
      "çĽ´": 1563,
      "right": 1564,
      "ç¬¬": 1565,
      "ict": 1566,
      "cl": 1567,
      "Ġgraf": 1568,
      "è¥¿": 1569,
      "ved": 1570,
      "æ´»": 1571,
      "Ġjaar": 1572,
      "All": 1573,
      "hed": 1574,
      "è°ģ": 1575,
      "Ġma": 1576,
      "ische": 1577,
      "ons": 1578,
      "Ġdra": 1579,
      "ereken": 1580,
      "Ġsle": 1581,
      "Ġevery": 1582,
      "çĪ±": 1583,
      "çļĦäºº": 1584,
      "air": 1585,
      "çĻ½": 1586,
      "uck": 1587,
      "ä½į": 1588,
      "where": 1589,
      "thing": 1590,
      "round": 1591,
      "ĠFr": 1592,
      "able": 1593,
      "åħ¶": 1594,
      "okay": 1595,
      "è¿ĺæľī": 1596,
      "Ġmust": 1597,
      "Ġæĺ¯": 1598,
      "Ġnooit": 1599,
      "Ġtalk": 1600,
      "åĩł": 1601,
      "èĻ": 1602,
      "up": 1603,
      "ĠÃ©": 1604,
      "ĠMr": 1605,
      "åı«": 1606,
      "zelf": 1607,
      "oud": 1608,
      "Ġpers": 1609,
      "å¸Ī": 1610,
      "Ġverd": 1611,
      "Ġdenk": 1612,
      "äºĶ": 1613,
      "ady": 1614,
      "Ġgl": 1615,
      "arm": 1616,
      "app": 1617,
      "uid": 1618,
      "Ġaway": 1619,
      "oorden": 1620,
      "emand": 1621,
      "åĵ¥": 1622,
      "form": 1623,
      "Ġvrouw": 1624,
      "tijd": 1625,
      "ä¿¡": 1626,
      "æ¶": 1627,
      "åĲĪ": 1628,
      "ĠJe": 1629,
      "ĠÃ©Ã©n": 1630,
      "But": 1631,
      "Ġsomething": 1632,
      "Ġrem": 1633,
      "éľ": 1634,
      "Ġvo": 1635,
      "iff": 1636,
      "inn": 1637,
      "ä¸Ģä¸ĭ": 1638,
      "çľŁçļĦ": 1639,
      "stand": 1640,
      "ĠåĪ": 1641,
      "Ġhead": 1642,
      "bij": 1643,
      "Ġbig": 1644,
      "gel": 1645,
      "åĳĬ": 1646,
      "Ġyear": 1647,
      "Ġ201": 1648,
      "é»": 1649,
      "ty": 1650,
      "Ġgebru": 1651,
      "Ġbefore": 1652,
      "ijden": 1653,
      "eep": 1654,
      "Ġwr": 1655,
      "Ġour": 1656,
      "ä½łçļĦ": 1657,
      "get": 1658,
      "æı": 1659,
      "ç¦": 1660,
      "ijf": 1661,
      "åıĭ": 1662,
      "Ġfun": 1663,
      "ä½ı": 1664,
      "ory": 1665,
      "Ġmay": 1666,
      "æİ¥": 1667,
      "å·²ç»ı": 1668,
      "Ġopen": 1669,
      "Ġdis": 1670,
      "ç¡": 1671,
      "ijken": 1672,
      "çī©": 1673,
      "æĿ¥äºĨ": 1674,
      "Ġlig": 1675,
      "Ġreally": 1676,
      "aby": 1677,
      "Ġinter": 1678,
      "inder": 1679,
      "Ġste": 1680,
      "OR": 1681,
      "Ġthan": 1682,
      "Waarom": 1683,
      "Ġwon": 1684,
      "æĽ´": 1685,
      "ious": 1686,
      "ä¸įèĥ½": 1687,
      "Ġzw": 1688,
      "ãĢĤ\"": 1689,
      "åĴ±": 1690,
      "é©¬": 1691,
      "Ġunder": 1692,
      "èį": 1693,
      "ç¾İ": 1694,
      "å¸¦": 1695,
      "Ġmis": 1696,
      "Ġheel": 1697,
      "ä»Ĭå¤©": 1698,
      "Ġnever": 1699,
      "Ġpre": 1700,
      "ange": 1701,
      "Ġchild": 1702,
      "Ġwent": 1703,
      "vl": 1704,
      "Ġthought": 1705,
      "æ¼": 1706,
      "akes": 1707,
      "Ġhapp": 1708,
      "Ġkind": 1709,
      "ried": 1710,
      "bo": 1711,
      "ef": 1712,
      "å±±": 1713,
      "æ·": 1714,
      "look": 1715,
      "ated": 1716,
      "Ġschool": 1717,
      "Ġgir": 1718,
      "onden": 1719,
      "éļ¾": 1720,
      "She": 1721,
      "Ġnodig": 1722,
      "Ġalso": 1723,
      "orgen": 1724,
      "ions": 1725,
      "é¦": 1726,
      "Ġalles": 1727,
      "elijke": 1728,
      "çĻ¾": 1729,
      "èĢħ": 1730,
      "row": 1731,
      "ende": 1732,
      "kt": 1733,
      "ember": 1734,
      "veel": 1735,
      "schien": 1736,
      ":\"": 1737,
      "Ġvind": 1738,
      "çİĭ": 1739,
      "Ġkeer": 1740,
      "oem": 1741,
      "Ġcomp": 1742,
      "å©": 1743,
      "So": 1744,
      "aking": 1745,
      "Ġjon": 1746,
      "åĽłä¸º": 1747,
      "ST": 1748,
      "å®Į": 1749,
      "æľĪ": 1750,
      "Ġspe": 1751,
      "åŃ©åŃĲ": 1752,
      "du": 1753,
      "çĹ": 1754,
      "Ġverl": 1755,
      "ouw": 1756,
      "aam": 1757,
      "Ġonze": 1758,
      "Ġmean": 1759,
      "self": 1760,
      "well": 1761,
      "ieren": 1762,
      "hm": 1763,
      "å°ĳ": 1764,
      "day": 1765,
      "åıĺ": 1766,
      "Ġversch": 1767,
      "Ġeat": 1768,
      "Ġgive": 1769,
      "Ġpol": 1770,
      "atuur": 1771,
      "äº²": 1772,
      "ĠMar": 1773,
      "Ġnew": 1774,
      "ina": 1775,
      "oep": 1776,
      "çĸ": 1777,
      "Ġzelf": 1778,
      "ugh": 1779,
      "ç¤": 1780,
      "ç»ĵ": 1781,
      "io": 1782,
      "Ġmil": 1783,
      "ä¸ļ": 1784,
      "éĥ¨": 1785,
      "Ġiemand": 1786,
      "ĠWe": 1787,
      "ĠåĽ": 1788,
      "é¥": 1789,
      "Ġbecause": 1790,
      "äºĭåĦ¿": 1791,
      "Ġx": 1792,
      "Ġgeld": 1793,
      "br": 1794,
      "Ġæľī": 1795,
      "Ġdrie": 1796,
      "Ġbot": 1797,
      "åĪ°äºĨ": 1798,
      "Ġbit": 1799,
      "oofd": 1800,
      "Ga": 1801,
      "ĠYou": 1802,
      "Ġä¸Ģ": 1803,
      "Ġelkaar": 1804,
      "amil": 1805,
      "ma": 1806,
      "Ġå¦": 1807,
      "mon": 1808,
      "ody": 1809,
      "Ġdoing": 1810,
      "Ġdag": 1811,
      "å§Ĳ": 1812,
      "Ġmight": 1813,
      "ful": 1814,
      "è¯·": 1815,
      "èĲ": 1816,
      "oss": 1817,
      "æĢĿ": 1818,
      "urt": 1819,
      "éĿŀ": 1820,
      "éª": 1821,
      "open": 1822,
      "allen": 1823,
      "éĥ½æĺ¯": 1824,
      "Ġåı¯": 1825,
      "Goed": 1826,
      "åľº": 1827,
      "Ġaltijd": 1828,
      "Ġanother": 1829,
      "Ġkunt": 1830,
      "oort": 1831,
      "æŃ¤": 1832,
      "Ġåĵ": 1833,
      "van": 1834,
      "Daar": 1835,
      "Ġzei": 1836,
      "Ġcame": 1837,
      "éĶĻ": 1838,
      "Ġbloed": 1839,
      "Ġdood": 1840,
      "åı¯èĥ½": 1841,
      "ward": 1842,
      "ĠåĲ": 1843,
      "Ġstop": 1844,
      "åĽĽ": 1845,
      "Ġnet": 1846,
      "Ġpunt": 1847,
      "Ġgrafiek": 1848,
      "åĸľæ¬¢": 1849,
      "å¹³": 1850,
      "AN": 1851,
      "åĬł": 1852,
      "Ġhome": 1853,
      "gende": 1854,
      "sl": 1855,
      "æ»": 1856,
      "gelijk": 1857,
      "Ġask": 1858,
      "rough": 1859,
      "Ġåľ": 1860,
      "Ġeigen": 1861,
      "ĠAnd": 1862,
      "å®ī": 1863,
      "ieve": 1864,
      "Wh": 1865,
      "è±": 1866,
      "éħ": 1867,
      "æħ": 1868,
      "æĸĩ": 1869,
      "Ġå¥½": 1870,
      "Ġtoe": 1871,
      "etje": 1872,
      "Ġok": 1873,
      "çľ¼": 1874,
      "æľĭ": 1875,
      "anna": 1876,
      "Ġlijn": 1877,
      "åĲį": 1878,
      "Ġcalled": 1879,
      "vel": 1880,
      "ĠGod": 1881,
      "Ġhuis": 1882,
      "ait": 1883,
      "Ġdus": 1884,
      "Ġgebe": 1885,
      "ots": 1886,
      "kel": 1887,
      "Ġmany": 1888,
      "esl": 1889,
      "Ġthings": 1890,
      "åĬŀ": 1891,
      "They": 1892,
      "ĠZe": 1893,
      "ä¸ĩ": 1894,
      "æĹ¶éĹ´": 1895,
      "åĵĪ": 1896,
      "Ġbaby": 1897,
      "Ġachter": 1898,
      "Ġstart": 1899,
      "ting": 1900,
      "Ġthree": 1901,
      "Ġminut": 1902,
      "but": 1903,
      "Ġ6": 1904,
      "æ¢": 1905,
      "ç²": 1906,
      "Jij": 1907,
      "è¡¨": 1908,
      "ces": 1909,
      "ç®Ĺ": 1910,
      "Ġold": 1911,
      "Ġmom": 1912,
      "ys": 1913,
      "ä¹Łä¸į": 1914,
      "Ġweten": 1915,
      "åĪļ": 1916,
      "Ġ200": 1917,
      "Ġthrough": 1918,
      "ster": 1919,
      "ign": 1920,
      "éĺŁ": 1921,
      "off": 1922,
      "åı£": 1923,
      "Ġzeggen": 1924,
      "MA": 1925,
      "éĹ¨": 1926,
      "è®°": 1927,
      "Ġmar": 1928,
      "Ġche": 1929,
      "Ġzie": 1930,
      "oint": 1931,
      "ins": 1932,
      "Ġbre": 1933,
      "Ġ0": 1934,
      "æľĭåıĭ": 1935,
      "Ġgeh": 1936,
      "æĢ»": 1937,
      "Â·": 1938,
      "æ¯ı": 1939,
      "Ġgewoon": 1940,
      "Ġtoen": 1941,
      "Yes": 1942,
      "Ġplaat": 1943,
      "ç¨": 1944,
      "Ġser": 1945,
      "Ġgroot": 1946,
      "ww": 1947,
      "ummy": 1948,
      "çĽ®": 1949,
      "Mijn": 1950,
      "Ġwaren": 1951,
      "Ġcr": 1952,
      "$$": 1953,
      "ãĢģ": 1954,
      "mand": 1955,
      "åĮĸ": 1956,
      "Ġvraag": 1957,
      "ä¿Ŀ": 1958,
      "edere": 1959,
      "Ġpres": 1960,
      "dy": 1961,
      "Ġalle": 1962,
      "å¸®": 1963,
      "åĹ¯": 1964,
      "vol": 1965,
      "Ġform": 1966,
      "Ġåľ¨": 1967,
      "Ġlaten": 1968,
      "uren": 1969,
      "emaal": 1970,
      "ç³»": 1971,
      "åıĹ": 1972,
      "wij": 1973,
      "ors": 1974,
      "Ġbetter": 1975,
      "come": 1976,
      "Ġtussen": 1977,
      "Ġverk": 1978,
      "Ġmed": 1979,
      "Ġcir": 1980,
      "Ġthing": 1981,
      "ĠEen": 1982,
      "can": 1983,
      "Ġproble": 1984,
      "Ġzegt": 1985,
      "åĨĽ": 1986,
      "Ġpar": 1987,
      "Ġhard": 1988,
      "Ġä½Ĩæĺ¯": 1989,
      "Ġniets": 1990,
      "æĴ": 1991,
      "Ġits": 1992,
      "Ġeerste": 1993,
      "éĢļ": 1994,
      "Ġmoeder": 1995,
      "Ġå°±æĺ¯": 1996,
      "ä»»": 1997,
      "ĠAmer": 1998,
      "ways": 1999,
      "Niet": 2000,
      "Ġvragen": 2001,
      "è·¯": 2002,
      "ĠBe": 2003,
      "Ġdoe": 2004,
      "è¯ī": 2005,
      "unten": 2006,
      "eem": 2007,
      "Ġlast": 2008,
      "åº¦": 2009,
      "Ġfil": 2010,
      "å¦Īå¦Ī": 2011,
      "Ġbook": 2012,
      "äºĨä¸Ģ": 2013,
      "imes": 2014,
      "éĢī": 2015,
      "Ġhal": 2016,
      "ĠAls": 2017,
      "Die": 2018,
      "Ġdone": 2019,
      "Ġfamil": 2020,
      "éĩĳ": 2021,
      "Ġaut": 2022,
      "Ġhelp": 2023,
      "Ġhouse": 2024,
      "inden": 2025,
      "PAR": 2026,
      "eds": 2027,
      "Ġgreat": 2028,
      "amer": 2029,
      "IG": 2030,
      "è®¤": 2031,
      "ai": 2032,
      "Ġrecht": 2033,
      "æĭ¿": 2034,
      "ĠAl": 2035,
      "Ġfind": 2036,
      "ss": 2037,
      "Ġthose": 2038,
      "oten": 2039,
      "ç¡®": 2040,
      "rijk": 2041,
      "ĠSch": 2042,
      "ever": 2043,
      "ä¸Ģå®ļ": 2044,
      "Ġtre": 2045,
      "Ġru": 2046,
      "isch": 2047,
      "oney": 2048,
      "Ġsays": 2049,
      "GMA": 2050,
      "Ġvader": 2051,
      "kken": 2052,
      "Voor": 2053,
      "aard": 2054,
      "ib": 2055,
      "ä¸İ": 2056,
      "ä»¶": 2057,
      "Ġres": 2058,
      "æľĽ": 2059,
      "Ġå¯": 2060,
      "æĹ©": 2061,
      "xt": 2062,
      "inderen": 2063,
      "Ġzoals": 2064,
      "EST": 2065,
      "åĶ": 2066,
      "ä½ķ": 2067,
      "uiten": 2068,
      "ents": 2069,
      "ä¹Łæĺ¯": 2070,
      "çļĦæĺ¯": 2071,
      "Ġreg": 2072,
      "ail": 2073,
      "by": 2074,
      "Ġwij": 2075,
      "çļĦè¯Ŀ": 2076,
      "Heb": 2077,
      "Ġbinnen": 2078,
      "ĠThey": 2079,
      "åĺĽ": 2080,
      "eng": 2081,
      "oman": 2082,
      "çł": 2083,
      "Ġmeest": 2084,
      "ial": 2085,
      "ucht": 2086,
      "pe": 2087,
      "Ġsamen": 2088,
      "Ġstill": 2089,
      "çĪ·": 2090,
      "let": 2091,
      "Ġou": 2092,
      "ms": 2093,
      "Ġsnel": 2094,
      "Ġturn": 2095,
      "æĻļ": 2096,
      "Ġbus": 2097,
      "Ġfound": 2098,
      "iden": 2099,
      "eerd": 2100,
      "OkÃ©": 2101,
      "æĢ§": 2102,
      "ç»ĻæĪĳ": 2103,
      "Ġgirl": 2104,
      "ĠIk": 2105,
      "æĬ¥": 2106,
      "agen": 2107,
      "éĤ£ä¹Ī": 2108,
      "Ġcount": 2109,
      "ĠçĦ¶åĲİ": 2110,
      "igh": 2111,
      "Ġplan": 2112,
      "Ġfr": 2113,
      "ĠæīĢä»¥": 2114,
      "ph": 2115,
      "å²": 2116,
      "oy": 2117,
      "äºĭæĥħ": 2118,
      "Ġzij": 2119,
      "Ġ10": 2120,
      "Ġvast": 2121,
      "not": 2122,
      "Ġzitten": 2123,
      "Ġmon": 2124,
      "Ġbro": 2125,
      "ç®¡": 2126,
      "å¼ł": 2127,
      "ikt": 2128,
      "çĶ·": 2129,
      "EX": 2130,
      "ĠUn": 2131,
      "If": 2132,
      "ister": 2133,
      "ullen": 2134,
      "Ġbeing": 2135,
      "Wie": 2136,
      "Ġ7": 2137,
      "æĳ": 2138,
      "mm": 2139,
      "å°Ĩ": 2140,
      "There": 2141,
      "ually": 2142,
      "aring": 2143,
      "Zo": 2144,
      "ctie": 2145,
      "æ¸ħ": 2146,
      "This": 2147,
      "ubl": 2148,
      "Ġ18": 2149,
      "åĲĳ": 2150,
      "Ġrec": 2151,
      "åİŁ": 2152,
      "ny": 2153,
      "les": 2154,
      "Ġâ": 2155,
      "å£°": 2156,
      "its": 2157,
      "ijkt": 2158,
      "ATOR": 2159,
      "ĠBr": 2160,
      "ä¸ľè¥¿": 2161,
      "ESTIG": 2162,
      "é£İ": 2163,
      "erk": 2164,
      "Ġown": 2165,
      "EXP": 2166,
      "æĪ¿": 2167,
      "INVESTIG": 2168,
      "åĩºæĿ¥": 2169,
      "çŃĶ": 2170,
      "éĹ®é¢ĺ": 2171,
      "INVESTIGATOR": 2172,
      "Ġdiff": 2173,
      "å¤§å®¶": 2174,
      "çª": 2175,
      "Ġid": 2176,
      "Ġnight": 2177,
      "Ġnice": 2178,
      "Ġrest": 2179,
      "Ġå¯¹": 2180,
      "Ġ8": 2181,
      "Ġweek": 2182,
      "ĠEr": 2183,
      "å¢": 2184,
      "Ġdes": 2185,
      "On": 2186,
      "Ġstaan": 2187,
      "ç¼": 2188,
      "Ġalways": 2189,
      "ederland": 2190,
      "Ġwanna": 2191,
      "ä¸Ģèµ·": 2192,
      "åĳ½": 2193,
      "EN": 2194,
      "Ġname": 2195,
      "ughs": 2196,
      "emen": 2197,
      "so": 2198,
      "Ġallemaal": 2199,
      "ama": 2200,
      "ooi": 2201,
      "éĩı": 2202,
      "ught": 2203,
      "ä¸ºä»Ģä¹Ī": 2204,
      "aart": 2205,
      "ä¸ŃåĽ½": 2206,
      "æĲ": 2207,
      "Ġgrote": 2208,
      "æ°ĳ": 2209,
      "oos": 2210,
      "room": 2211,
      "Ġplace": 2212,
      "Ġå¦Ĥ": 2213,
      "æıĲ": 2214,
      "éŁ": 2215,
      "ä»ĸçļĦ": 2216,
      "Ġnum": 2217,
      "Ġlife": 2218,
      "Ġsuch": 2219,
      "Ġuw": 2220,
      "Ġrel": 2221,
      "çħ": 2222,
      "Ġvolgende": 2223,
      "Ġlove": 2224,
      "Ġantwoord": 2225,
      "Ġerm": 2226,
      "æĢķ": 2227,
      "ipp": 2228,
      "uister": 2229,
      "Ġå®": 2230,
      "çı": 2231,
      "ift": 2232,
      "åĳĬè¯ī": 2233,
      "ps": 2234,
      "ä¹¦": 2235,
      "ĠÂ·": 2236,
      "å¤Ħ": 2237,
      "Ġisn": 2238,
      "Ġdoet": 2239,
      "ç¦»": 2240,
      "ical": 2241,
      "åĳĺ": 2242,
      "æĪĳå°±": 2243,
      "ĠåĴ": 2244,
      "åĨħ": 2245,
      "çĲĥ": 2246,
      "æľį": 2247,
      "é¸": 2248,
      "Ġred": 2249,
      "ars": 2250,
      "Laat": 2251,
      "ĠAll": 2252,
      "ope": 2253,
      "ĠEng": 2254,
      "ash": 2255,
      "Ġå¤§": 2256,
      "ves": 2257,
      "Ã¯": 2258,
      "Ġkinderen": 2259,
      "Ġkill": 2260,
      "Ġtold": 2261,
      "vo": 2262,
      "Ġpap": 2263,
      "ates": 2264,
      "ä½łè¯´": 2265,
      "åħ«": 2266,
      "Ġfeel": 2267,
      "isten": 2268,
      "æľŁ": 2269,
      "itu": 2270,
      "Ġstra": 2271,
      "åºĶè¯¥": 2272,
      "edereen": 2273,
      "æ£": 2274,
      "åħ¥": 2275,
      "Ġsupp": 2276,
      "hes": 2277,
      "ä¸įä¼ļ": 2278,
      "Ġgedaan": 2279,
      "Ġå°ı": 2280,
      "èµ·æĿ¥": 2281,
      "Ġkeep": 2282,
      "Ġused": 2283,
      "sel": 2284,
      "eter": 2285,
      "æĪĺ": 2286,
      "çĿ¡": 2287,
      "Ġshow": 2288,
      "Ġwereld": 2289,
      "éĵ": 2290,
      "Ġè¿Ļä¸ª": 2291,
      "Ġelse": 2292,
      "ĠHij": 2293,
      "é£ŀ": 2294,
      "è¶Ĭ": 2295,
      "Ġnou": 2296,
      "æ¡Ī": 2297,
      "Op": 2298,
      "ä¸ĢçĤ¹": 2299,
      "å¥½çļĦ": 2300,
      "äº§": 2301,
      "maal": 2302,
      "geb": 2303,
      "ĠNederland": 2304,
      "Ġlot": 2305,
      "ĠQ": 2306,
      "Ġhoofd": 2307,
      "ese": 2308,
      "æķħ": 2309,
      "åħī": 2310,
      "aad": 2311,
      "ä»£": 2312,
      "alt": 2313,
      "ä¸Ģæł·": 2314,
      "Ġbev": 2315,
      "uff": 2316,
      "Ġcol": 2317,
      "Ġvier": 2318,
      "iel": 2319,
      "ĠBut": 2320,
      "å¤Ł": 2321,
      "ijt": 2322,
      "Ġtrain": 2323,
      "ç¥ŀ": 2324,
      "Ġrun": 2325,
      "å§ĭ": 2326,
      "Ġerg": 2327,
      "Bereken": 2328,
      "æ¥": 2329,
      "rijf": 2330,
      "ä¸ĸ": 2331,
      "How": 2332,
      "Ġvill": 2333,
      "Ġvriend": 2334,
      "ĠVoor": 2335,
      "mo": 2336,
      "Ġinform": 2337,
      "çĪ¶": 2338,
      "èī²": 2339,
      "rist": 2340,
      "Ġten": 2341,
      "Ġfin": 2342,
      "oeken": 2343,
      "Ġtry": 2344,
      "Ġdec": 2345,
      "æķ°": 2346,
      "ä¸Ķ": 2347,
      "Ġleft": 2348,
      "å½±": 2349,
      "put": 2350,
      "zoek": 2351,
      "Ġfather": 2352,
      "ĠNo": 2353,
      "ĠAn": 2354,
      "Ġwaarde": 2355,
      "ced": 2356,
      "Ġimp": 2357,
      "20": 2358,
      "ĠSp": 2359,
      "gd": 2360,
      "Ġmother": 2361,
      "Ġperson": 2362,
      "Ġligt": 2363,
      "æĿ¡": 2364,
      "000": 2365,
      "Ġjouw": 2366,
      "Ġpolit": 2367,
      "è£": 2368,
      "Ġfriend": 2369,
      "Ġbesch": 2370,
      "ĠWhat": 2371,
      "éĿŀå¸¸": 2372,
      "kom": 2373,
      "èĩªå·±çļĦ": 2374,
      "ja": 2375,
      "side": 2376,
      "Ġä½łä»¬": 2377,
      "æ®": 2378,
      "Ġco": 2379,
      "Ġgu": 2380,
      "eling": 2381,
      "Ġboy": 2382,
      "uwe": 2383,
      "Dan": 2384,
      "erg": 2385,
      "Ġmat": 2386,
      "ĠEn": 2387,
      "ä»¥åĲİ": 2388,
      "Ġball": 2389,
      "Ġsure": 2390,
      "Ġlater": 2391,
      "Ġke": 2392,
      "Ġwillen": 2393,
      "Ġroom": 2394,
      "Ġcle": 2395,
      "ä¹Ĳ": 2396,
      "å»": 2397,
      "Ġanders": 2398,
      "åľ¨è¿Ļ": 2399,
      "ple": 2400,
      "aald": 2401,
      "Ġå¦Ĥæŀľ": 2402,
      "aul": 2403,
      "ç±": 2404,
      "Ġvinden": 2405,
      "schap": 2406,
      "æļ": 2407,
      "Ġyears": 2408,
      "å¼Ł": 2409,
      "aw": 2410,
      "ives": 2411,
      "Ã¨": 2412,
      "è¿ĳ": 2413,
      "apt": 2414,
      "è°¢è°¢": 2415,
      "Ġsteeds": 2416,
      "Ġmoment": 2417,
      "Kijk": 2418,
      "è·ĳ": 2419,
      "cy": 2420,
      "Ġaround": 2421,
      "Ġcons": 2422,
      "Ġacc": 2423,
      "Do": 2424,
      "Ġmost": 2425,
      "Ġomdat": 2426,
      "ĠGr": 2427,
      "æķĻ": 2428,
      "Ġhalf": 2429,
      "led": 2430,
      "arn": 2431,
      "Ġverh": 2432,
      "ç»Ļä½ł": 2433,
      "Ġsame": 2434,
      "å¨ĺ": 2435,
      "outh": 2436,
      "é¥Ń": 2437,
      "body": 2438,
      "Ġken": 2439,
      "æµ·": 2440,
      "æ±Ĥ": 2441,
      "Ġtri": 2442,
      "raag": 2443,
      "Ġbu": 2444,
      "vent": 2445,
      "äº¤": 2446,
      "è¿Ļæĺ¯": 2447,
      "åºķ": 2448,
      "æĮº": 2449,
      "Ġcour": 2450,
      "å¾Īå¤ļ": 2451,
      "ĠThis": 2452,
      "Ġgemaakt": 2453,
      "Weet": 2454,
      "go": 2455,
      "son": 2456,
      "Ġatt": 2457,
      "ĠInd": 2458,
      "çī¹åĪ«": 2459,
      "ition": 2460,
      "äººçļĦ": 2461,
      "aag": 2462,
      "ä¿©": 2463,
      "res": 2464,
      "éĢģ": 2465,
      "Ġing": 2466,
      "Ġwhy": 2467,
      "Ġleuk": 2468,
      "Ġwie": 2469,
      "Ġve": 2470,
      "åħŃ": 2471,
      "å·¥ä½ľ": 2472,
      "åı¸": 2473,
      "ung": 2474,
      "Ġ9": 2475,
      "åĪ©": 2476,
      "Why": 2477,
      "ness": 2478,
      "Ġfour": 2479,
      "Ġä¹Ł": 2480,
      "ited": 2481,
      "ric": 2482,
      "å¤§çļĦ": 2483,
      "Ġplease": 2484,
      "è¿Ļç§į": 2485,
      "ird": 2486,
      "åŁİ": 2487,
      "æľīä¸Ģ": 2488,
      "ta": 2489,
      "ream": 2490,
      "è¿ĻäºĽ": 2491,
      "è®²": 2492,
      "Ġcat": 2493,
      "Ġyeah": 2494,
      "éľĢ": 2495,
      "çİ©": 2496,
      "ä¾¿": 2497,
      "Mm": 2498,
      "assen": 2499,
      "iken": 2500,
      "Ġgegeven": 2501,
      "è·ŁæĪĳ": 2502,
      "ield": 2503,
      "Ġeten": 2504,
      "æł¹": 2505,
      "Ġwoman": 2506,
      "Ġstand": 2507,
      "Ġpunten": 2508,
      "atuurlijk": 2509,
      "CAT": 2510,
      "å©ļ": 2511,
      "Ġkrijgen": 2512,
      "Ġhoog": 2513,
      "Ben": 2514,
      "Ġend": 2515,
      "Ġsche": 2516,
      "Dus": 2517,
      "ron": 2518,
      "Ġgone": 2519,
      "addy": 2520,
      "è®¸": 2521,
      "Ġbedoel": 2522,
      "ĠèĢĮ": 2523,
      "Ġnaam": 2524,
      "Ġbeter": 2525,
      "Ġanything": 2526,
      "Ġlie": 2527,
      "ä¸įçŁ¥éģĵ": 2528,
      "åĩĨ": 2529,
      "bs": 2530,
      "mhm": 2531,
      "Ġbad": 2532,
      "Ġsk": 2533,
      "å¤«": 2534,
      "å¾Ģ": 2535,
      "Ġmoest": 2536,
      "ç´§": 2537,
      "akken": 2538,
      "ĠThere": 2539,
      "Ġsir": 2540,
      "ows": 2541,
      "ower": 2542,
      "Ġzeker": 2543,
      "é¡¹": 2544,
      "åıį": 2545,
      "ased": 2546,
      "åĴ±ä»¬": 2547,
      "Ġsy": 2548,
      "çļĦä¸Ģ": 2549,
      "Ġwacht": 2550,
      "Ġquite": 2551,
      "Ġvillage": 2552,
      "SO": 2553,
      "å¼º": 2554,
      "ieft": 2555,
      "Ġverschill": 2556,
      "this": 2557,
      "vis": 2558,
      "Ġè¦ģ": 2559,
      "è®¡": 2560,
      "ged": 2561,
      "Ġåĵİ": 2562,
      "èİ": 2563,
      "ç¬ĳ": 2564,
      "anden": 2565,
      ",'": 2566,
      "dracht": 2567,
      "Ġsort": 2568,
      "ctor": 2569,
      "etten": 2570,
      "Ġgelijk": 2571,
      "Ġmaakt": 2572,
      "Ġgre": 2573,
      "Ġyes": 2574,
      "çº¢": 2575,
      "Ġging": 2576,
      "komen": 2577,
      "èĬĤ": 2578,
      "ider": 2579,
      "Ġac": 2580,
      "çľĭçľĭ": 2581,
      "Ġtru": 2582,
      "çĹħ": 2583,
      "Ġplaats": 2584,
      "org": 2585,
      "ĠLe": 2586,
      "å¼Ģå§ĭ": 2587,
      "AD": 2588,
      "Ġdeel": 2589,
      "æĶ¶": 2590,
      "gest": 2591,
      "Ġseem": 2592,
      "ley": 2593,
      "äºĨåĲĹ": 2594,
      "ĠæĢİä¹Ī": 2595,
      "è¿ŀ": 2596,
      "å¤±": 2597,
      "Ġokay": 2598,
      "ä¸ºäºĨ": 2599,
      "),": 2600,
      "èµĦ": 2601,
      "å¸Ĥ": 2602,
      "Okay": 2603,
      "co": 2604,
      "è¿ľ": 2605,
      "Ġplant": 2606,
      "they": 2607,
      "Ġhappen": 2608,
      "she": 2609,
      "Ġgest": 2610,
      "ĠOp": 2611,
      "Ġwilde": 2612,
      "ĠåĽłä¸º": 2613,
      "Ġpop": 2614,
      "Ġelke": 2615,
      "Ġair": 2616,
      "Ġmoney": 2617,
      "Ġvrij": 2618,
      "Wil": 2619,
      "åĸĿ": 2620,
      "ç©º": 2621,
      "Ġret": 2622,
      "eeft": 2623,
      "cent": 2624,
      "æķ´": 2625,
      "Ġuur": 2626,
      "arly": 2627,
      "gegeven": 2628,
      "æŀĹ": 2629,
      "ä¸įè¦ģ": 2630,
      "çĬ": 2631,
      "å¿ħ": 2632,
      "laughs": 2633,
      "ä¸¤ä¸ª": 2634,
      "erm": 2635,
      "Ġdacht": 2636,
      "Ġverb": 2637,
      "ruk": 2638,
      "Ġwind": 2639,
      "Ġcare": 2640,
      "Ġnieuwe": 2641,
      "die": 2642,
      "åŃĹ": 2643,
      "door": 2644,
      "hoek": 2645,
      "ince": 2646,
      "Ġnam": 2647,
      "ä¸ĢçĽ´": 2648,
      "Ġcoming": 2649,
      "åĮħ": 2650,
      "Ġcent": 2651,
      "åĮĹ": 2652,
      "ern": 2653,
      "Ġenough": 2654,
      "Ġwhile": 2655,
      "ä¼ł": 2656,
      "åİ»äºĨ": 2657,
      "çħ§": 2658,
      "aut": 2659,
      "angen": 2660,
      "Ġnext": 2661,
      "Be": 2662,
      "don": 2663,
      "Ġeyes": 2664,
      "ident": 2665,
      "ĠWh": 2666,
      "å¤ĩ": 2667,
      "Ġsaw": 2668,
      "Ġwilt": 2669,
      "èĢģå¸Ī": 2670,
      "Ġeind": 2671,
      ".'": 2672,
      "Ġmeis": 2673,
      "çķĻ": 2674,
      "æ¼Ķ": 2675,
      "Hier": 2676,
      "ĠSh": 2677,
      "æģ¯": 2678,
      "ä¸įå¥½": 2679,
      "Ġfew": 2680,
      "Ġcur": 2681,
      "Ġkijken": 2682,
      "ä¸ĥ": 2683,
      "ium": 2684,
      "Ġ=": 2685,
      "æĪĸ": 2686,
      "ks": 2687,
      "æĺ¯æĪĳ": 2688,
      "Don": 2689,
      "Ġbez": 2690,
      "èĢĥ": 2691,
      "ling": 2692,
      "Ġhoor": 2693,
      "çģ«": 2694,
      "èĮ": 2695,
      "Ġmiss": 2696,
      "å®³": 2697,
      "çĶŁæ´»": 2698,
      "Ġblijven": 2699,
      "aur": 2700,
      "æĦıæĢĿ": 2701,
      "Ġeerst": 2702,
      "Al": 2703,
      "ekend": 2704,
      "åı¥": 2705,
      "omm": 2706,
      "\".": 2707,
      "Ġpie": 2708,
      "æŁ¥": 2709,
      "ouden": 2710,
      "oemen": 2711,
      "uss": 2712,
      "waar": 2713,
      "Ġface": 2714,
      "çľĭåĪ°": 2715,
      "åıĳçİ°": 2716,
      "éĽ¶": 2717,
      "åı·": 2718,
      "Ġgoede": 2719,
      "Ġtele": 2720,
      "Ġwait": 2721,
      "Ġoor": 2722,
      "ä¹ĭåĲİ": 2723,
      "åĿĹ": 2724,
      "Ġpaar": 2725,
      "æĿ¥çļĦ": 2726,
      "åħ³ç³»": 2727,
      "Ġlaatste": 2728,
      "isschien": 2729,
      "Ġ199": 2730,
      "åĪ¶": 2731,
      "allo": 2732,
      "Ġvis": 2733,
      "Ġgewe": 2734,
      "Ġpoint": 2735,
      "Ġstay": 2736,
      "çĶ±": 2737,
      "ĠâĢ": 2738,
      "Ġå½": 2739,
      "Nu": 2740,
      "Ġbep": 2741,
      "aas": 2742,
      "Ġstad": 2743,
      "gaan": 2744,
      "ence": 2745,
      "ĠDit": 2746,
      "æµģ": 2747,
      "Wel": 2748,
      "Ġbelang": 2749,
      "Ġelders": 2750,
      "Now": 2751,
      "é¼": 2752,
      "Ġuse": 2753,
      "Let": 2754,
      "elde": 2755,
      "ä¹Ŀ": 2756,
      "ations": 2757,
      "èµ¶": 2758,
      "ĠåĴ±": 2759,
      "æĶ¿": 2760,
      "iteit": 2761,
      "ç«ĭ": 2762,
      "ĠAmeric": 2763,
      "ĠEur": 2764,
      "Ġhouden": 2765,
      "æĿĳ": 2766,
      "Ġnothing": 2767,
      "cies": 2768,
      "Ġdingen": 2769,
      "Ġsla": 2770,
      "Ġja": 2771,
      "eek": 2772,
      "ĠNew": 2773,
      "åĨ³": 2774,
      "Ġtook": 2775,
      "Ġ15": 2776,
      "Ġvoel": 2777,
      "net": 2778,
      "Ġaant": 2779,
      "Ġåį": 2780,
      "omas": 2781,
      "äºĨæĪĳ": 2782,
      "Ġverand": 2783,
      "ĠGe": 2784,
      "tje": 2785,
      "Ġfire": 2786,
      "auw": 2787,
      "Ġboven": 2788,
      "Ġhelemaal": 2789,
      "Ġsorry": 2790,
      "å®¹": 2791,
      "Ġinformatie": 2792,
      "èı": 2793,
      "any": 2794,
      "Ġå¥¹": 2795,
      "zelfde": 2796,
      "å®Ŀ": 2797,
      "Ġreal": 2798,
      "æ¶Ī": 2799,
      "Ġgeven": 2800,
      "åįĥ": 2801,
      "Ġshall": 2802,
      "ç«Ļ": 2803,
      "Ġthough": 2804,
      "åĲĦ": 2805,
      "éŁ³": 2806,
      "ä¹°": 2807,
      "ĠAr": 2808,
      "uld": 2809,
      "Ġmaak": 2810,
      "baar": 2811,
      "Ġhor": 2812,
      "æĶ¹": 2813,
      "Ġcut": 2814,
      "éĻ¢": 2815,
      "Ġkwam": 2816,
      "ule": 2817,
      "æº": 2818,
      "Ġround": 2819,
      "Ġread": 2820,
      "Ġdoesn": 2821,
      "åķ¦": 2822,
      "Ġseen": 2823,
      "oun": 2824,
      "Ġpass": 2825,
      "Ġeach": 2826,
      "Ġtop": 2827,
      "Ġverm": 2828,
      "Ġgeeft": 2829,
      "Ġhaven": 2830,
      "ject": 2831,
      "Ġgezien": 2832,
      "Ġdog": 2833,
      "åĬ¡": 2834,
      "é»Ħ": 2835,
      "Ġboth": 2836,
      "åįķ": 2837,
      "ulp": 2838,
      "ĠåĨ": 2839,
      "chten": 2840,
      "Ġsleep": 2841,
      "Sorry": 2842,
      "Ver": 2843,
      "Ġ)": 2844,
      "çķĮ": 2845,
      "ĠStan": 2846,
      "åħ´": 2847,
      "Ġmidd": 2848,
      "æĺ¯ä¸įæĺ¯": 2849,
      "èĤ¯": 2850,
      "Ġnat": 2851,
      "åĿĲ": 2852,
      "orning": 2853,
      "Ġhelpen": 2854,
      "èĽ": 2855,
      "æį®": 2856,
      "SOA": 2857,
      "ĠDat": 2858,
      "å¹¶": 2859,
      "äº®": 2860,
      "Ġè¿ĺ": 2861,
      "Ġvand": 2862,
      "Ġverw": 2863,
      "åĽł": 2864,
      "Bl": 2865,
      "Om": 2866,
      "erent": 2867,
      "åķ¥": 2868,
      "åįĬ": 2869,
      "part": 2870,
      "ĠMe": 2871,
      "å¥½äºĨ": 2872,
      "Ġwonder": 2873,
      "iks": 2874,
      "Ġdrink": 2875,
      "ush": 2876,
      "til": 2877,
      "Ġwalk": 2878,
      "Ġlief": 2879,
      "æ¢¦": 2880,
      "erde": 2881,
      "Ġkant": 2882,
      "ĠDeze": 2883,
      "æħ¢": 2884,
      "Ġtree": 2885,
      "Ġsur": 2886,
      "Ġauto": 2887,
      "Hou": 2888,
      "å»º": 2889,
      "Ġziet": 2890,
      "ivers": 2891,
      "æ»¡": 2892,
      "king": 2893,
      "now": 2894,
      "Ġgar": 2895,
      "Ch": 2896,
      "è½¬": 2897,
      "éľĢè¦ģ": 2898,
      "uring": 2899,
      "Ġleg": 2900,
      "æł¼": 2901,
      "è±¡": 2902,
      "è¯ģ": 2903,
      "æŃĮ": 2904,
      "fect": 2905,
      "Ġever": 2906,
      "Ġgener": 2907,
      "è¯Ĩ": 2908,
      "Ġä½Ĩ": 2909,
      "ĠBij": 2910,
      "ably": 2911,
      "ĠâĢ¢": 2912,
      "aden": 2913,
      "Ġem": 2914,
      "Come": 2915,
      "Ġvorm": 2916,
      "Ġind": 2917,
      "æĢ¥": 2918,
      "ween": 2919,
      "åĨµ": 2920,
      "com": 2921,
      "Ġyet": 2922,
      "ids": 2923,
      "Ġknown": 2924,
      "use": 2925,
      "å¦¹": 2926,
      "Ġfive": 2927,
      "åĳĥ": 2928,
      "Ġbuiten": 2929,
      "Ġremember": 2930,
      "Ġju": 2931,
      "è¾ĥ": 2932,
      "æĪĳè§īå¾Ĺ": 2933,
      "ä¼¤": 2934,
      "Ġsmall": 2935,
      "Misschien": 2936,
      "Ġçİ°åľ¨": 2937,
      "Ġverg": 2938,
      "ĠIf": 2939,
      "Ġafbeeld": 2940,
      "Ġwelke": 2941,
      "Ġspr": 2942,
      "Ġwanted": 2943,
      "èµ°äºĨ": 2944,
      "port": 2945,
      "Ġden": 2946,
      "Ġlight": 2947,
      "åĽŀæĿ¥": 2948,
      "Ġklaar": 2949,
      "ijdens": 2950,
      "Ġverschillende": 2951,
      "Ġfoot": 2952,
      "fl": 2953,
      "Ġgenoeg": 2954,
      "ĠMiss": 2955,
      "Ġsix": 2956,
      "æĺŁ": 2957,
      "Ġbew": 2958,
      "OU": 2959,
      "ract": 2960,
      "Ġcomm": 2961,
      "è½»": 2962,
      "Ġcourse": 2963,
      "why": 2964,
      "Ġster": 2965,
      "aps": 2966,
      "Ġkans": 2967,
      "ye": 2968,
      "ones": 2969,
      "Ġåĳ": 2970,
      "\",": 2971,
      "Le": 2972,
      "Ġmoe": 2973,
      "Ġlooks": 2974,
      "ç¬¬ä¸Ģ": 2975,
      "din": 2976,
      "Ġbang": 2977,
      "Ã¶": 2978,
      "Ġgesch": 2979,
      "åħ¶å®ŀ": 2980,
      "Ġbelangrijk": 2981,
      "ner": 2982,
      "æĩ": 2983,
      "amb": 2984,
      "Ġå½ĵ": 2985,
      "Ġide": 2986,
      "æ¯į": 2987,
      "Geef": 2988,
      "ĠæĤ¨": 2989,
      "æĿĢ": 2990,
      "Ġmisschien": 2991,
      "Ġzonder": 2992,
      "Ġiedereen": 2993,
      "Ġå¹": 2994,
      "Ġverder": 2995,
      "wel": 2996,
      "Ġstud": 2997,
      "åįĹ": 2998,
      "Ġmedic": 2999,
      "çıŃ": 3000,
      "enen": 3001,
      "Ġmorning": 3002,
      "æĮģ": 3003,
      "é¾": 3004,
      "Ġinst": 3005,
      "Ġæ²¡": 3006,
      "Ġsac": 3007,
      "çĥŃ": 3008,
      "pro": 3009,
      "Ġwar": 3010,
      "Ġgeweest": 3011,
      "Dank": 3012,
      "çīĩ": 3013,
      "ĠWat": 3014,
      "ede": 3015,
      "olog": 3016,
      "Ġfoll": 3017,
      "weg": 3018,
      "Ġjongen": 3019,
      "ational": 3020,
      "Ġgeweld": 3021,
      "Right": 3022,
      "ankt": 3023,
      "Ġåħ¶": 3024,
      "ork": 3025,
      "å¦Ĥæŀľ": 3026,
      "Ġcere": 3027,
      "anks": 3028,
      "åľ°æĸ¹": 3029,
      "iving": 3030,
      "Ġkoning": 3031,
      "ross": 3032,
      "icks": 3033,
      "çĨ": 3034,
      "Ġfar": 3035,
      "è§Ĩ": 3036,
      "tr": 3037,
      "æķ¢": 3038,
      "Ġzullen": 3039,
      "æĭľ": 3040,
      "Ġchildren": 3041,
      "ä½¿": 3042,
      "cle": 3043,
      "log": 3044,
      "è®©æĪĳ": 3045,
      "Ġhot": 3046,
      "ç½ĳ": 3047,
      "Geen": 3048,
      "zo": 3049,
      "Ġmind": 3050,
      "ĠAf": 3051,
      "ump": 3052,
      "Ġwaarom": 3053,
      "Ġart": 3054,
      "ç²¾": 3055,
      "Ġdu": 3056,
      "Ġpresent": 3057,
      "Ġä½łè¯´": 3058,
      "Ġgoes": 3059,
      "éĩĮéĿ¢": 3060,
      "Ġuntil": 3061,
      "Ġdifferent": 3062,
      "ourn": 3063,
      "oven": 3064,
      "Ġåķ": 3065,
      "Ġåıª": 3066,
      "ches": 3067,
      "Ġhear": 3068,
      "Ġpat": 3069,
      "Hey": 3070,
      "rag": 3071,
      "ç¢": 3072,
      "åĵģ": 3073,
      "Ġbox": 3074,
      "Ġbeetje": 3075,
      "å¯¼": 3076,
      "é¦ĸ": 3077,
      "rie": 3078,
      "anneer": 3079,
      "who": 3080,
      "Ġfunctie": 3081,
      "Ġpos": 3082,
      "èħ": 3083,
      "æĺĵ": 3084,
      "Ġdri": 3085,
      "Ġvr": 3086,
      "åħ±": 3087,
      "åĨĻ": 3088,
      "çŀ": 3089,
      "ĮæľĽ": 3090,
      "Hallo": 3091,
      "Nou": 3092,
      "cept": 3093,
      "ane": 3094,
      "apen": 3095,
      "ished": 3096,
      "è°ĥ": 3097,
      "åĮ»": 3098,
      "ĠIs": 3099,
      "ĠHoe": 3100,
      "Of": 3101,
      "nis": 3102,
      "å¥ĩ": 3103,
      "è¦ģæĺ¯": 3104,
      "vlak": 3105,
      "val": 3106,
      "Ġexact": 3107,
      "ĠåĪ«": 3108,
      "Not": 3109,
      "ä½łå¥½": 3110,
      "ton": 3111,
      "å¥¶": 3112,
      "å¾ħ": 3113,
      "Wacht": 3114,
      "èĩ³": 3115,
      "ball": 3116,
      "ison": 3117,
      "Ġknew": 3118,
      "Ġtoget": 3119,
      "ips": 3120,
      "è¿Ĳ": 3121,
      "Ġstuk": 3122,
      "Ġph": 3123,
      "osed": 3124,
      "Ġlooked": 3125,
      "Ġdist": 3126,
      "çļĦå°ı": 3127,
      "ika": 3128,
      "ĠOn": 3129,
      "Ġtogether": 3130,
      "ove": 3131,
      "çīĽ": 3132,
      "HÃ©": 3133,
      "Ġè¯´": 3134,
      "iding": 3135,
      "eth": 3136,
      "åı°": 3137,
      "æ³¨": 3138,
      "æĦŁè§ī": 3139,
      "Ġkleine": 3140,
      "ä¹ī": 3141,
      "è¿Ļä¸Ģ": 3142,
      "ler": 3143,
      "Ġdoll": 3144,
      "Ġpraten": 3145,
      "voorbeeld": 3146,
      "ax": 3147,
      "Ġhold": 3148,
      "Ġdear": 3149,
      "opt": 3150,
      "Ġass": 3151,
      "19": 3152,
      "how": 3153,
      "Ġwife": 3154,
      "Ġcountry": 3155,
      "ijs": 3156,
      "Ġå¿": 3157,
      "elling": 3158,
      "Ġhoeveel": 3159,
      "cial": 3160,
      "ries": 3161,
      "Sch": 3162,
      "ĠSe": 3163,
      "Ġafbeelding": 3164,
      "æĦ¿": 3165,
      "Ġnemen": 3166,
      "ating": 3167,
      "itch": 3168,
      "Ġworld": 3169,
      "åĽ¢": 3170,
      "èµĽ": 3171,
      "Ġhadden": 3172,
      "Ġblood": 3173,
      "vie": 3174,
      "Ġbur": 3175,
      "ä¹ĭåīį": 3176,
      "çªģ": 3177,
      "Ġgebeur": 3178,
      "ole": 3179,
      "ç¿": 3180,
      "Ġdel": 3181,
      "æĪĳæĺ¯": 3182,
      "Ġlos": 3183,
      "omme": 3184,
      "åŁº": 3185,
      "Ġheen": 3186,
      "avond": 3187,
      "Ġfilm": 3188,
      "az": 3189,
      "Ġsw": 3190,
      "Ġniks": 3191,
      "owing": 3192,
      "une": 3193,
      "ĠYes": 3194,
      "Ġneem": 3195,
      "onnen": 3196,
      "Ġè¿Ļæĺ¯": 3197,
      "oes": 3198,
      "Ġgraag": 3199,
      "ĠChrist": 3200,
      "Ġasked": 3201,
      "æ®µ": 3202,
      "Ġvaak": 3203,
      "ĠOh": 3204,
      "ä¸ĭæĿ¥": 3205,
      "Ġsign": 3206,
      "åħļ": 3207,
      "Ġnieuw": 3208,
      "aught": 3209,
      "ĠDaar": 3210,
      "åĵİ": 3211,
      "Ġlooking": 3212,
      "éħĴ": 3213,
      "Ġidee": 3214,
      "ired": 3215,
      "äººå®¶": 3216,
      "ched": 3217,
      "æĮĩ": 3218,
      "Ġtalking": 3219,
      "arr": 3220,
      "Ġmeet": 3221,
      "Ġheart": 3222,
      "è§Ĥ": 3223,
      "Doe": 3224,
      "My": 3225,
      "æĿİ": 3226,
      "éĩįè¦ģ": 3227,
      "ç§ĳ": 3228,
      "Ġslecht": 3229,
      "ĠThomas": 3230,
      "uyu": 3231,
      "ral": 3232,
      "Ġopdracht": 3233,
      "ific": 3234,
      "Jullie": 3235,
      "Ġexc": 3236,
      "When": 3237,
      "reken": 3238,
      "stuk": 3239,
      "Ġaantal": 3240,
      "het": 3241,
      "ĠæĪĳæĺ¯": 3242,
      "Ġmeneer": 3243,
      "oit": 3244,
      "ĠHier": 3245,
      "ikuyu": 3246,
      "æ·±": 3247,
      "Mr": 3248,
      "Ġexp": 3249,
      "ĠèĢģ": 3250,
      "è¾¾": 3251,
      "äºĮåįģ": 3252,
      "www": 3253,
      "äºĨä½ł": 3254,
      "æİĴ": 3255,
      "att": 3256,
      "æľĢåĲİ": 3257,
      "uz": 3258,
      "idden": 3259,
      "und": 3260,
      "å¿Ĺ": 3261,
      "Ġspijt": 3262,
      "band": 3263,
      "Ġklein": 3264,
      "Ġheet": 3265,
      "Ġ12": 3266,
      "Ġprodu": 3267,
      "ç»Ŀ": 3268,
      "Ġext": 3269,
      "etty": 3270,
      "åĵĪåĵĪ": 3271,
      "Ġceremon": 3272,
      "Ġhoud": 3273,
      "ijna": 3274,
      "Ġgrond": 3275,
      "Ġbring": 3276,
      "Van": 3277,
      "Ġger": 3278,
      "ummer": 3279,
      "å¼ı": 3280,
      "Ġpri": 3281,
      "Ġint": 3282,
      "Ġbetween": 3283,
      "Ġgetekend": 3284,
      "åĳ¨": 3285,
      "Ġsecond": 3286,
      "èĭ¦": 3287,
      "è¶³": 3288,
      "è¨": 3289,
      "Ġcoll": 3290,
      "Ġå¾": 3291,
      "å¥½å¥½": 3292,
      "Ġgebruikt": 3293,
      "CD": 3294,
      "Met": 3295,
      "éº": 3296,
      "æīĢæľī": 3297,
      "Ġdisc": 3298,
      "æłĳ": 3299,
      "Ġhaving": 3300,
      "pervlak": 3301,
      "å²ģ": 3302,
      "rit": 3303,
      "åĪĩ": 3304,
      "Ġside": 3305,
      "è¯ķ": 3306,
      "å¿Ļ": 3307,
      "ç¨ĭ": 3308,
      "ible": 3309,
      "Ġwist": 3310,
      "Ġbelieve": 3311,
      "èĤ¯å®ļ": 3312,
      "bed": 3313,
      "orrow": 3314,
      "éĥ½ä¸į": 3315,
      "Ġlive": 3316,
      "Ġanim": 3317,
      "Ġsing": 3318,
      "ĠæĪĳå°±": 3319,
      "ertain": 3320,
      "èģĬ": 3321,
      "leg": 3322,
      "Ġgehe": 3323,
      "ily": 3324,
      "è¨Ģ": 3325,
      "åħ¬åı¸": 3326,
      "Ġdays": 3327,
      "ĠåķĬ": 3328,
      "æĥħåĨµ": 3329,
      "Ġnumber": 3330,
      "åįİ": 3331,
      "åı¯æĺ¯": 3332,
      "ä¸Ģä¸ªäºº": 3333,
      "Ġlijkt": 3334,
      "Ġhands": 3335,
      "lijn": 3336,
      "Ġhers": 3337,
      "Ġä»ĸä»¬": 3338,
      "éļı": 3339,
      "Ġgeldt": 3340,
      "enten": 3341,
      "rif": 3342,
      "rijven": 3343,
      "Ġvertellen": 3344,
      "éĩİ": 3345,
      "wat": 3346,
      "æĢª": 3347,
      "ĠFrance": 3348,
      "ient": 3349,
      "Ġleave": 3350,
      "Bed": 3351,
      "ress": 3352,
      "Ġreturn": 3353,
      "elp": 3354,
      "Ġlar": 3355,
      "æľ¯": 3356,
      "aster": 3357,
      "deel": 3358,
      "Ġmogelijk": 3359,
      "Ġgetting": 3360,
      "Ġheard": 3361,
      "ĠMaar": 3362,
      "Ġvlie": 3363,
      "Ġeverything": 3364,
      "ual": 3365,
      "æķĳ": 3366,
      "çº¿": 3367,
      "Ġwerden": 3368,
      "mber": 3369,
      "vin": 3370,
      "æ¥ļ": 3371,
      "åķĨ": 3372,
      "Ġwithout": 3373,
      "oke": 3374,
      "Ġfamily": 3375,
      "åĤ": 3376,
      "Ġbren": 3377,
      "izen": 3378,
      "Ġfood": 3379,
      "Ġ17": 3380,
      "gan": 3381,
      "Ġrust": 3382,
      "æĬĢ": 3383,
      "Ġprob": 3384,
      "çĪ¸çĪ¸": 3385,
      "Ġletter": 3386,
      "Ġthuis": 3387,
      "Ġwhite": 3388,
      "ichaam": 3389,
      "Ġim": 3390,
      "met": 3391,
      "åħµ": 3392,
      "ither": 3393,
      "æŃ¥": 3394,
      "DAD": 3395,
      "oth": 3396,
      "ames": 3397,
      "ction": 3398,
      "åĬŁ": 3399,
      "æĪĳä»¬çļĦ": 3400,
      "ised": 3401,
      "Ġtoday": 3402,
      "åħĦ": 3403,
      "most": 3404,
      "å±ķ": 3405,
      "Ġgeze": 3406,
      "Ġontst": 3407,
      "Ġborn": 3408,
      "Ġhart": 3409,
      "reek": 3410,
      "½çĦ¶": 3411,
      "Ġyoung": 3412,
      "ä¼ļåĦ¿": 3413,
      "Ġguy": 3414,
      "ä¸ĢäºĽ": 3415,
      "å®ĺ": 3416,
      "èĥ½å¤Ł": 3417,
      "Ġbeste": 3418,
      "Ġlucht": 3419,
      "ä¸ĬçļĦ": 3420,
      "èĲ½": 3421,
      "wo": 3422,
      "Ġreden": 3423,
      "ĠAs": 3424,
      "Ġmanier": 3425,
      "woorden": 3426,
      "åĢĴ": 3427,
      "èĦĳ": 3428,
      "kant": 3429,
      "Ġswe": 3430,
      "fta": 3431,
      "Ġ16": 3432,
      "Ġmeisje": 3433,
      "Ġhigh": 3434,
      "æĭī": 3435,
      "Ġogen": 3436,
      "orth": 3437,
      "Ġmannen": 3438,
      "ants": 3439,
      "å¸ĮæľĽ": 3440,
      "è¿ĩæĿ¥": 3441,
      "min": 3442,
      "éĢł": 3443,
      "kker": 3444,
      "Ġpur": 3445,
      "å¤ľ": 3446,
      "ĠMummy": 3447,
      "é»ĳ": 3448,
      "did": 3449,
      "Ġty": 3450,
      "Ġaard": 3451,
      "gev": 3452,
      "Ġ198": 3453,
      "Ġpay": 3454,
      "ä¹ł": 3455,
      "ç»Ī": 3456,
      "ived": 3457,
      "Ġton": 3458,
      "æ²»": 3459,
      "jebl": 3460,
      "rijd": 3461,
      "ason": 3462,
      "æĺİçĻ½": 3463,
      "è·Łä½ł": 3464,
      "ape": 3465,
      "ĠJack": 3466,
      "oet": 3467,
      "Ġdicht": 3468,
      "Ġpast": 3469,
      "ande": 3470,
      "Ġrond": 3471,
      "Ġkrijgt": 3472,
      "Ġonce": 3473,
      "Ġwasn": 3474,
      "Ġvers": 3475,
      "åį´": 3476,
      "çĵ": 3477,
      "Ġdied": 3478,
      "arde": 3479,
      "Ġoffic": 3480,
      "Ġsound": 3481,
      "åıĸ": 3482,
      "enty": 3483,
      "æľīä»Ģä¹Ī": 3484,
      "Ġteam": 3485,
      "Ġbijvoorbeeld": 3486,
      "åĵªåĦ¿": 3487,
      "Ġie": 3488,
      "Ġzorgen": 3489,
      "åįĸ": 3490,
      "Ġfeet": 3491,
      "igd": 3492,
      "Ġmove": 3493,
      "jeblieft": 3494,
      "Ġgeleden": 3495,
      "Where": 3496,
      "Ġsoon": 3497,
      "Ġposs": 3498,
      "Ġber": 3499,
      "raat": 3500,
      "ç»Ħ": 3501,
      "fess": 3502,
      "Ġooit": 3503,
      "rek": 3504,
      "Ġoften": 3505,
      "æĬ¤": 3506,
      "Ġwatch": 3507,
      "ĠRe": 3508,
      "less": 3509,
      "ä¹ħ": 3510,
      "Ġcontro": 3511,
      "inner": 3512,
      "åĵį": 3513,
      "èľ": 3514,
      "Ġob": 3515,
      "Ġson": 3516,
      "Ġvoed": 3517,
      "Ġcos": 3518,
      "ages": 3519,
      "uc": 3520,
      "ures": 3521,
      "åĮº": 3522,
      "Ġprobleem": 3523,
      "Ġbreak": 3524,
      "Ġhafta": 3525,
      "Ġexamen": 3526,
      "ä¸įäºĨ": 3527,
      "roken": 3528,
      "Ġnear": 3529,
      "è£ħ": 3530,
      "voc": 3531,
      "Ġgeluk": 3532,
      "Ġziek": 3533,
      "ics": 3534,
      "å·®": 3535,
      "é¢Ĩ": 3536,
      ".]": 3537,
      "Ġmaking": 3538,
      "Ġsaying": 3539,
      "rought": 3540,
      "Ġed": 3541,
      "mee": 3542,
      "ieden": 3543,
      "âĳ": 3544,
      "Ġwoorden": 3545,
      "Ġgod": 3546,
      "æİī": 3547,
      "Ġsoort": 3548,
      "Ġåİ": 3549,
      "Ġnee": 3550,
      "æ¸¸": 3551,
      "Ġmus": 3552,
      "Ġset": 3553,
      "Ġlicht": 3554,
      "å¸ĥ": 3555,
      "ä¸ĸçķĮ": 3556,
      "lo": 3557,
      "nie": 3558,
      "ellow": 3559,
      "Ġbestaat": 3560,
      "åĻ": 3561,
      "ĠæĿ¥": 3562,
      "æĩĤ": 3563,
      "mat": 3564,
      "bru": 3565,
      "Ġdagen": 3566,
      "Ġåħ¶å®ŀ": 3567,
      "Ġ11": 3568,
      "Ġå¸": 3569,
      "Ġseemed": 3570,
      "NAN": 3571,
      "uurt": 3572,
      "Ġcomes": 3573,
      "Me": 3574,
      "èĦ¸": 3575,
      "iven": 3576,
      "Ġmyself": 3577,
      "Ġdro": 3578,
      "Ġdire": 3579,
      "ĠVan": 3580,
      "æ¯Ķè¾ĥ": 3581,
      "oemd": 3582,
      "Sh": 3583,
      "kelijk": 3584,
      "è¯¯": 3585,
      "èįī": 3586,
      "Ġhus": 3587,
      "Ġgroep": 3588,
      "Ġliggen": 3589,
      "è¯´çļĦ": 3590,
      "Ġgave": 3591,
      "åĭ": 3592,
      "åıĬ": 3593,
      "ular": 3594,
      "èĴ": 3595,
      "Ġtrou": 3596,
      "çļĩ": 3597,
      "Ġoppervlak": 3598,
      "åĪ»": 3599,
      "ĠAmerican": 3600,
      "ator": 3601,
      "å½¢": 3602,
      "æĻļä¸Ĭ": 3603,
      "Ġground": 3604,
      "Ġcertain": 3605,
      "åıĶ": 3606,
      "è®¾": 3607,
      "ohn": 3608,
      "Ġlink": 3609,
      "å®¢": 3610,
      "æľīçĤ¹": 3611,
      "olen": 3612,
      "Ġkop": 3613,
      "ines": 3614,
      "Ġvar": 3615,
      "Ġhour": 3616,
      "Ġexpl": 3617,
      "Ġjongens": 3618,
      "é¬": 3619,
      "Ġbijna": 3620,
      "airs": 3621,
      "æľīä¸Ģä¸ª": 3622,
      "Ġidea": 3623,
      "åł": 3624,
      "èģĶ": 3625,
      "esloten": 3626,
      "Ġmatter": 3627,
      "éĨ": 3628,
      "Ġagainst": 3629,
      "elden": 3630,
      "å§ĳ": 3631,
      "Ge": 3632,
      "ä»¤": 3633,
      "Ġalong": 3634,
      "ities": 3635,
      "Ġfall": 3636,
      "inds": 3637,
      "è´¨": 3638,
      "Ġready": 3639,
      "Ġtom": 3640,
      "ready": 3641,
      "Ġminuten": 3642,
      "ĠåĹ¯": 3643,
      "æĢģ": 3644,
      "çĶµè¯Ŀ": 3645,
      "Ġcirkel": 3646,
      "Ġtimes": 3647,
      "Ġdeed": 3648,
      "owed": 3649,
      "çĶ»": 3650,
      "å¯Ĩ": 3651,
      "Ġminder": 3652,
      "sn": 3653,
      "Ġä¸įæĺ¯": 3654,
      "ĠHow": 3655,
      "Ġgezegd": 3656,
      "ä»½": 3657,
      "é¬¼": 3658,
      "Ġorgan": 3659,
      "Ġunderstand": 3660,
      "Ġprobably": 3661,
      "Ġhusband": 3662,
      "Ġfact": 3663,
      "Ġbeaut": 3664,
      "raak": 3665,
      "çŁ³": 3666,
      "ected": 3667,
      "Ġsoms": 3668,
      "ç±»": 3669,
      "Ġgebruiken": 3670,
      "Ġwed": 3671,
      "Ġsim": 3672,
      "ĠZie": 3673,
      "æį¢": 3674,
      "æĹı": 3675,
      "Ġsub": 3676,
      "oopt": 3677,
      "ĠCan": 3678,
      "ha": 3679,
      "ony": 3680,
      "æł¡": 3681,
      "éĺ¿": 3682,
      "Ġgarden": 3683,
      "ç»Ł": 3684,
      "Ġleer": 3685,
      "Ġwrong": 3686,
      "Ġè¿ĺæľī": 3687,
      "ared": 3688,
      "Ġtown": 3689,
      "Ġonge": 3690,
      "ury": 3691,
      "èĳ": 3692,
      "Ġjo": 3693,
      "zy": 3694,
      "Ġwomen": 3695,
      "ats": 3696,
      "ara": 3697,
      "Ġformule": 3698,
      "II": 3699,
      "Ġsitu": 3700,
      "Ġjaren": 3701,
      "æľª": 3702,
      "Ġplac": 3703,
      "åħĪçĶŁ": 3704,
      "gy": 3705,
      "é±": 3706,
      "Ġcook": 3707,
      "Ġspeel": 3708,
      "æĸĻ": 3709,
      "çľŁæĺ¯": 3710,
      "Ġdraw": 3711,
      "iger": 3712,
      "è¯´äºĨ": 3713,
      "Ġspir": 3714,
      "ĠKikuyu": 3715,
      "Ġbrand": 3716,
      "ç¤¾": 3717,
      "é±¼": 3718,
      "Ġhalen": 3719,
      "zicht": 3720,
      "Ġnorm": 3721,
      "ä½łå°±": 3722,
      "ĠPar": 3723,
      "Ġprobe": 3724,
      "éĻ¤": 3725,
      "Ġlichaam": 3726,
      "çł´": 3727,
      "Ġpretty": 3728,
      "Ġbegrij": 3729,
      "Ġinterest": 3730,
      "erv": 3731,
      "Ġhoren": 3732,
      "ĠDan": 3733,
      "illy": 3734,
      "Ġarm": 3735,
      "Ġgesp": 3736,
      "Ġprom": 3737,
      "Ġev": 3738,
      "Ġshop": 3739,
      "Ġpick": 3740,
      "å¿ĥéĩĮ": 3741,
      "Just": 3742,
      "Ġä»Ģä¹Ī": 3743,
      "Ġeas": 3744,
      "åħĥ": 3745,
      "Deze": 3746,
      "Ġinv": 3747,
      "Ġparty": 3748,
      "ior": 3749,
      "esh": 3750,
      "å¾®": 3751,
      "aint": 3752,
      "Ġhappened": 3753,
      "An": 3754,
      "éŃ": 3755,
      "Ġuh": 3756,
      "Ġgrot": 3757,
      "ĠSchrijf": 3758,
      "åŀ": 3759,
      "ä½łæĺ¯": 3760,
      "Ġstory": 3761,
      "ä¸ªäºº": 3762,
      "Ġ202": 3763,
      "Ġwin": 3764,
      "å¤į": 3765,
      "å«": 3766,
      "ĠJan": 3767,
      "dem": 3768,
      "ĠAB": 3769,
      "Ġref": 3770,
      "Ġsit": 3771,
      "weede": 3772,
      "Ġoude": 3773,
      "Ġet": 3774,
      "Ġtaken": 3775,
      "è¡£": 3776,
      "æĶ¯": 3777,
      "ç«Ł": 3778,
      "Ġéĥ½": 3779,
      "Ġleng": 3780,
      "Ġpict": 3781,
      "è¿ĻåĦ¿": 3782,
      "ç»Ń": 3783,
      "ä¸įèµ·": 3784,
      "ently": 3785,
      "ç»Ĩ": 3786,
      "éģĩ": 3787,
      "å£«": 3788,
      "?'": 3789,
      "got": 3790,
      "ize": 3791,
      "Ġtable": 3792,
      "Ġnacht": 3793,
      "æĪĳä¸į": 3794,
      "irth": 3795,
      "Ġhair": 3796,
      "because": 3797,
      "å±Ģ": 3798,
      "uil": 3799,
      "omin": 3800,
      "äºĨåĲ§": 3801,
      "è®º": 3802,
      "Ġmens": 3803,
      "Ġappear": 3804,
      "bare": 3805,
      "Ġhen": 3806,
      "Ġdead": 3807,
      "ieten": 3808,
      "æĬĵ": 3809,
      "åĺ´": 3810,
      "Ġnoemen": 3811,
      "è§Ħ": 3812,
      "éĿĴ": 3813,
      "ç§Ģ": 3814,
      "Ġgotta": 3815,
      "ĠPaul": 3816,
      "Ġonderzoek": 3817,
      "Wij": 3818,
      "iness": 3819,
      "äºī": 3820,
      "Ġchar": 3821,
      "ĠUnited": 3822,
      "Ġtijdens": 3823,
      "Ġhoop": 3824,
      "Ġnatuurlijk": 3825,
      "inger": 3826,
      "Ġeff": 3827,
      "Ġwouldn": 3828,
      "ç¤¼": 3829,
      "maar": 3830,
      "Ġoh": 3831,
      "orp": 3832,
      "Ġwerken": 3833,
      "Ġvindt": 3834,
      "Ġcase": 3835,
      "Ġkilled": 3836,
      "ä¸ĵ": 3837,
      "reven": 3838,
      "Ġtek": 3839,
      "esten": 3840,
      "Ġnoise": 3841,
      "æĴŃ": 3842,
      "é¾Ļ": 3843,
      "Ġverz": 3844,
      "oepen": 3845,
      "Ġoud": 3846,
      "Ġpot": 3847,
      "Ġbek": 3848,
      "Laten": 3849,
      "ads": 3850,
      "æ´ĭ": 3851,
      "æķħäºĭ": 3852,
      "Bedankt": 3853,
      "oms": 3854,
      "Ġpolitie": 3855,
      "ĠOok": 3856,
      "ning": 3857,
      "mb": 3858,
      "Ġang": 3859,
      "Ġ197": 3860,
      "èĻ½çĦ¶": 3861,
      "ĠåĨį": 3862,
      "Ã¶r": 3863,
      "Ġkijk": 3864,
      "Ġupon": 3865,
      "éĺ³": 3866,
      "uig": 3867,
      "Ġzon": 3868,
      "ä¼Ļ": 3869,
      "ney": 3870,
      "Ġbas": 3871,
      "Ġlik": 3872,
      "Ġcity": 3873,
      "åģĩ": 3874,
      "Ġwhole": 3875,
      "Who": 3876,
      "Ġoppervlakte": 3877,
      "Ġniemand": 3878,
      "Ġdenken": 3879,
      "ĠSo": 3880,
      "åħĶ": 3881,
      "xim": 3882,
      "ĠX": 3883,
      "Ġquest": 3884,
      "Are": 3885,
      "Maak": 3886,
      "æ¨": 3887,
      "æĿ¿": 3888,
      "Ġblack": 3889,
      "çĪ¹": 3890,
      "æŀģ": 3891,
      "æ¯Ľ": 3892,
      "Ġwoord": 3893,
      "Ġzoon": 3894,
      "bel": 3895,
      "Ġmooi": 3896,
      "ital": 3897,
      "ä»·": 3898,
      "Ġenige": 3899,
      "è°Ī": 3900,
      "fe": 3901,
      "æ¦": 3902,
      "Ġduring": 3903,
      "Ġheld": 3904,
      "Ġpak": 3905,
      "Alles": 3906,
      "acter": 3907,
      "ĠPat": 3908,
      "abel": 3909,
      "Ġgebied": 3910,
      "Ġmine": 3911,
      "ĠThat": 3912,
      "è¿ĩåİ»": 3913,
      "ense": 3914,
      "Ġalmost": 3915,
      "å·´": 3916,
      "åĩĨå¤ĩ": 3917,
      "zus": 3918,
      "urs": 3919,
      "aybe": 3920,
      "Ġ196": 3921,
      "åĶ±": 3922,
      "æĪĸèĢħ": 3923,
      "Ġbar": 3924,
      "aanse": 3925,
      "Ġzag": 3926,
      "antwoord": 3927,
      "åĳ³": 3928,
      "çĸĳ": 3929,
      "enden": 3930,
      "åħ»": 3931,
      "ĠRo": 3932,
      "ains": 3933,
      "rat": 3934,
      "Ġvide": 3935,
      "Ġgebruik": 3936,
      "ying": 3937,
      "ĠæĬĬ": 3938,
      "owers": 3939,
      "åĪ«äºº": 3940,
      "Ġbrought": 3941,
      "oto": 3942,
      "è·³": 3943,
      "Ġmonth": 3944,
      "ON": 3945,
      "con": 3946,
      "ager": 3947,
      "Ġgeloof": 3948,
      "Ġblijft": 3949,
      "åĬŀæ³ķ": 3950,
      "ä¼Ĺ": 3951,
      "Ġsuper": 3952,
      "çĮª": 3953,
      "Ġfull": 3954,
      "æĺ¯ä¸Ģ": 3955,
      "Ġspel": 3956,
      "Ġbes": 3957,
      "Ġzin": 3958,
      "Zeg": 3959,
      "åī§": 3960,
      "Ġocc": 3961,
      "itten": 3962,
      "éĿĻ": 3963,
      "Ġav": 3964,
      "åľŁ": 3965,
      "æĬķ": 3966,
      "åĩºåİ»": 3967,
      "é¹": 3968,
      "Ġçľĭ": 3969,
      "iter": 3970,
      "Ġresp": 3971,
      "ĠDuit": 3972,
      "ĠæĪĳè§īå¾Ĺ": 3973,
      "ement": 3974,
      "Ġgebeurd": 3975,
      "Ġbere": 3976,
      "offen": 3977,
      "cess": 3978,
      "ĠVer": 3979,
      "Men": 3980,
      "hel": 3981,
      "äº¬": 3982,
      "å°½": 3983,
      "Then": 3984,
      "Ġadd": 3985,
      "Ġruim": 3986,
      "çŃĶæ¡Ī": 3987,
      "Ġverhaal": 3988,
      "Ġvijf": 3989,
      "Ġcouldn": 3990,
      "Ġä»İ": 3991,
      "éĢĤ": 3992,
      "Ġåı¯æĺ¯": 3993,
      "Ġhoek": 3994,
      "adi": 3995,
      "cks": 3996,
      "é¡»": 3997,
      "Blijf": 3998,
      "inde": 3999,
      "æĿĥ": 4000,
      "æĪĳä¹Ł": 4001,
      "stof": 4002,
      "ĠHer": 4003,
      "æĸŃ": 4004,
      "æĭį": 4005,
      "heen": 4006,
      "Ġwhe": 4007,
      "Ġvergelijk": 4008,
      "Ġcompl": 4009,
      "Ġfamilie": 4010,
      "Ġzoek": 4011,
      "ĠAg": 4012,
      "è·Łä½łè¯´": 4013,
      "Ġ30": 4014,
      "Ġhoudt": 4015,
      "Ġbal": 4016,
      "omet": 4017,
      "ola": 4018,
      "æİ¨": 4019,
      "è¸": 4020,
      "Ġdeath": 4021,
      "Ġpiece": 4022,
      "Ġvandaag": 4023,
      "è¯´ä½ł": 4024,
      "Ġzelfs": 4025,
      "Ġminute": 4026,
      "Ġvroeg": 4027,
      "ocht": 4028,
      "ç»§": 4029,
      "æĢĢ": 4030,
      "ĠOm": 4031,
      "Ń¦": 4032,
      "Ġmoo": 4033,
      "Ġij": 4034,
      "ises": 4035,
      "Ġwants": 4036,
      "èģĮ": 4037,
      "Ġä»Ĭå¤©": 4038,
      "veer": 4039,
      "Ġrather": 4040,
      "åıĤ": 4041,
      "irty": 4042,
      "ä»¥åīį": 4043,
      "æĭħ": 4044,
      "ĠZo": 4045,
      "Ġspelen": 4046,
      "æ±ī": 4047,
      "Ã¶rdin": 4048,
      "zer": 4049,
      "Ġåĩ": 4050,
      "æĢİä¹Īæł·": 4051,
      "æĺ¯ä»Ģä¹Ī": 4052,
      "ram": 4053,
      "Ġles": 4054,
      "çİ¯": 4055,
      "sk": 4056,
      "Âł": 4057,
      "Ġble": 4058,
      "Ġpijn": 4059,
      "verd": 4060,
      "ĠPro": 4061,
      "æ±Ł": 4062,
      "Ġmarried": 4063,
      "Ġgeweldig": 4064,
      "CDS": 4065,
      "alm": 4066,
      "Ġraak": 4067,
      "ana": 4068,
      "Ġsun": 4069,
      "Ġsince": 4070,
      "ided": 4071,
      "Ġsacrif": 4072,
      "Ġbra": 4073,
      "ilijk": 4074,
      "Ġopge": 4075,
      "å¥½åĥı": 4076,
      "éĽĨ": 4077,
      "just": 4078,
      "uin": 4079,
      "oul": 4080,
      "Ġ14": 4081,
      "åĽŃ": 4082,
      "Ġplaying": 4083,
      "èį¯": 4084,
      "Ġdi": 4085,
      "iets": 4086,
      "Ġbirth": 4087,
      "ijnen": 4088,
      "è§Ĵ": 4089,
      "bert": 4090,
      "Erm": 4091,
      "gram": 4092,
      "Ġposit": 4093,
      "Ġfine": 4094,
      "Ġleav": 4095,
      "Ġgebeurt": 4096,
      "Ah": 4097,
      "del": 4098,
      "Ġincl": 4099,
      "Ġkaart": 4100,
      "è´£": 4101,
      "Ġfloor": 4102,
      "Ġå®ĥ": 4103,
      "Ġgreen": 4104,
      "Ġæ²¡æľī": 4105,
      "heden": 4106,
      "Ġoorlog": 4107,
      "cum": 4108,
      "Ġstem": 4109,
      "ĠTe": 4110,
      "lijke": 4111,
      "çº§": 4112,
      "æľºä¼ļ": 4113,
      "æ¸ħæ¥ļ": 4114,
      "Ġcult": 4115,
      "iezen": 4116,
      "Ġbekend": 4117,
      "Ġring": 4118,
      "ĠAt": 4119,
      "è´¹": 4120,
      "è´Ł": 4121,
      "raagd": 4122,
      "èµ¶ç´§": 4123,
      "Ġtou": 4124,
      "Ġpull": 4125,
      "Ġum": 4126,
      "ret": 4127,
      "Ġvak": 4128,
      "Ġhum": 4129,
      "æľĿ": 4130,
      "Ġans": 4131,
      "åĬ©": 4132,
      "ç®Ģ": 4133,
      "Ġmedicine": 4134,
      "mper": 4135,
      "Ġfight": 4136,
      "ä¸įåĪ°": 4137,
      "ĠLeg": 4138,
      "çªģçĦ¶": 4139,
      "Ġmark": 4140,
      "Ġsent": 4141,
      "åĪ°åºķ": 4142,
      "schapp": 4143,
      "é£Ł": 4144,
      "ering": 4145,
      "åİĭ": 4146,
      "Ġzouden": 4147,
      "ç¦ı": 4148,
      "Look": 4149,
      "Ġtill": 4150,
      "Ġmouth": 4151,
      "èĥĮ": 4152,
      "ç¤º": 4153,
      "Ġbrengen": 4154,
      "kele": 4155,
      "æ¹": 4156,
      "è¯»": 4157,
      "æĶ¾å¿ĥ": 4158,
      "çĮ«": 4159,
      "bye": 4160,
      "Ġmoeilijk": 4161,
      "houd": 4162,
      "reg": 4163,
      "Thank": 4164,
      "Ġimport": 4165,
      "came": 4166,
      "ruit": 4167,
      "ä»¥ä¸º": 4168,
      "ç¬¬äºĮ": 4169,
      "ä¸įè¡Į": 4170,
      "irt": 4171,
      "Ġ100": 4172,
      "osten": 4173,
      "Ġbereken": 4174,
      "Ġpas": 4175,
      "Ġcra": 4176,
      "rew": 4177,
      "æĿ¾": 4178,
      "appen": 4179,
      "åİĨ": 4180,
      "Ġbegin": 4181,
      "Ġjong": 4182,
      "Ġander": 4183,
      "ilig": 4184,
      "Ġpersoon": 4185,
      "Ġconsider": 4186,
      "aties": 4187,
      "ä¸Ģæ¬¡": 4188,
      "Ġåĳĥ": 4189,
      "Ġmak": 4190,
      "Ġcou": 4191,
      "Ġopg": 4192,
      "ello": 4193,
      "rienden": 4194,
      "çĽ¸ä¿¡": 4195,
      "Ġvoice": 4196,
      "ĠMad": 4197,
      "Ġglad": 4198,
      "sche": 4199,
      "çļĦéĤ£": 4200,
      "é¦Ļ": 4201,
      "cellen": 4202,
      "Ġlost": 4203,
      "çļĦä¸Ģä¸ª": 4204,
      "bal": 4205,
      "äºĳ": 4206,
      "ĠGeef": 4207,
      "æŀª": 4208,
      "è®©ä½ł": 4209,
      "Ġplek": 4210,
      "Echt": 4211,
      "IS": 4212,
      "ude": 4213,
      "vrouw": 4214,
      "ada": 4215,
      "Ġcannot": 4216,
      "Ġdress": 4217,
      "æĽ¾": 4218,
      "Ġkrijg": 4219,
      "ined": 4220,
      "Ġhut": 4221,
      "çļĦäºĭæĥħ": 4222,
      "Ġkr": 4223,
      "Ġjob": 4224,
      "Ġhappy": 4225,
      "Ġthank": 4226,
      "Ġmeans": 4227,
      "Ġtrans": 4228,
      "éªĮ": 4229,
      "ä¸įè¿ĩ": 4230,
      "åĪĽ": 4231,
      "iÃ«n": 4232,
      "anc": 4233,
      "Ġ25": 4234,
      "Ġblue": 4235,
      "ouse": 4236,
      "Ġbecame": 4237,
      "è¿ĻéĩĮ": 4238,
      "Ġactually": 4239,
      "Ġhang": 4240,
      "ä¸īåįģ": 4241,
      "ĠéĤ£ä½ł": 4242,
      "ublic": 4243,
      "Get": 4244,
      "Ġhat": 4245,
      "uth": 4246,
      "Ġmeter": 4247,
      "éĻª": 4248,
      "ç¾Ĭ": 4249,
      "Ġaren": 4250,
      "ĠAd": 4251,
      "å¾·": 4252,
      "press": 4253,
      "æĹ¥æľ¬": 4254,
      "Ġmaxim": 4255,
      "Ġprecies": 4256,
      "Ġkamer": 4257,
      "å¿µ": 4258,
      "Stop": 4259,
      "ç©¿": 4260,
      "ĠWhen": 4261,
      "Ġmorgen": 4262,
      "Ġcup": 4263,
      "åıĳçĶŁ": 4264,
      "Good": 4265,
      "lish": 4266,
      "Ġmess": 4267,
      "Ġthrow": 4268,
      "Ġalready": 4269,
      "Ġsat": 4270,
      "Ġval": 4271,
      "ieken": 4272,
      "unch": 4273,
      "ĠAng": 4274,
      "ima": 4275,
      "ĠJap": 4276,
      "iful": 4277,
      "wards": 4278,
      "Ġpa": 4279,
      "ĠEl": 4280,
      "å¸Ŀ": 4281,
      "ĠGer": 4282,
      "Ġtest": 4283,
      "Ġluister": 4284,
      "Ġfav": 4285,
      "äºĨä¸Ģä¸ª": 4286,
      "iers": 4287,
      "çĽĳ": 4288,
      "æ¯Ĵ": 4289,
      "rum": 4290,
      "Ġchange": 4291,
      "å±ŀ": 4292,
      "åĽŀåİ»": 4293,
      "Luister": 4294,
      "sten": 4295,
      "Ġteken": 4296,
      "åĦ¿åŃĲ": 4297,
      "ekent": 4298,
      "Ġvrouwen": 4299,
      "Ġverkl": 4300,
      "Ġhoogte": 4301,
      "Ġkru": 4302,
      "Ġones": 4303,
      "aalde": 4304,
      "Ġgevraagd": 4305,
      "Ġaunt": 4306,
      "Ġlearn": 4307,
      "Ġafstand": 4308,
      "å½ĵæĹ¶": 4309,
      "æ¸©": 4310,
      "Ġwit": 4311,
      "ural": 4312,
      "plaat": 4313,
      "Ġmot": 4314,
      "Ġhell": 4315,
      "Ġfield": 4316,
      "Ġcold": 4317,
      "åľ¨ä¸Ģèµ·": 4318,
      "more": 4319,
      "tle": 4320,
      "Ġgame": 4321,
      "è¯´æĪĳ": 4322,
      "çĬ¶": 4323,
      "Ġprot": 4324,
      "Ġquick": 4325,
      "èĥ¡": 4326,
      "arling": 4327,
      "ĠåĴ±ä»¬": 4328,
      "ĠHis": 4329,
      "ience": 4330,
      "rying": 4331,
      "Ġschat": 4332,
      "æĥ³åĪ°": 4333,
      "Ġhimself": 4334,
      "Can": 4335,
      "Ġoutside": 4336,
      "Ġfelt": 4337,
      "ĠRose": 4338,
      "Ġweergegeven": 4339,
      "Re": 4340,
      "wee": 4341,
      "å¡": 4342,
      "Ġwarm": 4343,
      "Ġpen": 4344,
      "ĠWik": 4345,
      "Ġvlak": 4346,
      "Ġfront": 4347,
      "kl": 4348,
      "Ġhuh": 4349,
      "å¹¸": 4350,
      "æŃ£ç¡®": 4351,
      "euw": 4352,
      "ç¯": 4353,
      "ä¹¡": 4354,
      "olf": 4355,
      "Ġsheep": 4356,
      "Ġresult": 4357,
      "zie": 4358,
      "Ġill": 4359,
      "Ġbuy": 4360,
      "ester": 4361,
      "ç»ĥ": 4362,
      "ogel": 4363,
      "Ġbetekent": 4364,
      "Ġtien": 4365,
      "Ġage": 4366,
      "Ġless": 4367,
      "å°Ķ": 4368,
      "Ġsometimes": 4369,
      "zij": 4370,
      "ĠBl": 4371,
      "tern": 4372,
      "æłĩ": 4373,
      "Ġboek": 4374,
      "åģľ": 4375,
      "å±ħ": 4376,
      "èĦļ": 4377,
      "Ġverwacht": 4378,
      "Ġsong": 4379,
      "Ġvond": 4380,
      "lex": 4381,
      "æĭ©": 4382,
      "ijdt": 4383,
      "Ġsold": 4384,
      "Ġbag": 4385,
      "çļĦå¤§": 4386,
      "æ²³": 4387,
      "midd": 4388,
      "ä¸¥": 4389,
      "åı¤": 4390,
      "Ġlengte": 4391,
      "Ex": 4392,
      "Ġkracht": 4393,
      "å¤ļå°ĳ": 4394,
      "ĠStates": 4395,
      "Vol": 4396,
      "èĵ": 4397,
      "Ġpost": 4398,
      "Ġinc": 4399,
      "Ġexper": 4400,
      "æľĢè¿ĳ": 4401,
      "Ġmilj": 4402,
      "Ġcolor": 4403,
      "åľ¨è¿ĻåĦ¿": 4404,
      "Ġeight": 4405,
      "Ġgeef": 4406,
      "Ġuitleg": 4407,
      "eerde": 4408,
      "åıªæĺ¯": 4409,
      "Zijn": 4410,
      "Ġ:": 4411,
      "idge": 4412,
      "ardon": 4413,
      "Ġgrou": 4414,
      "Ġlate": 4415,
      "Ġfree": 4416,
      "è¯Ń": 4417,
      "Ġ13": 4418,
      "èĤ¡": 4419,
      "ship": 4420,
      "ĠAfric": 4421,
      "hal": 4422,
      "punt": 4423,
      "Ġsqu": 4424,
      "Ġstate": 4425,
      "ĠAust": 4426,
      "éĹ»": 4427,
      "slag": 4428,
      "åĵ¦": 4429,
      "Ġbegan": 4430,
      "åĳĬè¯īä½ł": 4431,
      "Ġoper": 4432,
      "Ġ194": 4433,
      "æ´¾": 4434,
      "Denk": 4435,
      "Mag": 4436,
      "Ġsett": 4437,
      "Ġlekker": 4438,
      "Ġeigenlijk": 4439,
      "Mummy": 4440,
      "Te": 4441,
      "Ġinside": 4442,
      "Ġya": 4443,
      "Ġorder": 4444,
      "amba": 4445,
      "Kan": 4446,
      "Ġpower": 4447,
      "Ġå¼": 4448,
      "éĢŁ": 4449,
      "å¢ĥ": 4450,
      "Ġband": 4451,
      "ĠDo": 4452,
      "é¼ł": 4453,
      "As": 4454,
      "gg": 4455,
      "ĠAunt": 4456,
      "éĿł": 4457,
      "Ġontmo": 4458,
      "Did": 4459,
      "Ġstuff": 4460,
      "akker": 4461,
      "ĠSte": 4462,
      "Ġmill": 4463,
      "Ġgun": 4464,
      "Ġrele": 4465,
      "ragen": 4466,
      "rijs": 4467,
      "Ġvolgens": 4468,
      "rouwen": 4469,
      "Ġouders": 4470,
      "ĠèĢĮä¸Ķ": 4471,
      "Ġhond": 4472,
      "çļ®": 4473,
      "åĢ¼": 4474,
      "hand": 4475,
      "Ġsil": 4476,
      "æ²¹": 4477,
      "åĿı": 4478,
      "Ġè°¢è°¢": 4479,
      "aks": 4480,
      "å¹¿": 4481,
      "Ġgenoemd": 4482,
      "è¡Ģ": 4483,
      "Ġechte": 4484,
      "werp": 4485,
      "Ġlanden": 4486,
      "æ¼Ĥ": 4487,
      "Ġdou": 4488,
      "Ġgas": 4489,
      "stem": 4490,
      "Ġenerg": 4491,
      "ully": 4492,
      "lagen": 4493,
      "ewijs": 4494,
      "Ġanswer": 4495,
      "EL": 4496,
      "Ġgiven": 4497,
      "Ġvrienden": 4498,
      "Ġzet": 4499,
      "æĺ¨": 4500,
      "ica": 4501,
      "vers": 4502,
      "åĪĿ": 4503,
      "æī¿": 4504,
      "ĠEurope": 4505,
      "Ġeng": 4506,
      "18": 4507,
      "Kl": 4508,
      "èĹ": 4509,
      "Ġè°ģ": 4510,
      "Ġgere": 4511,
      "è®®": 4512,
      "itting": 4513,
      "Tot": 4514,
      "Toen": 4515,
      "ham": 4516,
      "Ġbird": 4517,
      "å©Ĩ": 4518,
      "wijl": 4519,
      "huh": 4520,
      "æĵ": 4521,
      "Ġding": 4522,
      "thank": 4523,
      "anger": 4524,
      "ĠFor": 4525,
      "åĽ½å®¶": 4526,
      "rench": 4527,
      "èŃ¦": 4528,
      "ico": 4529,
      "Ġconst": 4530,
      "åĽŀå®¶": 4531,
      "Ġgevonden": 4532,
      "é²": 4533,
      "anen": 4534,
      "arth": 4535,
      "read": 4536,
      "æĪı": 4537,
      "åħ·": 4538,
      "ppen": 4539,
      "æµİ": 4540,
      "for": 4541,
      "Ġeeuw": 4542,
      "æĪĳæĥ³": 4543,
      "äºĨè§£": 4544,
      "raid": 4545,
      "æĹ¢": 4546,
      "ĠPr": 4547,
      "éĨĴ": 4548,
      "To": 4549,
      "Ġloc": 4550,
      "Ġkap": 4551,
      "Ġenkele": 4552,
      "åĩºäºĨ": 4553,
      "è¶ħ": 4554,
      "Ġplayed": 4555,
      "åĪļæīį": 4556,
      "aande": 4557,
      "Ġdarling": 4558,
      "Ġhowever": 4559,
      "é©¬ä¸Ĭ": 4560,
      "used": 4561,
      "ĠItal": 4562,
      "èıľ": 4563,
      "bur": 4564,
      "isk": 4565,
      "åı¶": 4566,
      "ĠMet": 4567,
      "ante": 4568,
      "åĩ»": 4569,
      "reng": 4570,
      "Ġstarted": 4571,
      "Ã¡": 4572,
      "Ġbesl": 4573,
      "ikk": 4574,
      "Ġä½łæĺ¯": 4575,
      "ĠPl": 4576,
      "ĠMrs": 4577,
      "dred": 4578,
      "ĠJohn": 4579,
      "Ġcontin": 4580,
      "Ġbuild": 4581,
      "50": 4582,
      "è¿İ": 4583,
      "å¿ħé¡»": 4584,
      "ained": 4585,
      "Ġdenkt": 4586,
      "Ġguess": 4587,
      "inken": 4588,
      "Ġeither": 4589,
      "çļĦäºĭ": 4590,
      "par": 4591,
      "Ġtaking": 4592,
      "ĠWel": 4593,
      "schijn": 4594,
      "bank": 4595,
      "ging": 4596,
      "Ġhon": 4597,
      "Ġvoet": 4598,
      "Ġleeft": 4599,
      "èĭ±": 4600,
      "Ġdezelfde": 4601,
      "æĿ¨": 4602,
      "Ġwords": 4603,
      "ĠåĪ°": 4604,
      "Bij": 4605,
      "Ġhoort": 4606,
      "dag": 4607,
      "nel": 4608,
      "Ġgets": 4609,
      "Ġtwenty": 4610,
      "Ġhundred": 4611,
      "è±Ĩ": 4612,
      "10": 4613,
      "Go": 4614,
      "haps": 4615,
      "çľĭè§ģ": 4616,
      "Ã¼": 4617,
      "ĠDen": 4618,
      "ĠPh": 4619,
      "Ġgeval": 4620,
      "Ġlangs": 4621,
      "å·ŀ": 4622,
      "å¯Ł": 4623,
      "Ġbrief": 4624,
      "Ġclose": 4625,
      "å§ĳå¨ĺ": 4626,
      "vely": 4627,
      "ommy": 4628,
      "å°±ä¼ļ": 4629,
      "Ġconf": 4630,
      "æĸ¹éĿ¢": 4631,
      "æīĭæľº": 4632,
      "å®¹æĺĵ": 4633,
      "Ġgele": 4634,
      "then": 4635,
      "éĩĮçļĦ": 4636,
      "æĮī": 4637,
      "åĻ¨": 4638,
      "Ġvideo": 4639,
      "åŃĺ": 4640,
      "ING": 4641,
      "Ġturned": 4642,
      "ç£": 4643,
      "Ġtakes": 4644,
      "æĥĬ": 4645,
      "plant": 4646,
      "Over": 4647,
      "hell": 4648,
      "å¹´çļĦ": 4649,
      "Ã«n": 4650,
      "ĠYork": 4651,
      "Ġvergelijking": 4652,
      "ĠhÃ¨": 4653,
      "Ġdef": 4654,
      "ç»ĵæŀľ": 4655,
      "Here": 4656,
      "Ġlisten": 4657,
      "è¯´è¯Ŀ": 4658,
      "æŃ¦": 4659,
      "éĻĪ": 4660,
      "é«ĺåħ´": 4661,
      "éĢīæĭ©": 4662,
      "Ġtrying": 4663,
      "Ġsweet": 4664,
      "cri": 4665,
      "sy": 4666,
      "aste": 4667,
      "äºĨåķĬ": 4668,
      "ĠMay": 4669,
      "é¡º": 4670,
      "åĩłä¸ª": 4671,
      "Ġhurt": 4672,
      "ention": 4673,
      "åĪĻ": 4674,
      "Ġyourself": 4675,
      "éĻħ": 4676,
      "åıĳå±ķ": 4677,
      "Ġroll": 4678,
      "Neem": 4679,
      "ĠFrank": 4680,
      "Ġpopul": 4681,
      "Ġæĥ³": 4682,
      "è¿½": 4683,
      "æĺ¥": 4684,
      "åĲĽ": 4685,
      "å°±ä¸į": 4686,
      "ments": 4687,
      "Ġlaug": 4688,
      "Ġgehad": 4689,
      "Ġwachten": 4690,
      "Ġongeveer": 4691,
      "Ġmakes": 4692,
      "Ġges": 4693,
      "Ġzat": 4694,
      "ahu": 4695,
      "è¿Ļæł·çļĦ": 4696,
      "ziek": 4697,
      "Ġvij": 4698,
      "æŀĲ": 4699,
      "ç±³": 4700,
      "Ġoef": 4701,
      "beren": 4702,
      "æĺİå¤©": 4703,
      "dra": 4704,
      "Ġbaan": 4705,
      "rab": 4706,
      "ĠAm": 4707,
      "èĻİ": 4708,
      "Ġgirls": 4709,
      "zaam": 4710,
      "Ġmacht": 4711,
      "Ġvoort": 4712,
      "åĩºçİ°": 4713,
      "Ġklas": 4714,
      "èĢĮä¸Ķ": 4715,
      "Ġtrouble": 4716,
      "Zie": 4717,
      "like": 4718,
      "èļ": 4719,
      "iep": 4720,
      "ĠCl": 4721,
      "Ġsomeone": 4722,
      "çº¦": 4723,
      "hem": 4724,
      "eeuw": 4725,
      "ĠWil": 4726,
      "è·Łä»ĸ": 4727,
      "HE": 4728,
      "Ġvle": 4729,
      "Ġzee": 4730,
      "ä¹±": 4731,
      "rap": 4732,
      "èĩ´": 4733,
      "ĠChi": 4734,
      "éĢļè¿ĩ": 4735,
      "éº»": 4736,
      "Ġbeautiful": 4737,
      "AP": 4738,
      "God": 4739,
      "Ã³": 4740,
      "estourn": 4741,
      "æºĲ": 4742,
      "have": 4743,
      "ĠPer": 4744,
      "reekt": 4745,
      "Ġsever": 4746,
      "Ġ193": 4747,
      "éĺ²": 4748,
      "çĭ¼": 4749,
      "Ġclean": 4750,
      "Ġable": 4751,
      "Was": 4752,
      "good": 4753,
      "å§¨": 4754,
      "avid": 4755,
      "çĭĹ": 4756,
      "Ġmusic": 4757,
      "estournier": 4758,
      "'.": 4759,
      "Ġbecome": 4760,
      "gend": 4761,
      "æĪĲäºĨ": 4762,
      "é¡¾": 4763,
      "werk": 4764,
      "Ġwet": 4765,
      "ieved": 4766,
      "å¿ĺ": 4767,
      "åĨ·": 4768,
      "ists": 4769,
      "Ġontw": 4770,
      "éĽ¨": 4771,
      "ä¾Ŀ": 4772,
      "ming": 4773,
      "Ġtweede": 4774,
      "Ġbeer": 4775,
      "Ġalone": 4776,
      "pped": 4777,
      "ĠThen": 4778,
      "Ġrelig": 4779,
      "Ġacross": 4780,
      "ism": 4781,
      "Ġriver": 4782,
      "Ġtemper": 4783,
      "Ġamong": 4784,
      "Ġgrootste": 4785,
      "Ġplane": 4786,
      "æĲŀ": 4787,
      "Ġdiv": 4788,
      "inig": 4789,
      "Ġlay": 4790,
      "Ġzom": 4791,
      "Ġcap": 4792,
      "Ġrij": 4793,
      "æĻ¯": 4794,
      "ari": 4795,
      "Ġå·": 4796,
      "ä¸ŃçļĦ": 4797,
      "pril": 4798,
      "éħį": 4799,
      "Ġè¡Į": 4800,
      "atter": 4801,
      "Ġhope": 4802,
      "ä»ħ": 4803,
      "åŃĲçļĦ": 4804,
      "ç´¯": 4805,
      "Ġtrue": 4806,
      "oer": 4807,
      "wa": 4808,
      "Ġaarde": 4809,
      "recht": 4810,
      "æĺ¯ä¸Ģä¸ª": 4811,
      "rop": 4812,
      "è´µ": 4813,
      "ç©¶": 4814,
      "çĥ¦": 4815,
      "éªĹ": 4816,
      "aptain": 4817,
      "åıªæľī": 4818,
      "ized": 4819,
      "Fr": 4820,
      "Nog": 4821,
      "Ġpound": 4822,
      "ĠSam": 4823,
      "Ġleast": 4824,
      "ĠKing": 4825,
      "Ġsnake": 4826,
      "æ´Ĺ": 4827,
      "æ¯ıå¤©": 4828,
      "At": 4829,
      "Ġè®©": 4830,
      "ĠSm": 4831,
      "å§Ķ": 4832,
      "Ġ2020": 4833,
      "Natuurlijk": 4834,
      "zien": 4835,
      "Ġbor": 4836,
      "ured": 4837,
      "Ġä½łçľĭ": 4838,
      "æĬ±": 4839,
      "Ġbepaalde": 4840,
      "TE": 4841,
      "huis": 4842,
      "Ġra": 4843,
      "ĠWaar": 4844,
      "Your": 4845,
      "Ġhanden": 4846,
      "fort": 4847,
      "Ġpoor": 4848,
      "Ġjezelf": 4849,
      "ution": 4850,
      "å¼ķ": 4851,
      "ĠKen": 4852,
      "Ġafraid": 4853,
      "Ġsucc": 4854,
      "è®¤ä¸º": 4855,
      "ene": 4856,
      "Ġtried": 4857,
      "atten": 4858,
      "Ġbody": 4859,
      "Ġfro": 4860,
      "vert": 4861,
      "etting": 4862,
      "æĦ¿æĦı": 4863,
      "sc": 4864,
      "ino": 4865,
      "Ġaw": 4866,
      "Ġvia": 4867,
      "æĺ¯åĲ§": 4868,
      "Ġdochter": 4869,
      "åĬ¿": 4870,
      "ĠNan": 4871,
      "Ġabs": 4872,
      "èĥľ": 4873,
      "é¸¡": 4874,
      "Ġhy": 4875,
      "Ġriv": 4876,
      "ĠCar": 4877,
      "éĤ£äºĽ": 4878,
      "åĨ²": 4879,
      "Ġbrother": 4880,
      "è¿Ľè¡Į": 4881,
      "Ġmaybe": 4882,
      "Ġdirect": 4883,
      "æ¼Ĥäº®": 4884,
      "ĠSc": 4885,
      "ĠTo": 4886,
      "Ġvooral": 4887,
      "ä¸ĬäºĨ": 4888,
      "çĶµå½±": 4889,
      "âĮ": 4890,
      "ä¸¾": 4891,
      "Ġvern": 4892,
      "Ġtea": 4893,
      "ĠGerman": 4894,
      "Mar": 4895,
      "Ġleren": 4896,
      "ä½łä¸į": 4897,
      "Ġverst": 4898,
      "éĴŁ": 4899,
      "komt": 4900,
      "èĬĤçĽ®": 4901,
      "ĠEurop": 4902,
      "è¾Ī": 4903,
      "Ġbeginnen": 4904,
      "Ġtomorrow": 4905,
      "For": 4906,
      "see": 4907,
      "icro": 4908,
      "ĠDie": 4909,
      "ä¼´": 4910,
      "Ġboys": 4911,
      "Ġpaper": 4912,
      "Ġfriends": 4913,
      "Ġvergeten": 4914,
      "æĪĳæĪĳ": 4915,
      "Ġä½łæĢİä¹Ī": 4916,
      "å¼Ħ": 4917,
      "åº§": 4918,
      "ç«¥": 4919,
      "èĤ²": 4920,
      "Ġsituatie": 4921,
      "Pro": 4922,
      "ĠBen": 4923,
      "éĩĩ": 4924,
      "eert": 4925,
      "hoog": 4926,
      "pos": 4927,
      "æĪĳè¦ģ": 4928,
      "Ġwaarin": 4929,
      "Pap": 4930,
      "Sp": 4931,
      "ately": 4932,
      "unk": 4933,
      "åĪĴ": 4934,
      "ĠOr": 4935,
      "æī¾åĪ°": 4936,
      "èĲ¥": 4937,
      "Ġjuist": 4938,
      "Ġsister": 4939,
      "edia": 4940,
      "Ġpakken": 4941,
      "ĠMc": 4942,
      "ç»Ļä»ĸ": 4943,
      "Ġwerkt": 4944,
      "Ġbehind": 4945,
      "when": 4946,
      "Ġminutes": 4947,
      "å¢ŀ": 4948,
      "Ġeinde": 4949,
      "Ġfell": 4950,
      "èº«ä½ĵ": 4951,
      "ĠIndian": 4952,
      "Af": 4953,
      "aien": 4954,
      "æ¿": 4955,
      "Ġsin": 4956,
      "Ġbeweg": 4957,
      "Ġbehulp": 4958,
      "ĠEnglish": 4959,
      "å½±åĵį": 4960,
      "Ġdelen": 4961,
      "Ġwoon": 4962,
      "ä½łçľĭ": 4963,
      "Ġsta": 4964,
      "Ġalsof": 4965,
      "Ġpartic": 4966,
      "æ¯ĶèµĽ": 4967,
      "Ġimportant": 4968,
      "ding": 4969,
      "ery": 4970,
      "Ġbouw": 4971,
      "Ġstond": 4972,
      "Ġago": 4973,
      "çļĦå¥³": 4974,
      "ä¸Ģå¤©": 4975,
      "ĠJapan": 4976,
      "houden": 4977,
      "ilt": 4978,
      "genomen": 4979,
      "rokken": 4980,
      "åĽ´": 4981,
      "ĠKe": 4982,
      "key": 4983,
      "åģ·": 4984,
      "ĠokÃ©": 4985,
      "ians": 4986,
      "want": 4987,
      "Ġcond": 4988,
      "reet": 4989,
      "vern": 4990,
      "ĠæĪĳä¸į": 4991,
      "ards": 4992,
      "Ġtekst": 4993,
      "æĺ¾": 4994,
      "åħĭ": 4995,
      "ç½ª": 4996,
      "ox": 4997,
      "Ġwanneer": 4998,
      "ĠFe": 4999,
      "Ġgeloven": 5000,
      "Ġfeest": 5001,
      "Ġpicture": 5002,
      "!'": 5003,
      "Pr": 5004,
      "erst": 5005,
      "Ġmaat": 5006,
      "ĠDaddy": 5007,
      "derd": 5008,
      "reeg": 5009,
      "æİ§": 5010,
      "Vert": 5011,
      "Ġthahu": 5012,
      "è®°å¾Ĺ": 5013,
      "born": 5014,
      "cil": 5015,
      "ieu": 5016,
      "ç¦»å¼Ģ": 5017,
      "Omdat": 5018,
      "Ġduid": 5019,
      "ä¸½": 5020,
      "ides": 5021,
      "æĿ¥è¯´": 5022,
      "è´Ŀ": 5023,
      "ç»ıæµİ": 5024,
      "çĹĽ": 5025,
      "åħĦå¼Ł": 5026,
      "æ¨¡": 5027,
      "Ġcel": 5028,
      "ä¼¼": 5029,
      "ugust": 5030,
      "å§ĵ": 5031,
      "bt": 5032,
      "orden": 5033,
      "Ġstar": 5034,
      "ĠBar": 5035,
      "Ġtonight": 5036,
      "ds": 5037,
      "Ġdieren": 5038,
      "regen": 5039,
      "Ġaange": 5040,
      "Ġmeestal": 5041,
      "Ġhorse": 5042,
      "Ġmach": 5043,
      "Ġlady": 5044,
      "Ġcover": 5045,
      "æĪĳè¿ĺ": 5046,
      "Ġeruit": 5047,
      "Ġfunny": 5048,
      "kig": 5049,
      "ĠCHI": 5050,
      "Ġvanavond": 5051,
      "è¿Ļæ¬¡": 5052,
      "Ġrock": 5053,
      "Ġbusiness": 5054,
      "æ¿Ģ": 5055,
      "Ġvallen": 5056,
      "Ġstep": 5057,
      "ĠBel": 5058,
      "æĸ¯": 5059,
      "Ġgekomen": 5060,
      "è®¤è¯Ĩ": 5061,
      "åŀĭ": 5062,
      "cuse": 5063,
      "eur": 5064,
      "Ġmidden": 5065,
      "Ġsend": 5066,
      "Ġdeal": 5067,
      "Ġfish": 5068,
      "æľīäºº": 5069,
      "Ġmogen": 5070,
      "Ġgevangen": 5071,
      "éĵģ": 5072,
      "foon": 5073,
      "chn": 5074,
      "ente": 5075,
      "ĠTro": 5076,
      "çĿĽ": 5077,
      "åĿļ": 5078,
      "èĮĥ": 5079,
      "uizen": 5080,
      "Ġrol": 5081,
      "akt": 5082,
      "thers": 5083,
      "Ġproberen": 5084,
      "æ¯Ķå¦Ĥ": 5085,
      "ira": 5086,
      "Ġcow": 5087,
      "oeien": 5088,
      "Ġafg": 5089,
      "Ġusually": 5090,
      "çĭ¬": 5091,
      "Ġextra": 5092,
      "Ġzes": 5093,
      "ott": 5094,
      "åĳ¼": 5095,
      "Ġzodat": 5096,
      "Ġpray": 5097,
      "ä¹ĭéĹ´": 5098,
      "åĨįè§ģ": 5099,
      "Ġä¸įè¿ĩ": 5100,
      "iously": 5101,
      "Ġvalt": 5102,
      "å®¤": 5103,
      "çİī": 5104,
      "éĥ½æ²¡æľī": 5105,
      "åºĹ": 5106,
      "ĠéĤ£ä¸ª": 5107,
      "ĠJezus": 5108,
      "æĺ¨å¤©": 5109,
      "Gr": 5110,
      "Ġoog": 5111,
      "ete": 5112,
      "onde": 5113,
      "Ġalright": 5114,
      "éĢīé¡¹": 5115,
      "æ¥¼": 5116,
      "Ġvoedsel": 5117,
      "ues": 5118,
      "Ġsupposed": 5119,
      "Ġdruk": 5120,
      "Ġhar": 5121,
      "åı¦": 5122,
      "urch": 5123,
      "Ġdoden": 5124,
      "æĬĹ": 5125,
      "Ġshort": 5126,
      "Ġdaarna": 5127,
      "Ġmiljoen": 5128,
      "Cl": 5129,
      "Ġmain": 5130,
      "eding": 5131,
      "Ġthr": 5132,
      "Ġstick": 5133,
      "Ġmovie": 5134,
      "ĠFel": 5135,
      "Ġmeat": 5136,
      "Ġchang": 5137,
      "å®¶éĩĮ": 5138,
      "obby": 5139,
      "velop": 5140,
      "Ġanimals": 5141,
      "Kun": 5142,
      "ford": 5143,
      "ative": 5144,
      "Ġdeur": 5145,
      "alley": 5146,
      "ä¸ĭåİ»": 5147,
      "Ġcomput": 5148,
      "Ġmeeste": 5149,
      "èĿ": 5150,
      "ĠMOT": 5151,
      "åıĮ": 5152,
      "ĠDestournier": 5153,
      "opp": 5154,
      "æİĮ": 5155,
      "Ġcommun": 5156,
      "fully": 5157,
      "oi": 5158,
      "Ġäºº": 5159,
      "head": 5160,
      "Ġwish": 5161,
      "Ġzoeken": 5162,
      "gem": 5163,
      "Ġslapen": 5164,
      "Ġneemt": 5165,
      "Ġeffect": 5166,
      "Ġfuck": 5167,
      "Ġrijk": 5168,
      "ĠMan": 5169,
      "Ġä½łå°±": 5170,
      "ĠRome": 5171,
      "æĮĳ": 5172,
      "Ġlarge": 5173,
      "Ġkreeg": 5174,
      "ä¹İ": 5175,
      "ĠMain": 5176,
      "Ġwild": 5177,
      "Ġgevaar": 5178,
      "åĨ³å®ļ": 5179,
      "ris": 5180,
      "uut": 5181,
      "omp": 5182,
      "strijd": 5183,
      "Ġzoveel": 5184,
      "çľĭçĿĢ": 5185,
      "Ġroad": 5186,
      "Ġclub": 5187,
      "Ġantwoorden": 5188,
      "Ġice": 5189,
      "Ġequ": 5190,
      "Ġkil": 5191,
      "reem": 5192,
      "Ġarea": 5193,
      "Ġbelong": 5194,
      "Ġclass": 5195,
      "ä»»ä½ķ": 5196,
      "èİ·": 5197,
      "Ġceremony": 5198,
      "iam": 5199,
      "ode": 5200,
      "ä¸įå¯¹": 5201,
      "ĠæĪĳä¹Ł": 5202,
      "åį³": 5203,
      "å¤ļçļĦ": 5204,
      "ĠCharl": 5205,
      "Ġclear": 5206,
      "¿½": 5207,
      "ï¿½": 5208,
      "Ġhulp": 5209,
      "å®Ī": 5210,
      "Ġveroor": 5211,
      "Ġslag": 5212,
      "hey": 5213,
      "Ġsug": 5214,
      "äºĴ": 5215,
      "Ġearly": 5216,
      "ision": 5217,
      "èĻĳ": 5218,
      "éľ²": 5219,
      "ç¤¾ä¼ļ": 5220,
      "Ġwood": 5221,
      "çļĦè¿Ļä¸ª": 5222,
      "alth": 5223,
      "ä½İ": 5224,
      "ä¸įå¾Ĺ": 5225,
      "Ġelder": 5226,
      "é¡¶": 5227,
      "ç¡®å®ŀ": 5228,
      "Ġfavor": 5229,
      "reden": 5230,
      "ered": 5231,
      "éĹ¹": 5232,
      "åŃ¦çĶŁ": 5233,
      "çľ¼çĿĽ": 5234,
      "aven": 5235,
      "vorm": 5236,
      "ute": 5237,
      "ĠBrit": 5238,
      "åı¥è¯Ŀ": 5239,
      "ases": 5240,
      "Ġongel": 5241,
      "Ġteach": 5242,
      "æĢİä¹ĪåĬŀ": 5243,
      "Ġarr": 5244,
      "neta": 5245,
      "17": 5246,
      "Ġmama": 5247,
      "Ġfruit": 5248,
      "Ġins": 5249,
      "æĺ¯ä½ł": 5250,
      "çĶ°": 5251,
      "ä¼ĺ": 5252,
      "Ġwaarbij": 5253,
      "olle": 5254,
      "ç½®": 5255,
      "æł¹æľ¬": 5256,
      "Ġinde": 5257,
      "Ġricht": 5258,
      "ĠæĪĳæĥ³": 5259,
      "ĠWar": 5260,
      "Ġ24": 5261,
      "è¡£æľį": 5262,
      "RO": 5263,
      "ket": 5264,
      "Ġmam": 5265,
      "Ġhetzelfde": 5266,
      "ĠFrench": 5267,
      "å®ĥä»¬": 5268,
      "çĨŁ": 5269,
      "Ġdollar": 5270,
      "schijnlijk": 5271,
      "Ġbi": 5272,
      "ĠHit": 5273,
      "æĭĽ": 5274,
      "berg": 5275,
      "ection": 5276,
      "ording": 5277,
      "ç³ĸ": 5278,
      "Ġstrong": 5279,
      "Ġredenen": 5280,
      "ĠçŃī": 5281,
      "reed": 5282,
      "æĺ¯åľ¨": 5283,
      "weer": 5284,
      "Ġtrees": 5285,
      "æĪ¿åŃĲ": 5286,
      "èĽĭ": 5287,
      "One": 5288,
      "ooh": 5289,
      "Ġweinig": 5290,
      "Ġprogram": 5291,
      "Ġsnow": 5292,
      "èĪ¬": 5293,
      "inning": 5294,
      "æĬĢæľ¯": 5295,
      "upp": 5296,
      "was": 5297,
      "zet": 5298,
      "Ġothers": 5299,
      "ĠNa": 5300,
      "ç§°": 5301,
      "Ġproblemen": 5302,
      "èĹı": 5303,
      "line": 5304,
      "Ġdaught": 5305,
      "Ġimm": 5306,
      "Ġlopen": 5307,
      "Ġkiss": 5308,
      "rekken": 5309,
      "Ġenter": 5310,
      "å½©": 5311,
      "æ¾": 5312,
      "Ġol": 5313,
      "Ġlab": 5314,
      "Ġfoto": 5315,
      "ume": 5316,
      "äºĮéĽ¶": 5317,
      "ĠDuits": 5318,
      "Ġner": 5319,
      "Ġåģ": 5320,
      "æľ¨": 5321,
      "Ġthinking": 5322,
      "Ġmilk": 5323,
      "ĠQu": 5324,
      "Ġseveral": 5325,
      "uary": 5326,
      "Ġvanaf": 5327,
      "ĠDoor": 5328,
      "åĽ¾": 5329,
      "Ġpriv": 5330,
      "ç»§ç»Ń": 5331,
      "ĠAustral": 5332,
      "Ġmond": 5333,
      "eland": 5334,
      "Ġtoys": 5335,
      "è¯º": 5336,
      "icult": 5337,
      "ĠDon": 5338,
      "Ġrece": 5339,
      "Ġrode": 5340,
      "Ġtelevis": 5341,
      "Gaat": 5342,
      "ring": 5343,
      "rik": 5344,
      "igheid": 5345,
      "è¯¾": 5346,
      "Ġmeteen": 5347,
      "æ½": 5348,
      "Ġwall": 5349,
      "igin": 5350,
      "æĿĲ": 5351,
      "Ġdoctor": 5352,
      "Ġervan": 5353,
      "ptember": 5354,
      "ousin": 5355,
      "Ġserv": 5356,
      "Ġnieuws": 5357,
      "zak": 5358,
      "Ġhol": 5359,
      "Ġbeide": 5360,
      "ĠMart": 5361,
      "åĨľ": 5362,
      "Ġchoc": 5363,
      "Ġbeneden": 5364,
      "Ġgedacht": 5365,
      "ä¸Ģå®ļè¦ģ": 5366,
      "Ġåİ»": 5367,
      "Ġacht": 5368,
      "Ġzult": 5369,
      "reen": 5370,
      "åı²": 5371,
      "æ¯ķ": 5372,
      "ĠéĤ£æĪĳ": 5373,
      "olly": 5374,
      "æŃ»äºĨ": 5375,
      "Ġveilig": 5376,
      "orge": 5377,
      "ä¸Ģç§į": 5378,
      "ĠEx": 5379,
      "Ġalsjeblieft": 5380,
      "Ġverdw": 5381,
      "Ġsnelheid": 5382,
      "é¸Ł": 5383,
      "Ã¯n": 5384,
      "Ġbirthday": 5385,
      "water": 5386,
      "lease": 5387,
      "å¼¹": 5388,
      "ä¿®": 5389,
      "ä½ľä¸º": 5390,
      "Ġlaw": 5391,
      "ublieft": 5392,
      "ĠPaulina": 5393,
      "makes": 5394,
      "Ġdepart": 5395,
      "vember": 5396,
      "å¼Ģå¿ĥ": 5397,
      "Ġbelieved": 5398,
      "Ġworking": 5399,
      "ç´ł": 5400,
      "Ġtype": 5401,
      "Zij": 5402,
      "Ġbru": 5403,
      "Ġlift": 5404,
      "ĠMon": 5405,
      "Ġleu": 5406,
      "ĠRep": 5407,
      "Ġ195": 5408,
      "ç»ĵå©ļ": 5409,
      "Ġliefde": 5410,
      "ED": 5411,
      "æĿ¥æĿ¥": 5412,
      "Ġneer": 5413,
      "å¯¹å¯¹": 5414,
      "éĽª": 5415,
      "æĽ¿": 5416,
      "åĲĥé¥Ń": 5417,
      "ĠAmerik": 5418,
      "Ġorganis": 5419,
      "gas": 5420,
      "¤Ĳ": 5421,
      "Ġegg": 5422,
      "kende": 5423,
      "Ġrepl": 5424,
      "Ġmoved": 5425,
      "Ġcheck": 5426,
      "Ġè¿ĺæĺ¯": 5427,
      "orld": 5428,
      "çļĦåľ°æĸ¹": 5429,
      "åĪĹ": 5430,
      "ĠWill": 5431,
      "éĥ½ä¼ļ": 5432,
      "Ġgehoord": 5433,
      "nee": 5434,
      "é¤Ĳ": 5435,
      "Ġpraat": 5436,
      "oef": 5437,
      "ĠMa": 5438,
      "Ġproper": 5439,
      "çºª": 5440,
      "Ġtouch": 5441,
      "ES": 5442,
      "raÃ¯": 5443,
      "iment": 5444,
      "Ġfort": 5445,
      "çŁŃ": 5446,
      "èĥĸ": 5447,
      "Ġtrad": 5448,
      "Ġpapa": 5449,
      "sje": 5450,
      "ä¼ĳ": 5451,
      "éķľ": 5452,
      "å½ĵä¸Ń": 5453,
      "éĽĢ": 5454,
      "uzz": 5455,
      "Ġziekte": 5456,
      "Ġmooie": 5457,
      "Ġduidelijk": 5458,
      "Na": 5459,
      "va": 5460,
      "stublieft": 5461,
      "ä¸įåĲĮ": 5462,
      "uli": 5463,
      "indelijk": 5464,
      "åŃ¦æł¡": 5465,
      "èĤī": 5466,
      "Ġgezicht": 5467,
      "Ġmer": 5468,
      "Ġnoem": 5469,
      "æŃ¢": 5470,
      "ousand": 5471,
      "èº«ä¸Ĭ": 5472,
      "kk": 5473,
      "ices": 5474,
      "ä¹Łæ²¡": 5475,
      "ĠOne": 5476,
      "Ġwaarden": 5477,
      "æĻ¨": 5478,
      "Ġ_": 5479,
      "Ġmount": 5480,
      "urk": 5481,
      "å¾ĭ": 5482,
      "Ġblad": 5483,
      "Ġprofess": 5484,
      "Ġzwaar": 5485,
      "Ġbom": 5486,
      "Ġbank": 5487,
      "Ġline": 5488,
      "æľīä¸ª": 5489,
      "ĠSer": 5490,
      "åį«": 5491,
      "Ġsoft": 5492,
      "eens": 5493,
      "kn": 5494,
      "arken": 5495,
      "æĪ·": 5496,
      "Ġwaardoor": 5497,
      "Ġorde": 5498,
      "Ġgrand": 5499,
      "does": 5500,
      "çĽ´æİ¥": 5501,
      "Nie": 5502,
      "Ġzetten": 5503,
      "Ġfair": 5504,
      "Ġlead": 5505,
      "ĠKl": 5506,
      "éĢĢ": 5507,
      "æŀ¶": 5508,
      "elsel": 5509,
      "æģĭ": 5510,
      "Ġå¤§å®¶": 5511,
      "Ġvierkant": 5512,
      "Ġdecim": 5513,
      "Heel": 5514,
      "Help": 5515,
      "Ġä¸Ģä¸ª": 5516,
      "Ġfa": 5517,
      "Ġcool": 5518,
      "ĠWas": 5519,
      "indt": 5520,
      "Ġcircum": 5521,
      "lor": 5522,
      "äº«": 5523,
      "ĠPan": 5524,
      "ĠJa": 5525,
      "è¿ĺä¸į": 5526,
      "æİ¢": 5527,
      "Ġspecial": 5528,
      "ĠUnivers": 5529,
      "Ġå¿«": 5530,
      "Meneer": 5531,
      "Ġhit": 5532,
      "Ġgep": 5533,
      "ersch": 5534,
      "ĠJu": 5535,
      "è¿Ļä¹Īå¤ļ": 5536,
      "èīº": 5537,
      "Ġgrafieken": 5538,
      "Ġquestion": 5539,
      "èĵĿ": 5540,
      "ges": 5541,
      "||": 5542,
      "Ġcompany": 5543,
      "Ar": 5544,
      "bit": 5545,
      "oorten": 5546,
      "Ġwear": 5547,
      "ĠNick": 5548,
      "åºľ": 5549,
      "Ġconc": 5550,
      "çłĶ": 5551,
      "çĬ¯": 5552,
      "ç»Īäºİ": 5553,
      "Ġho": 5554,
      "Ġspreken": 5555,
      "ĠLet": 5556,
      "que": 5557,
      "æĪĲä¸º": 5558,
      "Ġå¾Ī": 5559,
      "Her": 5560,
      "æĪĳè¯´": 5561,
      "å®ĭ": 5562,
      "umm": 5563,
      "ĠNot": 5564,
      "Ġbegint": 5565,
      "Ġsystem": 5566,
      "}$$": 5567,
      "Ġ#": 5568,
      "å¥Ĺ": 5569,
      "éĢĥ": 5570,
      "Ġfootball": 5571,
      "rict": 5572,
      "Ġluck": 5573,
      "deren": 5574,
      "Ġgovern": 5575,
      "ĠRuss": 5576,
      "æĬĬæĪĳ": 5577,
      "Ġlijnstuk": 5578,
      "ĠAgneta": 5579,
      "Ġgroup": 5580,
      "Aan": 5581,
      "Ġthousand": 5582,
      "Ġstil": 5583,
      "Ġopl": 5584,
      "Ġ50": 5585,
      "éĵ¶": 5586,
      "Ġavond": 5587,
      "AL": 5588,
      "sd": 5589,
      "ç»¿": 5590,
      "æīįèĥ½": 5591,
      "gers": 5592,
      "åĹ": 5593,
      "Ġfly": 5594,
      "çļĦä¸ľè¥¿": 5595,
      "Ġran": 5596,
      "å®Ĺ": 5597,
      "ç§ģ": 5598,
      "Ġgeworden": 5599,
      "æµĭ": 5600,
      "Ġä¸ºä»Ģä¹Ī": 5601,
      "Ġdier": 5602,
      "Ġvent": 5603,
      "Ġ21": 5604,
      "istory": 5605,
      "Ġyours": 5606,
      "Ġgeboren": 5607,
      "Ġgaf": 5608,
      "hold": 5609,
      "nam": 5610,
      "pend": 5611,
      "Ġfur": 5612,
      "èµµ": 5613,
      "Ġ22": 5614,
      "Ġwaarvoor": 5615,
      "æķĪ": 5616,
      "æĭ¬": 5617,
      "Ġseven": 5618,
      "Ġperfect": 5619,
      "èº«è¾¹": 5620,
      "æĹ¥åŃĲ": 5621,
      "Or": 5622,
      "orie": 5623,
      "Ġhop": 5624,
      "Ġlezen": 5625,
      "beelden": 5626,
      "æķ£": 5627,
      "Ġè¿Ļä¹Ī": 5628,
      "å¤ļäºĨ": 5629,
      "æ³¢": 5630,
      "avy": 5631,
      "å¥¹çļĦ": 5632,
      "æŃ£åľ¨": 5633,
      "Per": 5634,
      "Ġä¸Ĭ": 5635,
      "iled": 5636,
      "Ġergens": 5637,
      "åŃ£": 5638,
      "Ġaangegeven": 5639,
      "å¤§åĵ¥": 5640,
      "Ġplat": 5641,
      "éĻ©": 5642,
      "Ġterwijl": 5643,
      "ĠåıĪ": 5644,
      "æĦŁæĥħ": 5645,
      "åĩłå¤©": 5646,
      "Ġvoelt": 5647,
      "Ġcreat": 5648,
      "Ġabove": 5649,
      "Ġgrap": 5650,
      "Ġspeci": 5651,
      "èŀ": 5652,
      "Ġ&": 5653,
      "igde": 5654,
      "imb": 5655,
      "ĠæĪĳçŁ¥éģĵ": 5656,
      "Ġgevol": 5657,
      "å¹²ä»Ģä¹Ī": 5658,
      "Ġspeak": 5659,
      "Ġvraagt": 5660,
      "Ġrunning": 5661,
      "çĪ¶äº²": 5662,
      "èī²çļĦ": 5663,
      "Ġruimte": 5664,
      "hello": 5665,
      "Iedereen": 5666,
      "Ġè·Ł": 5667,
      "Ġdroom": 5668,
      "Ġobs": 5669,
      "Ġmist": 5670,
      "Ġnad": 5671,
      "Ġfix": 5672,
      "Ġstation": 5673,
      "ĠMin": 5674,
      "ĠæĪĳçļĦ": 5675,
      "ĠOl": 5676,
      "laim": 5677,
      "æµª": 5678,
      "èĭ¥": 5679,
      "Ġdaughter": 5680,
      "Ġpark": 5681,
      "ically": 5682,
      "ĠComm": 5683,
      "æ²Ļ": 5684,
      "Ġseat": 5685,
      "uch": 5686,
      "Ġder": 5687,
      "Ġmix": 5688,
      "Ġpract": 5689,
      "ä½łä¹Ł": 5690,
      "å¯Į": 5691,
      "èī¯": 5692,
      "Ġdriehoek": 5693,
      "view": 5694,
      "nieuw": 5695,
      "two": 5696,
      "aars": 5697,
      "Ġrot": 5698,
      "Ġrad": 5699,
      "è¯į": 5700,
      "Ġreact": 5701,
      "umb": 5702,
      "æķĮ": 5703,
      "çģµ": 5704,
      "ä¿ĿæĬ¤": 5705,
      "Ġjuice": 5706,
      "Ġberekening": 5707,
      "12": 5708,
      "friend": 5709,
      "sing": 5710,
      "staande": 5711,
      "Ġåĸ": 5712,
      "ĠBereken": 5713,
      "Ġvoorbij": 5714,
      "wegen": 5715,
      "Ġsick": 5716,
      "ä¸ĢåĿĹ": 5717,
      "Ġrain": 5718,
      "ondon": 5719,
      "Ġlovely": 5720,
      "Ġå¦Ī": 5721,
      "Ġrechthoek": 5722,
      "Ġnamed": 5723,
      "Ġwou": 5724,
      "elk": 5725,
      "Ġinfl": 5726,
      "æĺ¯ä¸ª": 5727,
      "Ġdank": 5728,
      "inkt": 5729,
      "æ±½": 5730,
      "ä¾Ľ": 5731,
      "Maybe": 5732,
      "cel": 5733,
      "Ġtired": 5734,
      "Ġä½łè¦ģ": 5735,
      "åĪĨä¹ĭ": 5736,
      "Ġpartij": 5737,
      "oops": 5738,
      "èĪĴ": 5739,
      "å£°éŁ³": 5740,
      "Ġphone": 5741,
      "Ġmonths": 5742,
      "conom": 5743,
      "çĶļ": 5744,
      "IJ": 5745,
      "rs": 5746,
      "etend": 5747,
      "ä½Ľ": 5748,
      "Ġbear": 5749,
      "ĠHar": 5750,
      "Ġschuld": 5751,
      "Ġnative": 5752,
      "Ġmaximaal": 5753,
      "ĠHitler": 5754,
      "dom": 5755,
      "Ġdet": 5756,
      "Ġsterk": 5757,
      "ays": 5758,
      "éĩĬ": 5759,
      "åĵŃ": 5760,
      "Heeft": 5761,
      "Moet": 5762,
      "maken": 5763,
      "Ġmater": 5764,
      "Ġhuid": 5765,
      "Ġrep": 5766,
      "Ġverteld": 5767,
      "é¦Ĩ": 5768,
      "amera": 5769,
      "Malley": 5770,
      "itie": 5771,
      "Ġfear": 5772,
      "Ġram": 5773,
      "Ġgoat": 5774,
      "æĸĹ": 5775,
      "æ¢ħ": 5776,
      "Ġontstaan": 5777,
      "ĠPatty": 5778,
      "Ġport": 5779,
      "steem": 5780,
      "Ġvoordat": 5781,
      "ille": 5782,
      "rip": 5783,
      "å¹²åĲĹ": 5784,
      "Ġrechts": 5785,
      "Ġsuppose": 5786,
      "Ġobject": 5787,
      "Ġlots": 5788,
      "Ġcor": 5789,
      "ä»ĭ": 5790,
      "ests": 5791,
      "ĠWest": 5792,
      "ules": 5793,
      "Ġdrinken": 5794,
      "ç´¢": 5795,
      "Meer": 5796,
      "oest": 5797,
      "Ġvor": 5798,
      "itter": 5799,
      "Ġliving": 5800,
      "Ġchair": 5801,
      "åıªè¦ģ": 5802,
      "ç¾¤": 5803,
      "åĲĮå¿Ĺ": 5804,
      "Ġtelefoon": 5805,
      "çĨĬ": 5806,
      "Ġherself": 5807,
      "Ġes": 5808,
      "olon": 5809,
      "Ġworry": 5810,
      "Ġuitge": 5811,
      "éĥ½åľ¨": 5812,
      "è¿Ľåİ»": 5813,
      "çģ°": 5814,
      "Ġpresident": 5815,
      "Ġinclud": 5816,
      "str": 5817,
      "ague": 5818,
      "ache": 5819,
      "ĠOf": 5820,
      "ĠZw": 5821,
      "åŃ¦ä¹ł": 5822,
      "æĻº": 5823,
      "Ġtijdst": 5824,
      "fer": 5825,
      "mas": 5826,
      "Ġdien": 5827,
      "ĠAfter": 5828,
      "åį±": 5829,
      "è¿ĩç¨ĭ": 5830,
      "æ°¸": 5831,
      "Ġsmell": 5832,
      "ç¾İåĽ½": 5833,
      "Ġbroer": 5834,
      "Ġeasy": 5835,
      "gra": 5836,
      "inc": 5837,
      "arte": 5838,
      "åĪĺ": 5839,
      "Ġnose": 5840,
      "ç§ĺ": 5841,
      "ç¬Ķ": 5842,
      "las": 5843,
      "èĨ": 5844,
      "åįĪ": 5845,
      "Ġèĥ½": 5846,
      "Ġmm": 5847,
      "ä½łè¦ģ": 5848,
      "osp": 5849,
      "ĠVol": 5850,
      "Ġeerder": 5851,
      "çĲĨè§£": 5852,
      "ĠAllison": 5853,
      "Hello": 5854,
      "Ġdinner": 5855,
      "Ġdevelop": 5856,
      "åĲ¸": 5857,
      "Ġoverle": 5858,
      "ruct": 5859,
      "Ġseems": 5860,
      "ä¸īä¸ª": 5861,
      "Ġlaughs": 5862,
      "Ġpour": 5863,
      "Ġstroom": 5864,
      "ĠDr": 5865,
      "Ġallowed": 5866,
      "Wees": 5867,
      "Ġbijl": 5868,
      "åĲİæĿ¥": 5869,
      "Ġè¿Ļæł·": 5870,
      "é¢ĺå¹²": 5871,
      "won": 5872,
      "Ġsinds": 5873,
      "ijl": 5874,
      "Ġkor": 5875,
      "æ²¡äºĭ": 5876,
      "åıªèĥ½": 5877,
      "shall": 5878,
      "ĠMaria": 5879,
      "Ġè¯·": 5880,
      "ieur": 5881,
      "ĠCon": 5882,
      "ĠJune": 5883,
      "æĸ¹å¼ı": 5884,
      "eget": 5885,
      "vloed": 5886,
      "æ¦Ĥ": 5887,
      "30": 5888,
      "ula": 5889,
      "è´¢": 5890,
      "Ġhours": 5891,
      "iod": 5892,
      "zier": 5893,
      "è¹": 5894,
      "Ġkost": 5895,
      "Ġåº": 5896,
      "ĠMy": 5897,
      "antie": 5898,
      "Ġomhoog": 5899,
      "wezen": 5900,
      "Ġcommon": 5901,
      "keur": 5902,
      "ffic": 5903,
      "äºİæĺ¯": 5904,
      "schappen": 5905,
      "Ġbezig": 5906,
      "Ġwinter": 5907,
      "15": 5908,
      "Please": 5909,
      "Ġlived": 5910,
      "Ġrijden": 5911,
      "ĠMun": 5912,
      "è¦ģæ±Ĥ": 5913,
      "åį¡": 5914,
      "å°ıå§Ĳ": 5915,
      "æł·åŃĲ": 5916,
      "erence": 5917,
      "æĬĬä½ł": 5918,
      "Ġpoints": 5919,
      "AS": 5920,
      "Ġsol": 5921,
      "Ġpan": 5922,
      "Ġcre": 5923,
      "Ġent": 5924,
      "å®£": 5925,
      "ĠCot": 5926,
      "ä¹Łæ²¡æľī": 5927,
      "ĠLondon": 5928,
      "Ġontde": 5929,
      "Ġlangu": 5930,
      "clus": 5931,
      "æĸĩåĮĸ": 5932,
      "Will": 5933,
      "Ġdark": 5934,
      "Ġbacter": 5935,
      "Ġlives": 5936,
      "Ġfast": 5937,
      "anten": 5938,
      "zeker": 5939,
      "ified": 5940,
      "çŃĸ": 5941,
      "Ġonderwerp": 5942,
      "Ġgedrag": 5943,
      "etters": 5944,
      "Rust": 5945,
      "Ġker": 5946,
      "ached": 5947,
      "ĠWhy": 5948,
      "è¿ĺæ²¡": 5949,
      "Ġorigin": 5950,
      "Ġclot": 5951,
      "Ġhoeft": 5952,
      "Ġquiet": 5953,
      "Alleen": 5954,
      "Ġfollowing": 5955,
      "ĠJanuary": 5956,
      "bes": 5957,
      "goed": 5958,
      "hor": 5959,
      "tjes": 5960,
      "Ġvi": 5961,
      "otte": 5962,
      "aged": 5963,
      "ĠWorld": 5964,
      "reep": 5965,
      "èĢģæĿ¿": 5966,
      "åĬ¨çī©": 5967,
      "ĠBeeld": 5968,
      "æļĸ": 5969,
      "ç¿»": 5970,
      "Ġveroorz": 5971,
      "Br": 5972,
      "ped": 5973,
      "enry": 5974,
      "ette": 5975,
      "æľµ": 5976,
      "ĠéĤ£ä¹Ī": 5977,
      "Ġcontrol": 5978,
      "Ġverklaring": 5979,
      "Uit": 5980,
      "gn": 5981,
      "Ġmur": 5982,
      "Ġsal": 5983,
      "Ġvuur": 5984,
      "Ġnational": 5985,
      "Ġpassen": 5986,
      "å¤ı": 5987,
      "icken": 5988,
      "ç»´": 5989,
      "Ġwaarheid": 5990,
      "åģļçļĦ": 5991,
      "Ġblijf": 5992,
      "Ġkept": 5993,
      "æļĹ": 5994,
      "Ġvliegt": 5995,
      "Verd": 5996,
      "ror": 5997,
      "ya": 5998,
      "Ġwinnen": 5999,
      "Ġnauw": 6000,
      "Ġfit": 6001,
      "isc": 6002,
      "è¿Ļä»¶": 6003,
      "ĠBer": 6004,
      "Ġprov": 6005,
      "éĺµ": 6006,
      "Ġkleur": 6007,
      "Ġmaj": 6008,
      "é½": 6009,
      "enn": 6010,
      "Ġbull": 6011,
      "Ġnut": 6012,
      "Ġlog": 6013,
      "ä¸įä½ı": 6014,
      "ility": 6015,
      "Ġschip": 6016,
      "æĥ³è¦ģ": 6017,
      "Ġsnap": 6018,
      "é¢Ħ": 6019,
      "Ġadm": 6020,
      "æĸ°çļĦ": 6021,
      "Ġverdomme": 6022,
      "è¿·": 6023,
      "ĠTom": 6024,
      "beer": 6025,
      "Ġgrow": 6026,
      "ç¥Ŀ": 6027,
      "æ¬¢è¿İ": 6028,
      "çĪ¶æ¯į": 6029,
      "æĹ¢çĦ¶": 6030,
      "sjech": 6031,
      "ov": 6032,
      "waring": 6033,
      "æľīæ²¡æľī": 6034,
      "Ġä½łåĪ«": 6035,
      "åİī": 6036,
      "Ġspot": 6037,
      "éĥ½æ²¡": 6038,
      "Ġbijz": 6039,
      "ĠChin": 6040,
      "Ġgemeen": 6041,
      "å®īåħ¨": 6042,
      "Ġenergie": 6043,
      "ioen": 6044,
      "Ġest": 6045,
      "Ġli": 6046,
      "omst": 6047,
      "ampl": 6048,
      "ĠMaak": 6049,
      "éĤ£åĦ¿": 6050,
      "Ġå¤©": 6051,
      "Have": 6052,
      "inen": 6053,
      "Ġpage": 6054,
      "Ġkent": 6055,
      "Ġsnijdt": 6056,
      "é¢ĳ": 6057,
      "é¡¿": 6058,
      "Ġcontact": 6059,
      "vangen": 6060,
      "Ġproblem": 6061,
      "æ³¨æĦı": 6062,
      "Ġgroter": 6063,
      "TEA": 6064,
      "11": 6065,
      "Se": 6066,
      "kner": 6067,
      "æ¤": 6068,
      "Ġlange": 6069,
      "Ġzak": 6070,
      "Ġerop": 6071,
      "è¿ĩäºĨ": 6072,
      "wijs": 6073,
      "ippen": 6074,
      "aulkner": 6075,
      "Bel": 6076,
      "Ġloopt": 6077,
      "ald": 6078,
      "stelsel": 6079,
      "geet": 6080,
      "Ġleger": 6081,
      "çİĩ": 6082,
      "Ġslim": 6083,
      "Ġnaast": 6084,
      "Ġgemidd": 6085,
      "ĠMarch": 6086,
      "Ġrespect": 6087,
      "El": 6088,
      "ĠçľŁçļĦ": 6089,
      "Ġzen": 6090,
      "ality": 6091,
      "erecht": 6092,
      "ĠDavid": 6093,
      "è¡¥": 6094,
      "laag": 6095,
      "çľŁæŃ£": 6096,
      "Ġgebouw": 6097,
      "Ġglass": 6098,
      "éĶĻè¯¯": 6099,
      "Ġsacrifice": 6100,
      "Ġain": 6101,
      "Ġcm": 6102,
      "ĠFaulkner": 6103,
      "æ¬¾": 6104,
      "Ġvlucht": 6105,
      "ĠåĽŀ": 6106,
      "boek": 6107,
      "owel": 6108,
      "Ġhaal": 6109,
      "èĢ³": 6110,
      "osaur": 6111,
      "éĥ½æľī": 6112,
      "æĸ½": 6113,
      "ruce": 6114,
      "åĢŁ": 6115,
      "æķ´ä¸ª": 6116,
      "ae": 6117,
      "punten": 6118,
      "åĲĵ": 6119,
      "ional": 6120,
      "Ġregen": 6121,
      "åķĬä½ł": 6122,
      "ç§¯": 6123,
      "ç²ī": 6124,
      "Ġbread": 6125,
      "selves": 6126,
      "Ġfinished": 6127,
      "Ġbekijken": 6128,
      "Ġdik": 6129,
      "Ġdoel": 6130,
      "ĠWell": 6131,
      "romen": 6132,
      "å½Ĵ": 6133,
      "è®©ä»ĸ": 6134,
      "å½ĵçĦ¶": 6135,
      "Ġkennen": 6136,
      "Ġvermoord": 6137,
      "iest": 6138,
      "ĠåĮ": 6139,
      "ä¸įæĥ³": 6140,
      "çĶļèĩ³": 6141,
      "nemen": 6142,
      "Ġnine": 6143,
      "Ġrug": 6144,
      "æĿ¯": 6145,
      "Ġå¤ª": 6146,
      "cient": 6147,
      "èĪŀ": 6148,
      "Ġdescri": 6149,
      "æ¶Īæģ¯": 6150,
      "kw": 6151,
      "Ġbellen": 6152,
      "stairs": 6153,
      "åľĪ": 6154,
      "eeg": 6155,
      "imin": 6156,
      "åľ¨æĪĳ": 6157,
      "åķĬæĪĳ": 6158,
      "å¤§äºĨ": 6159,
      "Ġredden": 6160,
      "Ġkeu": 6161,
      "trell": 6162,
      "èĸ": 6163,
      "Ġbecom": 6164,
      "raf": 6165,
      "ills": 6166,
      "éĻĨ": 6167,
      "åłĤ": 6168,
      "16": 6169,
      "dden": 6170,
      "iot": 6171,
      "Ġlid": 6172,
      "ä»ĺ": 6173,
      "Ġyellow": 6174,
      "uture": 6175,
      "åĪ¤": 6176,
      "ĠAan": 6177,
      "Ġknows": 6178,
      "çŃ¾": 6179,
      "Ġadv": 6180,
      "çĮ´": 6181,
      "Ġiron": 6182,
      "ä¸Ģä¼ļåĦ¿": 6183,
      "ä¸įçĶ¨": 6184,
      "çľģ": 6185,
      "emarken": 6186,
      "Ġåıį": 6187,
      "Ġclos": 6188,
      "èĪ¹": 6189,
      "ĠåĲ¬": 6190,
      "ĠCottrell": 6191,
      "Ġèµ°": 6192,
      "Ġdin": 6193,
      "ona": 6194,
      "Ġthirty": 6195,
      "è¯Ħ": 6196,
      "Ġeraan": 6197,
      "åįļ": 6198,
      "Ġ192": 6199,
      "Ġcars": 6200,
      "Ġrecord": 6201,
      "Ġcomputer": 6202,
      "æ±½è½¦": 6203,
      "bers": 6204,
      "dr": 6205,
      "oning": 6206,
      "åįĩ": 6207,
      "æĪĲåĬŁ": 6208,
      "ĠåĪļ": 6209,
      "Ġwrite": 6210,
      "Ġgebeuren": 6211,
      "Vooruit": 6212,
      "lingen": 6213,
      "oken": 6214,
      "Ġbreat": 6215,
      "repen": 6216,
      "å°Ĭ": 6217,
      "æĹģ": 6218,
      "äººä»¬": 6219,
      "ĠNe": 6220,
      "Ġshoes": 6221,
      "å°±æĺ¯è¯´": 6222,
      "éĥ¨åĪĨ": 6223,
      "Ġsterven": 6224,
      "è¿ĲåĬ¨": 6225,
      "æĭħå¿ĥ": 6226,
      "Beg": 6227,
      "Some": 6228,
      "though": 6229,
      "å¦ĩ": 6230,
      "çĪ·çĪ·": 6231,
      "Ġåıªè¦ģ": 6232,
      "æīĢæľīçļĦ": 6233,
      "Ġplaces": 6234,
      "40": 6235,
      "æĺ¯åķĬ": 6236,
      "åĲįåŃĹ": 6237,
      "Ġbepaald": 6238,
      "Ã¶rdinaten": 6239,
      "ç®Ģåįķ": 6240,
      "Gel": 6241,
      "Ġgesl": 6242,
      "Ġforgot": 6243,
      "æĿ¥åĪ°": 6244,
      "Ġreason": 6245,
      "Ġsport": 6246,
      "ĠLu": 6247,
      "Ġhung": 6248,
      "Ġmeisjes": 6249,
      "åª": 6250,
      "Ġaand": 6251,
      "Ġbath": 6252,
      "Ġbuurt": 6253,
      "Ġeye": 6254,
      "Ġweken": 6255,
      "ĠMen": 6256,
      "ç»ĩ": 6257,
      "pper": 6258,
      "uiste": 6259,
      "Daarom": 6260,
      "åĳĬè¯īæĪĳ": 6261,
      "joy": 6262,
      "uist": 6263,
      "ita": 6264,
      "Ġfift": 6265,
      "ĠAugust": 6266,
      "ĠTr": 6267,
      "ĠCount": 6268,
      "å°ıæĹ¶": 6269,
      "Ġboom": 6270,
      "çº¸": 6271,
      "Ġongeluk": 6272,
      "Door": 6273,
      "TER": 6274,
      "ga": 6275,
      "Ġlow": 6276,
      "Ġcoun": 6277,
      "asc": 6278,
      "Ġå§": 6279,
      "åĬª": 6280,
      "Ġvolk": 6281,
      "æĸ°éĹ»": 6282,
      "XX": 6283,
      "cer": 6284,
      "ĠæľĢ": 6285,
      "annen": 6286,
      "Ġwest": 6287,
      "ä¸´": 6288,
      "Ġcross": 6289,
      "ĠMil": 6290,
      "Ġformer": 6291,
      "åĴĭ": 6292,
      "Ġsex": 6293,
      "ĠGrand": 6294,
      "ï¿½ï¿½": 6295,
      "æĪĳåľ¨": 6296,
      "ĠApril": 6297,
      "Ġneck": 6298,
      "å±ĭ": 6299,
      "åĹ¯åĹ¯": 6300,
      "Hoi": 6301,
      "bum": 6302,
      "druk": 6303,
      "oom": 6304,
      "ogen": 6305,
      "Ġdad": 6306,
      "ä¸Ŀ": 6307,
      "Ġmember": 6308,
      "agina": 6309,
      "æī§": 6310,
      "ĠCent": 6311,
      "åĸĦ": 6312,
      "Alsjeblieft": 6313,
      "å®ĥçļĦ": 6314,
      "ubb": 6315,
      "Ġleaves": 6316,
      "å®«": 6317,
      "ĠPol": 6318,
      "ĠRiver": 6319,
      "Ġunivers": 6320,
      "Ġevening": 6321,
      "æĪ¿éĹ´": 6322,
      "Ġattack": 6323,
      "ances": 6324,
      "Ġnorth": 6325,
      "Ġcust": 6326,
      "Ġkijkt": 6327,
      "åĲ¦": 6328,
      "Ġstom": 6329,
      "Ġtechn": 6330,
      "aches": 6331,
      "è¿ĺè¦ģ": 6332,
      "å®¶çļĦ": 6333,
      "è´¥": 6334,
      "åħ³æ³¨": 6335,
      "Ġmaanden": 6336,
      "çĻ¾åĪĨä¹ĭ": 6337,
      "Ġdifficult": 6338,
      "Ġbegrijp": 6339,
      "ĠAfrica": 6340,
      "wijk": 6341,
      "»åŃĲ": 6342,
      "Ġvie": 6343,
      "iting": 6344,
      "Ġfat": 6345,
      "ä¸Ģå¹´": 6346,
      "ä¸ĭçļĦ": 6347,
      "--\"": 6348,
      "ĠåĲİ": 6349,
      "Ġsand": 6350,
      "anda": 6351,
      "Ġcousin": 6352,
      "iland": 6353,
      "åĳĹ": 6354,
      "åŃĻ": 6355,
      "ĠEd": 6356,
      "æĬĺ": 6357,
      "å¼ĥ": 6358,
      "çĽĺ": 6359,
      "å¿«ä¹Ĳ": 6360,
      "Ġneeds": 6361,
      "gelopen": 6362,
      "Ġstoppen": 6363,
      "åĽłæŃ¤": 6364,
      "ç»Ŀå¯¹": 6365,
      "Ġwhether": 6366,
      "Rustig": 6367,
      "ozen": 6368,
      "uper": 6369,
      "zetten": 6370,
      "Ġ+": 6371,
      "ľçļĦ": 6372,
      "Ġjuiste": 6373,
      "Ġrid": 6374,
      "roll": 6375,
      "Ġpleas": 6376,
      "Ġparab": 6377,
      "ä¸Ģå®ļä¼ļ": 6378,
      "ç¼º": 6379,
      "æĭľæĭľ": 6380,
      "Ġtrouw": 6381,
      "Ġsitting": 6382,
      "ä»ĸæĺ¯": 6383,
      "Ġreis": 6384,
      "Ġmodel": 6385,
      "è®Ń": 6386,
      "å¼Ĥ": 6387,
      "çĿĢæĪĳ": 6388,
      "ankelijk": 6389,
      "Ġsudden": 6390,
      "æł·çļĦ": 6391,
      "itein": 6392,
      "Ġarri": 6393,
      "eltje": 6394,
      "Ġvandaan": 6395,
      "derdaad": 6396,
      "Vertel": 6397,
      "Ġcircumc": 6398,
      "Bewijs": 6399,
      "Gew": 6400,
      "cut": 6401,
      "ĠYeah": 6402,
      "Ġtaal": 6403,
      "Ġgingen": 6404,
      "Ġcorn": 6405,
      "ä½łäºĨ": 6406,
      "Ġstof": 6407,
      "è¡ĮåĬ¨": 6408,
      "ĠSchool": 6409,
      "çĶ·äºº": 6410,
      "çİ¯å¢ĥ": 6411,
      "Ġkruis": 6412,
      "elingen": 6413,
      "Ġfijn": 6414,
      "ä¸Ģåıª": 6415,
      "ĠæĪĳçİ°åľ¨": 6416,
      "oppen": 6417,
      "åŃĲéĩĮ": 6418,
      "Ġdaarom": 6419,
      "å¦Ĥä½ķ": 6420,
      "äºĶåįģ": 6421,
      "çĿ¡è§ī": 6422,
      "Ġveranderen": 6423,
      "ĠWilson": 6424,
      "point": 6425,
      "ijst": 6426,
      "Ġtoward": 6427,
      "stad": 6428,
      "okken": 6429,
      "Ġshut": 6430,
      "Ġdance": 6431,
      "ç§ĭ": 6432,
      "æīĵå¼Ģ": 6433,
      "æŁĲ": 6434,
      "èģª": 6435,
      "æħ¢æħ¢": 6436,
      "é¦ĸåħĪ": 6437,
      "Volgens": 6438,
      "ĠWelke": 6439,
      "é½Ĳ": 6440,
      "Naar": 6441,
      "give": 6442,
      "Ġpracht": 6443,
      "ä»Ļ": 6444,
      "åħ°": 6445,
      "ĠTer": 6446,
      "ĠTsjech": 6447,
      "esterd": 6448,
      "tend": 6449,
      "Ġshot": 6450,
      "Ġ40": 6451,
      "Ġkwamen": 6452,
      "Ġvechten": 6453,
      "è¾ĪåŃĲ": 6454,
      "esterday": 6455,
      "Any": 6456,
      "å³": 6457,
      "Ġboos": 6458,
      "Ġjump": 6459,
      "ĠBig": 6460,
      "å¯»": 6461,
      "Ġè¿ĻäºĽ": 6462,
      "çŁ¥éģĵåĲĹ": 6463,
      "Ġarms": 6464,
      "Ġlanger": 6465,
      "overn": 6466,
      "Ġjonge": 6467,
      "Ġverloren": 6468,
      "ç¢°": 6469,
      "èħ¿": 6470,
      "Ġdaddy": 6471,
      "Ġpuzz": 6472,
      "Ġei": 6473,
      "alright": 6474,
      "Ġstood": 6475,
      "æĿ¥è¶Ĭ": 6476,
      "Ġdanger": 6477,
      "ugs": 6478,
      "è¡Ĺ": 6479,
      "çĶŁæ°Ķ": 6480,
      "laas": 6481,
      "Ġbooks": 6482,
      "æĳĨ": 6483,
      "æ£®": 6484,
      "éĩİéĽĢ": 6485,
      "bruary": 6486,
      "Ġraaklijn": 6487,
      "ĠMainwaring": 6488,
      "æĪĳåİ»": 6489,
      "Ġanderen": 6490,
      "amm": 6491,
      "å°Ŀ": 6492,
      "æĿŁ": 6493,
      "Ġforget": 6494,
      "ĠæĪĳè¦ģ": 6495,
      "åį°": 6496,
      "bei": 6497,
      "your": 6498,
      "åģ¥": 6499,
      "Ġbetalen": 6500,
      "Ġperiod": 6501,
      "Ġworked": 6502,
      "groep": 6503,
      "Ġwonen": 6504,
      "åıĺæĪĲ": 6505,
      "Zoals": 6506,
      "è¶ĬæĿ¥è¶Ĭ": 6507,
      "Ġcareful": 6508,
      "Ġanimal": 6509,
      "gang": 6510,
      "zoeken": 6511,
      "Ġearth": 6512,
      "åĪº": 6513,
      "åħħ": 6514,
      "Ġmeth": 6515,
      "ĠCal": 6516,
      "inkel": 6517,
      "æĭ¼": 6518,
      "stead": 6519,
      "éĻį": 6520,
      "Ġnews": 6521,
      "Ġmeester": 6522,
      "Ġinge": 6523,
      "bor": 6524,
      "some": 6525,
      "Ġsummer": 6526,
      "Ġnamen": 6527,
      "Ġled": 6528,
      "Ġevent": 6529,
      "Ġvanuit": 6530,
      "ĠBos": 6531,
      "åºĬ": 6532,
      "Ġwelk": 6533,
      "oger": 6534,
      "ukt": 6535,
      "Ġanyone": 6536,
      "Ġmuziek": 6537,
      "iÃ«nt": 6538,
      "Ġtelling": 6539,
      "anny": 6540,
      "ĠSeptember": 6541,
      "Ġguys": 6542,
      "Ġ/": 6543,
      "Ġtail": 6544,
      "Ġeet": 6545,
      "æĪ´": 6546,
      "ĠII": 6547,
      "ĠIr": 6548,
      "åºŃ": 6549,
      "ĠChina": 6550,
      "Ġeating": 6551,
      "Ġbroken": 6552,
      "Ġwindow": 6553,
      "Ġwedstrijd": 6554,
      "Ġhuman": 6555,
      "Ġcouple": 6556,
      "za": 6557,
      "çĳ": 6558,
      "Ġadem": 6559,
      "Ġvac": 6560,
      "äºļ": 6561,
      "Ġlad": 6562,
      "Ġlach": 6563,
      "Ġlunch": 6564,
      "çļĦéĤ£ä¸ª": 6565,
      "ieke": 6566,
      "Ġreken": 6567,
      "ĠCarl": 6568,
      "åľ°è¯´": 6569,
      "è¾ĵ": 6570,
      "åī¯": 6571,
      "æĽ²": 6572,
      "æģ©": 6573,
      "ç½Ĺ": 6574,
      "é¡¹çĽ®": 6575,
      "Ġsacred": 6576,
      "Ġontstaat": 6577,
      "Ġquickly": 6578,
      "cing": 6579,
      "ex": 6580,
      "ray": 6581,
      "ety": 6582,
      "Ġca": 6583,
      "Ġervoor": 6584,
      "æŀĦ": 6585,
      "spraak": 6586,
      "Ġcray": 6587,
      "éģĩåĪ°": 6588,
      "Ġabsol": 6589,
      "IT": 6590,
      "would": 6591,
      "ching": 6592,
      "Ġcamera": 6593,
      "ä½Ļ": 6594,
      "Ġmeant": 6595,
      "Ġstat": 6596,
      "ikkel": 6597,
      "eller": 6598,
      "rucht": 6599,
      "ä»Ģä¹ĪæĹ¶åĢĻ": 6600,
      "ç«¯": 6601,
      "pres": 6602,
      "äº§åħļ": 6603,
      "Ġbloody": 6604,
      "çĵ¶": 6605,
      "ĠJuly": 6606,
      "ober": 6607,
      "ĠÃ": 6608,
      "Ġzus": 6609,
      "oeger": 6610,
      "è®¨": 6611,
      "éĿ©": 6612,
      "Ġsomebody": 6613,
      "Ġgevoel": 6614,
      "ç²¾ç¥ŀ": 6615,
      "é¬¼åŃĲ": 6616,
      "Ġfrog": 6617,
      "eken": 6618,
      "èĶ": 6619,
      "ingers": 6620,
      "Ġcamp": 6621,
      "ĠåŃ": 6622,
      "under": 6623,
      "gene": 6624,
      "æľīäºĽ": 6625,
      "éĤ£ç§į": 6626,
      "Ġwaarschijnlijk": 6627,
      "åºĨ": 6628,
      "which": 6629,
      "Ġhardly": 6630,
      "æĶ¹åıĺ": 6631,
      "Ġmiddel": 6632,
      "Lees": 6633,
      "ĠChinese": 6634,
      ".)": 6635,
      "issen": 6636,
      "æĪĳéĥ½": 6637,
      "åİħ": 6638,
      "åĨ°": 6639,
      "Ġschrijven": 6640,
      "åĽŀæĿ¥äºĨ": 6641,
      "éļ¾éģĵ": 6642,
      "Ġskin": 6643,
      "Ġmoesten": 6644,
      "Ġhoeveelheid": 6645,
      "Ġmachine": 6646,
      "Mooi": 6647,
      "Wanneer": 6648,
      "cember": 6649,
      "Ġdream": 6650,
      "ĠCity": 6651,
      "Ġnoises": 6652,
      "ç¥¨": 6653,
      "Ġweeks": 6654,
      "ashion": 6655,
      "Ġmaakte": 6656,
      "Ġsurpr": 6657,
      "Ġrivier": 6658,
      "After": 6659,
      "pel": 6660,
      "vere": 6661,
      "Ġdig": 6662,
      "Ġwakker": 6663,
      "Ġapart": 6664,
      "Ġgiving": 6665,
      "Ġfuture": 6666,
      "Ġcop": 6667,
      "Ġcake": 6668,
      "iging": 6669,
      "Ġstellen": 6670,
      "ĠAmy": 6671,
      "ĠSome": 6672,
      "roat": 6673,
      "æĹħ": 6674,
      "ĠStap": 6675,
      "Ġä¸įè¦ģ": 6676,
      "Ã¨re": 6677,
      "Ġplanten": 6678,
      "burg": 6679,
      "wood": 6680,
      "Ġä¸ī": 6681,
      "Ġliet": 6682,
      "stellen": 6683,
      "Ġbeoord": 6684,
      "ä¸įéĶĻ": 6685,
      "Ġren": 6686,
      "Ġstuck": 6687,
      "Ġwithin": 6688,
      "rible": 6689,
      "Ġplezier": 6690,
      "Ġæĺ¯ä¸įæĺ¯": 6691,
      "çŀ§": 6692,
      "ĠOnder": 6693,
      "Ġnormaal": 6694,
      "Excuse": 6695,
      "ĠEuropa": 6696,
      "gar": 6697,
      "Ġterecht": 6698,
      "Ġmicro": 6699,
      "Ġhur": 6700,
      "cten": 6701,
      "Ġdiep": 6702,
      "ä¸Ĭæµ·": 6703,
      "arts": 6704,
      "Ġpress": 6705,
      "Ġslaan": 6706,
      "Welke": 6707,
      "Ġgeheim": 6708,
      "Ġlaughed": 6709,
      "Ġtemperatuur": 6710,
      "Ġä¸º": 6711,
      "ä¸ģ": 6712,
      "ä¸Ģè¾¹": 6713,
      "çĤ¹åĦ¿": 6714,
      "éĴĪ": 6715,
      "Ġgeluid": 6716,
      "Ġsomm": 6717,
      "Ġperform": 6718,
      "Ġtribe": 6719,
      "Ġtruck": 6720,
      "Dr": 6721,
      "Ġtit": 6722,
      "Ġdest": 6723,
      "Ġbaas": 6724,
      "Ġcellen": 6725,
      "asion": 6726,
      "åĬ³": 6727,
      "Ġgrass": 6728,
      "gesteld": 6729,
      "Niemand": 6730,
      "Ġbos": 6731,
      "ä¸¹": 6732,
      "Ġhig": 6733,
      "Ġfill": 6734,
      "Ġcried": 6735,
      "Ġraakt": 6736,
      "å¥½åĲ§": 6737,
      "Ġ28": 6738,
      "Ġboot": 6739,
      "åĲĮåŃ¦": 6740,
      "å¨ģ": 6741,
      "Ġpolice": 6742,
      "Ġbott": 6743,
      "ä»»åĬ¡": 6744,
      "Ġassist": 6745,
      "Ġspirit": 6746,
      "halen": 6747,
      "Ġban": 6748,
      "Ġenjoy": 6749,
      "ĠDicks": 6750,
      "Ġ(\"": 6751,
      "åįģäºĮ": 6752,
      "éĹ®ä½ł": 6753,
      "anning": 6754,
      "Ġsecret": 6755,
      "Ġstrange": 6756,
      "Papa": 6757,
      "Gen": 6758,
      "gie": 6759,
      "Ġsilly": 6760,
      "ä¸¢": 6761,
      "Ġpil": 6762,
      "Ġåī": 6763,
      "è¿Ļè¾¹": 6764,
      "ikken": 6765,
      "ctober": 6766,
      "èĩªçĦ¶": 6767,
      "Ġbrown": 6768,
      "è¶£": 6769,
      "çĥ§": 6770,
      "åħ¶ä»ĸ": 6771,
      "isteren": 6772,
      "komst": 6773,
      "èĮ¶": 6774,
      "Ġconsidered": 6775,
      "Pak": 6776,
      "dad": 6777,
      "hij": 6778,
      "lad": 6779,
      "toe": 6780,
      "Ġmass": 6781,
      "Ġkiezen": 6782,
      "å°¾": 6783,
      "Ġverr": 6784,
      "Ġvoorbeelden": 6785,
      "ĠPres": 6786,
      "Ġschoon": 6787,
      "æĻ®": 6788,
      "æľ¬æĿ¥": 6789,
      "çĭĲ": 6790,
      "åĵ¥åĵ¥": 6791,
      "æł¹æį®": 6792,
      "produ": 6793,
      "Ġdrive": 6794,
      "Ġprobeer": 6795,
      "ban": 6796,
      "uigen": 6797,
      "Ġdam": 6798,
      "è§ģè¿ĩ": 6799,
      "å¨ĥ": 6800,
      "Ġmiladi": 6801,
      "Ġnummer": 6802,
      "Ġpassed": 6803,
      "OM": 6804,
      "Ġburn": 6805,
      "Ġloop": 6806,
      "Ġletters": 6807,
      "Ġbeeld": 6808,
      "Ġreport": 6809,
      "æĬĬå®ĥ": 6810,
      "å¥³åĦ¿": 6811,
      "ä»ĸä»¬çļĦ": 6812,
      "èĭı": 6813,
      "éĺŁéķ¿": 6814,
      "ĠFebruary": 6815,
      "åĬªåĬĽ": 6816,
      "ube": 6817,
      "Ġheer": 6818,
      "Ġeconom": 6819,
      "Ġfarm": 6820,
      "aces": 6821,
      "ĠRob": 6822,
      "Ġbelief": 6823,
      "Stan": 6824,
      "Onze": 6825,
      "ĠNovember": 6826,
      "éŁ³ä¹Ĳ": 6827,
      "ology": 6828,
      "Ġpossible": 6829,
      "å´": 6830,
      "çĺ": 6831,
      "Ġtick": 6832,
      "Ġtabel": 6833,
      "Ġpublic": 6834,
      "ä½łæĢİä¹Ī": 6835,
      "ãĢĬ": 6836,
      "ãĢĭ": 6837,
      "ĠRock": 6838,
      "æİ¥åıĹ": 6839,
      "å¸¦çĿĢ": 6840,
      "Ġåı¯ä»¥": 6841,
      "Ġseries": 6842,
      "åİŁåĽł": 6843,
      "ĠåĴĮ": 6844,
      "cos": 6845,
      "ature": 6846,
      "igs": 6847,
      "Ġur": 6848,
      "uri": 6849,
      "ĠSw": 6850,
      "ĠDE": 6851,
      "å·¦": 6852,
      "è´¦": 6853,
      "åĽŀäºĭ": 6854,
      "Ġanyway": 6855,
      "å¸®åĬ©": 6856,
      "volgens": 6857,
      "åĮ»éĻ¢": 6858,
      "Ġä¼ļ": 6859,
      "ongen": 6860,
      "aling": 6861,
      "ugd": 6862,
      "iefd": 6863,
      "Ġcarry": 6864,
      "æ£Ģ": 6865,
      "æĢĢçĸĳ": 6866,
      "æĺ¯æľī": 6867,
      "Ġene": 6868,
      "imm": 6869,
      "bec": 6870,
      "ffen": 6871,
      "Ġklopt": 6872,
      "å¸®æĪĳ": 6873,
      "Ġregels": 6874,
      "Ġspirits": 6875,
      "çĬ¶æĢģ": 6876,
      "Twee": 6877,
      "Zet": 6878,
      "kamer": 6879,
      "zin": 6880,
      "Ġfre": 6881,
      "leur": 6882,
      "ĠSouth": 6883,
      "Ġalbum": 6884,
      "ä¼¯": 6885,
      "Ġä½łçļĦ": 6886,
      "rift": 6887,
      "å·§": 6888,
      "èĥ½åĬĽ": 6889,
      "åĽŀçŃĶ": 6890,
      "åĸĬ": 6891,
      "Ġwaiting": 6892,
      "å¹¸ç¦ı": 6893,
      "Ġreleased": 6894,
      "æĺ¯è°ģ": 6895,
      "å½ķ": 6896,
      "noon": 6897,
      "è¾Ľ": 6898,
      "Ġterm": 6899,
      "ç»ıå¸¸": 6900,
      "ä½ıäºĨ": 6901,
      "Ġmakkelijk": 6902,
      "SIS": 6903,
      "ael": 6904,
      "Ġsouth": 6905,
      "Ġyesterday": 6906,
      "Ġroe": 6907,
      "Ġdok": 6908,
      "lymp": 6909,
      "oph": 6910,
      "çĶĦ": 6911,
      "Ġneg": 6912,
      "çĿĢæĢ¥": 6913,
      "Ġwilden": 6914,
      "auwe": 6915,
      "Ġzijde": 6916,
      "éŁ©": 6917,
      "ĠIndia": 6918,
      "åıĤåĬł": 6919,
      "Ġcultuur": 6920,
      "AM": 6921,
      "iaal": 6922,
      "oft": 6923,
      "Ġtreat": 6924,
      "ato": 6925,
      "Ġzorg": 6926,
      "Ġcaught": 6927,
      "èµ¢": 6928,
      "Ġomge": 6929,
      "ĠJung": 6930,
      "uurd": 6931,
      "ivil": 6932,
      "play": 6933,
      "åģļäºĨ": 6934,
      "ä¸¤å¤©": 6935,
      "å¦ĤæŃ¤": 6936,
      "Ġfeeling": 6937,
      "ĠNederlandse": 6938,
      "Ġfinish": 6939,
      "æļ´": 6940,
      "ĠSmith": 6941,
      "dan": 6942,
      "zel": 6943,
      "Ġwa": 6944,
      "Ġwand": 6945,
      "Ġtoeg": 6946,
      "rok": 6947,
      "Ġ23": 6948,
      "ĠLy": 6949,
      "Ġwaarop": 6950,
      "ä¸ĭäºĨ": 6951,
      "Ġsocial": 6952,
      "å¹´è½»": 6953,
      "Ġslow": 6954,
      "Ġkonden": 6955,
      "phone": 6956,
      "ubliek": 6957,
      "Ġgeneral": 6958,
      "Amer": 6959,
      "Pl": 6960,
      "Ġinsp": 6961,
      "ä¹Ķ": 6962,
      "ĠPart": 6963,
      "åĬ²": 6964,
      "è¢ĭ": 6965,
      "æĳĩ": 6966,
      "æĲľ": 6967,
      "ĠEngland": 6968,
      "Because": 6969,
      "Ġvlakdeel": 6970,
      "Ġmillion": 6971,
      "Ġdecimalen": 6972,
      "With": 6973,
      "dam": 6974,
      "nes": 6975,
      "Ġtape": 6976,
      "ĠhÃ©": 6977,
      "Ġlist": 6978,
      "çļĦå°±æĺ¯": 6979,
      "oose": 6980,
      "å°±è¦ģ": 6981,
      "æĥ¯": 6982,
      "å¥½ä¸įå¥½": 6983,
      "éģį": 6984,
      "Ġbestaan": 6985,
      "æĹłæ³ķ": 6986,
      "çĪ±çļĦ": 6987,
      "æĽ¾ç»ı": 6988,
      "éº»çĥ¦": 6989,
      "Ġtijdstip": 6990,
      "Ġbijlage": 6991,
      "ba": 6992,
      "hankelijk": 6993,
      "Ġthee": 6994,
      "Ġmemb": 6995,
      "åĽ°": 6996,
      "å¿į": 6997,
      "ĠDecember": 6998,
      "éĢ¼": 6999,
      "ĠZijn": 7000,
      "éĥİ": 7001,
      "çĥŁ": 7002,
      "æĳ¸": 7003,
      "Ġvormen": 7004,
      "Dag": 7005,
      "lies": 7006,
      "Ġhoney": 7007,
      "Ġhole": 7008,
      "Ġkids": 7009,
      "åĲ´": 7010,
      "Ġstor": 7011,
      "entie": 7012,
      "roon": 7013,
      "Ġforward": 7014,
      "æĥľ": 7015,
      "å¿Ĩ": 7016,
      "éĢı": 7017,
      "Ġweren": 7018,
      "æ¬§": 7019,
      "naam": 7020,
      "é¢ľ": 7021,
      "æģĲ": 7022,
      "æ¡Į": 7023,
      "å®Įåħ¨": 7024,
      "è¡¨çİ°": 7025,
      "Ġstraight": 7026,
      "åĤ»": 7027,
      "fast": 7028,
      "yy": 7029,
      "éŀ": 7030,
      "ites": 7031,
      "ä¸ĢåĪĩ": 7032,
      "Ġmevrouw": 7033,
      "äººæ°ĳ": 7034,
      "å¾ĹäºĨ": 7035,
      "å±Ĥ": 7036,
      "åĲ¬è¯´": 7037,
      "Ġactiv": 7038,
      "Ġstraal": 7039,
      "Ġhotel": 7040,
      "ĠChristmas": 7041,
      "Ġlinks": 7042,
      "Ġleaving": 7043,
      "æ¹ĸ": 7044,
      "Ġmale": 7045,
      "Ġtoy": 7046,
      "Ġrace": 7047,
      "Ġopnieuw": 7048,
      "æī¹": 7049,
      "Ġregel": 7050,
      "å¸ħ": 7051,
      "aalt": 7052,
      "Ġkwijt": 7053,
      "Ġparents": 7054,
      "Ġbusy": 7055,
      "Ġbroke": 7056,
      "Ġå¹²": 7057,
      "Ġwitte": 7058,
      "åİīå®³": 7059,
      "Ook": 7060,
      "dd": 7061,
      "çĩ": 7062,
      "Ġkm": 7063,
      "è¯Ĺ": 7064,
      "Ġverde": 7065,
      "ĠAb": 7066,
      "ĠCom": 7067,
      "æĬ¢": 7068,
      "åİ»æī¾": 7069,
      "éķ¿çļĦ": 7070,
      "espe": 7071,
      "çģŃ": 7072,
      "Ġbehand": 7073,
      "è§£åĨ³": 7074,
      "Ġmaand": 7075,
      "Ġzieken": 7076,
      "Ġregion": 7077,
      "çŃĶåºĶ": 7078,
      "Ġcontrole": 7079,
      "Ġå¸Ī": 7080,
      "ĠMunson": 7081,
      "ĠCounty": 7082,
      "UN": 7083,
      "Ġæ¯ı": 7084,
      "andid": 7085,
      "Ġzuur": 7086,
      "stelling": 7087,
      "ils": 7088,
      "ĠSl": 7089,
      "åľ¨è¿Ļä¸ª": 7090,
      "ĠOctober": 7091,
      "Ġbegon": 7092,
      "uwen": 7093,
      "æĦŁè°¢": 7094,
      "oenen": 7095,
      "è§£éĩĬ": 7096,
      "Ġverschil": 7097,
      "åŁİå¸Ĥ": 7098,
      "å¸Ĥåľº": 7099,
      "Ġaardig": 7100,
      "èĳ£": 7101,
      "å«ģ": 7102,
      "æĶ¯æĮģ": 7103,
      "Ã¶rdinaat": 7104,
      "Ġmotor": 7105,
      "ç¯®": 7106,
      "IE": 7107,
      "sters": 7108,
      "æī¬": 7109,
      "ĠVeren": 7110,
      "Ġgebracht": 7111,
      "Ġafternoon": 7112,
      "Ġslaap": 7113,
      "éº¦": 7114,
      "Ġinflu": 7115,
      "14": 7116,
      "Cos": 7117,
      "Ġdom": 7118,
      "Ġsoul": 7119,
      "ä½łè¿Ļ": 7120,
      "dern": 7121,
      "ĠGovern": 7122,
      "osh": 7123,
      "å¾ĹåĪ°": 7124,
      "Ġkunst": 7125,
      "åĪ«çļĦ": 7126,
      "ĠZuid": 7127,
      "ĠUit": 7128,
      "Ġputting": 7129,
      "åĲĥçļĦ": 7130,
      "Ġappro": 7131,
      "brand": 7132,
      "Ġfilmp": 7133,
      "ĠLees": 7134,
      "Ġhoriz": 7135,
      "Ġpopulation": 7136,
      "Ġvreem": 7137,
      "Ġheavy": 7138,
      "Ġpush": 7139,
      "stop": 7140,
      "ĠSy": 7141,
      "Ġä½łè¿Ļ": 7142,
      "ĠPe": 7143,
      "ĠLo": 7144,
      "èĥ½ä¸įèĥ½": 7145,
      "Hoeveel": 7146,
      "è§£æŀĲ": 7147,
      "å¥¶å¥¶": 7148,
      "Ġcertainly": 7149,
      "Ġgovernment": 7150,
      "Ġmembers": 7151,
      "Every": 7152,
      "Uh": 7153,
      "ermen": 7154,
      "Ġsense": 7155,
      "Ġlu": 7156,
      "Ġfashion": 7157,
      "Ġkort": 7158,
      "åı³": 7159,
      "ĠMark": 7160,
      "Ġvoorkomen": 7161,
      "ä¼ģ": 7162,
      "å¯¹æĪĳ": 7163,
      "Ġpretend": 7164,
      "Ġconn": 7165,
      "Ġcommand": 7166,
      "åĽŀåĪ°": 7167,
      "è§ģåĪ°": 7168,
      "èĥĨ": 7169,
      "Ġappar": 7170,
      "Ġpaid": 7171,
      "Ġtelevision": 7172,
      "Ġdue": 7173,
      "ĠToon": 7174,
      "ĠæĪĳè¯´": 7175,
      "Ġuite": 7176,
      "ä»Ģä¹ĪåĳĢ": 7177,
      "Ġgrapp": 7178,
      "æĻĵ": 7179,
      "ĠYOU": 7180,
      "Ġfresh": 7181,
      "åĭĩ": 7182,
      "ĠDenemarken": 7183,
      "Ġdepartment": 7184,
      "Ġä¸ĭ": 7185,
      "Ġnor": 7186,
      "çļĦäºĭåĦ¿": 7187,
      "Ġinf": 7188,
      "plicht": 7189,
      "æīĵçĶµè¯Ŀ": 7190,
      "æģ¶": 7191,
      "ä¸»è¦ģ": 7192,
      "ĠWeb": 7193,
      "Ġrustig": 7194,
      "iedenis": 7195,
      "bruik": 7196,
      "åħĶåŃĲ": 7197,
      "Ġtal": 7198,
      "Ġduur": 7199,
      "Ġmun": 7200,
      "æľīäºĨ": 7201,
      "Ġzeer": 7202,
      "ä¸ĬéĿ¢": 7203,
      "åİ»åĲ§": 7204,
      "Ġmann": 7205,
      "è¡ĮäºĨ": 7206,
      "Ġseconden": 7207,
      "board": 7208,
      "æĹ©å°±": 7209,
      "åĶĲ": 7210,
      "ĠSpan": 7211,
      "ĠcoÃ¶rdinaten": 7212,
      "èı²": 7213,
      "Ġplaced": 7214,
      "éĻ¤äºĨ": 7215,
      "èŀį": 7216,
      "kan": 7217,
      "wing": 7218,
      "will": 7219,
      "Ġtun": 7220,
      "Ġsoorten": 7221,
      "Ġdev": 7222,
      "çļĦæĹ¶éĹ´": 7223,
      "ä½łåľ¨": 7224,
      "iced": 7225,
      "veren": 7226,
      "rodu": 7227,
      "agram": 7228,
      "Ġhaat": 7229,
      "ĠOlymp": 7230,
      "Ġbloemen": 7231,
      "Ġchance": 7232,
      "Ġhasn": 7233,
      "Ġsmith": 7234,
      "æ¡ĥ": 7235,
      "Ġ2014": 7236,
      "orspr": 7237,
      "Ġcolon": 7238,
      "Ġåįģ": 7239,
      "åħ±äº§åħļ": 7240,
      "Ġreturned": 7241,
      "Ġ2021": 7242,
      "alf": 7243,
      "æĪĳè¿Ļ": 7244,
      "staan": 7245,
      "æĿĤ": 7246,
      "Ġä½łæĥ³": 7247,
      "elijkheid": 7248,
      "Ġlaag": 7249,
      "Mum": 7250,
      "UR": 7251,
      "Zelf": 7252,
      "ping": 7253,
      "ÉĻ": 7254,
      "Ġvir": 7255,
      "elly": 7256,
      "Ġkamp": 7257,
      "ĠBro": 7258,
      "Ġnearly": 7259,
      "çľĭäºĨ": 7260,
      "Ġsuff": 7261,
      "woordig": 7262,
      "ĠFran": 7263,
      "Ġvliegen": 7264,
      "éŃı": 7265,
      "Ġoefen": 7266,
      "Ġåģļ": 7267,
      "ĠUniversity": 7268,
      "See": 7269,
      "ĠäºĮ": 7270,
      "onk": 7271,
      "ĠRoy": 7272,
      "ĠFred": 7273,
      "Ġblock": 7274,
      "çĽĬ": 7275,
      "æķ¬": 7276,
      "éĩĮè¾¹": 7277,
      "æĬĬä»ĸ": 7278,
      "bles": 7279,
      "ä¿¡æģ¯": 7280,
      "Ġcheese": 7281,
      "Ġstraat": 7282,
      "Ġvriendin": 7283,
      "ĠAdam": 7284,
      "Ġdokter": 7285,
      "Want": 7286,
      "bouw": 7287,
      "night": 7288,
      "onen": 7289,
      "Ġlim": 7290,
      "raal": 7291,
      "Ġverv": 7292,
      "Ġalstublieft": 7293,
      "Ġerin": 7294,
      "uses": 7295,
      "Ġä½łä¸į": 7296,
      "ĠGel": 7297,
      "åº·": 7298,
      "åĪĨéĴŁ": 7299,
      "Ġdragen": 7300,
      "ĠåĲĮ": 7301,
      "coÃ¶rdinaat": 7302,
      "åĮĹäº¬": 7303,
      "æĶ¿åºľ": 7304,
      "Ġpain": 7305,
      "Ġkool": 7306,
      "æĺ¯ä¸į": 7307,
      "leep": 7308,
      "entle": 7309,
      "çĶŁçļĦ": 7310,
      "æ°´æŀľ": 7311,
      "å®ĮäºĨ": 7312,
      "Ġrestaur": 7313,
      "itude": 7314,
      "Ġmiddle": 7315,
      "Ġdistrict": 7316,
      "Ġleerlingen": 7317,
      "Ġchocol": 7318,
      "Ġclothes": 7319,
      "EÃ©n": 7320,
      "Veel": 7321,
      "ĠÂ": 7322,
      "Ġdry": 7323,
      "Ġnatuur": 7324,
      "aliz": 7325,
      "ä½łè¿ĺ": 7326,
      "ĠSieur": 7327,
      "ĠMommy": 7328,
      "iform": 7329,
      "çĪ¬": 7330,
      "çĤ¸": 7331,
      "éĽ·": 7332,
      "Thanks": 7333,
      "Ġeerlijk": 7334,
      "å¥³äºº": 7335,
      "åĪļåĪļ": 7336,
      "Ġmum": 7337,
      "Ġinhoud": 7338,
      "ask": 7339,
      "åĲ¹": 7340,
      "å°ģ": 7341,
      "ikel": 7342,
      "Ġzeven": 7343,
      "çīĮ": 7344,
      "åľ°ä¸Ĭ": 7345,
      "Ġcarried": 7346,
      "Ġchanged": 7347,
      "Ġhorizont": 7348,
      ",--": 7349,
      "nummer": 7350,
      "Ġéĥ½æĺ¯": 7351,
      "ander": 7352,
      "Ġzaak": 7353,
      "æĪĳçŁ¥éģĵ": 7354,
      "åĲµ": 7355,
      "ician": 7356,
      "riage": 7357,
      "å¥½å¤ļ": 7358,
      "ĠRight": 7359,
      "astic": 7360,
      "rijden": 7361,
      "lands": 7362,
      "èĻļ": 7363,
      "ç¼ĺ": 7364,
      "æĿ¡ä»¶": 7365,
      "Ġliever": 7366,
      "ĠAmerica": 7367,
      "Ġpossess": 7368,
      "Ġsettle": 7369,
      "ä¼ĳæģ¯": 7370,
      "Ġgift": 7371,
      "ora": 7372,
      "Ġfinger": 7373,
      "ä¹Į": 7374,
      "Ġmoon": 7375,
      "empt": 7376,
      "åĨł": 7377,
      "oeder": 7378,
      "Ġanymore": 7379,
      "ä»Ĭå¹´": 7380,
      "åĵªéĩĮ": 7381,
      "Ġlonger": 7382,
      "å§Ĳå§Ĳ": 7383,
      "Ġgehouden": 7384,
      "æľįåĬ¡": 7385,
      "Ġcurr": 7386,
      "Ġgenerally": 7387,
      "Ġliked": 7388,
      "wil": 7389,
      "Ġfail": 7390,
      "ä½łåķĬ": 7391,
      "Ġmeen": 7392,
      "Ġstone": 7393,
      "sem": 7394,
      "Ġerbij": 7395,
      "ĠæĪĳè¿Ļ": 7396,
      "Ġovert": 7397,
      "Ġnecess": 7398,
      "Ġwaarvan": 7399,
      "æ¬º": 7400,
      "Ġåħ³": 7401,
      "ĠMadame": 7402,
      "Ġdoubt": 7403,
      "ĠKennis": 7404,
      "Ġverniet": 7405,
      "ĠåıįæŃ£": 7406,
      "Even": 7407,
      "bre": 7408,
      "wassen": 7409,
      "Ġfout": 7410,
      "æĪĳçİ°åľ¨": 7411,
      "ä¸ĢæĿ¡": 7412,
      "genoot": 7413,
      "æīĺ": 7414,
      "ĠBra": 7415,
      "Ġverdien": 7416,
      "zichtig": 7417,
      "è´£ä»»": 7418,
      "Ġesc": 7419,
      "Ġnauwkeur": 7420,
      "bin": 7421,
      "Ġleef": 7422,
      "kens": 7423,
      "æł¸": 7424,
      "å¦®": 7425,
      "åĲİéĿ¢": 7426,
      "Ġusing": 7427,
      "å®ŀåľ¨": 7428,
      "åĲĮæĹ¶": 7429,
      "Ġkwaad": 7430,
      "çĥĪ": 7431,
      "idence": 7432,
      "èĢĥèĻĳ": 7433,
      "Ġsingle": 7434,
      "æ°¸è¿ľ": 7435,
      "yl": 7436,
      "ooien": 7437,
      "uro": 7438,
      "å®¡": 7439,
      "ushed": 7440,
      "Ġspl": 7441,
      "teen": 7442,
      "wez": 7443,
      "å°ıçļĦ": 7444,
      "èĩ£": 7445,
      "ĠThese": 7446,
      "æĭ¥": 7447,
      "è¿Ļä¸ªäºº": 7448,
      "Ġclan": 7449,
      "å®ĮæĪĲ": 7450,
      "è®¡åĪĴ": 7451,
      "Ġverandert": 7452,
      "Ġspring": 7453,
      "Ġå¹¶": 7454,
      "Ġbreakfast": 7455,
      "Ġspeelt": 7456,
      "plaats": 7457,
      "Ġmurder": 7458,
      "aft": 7459,
      "cont": 7460,
      "Ġtoek": 7461,
      "çľł": 7462,
      "éĤ£è¾¹": 7463,
      "çĸ¼": 7464,
      "Ġ2000": 7465,
      "Ġdelight": 7466,
      "ining": 7467,
      "Ġmut": 7468,
      "Ġfant": 7469,
      "åĪĢ": 7470,
      "ĠAh": 7471,
      "å°±èĥ½": 7472,
      "ĠNorth": 7473,
      "çĶµè§Ĩ": 7474,
      "please": 7475,
      "è·ŁæĪĳè¯´": 7476,
      "Ġposition": 7477,
      "Ġimag": 7478,
      "fil": 7479,
      "light": 7480,
      "Ġmid": 7481,
      "Ġhield": 7482,
      "ä¸įè§ģ": 7483,
      "ĠWhere": 7484,
      "Ġonderstaande": 7485,
      "Ġsnij": 7486,
      "bled": 7487,
      "Ġflight": 7488,
      "è¿Ľåħ¥": 7489,
      "ç¾İä¸½": 7490,
      "Ġallebei": 7491,
      "é¼ĵ": 7492,
      "å±ŀäºİ": 7493,
      "ĠDuitsland": 7494,
      "Pardon": 7495,
      "Ġdeep": 7496,
      "Ġjud": 7497,
      "Ġä½łè¿ĺ": 7498,
      "Ġä½łçİ°åľ¨": 7499,
      "åİ¿": 7500,
      "ĠPeter": 7501,
      "è¾ŀ": 7502,
      "èĪį": 7503,
      "æ··": 7504,
      "çĻ¾å§ĵ": 7505,
      "Ġä¸Ģå®ļ": 7506,
      "Ġrecog": 7507,
      "è®¸å¤ļ": 7508,
      "ä¸¤ä¸ªäºº": 7509,
      "Ġopgave": 7510,
      "Ġparabool": 7511,
      "ially": 7512,
      "rika": 7513,
      "wanna": 7514,
      "Ġgang": 7515,
      "Ġhom": 7516,
      "Ġcro": 7517,
      "CHAP": 7518,
      "ĠMas": 7519,
      "ĠTHE": 7520,
      "å°±åı¯ä»¥": 7521,
      "ĠChe": 7522,
      "å¾Ĺå¾Ī": 7523,
      "Ġschil": 7524,
      "Ġprim": 7525,
      "åģı": 7526,
      "èµ·äºĨ": 7527,
      "ekt": 7528,
      "Ġplaatsen": 7529,
      "è·¯ä¸Ĭ": 7530,
      "åİŁæĿ¥": 7531,
      "Ġcatch": 7532,
      "èĴĻ": 7533,
      "çłĶç©¶": 7534,
      "Ken": 7535,
      "even": 7536,
      "sm": 7537,
      "with": 7538,
      "ĠMot": 7539,
      "ĠæĪĳè¿ĺ": 7540,
      "æĿ¥çľĭ": 7541,
      "Ġrechter": 7542,
      "ä¹Łæľī": 7543,
      "Ġchicken": 7544,
      "thern": 7545,
      "afel": 7546,
      "ĠåħĪ": 7547,
      "Ġvoelen": 7548,
      "Ġ2018": 7549,
      "Ġowner": 7550,
      "å¦¹å¦¹": 7551,
      "elpunt": 7552,
      "Ġsommige": 7553,
      "Ġsou": 7554,
      "Ġpack": 7555,
      "Ġeaten": 7556,
      "Ġopt": 7557,
      "å¼±": 7558,
      "Ġorange": 7559,
      "Ġchurch": 7560,
      "Ġsea": 7561,
      "å¤ĸéĿ¢": 7562,
      "ample": 7563,
      "Ġsupport": 7564,
      "Ġpieces": 7565,
      "Ġvisit": 7566,
      "Ġwatching": 7567,
      "geld": 7568,
      "Ġought": 7569,
      "Ġdece": 7570,
      "Ġstap": 7571,
      "aka": 7572,
      "ĠBruce": 7573,
      "Ġann": 7574,
      "Ġspend": 7575,
      "ĠRom": 7576,
      "è°ĵ": 7577,
      "Ġagent": 7578,
      "Ġperhaps": 7579,
      "Ġworks": 7580,
      "ç³Ĭ": 7581,
      "è¡¨ç¤º": 7582,
      "Ġkoningin": 7583,
      "é²ľ": 7584,
      "æĿĲæĸĻ": 7585,
      "amplain": 7586,
      "Ġgeslacht": 7587,
      "Net": 7588,
      "é¥¿": 7589,
      "ĠæĪĸèĢħ": 7590,
      "Ġtong": 7591,
      "Ġduurt": 7592,
      "Ġoorspr": 7593,
      "Ġsight": 7594,
      "icy": 7595,
      "Ġuitg": 7596,
      "ĠLou": 7597,
      "ichael": 7598,
      "èĢģèĻİ": 7599,
      "éĿ¢åīį": 7600,
      "æĴĴ": 7601,
      "Ġdiscuss": 7602,
      "Ġquestions": 7603,
      "su": 7604,
      "zil": 7605,
      "Ġbesp": 7606,
      "ä»ģ": 7607,
      "ä½łèĩªå·±": 7608,
      "Ġstam": 7609,
      "ĠAir": 7610,
      "ĠMum": 7611,
      "estig": 7612,
      "ĠRond": 7613,
      "éģĵçĲĨ": 7614,
      "ogels": 7615,
      "Ġseason": 7616,
      "æĮ¥": 7617,
      "Ġanybody": 7618,
      "å®ŀè¯Ŀ": 7619,
      "onderd": 7620,
      "åĲĪä½ľ": 7621,
      "ç¨³": 7622,
      "Ġvliegtuig": 7623,
      "Ġæīį": 7624,
      "Ġcases": 7625,
      "illen": 7626,
      "ctions": 7627,
      "æ²ī": 7628,
      "åĩĢ": 7629,
      "çĽĽ": 7630,
      "Ġbridge": 7631,
      "éĺ¶": 7632,
      "æ£Ĵ": 7633,
      "Ġkennis": 7634,
      "itchen": 7635,
      "Ġsounds": 7636,
      "olonel": 7637,
      "Iemand": 7638,
      "Take": 7639,
      "Ġcry": 7640,
      "Ġkopen": 7641,
      "ureau": 7642,
      "è¿ĽæĿ¥": 7643,
      "Ġbevindt": 7644,
      "Ġnamelijk": 7645,
      "ĠWho": 7646,
      "çĵľ": 7647,
      "æ¯ķç«Ł": 7648,
      "ais": 7649,
      "eh": 7650,
      "ĠèĻ½çĦ¶": 7651,
      "Ġzul": 7652,
      "Ġinvloed": 7653,
      "æĪĳæľī": 7654,
      "ä¸įçĿĢ": 7655,
      "Ġmezelf": 7656,
      "iling": 7657,
      "ĠEast": 7658,
      "æīĵç®Ĺ": 7659,
      "ission": 7660,
      "Ġgekregen": 7661,
      "cially": 7662,
      "çľŁçļĦæĺ¯": 7663,
      "Ġgelukkig": 7664,
      "woners": 7665,
      "Ġlanguage": 7666,
      "Ġinse": 7667,
      "Ġkid": 7668,
      "rem": 7669,
      "ĠAlex": 7670,
      "ĠSun": 7671,
      "ĠNow": 7672,
      "éĹŃ": 7673,
      "ĠZij": 7674,
      "åıĺåĮĸ": 7675,
      "çĽ®åīį": 7676,
      "ç»Ħç»ĩ": 7677,
      "ĠBritish": 7678,
      "ym": 7679,
      "Ġsad": 7680,
      "Ġkoff": 7681,
      "ĠMag": 7682,
      "ĠPort": 7683,
      "å¥½åĲĹ": 7684,
      "Ġblik": 7685,
      "Ġschree": 7686,
      "åºĵ": 7687,
      "Ġgevo": 7688,
      "æ¸Ĳ": 7689,
      "çĭ±": 7690,
      "éªĤ": 7691,
      "$$\\": 7692,
      "Ġvarious": 7693,
      "æ¯Ķå¦Ĥè¯´": 7694,
      "Ġsuggest": 7695,
      "Uw": 7696,
      "has": 7697,
      "Ġdomin": 7698,
      "orde": 7699,
      "eless": 7700,
      "igg": 7701,
      "ĠLa": 7702,
      "è°·": 7703,
      "ector": 7704,
      "Ġvolgt": 7705,
      "Ġfigure": 7706,
      "é»ĺ": 7707,
      "éĤ£ä¹Īå¤ļ": 7708,
      "ominic": 7709,
      "200": 7710,
      "time": 7711,
      "ĠæĢ»": 7712,
      "Ġpet": 7713,
      "Ġzowel": 7714,
      "ä¸įå¤ª": 7715,
      "Ġmoving": 7716,
      "å¥½åķĬ": 7717,
      "ulf": 7718,
      "Ġ27": 7719,
      "bez": 7720,
      "å°ıå¿ĥ": 7721,
      "æĤĦ": 7722,
      "ä»İæĿ¥": 7723,
      "Ġzichzelf": 7724,
      "Ġloved": 7725,
      "Ġident": 7726,
      "Ġhoorde": 7727,
      "éĩįè¦ģçļĦ": 7728,
      "Ġleeftijd": 7729,
      "å³°": 7730,
      "Ġroept": 7731,
      "çļĦåĲĹ": 7732,
      "Ġthird": 7733,
      "Ġherinner": 7734,
      "ĠOver": 7735,
      "å¯¹äºİ": 7736,
      "è·ŁçĿĢ": 7737,
      "Ġarch": 7738,
      "ç®Ĺæĺ¯": 7739,
      "ipped": 7740,
      "Ġstraw": 7741,
      "Ġgrew": 7742,
      "åįĥä¸ĩ": 7743,
      "Schiet": 7744,
      "Ġcapital": 7745,
      "æ¤į": 7746,
      "ratie": 7747,
      "ares": 7748,
      "Ġnin": 7749,
      "Ġdecl": 7750,
      "adem": 7751,
      "ä¸įæķ¢": 7752,
      "è¯ļ": 7753,
      "ceed": 7754,
      "Ġspace": 7755,
      "Ġ26": 7756,
      "Ġship": 7757,
      "Ġafgelopen": 7758,
      "Ġexample": 7759,
      "ĠéĤ£å°±": 7760,
      "åĲ¬åĪ°": 7761,
      "Ġamb": 7762,
      "Ġvertic": 7763,
      "éĶ®": 7764,
      "Ġtrack": 7765,
      "Ġbottle": 7766,
      "Ġdecided": 7767,
      "Ġtyp": 7768,
      "PO": 7769,
      "pers": 7770,
      "take": 7771,
      "itions": 7772,
      "ä¸ĢèĪ¬": 7773,
      "Ġgeg": 7774,
      "åħį": 7775,
      "ä¼°": 7776,
      "Ġprop": 7777,
      "Ġhieronder": 7778,
      "Ġprima": 7779,
      "æŁĵ": 7780,
      "grond": 7781,
      "Ġintern": 7782,
      "Ġzwem": 7783,
      "Ġè¦ģä¸į": 7784,
      "Ġoccasion": 7785,
      "Ġontmoeten": 7786,
      "Ġview": 7787,
      "Ġä»¥": 7788,
      "äº¡": 7789,
      "unior": 7790,
      "ĠSan": 7791,
      "ĠSim": 7792,
      "ĠJoe": 7793,
      "æĮ£": 7794,
      "Ġå½ĵçĦ¶": 7795,
      "åĵĪåĵĪåĵĪ": 7796,
      "èľľ": 7797,
      "Ġijs": 7798,
      "Ġnergens": 7799,
      "ey": 7800,
      "kay": 7801,
      "erve": 7802,
      "arch": 7803,
      "Ġpupp": 7804,
      "æĪĳçľĭ": 7805,
      "iday": 7806,
      "Ġenorm": 7807,
      "Ġverwij": 7808,
      "çĶľ": 7809,
      "Ġaller": 7810,
      "Weg": 7811,
      "çĪĨ": 7812,
      "Ġgrens": 7813,
      "Ġhemel": 7814,
      "Ġputs": 7815,
      "Ġvertelt": 7816,
      "Ġåĵª": 7817,
      "åĽĽåįģ": 7818,
      "Ġmarry": 7819,
      "Ġsky": 7820,
      "æ¯įäº²": 7821,
      "Ġexpect": 7822,
      "Ġåĩº": 7823,
      "enior": 7824,
      "æĺ¯åĲĹ": 7825,
      "ç»į": 7826,
      "ella": 7827,
      "ĠGu": 7828,
      "Ġ29": 7829,
      "rijft": 7830,
      "ohol": 7831,
      "Ġsomewhere": 7832,
      "éĻĲ": 7833,
      "ĠChamplain": 7834,
      "uebec": 7835,
      "Ġstraks": 7836,
      "Ġ2019": 7837,
      "Ġmonster": 7838,
      "Onder": 7839,
      "ä»£è¡¨": 7840,
      "Ġontmoet": 7841,
      "Zou": 7842,
      "ĠæĪĳåľ¨": 7843,
      "Ġreger": 7844,
      "Ġspoke": 7845,
      "ĠGa": 7846,
      "ĠGood": 7847,
      "ugg": 7848,
      "achtig": 7849,
      "Ġprison": 7850,
      "Ġbelow": 7851,
      "Ġrob": 7852,
      "blad": 7853,
      "Ġklinkt": 7854,
      "Ġremo": 7855,
      "Ġhappens": 7856,
      "Ġåı¯èĥ½": 7857,
      "Ġstopped": 7858,
      "æ®µæĹ¶éĹ´": 7859,
      "ĠParis": 7860,
      "æĬķèµĦ": 7861,
      "say": 7862,
      "Ġäººå®¶": 7863,
      "oute": 7864,
      "Ġviel": 7865,
      "Ġcell": 7866,
      "ä¸ĢæŃ¥": 7867,
      "å®ĩ": 7868,
      "è¯´ä»Ģä¹Ī": 7869,
      "...\"": 7870,
      "ĠLaur": 7871,
      "lav": 7872,
      "Ġvoldo": 7873,
      "ç¡Ģ": 7874,
      "Ġverliefd": 7875,
      "Ġmiddelpunt": 7876,
      "Ġexactly": 7877,
      "éĺ¿å§¨": 7878,
      "æĵį": 7879,
      "]?": 7880,
      "Ġwapen": 7881,
      "Ġhosp": 7882,
      "andy": 7883,
      "Ġking": 7884,
      "æĪĳæĿ¥": 7885,
      "äºĨä»ĸ": 7886,
      "Ġbeurt": 7887,
      "éĤ£ä½ł": 7888,
      "ĠJust": 7889,
      "è¿ĺåľ¨": 7890,
      "æĥ³æ³ķ": 7891,
      "ansas": 7892,
      "æŁı": 7893,
      "ictor": 7894,
      "çªĹ": 7895,
      "Ġidi": 7896,
      "voerd": 7897,
      "Ġaccount": 7898,
      "Ġbuilt": 7899,
      "çļĦä¸ĢäºĽ": 7900,
      "ĠGeorge": 7901,
      "ĠBelg": 7902,
      "Ġbeoordeling": 7903,
      "ĠMasai": 7904,
      "OK": 7905,
      "cohol": 7906,
      "wow": 7907,
      "Ġahead": 7908,
      "Ġgives": 7909,
      "orr": 7910,
      "Ġvere": 7911,
      "Ġzaken": 7912,
      "Ġkitchen": 7913,
      "ĠIN": 7914,
      "æī°": 7915,
      "Ġknock": 7916,
      "Ġheren": 7917,
      "itted": 7918,
      "æ´ŀ": 7919,
      "ĠUk": 7920,
      "Ġontb": 7921,
      "ä¹Łä¸įçŁ¥éģĵ": 7922,
      "Ġhalve": 7923,
      "Ġbevat": 7924,
      "èİ²": 7925,
      "Ġlearned": 7926,
      "sych": 7927,
      "Ġradio": 7928,
      "éŀĭ": 7929,
      "13": 7930,
      "Un": 7931,
      "dien": 7932,
      "ih": 7933,
      "iant": 7934,
      "maybe": 7935,
      "zi": 7936,
      "Ġgold": 7937,
      "Ġnood": 7938,
      "Ġpagina": 7939,
      "Ġalgeb": 7940,
      "Ġplate": 7941,
      "Ġafge": 7942,
      "åĩºæĿ¥äºĨ": 7943,
      "èĢģåħ¬": 7944,
      "Ġhandle": 7945,
      "Ġflowers": 7946,
      "Ġwalked": 7947,
      "Ġgeschreven": 7948,
      "Ġnauwkeurig": 7949,
      "CHAPTER": 7950,
      "Ġtin": 7951,
      "ijm": 7952,
      "ä¸įä¸Ģæł·": 7953,
      "iety": 7954,
      "å®ģ": 7955,
      "æľīçļĦ": 7956,
      "Ġteeth": 7957,
      "ç»©": 7958,
      "ĠBobby": 7959,
      "Ġreached": 7960,
      "ĠCaptain": 7961,
      "å·¨": 7962,
      "Ġseeing": 7963,
      "å¼ĢäºĨ": 7964,
      "æ´²": 7965,
      "èº²": 7966,
      "Ġtruth": 7967,
      "å®īæİĴ": 7968,
      "ipper": 7969,
      "ĠDaarna": 7970,
      "gevallen": 7971,
      "vocaliz": 7972,
      "èĴĭ": 7973,
      "Ġprobeert": 7974,
      "Ġevil": 7975,
      "Ġpounds": 7976,
      "ĠWaarom": 7977,
      "Ġreplied": 7978,
      "Ġhoge": 7979,
      "Ġfifty": 7980,
      "Ġgrappig": 7981,
      "ius": 7982,
      "ration": 7983,
      "ÃŃ": 7984,
      "Ġgate": 7985,
      "Ġvred": 7986,
      "Ġkerk": 7987,
      "ston": 7988,
      "ä¸Ģå®¶": 7989,
      "æľīå¤ļ": 7990,
      "æĹ§": 7991,
      "ĠEgy": 7992,
      "ĠGra": 7993,
      "weet": 7994,
      "æŃ£å¸¸": 7995,
      "æĢĿèĢĥ": 7996,
      "Ġsubject": 7997,
      "Ġfucking": 7998,
      "Ġservice": 7999,
      "DE": 8000,
      "RE": 8001,
      "âĢ": 8002,
      "Ġwide": 8003,
      "edig": 8004,
      "Ġund": 8005,
      "Ġwhom": 8006,
      "Ġvoorbeeld": 8007,
      "åĩ¶": 8008,
      "åĩŃ": 8009,
      "ĠNet": 8010,
      "romme": 8011,
      "ĠKar": 8012,
      "ĠVeel": 8013,
      "ivid": 8014,
      "ively": 8015,
      "ĠHeb": 8016,
      "æĮĤ": 8017,
      "uwelijk": 8018,
      "Ġgeleerd": 8019,
      "ĠThank": 8020,
      "Ġauthor": 8021,
      "åľ¨è¿ĻéĩĮ": 8022,
      "Ġcentury": 8023,
      "Ġbasket": 8024,
      "Ġbleef": 8025,
      "Ġsucces": 8026,
      "Ġsuccess": 8027,
      "Ġbeweging": 8028,
      "Ġreceived": 8029,
      "Sl": 8030,
      "Would": 8031,
      "kin": 8032,
      "len": 8033,
      "Ġiedere": 8034,
      "ä½łåĪ«": 8035,
      "åį·": 8036,
      "è®¿": 8037,
      "å¤§åŃ¦": 8038,
      "Ġneigh": 8039,
      "Ġè¿Ļç§į": 8040,
      "Ġbran": 8041,
      "hington": 8042,
      "bling": 8043,
      "ä½ľçĶ¨": 8044,
      "oogle": 8045,
      "çĪ±æĥħ": 8046,
      "Ġmiles": 8047,
      "æĶ¿æ²»": 8048,
      "åŁºç¡Ģ": 8049,
      "zijn": 8050,
      "Ġdut": 8051,
      "Ġmad": 8052,
      "Ġfem": 8053,
      "çļĦåķĬ": 8054,
      "oma": 8055,
      "å¥½çľĭ": 8056,
      "Ġshit": 8057,
      "wege": 8058,
      "Ġcomfort": 8059,
      "çŃīçŃī": 8060,
      "standig": 8061,
      "æİ¥ä¸ĭæĿ¥": 8062,
      "Ġtoege": 8063,
      "æ°ĳæĹı": 8064,
      "æľīä¸Ģå¤©": 8065,
      "åĿĹéĴ±": 8066,
      "Ġdropped": 8067,
      "ĠåºĶ": 8068,
      "ĠPresident": 8069,
      "Jon": 8070,
      "LE": 8071,
      "set": 8072,
      "Ġdromen": 8073,
      "Ġbak": 8074,
      "Ġbracht": 8075,
      "Ġenkel": 8076,
      "Ġdol": 8077,
      "geant": 8078,
      "ulk": 8079,
      "Ġspell": 8080,
      "...?": 8081,
      "Ġwaarmee": 8082,
      "éģĹ": 8083,
      "çĽĸ": 8084,
      "pens": 8085,
      "Ġoffer": 8086,
      "ekijk": 8087,
      "ixon": 8088,
      "çıł": 8089,
      "å¤ĦçĲĨ": 8090,
      "Ġbeschermen": 8091,
      "organ": 8092,
      "åĮħæĭ¬": 8093,
      "Ġhangt": 8094,
      "ĠMartin": 8095,
      "cream": 8096,
      "pte": 8097,
      "ĠçľŁ": 8098,
      "Ġcost": 8099,
      "æĺ¯åĽłä¸º": 8100,
      "ida": 8101,
      "ä¸Ģçľĭ": 8102,
      "ä¸ĢçĻ¾": 8103,
      "å¾ģ": 8104,
      "ĠPri": 8105,
      "ĠGoogle": 8106,
      "Ġdonker": 8107,
      "ekst": 8108,
      "ç¬¦": 8109,
      "Ġgevallen": 8110,
      "ç¥ĸ": 8111,
      "Ġlaugh": 8112,
      "slaan": 8113,
      "Ġcurious": 8114,
      "è®¾è®¡": 8115,
      "ĠCanada": 8116,
      "Ġveroorzaakt": 8117,
      "ĠåĲİæĿ¥": 8118,
      "ĠalgebraÃ¯": 8119,
      "Ġgoud": 8120,
      "Ġleeg": 8121,
      "Ġjack": 8122,
      "ä½³": 8123,
      "ä¸įåľ¨": 8124,
      "icle": 8125,
      "å¥¥": 8126,
      "aga": 8127,
      "äººç±»": 8128,
      "ä¸ĬçıŃ": 8129,
      "ĠJer": 8130,
      "ipe": 8131,
      "Ġdrank": 8132,
      "Ġhoef": 8133,
      "Ġcareer": 8134,
      "Ġcompet": 8135,
      "éĶĻäºĨ": 8136,
      "Ġcourt": 8137,
      "Ġgeheel": 8138,
      "gemaakt": 8139,
      "ĠAmerikaanse": 8140,
      "Ġgemiddelde": 8141,
      "Mama": 8142,
      "Ne": 8143,
      "ply": 8144,
      "zz": 8145,
      "Ġtv": 8146,
      "Ġdun": 8147,
      "Ġpig": 8148,
      "Ġinn": 8149,
      "ieus": 8150,
      "Ġut": 8151,
      "Ġraken": 8152,
      "sey": 8153,
      "cties": 8154,
      "Ġoveral": 8155,
      "å®¶åºŃ": 8156,
      "Ġthemselves": 8157,
      "Ġvolgen": 8158,
      "Ġmommy": 8159,
      "Ġtrekken": 8160,
      "ledge": 8161,
      "Ġbelangrijke": 8162,
      "éŃĶ": 8163,
      "ĠEuropean": 8164,
      "Ter": 8165,
      "Toon": 8166,
      "ĠæĹł": 8167,
      "Ġmuur": 8168,
      "Ġgrijs": 8169,
      "Ġfool": 8170,
      "Ġstuur": 8171,
      "ĠDem": 8172,
      "å°±åĥı": 8173,
      "aans": 8174,
      "ĠGen": 8175,
      "å¤§å¤«": 8176,
      "åĨĴ": 8177,
      "Ġexcept": 8178,
      "çĶŁæĦı": 8179,
      "iano": 8180,
      "å¥³åŃ©": 8181,
      "çķ¥": 8182,
      "Ġspec": 8183,
      "ç»ĵæĿŁ": 8184,
      "Ġouder": 8185,
      "åºĶè¯¥æĺ¯": 8186,
      "èĽ®": 8187,
      "æ¢¦æĥ³": 8188,
      "Ġpromise": 8189,
      "Ġhungry": 8190,
      "Ġtoekomst": 8191,
      "laten": 8192,
      "sings": 8193,
      "ising": 8194,
      "Ġå±": 8195,
      "icip": 8196,
      "Ġalive": 8197,
      "çĶŁåĳ½": 8198,
      "Ġboots": 8199,
      "icked": 8200,
      "Ġå¤ļ": 8201,
      "Ġlaid": 8202,
      "ç¬¬ä¸ī": 8203,
      "æ¶¨": 8204,
      "Ġopened": 8205,
      "Niets": 8206,
      "Ġaccept": 8207,
      "ĠåİŁ": 8208,
      ".,": 8209,
      "hoe": 8210,
      "Ġtap": 8211,
      "Ġderde": 8212,
      "Ġmor": 8213,
      "Ġbought": 8214,
      "Ġieder": 8215,
      "Ġcream": 8216,
      "oty": 8217,
      "Ġrub": 8218,
      "vecht": 8219,
      "ĠMont": 8220,
      "å¥ĸ": 8221,
      "å°±åľ¨": 8222,
      "ĠCome": 8223,
      "è§¦": 8224,
      "istor": 8225,
      "Ġgroepen": 8226,
      "åĴĮä½ł": 8227,
      "Ġkloot": 8228,
      "çĶ·åŃ©": 8229,
      "Ġå¯¹ä¸įèµ·": 8230,
      "å®³æĢķ": 8231,
      "Ġbelangrijkste": 8232,
      "Ġbegrijpen": 8233,
      "Ġcharacter": 8234,
      "Ġbuilding": 8235,
      "Ġparticular": 8236,
      "åĿļæĮģ": 8237,
      "laimed": 8238,
      "singing": 8239,
      "vr": 8240,
      "elle": 8241,
      "Ġhealth": 8242,
      "Ġcivil": 8243,
      "Ġstorm": 8244,
      "Ġstreet": 8245,
      "amous": 8246,
      "chtend": 8247,
      "ĠArab": 8248,
      "Ġreach": 8249,
      "ĠEle": 8250,
      "åĩı": 8251,
      "æĶ»": 8252,
      "æĢİä¹ĪäºĨ": 8253,
      "Ġvolg": 8254,
      "Ġsmile": 8255,
      "Ġechter": 8256,
      "Ġtrust": 8257,
      "çģ¯": 8258,
      "appy": 8259,
      "Ġ2017": 8260,
      "Ġwritten": 8261,
      "Ġserious": 8262,
      "ĠQuebec": 8263,
      "Ġwonderful": 8264,
      "åŁºæľ¬": 8265,
      "Ġinterested": 8266,
      "Mam": 8267,
      "èķ": 8268,
      "Ġbother": 8269,
      "Ġzuid": 8270,
      "çļĦå¥½": 8271,
      "Ġkeek": 8272,
      "leet": 8273,
      "idt": 8274,
      "Ġride": 8275,
      "ĠMother": 8276,
      "irm": 8277,
      "Ġworth": 8278,
      "æĬ½": 8279,
      "éģ¿": 8280,
      "Ġbreng": 8281,
      "ival": 8282,
      "æ³½": 8283,
      "pty": 8284,
      "æīĢè°ĵ": 8285,
      "åĲĥäºĨ": 8286,
      "ampion": 8287,
      "formatie": 8288,
      "çłģ": 8289,
      "gebied": 8290,
      "ommige": 8291,
      "ç§ĳæĬĢ": 8292,
      "HAT": 8293,
      "loos": 8294,
      "Ã¤": 8295,
      "Ġvres": 8296,
      "Ġlose": 8297,
      "Ġeieren": 8298,
      "Ġinstead": 8299,
      "ometer": 8300,
      "stoffen": 8301,
      "Ġversp": 8302,
      "ĠSal": 8303,
      "Ġherinn": 8304,
      "ĠRoman": 8305,
      "ĠLuc": 8306,
      "ä¼ļæľī": 8307,
      "å°ıçĮª": 8308,
      "Ġbutter": 8309,
      "Ġthema": 8310,
      "Ġoffice": 8311,
      "ç»ıè¿ĩ": 8312,
      "èµ°åĲ§": 8313,
      "athol": 8314,
      "å¸®ä½ł": 8315,
      "çħ§é¡¾": 8316,
      "Ġreading": 8317,
      "Ġsimil": 8318,
      "ĠAngel": 8319,
      "ĠWebster": 8320,
      "Ġä¸ºäºĨ": 8321,
      "ero": 8322,
      "inter": 8323,
      "Ġstu": 8324,
      "ĠEm": 8325,
      "éĥ½è¦ģ": 8326,
      "Ġzoiets": 8327,
      "Ġshirt": 8328,
      "rukt": 8329,
      "Ġfeit": 8330,
      "ä½įç½®": 8331,
      "çĸ«": 8332,
      "Ġdiscover": 8333,
      "Zelfs": 8334,
      "Ġdeceased": 8335,
      "Wait": 8336,
      "aire": 8337,
      "car": 8338,
      "hi": 8339,
      "nst": 8340,
      "wagen": 8341,
      "work": 8342,
      "heb": 8343,
      "Ġdorp": 8344,
      "Ġstrip": 8345,
      "ires": 8346,
      "Ġforce": 8347,
      "Ġworse": 8348,
      "romos": 8349,
      "éĽĦ": 8350,
      "Ġplayer": 8351,
      "èĦ±": 8352,
      "Alle": 8353,
      "boom": 8354,
      "Ġlijnen": 8355,
      "Ġcounty": 8356,
      "åĲĦä½į": 8357,
      "Ġvijand": 8358,
      "ä¼ģä¸ļ": 8359,
      "Che": 8360,
      "His": 8361,
      "Man": 8362,
      "Ġç»Ļ": 8363,
      "ened": 8364,
      "erc": 8365,
      "Ġhuil": 8366,
      "Ġnest": 8367,
      "ĠåĬ": 8368,
      "ades": 8369,
      "owl": 8370,
      "Ġwee": 8371,
      "ĠMor": 8372,
      "ĠWie": 8373,
      "èµļ": 8374,
      "ä¹Łä¸įæĺ¯": 8375,
      "Ġshout": 8376,
      "çŁ¿": 8377,
      "itty": 8378,
      "éķ¿å¾Ĺ": 8379,
      "é¢Ĺ": 8380,
      "Ġgewonnen": 8381,
      "Ġsmart": 8382,
      "çĭĤ": 8383,
      "Ġdraag": 8384,
      "ometimes": 8385,
      "Ġvlees": 8386,
      "delen": 8387,
      "fact": 8388,
      "tell": 8389,
      "Ġ$": 8390,
      "Ġwol": 8391,
      "Ġbood": 8392,
      "çļĦåĳĢ": 8393,
      "aser": 8394,
      "stel": 8395,
      "Ġonbe": 8396,
      "Ġbeat": 8397,
      "ä¸įåı¯": 8398,
      "Ġstel": 8399,
      "å¯¹ä¸įèµ·": 8400,
      "éĿ¢å¯¹": 8401,
      "åħ¨éĥ¨": 8402,
      "Ġglas": 8403,
      "Ġ2011": 8404,
      "æı¡": 8405,
      "Ġdriving": 8406,
      "Ġstukje": 8407,
      "Pas": 8408,
      "anam": 8409,
      "Ġwint": 8410,
      "Ġgisteren": 8411,
      "Ġhout": 8412,
      "Ġfingers": 8413,
      "ä¸Ģä½į": 8414,
      "Ġstub": 8415,
      "agon": 8416,
      "å¯¹ä¸įå¯¹": 8417,
      "Ġbeteken": 8418,
      "è´Ń": 8419,
      "éļĲ": 8420,
      "werken": 8421,
      "Ġlevens": 8422,
      "Ġbehaald": 8423,
      "boy": 8424,
      "è±ª": 8425,
      "ç¼ĸ": 8426,
      "é¸Ń": 8427,
      "è¯ģæį®": 8428,
      "Ġplaneet": 8429,
      "Ġzenuw": 8430,
      "Haal": 8431,
      "Zal": 8432,
      "ki": 8433,
      "nem": 8434,
      "Ġtrouwen": 8435,
      "Ġzand": 8436,
      "alle": 8437,
      "ĠTed": 8438,
      "Ġaanv": 8439,
      "Ġsafe": 8440,
      "Ġprof": 8441,
      "Ġelect": 8442,
      "iva": 8443,
      "Ġbegonnen": 8444,
      "Ġgekozen": 8445,
      "æ¶²": 8446,
      "å¥ĩæĢª": 8447,
      "æĹ¥æľ¬äºº": 8448,
      "ĠbacteriÃ«n": 8449,
      "uel": 8450,
      "Ġä¹Łæĺ¯": 8451,
      "Ġfan": 8452,
      "Ġthanks": 8453,
      "rey": 8454,
      "ĠBewijs": 8455,
      "ĠæĪĳçľĭ": 8456,
      "rian": 8457,
      "èµı": 8458,
      "Ġleiden": 8459,
      "Ġblank": 8460,
      "Ġgrowing": 8461,
      "These": 8462,
      "ç¨į": 8463,
      "çıį": 8464,
      "Ġgegevens": 8465,
      "Ġvissen": 8466,
      "Ġvermoorden": 8467,
      "Ġdolly": 8468,
      "Ġpositie": 8469,
      "æĶ¾å¿ĥåĲ§": 8470,
      "Ġsilence": 8471,
      "Ġgevolg": 8472,
      "ĠOlive": 8473,
      "Ġziekenhuis": 8474,
      "gave": 8475,
      "ky": 8476,
      "Ġæīĵ": 8477,
      "ä¸°": 8478,
      "äº¿": 8479,
      "Ġcy": 8480,
      "Ġcab": 8481,
      "è¿°": 8482,
      "Ġstreng": 8483,
      "åĳĲ": 8484,
      "aced": 8485,
      "éĤ£éĩĮ": 8486,
      "Ġlevel": 8487,
      "ä»Ģä¹Īåĳ¢": 8488,
      "rouwd": 8489,
      "Ġtrots": 8490,
      "upid": 8491,
      "Ġpositieve": 8492,
      "ç£¨": 8493,
      "çĮ´åŃĲ": 8494,
      "Rose": 8495,
      "ias": 8496,
      "Ġberg": 8497,
      "itution": 8498,
      "Ġfright": 8499,
      "Ġfiets": 8500,
      "Ġinwoners": 8501,
      "æĺ¯æľĢ": 8502,
      "ä½łæľī": 8503,
      "ĠAN": 8504,
      "è·Ŀ": 8505,
      "èģļ": 8506,
      "åĲĪéĢĤ": 8507,
      "ç¡¬": 8508,
      "volking": 8509,
      "æĬ¥åĳĬ": 8510,
      "ĠåĵİåĳĢ": 8511,
      "åĲĦç§į": 8512,
      "æľªæĿ¥": 8513,
      "Ġvakantie": 8514,
      "ĠPhil": 8515,
      "Oke": 8516,
      "hee": 8517,
      "Ġmention": 8518,
      "Ġsize": 8519,
      "Ġbab": 8520,
      "Ġgentle": 8521,
      "ales": 8522,
      "Ġkogel": 8523,
      "æĪĳäºĨ": 8524,
      "Ġgegaan": 8525,
      "ä¼į": 8526,
      "åĬĿ": 8527,
      "Ġspullen": 8528,
      "å¯Ĵ": 8529,
      "åºĦ": 8530,
      "å¯¹åķĬ": 8531,
      "Ġdaarmee": 8532,
      "Ġterrit": 8533,
      "æĦŁåĪ°": 8534,
      "Ġways": 8535,
      "çĶµèĦĳ": 8536,
      "èĪħ": 8537,
      "Ġwrote": 8538,
      "æĽ´åĬł": 8539,
      "box": 8540,
      "æ»ļ": 8541,
      "Ġbescherm": 8542,
      "ĠMex": 8543,
      "Ġcommune": 8544,
      "æĮĳæĪĺ": 8545,
      "anamee": 8546,
      "veld": 8547,
      "Ġeiland": 8548,
      "Ġinfect": 8549,
      "igar": 8550,
      "æľ«": 8551,
      "Ġtemp": 8552,
      "ĠMary": 8553,
      "gew": 8554,
      "åįł": 8555,
      "ĠNational": 8556,
      "Ġwhose": 8557,
      "Ġkleding": 8558,
      "hys": 8559,
      "ä¾ĭ": 8560,
      "éĶĢ": 8561,
      "eltjes": 8562,
      "éĩįæĸ°": 8563,
      "æ¡¥": 8564,
      "clock": 8565,
      "Ġdisapp": 8566,
      "ĠâĮ": 8567,
      "Ġveranderd": 8568,
      "ologie": 8569,
      "æ´ĭæ´ĭ": 8570,
      "åİĨåı²": 8571,
      "Ġindeed": 8572,
      "Ġeggs": 8573,
      "Ġuiteindelijk": 8574,
      "Hel": 8575,
      "ĠæĿİ": 8576,
      "Ġself": 8577,
      "Ġzacht": 8578,
      "Ġcijf": 8579,
      "Ġthus": 8580,
      "rees": 8581,
      "Ġmeid": 8582,
      "raad": 8583,
      "Ġalcohol": 8584,
      "ä¼¦": 8585,
      "ĠWind": 8586,
      "ä¸Ĭåİ»": 8587,
      "è¾ĳ": 8588,
      "offee": 8589,
      "åıįåºĶ": 8590,
      "waarde": 8591,
      "ç¬¬ä¸Ģæ¬¡": 8592,
      "Probeer": 8593,
      "Ġgevaarlijk": 8594,
      "Ġcreated": 8595,
      "Ġzuurstof": 8596,
      "Daddy": 8597,
      "rr": 8598,
      "Ġwinkel": 8599,
      "Ġmelk": 8600,
      "Ġvogel": 8601,
      "edi": 8602,
      "child": 8603,
      "alph": 8604,
      "ĠNic": 8605,
      "æ²¡æĥ³åĪ°": 8606,
      "Ġshoul": 8607,
      "å¯¹åĲ§": 8608,
      "Ġexam": 8609,
      "çĻ»": 8610,
      "eph": 8611,
      "åħ³äºİ": 8612,
      "çŃīçĿĢ": 8613,
      "Ġeverybody": 8614,
      "Ġä½Ĩæĺ¯æĪĳ": 8615,
      "ĠAlan": 8616,
      "voer": 8617,
      "Ġinformation": 8618,
      "Ġholding": 8619,
      "regon": 8620,
      "ternational": 8621,
      "èĪĴæľį": 8622,
      "Ġdinosaur": 8623,
      "Ġcouncil": 8624,
      "bour": 8625,
      "cra": 8626,
      "hah": 8627,
      "Ġdw": 8628,
      "Ġsus": 8629,
      "Ġnon": 8630,
      "esse": 8631,
      "esley": 8632,
      "çļĦéĹ®é¢ĺ": 8633,
      "ishing": 8634,
      "Ġtoest": 8635,
      "ä¸įæĩĤ": 8636,
      "ament": 8637,
      "Ġerv": 8638,
      "å¤§äºº": 8639,
      "Ġgrown": 8640,
      "Ġeleph": 8641,
      "è¡Įä¸º": 8642,
      "ĠUS": 8643,
      "å¤ªéĺ³": 8644,
      "èĥ¸": 8645,
      "æŃ»èĢħ": 8646,
      "Ġ60": 8647,
      "ĠAmerika": 8648,
      "ibly": 8649,
      "uldig": 8650,
      "ification": 8651,
      "Ġofficer": 8652,
      "Ġpictures": 8653,
      "Ġincre": 8654,
      "Give": 8655,
      "Ġä»¥åĲİ": 8656,
      "Ġvet": 8657,
      "Ġlood": 8658,
      "Ġbezoek": 8659,
      "ä¸įçŁ¥": 8660,
      "Ġroof": 8661,
      "Ġgeme": 8662,
      "Ġstage": 8663,
      "ĠAct": 8664,
      "è¯´æĺ¯": 8665,
      "ĠJo": 8666,
      "Ġshr": 8667,
      "Ġshoot": 8668,
      "earch": 8669,
      "èĤļ": 8670,
      "Ġparts": 8671,
      "Ġgezin": 8672,
      "Ġkwal": 8673,
      "iction": 8674,
      "æ´»åĬ¨": 8675,
      "Ġinterview": 8676,
      "Ġslechts": 8677,
      "Ġintrodu": 8678,
      "Ġverdeeld": 8679,
      "Leg": 8680,
      "Ooh": 8681,
      "Tube": 8682,
      "bere": 8683,
      "zingen": 8684,
      "æĨ": 8685,
      "Ġdeden": 8686,
      "oorde": 8687,
      "oorlog": 8688,
      "leiding": 8689,
      "aded": 8690,
      "ä¸Ģä»¶": 8691,
      "Ġrose": 8692,
      "ç»ª": 8693,
      "Ġgras": 8694,
      "è½¯": 8695,
      "Ġbedankt": 8696,
      "Ġvertrouwen": 8697,
      "å°ĨåĨĽ": 8698,
      "Ġanswered": 8699,
      "Ġå·²": 8700,
      "ä»ĭç»į": 8701,
      "Ġbottom": 8702,
      ".-": 8703,
      "Com": 8704,
      "NA": 8705,
      "Sn": 8706,
      "ĠæĹ¢çĦ¶": 8707,
      "Ġduck": 8708,
      "Ġboeken": 8709,
      "Ġtowel": 8710,
      "äºĨè¿Ļ": 8711,
      "Ġrood": 8712,
      "Ġrich": 8713,
      "urdie": 8714,
      "ammer": 8715,
      "Ġverantwoord": 8716,
      "ago": 8717,
      "æĹ¦": 8718,
      "Ġaanwez": 8719,
      "æŀĿ": 8720,
      "Ġbron": 8721,
      "ipedia": 8722,
      "å®ŀéĻħ": 8723,
      "å¤ªå¤ª": 8724,
      "Ġremain": 8725,
      "Ġ2015": 8726,
      "ĠåĲĥ": 8727,
      "Ġturns": 8728,
      "ĠNederlands": 8729,
      "Ġattempt": 8730,
      "åĤħ": 8731,
      "é¢Ĩå¯¼": 8732,
      "Ġbasis": 8733,
      "ĠWashington": 8734,
      "especially": 8735,
      "SH": 8736,
      "aid": 8737,
      "bb": 8738,
      "lopen": 8739,
      "äºı": 8740,
      "Ġpaard": 8741,
      "ä¸įå¤ļ": 8742,
      "Ġforty": 8743,
      "Ġbright": 8744,
      "éĺ»": 8745,
      "å®ŀçİ°": 8746,
      "ĠStone": 8747,
      "èĤĸ": 8748,
      "æģ¨": 8749,
      "éĶģ": 8750,
      "Ġåĵ¦": 8751,
      "Ġcrash": 8752,
      "åķĨéĩı": 8753,
      "Ġstemmen": 8754,
      "schappelijke": 8755,
      "Ġkapitein": 8756,
      "lop": 8757,
      "Ġsum": 8758,
      "Ġzinnen": 8759,
      "Ġrare": 8760,
      "åľĨ": 8761,
      "ĠDad": 8762,
      "ribut": 8763,
      "æŃī": 8764,
      "Ġgram": 8765,
      "æĤĶ": 8766,
      "Ġbeginning": 8767,
      "Ġontsn": 8768,
      "Ġä¸įç®¡": 8769,
      "Ġshouldn": 8770,
      "Ġ2012": 8771,
      "åĮ»çĶŁ": 8772,
      "èģĶç³»": 8773,
      "COU": 8774,
      "beep": 8775,
      "Ġcal": 8776,
      "Ġkosten": 8777,
      "Ġenem": 8778,
      "æľīåı¯èĥ½": 8779,
      "å°±è¯´": 8780,
      "æ²Ī": 8781,
      "å¹´åīį": 8782,
      "Ġgebieden": 8783,
      "issing": 8784,
      "Ġneeded": 8785,
      "Ġtalked": 8786,
      "èį£": 8787,
      "æľĪäº®": 8788,
      "Hebben": 8789,
      "Ġfollowed": 8790,
      "Ġbrengt": 8791,
      "Ġrestaurant": 8792,
      "vocalizes": 8793,
      "LAN": 8794,
      "wise": 8795,
      "ĠæĽ´": 8796,
      "Ġpsych": 8797,
      "Ġki": 8798,
      "ä½łçİ°åľ¨": 8799,
      "oost": 8800,
      "ĠAre": 8801,
      "ĠMed": 8802,
      "ĠBang": 8803,
      "aped": 8804,
      "cted": 8805,
      "okk": 8806,
      "ĠJones": 8807,
      "Ġafspraak": 8808,
      "æĦıä¹ī": 8809,
      "æ¶Ĥ": 8810,
      "åĲĪåĲĮ": 8811,
      "Ġermee": 8812,
      "æĮºå¥½çļĦ": 8813,
      "Ġstanding": 8814,
      "ä¹łæĥ¯": 8815,
      "ĠAfrican": 8816,
      "æĮīçħ§": 8817,
      "Ġzomer": 8818,
      "Pre": 8819,
      "aj": 8820,
      "hood": 8821,
      "kle": 8822,
      "Ġtent": 8823,
      "Ġliter": 8824,
      "Ġear": 8825,
      "çļĦå¿ĥ": 8826,
      "æĪĳä¸Ģ": 8827,
      "Ġå¨": 8828,
      "ä¸įåİ»": 8829,
      "å°Ħ": 8830,
      "Ġalthough": 8831,
      "ikker": 8832,
      "åĩī": 8833,
      "Ġvolwassen": 8834,
      "Ġindust": 8835,
      "Ġeduc": 8836,
      "Ġjoden": 8837,
      "orpor": 8838,
      "ĠDuitse": 8839,
      "Ġcontinu": 8840,
      "Ġrichting": 8841,
      "Ġmajor": 8842,
      "Kids": 8843,
      "ts": 8844,
      "Ġpo": 8845,
      "Ġpad": 8846,
      "ä½łæĥ³": 8847,
      "oegen": 8848,
      "ĠHenry": 8849,
      "Ġfore": 8850,
      "ĠBill": 8851,
      "Ġrequ": 8852,
      "ending": 8853,
      "çīĻ": 8854,
      "èĢģé¼ł": 8855,
      "é¢Ŀ": 8856,
      "Ġminst": 8857,
      "Ġfuncties": 8858,
      "Ġprep": 8859,
      "å²Ľ": 8860,
      "èİ«": 8861,
      "Ġleggen": 8862,
      "Ġfollow": 8863,
      "ç§ĳåŃ¦": 8864,
      "ĠWikipedia": 8865,
      "åŃĺåľ¨": 8866,
      "Ġzomaar": 8867,
      "Ġspeciale": 8868,
      "ĠBosn": 8869,
      "pet": 8870,
      "wan": 8871,
      "Ġdur": 8872,
      "orpen": 8873,
      "Ġharm": 8874,
      "Ġlag": 8875,
      "asten": 8876,
      "ĠMat": 8877,
      "Ġalarm": 8878,
      "åİ¨": 8879,
      "abl": 8880,
      "Ġnaartoe": 8881,
      "Ġgraden": 8882,
      "keken": 8883,
      "Ġbye": 8884,
      "åī©": 8885,
      "æĸ¹æ³ķ": 8886,
      "èº«ä»½": 8887,
      "çĭ¸": 8888,
      "Ġsleut": 8889,
      "Ġzwarte": 8890,
      "Ġmilit": 8891,
      "åıĹåĪ°": 8892,
      "Ġtraining": 8893,
      "æ¸¸æĪı": 8894,
      "Ġprivate": 8895,
      "Ġkerel": 8896,
      "Ġåīį": 8897,
      "Ġsimilar": 8898,
      "AB": 8899,
      "book": 8900,
      "rel": 8901,
      "spr": 8902,
      "Ġochtend": 8903,
      "arry": 8904,
      "isme": 8905,
      "Ġtowards": 8906,
      "ĠAnt": 8907,
      "å¾Ĵ": 8908,
      "ĠKansas": 8909,
      "ä»Ģä¹Īäºĭ": 8910,
      "å¤©å¤©": 8911,
      "æĭ¾": 8912,
      "Ġexpress": 8913,
      "Ġhierheen": 8914,
      "ĠYouTube": 8915,
      "Ġvraagnummer": 8916,
      "Ġfilms": 8917,
      "Ġ2022": 8918,
      "åı¦å¤ĸ": 8919,
      "Ġmountain": 8920,
      "Ġhospital": 8921,
      "Jack": 8922,
      "jij": 8923,
      "vragen": 8924,
      "Ġpock": 8925,
      "Ġpants": 8926,
      "ĠæĪĳæĢİä¹Ī": 8927,
      "emorgen": 8928,
      "æĥħç»ª": 8929,
      "çŁ¥éģĵäºĨ": 8930,
      "Ġ35": 8931,
      "çħ§çīĩ": 8932,
      "Ġvroeger": 8933,
      "attle": 8934,
      "Ġlaughing": 8935,
      "Ġnecessary": 8936,
      "Am": 8937,
      "bi": 8938,
      "gro": 8939,
      "ters": 8940,
      "Ġwen": 8941,
      "Ġoce": 8942,
      "ored": 8943,
      "Ġpath": 8944,
      "Ġeh": 8945,
      "ä½łåİ»": 8946,
      "Ġraad": 8947,
      "Ġstoffen": 8948,
      "ĠTekst": 8949,
      "ĠGo": 8950,
      "ify": 8951,
      "Ġbeloof": 8952,
      "ĠStaten": 8953,
      "rence": 8954,
      "çĽ¸åħ³": 8955,
      "Ġmarriage": 8956,
      "æĢ»æĺ¯": 8957,
      "ç¡®å®ļ": 8958,
      "ĠAlleen": 8959,
      "Ġcurse": 8960,
      "Welkom": 8961,
      "Ġå¿ĥ": 8962,
      "Ġslechte": 8963,
      "ç«ŁçĦ¶": 8964,
      "Ġlikes": 8965,
      "Ġcomplet": 8966,
      "Ġbijzonder": 8967,
      "IL": 8968,
      "Lu": 8969,
      "Like": 8970,
      "Morgen": 8971,
      "viously": 8972,
      "èŁ": 8973,
      "Ġmaan": 8974,
      "Ġ..": 8975,
      "Ġsens": 8976,
      "iem": 8977,
      "ä¸įä»ħ": 8978,
      "Ġrib": 8979,
      "å¿ĥçļĦ": 8980,
      "Ġpeace": 8981,
      "Ġcheek": 8982,
      "ç©ºæ°Ķ": 8983,
      "Ġgeschiedenis": 8984,
      "åİĭåĬĽ": 8985,
      "ĠItalian": 8986,
      "wit": 8987,
      "eral": 8988,
      "ito": 8989,
      "Ġcast": 8990,
      "aardig": 8991,
      "derij": 8992,
      "ĠFord": 8993,
      "ĠKon": 8994,
      "Ġcharm": 8995,
      "è¿ĩçļĦ": 8996,
      "å°±æĺ¯æĪĳ": 8997,
      "è½®": 8998,
      "Ġusual": 8999,
      "åįģåħ«": 9000,
      "æ±ł": 9001,
      "Ġflat": 9002,
      "åĪĨäº«": 9003,
      "çĮľ": 9004,
      "iode": 9005,
      "Ġdelic": 9006,
      "ĠHierdoor": 9007,
      "Ġgesproken": 9008,
      "Ġengine": 9009,
      "Verdomme": 9010,
      "Ġlachen": 9011,
      "çĭĲçĭ¸": 9012,
      "ĠBrazil": 9013,
      "Ke": 9014,
      "bren": 9015,
      "tv": 9016,
      "vang": 9017,
      "Ġ;": 9018,
      "ĹçīĽ": 9019,
      "orgt": 9020,
      "Ġstru": 9021,
      "ĠTV": 9022,
      "ested": 9023,
      "ĠBird": 9024,
      "ĠWith": 9025,
      "Ġblow": 9026,
      "inkrijk": 9027,
      "FATHER": 9028,
      "æĶ¾åľ¨": 9029,
      "Ġapple": 9030,
      "Ġåħ¨": 9031,
      "Ġ2010": 9032,
      "Ġverlaten": 9033,
      "å¹³æĹ¶": 9034,
      "éħ¸": 9035,
      "åĩºæĿ¥çļĦ": 9036,
      "ä¸ĢçĽ´åľ¨": 9037,
      "Ġstudy": 9038,
      "èľĹçīĽ": 9039,
      "Ġjoin": 9040,
      "Ġinteresting": 9041,
      "Ġcustom": 9042,
      "Ġrecogn": 9043,
      "21": 9044,
      "Had": 9045,
      "ID": 9046,
      "Miss": 9047,
      "Two": 9048,
      "cast": 9049,
      "etjes": 9050,
      "Ġnone": 9051,
      "çļĦæķħäºĭ": 9052,
      "Ġkoud": 9053,
      "lei": 9054,
      "ä¸įä¸Ĭ": 9055,
      "ura": 9056,
      "Ġgeest": 9057,
      "Ġstars": 9058,
      "ilige": 9059,
      "Ġdans": 9060,
      "Jezus": 9061,
      "è´¾": 9062,
      "ç«ł": 9063,
      "éĽħ": 9064,
      "igenlijk": 9065,
      "Ġgezond": 9066,
      "Ġmagic": 9067,
      "fessor": 9068,
      "iÃ«nten": 9069,
      "Ġsuddenly": 9070,
      "Ġdestro": 9071,
      "Ġregering": 9072,
      "):": 9073,
      "Drie": 9074,
      "Ste": 9075,
      "big": 9076,
      "pardon": 9077,
      "ua": 9078,
      "wed": 9079,
      "Ġtax": 9080,
      "Ġdem": 9081,
      "Ġcause": 9082,
      "isper": 9083,
      "isatie": 9084,
      "oted": 9085,
      "icit": 9086,
      "unde": 9087,
      "Ġverp": 9088,
      "ĠTijdens": 9089,
      "Ġreag": 9090,
      "Ġspreek": 9091,
      "å¸Ń": 9092,
      "ĠLaw": 9093,
      "ĠFl": 9094,
      "romer": 9095,
      "Ġgetrouwd": 9096,
      "ä»Ģä¹Īéĥ½": 9097,
      "ç»ıåİĨ": 9098,
      "Ġminim": 9099,
      "å¥³æľĭåıĭ": 9100,
      "Ġbehalen": 9101,
      "Ġzwak": 9102,
      "Ġmission": 9103,
      "åıĶåıĶ": 9104,
      "Ġbrave": 9105,
      "Ġoploss": 9106,
      "45": 9107,
      "Tell": 9108,
      "wacht": 9109,
      "³å¦ĩ": 9110,
      "Ġhuwelijk": 9111,
      "oni": 9112,
      "Ġdemon": 9113,
      "iste": 9114,
      "ä»Ĺ": 9115,
      "ä½łä½ł": 9116,
      "iders": 9117,
      "Ġweekend": 9118,
      "raph": 9119,
      "è¿ĺèĥ½": 9120,
      "Ġschrijf": 9121,
      "Ġwhatever": 9122,
      "Ġnogal": 9123,
      "ograp": 9124,
      "Ġverliezen": 9125,
      "çĸĹ": 9126,
      "åĬłæ²¹": 9127,
      "æķ°æį®": 9128,
      "Leuk": 9129,
      "Nothing": 9130,
      "gasps": 9131,
      "Ġcrayon": 9132,
      "',": 9133,
      "down": 9134,
      "zing": 9135,
      "anje": 9136,
      "Ġbill": 9137,
      "Ġhistory": 9138,
      "Ġeager": 9139,
      "Ġziel": 9140,
      "Ġtoil": 9141,
      "äºĨåĳ¢": 9142,
      "rain": 9143,
      "ç»ķ": 9144,
      "Ġmocht": 9145,
      "oking": 9146,
      "ä¸ĭåĪĹ": 9147,
      "Ġschiet": 9148,
      "åĽ½çļĦ": 9149,
      "åįģåĪĨ": 9150,
      "çĲ´": 9151,
      "oci": 9152,
      "Ġ2016": 9153,
      "Ġcolour": 9154,
      "Ġpolitical": 9155,
      "Ġlieverd": 9156,
      "Ġwalking": 9157,
      "Ġemb": 9158,
      "Ġbeside": 9159,
      "æĵ¦": 9160,
      "ĠVerenigde": 9161,
      "Nick": 9162,
      "bet": 9163,
      "vat": 9164,
      "Ġä»Ĭ": 9165,
      "eters": 9166,
      "Ġvoll": 9167,
      "Ġhall": 9168,
      "çļĦæĥħåĨµ": 9169,
      "Ġcoffee": 9170,
      "Ġmeas": 9171,
      "å¥ĭ": 9172,
      "åİļ": 9173,
      "Ġspent": 9174,
      "ĠKijk": 9175,
      "å¯¹äºĨ": 9176,
      "åĩºçļĦ": 9177,
      "çİ°åľº": 9178,
      "Ġclimb": 9179,
      "Ġhelft": 9180,
      "ä½łä»¬çļĦ": 9181,
      "Ġliep": 9182,
      "æĶ¿çŃĸ": 9183,
      "Ġdiagram": 9184,
      "Ġluisteren": 9185,
      "kere": 9186,
      "lob": 9187,
      "pect": 9188,
      "rus": 9189,
      "Ġmug": 9190,
      "Ġgat": 9191,
      "isa": 9192,
      "ĠTen": 9193,
      "è¯´å®Į": 9194,
      "apl": 9195,
      "tered": 9196,
      "çº³": 9197,
      "Ġklim": 9198,
      "èĤ¥": 9199,
      "æįŁ": 9200,
      "ç¬¬ä¸Ģä¸ª": 9201,
      "éľĩ": 9202,
      "çĸ¯": 9203,
      "Ġcircle": 9204,
      "Ġbereiken": 9205,
      "Ġå¼Ģ": 9206,
      "å¿ĺäºĨ": 9207,
      "Ġgevangenis": 9208,
      "ĠRepublic": 9209,
      "60": 9210,
      "MAR": 9211,
      "Soms": 9212,
      "lk": 9213,
      "sorry": 9214,
      "Ġlied": 9215,
      "Ġpink": 9216,
      "Ġkromme": 9217,
      "æĪĳèĩªå·±": 9218,
      "sterd": 9219,
      "ä¸įç®¡": 9220,
      "aker": 9221,
      "ĠHello": 9222,
      "Ġerf": 9223,
      "ĠBowers": 9224,
      "äººäºĨ": 9225,
      "Ġä½łå¥½": 9226,
      "Ġate": 9227,
      "ĠReg": 9228,
      "Ġaffect": 9229,
      "onger": 9230,
      "Ġprocent": 9231,
      "çİ°å®ŀ": 9232,
      "æĪĳä»¬å°±": 9233,
      "Ġbodem": 9234,
      "Ġä»ĸè¯´": 9235,
      "Ġvertel": 9236,
      "Ġcontain": 9237,
      "çĮİ": 9238,
      "Ġstarts": 9239,
      "ä¿Ŀè¯ģ": 9240,
      "æĢ§çļĦ": 9241,
      "Ġaccording": 9242,
      "Ġbuik": 9243,
      "çĶ±äºİ": 9244,
      "è§Ĩé¢ĳ": 9245,
      "Ġdrop": 9246,
      "Ġappeared": 9247,
      "ĠAngola": 9248,
      "ĠWiki": 9249,
      "ĠGermany": 9250,
      "points": 9251,
      "ĠåºĶè¯¥": 9252,
      "Gay": 9253,
      "oeld": 9254,
      "Ġoom": 9255,
      "Ġsele": 9256,
      "Ġbased": 9257,
      "itor": 9258,
      "chan": 9259,
      "Ġzoo": 9260,
      "Ġfol": 9261,
      "çļĦçĶŁæ´»": 9262,
      "ä»²": 9263,
      "Ġsteden": 9264,
      "Ġwezen": 9265,
      "Ġdate": 9266,
      "ĠMom": 9267,
      "åįı": 9268,
      "ugu": 9269,
      "Ġblijkt": 9270,
      "åºŁ": 9271,
      "éĢĶ": 9272,
      "Ġè¿ĻéĩĮ": 9273,
      "achtbare": 9274,
      "Ġsluiten": 9275,
      "æ»´": 9276,
      "éĺŁä¼į": 9277,
      "Ġshowed": 9278,
      "æķĻèĤ²": 9279,
      "Ġattention": 9280,
      "Ġnames": 9281,
      "ä½¿çĶ¨": 9282,
      "Ġdistance": 9283,
      "çīĽå¥¶": 9284,
      "Ġcollect": 9285,
      "èİ·å¾Ĺ": 9286,
      "redenen": 9287,
      "ĠKlik": 9288,
      "Ġbecomes": 9289,
      "Ġbreath": 9290,
      "Ph": 9291,
      "tes": 9292,
      "yer": 9293,
      "zaak": 9294,
      "Ġespecially": 9295,
      "Ġda": 9296,
      "Ġler": 9297,
      "Ġcrying": 9298,
      "otion": 9299,
      "ĠSuper": 9300,
      "agn": 9301,
      "ĠæĪĳéĥ½": 9302,
      "ä»ĸå°±": 9303,
      "Ġmoed": 9304,
      "éĤ£æĺ¯": 9305,
      "ĠJul": 9306,
      "ĠOF": 9307,
      "isted": 9308,
      "Ġtwel": 9309,
      "Ġgren": 9310,
      "Ġminister": 9311,
      "ocrat": 9312,
      "Ġtotaal": 9313,
      "iana": 9314,
      "åĲ¬è§ģ": 9315,
      "æī¾æĪĳ": 9316,
      "åĺī": 9317,
      "Stel": 9318,
      "ä¸»ä»»": 9319,
      "Ġgemak": 9320,
      "Ġnumbers": 9321,
      "Ġkey": 9322,
      "ĠIndians": 9323,
      "Ġgestolen": 9324,
      "astern": 9325,
      "Ġverzam": 9326,
      "Ġincluding": 9327,
      "è¾Ľèĭ¦": 9328,
      "\")": 9329,
      "Could": 9330,
      "gent": 9331,
      "Ġzaad": 9332,
      "Ġcard": 9333,
      "Ġinderdaad": 9334,
      "ijnt": 9335,
      "ĠAL": 9336,
      "ĠMus": 9337,
      "ĠHelen": 9338,
      "ĠBo": 9339,
      "opdracht": 9340,
      "Ġasleep": 9341,
      "ĠRalph": 9342,
      "æĭĴ": 9343,
      "Ġminuut": 9344,
      "Ġ2013": 9345,
      "Ġdifference": 9346,
      "æıĲä¾Ľ": 9347,
      "è§Ĥå¯Ł": 9348,
      "Ġreligion": 9349,
      "æ£®æŀĹ": 9350,
      "present": 9351,
      "Haar": 9352,
      "bon": 9353,
      "best": 9354,
      "tain": 9355,
      "èª": 9356,
      "Ġbast": 9357,
      "Ġbeden": 9358,
      "Ġbatter": 9359,
      "eloos": 9360,
      "isse": 9361,
      "äºĨä¸Ģä¸ĭ": 9362,
      "ĠBy": 9363,
      "ĠCorn": 9364,
      "ĠPap": 9365,
      "ç»ĻäºĨ": 9366,
      "Zeker": 9367,
      "å±ģ": 9368,
      "Ġeveryone": 9369,
      "gelaten": 9370,
      "æľŁå¾ħ": 9371,
      "Ġexclaimed": 9372,
      "minist": 9373,
      "Ġresultaten": 9374,
      "ä¸¥éĩį": 9375,
      "Ġvoetbal": 9376,
      "Ġafgele": 9377,
      "Ġdetail": 9378,
      "Elke": 9379,
      "æ¤įçī©": 9380,
      "Ġverticale": 9381,
      "Ġtwelve": 9382,
      "Sam": 9383,
      "rust": 9384,
      "Ġwal": 9385,
      "Ġovere": 9386,
      "Ġsake": 9387,
      "Ġbod": 9388,
      "Ġinj": 9389,
      "èµŀ": 9390,
      "åĬ±": 9391,
      "Ġomsch": 9392,
      "æ¯ģ": 9393,
      "iao": 9394,
      "çº·": 9395,
      "åĿĩ": 9396,
      "icted": 9397,
      "Ġremark": 9398,
      "éª¨": 9399,
      "Ġsleeping": 9400,
      "Ġschatje": 9401,
      "Ġkeuze": 9402,
      "Ġelephant": 9403,
      "CK": 9404,
      "Toe": 9405,
      "kte": 9406,
      "onken": 9407,
      "asy": 9408,
      "æĪĳæĢİä¹Ī": 9409,
      "igr": 9410,
      "igt": 9411,
      "ĠæĪĳå°±æĺ¯": 9412,
      "Ġä½łçŁ¥éģĵ": 9413,
      "ĠNie": 9414,
      "Ġgetal": 9415,
      "Ġprocess": 9416,
      "Ġprins": 9417,
      "å¾Īéļ¾": 9418,
      "Ġclim": 9419,
      "æĽ¼": 9420,
      "Ġdraaien": 9421,
      "Ġprem": 9422,
      "boden": 9423,
      "äºĭåĦ¿åķĬ": 9424,
      "æĭ¿çĿĢ": 9425,
      "moet": 9426,
      "ĠAnge": 9427,
      "Wilt": 9428,
      "å®Ŀå®Ŀ": 9429,
      "199": 9430,
      "Ġå¾Ĺ": 9431,
      "ç¤¼çī©": 9432,
      "è±Ĩè±Ĩ": 9433,
      "Ġwoont": 9434,
      "Ġicecream": 9435,
      "otype": 9436,
      "Breng": 9437,
      "John": 9438,
      "ao": 9439,
      "dere": 9440,
      "ç¦ģ": 9441,
      "erste": 9442,
      "Ġgast": 9443,
      "Ġjun": 9444,
      "stru": 9445,
      "Ġåĥı": 9446,
      "Ġrand": 9447,
      "Ġmeeget": 9448,
      "åŃ¤": 9449,
      "apens": 9450,
      "ĠWer": 9451,
      "Ġshare": 9452,
      "ĠKong": 9453,
      "iforn": 9454,
      "Ġåıĳ": 9455,
      "Ġkleren": 9456,
      "å¹²åĺĽ": 9457,
      "Ġadvoc": 9458,
      "ç©·": 9459,
      "èĪª": 9460,
      "Ġvoelde": 9461,
      "Ġrefer": 9462,
      "draw": 9463,
      "Ġå¦Īå¦Ī": 9464,
      "ç§ĺå¯Ĩ": 9465,
      "Ġprachtig": 9466,
      "Ġmeegeteld": 9467,
      "25": 9468,
      "Ang": 9469,
      "Vind": 9470,
      "eeld": 9471,
      "hoor": 9472,
      "yed": 9473,
      "¹æŀľ": 9474,
      "Ġmap": 9475,
      "order": 9476,
      "æĪĳä¼ļ": 9477,
      "Ġbewij": 9478,
      "ä¸įåı¯èĥ½": 9479,
      "ĠSat": 9480,
      "å¥Ķ": 9481,
      "Ġgoats": 9482,
      "äººéĥ½": 9483,
      "ĠCol": 9484,
      "tens": 9485,
      "inks": 9486,
      "åħĪèµ°äºĨ": 9487,
      "iÃ«le": 9488,
      "æįķ": 9489,
      "Ġgroene": 9490,
      "Ġbreed": 9491,
      "æľīä¸ĢäºĽ": 9492,
      "çļĩä¸Ĭ": 9493,
      "Ġprotect": 9494,
      "ĠCarol": 9495,
      "éĵ¶è¡Į": 9496,
      "Ġdienst": 9497,
      "Jongens": 9498,
      "Kamba": 9499,
      "dog": 9500,
      "hr": 9501,
      "vle": 9502,
      "Ġhous": 9503,
      "esus": 9504,
      "Ġdepend": 9505,
      "ä¸įå®¹æĺĵ": 9506,
      "ĠMal": 9507,
      "ĠHeer": 9508,
      "æī«": 9509,
      "Ġhaalt": 9510,
      "Ġdansen": 9511,
      "Ġbloem": 9512,
      "Ġboard": 9513,
      "ffe": 9514,
      "åĸ½": 9515,
      "ertje": 9516,
      "èºº": 9517,
      "è¿Ļä¹Īè¯´": 9518,
      "é¥¼": 9519,
      "gebracht": 9520,
      "going": 9521,
      "Ġcattle": 9522,
      "Ġverband": 9523,
      "Ġgelukt": 9524,
      "Ġpromised": 9525,
      "Ġuitleggen": 9526,
      "Ġdivided": 9527,
      "Ind": 9528,
      "loop": 9529,
      "ti": 9530,
      "Ġtim": 9531,
      "Ġtone": 9532,
      "ini": 9533,
      "Ġbell": 9534,
      "Ġln": 9535,
      "Ġfellow": 9536,
      "rein": 9537,
      "è¿ª": 9538,
      "Ġrough": 9539,
      "ĠTweede": 9540,
      "ĠCong": 9541,
      "Ġè¿Ļæ¬¡": 9542,
      "Ġuncle": 9543,
      "æ³ª": 9544,
      "udd": 9545,
      "Ġarg": 9546,
      "Ġpercent": 9547,
      "èĥŀ": 9548,
      "cious": 9549,
      "Ġåħ¬": 9550,
      "gress": 9551,
      "Ġvoeren": 9552,
      "åıĺå¾Ĺ": 9553,
      "Ġgehaald": 9554,
      "Ġverkeerd": 9555,
      "voeren": 9556,
      "é£ŀæľº": 9557,
      "è¯ģæĺİ": 9558,
      "Ġmedicijn": 9559,
      "watch": 9560,
      "Ġexplos": 9561,
      "Ġkilometer": 9562,
      "Ġprogramma": 9563,
      "Ġreactie": 9564,
      "åª³å¦ĩ": 9565,
      "Ġpuzzle": 9566,
      "Ġsurprise": 9567,
      "ĠWindows": 9568,
      "Ġå·²ç»ı": 9569,
      "AG": 9570,
      "Listen": 9571,
      "fin": 9572,
      "pull": 9573,
      "Ġtab": 9574,
      "Ġox": 9575,
      "Ġzingen": 9576,
      "Ġstupid": 9577,
      "ĠHE": 9578,
      "ĠHere": 9579,
      "ĠNoord": 9580,
      "å¹ħ": 9581,
      "Ġwaard": 9582,
      "Ġafle": 9583,
      "Ġproject": 9584,
      "Ġå°Ĩ": 9585,
      "anson": 9586,
      "these": 9587,
      "Ġvracht": 9588,
      "Ġvertrekken": 9589,
      "æĶ¾å¼ĥ": 9590,
      "Ġkleuren": 9591,
      "èĭ¹æŀľ": 9592,
      "Ġmeaning": 9593,
      "ä¹Łä¸įä¼ļ": 9594,
      "ä¸ºä»Ģä¹Īè¦ģ": 9595,
      "çķĻä¸ĭ": 9596,
      "Ġinstrum": 9597,
      "Ġåıªæľī": 9598,
      "çŀİ": 9599,
      "ĠDaarom": 9600,
      "âĳ¢": 9601,
      "Ġcharge": 9602,
      "ç£ģ": 9603,
      "ĠKees": 9604,
      "ĠåĪļæīį": 9605,
      "Ġfemale": 9606,
      "jar": 9607,
      "pot": 9608,
      "riet": 9609,
      "west": 9610,
      "ysteem": 9611,
      "Ġtafel": 9612,
      "inse": 9613,
      "Ġhu": 9614,
      "çļĦä½ł": 9615,
      "è¿«": 9616,
      "ä¹ĸ": 9617,
      "Ġbewegen": 9618,
      "Ġmei": 9619,
      "irk": 9620,
      "antly": 9621,
      "Ġmod": 9622,
      "Ġspreekt": 9623,
      "Ġoverw": 9624,
      "Ġuitz": 9625,
      "ĠJim": 9626,
      "æĭĶ": 9627,
      "ç»Ļå¥¹": 9628,
      "Ġunless": 9629,
      "Ġdrugs": 9630,
      "Ġonderzoeken": 9631,
      "æĦıè¯Ĩ": 9632,
      "åįģäºĶ": 9633,
      "Ġtotale": 9634,
      "æŃ£å¥½": 9635,
      "åĲĮæĦı": 9636,
      "åĴ±ä¿©": 9637,
      "Ġspecies": 9638,
      "æĴ¤": 9639,
      "Ġrule": 9640,
      "æĲ¬": 9641,
      "Ġlegs": 9642,
      "Ġindruk": 9643,
      "incip": 9644,
      "Ġcircumcised": 9645,
      "History": 9646,
      "OO": 9647,
      "kort": 9648,
      "Ġtall": 9649,
      "Ġdrew": 9650,
      "ä¸Ģåľº": 9651,
      "Ġrang": 9652,
      "eegt": 9653,
      "genaam": 9654,
      "ĠToen": 9655,
      "ĠTurk": 9656,
      "çĶĺ": 9657,
      "ĠGro": 9658,
      "ĠNor": 9659,
      "ĠNPO": 9660,
      "schuw": 9661,
      "ç§¦": 9662,
      "æĬĬè¿Ļ": 9663,
      "Ġterror": 9664,
      "aving": 9665,
      "Ġbedrijf": 9666,
      "Ġsmoke": 9667,
      "Ġ[?": 9668,
      "èĦ¾": 9669,
      "izend": 9670,
      "izza": 9671,
      "æĽ´å¤ļ": 9672,
      "ouwen": 9673,
      "Ġå®ŀ": 9674,
      "ĠæĢİä¹Īæł·": 9675,
      "Ġmissed": 9676,
      "è°ĥæŁ¥": 9677,
      "Ġexpected": 9678,
      "Ġbirds": 9679,
      "Ġdefin": 9680,
      "ĠCommons": 9681,
      "Ġfilmpje": 9682,
      "ĠGeluid": 9683,
      "gaat": 9684,
[...]
