{
  "version": "1.0",
  "truncation": null,
  "padding": null,
  "added_tokens": [
    {
      "id": 0,
      "content": "<unk>",
      "single_word": false,
      "lstrip": false,
      "rstrip": false,
      "normalized": false,
      "special": true
    },
    {
      "id": 1,
      "content": "<s>",
      "single_word": false,
      "lstrip": false,
      "rstrip": false,
      "normalized": false,
      "special": true
    },
    {
      "id": 2,
      "content": "</s>",
      "single_word": false,
      "lstrip": false,
      "rstrip": false,
      "normalized": false,
      "special": true
    },
    {
      "id": 3,
      "content": "<pad>",
      "single_word": false,
      "lstrip": false,
      "rstrip": false,
      "normalized": false,
      "special": true
    },
    {
      "id": 4,
      "content": "<mask>",
      "single_word": false,
      "lstrip": false,
      "rstrip": false,
      "normalized": false,
      "special": true
    },
    {
      "id": 5,
      "content": "，",
      "single_word": false,
      "lstrip": false,
      "rstrip": false,
      "normalized": false,
      "special": true
    },
    {
      "id": 6,
      "content": "。",
      "single_word": false,
      "lstrip": false,
      "rstrip": false,
      "normalized": false,
      "special": true
    },
    {
      "id": 7,
      "content": "、",
      "single_word": false,
      "lstrip": false,
      "rstrip": false,
      "normalized": false,
      "special": true
    },
    {
      "id": 8,
      "content": "！",
      "single_word": false,
      "lstrip": false,
      "rstrip": false,
      "normalized": false,
      "special": true
    },
    {
      "id": 9,
      "content": "？",
      "single_word": false,
      "lstrip": false,
      "rstrip": false,
      "normalized": false,
      "special": true
    },
    {
      "id": 10,
      "content": "：",
      "single_word": false,
      "lstrip": false,
      "rstrip": false,
      "normalized": false,
      "special": true
    },
    {
      "id": 11,
      "content": "；",
      "single_word": false,
      "lstrip": false,
      "rstrip": false,
      "normalized": false,
      "special": true
    },
    {
      "id": 12,
      "content": "「",
      "single_word": false,
      "lstrip": false,
      "rstrip": false,
      "normalized": false,
      "special": true
    },
    {
      "id": 13,
      "content": "」",
      "single_word": false,
      "lstrip": false,
      "rstrip": false,
      "normalized": false,
      "special": true
    },
    {
      "id": 14,
      "content": "（",
      "single_word": false,
      "lstrip": false,
      "rstrip": false,
      "normalized": false,
      "special": true
    },
    {
      "id": 15,
      "content": "）",
      "single_word": false,
      "lstrip": false,
      "rstrip": false,
      "normalized": false,
      "special": true
    },
    {
      "id": 16,
      "content": "《",
      "single_word": false,
      "lstrip": false,
      "rstrip": false,
      "normalized": false,
      "special": true
    },
    {
      "id": 17,
      "content": "》",
      "single_word": false,
      "lstrip": false,
      "rstrip": false,
      "normalized": false,
      "special": true
    },
    {
      "id": 18,
      "content": "【",
      "single_word": false,
      "lstrip": false,
      "rstrip": false,
      "normalized": false,
      "special": true
    },
    {
      "id": 19,
      "content": "】",
      "single_word": false,
      "lstrip": false,
      "rstrip": false,
      "normalized": false,
      "special": true
    }
  ],
  "normalizer": null,
  "pre_tokenizer": {
    "type": "ByteLevel",
    "add_prefix_space": false,
    "trim_offsets": true,
    "use_regex": true
  },
  "post_processor": {
    "type": "ByteLevel",
    "add_prefix_space": true,
    "trim_offsets": false,
    "use_regex": true
  },
  "decoder": {
    "type": "ByteLevel",
    "add_prefix_space": true,
    "trim_offsets": true,
    "use_regex": true
  },
  "model": {
    "type": "BPE",
    "dropout": null,
    "unk_token": null,
    "continuing_subword_prefix": null,
    "end_of_word_suffix": null,
    "fuse_unk": false,
    "byte_fallback": false,
    "ignore_merges": false,
    "vocab": {
      "<unk>": 0,
      "<s>": 1,
      "</s>": 2,
      "<pad>": 3,
      "<mask>": 4,
      "，": 5,
      "。": 6,
      "、": 7,
      "！": 8,
      "？": 9,
      "：": 10,
      "；": 11,
      "「": 12,
      "」": 13,
      "（": 14,
      "）": 15,
      "《": 16,
      "》": 17,
      "【": 18,
      "】": 19,
      "!": 20,
      "\"": 21,
      "#": 22,
      "$": 23,
      "%": 24,
      "&": 25,
      "'": 26,
      "(": 27,
      ")": 28,
      "*": 29,
      "+": 30,
      ",": 31,
      "-": 32,
      ".": 33,
      "/": 34,
      "0": 35,
      "1": 36,
      "2": 37,
      "3": 38,
      "4": 39,
      "5": 40,
      "6": 41,
      "7": 42,
      "8": 43,
      "9": 44,
      ":": 45,
      ";": 46,
      "<": 47,
      "=": 48,
      ">": 49,
      "?": 50,
      "@": 51,
      "A": 52,
      "B": 53,
      "C": 54,
      "D": 55,
      "E": 56,
      "F": 57,
      "G": 58,
      "H": 59,
      "I": 60,
      "J": 61,
      "K": 62,
      "L": 63,
      "M": 64,
      "N": 65,
      "O": 66,
      "P": 67,
      "Q": 68,
      "R": 69,
      "S": 70,
      "T": 71,
      "U": 72,
      "V": 73,
      "W": 74,
      "X": 75,
      "Y": 76,
      "Z": 77,
      "[": 78,
      "\\": 79,
      "]": 80,
      "^": 81,
      "_": 82,
      "`": 83,
      "a": 84,
      "b": 85,
      "c": 86,
      "d": 87,
      "e": 88,
      "f": 89,
      "g": 90,
      "h": 91,
      "i": 92,
      "j": 93,
      "k": 94,
      "l": 95,
      "m": 96,
      "n": 97,
      "o": 98,
      "p": 99,
      "q": 100,
      "r": 101,
      "s": 102,
      "t": 103,
      "u": 104,
      "v": 105,
      "w": 106,
      "x": 107,
      "y": 108,
      "z": 109,
      "{": 110,
      "|": 111,
      "}": 112,
      "~": 113,
      "¡": 114,
      "¢": 115,
      "£": 116,
      "¤": 117,
      "¥": 118,
      "¦": 119,
      "§": 120,
      "¨": 121,
      "©": 122,
      "ª": 123,
      "«": 124,
      "¬": 125,
      "®": 126,
      "¯": 127,
      "°": 128,
      "±": 129,
      "²": 130,
      "³": 131,
      "´": 132,
      "µ": 133,
      "¶": 134,
      "·": 135,
      "¸": 136,
      "¹": 137,
      "º": 138,
      "»": 139,
      "¼": 140,
      "½": 141,
      "¾": 142,
      "¿": 143,
      "À": 144,
      "Á": 145,
      "Â": 146,
      "Ã": 147,
      "Ä": 148,
      "Å": 149,
      "Æ": 150,
      "Ç": 151,
      "È": 152,
      "É": 153,
      "Ê": 154,
      "Ë": 155,
      "Ì": 156,
      "Í": 157,
      "Î": 158,
      "Ï": 159,
      "Ð": 160,
      "Ñ": 161,
      "Ò": 162,
      "Ó": 163,
      "Ô": 164,
      "Õ": 165,
      "Ö": 166,
      "×": 167,
      "Ø": 168,
      "Ù": 169,
      "Ú": 170,
      "Û": 171,
      "Ü": 172,
      "Ý": 173,
      "Þ": 174,
      "ß": 175,
      "à": 176,
      "á": 177,
      "â": 178,
      "ã": 179,
      "ä": 180,
      "å": 181,
      "æ": 182,
      "ç": 183,
      "è": 184,
      "é": 185,
      "ê": 186,
      "ë": 187,
      "ì": 188,
      "í": 189,
      "î": 190,
      "ï": 191,
      "ð": 192,
      "ñ": 193,
      "ò": 194,
      "ó": 195,
      "ô": 196,
      "õ": 197,
      "ö": 198,
      "÷": 199,
      "ø": 200,
      "ù": 201,
      "ú": 202,
      "û": 203,
      "ü": 204,
      "ý": 205,
      "þ": 206,
      "ÿ": 207,
      "Ā": 208,
      "ā": 209,
      "Ă": 210,
      "ă": 211,
      "Ą": 212,
      "ą": 213,
      "Ć": 214,
      "ć": 215,
      "Ĉ": 216,
      "ĉ": 217,
      "Ċ": 218,
      "ċ": 219,
      "Č": 220,
      "č": 221,
      "Ď": 222,
      "ď": 223,
      "Đ": 224,
      "đ": 225,
      "Ē": 226,
      "ē": 227,
      "Ĕ": 228,
      "ĕ": 229,
      "Ė": 230,
      "ė": 231,
      "Ę": 232,
      "ę": 233,
      "Ě": 234,
      "ě": 235,
      "Ĝ": 236,
      "ĝ": 237,
      "Ğ": 238,
      "ğ": 239,
      "Ġ": 240,
      "ġ": 241,
      "Ģ": 242,
      "ģ": 243,
      "Ĥ": 244,
      "ĥ": 245,
      "Ħ": 246,
      "ħ": 247,
      "Ĩ": 248,
      "ĩ": 249,
      "Ī": 250,
      "ī": 251,
      "Ĭ": 252,
      "ĭ": 253,
      "Į": 254,
      "į": 255,
      "İ": 256,
      "ı": 257,
      "Ĳ": 258,
      "ĳ": 259,
      "Ĵ": 260,
      "ĵ": 261,
      "Ķ": 262,
      "ķ": 263,
      "ĸ": 264,
      "Ĺ": 265,
      "ĺ": 266,
      "Ļ": 267,
      "ļ": 268,
      "Ľ": 269,
      "ľ": 270,
      "Ŀ": 271,
      "ŀ": 272,
      "Ł": 273,
      "ł": 274,
      "Ń": 275,
      "en": 276,
      "er": 277,
      "Ġt": 278,
      "an": 279,
      "he": 280,
      "Ġd": 281,
      "in": 282,
      "Ġw": 283,
      "at": 284,
      "Ġo": 285,
      "Ġm": 286,
      "Ġ.": 287,
      "Ġa": 288,
      "Ġs": 289,
      "Ġb": 290,
      "ä¸": 291,
      "ou": 292,
      "Ġi": 293,
      "et": 294,
      "Ġg": 295,
      "or": 296,
      "ar": 297,
      "Ġv": 298,
      "el": 299,
      "Ġh": 300,
      "ij": 301,
      "Ġn": 302,
      "Ġthe": 303,
      "on": 304,
      "es": 305,
      "Ġhe": 306,
      "ed": 307,
      "Ġde": 308,
      "it": 309,
      "ing": 310,
      "äº": 311,
      "ch": 312,
      "Ġl": 313,
      "Ġp": 314,
      "Ġe": 315,
      "and": 316,
      "Ġz": 317,
      "Ġf": 318,
      "çļ": 319,
      "çļĦ": 320,
      "al": 321,
      "Ġc": 322,
      "Ġin": 323,
      "is": 324,
      "Ġk": 325,
      "Ġj": 326,
      "Ġth": 327,
      "re": 328,
      "as": 329,
      "om": 330,
      "Ġto": 331,
      "ä»": 332,
      "ie": 333,
      "æĪ": 334,
      "Ġis": 335,
      "OT": 336,
      "MOT": 337,
      "ä½": 338,
      "Ġy": 339,
      "aar": 340,
      "è¿": 341,
      "æĪĳ": 342,
      "æĺ": 343,
      "ll": 344,
      "Ġ,": 345,
      "Ġyou": 346,
      "Ġof": 347,
      "CH": 348,
      "CHI": 349,
      "ig": 350,
      "ot": 351,
      "st": 352,
      "Ġand": 353,
      "æĺ¯": 354,
      "ĠI": 355,
      "Ġeen": 356,
      "Ġje": 357,
      "Ġon": 358,
      "ä½ł": 359,
      "Ġhet": 360,
      "oor": 361,
      "le": 362,
      "Ġå": 363,
      "äºĨ": 364,
      "æľ": 365,
      "oo": 366,
      "Ġvan": 367,
      "ad": 368,
      "ä¹": 369,
      "ere": 370,
      "å¤": 371,
      "Ġbe": 372,
      "id": 373,
      "Ġu": 374,
      "Ġ?": 375,
      "'s": 376,
      "åĲ": 377,
      "ow": 378,
      "ä¸Ģ": 379,
      "ä¸į": 380,
      "Ġr": 381,
      "Ġen": 382,
      "..": 383,
      "ve": 384,
      "Ġme": 385,
      "åı": 386,
      "ur": 387,
      "Ġge": 388,
      "ut": 389,
      "Ġst": 390,
      "ak": 391,
      "Ġit": 392,
      "am": 393,
      "å°": 394,
      "Ġwe": 395,
      "iet": 396,
      "ijn": 397,
      "ay": 398,
      "è¯": 399,
      "è¿Ļ": 400,
      "il": 401,
      "ic": 402,
      "ver": 403,
      "ent": 404,
      "ra": 405,
      "Ġwas": 406,
      "Ġop": 407,
      "å®": 408,
      "un": 409,
      "Ġver": 410,
      "cht": 411,
      "åľ": 412,
      "oe": 413,
      "ee": 414,
      "Ġdat": 415,
      "åĪ": 416,
      "gen": 417,
      "Ġthat": 418,
      "de": 419,
      "Ġniet": 420,
      "Ġwh": 421,
      "den": 422,
      "æĿ": 423,
      "ä¸ª": 424,
      "ĠA": 425,
      "Ik": 426,
      "se": 427,
      "æľī": 428,
      "Ġte": 429,
      "ĠS": 430,
      "åħ": 431,
      "ĠD": 432,
      "ĠM": 433,
      "ro": 434,
      "å¥": 435,
      "Ġik": 436,
      "Ġdo": 437,
      "ĠT": 438,
      "im": 439,
      "ag": 440,
      "ol": 441,
      "est": 442,
      "Ġal": 443,
      "der": 444,
      "'t": 445,
      "ken": 446,
      "th": 447,
      "ir": 448,
      "ant": 449,
      "åĳ": 450,
      "ĠH": 451,
      "ik": 452,
      "ĥ½": 453,
      "ac": 454,
      "ijk": 455,
      "Ġfor": 456,
      "ven": 457,
      "Ġer": 458,
      "ht": 459,
      "æī": 460,
      "åŃ": 461,
      "ft": 462,
      "ç»": 463,
      "ä»¬": 464,
      "Ġ'": 465,
      "å¾": 466,
      "Ġgo": 467,
      "å°±": 468,
      "ly": 469,
      "åľ¨": 470,
      "ĠB": 471,
      "Ġmet": 472,
      "us": 473,
      "ä¹Ī": 474,
      "ion": 475,
      "Ġvoor": 476,
      "ĠæĪĳ": 477,
      "ãĢ": 478,
      "åķ": 479,
      "ä»ĸ": 480,
      "æĿ¥": 481,
      "op": 482,
      "ell": 483,
      "Ġzijn": 484,
      "ld": 485,
      "Ġha": 486,
      "æĹ": 487,
      "äºº": 488,
      "Ġre": 489,
      "Ġze": 490,
      "ge": 491,
      "çĶ": 492,
      "ier": 493,
      "çľ": 494,
      "ill": 495,
      "Ġ1": 496,
      "ĠC": 497,
      "è¯´": 498,
      "ith": 499,
      "Ġheb": 500,
      "Ġ...": 501,
      "Ġmo": 502,
      "Ġwor": 503,
      "ers": 504,
      "ãĢĤ": 505,
      "ä¼": 506,
      "ap": 507,
      "åĽ": 508,
      "éĤ": 509,
      "Ġall": 510,
      "aat": 511,
      "ight": 512,
      "åķĬ": 513,
      "éĤ£": 514,
      "Ġno": 515,
      "ome": 516,
      "ct": 517,
      "Ġä½ł": 518,
      "Ġdie": 519,
      "Ġan": 520,
      "æĢ": 521,
      "ĠW": 522,
      "em": 523,
      "ter": 524,
      "Ġwith": 525,
      "åİ": 526,
      "Ġaan": 527,
      "ri": 528,
      "æĥ": 529,
      "ĠP": 530,
      "æ²": 531,
      "èµ": 532,
      "ok": 533,
      "¦ģ": 534,
      "å¥½": 535,
      "éĩ": 536,
      "è¦ģ": 537,
      "xx": 538,
      "um": 539,
      "Ġnot": 540,
      "hat": 541,
      "aan": 542,
      "åį": 543,
      "ul": 544,
      "Ġle": 545,
      "all": 546,
      "ze": 547,
      "è®": 548,
      "åĬ": 549,
      "Ġas": 550,
      "ust": 551,
      "è§": 552,
      "ah": 553,
      "ce": 554,
      "èĢ": 555,
      "ould": 556,
      "nd": 557,
      "å¿": 558,
      "Ġ\"": 559,
      "Ġhad": 560,
      "ĠE": 561,
      "Ġsp": 562,
      "je": 563,
      "åĩ": 564,
      "åĪ°": 565,
      "ĠG": 566,
      "Ġhave": 567,
      "ind": 568,
      "Ġover": 569,
      "ä¸Ĭ": 570,
      "ĠN": 571,
      "te": 572,
      "eld": 573,
      "å·": 574,
      "æĬ": 575,
      "Ġkn": 576,
      "Ġ2": 577,
      "å¤§": 578,
      "Ġwat": 579,
      "åŃĲ": 580,
      "Ġuit": 581,
      "Ġom": 582,
      "å¹": 583,
      "Ġat": 584,
      "Ġpl": 585,
      "Ġals": 586,
      "å¼": 587,
      "å¸": 588,
      "çİ": 589,
      "æ²¡": 590,
      "ood": 591,
      "ä¹Ł": 592,
      "ĠJ": 593,
      "Ġher": 594,
      "Ġare": 595,
      "os": 596,
      "åĨ": 597,
      "ten": 598,
      "Ġthis": 599,
      "ĠR": 600,
      "å¯": 601,
      "ook": 602,
      "è¿ĺ": 603,
      "éĥ½": 604,
      "...": 605,
      "be": 606,
      "ĠO": 607,
      "Ġzo": 608,
      "å¾Ĺ": 609,
      "Ġne": 610,
      "ĠL": 611,
      "Ġsh": 612,
      "åİ»": 613,
      "Ġdan": 614,
      "èĥ½": 615,
      "we": 616,
      "Ġshe": 617,
      "ug": 618,
      "ä¼ļ": 619,
      "çľĭ": 620,
      "æł": 621,
      "ien": 622,
      "æĸ": 623,
      "ä¸º": 624,
      "art": 625,
      "Ġone": 626,
      "Ġcan": 627,
      "éĹ": 628,
      "ab": 629,
      "rou": 630,
      "ang": 631,
      "è·": 632,
      "We": 633,
      "aal": 634,
      "ĠF": 635,
      "Ħ¿": 636,
      "Ġbl": 637,
      "Ġ!": 638,
      "ast": 639,
      "ess": 640,
      "æŃ": 641,
      "æĹ¶": 642,
      "Ġ(": 643,
      "eah": 644,
      "ink": 645,
      "åĵ": 646,
      "çĿ": 647,
      "ru": 648,
      "Ġman": 649,
      "nen": 650,
      "Ġmaar": 651,
      "ä»¥": 652,
      "ist": 653,
      "å¦": 654,
      "pp": 655,
      "Ġnaar": 656,
      "rom": 657,
      "Ġyour": 658,
      "å°ı": 659,
      "Ġknow": 660,
      "sen": 661,
      "elijk": 662,
      "ĠK": 663,
      "Ġmy": 664,
      "ain": 665,
      "ond": 666,
      "Ġdon": 667,
      "Ġwaar": 668,
      "Het": 669,
      "åĦ¿": 670,
      "Ġget": 671,
      "Ġup": 672,
      "ä»Ģ": 673,
      "her": 674,
      "Ġthey": 675,
      "åĴ": 676,
      "ä»Ģä¹Ī": 677,
      "Ġthere": 678,
      "AT": 679,
      "You": 680,
      "ike": 681,
      "Ã©": 682,
      "ry": 683,
      "Ġor": 684,
      "rij": 685,
      "ä¸ĭ": 686,
      "å¤©": 687,
      "ich": 688,
      "è¡": 689,
      "uur": 690,
      "ard": 691,
      "ĠDe": 692,
      "éģ": 693,
      "Ġtw": 694,
      "out": 695,
      "éĿ": 696,
      "Ġch": 697,
      "Ġmoet": 698,
      "Ġsch": 699,
      "Ġso": 700,
      "if": 701,
      "Ġbij": 702,
      "eer": 703,
      "Ġdoor": 704,
      "äºĭ": 705,
      "Je": 706,
      "åı¯": 707,
      "å®¶": 708,
      "èĩ": 709,
      "Ġhis": 710,
      "çĽ": 711,
      "een": 712,
      "æĥ³": 713,
      "ake": 714,
      "eft": 715,
      "Ġwhat": 716,
      "è¿ĩ": 717,
      "ä¸Ģä¸ª": 718,
      "ĠThe": 719,
      "oh": 720,
      "ull": 721,
      "IN": 722,
      "Ġben": 723,
      "åĳ¢": 724,
      "sch": 725,
      "çĪ": 726,
      "AR": 727,
      "åº": 728,
      "Ġaf": 729,
      "Ġkan": 730,
      "åĲİ": 731,
      "Ġhij": 732,
      "ck": 733,
      "Ġwel": 734,
      "ĠV": 735,
      "éĢ": 736,
      "Ġ-": 737,
      "çĿĢ": 738,
      "ong": 739,
      "Ġsa": 740,
      "Ġout": 741,
      "æķ": 742,
      "'re": 743,
      "end": 744,
      "åĲĹ": 745,
      "Ġè¿Ļ": 746,
      "Ġpro": 747,
      "De": 748,
      "ies": 749,
      "å¯¹": 750,
      "aak": 751,
      "acht": 752,
      "Ġab": 753,
      "ank": 754,
      "Ġwer": 755,
      "Ġlike": 756,
      "Ġgr": 757,
      "æĦ": 758,
      "Ġbut": 759,
      "ore": 760,
      "ine": 761,
      "Ġel": 762,
      "ack": 763,
      "è°": 764,
      "Ġwil": 765,
      "æĭ": 766,
      "INV": 767,
      "éĩĮ": 768,
      "Ġex": 769,
      "åĲ§": 770,
      "æŀ": 771,
      "æ¯": 772,
      "eel": 773,
      "Wat": 774,
      "ation": 775,
      "çŁ": 776,
      "Ġook": 777,
      "å¤ļ": 778,
      "The": 779,
      "Dat": 780,
      "çī": 781,
      "Ġfrom": 782,
      "Ġheeft": 783,
      "åĩº": 784,
      "æ°": 785,
      "çĤ": 786,
      "xxx": 787,
      "ç§": 788,
      "çĶŁ": 789,
      "çİ°": 790,
      "you": 791,
      "one": 792,
      "Ġhier": 793,
      "Ġword": 794,
      "Ġnog": 795,
      "Ġpr": 796,
      "qu": 797,
      "ive": 798,
      "Ġkun": 799,
      "å½": 800,
      "Ġsu": 801,
      "åľ°": 802,
      "Ġcon": 803,
      "éģĵ": 804,
      "ijd": 805,
      "æĪĳä»¬": 806,
      "ç»Ļ": 807,
      "ame": 808,
      "Ġhim": 809,
      "èĩª": 810,
      "ben": 811,
      "no": 812,
      "che": 813,
      "Ġsee": 814,
      "Ġwant": 815,
      "ber": 816,
      "Ġgot": 817,
      "au": 818,
      "Ze": 819,
      "çĦ": 820,
      "Ġdit": 821,
      "Ġmijn": 822,
      "Ġdid": 823,
      "Ġcom": 824,
      "od": 825,
      "elf": 826,
      "Ġkom": 827,
      "here": 828,
      "'ll": 829,
      "Ġsome": 830,
      "ke": 831,
      "æĶ": 832,
      "è¾": 833,
      "00": 834,
      "Ġwere": 835,
      "ET": 836,
      "ls": 837,
      "ä¸Ń": 838,
      "Ġwill": 839,
      "'m": 840,
      "Ġby": 841,
      "LD": 842,
      "è¿Ļä¸ª": 843,
      "åģ": 844,
      "çĦ¶": 845,
      "our": 846,
      "En": 847,
      "ste": 848,
      "æ¬": 849,
      "è·Ł": 850,
      "na": 851,
      "Ġbr": 852,
      "og": 853,
      "CHILD": 854,
      "oed": 855,
      "åĢ": 856,
      "ree": 857,
      "ort": 858,
      "Ġmen": 859,
      "çĤ¹": 860,
      "Ġhebben": 861,
      "Ġse": 862,
      "iv": 863,
      "own": 864,
      "Ġgoed": 865,
      "åĴĮ": 866,
      "Ġthem": 867,
      ".\"": 868,
      "å¿ĥ": 869,
      "what": 870,
      "ip": 871,
      "æł·": 872,
      "TAR": 873,
      "GET": 874,
      "TARGET": 875,
      "Ġdeze": 876,
      "aten": 877,
      "itt": 878,
      "æİ": 879,
      "ally": 880,
      "Ġabout": 881,
      "ä¿": 882,
      "FAT": 883,
      "æĢİ": 884,
      "Ġhem": 885,
      "ĠIn": 886,
      "Ġbo": 887,
      "pen": 888,
      "Ġsaid": 889,
      "çŁ¥": 890,
      "å°±æĺ¯": 891,
      "He": 892,
      "Ġbet": 893,
      "Ġthink": 894,
      "Ġå°": 895,
      "æ²¡æľī": 896,
      "eren": 897,
      "èĢģ": 898,
      "oug": 899,
      "Ġun": 900,
      "æĬĬ": 901,
      "è´": 902,
      "æĢİä¹Ī": 903,
      "ick": 904,
      "uk": 905,
      "åĮ": 906,
      "Ġwordt": 907,
      "orm": 908,
      "ff": 909,
      "ä¸įæĺ¯": 910,
      "å¾Ī": 911,
      "Ġthen": 912,
      "Ġif": 913,
      "å±": 914,
      "åĳĢ": 915,
      "Ġ19": 916,
      "Ġhere": 917,
      "èµ·": 918,
      "ia": 919,
      "ide": 920,
      "Ġgeen": 921,
      "åī": 922,
      "oek": 923,
      "ingen": 924,
      "å§": 925,
      "ings": 926,
      "'ve": 927,
      "ite": 928,
      "la": 929,
      "éķ": 930,
      "to": 931,
      "Ġworden": 932,
      "Hij": 933,
      "Ġwould": 934,
      "uis": 935,
      "Ġdr": 936,
      "ice": 937,
      "oord": 938,
      "oon": 939,
      "çľŁ": 940,
      "Ġlook": 941,
      "ate": 942,
      "ĠéĤ£": 943,
      "çŃ": 944,
      "pl": 945,
      "è¡Į": 946,
      "ĠHe": 947,
      "Ġmeer": 948,
      "å¼Ģ": 949,
      "per": 950,
      "uit": 951,
      "ets": 952,
      "æ³": 953,
      "è½": 954,
      "Ġhaar": 955,
      "æĮ": 956,
      "Ġjust": 957,
      "Ġsay": 958,
      "Ġgaan": 959,
      "å¹´": 960,
      "Ġwho": 961,
      "ele": 962,
      "åĽŀ": 963,
      "éĻ": 964,
      "hing": 965,
      "éĿ¢": 966,
      "Ġany": 967,
      "aken": 968,
      "åĽ½": 969,
      "éķ¿": 970,
      "pt": 971,
      "are": 972,
      "Ġright": 973,
      "yeah": 974,
      "Ġus": 975,
      "ous": 976,
      "Ġgeb": 977,
      "åĪ«": 978,
      "è¯Ŀ": 979,
      "mer": 980,
      "icht": 981,
      "elen": 982,
      "Ġhas": 983,
      "Ġonder": 984,
      "Ġdaar": 985,
      "Ġsn": 986,
      "é¢": 987,
      "way": 988,
      "eten": 989,
      "ime": 990,
      "eden": 991,
      "ä¹ĭ": 992,
      "æĥħ": 993,
      "æ´": 994,
      "Ġter": 995,
      "unt": 996,
      "ige": 997,
      "ose": 998,
      "æīĢ": 999,
      "è§ī": 1000,
      "that": 1001,
      "éĺ": 1002,
      "Ġjij": 1003,
      "Ġgra": 1004,
      "It": 1005,
      "iek": 1006,
      "lijk": 1007,
      "åĸ": 1008,
      "Ġnow": 1009,
      "other": 1010,
      "Ġgoing": 1011,
      "av": 1012,
      "Ġbeen": 1013,
      "Ġbel": 1014,
      "ittle": 1015,
      "Ġwhen": 1016,
      "å¦Ī": 1017,
      "æĤ": 1018,
      "çŁ¥éģĵ": 1019,
      ",\"": 1020,
      "çº": 1021,
      "æĦı": 1022,
      "Ġoff": 1023,
      "ĠCh": 1024,
      "å·±": 1025,
      "ç»ı": 1026,
      "åıĳ": 1027,
      "ect": 1028,
      "æĪĲ": 1029,
      "å¥¹": 1030,
      "ker": 1031,
      "zen": 1032,
      "Ġhand": 1033,
      "Ġzou": 1034,
      "Ġnu": 1035,
      "ew": 1036,
      "ullie": 1037,
      "åįģ": 1038,
      "èĩªå·±": 1039,
      "Ġweet": 1040,
      "age": 1041,
      "Ġdoen": 1042,
      "Ġsl": 1043,
      "ĠIt": 1044,
      "ost": 1045,
      "Ġcould": 1046,
      "çĻ": 1047,
      "ä½Ĩ": 1048,
      "èµ°": 1049,
      "Ġvol": 1050,
      "å®ŀ": 1051,
      "].": 1052,
      "yes": 1053,
      "ool": 1054,
      "ek": 1055,
      "çĲ": 1056,
      "In": 1057,
      "åĢĻ": 1058,
      "Waar": 1059,
      "ĠZ": 1060,
      "å®ļ": 1061,
      "æľĢ": 1062,
      "ĠSt": 1063,
      "Ġbeg": 1064,
      "Ġgew": 1065,
      "çİ°åľ¨": 1066,
      "Ġ3": 1067,
      "Ġåı": 1068,
      "Ġro": 1069,
      "bl": 1070,
      "åģļ": 1071,
      "Ġlittle": 1072,
      "Ġag": 1073,
      "Ġhou": 1074,
      "Yeah": 1075,
      "ear": 1076,
      "ound": 1077,
      "rouw": 1078,
      "è®©": 1079,
      "ren": 1080,
      "Ġback": 1081,
      "gt": 1082,
      "ans": 1083,
      "men": 1084,
      "æīĵ": 1085,
      "æĹ¶åĢĻ": 1086,
      "jes": 1087,
      "Ġcl": 1088,
      "ç¬": 1089,
      "Ġdown": 1090,
      "Ġhoe": 1091,
      "Ġbent": 1092,
      "Ġgaat": 1093,
      "ER": 1094,
      "Ġkl": 1095,
      "æµ": 1096,
      "iss": 1097,
      "Ġga": 1098,
      "atie": 1099,
      "äºĽ": 1100,
      "nt": 1101,
      "ud": 1102,
      "èĬ": 1103,
      "ĠU": 1104,
      "Ġä»ĸ": 1105,
      "Ġeven": 1106,
      "çĶ¨": 1107,
      "als": 1108,
      "Ġvery": 1109,
      "ace": 1110,
      "ach": 1111,
      "ble": 1112,
      "Ġ20": 1113,
      "Ġtwee": 1114,
      "els": 1115,
      "åīį": 1116,
      "Als": 1117,
      "Ġå°±": 1118,
      "Ġbed": 1119,
      "Ġkunnen": 1120,
      "heid": 1121,
      "ep": 1122,
      "ade": 1123,
      "ther": 1124,
      "ause": 1125,
      "Ġput": 1126,
      "ç®": 1127,
      "Ġgood": 1128,
      "ass": 1129,
      "Ġbest": 1130,
      "eder": 1131,
      "Ja": 1132,
      "Oh": 1133,
      "dat": 1134,
      "ure": 1135,
      "Maar": 1136,
      "ity": 1137,
      "Ġont": 1138,
      "ç«": 1139,
      "uw": 1140,
      "Ġmij": 1141,
      "Ġpe": 1142,
      "Ġtime": 1143,
      "alk": 1144,
      "åĿ": 1145,
      "éĴ": 1146,
      "å½ĵ": 1147,
      "Ġmin": 1148,
      "ert": 1149,
      "Ġons": 1150,
      "Ġgel": 1151,
      "Ġsom": 1152,
      "Ġgev": 1153,
      "æŀľ": 1154,
      "ne": 1155,
      "Een": 1156,
      "What": 1157,
      "Ġfig": 1158,
      "åŃ¦": 1159,
      "ä¸ī": 1160,
      "Ġzal": 1161,
      "my": 1162,
      "éĽ": 1163,
      "Ġwhich": 1164,
      "Ġgen": 1165,
      "oll": 1166,
      "Ã«": 1167,
      "æĸ¹": 1168,
      "æĻ": 1169,
      "åĬ¨": 1170,
      "Ġjou": 1171,
      "Ġqu": 1172,
      "onder": 1173,
      "oc": 1174,
      "Ġar": 1175,
      "èĤ": 1176,
      "äºĮ": 1177,
      "Th": 1178,
      "ase": 1179,
      "æĽ": 1180,
      "Nee": 1181,
      "æ±": 1182,
      "oof": 1183,
      "ish": 1184,
      "Ġsm": 1185,
      "èĢĮ": 1186,
      "ire": 1187,
      "éĹ®": 1188,
      "æĺİ": 1189,
      "åĲĥ": 1190,
      "è§ģ": 1191,
      "Ġjullie": 1192,
      "omen": 1193,
      "land": 1194,
      "Ġhebt": 1195,
      "ied": 1196,
      "aakt": 1197,
      "éĹ´": 1198,
      "ç§į": 1199,
      "äºİ": 1200,
      "æīĭ": 1201,
      "Ġtot": 1202,
      "cause": 1203,
      "hy": 1204,
      "åĨį": 1205,
      "æ¸": 1206,
      "ĠTh": 1207,
      "Ġmore": 1208,
      "é¡": 1209,
      "æĤ¨": 1210,
      "åıª": 1211,
      "Ġweg": 1212,
      "Ġxxx": 1213,
      "Ġfl": 1214,
      "Ġna": 1215,
      "ief": 1216,
      "ild": 1217,
      "Ġeer": 1218,
      "Ġged": 1219,
      "é£": 1220,
      "åĪĨ": 1221,
      "the": 1222,
      "oel": 1223,
      "orn": 1224,
      "ä½ľ": 1225,
      "amen": 1226,
      "Ġtwo": 1227,
      "eg": 1228,
      "act": 1229,
      "ian": 1230,
      "And": 1231,
      "Ġhel": 1232,
      "éļ": 1233,
      "Ġvra": 1234,
      "è¢": 1235,
      "Ġä¸į": 1236,
      "aren": 1237,
      "ä¸¤": 1238,
      "ment": 1239,
      "Ġcar": 1240,
      "ç¾": 1241,
      "int": 1242,
      "ä»İ": 1243,
      "old": 1244,
      "Ġmu": 1245,
      "igen": 1246,
      "èº": 1247,
      "Ġinto": 1248,
      "è§īå¾Ĺ": 1249,
      "ger": 1250,
      "ople": 1251,
      "Er": 1252,
      "Ġfiguur": 1253,
      "è¶": 1254,
      "æŃ£": 1255,
      "Ġcome": 1256,
      "ough": 1257,
      "Ġiets": 1258,
      "åı¯ä»¥": 1259,
      "ale": 1260,
      "enk": 1261,
      "Ġweer": 1262,
      "å¤ª": 1263,
      "very": 1264,
      "Ġper": 1265,
      "Ġalleen": 1266,
      "Ġtheir": 1267,
      "Ġtijd": 1268,
      "Ġveel": 1269,
      "æľ¬": 1270,
      "Ġplay": 1271,
      "fter": 1272,
      "Ġzit": 1273,
      "ng": 1274,
      "ĠHet": 1275,
      "ater": 1276,
      "ance": 1277,
      "pr": 1278,
      "èĥ": 1279,
      "Ġecht": 1280,
      "riend": 1281,
      "Ġpart": 1282,
      "gens": 1283,
      "æģ": 1284,
      "Ġtr": 1285,
      "Hoe": 1286,
      "åĲ¬": 1287,
      "racht": 1288,
      "Ġhun": 1289,
      "urn": 1290,
      "Ġzien": 1291,
      "ult": 1292,
      "Kom": 1293,
      "åħ³": 1294,
      "Ġtegen": 1295,
      "Ġwater": 1296,
      "å¥³": 1297,
      "Ġå¥": 1298,
      "æ¯Ķ": 1299,
      "æīį": 1300,
      "æī¾": 1301,
      "łä¸º": 1302,
      "ett": 1303,
      "Ġpeople": 1304,
      "ue": 1305,
      "ellen": 1306,
      "esch": 1307,
      "ä¾": 1308,
      "Ġtake": 1309,
      "å®ĥ": 1310,
      "me": 1311,
      "Ġam": 1312,
      "innen": 1313,
      "Ġvert": 1314,
      "è¿Ľ": 1315,
      "oot": 1316,
      "ä»Ĭ": 1317,
      "Ġother": 1318,
      "Ġwell": 1319,
      "Ġ[": 1320,
      "ob": 1321,
      "åĺ": 1322,
      "éĶ": 1323,
      "reat": 1324,
      "åħ¬": 1325,
      "ord": 1326,
      "Ġhow": 1327,
      "Ġmee": 1328,
      "man": 1329,
      "ely": 1330,
      "åıĪ": 1331,
      "ä»ĸä»¬": 1332,
      "Ġmensen": 1333,
      "irst": 1334,
      "Ġcall": 1335,
      "alen": 1336,
      "æ¬¡": 1337,
      "ary": 1338,
      "ark": 1339,
      "Ġeens": 1340,
      "af": 1341,
      "å¹²": 1342,
      "è¿Ļä¹Ī": 1343,
      "do": 1344,
      "No": 1345,
      "é«": 1346,
      "?\"": 1347,
      "çŃī": 1348,
      "ount": 1349,
      "Ġzich": 1350,
      "å¤´": 1351,
      "å¦Ĥ": 1352,
      "æĦŁ": 1353,
      "Dit": 1354,
      "åħĪ": 1355,
      "é«ĺ": 1356,
      "geven": 1357,
      "éĤ£ä¸ª": 1358,
      "Ġterug": 1359,
      "oog": 1360,
      "èº«": 1361,
      "Ġmoeten": 1362,
      "Ġtra": 1363,
      "Ġwork": 1364,
      "Ġlo": 1365,
      "è°¢": 1366,
      "ave": 1367,
      "ĠY": 1368,
      "Ġkomt": 1369,
      "sh": 1370,
      "Ġple": 1371,
      "ä½łä»¬": 1372,
      "èĦ": 1373,
      "onna": 1374,
      "oren": 1375,
      "Ġ4": 1376,
      "Ġagain": 1377,
      "cc": 1378,
      "åĲĮ": 1379,
      "Ġway": 1380,
      "St": 1381,
      "æ°Ķ": 1382,
      "Ġsomet": 1383,
      "Ġlaat": 1384,
      "æ³ķ": 1385,
      "å·²": 1386,
      "éĥ": 1387,
      "ders": 1388,
      "erd": 1389,
      "è¢«": 1390,
      "ä¸»": 1391,
      "mp": 1392,
      "Ġmake": 1393,
      "Ġday": 1394,
      "ens": 1395,
      "wer": 1396,
      "Ġå¤": 1397,
      "chter": 1398,
      "Ġkon": 1399,
      "Ok": 1400,
      "ather": 1401,
      "æŁ": 1402,
      "æĶ¾": 1403,
      "iz": 1404,
      "Ġonly": 1405,
      "Ġtoo": 1406,
      "åĬĽ": 1407,
      "èģ": 1408,
      "ĥı": 1409,
      "HER": 1410,
      "åŃ©": 1411,
      "iÃ«": 1412,
      "That": 1413,
      "Ġdoes": 1414,
      "elt": 1415,
      "è¾¹": 1416,
      "Ġad": 1417,
      "éĩį": 1418,
      "dig": 1419,
      "of": 1420,
      "woord": 1421,
      "Ġtell": 1422,
      "æĹ¥": 1423,
      "Ġmuch": 1424,
      "Ġgonna": 1425,
      "æį": 1426,
      "Ġleven": 1427,
      "Ġmaken": 1428,
      "æĸ°": 1429,
      "Ġgek": 1430,
      "çĭ": 1431,
      "çĲĨ": 1432,
      "Ã©n": 1433,
      "ç³": 1434,
      "Ġlet": 1435,
      "Ġblij": 1436,
      "çļĦæĹ¶åĢĻ": 1437,
      "ä½Ĩæĺ¯": 1438,
      "Ġgez": 1439,
      "æĹł": 1440,
      "æīĢä»¥": 1441,
      "é©": 1442,
      "Ġandere": 1443,
      "å£": 1444,
      "ç½": 1445,
      "ç¥": 1446,
      "voor": 1447,
      "Ġtoch": 1448,
      "æľº": 1449,
      "Ġzeg": 1450,
      "æ¡": 1451,
      "ub": 1452,
      "æĪĳçļĦ": 1453,
      "Ġnie": 1454,
      "red": 1455,
      "esp": 1456,
      "ise": 1457,
      "Ġlang": 1458,
      "çģ": 1459,
      "Ġvl": 1460,
      "åºĶ": 1461,
      "Ġwerk": 1462,
      "é¢ĺ": 1463,
      "çķ": 1464,
      "å¿«": 1465,
      "Ġkrij": 1466,
      "ĠæĪĳä»¬": 1467,
      "ä¸ľ": 1468,
      "Ġwhere": 1469,
      "Ġfirst": 1470,
      "ife": 1471,
      "wn": 1472,
      "Ġelk": 1473,
      "Ġkomen": 1474,
      "çĦ¶åĲİ": 1475,
      "ci": 1476,
      "fore": 1477,
      "ç´": 1478,
      "¥¿": 1479,
      "Ġ5": 1480,
      "Ġneed": 1481,
      "Is": 1482,
      "Ġla": 1483,
      "åĥı": 1484,
      "Ġapp": 1485,
      "å¸¸": 1486,
      "èĬ±": 1487,
      "ile": 1488,
      "roug": 1489,
      "Ġland": 1490,
      "Ġant": 1491,
      "æ°´": 1492,
      "åŁ": 1493,
      "ath": 1494,
      "éĴ±": 1495,
      "Ġcont": 1496,
      "iver": 1497,
      "çĶµ": 1498,
      "è½¦": 1499,
      "Ġkw": 1500,
      "beeld": 1501,
      "ont": 1502,
      "Ġgem": 1503,
      "Ġkle": 1504,
      "ought": 1505,
      "ann": 1506,
      "ooit": 1507,
      "ock": 1508,
      "åĵª": 1509,
      "ç©": 1510,
      "oen": 1511,
      "there": 1512,
      "Ġshould": 1513,
      "çĥ": 1514,
      "Ġdidn": 1515,
      "oop": 1516,
      "æ¬¢": 1517,
      "Ġsec": 1518,
      "ader": 1519,
      "uh": 1520,
      "Ġstr": 1521,
      "Ġact": 1522,
      "kend": 1523,
      "Ġthese": 1524,
      "arl": 1525,
      "å·¥": 1526,
      "--": 1527,
      "ix": 1528,
      "è¿Ļæł·": 1529,
      "Ġafter": 1530,
      "çĽ¸": 1531,
      "ote": 1532,
      "MOTHER": 1533,
      "!\"": 1534,
      "Ġsc": 1535,
      "è¿ĺæĺ¯": 1536,
      "èī": 1537,
      "çĪ¸": 1538,
      "sp": 1539,
      "å¤ĸ": 1540,
      "çĮ": 1541,
      "èĭ": 1542,
      "åĸľ": 1543,
      "Ġstaat": 1544,
      "Ġåħ": 1545,
      "'d": 1546,
      "åħ¨": 1547,
      "ĠShe": 1548,
      ").": 1549,
      "idd": 1550,
      "orry": 1551,
      "Ġwerd": 1552,
      "Ġhele": 1553,
      "ving": 1554,
      "gr": 1555,
      "oeg": 1556,
      "çī¹": 1557,
      "Ġfe": 1558,
      "Ġgro": 1559,
      "æŃ»": 1560,
      "ussen": 1561,
      "Ġbeh": 1562,
      "wh": 1563,
      "Ĺ¯": 1564,
      "over": 1565,
      "Ġlong": 1566,
      "èĪ": 1567,
      "Ġmade": 1568,
      "Ġmag": 1569,
      "uy": 1570,
      "ä½ĵ": 1571,
      "eef": 1572,
      "è¯¥": 1573,
      "å¨": 1574,
      "Well": 1575,
      "amp": 1576,
      "è§£": 1577,
      "çĽ´": 1578,
      "right": 1579,
      "ç¬¬": 1580,
      "ict": 1581,
      "cl": 1582,
      "Ġgraf": 1583,
      "è¥¿": 1584,
      "ved": 1585,
      "æ´»": 1586,
      "Ġjaar": 1587,
      "All": 1588,
      "hed": 1589,
      "è°ģ": 1590,
      "Ġma": 1591,
      "ische": 1592,
      "ons": 1593,
      "Ġdra": 1594,
      "ereken": 1595,
      "Ġsle": 1596,
      "Ġevery": 1597,
      "çĪ±": 1598,
      "çļĦäºº": 1599,
      "air": 1600,
      "çĻ½": 1601,
      "uck": 1602,
      "ä½į": 1603,
      "where": 1604,
      "thing": 1605,
      "round": 1606,
      "ĠFr": 1607,
      "able": 1608,
      "åħ¶": 1609,
      "okay": 1610,
      "è¿ĺæľī": 1611,
      "Ġmust": 1612,
      "Ġæĺ¯": 1613,
      "Ġnooit": 1614,
      "Ġtalk": 1615,
      "åĩł": 1616,
      "èĻ": 1617,
      "up": 1618,
      "ĠÃ©": 1619,
      "ĠMr": 1620,
      "åı«": 1621,
      "zelf": 1622,
      "oud": 1623,
      "Ġpers": 1624,
      "å¸Ī": 1625,
      "Ġverd": 1626,
      "Ġdenk": 1627,
      "äºĶ": 1628,
      "ady": 1629,
      "Ġgl": 1630,
      "arm": 1631,
      "app": 1632,
      "uid": 1633,
      "Ġaway": 1634,
      "oorden": 1635,
      "emand": 1636,
      "åĵ¥": 1637,
      "form": 1638,
      "Ġvrouw": 1639,
      "tijd": 1640,
      "ä¿¡": 1641,
      "æ¶": 1642,
      "åĲĪ": 1643,
      "ĠJe": 1644,
      "ĠÃ©Ã©n": 1645,
      "But": 1646,
      "Ġsomething": 1647,
      "Ġrem": 1648,
      "éľ": 1649,
      "Ġvo": 1650,
      "iff": 1651,
      "inn": 1652,
      "ä¸Ģä¸ĭ": 1653,
      "çľŁçļĦ": 1654,
      "stand": 1655,
      "ĠåĪ": 1656,
      "Ġhead": 1657,
      "bij": 1658,
      "Ġbig": 1659,
      "gel": 1660,
      "åĳĬ": 1661,
      "Ġyear": 1662,
      "Ġ201": 1663,
      "é»": 1664,
      "ty": 1665,
      "Ġgebru": 1666,
      "Ġbefore": 1667,
      "ijden": 1668,
      "eep": 1669,
      "Ġwr": 1670,
      "Ġour": 1671,
      "ä½łçļĦ": 1672,
      "get": 1673,
      "æı": 1674,
      "ç¦": 1675,
      "ijf": 1676,
      "åıĭ": 1677,
      "Ġfun": 1678,
      "ä½ı": 1679,
      "ory": 1680,
      "Ġmay": 1681,
      "æİ¥": 1682,
      "å·²ç»ı": 1683,
      "Ġopen": 1684,
      "Ġdis": 1685,
      "ç¡": 1686,
      "ijken": 1687,
      "çī©": 1688,
      "æĿ¥äºĨ": 1689,
      "Ġlig": 1690,
      "Ġreally": 1691,
      "aby": 1692,
      "Ġinter": 1693,
      "inder": 1694,
      "Ġste": 1695,
      "OR": 1696,
      "Ġthan": 1697,
      "Waarom": 1698,
      "Ġwon": 1699,
      "æĽ´": 1700,
      "ious": 1701,
      "ä¸įèĥ½": 1702,
      "Ġzw": 1703,
      "ãĢĤ\"": 1704,
      "åĴ±": 1705,
      "é©¬": 1706,
      "Ġunder": 1707,
      "èį": 1708,
      "ç¾İ": 1709,
      "å¸¦": 1710,
      "Ġmis": 1711,
      "Ġheel": 1712,
      "ä»Ĭå¤©": 1713,
      "Ġnever": 1714,
      "Ġpre": 1715,
      "ange": 1716,
      "Ġchild": 1717,
      "Ġwent": 1718,
      "vl": 1719,
      "Ġthought": 1720,
      "æ¼": 1721,
      "akes": 1722,
      "Ġhapp": 1723,
      "Ġkind": 1724,
      "ried": 1725,
      "bo": 1726,
      "ef": 1727,
      "å±±": 1728,
      "æ·": 1729,
      "look": 1730,
      "ated": 1731,
      "Ġschool": 1732,
      "Ġgir": 1733,
      "onden": 1734,
      "éļ¾": 1735,
      "She": 1736,
      "Ġnodig": 1737,
      "Ġalso": 1738,
      "orgen": 1739,
      "ions": 1740,
      "é¦": 1741,
      "Ġalles": 1742,
      "elijke": 1743,
      "çĻ¾": 1744,
      "èĢħ": 1745,
      "row": 1746,
      "ende": 1747,
      "kt": 1748,
      "ember": 1749,
      "veel": 1750,
      "schien": 1751,
      ":\"": 1752,
      "Ġvind": 1753,
      "çİĭ": 1754,
      "Ġkeer": 1755,
      "oem": 1756,
      "Ġcomp": 1757,
      "å©": 1758,
      "So": 1759,
      "aking": 1760,
      "Ġjon": 1761,
      "åĽłä¸º": 1762,
      "ST": 1763,
      "å®Į": 1764,
      "æľĪ": 1765,
      "Ġspe": 1766,
      "åŃ©åŃĲ": 1767,
      "du": 1768,
      "çĹ": 1769,
      "Ġverl": 1770,
      "ouw": 1771,
      "aam": 1772,
      "Ġonze": 1773,
      "Ġmean": 1774,
      "self": 1775,
      "well": 1776,
      "ieren": 1777,
      "hm": 1778,
      "å°ĳ": 1779,
      "day": 1780,
      "åıĺ": 1781,
      "Ġversch": 1782,
      "Ġeat": 1783,
      "Ġgive": 1784,
      "Ġpol": 1785,
      "atuur": 1786,
      "äº²": 1787,
      "ĠMar": 1788,
      "Ġnew": 1789,
      "ina": 1790,
      "oep": 1791,
      "çĸ": 1792,
      "Ġzelf": 1793,
      "ugh": 1794,
      "ç¤": 1795,
      "ç»ĵ": 1796,
      "io": 1797,
      "Ġmil": 1798,
      "ä¸ļ": 1799,
      "éĥ¨": 1800,
      "Ġiemand": 1801,
      "ĠWe": 1802,
      "ĠåĽ": 1803,
      "é¥": 1804,
      "Ġbecause": 1805,
      "äºĭåĦ¿": 1806,
      "Ġx": 1807,
      "Ġgeld": 1808,
      "br": 1809,
      "Ġæľī": 1810,
      "Ġdrie": 1811,
      "Ġbot": 1812,
      "åĪ°äºĨ": 1813,
      "Ġbit": 1814,
      "oofd": 1815,
      "Ga": 1816,
      "ĠYou": 1817,
      "Ġä¸Ģ": 1818,
      "Ġelkaar": 1819,
      "amil": 1820,
      "ma": 1821,
      "Ġå¦": 1822,
      "mon": 1823,
      "ody": 1824,
      "Ġdoing": 1825,
      "Ġdag": 1826,
      "å§Ĳ": 1827,
      "Ġmight": 1828,
      "ful": 1829,
      "è¯·": 1830,
      "èĲ": 1831,
      "oss": 1832,
      "æĢĿ": 1833,
      "urt": 1834,
      "éĿŀ": 1835,
      "éª": 1836,
      "open": 1837,
      "allen": 1838,
      "éĥ½æĺ¯": 1839,
      "Ġåı¯": 1840,
      "Goed": 1841,
      "åľº": 1842,
      "Ġaltijd": 1843,
      "Ġanother": 1844,
      "Ġkunt": 1845,
      "oort": 1846,
      "æŃ¤": 1847,
      "Ġåĵ": 1848,
      "van": 1849,
      "Daar": 1850,
      "Ġzei": 1851,
      "Ġcame": 1852,
      "éĶĻ": 1853,
      "Ġbloed": 1854,
      "Ġdood": 1855,
      "åı¯èĥ½": 1856,
      "ward": 1857,
      "ĠåĲ": 1858,
      "Ġstop": 1859,
      "åĽĽ": 1860,
      "Ġnet": 1861,
      "Ġpunt": 1862,
      "Ġgrafiek": 1863,
      "åĸľæ¬¢": 1864,
      "å¹³": 1865,
      "AN": 1866,
      "åĬł": 1867,
      "Ġhome": 1868,
      "gende": 1869,
      "sl": 1870,
      "æ»": 1871,
      "gelijk": 1872,
      "Ġask": 1873,
      "rough": 1874,
      "Ġåľ": 1875,
      "Ġeigen": 1876,
      "ĠAnd": 1877,
      "å®ī": 1878,
      "ieve": 1879,
      "Wh": 1880,
      "è±": 1881,
      "éħ": 1882,
      "æħ": 1883,
      "æĸĩ": 1884,
      "Ġå¥½": 1885,
      "Ġtoe": 1886,
      "etje": 1887,
      "Ġok": 1888,
      "çľ¼": 1889,
      "æľĭ": 1890,
      "anna": 1891,
      "Ġlijn": 1892,
      "åĲį": 1893,
      "Ġcalled": 1894,
      "vel": 1895,
      "ĠGod": 1896,
      "Ġhuis": 1897,
      "ait": 1898,
      "Ġdus": 1899,
      "Ġgebe": 1900,
      "ots": 1901,
      "kel": 1902,
      "Ġmany": 1903,
      "esl": 1904,
      "Ġthings": 1905,
      "åĬŀ": 1906,
      "They": 1907,
      "ĠZe": 1908,
      "ä¸ĩ": 1909,
      "æĹ¶éĹ´": 1910,
      "åĵĪ": 1911,
      "Ġbaby": 1912,
      "Ġachter": 1913,
      "Ġstart": 1914,
      "ting": 1915,
      "Ġthree": 1916,
      "Ġminut": 1917,
      "but": 1918,
      "Ġ6": 1919,
      "æ¢": 1920,
      "ç²": 1921,
      "Jij": 1922,
      "è¡¨": 1923,
      "ces": 1924,
      "ç®Ĺ": 1925,
      "Ġold": 1926,
      "Ġmom": 1927,
      "ys": 1928,
      "ä¹Łä¸į": 1929,
      "Ġweten": 1930,
      "åĪļ": 1931,
      "Ġ200": 1932,
      "Ġthrough": 1933,
      "ster": 1934,
      "ign": 1935,
      "éĺŁ": 1936,
      "off": 1937,
      "åı£": 1938,
      "Ġzeggen": 1939,
      "MA": 1940,
      "éĹ¨": 1941,
      "è®°": 1942,
      "Ġmar": 1943,
      "Ġche": 1944,
      "Ġzie": 1945,
      "oint": 1946,
      "ins": 1947,
      "Ġbre": 1948,
      "Ġ0": 1949,
      "æľĭåıĭ": 1950,
      "Ġgeh": 1951,
      "æĢ»": 1952,
      "Â·": 1953,
      "æ¯ı": 1954,
      "Ġgewoon": 1955,
      "Ġtoen": 1956,
      "Yes": 1957,
      "Ġplaat": 1958,
      "ç¨": 1959,
      "Ġser": 1960,
      "Ġgroot": 1961,
      "ww": 1962,
      "ummy": 1963,
      "çĽ®": 1964,
      "Mijn": 1965,
      "Ġwaren": 1966,
      "Ġcr": 1967,
      "$$": 1968,
      "ãĢģ": 1969,
      "mand": 1970,
      "åĮĸ": 1971,
      "Ġvraag": 1972,
      "ä¿Ŀ": 1973,
      "edere": 1974,
      "Ġpres": 1975,
      "dy": 1976,
      "Ġalle": 1977,
      "å¸®": 1978,
      "åĹ¯": 1979,
      "vol": 1980,
      "Ġform": 1981,
      "Ġåľ¨": 1982,
      "Ġlaten": 1983,
      "uren": 1984,
      "emaal": 1985,
      "ç³»": 1986,
      "åıĹ": 1987,
      "wij": 1988,
      "ors": 1989,
      "Ġbetter": 1990,
      "come": 1991,
      "Ġtussen": 1992,
      "Ġverk": 1993,
      "Ġmed": 1994,
      "Ġcir": 1995,
      "Ġthing": 1996,
      "ĠEen": 1997,
      "can": 1998,
      "Ġproble": 1999,
      "Ġzegt": 2000,
      "åĨĽ": 2001,
      "Ġpar": 2002,
      "Ġhard": 2003,
      "Ġä½Ĩæĺ¯": 2004,
      "Ġniets": 2005,
      "æĴ": 2006,
      "Ġits": 2007,
      "Ġeerste": 2008,
      "éĢļ": 2009,
      "Ġmoeder": 2010,
      "Ġå°±æĺ¯": 2011,
      "ä»»": 2012,
      "ĠAmer": 2013,
      "ways": 2014,
      "Niet": 2015,
      "Ġvragen": 2016,
      "è·¯": 2017,
      "ĠBe": 2018,
      "Ġdoe": 2019,
      "è¯ī": 2020,
      "unten": 2021,
      "eem": 2022,
      "Ġlast": 2023,
      "åº¦": 2024,
      "Ġfil": 2025,
      "å¦Īå¦Ī": 2026,
      "Ġbook": 2027,
      "äºĨä¸Ģ": 2028,
      "imes": 2029,
      "éĢī": 2030,
      "Ġhal": 2031,
      "ĠAls": 2032,
      "Die": 2033,
      "Ġdone": 2034,
      "Ġfamil": 2035,
      "éĩĳ": 2036,
      "Ġaut": 2037,
      "Ġhelp": 2038,
      "Ġhouse": 2039,
      "inden": 2040,
      "PAR": 2041,
      "eds": 2042,
      "Ġgreat": 2043,
      "amer": 2044,
      "IG": 2045,
      "è®¤": 2046,
      "ai": 2047,
      "Ġrecht": 2048,
      "æĭ¿": 2049,
      "ĠAl": 2050,
      "Ġfind": 2051,
      "ss": 2052,
      "Ġthose": 2053,
      "oten": 2054,
      "ç¡®": 2055,
      "rijk": 2056,
      "ĠSch": 2057,
      "ever": 2058,
      "ä¸Ģå®ļ": 2059,
      "Ġtre": 2060,
      "Ġru": 2061,
      "isch": 2062,
      "oney": 2063,
      "Ġsays": 2064,
      "GMA": 2065,
      "Ġvader": 2066,
      "kken": 2067,
      "Voor": 2068,
      "aard": 2069,
      "ib": 2070,
      "ä¸İ": 2071,
      "ä»¶": 2072,
      "Ġres": 2073,
      "æľĽ": 2074,
      "Ġå¯": 2075,
      "æĹ©": 2076,
      "xt": 2077,
      "inderen": 2078,
      "Ġzoals": 2079,
      "EST": 2080,
      "åĶ": 2081,
      "ä½ķ": 2082,
      "uiten": 2083,
      "ents": 2084,
      "ä¹Łæĺ¯": 2085,
      "çļĦæĺ¯": 2086,
      "Ġreg": 2087,
      "ail": 2088,
      "by": 2089,
      "Ġwij": 2090,
      "çļĦè¯Ŀ": 2091,
      "Heb": 2092,
      "Ġbinnen": 2093,
      "ĠThey": 2094,
      "åĺĽ": 2095,
      "eng": 2096,
      "oman": 2097,
      "çł": 2098,
      "Ġmeest": 2099,
      "ial": 2100,
      "ucht": 2101,
      "pe": 2102,
      "Ġsamen": 2103,
      "Ġstill": 2104,
      "çĪ·": 2105,
      "let": 2106,
      "Ġou": 2107,
      "ms": 2108,
      "Ġsnel": 2109,
      "Ġturn": 2110,
      "æĻļ": 2111,
      "Ġbus": 2112,
      "Ġfound": 2113,
      "iden": 2114,
      "eerd": 2115,
      "OkÃ©": 2116,
      "æĢ§": 2117,
      "ç»ĻæĪĳ": 2118,
      "Ġgirl": 2119,
      "ĠIk": 2120,
      "æĬ¥": 2121,
      "agen": 2122,
      "éĤ£ä¹Ī": 2123,
      "Ġcount": 2124,
      "ĠçĦ¶åĲİ": 2125,
      "igh": 2126,
      "Ġplan": 2127,
      "Ġfr": 2128,
      "ĠæīĢä»¥": 2129,
      "ph": 2130,
      "å²": 2131,
      "oy": 2132,
      "äºĭæĥħ": 2133,
      "Ġzij": 2134,
      "Ġ10": 2135,
      "Ġvast": 2136,
      "not": 2137,
      "Ġzitten": 2138,
      "Ġmon": 2139,
      "Ġbro": 2140,
      "ç®¡": 2141,
      "å¼ł": 2142,
      "ikt": 2143,
      "çĶ·": 2144,
      "EX": 2145,
      "ĠUn": 2146,
      "If": 2147,
      "ister": 2148,
      "ullen": 2149,
      "Ġbeing": 2150,
      "Wie": 2151,
      "Ġ7": 2152,
      "æĳ": 2153,
      "mm": 2154,
      "å°Ĩ": 2155,
      "There": 2156,
      "ually": 2157,
      "aring": 2158,
      "Zo": 2159,
      "ctie": 2160,
      "æ¸ħ": 2161,
      "This": 2162,
      "ubl": 2163,
      "Ġ18": 2164,
      "åĲĳ": 2165,
      "Ġrec": 2166,
      "åİŁ": 2167,
      "ny": 2168,
      "les": 2169,
      "Ġâ": 2170,
      "å£°": 2171,
      "its": 2172,
      "ijkt": 2173,
      "ATOR": 2174,
      "ĠBr": 2175,
      "ä¸ľè¥¿": 2176,
      "ESTIG": 2177,
      "é£İ": 2178,
      "erk": 2179,
      "Ġown": 2180,
      "EXP": 2181,
      "æĪ¿": 2182,
      "INVESTIG": 2183,
      "åĩºæĿ¥": 2184,
      "çŃĶ": 2185,
      "éĹ®é¢ĺ": 2186,
      "INVESTIGATOR": 2187,
      "Ġdiff": 2188,
      "å¤§å®¶": 2189,
      "çª": 2190,
      "Ġid": 2191,
      "Ġnight": 2192,
      "Ġnice": 2193,
      "Ġrest": 2194,
      "Ġå¯¹": 2195,
      "Ġ8": 2196,
      "Ġweek": 2197,
      "ĠEr": 2198,
      "å¢": 2199,
      "Ġdes": 2200,
      "On": 2201,
      "Ġstaan": 2202,
      "ç¼": 2203,
      "Ġalways": 2204,
      "ederland": 2205,
      "Ġwanna": 2206,
      "ä¸Ģèµ·": 2207,
      "åĳ½": 2208,
      "EN": 2209,
      "Ġname": 2210,
      "ughs": 2211,
      "emen": 2212,
      "so": 2213,
      "Ġallemaal": 2214,
      "ama": 2215,
      "ooi": 2216,
      "éĩı": 2217,
      "ught": 2218,
      "ä¸ºä»Ģä¹Ī": 2219,
      "aart": 2220,
      "ä¸ŃåĽ½": 2221,
      "æĲ": 2222,
      "Ġgrote": 2223,
      "æ°ĳ": 2224,
      "oos": 2225,
      "room": 2226,
      "Ġplace": 2227,
      "Ġå¦Ĥ": 2228,
      "æıĲ": 2229,
      "éŁ": 2230,
      "ä»ĸçļĦ": 2231,
      "Ġnum": 2232,
      "Ġlife": 2233,
      "Ġsuch": 2234,
      "Ġuw": 2235,
      "Ġrel": 2236,
      "çħ": 2237,
      "Ġvolgende": 2238,
      "Ġlove": 2239,
      "Ġantwoord": 2240,
      "Ġerm": 2241,
      "æĢķ": 2242,
      "ipp": 2243,
      "uister": 2244,
      "Ġå®": 2245,
      "çı": 2246,
      "ift": 2247,
      "åĳĬè¯ī": 2248,
      "ps": 2249,
      "ä¹¦": 2250,
      "ĠÂ·": 2251,
      "å¤Ħ": 2252,
      "Ġisn": 2253,
      "Ġdoet": 2254,
      "ç¦»": 2255,
      "ical": 2256,
      "åĳĺ": 2257,
      "æĪĳå°±": 2258,
      "ĠåĴ": 2259,
      "åĨħ": 2260,
      "çĲĥ": 2261,
      "æľį": 2262,
      "é¸": 2263,
      "Ġred": 2264,
      "ars": 2265,
      "Laat": 2266,
      "ĠAll": 2267,
      "ope": 2268,
      "ĠEng": 2269,
      "ash": 2270,
      "Ġå¤§": 2271,
      "ves": 2272,
      "Ã¯": 2273,
      "Ġkinderen": 2274,
      "Ġkill": 2275,
      "Ġtold": 2276,
      "vo": 2277,
      "Ġpap": 2278,
      "ates": 2279,
      "ä½łè¯´": 2280,
      "åħ«": 2281,
      "Ġfeel": 2282,
      "isten": 2283,
      "æľŁ": 2284,
      "itu": 2285,
      "Ġstra": 2286,
      "åºĶè¯¥": 2287,
      "edereen": 2288,
      "æ£": 2289,
      "åħ¥": 2290,
      "Ġsupp": 2291,
      "hes": 2292,
      "ä¸įä¼ļ": 2293,
      "Ġgedaan": 2294,
      "Ġå°ı": 2295,
      "èµ·æĿ¥": 2296,
      "Ġkeep": 2297,
      "Ġused": 2298,
      "sel": 2299,
      "eter": 2300,
      "æĪĺ": 2301,
      "çĿ¡": 2302,
      "Ġshow": 2303,
      "Ġwereld": 2304,
      "éĵ": 2305,
      "Ġè¿Ļä¸ª": 2306,
      "Ġelse": 2307,
      "ĠHij": 2308,
      "é£ŀ": 2309,
      "è¶Ĭ": 2310,
      "Ġnou": 2311,
      "æ¡Ī": 2312,
      "Op": 2313,
      "ä¸ĢçĤ¹": 2314,
      "å¥½çļĦ": 2315,
      "äº§": 2316,
      "maal": 2317,
      "geb": 2318,
      "ĠNederland": 2319,
      "Ġlot": 2320,
      "ĠQ": 2321,
      "Ġhoofd": 2322,
      "ese": 2323,
      "æķħ": 2324,
      "åħī": 2325,
      "aad": 2326,
      "ä»£": 2327,
      "alt": 2328,
      "ä¸Ģæł·": 2329,
      "Ġbev": 2330,
      "uff": 2331,
      "Ġcol": 2332,
      "Ġvier": 2333,
      "iel": 2334,
      "ĠBut": 2335,
      "å¤Ł": 2336,
      "ijt": 2337,
      "Ġtrain": 2338,
      "ç¥ŀ": 2339,
      "Ġrun": 2340,
      "å§ĭ": 2341,
      "Ġerg": 2342,
      "Bereken": 2343,
      "æ¥": 2344,
      "rijf": 2345,
      "ä¸ĸ": 2346,
      "How": 2347,
      "Ġvill": 2348,
      "Ġvriend": 2349,
      "ĠVoor": 2350,
      "mo": 2351,
      "Ġinform": 2352,
      "çĪ¶": 2353,
      "èī²": 2354,
      "rist": 2355,
      "Ġten": 2356,
      "Ġfin": 2357,
      "oeken": 2358,
      "Ġtry": 2359,
      "Ġdec": 2360,
      "æķ°": 2361,
      "ä¸Ķ": 2362,
      "Ġleft": 2363,
      "å½±": 2364,
      "put": 2365,
      "zoek": 2366,
      "Ġfather": 2367,
      "ĠNo": 2368,
      "ĠAn": 2369,
      "Ġwaarde": 2370,
      "ced": 2371,
      "Ġimp": 2372,
      "20": 2373,
      "ĠSp": 2374,
      "gd": 2375,
      "Ġmother": 2376,
      "Ġperson": 2377,
      "Ġligt": 2378,
      "æĿ¡": 2379,
      "000": 2380,
      "Ġjouw": 2381,
      "Ġpolit": 2382,
      "è£": 2383,
      "Ġfriend": 2384,
      "Ġbesch": 2385,
      "ĠWhat": 2386,
      "éĿŀå¸¸": 2387,
      "kom": 2388,
      "èĩªå·±çļĦ": 2389,
      "ja": 2390,
      "side": 2391,
      "Ġä½łä»¬": 2392,
      "æ®": 2393,
      "Ġco": 2394,
      "Ġgu": 2395,
      "eling": 2396,
      "Ġboy": 2397,
      "uwe": 2398,
      "Dan": 2399,
      "erg": 2400,
      "Ġmat": 2401,
      "ĠEn": 2402,
      "ä»¥åĲİ": 2403,
      "Ġball": 2404,
      "Ġsure": 2405,
      "Ġlater": 2406,
      "Ġke": 2407,
      "Ġwillen": 2408,
      "Ġroom": 2409,
      "Ġcle": 2410,
      "ä¹Ĳ": 2411,
      "å»": 2412,
      "Ġanders": 2413,
      "åľ¨è¿Ļ": 2414,
      "ple": 2415,
      "aald": 2416,
      "Ġå¦Ĥæŀľ": 2417,
      "aul": 2418,
      "ç±": 2419,
      "Ġvinden": 2420,
      "schap": 2421,
      "æļ": 2422,
      "Ġyears": 2423,
      "å¼Ł": 2424,
      "aw": 2425,
      "ives": 2426,
      "Ã¨": 2427,
      "è¿ĳ": 2428,
      "apt": 2429,
      "è°¢è°¢": 2430,
      "Ġsteeds": 2431,
      "Ġmoment": 2432,
      "Kijk": 2433,
      "è·ĳ": 2434,
      "cy": 2435,
      "Ġaround": 2436,
      "Ġcons": 2437,
      "Ġacc": 2438,
      "Do": 2439,
      "Ġmost": 2440,
      "Ġomdat": 2441,
      "ĠGr": 2442,
      "æķĻ": 2443,
      "Ġhalf": 2444,
      "led": 2445,
      "arn": 2446,
      "Ġverh": 2447,
      "ç»Ļä½ł": 2448,
      "Ġsame": 2449,
      "å¨ĺ": 2450,
      "outh": 2451,
      "é¥Ń": 2452,
      "body": 2453,
      "Ġken": 2454,
      "æµ·": 2455,
      "æ±Ĥ": 2456,
      "Ġtri": 2457,
      "raag": 2458,
      "Ġbu": 2459,
      "vent": 2460,
      "äº¤": 2461,
      "è¿Ļæĺ¯": 2462,
      "åºķ": 2463,
      "æĮº": 2464,
      "Ġcour": 2465,
      "å¾Īå¤ļ": 2466,
      "ĠThis": 2467,
      "Ġgemaakt": 2468,
      "Weet": 2469,
      "go": 2470,
      "son": 2471,
      "Ġatt": 2472,
      "ĠInd": 2473,
      "çī¹åĪ«": 2474,
      "ition": 2475,
      "äººçļĦ": 2476,
      "aag": 2477,
      "ä¿©": 2478,
      "res": 2479,
      "éĢģ": 2480,
      "Ġing": 2481,
      "Ġwhy": 2482,
      "Ġleuk": 2483,
      "Ġwie": 2484,
      "Ġve": 2485,
      "åħŃ": 2486,
      "å·¥ä½ľ": 2487,
      "åı¸": 2488,
      "ung": 2489,
      "Ġ9": 2490,
      "åĪ©": 2491,
      "Why": 2492,
      "ness": 2493,
      "Ġfour": 2494,
      "Ġä¹Ł": 2495,
      "ited": 2496,
      "ric": 2497,
      "å¤§çļĦ": 2498,
      "Ġplease": 2499,
      "è¿Ļç§į": 2500,
      "ird": 2501,
      "åŁİ": 2502,
      "æľīä¸Ģ": 2503,
      "ta": 2504,
      "ream": 2505,
      "è¿ĻäºĽ": 2506,
      "è®²": 2507,
      "Ġcat": 2508,
      "Ġyeah": 2509,
      "éľĢ": 2510,
      "çİ©": 2511,
      "ä¾¿": 2512,
      "Mm": 2513,
      "assen": 2514,
      "iken": 2515,
      "Ġgegeven": 2516,
      "è·ŁæĪĳ": 2517,
      "ield": 2518,
      "Ġeten": 2519,
      "æł¹": 2520,
      "Ġwoman": 2521,
      "Ġstand": 2522,
      "Ġpunten": 2523,
      "atuurlijk": 2524,
      "CAT": 2525,
      "å©ļ": 2526,
      "Ġkrijgen": 2527,
      "Ġhoog": 2528,
      "Ben": 2529,
      "Ġend": 2530,
      "Ġsche": 2531,
      "Dus": 2532,
      "ron": 2533,
      "Ġgone": 2534,
      "addy": 2535,
      "è®¸": 2536,
      "Ġbedoel": 2537,
      "ĠèĢĮ": 2538,
      "Ġnaam": 2539,
      "Ġbeter": 2540,
      "Ġanything": 2541,
      "Ġlie": 2542,
      "ä¸įçŁ¥éģĵ": 2543,
      "åĩĨ": 2544,
      "bs": 2545,
      "mhm": 2546,
      "Ġbad": 2547,
      "Ġsk": 2548,
      "å¤«": 2549,
      "å¾Ģ": 2550,
      "Ġmoest": 2551,
      "ç´§": 2552,
      "akken": 2553,
      "ĠThere": 2554,
      "Ġsir": 2555,
      "ows": 2556,
      "ower": 2557,
      "Ġzeker": 2558,
      "é¡¹": 2559,
      "åıį": 2560,
      "ased": 2561,
      "åĴ±ä»¬": 2562,
      "Ġsy": 2563,
      "çļĦä¸Ģ": 2564,
      "Ġwacht": 2565,
      "Ġquite": 2566,
      "Ġvillage": 2567,
      "SO": 2568,
      "å¼º": 2569,
      "ieft": 2570,
      "Ġverschill": 2571,
      "this": 2572,
      "vis": 2573,
      "Ġè¦ģ": 2574,
      "è®¡": 2575,
      "ged": 2576,
      "Ġåĵİ": 2577,
      "èİ": 2578,
      "ç¬ĳ": 2579,
      "anden": 2580,
      ",'": 2581,
      "dracht": 2582,
      "Ġsort": 2583,
      "ctor": 2584,
      "etten": 2585,
      "Ġgelijk": 2586,
      "Ġmaakt": 2587,
      "Ġgre": 2588,
      "Ġyes": 2589,
      "çº¢": 2590,
      "Ġging": 2591,
      "komen": 2592,
      "èĬĤ": 2593,
      "ider": 2594,
      "Ġac": 2595,
      "çľĭçľĭ": 2596,
      "Ġtru": 2597,
      "çĹħ": 2598,
      "Ġplaats": 2599,
      "org": 2600,
      "ĠLe": 2601,
      "å¼Ģå§ĭ": 2602,
      "AD": 2603,
      "Ġdeel": 2604,
      "æĶ¶": 2605,
      "gest": 2606,
      "Ġseem": 2607,
      "ley": 2608,
      "äºĨåĲĹ": 2609,
      "ĠæĢİä¹Ī": 2610,
      "è¿ŀ": 2611,
      "å¤±": 2612,
      "Ġokay": 2613,
      "ä¸ºäºĨ": 2614,
      "),": 2615,
      "èµĦ": 2616,
      "å¸Ĥ": 2617,
      "Okay": 2618,
      "co": 2619,
      "è¿ľ": 2620,
      "Ġplant": 2621,
      "they": 2622,
      "Ġhappen": 2623,
      "she": 2624,
      "Ġgest": 2625,
      "ĠOp": 2626,
      "Ġwilde": 2627,
      "ĠåĽłä¸º": 2628,
      "Ġpop": 2629,
      "Ġelke": 2630,
      "Ġair": 2631,
      "Ġmoney": 2632,
      "Ġvrij": 2633,
      "Wil": 2634,
      "åĸĿ": 2635,
      "ç©º": 2636,
      "Ġret": 2637,
      "eeft": 2638,
      "cent": 2639,
      "æķ´": 2640,
      "Ġuur": 2641,
      "arly": 2642,
      "gegeven": 2643,
      "æŀĹ": 2644,
      "ä¸įè¦ģ": 2645,
      "çĬ": 2646,
      "å¿ħ": 2647,
      "laughs": 2648,
      "ä¸¤ä¸ª": 2649,
      "erm": 2650,
      "Ġdacht": 2651,
      "Ġverb": 2652,
      "ruk": 2653,
      "Ġwind": 2654,
      "Ġcare": 2655,
      "Ġnieuwe": 2656,
      "die": 2657,
      "åŃĹ": 2658,
      "door": 2659,
      "hoek": 2660,
      "ince": 2661,
      "Ġnam": 2662,
      "ä¸ĢçĽ´": 2663,
      "Ġcoming": 2664,
      "åĮħ": 2665,
      "Ġcent": 2666,
      "åĮĹ": 2667,
      "ern": 2668,
      "Ġenough": 2669,
      "Ġwhile": 2670,
      "ä¼ł": 2671,
      "åİ»äºĨ": 2672,
      "çħ§": 2673,
      "aut": 2674,
      "angen": 2675,
      "Ġnext": 2676,
      "Be": 2677,
      "don": 2678,
      "Ġeyes": 2679,
      "ident": 2680,
      "ĠWh": 2681,
      "å¤ĩ": 2682,
      "Ġsaw": 2683,
      "Ġwilt": 2684,
      "èĢģå¸Ī": 2685,
      "Ġeind": 2686,
      ".'": 2687,
      "Ġmeis": 2688,
      "çķĻ": 2689,
      "æ¼Ķ": 2690,
      "Hier": 2691,
      "ĠSh": 2692,
      "æģ¯": 2693,
      "ä¸įå¥½": 2694,
      "Ġfew": 2695,
      "Ġcur": 2696,
      "Ġkijken": 2697,
      "ä¸ĥ": 2698,
      "ium": 2699,
      "Ġ=": 2700,
      "æĪĸ": 2701,
      "ks": 2702,
      "æĺ¯æĪĳ": 2703,
      "Don": 2704,
      "Ġbez": 2705,
      "èĢĥ": 2706,
      "ling": 2707,
      "Ġhoor": 2708,
      "çģ«": 2709,
      "èĮ": 2710,
      "Ġmiss": 2711,
      "å®³": 2712,
      "çĶŁæ´»": 2713,
      "Ġblijven": 2714,
      "aur": 2715,
      "æĦıæĢĿ": 2716,
      "Ġeerst": 2717,
      "Al": 2718,
      "ekend": 2719,
      "åı¥": 2720,
      "omm": 2721,
      "\".": 2722,
      "Ġpie": 2723,
      "æŁ¥": 2724,
      "ouden": 2725,
      "oemen": 2726,
      "uss": 2727,
      "waar": 2728,
      "Ġface": 2729,
      "çľĭåĪ°": 2730,
      "åıĳçİ°": 2731,
      "éĽ¶": 2732,
      "åı·": 2733,
      "Ġgoede": 2734,
      "Ġtele": 2735,
      "Ġwait": 2736,
      "Ġoor": 2737,
      "ä¹ĭåĲİ": 2738,
      "åĿĹ": 2739,
      "Ġpaar": 2740,
      "æĿ¥çļĦ": 2741,
      "åħ³ç³»": 2742,
      "Ġlaatste": 2743,
      "isschien": 2744,
      "Ġ199": 2745,
      "åĪ¶": 2746,
      "allo": 2747,
      "Ġvis": 2748,
      "Ġgewe": 2749,
      "Ġpoint": 2750,
      "Ġstay": 2751,
      "çĶ±": 2752,
      "ĠâĢ": 2753,
      "Ġå½": 2754,
      "Nu": 2755,
      "Ġbep": 2756,
      "aas": 2757,
      "Ġstad": 2758,
      "gaan": 2759,
      "ence": 2760,
      "ĠDit": 2761,
      "æµģ": 2762,
      "Wel": 2763,
      "Ġbelang": 2764,
      "Ġelders": 2765,
      "Now": 2766,
      "é¼": 2767,
      "Ġuse": 2768,
      "Let": 2769,
      "elde": 2770,
      "ä¹Ŀ": 2771,
      "ations": 2772,
      "èµ¶": 2773,
      "ĠåĴ±": 2774,
      "æĶ¿": 2775,
      "iteit": 2776,
      "ç«ĭ": 2777,
      "ĠAmeric": 2778,
      "ĠEur": 2779,
      "Ġhouden": 2780,
      "æĿĳ": 2781,
      "Ġnothing": 2782,
      "cies": 2783,
      "Ġdingen": 2784,
      "Ġsla": 2785,
      "Ġja": 2786,
      "eek": 2787,
      "ĠNew": 2788,
      "åĨ³": 2789,
      "Ġtook": 2790,
      "Ġ15": 2791,
      "Ġvoel": 2792,
      "net": 2793,
      "Ġaant": 2794,
      "Ġåį": 2795,
      "omas": 2796,
      "äºĨæĪĳ": 2797,
      "Ġverand": 2798,
      "ĠGe": 2799,
      "tje": 2800,
      "Ġfire": 2801,
      "auw": 2802,
      "Ġboven": 2803,
      "Ġhelemaal": 2804,
      "Ġsorry": 2805,
      "å®¹": 2806,
      "Ġinformatie": 2807,
      "èı": 2808,
      "any": 2809,
      "Ġå¥¹": 2810,
      "zelfde": 2811,
      "å®Ŀ": 2812,
      "Ġreal": 2813,
      "æ¶Ī": 2814,
      "Ġgeven": 2815,
      "åįĥ": 2816,
      "Ġshall": 2817,
      "ç«Ļ": 2818,
      "Ġthough": 2819,
      "åĲĦ": 2820,
      "éŁ³": 2821,
      "ä¹°": 2822,
      "ĠAr": 2823,
      "uld": 2824,
      "Ġmaak": 2825,
      "baar": 2826,
      "Ġhor": 2827,
      "æĶ¹": 2828,
      "Ġcut": 2829,
      "éĻ¢": 2830,
      "Ġkwam": 2831,
      "ule": 2832,
      "æº": 2833,
      "Ġround": 2834,
      "Ġread": 2835,
      "Ġdoesn": 2836,
      "åķ¦": 2837,
      "Ġseen": 2838,
      "oun": 2839,
      "Ġpass": 2840,
      "Ġeach": 2841,
      "Ġtop": 2842,
      "Ġverm": 2843,
      "Ġgeeft": 2844,
      "Ġhaven": 2845,
      "ject": 2846,
      "Ġgezien": 2847,
      "Ġdog": 2848,
      "åĬ¡": 2849,
      "é»Ħ": 2850,
      "Ġboth": 2851,
      "åįķ": 2852,
      "ulp": 2853,
      "ĠåĨ": 2854,
      "chten": 2855,
      "Ġsleep": 2856,
      "Sorry": 2857,
      "Ver": 2858,
      "Ġ)": 2859,
      "çķĮ": 2860,
      "ĠStan": 2861,
      "åħ´": 2862,
      "Ġmidd": 2863,
      "æĺ¯ä¸įæĺ¯": 2864,
      "èĤ¯": 2865,
      "Ġnat": 2866,
      "åĿĲ": 2867,
      "orning": 2868,
      "Ġhelpen": 2869,
      "èĽ": 2870,
      "æį®": 2871,
      "SOA": 2872,
      "ĠDat": 2873,
      "å¹¶": 2874,
      "äº®": 2875,
      "Ġè¿ĺ": 2876,
      "Ġvand": 2877,
      "Ġverw": 2878,
      "åĽł": 2879,
      "Bl": 2880,
      "Om": 2881,
      "erent": 2882,
      "åķ¥": 2883,
      "åįĬ": 2884,
      "part": 2885,
      "ĠMe": 2886,
      "å¥½äºĨ": 2887,
      "Ġwonder": 2888,
      "iks": 2889,
      "Ġdrink": 2890,
      "ush": 2891,
      "til": 2892,
      "Ġwalk": 2893,
      "Ġlief": 2894,
      "æ¢¦": 2895,
      "erde": 2896,
      "Ġkant": 2897,
      "ĠDeze": 2898,
      "æħ¢": 2899,
      "Ġtree": 2900,
      "Ġsur": 2901,
      "Ġauto": 2902,
      "Hou": 2903,
      "å»º": 2904,
      "Ġziet": 2905,
      "ivers": 2906,
      "æ»¡": 2907,
      "king": 2908,
      "now": 2909,
      "Ġgar": 2910,
      "Ch": 2911,
      "è½¬": 2912,
      "éľĢè¦ģ": 2913,
      "uring": 2914,
      "Ġleg": 2915,
      "æł¼": 2916,
      "è±¡": 2917,
      "è¯ģ": 2918,
      "æŃĮ": 2919,
      "fect": 2920,
      "Ġever": 2921,
      "Ġgener": 2922,
      "è¯Ĩ": 2923,
      "Ġä½Ĩ": 2924,
      "ĠBij": 2925,
      "ably": 2926,
      "ĠâĢ¢": 2927,
      "aden": 2928,
      "Ġem": 2929,
      "Come": 2930,
      "Ġvorm": 2931,
      "Ġind": 2932,
      "æĢ¥": 2933,
      "ween": 2934,
      "åĨµ": 2935,
      "com": 2936,
      "Ġyet": 2937,
      "ids": 2938,
      "Ġknown": 2939,
      "use": 2940,
      "å¦¹": 2941,
      "Ġfive": 2942,
      "åĳĥ": 2943,
      "Ġbuiten": 2944,
      "Ġremember": 2945,
      "Ġju": 2946,
      "è¾ĥ": 2947,
      "æĪĳè§īå¾Ĺ": 2948,
      "ä¼¤": 2949,
      "Ġsmall": 2950,
      "Misschien": 2951,
      "Ġçİ°åľ¨": 2952,
      "Ġverg": 2953,
      "ĠIf": 2954,
      "Ġafbeeld": 2955,
      "Ġwelke": 2956,
      "Ġspr": 2957,
      "Ġwanted": 2958,
      "èµ°äºĨ": 2959,
      "port": 2960,
      "Ġden": 2961,
      "Ġlight": 2962,
      "åĽŀæĿ¥": 2963,
      "Ġklaar": 2964,
      "ijdens": 2965,
      "Ġverschillende": 2966,
      "Ġfoot": 2967,
      "fl": 2968,
      "Ġgenoeg": 2969,
      "ĠMiss": 2970,
      "Ġsix": 2971,
      "æĺŁ": 2972,
      "Ġbew": 2973,
      "OU": 2974,
      "ract": 2975,
      "Ġcomm": 2976,
      "è½»": 2977,
      "Ġcourse": 2978,
      "why": 2979,
      "Ġster": 2980,
      "aps": 2981,
      "Ġkans": 2982,
      "ye": 2983,
      "ones": 2984,
      "Ġåĳ": 2985,
      "\",": 2986,
      "Le": 2987,
      "Ġmoe": 2988,
      "Ġlooks": 2989,
      "ç¬¬ä¸Ģ": 2990,
      "din": 2991,
      "Ġbang": 2992,
      "Ã¶": 2993,
      "Ġgesch": 2994,
      "åħ¶å®ŀ": 2995,
      "Ġbelangrijk": 2996,
      "ner": 2997,
      "æĩ": 2998,
      "amb": 2999,
      "Ġå½ĵ": 3000,
      "Ġide": 3001,
      "æ¯į": 3002,
      "Geef": 3003,
      "ĠæĤ¨": 3004,
      "æĿĢ": 3005,
      "Ġmisschien": 3006,
      "Ġzonder": 3007,
      "Ġiedereen": 3008,
      "Ġå¹": 3009,
      "Ġverder": 3010,
      "wel": 3011,
      "Ġstud": 3012,
      "åįĹ": 3013,
      "Ġmedic": 3014,
      "çıŃ": 3015,
      "enen": 3016,
      "Ġmorning": 3017,
      "æĮģ": 3018,
      "é¾": 3019,
      "Ġinst": 3020,
      "Ġæ²¡": 3021,
      "Ġsac": 3022,
      "çĥŃ": 3023,
      "pro": 3024,
      "Ġwar": 3025,
      "Ġgeweest": 3026,
      "Dank": 3027,
      "çīĩ": 3028,
      "ĠWat": 3029,
      "ede": 3030,
      "olog": 3031,
      "Ġfoll": 3032,
      "weg": 3033,
      "Ġjongen": 3034,
      "ational": 3035,
      "Ġgeweld": 3036,
      "Right": 3037,
      "ankt": 3038,
      "Ġåħ¶": 3039,
      "ork": 3040,
      "å¦Ĥæŀľ": 3041,
      "Ġcere": 3042,
      "anks": 3043,
      "åľ°æĸ¹": 3044,
      "iving": 3045,
      "Ġkoning": 3046,
      "ross": 3047,
      "icks": 3048,
      "çĨ": 3049,
      "Ġfar": 3050,
      "è§Ĩ": 3051,
      "tr": 3052,
      "æķ¢": 3053,
      "Ġzullen": 3054,
      "æĭľ": 3055,
      "Ġchildren": 3056,
      "ä½¿": 3057,
      "cle": 3058,
      "log": 3059,
      "è®©æĪĳ": 3060,
      "Ġhot": 3061,
      "ç½ĳ": 3062,
      "Geen": 3063,
      "zo": 3064,
      "Ġmind": 3065,
      "ĠAf": 3066,
      "ump": 3067,
      "Ġwaarom": 3068,
      "Ġart": 3069,
      "ç²¾": 3070,
      "Ġdu": 3071,
      "Ġpresent": 3072,
      "Ġä½łè¯´": 3073,
      "Ġgoes": 3074,
      "éĩĮéĿ¢": 3075,
      "Ġuntil": 3076,
      "Ġdifferent": 3077,
      "ourn": 3078,
      "oven": 3079,
      "Ġåķ": 3080,
      "Ġåıª": 3081,
      "ches": 3082,
      "Ġhear": 3083,
      "Ġpat": 3084,
      "Hey": 3085,
      "rag": 3086,
      "ç¢": 3087,
      "åĵģ": 3088,
      "Ġbox": 3089,
      "Ġbeetje": 3090,
      "å¯¼": 3091,
      "é¦ĸ": 3092,
      "rie": 3093,
      "anneer": 3094,
      "who": 3095,
      "Ġfunctie": 3096,
      "Ġpos": 3097,
      "èħ": 3098,
      "æĺĵ": 3099,
      "Ġdri": 3100,
      "Ġvr": 3101,
      "åħ±": 3102,
      "åĨĻ": 3103,
      "çŀ": 3104,
      "ĮæľĽ": 3105,
      "Hallo": 3106,
      "Nou": 3107,
      "cept": 3108,
      "ane": 3109,
      "apen": 3110,
      "ished": 3111,
      "è°ĥ": 3112,
      "åĮ»": 3113,
      "ĠIs": 3114,
      "ĠHoe": 3115,
      "Of": 3116,
      "nis": 3117,
      "å¥ĩ": 3118,
      "è¦ģæĺ¯": 3119,
      "vlak": 3120,
      "val": 3121,
      "Ġexact": 3122,
      "ĠåĪ«": 3123,
      "Not": 3124,
      "ä½łå¥½": 3125,
      "ton": 3126,
      "å¥¶": 3127,
      "å¾ħ": 3128,
      "Wacht": 3129,
      "èĩ³": 3130,
      "ball": 3131,
      "ison": 3132,
      "Ġknew": 3133,
      "Ġtoget": 3134,
      "ips": 3135,
      "è¿Ĳ": 3136,
      "Ġstuk": 3137,
      "Ġph": 3138,
      "osed": 3139,
      "Ġlooked": 3140,
      "Ġdist": 3141,
      "çļĦå°ı": 3142,
      "ika": 3143,
      "ĠOn": 3144,
      "Ġtogether": 3145,
      "ove": 3146,
      "çīĽ": 3147,
      "HÃ©": 3148,
      "Ġè¯´": 3149,
      "iding": 3150,
      "eth": 3151,
      "åı°": 3152,
      "æ³¨": 3153,
      "æĦŁè§ī": 3154,
      "Ġkleine": 3155,
      "ä¹ī": 3156,
      "è¿Ļä¸Ģ": 3157,
      "ler": 3158,
      "Ġdoll": 3159,
      "Ġpraten": 3160,
      "voorbeeld": 3161,
      "ax": 3162,
      "Ġhold": 3163,
      "Ġdear": 3164,
      "opt": 3165,
      "Ġass": 3166,
      "19": 3167,
      "how": 3168,
      "Ġwife": 3169,
      "Ġcountry": 3170,
      "ijs": 3171,
      "Ġå¿": 3172,
      "elling": 3173,
      "Ġhoeveel": 3174,
      "cial": 3175,
      "ries": 3176,
      "Sch": 3177,
      "ĠSe": 3178,
      "Ġafbeelding": 3179,
      "æĦ¿": 3180,
      "Ġnemen": 3181,
      "ating": 3182,
      "itch": 3183,
      "Ġworld": 3184,
      "åĽ¢": 3185,
      "èµĽ": 3186,
      "Ġhadden": 3187,
      "Ġblood": 3188,
      "vie": 3189,
      "Ġbur": 3190,
      "ä¹ĭåīį": 3191,
      "çªģ": 3192,
      "Ġgebeur": 3193,
      "ole": 3194,
      "ç¿": 3195,
      "Ġdel": 3196,
      "æĪĳæĺ¯": 3197,
      "Ġlos": 3198,
      "omme": 3199,
      "åŁº": 3200,
      "Ġheen": 3201,
      "avond": 3202,
      "Ġfilm": 3203,
      "az": 3204,
      "Ġsw": 3205,
      "Ġniks": 3206,
      "owing": 3207,
      "une": 3208,
      "ĠYes": 3209,
      "Ġneem": 3210,
      "onnen": 3211,
      "Ġè¿Ļæĺ¯": 3212,
      "oes": 3213,
      "Ġgraag": 3214,
      "ĠChrist": 3215,
      "Ġasked": 3216,
      "æ®µ": 3217,
      "Ġvaak": 3218,
      "ĠOh": 3219,
      "ä¸ĭæĿ¥": 3220,
      "Ġsign": 3221,
      "åħļ": 3222,
      "Ġnieuw": 3223,
      "aught": 3224,
      "ĠDaar": 3225,
      "åĵİ": 3226,
      "Ġlooking": 3227,
      "éħĴ": 3228,
      "Ġidee": 3229,
      "ired": 3230,
      "äººå®¶": 3231,
      "ched": 3232,
      "æĮĩ": 3233,
      "Ġtalking": 3234,
      "arr": 3235,
      "Ġmeet": 3236,
      "Ġheart": 3237,
      "è§Ĥ": 3238,
      "Doe": 3239,
      "My": 3240,
      "æĿİ": 3241,
      "éĩįè¦ģ": 3242,
      "ç§ĳ": 3243,
      "Ġslecht": 3244,
      "ĠThomas": 3245,
      "uyu": 3246,
      "ral": 3247,
      "Ġopdracht": 3248,
      "ific": 3249,
      "Jullie": 3250,
      "Ġexc": 3251,
      "When": 3252,
      "reken": 3253,
      "stuk": 3254,
      "Ġaantal": 3255,
      "het": 3256,
      "ĠæĪĳæĺ¯": 3257,
      "Ġmeneer": 3258,
      "oit": 3259,
      "ĠHier": 3260,
      "ikuyu": 3261,
      "æ·±": 3262,
      "Mr": 3263,
      "Ġexp": 3264,
      "ĠèĢģ": 3265,
      "è¾¾": 3266,
      "äºĮåįģ": 3267,
      "www": 3268,
      "äºĨä½ł": 3269,
      "æİĴ": 3270,
      "att": 3271,
      "æľĢåĲİ": 3272,
      "uz": 3273,
      "idden": 3274,
      "und": 3275,
      "å¿Ĺ": 3276,
      "Ġspijt": 3277,
      "band": 3278,
      "Ġklein": 3279,
      "Ġheet": 3280,
      "Ġ12": 3281,
      "Ġprodu": 3282,
      "ç»Ŀ": 3283,
      "Ġext": 3284,
      "etty": 3285,
      "åĵĪåĵĪ": 3286,
      "Ġceremon": 3287,
      "Ġhoud": 3288,
      "ijna": 3289,
      "Ġgrond": 3290,
      "Ġbring": 3291,
      "Van": 3292,
      "Ġger": 3293,
      "ummer": 3294,
      "å¼ı": 3295,
      "Ġpri": 3296,
      "Ġint": 3297,
      "Ġbetween": 3298,
      "Ġgetekend": 3299,
      "åĳ¨": 3300,
      "Ġsecond": 3301,
      "èĭ¦": 3302,
      "è¶³": 3303,
      "è¨": 3304,
      "Ġcoll": 3305,
      "Ġå¾": 3306,
      "å¥½å¥½": 3307,
      "Ġgebruikt": 3308,
      "CD": 3309,
      "Met": 3310,
      "éº": 3311,
      "æīĢæľī": 3312,
      "Ġdisc": 3313,
      "æłĳ": 3314,
      "Ġhaving": 3315,
      "pervlak": 3316,
      "å²ģ": 3317,
      "rit": 3318,
      "åĪĩ": 3319,
      "Ġside": 3320,
      "è¯ķ": 3321,
      "å¿Ļ": 3322,
      "ç¨ĭ": 3323,
      "ible": 3324,
      "Ġwist": 3325,
      "Ġbelieve": 3326,
      "èĤ¯å®ļ": 3327,
      "bed": 3328,
      "orrow": 3329,
      "éĥ½ä¸į": 3330,
      "Ġlive": 3331,
      "Ġanim": 3332,
      "Ġsing": 3333,
      "ĠæĪĳå°±": 3334,
      "ertain": 3335,
      "èģĬ": 3336,
      "leg": 3337,
      "Ġgehe": 3338,
      "ily": 3339,
      "è¨Ģ": 3340,
      "åħ¬åı¸": 3341,
      "Ġdays": 3342,
      "ĠåķĬ": 3343,
      "æĥħåĨµ": 3344,
      "Ġnumber": 3345,
      "åįİ": 3346,
      "åı¯æĺ¯": 3347,
      "ä¸Ģä¸ªäºº": 3348,
      "Ġlijkt": 3349,
      "Ġhands": 3350,
      "lijn": 3351,
      "Ġhers": 3352,
      "Ġä»ĸä»¬": 3353,
      "éļı": 3354,
      "Ġgeldt": 3355,
      "enten": 3356,
      "rif": 3357,
      "rijven": 3358,
      "Ġvertellen": 3359,
      "éĩİ": 3360,
      "wat": 3361,
      "æĢª": 3362,
      "ĠFrance": 3363,
      "ient": 3364,
      "Ġleave": 3365,
      "Bed": 3366,
      "ress": 3367,
      "Ġreturn": 3368,
      "elp": 3369,
      "Ġlar": 3370,
      "æľ¯": 3371,
      "aster": 3372,
      "deel": 3373,
      "Ġmogelijk": 3374,
      "Ġgetting": 3375,
      "Ġheard": 3376,
      "ĠMaar": 3377,
      "Ġvlie": 3378,
      "Ġeverything": 3379,
      "ual": 3380,
      "æķĳ": 3381,
      "çº¿": 3382,
      "Ġwerden": 3383,
      "mber": 3384,
      "vin": 3385,
      "æ¥ļ": 3386,
      "åķĨ": 3387,
      "Ġwithout": 3388,
      "oke": 3389,
      "Ġfamily": 3390,
      "åĤ": 3391,
      "Ġbren": 3392,
      "izen": 3393,
      "Ġfood": 3394,
      "Ġ17": 3395,
      "gan": 3396,
      "Ġrust": 3397,
      "æĬĢ": 3398,
      "Ġprob": 3399,
      "çĪ¸çĪ¸": 3400,
      "Ġletter": 3401,
      "Ġthuis": 3402,
      "Ġwhite": 3403,
      "ichaam": 3404,
      "Ġim": 3405,
      "met": 3406,
      "åħµ": 3407,
      "ither": 3408,
      "æŃ¥": 3409,
      "DAD": 3410,
      "oth": 3411,
      "ames": 3412,
      "ction": 3413,
      "åĬŁ": 3414,
      "æĪĳä»¬çļĦ": 3415,
      "ised": 3416,
      "Ġtoday": 3417,
      "åħĦ": 3418,
      "most": 3419,
      "å±ķ": 3420,
      "Ġgeze": 3421,
      "Ġontst": 3422,
      "Ġborn": 3423,
      "Ġhart": 3424,
      "reek": 3425,
      "½çĦ¶": 3426,
      "Ġyoung": 3427,
      "ä¼ļåĦ¿": 3428,
      "Ġguy": 3429,
      "ä¸ĢäºĽ": 3430,
      "å®ĺ": 3431,
      "èĥ½å¤Ł": 3432,
      "Ġbeste": 3433,
      "Ġlucht": 3434,
      "ä¸ĬçļĦ": 3435,
      "èĲ½": 3436,
      "wo": 3437,
      "Ġreden": 3438,
      "ĠAs": 3439,
      "Ġmanier": 3440,
      "woorden": 3441,
      "åĢĴ": 3442,
      "èĦĳ": 3443,
      "kant": 3444,
      "Ġswe": 3445,
      "fta": 3446,
      "Ġ16": 3447,
      "Ġmeisje": 3448,
      "Ġhigh": 3449,
      "æĭī": 3450,
      "Ġogen": 3451,
      "orth": 3452,
      "Ġmannen": 3453,
      "ants": 3454,
      "å¸ĮæľĽ": 3455,
      "è¿ĩæĿ¥": 3456,
      "min": 3457,
      "éĢł": 3458,
      "kker": 3459,
      "Ġpur": 3460,
      "å¤ľ": 3461,
      "ĠMummy": 3462,
      "é»ĳ": 3463,
      "did": 3464,
      "Ġty": 3465,
      "Ġaard": 3466,
      "gev": 3467,
      "Ġ198": 3468,
      "Ġpay": 3469,
      "ä¹ł": 3470,
      "ç»Ī": 3471,
      "ived": 3472,
      "Ġton": 3473,
      "æ²»": 3474,
      "jebl": 3475,
      "rijd": 3476,
      "ason": 3477,
      "æĺİçĻ½": 3478,
      "è·Łä½ł": 3479,
      "ape": 3480,
      "ĠJack": 3481,
      "oet": 3482,
      "Ġdicht": 3483,
      "Ġpast": 3484,
      "ande": 3485,
      "Ġrond": 3486,
      "Ġkrijgt": 3487,
      "Ġonce": 3488,
      "Ġwasn": 3489,
      "Ġvers": 3490,
      "åį´": 3491,
      "çĵ": 3492,
      "Ġdied": 3493,
      "arde": 3494,
      "Ġoffic": 3495,
      "Ġsound": 3496,
      "åıĸ": 3497,
      "enty": 3498,
      "æľīä»Ģä¹Ī": 3499,
      "Ġteam": 3500,
      "Ġbijvoorbeeld": 3501,
      "åĵªåĦ¿": 3502,
      "Ġie": 3503,
      "Ġzorgen": 3504,
      "åįĸ": 3505,
      "Ġfeet": 3506,
      "igd": 3507,
      "Ġmove": 3508,
      "jeblieft": 3509,
      "Ġgeleden": 3510,
      "Where": 3511,
      "Ġsoon": 3512,
      "Ġposs": 3513,
      "Ġber": 3514,
      "raat": 3515,
      "ç»Ħ": 3516,
      "fess": 3517,
      "Ġooit": 3518,
      "rek": 3519,
      "Ġoften": 3520,
      "æĬ¤": 3521,
      "Ġwatch": 3522,
      "ĠRe": 3523,
      "less": 3524,
      "ä¹ħ": 3525,
      "Ġcontro": 3526,
      "inner": 3527,
      "åĵį": 3528,
      "èľ": 3529,
      "Ġob": 3530,
      "Ġson": 3531,
      "Ġvoed": 3532,
      "Ġcos": 3533,
      "ages": 3534,
      "uc": 3535,
      "ures": 3536,
      "åĮº": 3537,
      "Ġprobleem": 3538,
      "Ġbreak": 3539,
      "Ġhafta": 3540,
      "Ġexamen": 3541,
      "ä¸įäºĨ": 3542,
      "roken": 3543,
      "Ġnear": 3544,
      "è£ħ": 3545,
      "voc": 3546,
      "Ġgeluk": 3547,
      "Ġziek": 3548,
      "ics": 3549,
      "å·®": 3550,
      "é¢Ĩ": 3551,
      ".]": 3552,
      "Ġmaking": 3553,
      "Ġsaying": 3554,
      "rought": 3555,
      "Ġed": 3556,
      "mee": 3557,
      "ieden": 3558,
      "âĳ": 3559,
      "Ġwoorden": 3560,
      "Ġgod": 3561,
      "æİī": 3562,
      "Ġsoort": 3563,
      "Ġåİ": 3564,
      "Ġnee": 3565,
      "æ¸¸": 3566,
      "Ġmus": 3567,
      "Ġset": 3568,
      "Ġlicht": 3569,
      "å¸ĥ": 3570,
      "ä¸ĸçķĮ": 3571,
      "lo": 3572,
      "nie": 3573,
      "ellow": 3574,
      "Ġbestaat": 3575,
      "åĻ": 3576,
      "ĠæĿ¥": 3577,
      "æĩĤ": 3578,
      "mat": 3579,
      "bru": 3580,
      "Ġdagen": 3581,
      "Ġåħ¶å®ŀ": 3582,
      "Ġ11": 3583,
      "Ġå¸": 3584,
      "Ġseemed": 3585,
      "NAN": 3586,
      "uurt": 3587,
      "Ġcomes": 3588,
      "Me": 3589,
      "èĦ¸": 3590,
      "iven": 3591,
      "Ġmyself": 3592,
      "Ġdro": 3593,
      "Ġdire": 3594,
      "ĠVan": 3595,
      "æ¯Ķè¾ĥ": 3596,
      "oemd": 3597,
      "Sh": 3598,
      "kelijk": 3599,
      "è¯¯": 3600,
      "èįī": 3601,
      "Ġhus": 3602,
      "Ġgroep": 3603,
      "Ġliggen": 3604,
      "è¯´çļĦ": 3605,
      "Ġgave": 3606,
      "åĭ": 3607,
      "åıĬ": 3608,
      "ular": 3609,
      "èĴ": 3610,
      "Ġtrou": 3611,
      "çļĩ": 3612,
      "Ġoppervlak": 3613,
      "åĪ»": 3614,
      "ĠAmerican": 3615,
      "ator": 3616,
      "å½¢": 3617,
      "æĻļä¸Ĭ": 3618,
      "Ġground": 3619,
      "Ġcertain": 3620,
      "åıĶ": 3621,
      "è®¾": 3622,
      "ohn": 3623,
      "Ġlink": 3624,
      "å®¢": 3625,
      "æľīçĤ¹": 3626,
      "olen": 3627,
      "Ġkop": 3628,
      "ines": 3629,
      "Ġvar": 3630,
      "Ġhour": 3631,
      "Ġexpl": 3632,
      "Ġjongens": 3633,
      "é¬": 3634,
      "Ġbijna": 3635,
      "airs": 3636,
      "æľīä¸Ģä¸ª": 3637,
      "Ġidea": 3638,
      "åł": 3639,
      "èģĶ": 3640,
      "esloten": 3641,
      "Ġmatter": 3642,
      "éĨ": 3643,
      "Ġagainst": 3644,
      "elden": 3645,
      "å§ĳ": 3646,
      "Ge": 3647,
      "ä»¤": 3648,
      "Ġalong": 3649,
      "ities": 3650,
      "Ġfall": 3651,
      "inds": 3652,
      "è´¨": 3653,
      "Ġready": 3654,
      "Ġtom": 3655,
      "ready": 3656,
      "Ġminuten": 3657,
      "ĠåĹ¯": 3658,
      "æĢģ": 3659,
      "çĶµè¯Ŀ": 3660,
      "Ġcirkel": 3661,
      "Ġtimes": 3662,
      "Ġdeed": 3663,
      "owed": 3664,
      "çĶ»": 3665,
      "å¯Ĩ": 3666,
      "Ġminder": 3667,
      "sn": 3668,
      "Ġä¸įæĺ¯": 3669,
      "ĠHow": 3670,
      "Ġgezegd": 3671,
      "ä»½": 3672,
      "é¬¼": 3673,
      "Ġorgan": 3674,
      "Ġunderstand": 3675,
      "Ġprobably": 3676,
      "Ġhusband": 3677,
      "Ġfact": 3678,
      "Ġbeaut": 3679,
      "raak": 3680,
      "çŁ³": 3681,
      "ected": 3682,
      "Ġsoms": 3683,
      "ç±»": 3684,
      "Ġgebruiken": 3685,
      "Ġwed": 3686,
      "Ġsim": 3687,
      "ĠZie": 3688,
      "æį¢": 3689,
      "æĹı": 3690,
      "Ġsub": 3691,
      "oopt": 3692,
      "ĠCan": 3693,
      "ha": 3694,
      "ony": 3695,
      "æł¡": 3696,
      "éĺ¿": 3697,
      "Ġgarden": 3698,
      "ç»Ł": 3699,
      "Ġleer": 3700,
      "Ġwrong": 3701,
      "Ġè¿ĺæľī": 3702,
      "ared": 3703,
      "Ġtown": 3704,
      "Ġonge": 3705,
      "ury": 3706,
      "èĳ": 3707,
      "Ġjo": 3708,
      "zy": 3709,
      "Ġwomen": 3710,
      "ats": 3711,
      "ara": 3712,
      "Ġformule": 3713,
      "II": 3714,
      "Ġsitu": 3715,
      "Ġjaren": 3716,
      "æľª": 3717,
      "Ġplac": 3718,
      "åħĪçĶŁ": 3719,
      "gy": 3720,
      "é±": 3721,
      "Ġcook": 3722,
      "Ġspeel": 3723,
      "æĸĻ": 3724,
      "çľŁæĺ¯": 3725,
      "Ġdraw": 3726,
      "iger": 3727,
      "è¯´äºĨ": 3728,
      "Ġspir": 3729,
      "ĠKikuyu": 3730,
      "Ġbrand": 3731,
      "ç¤¾": 3732,
      "é±¼": 3733,
      "Ġhalen": 3734,
      "zicht": 3735,
      "Ġnorm": 3736,
      "ä½łå°±": 3737,
      "ĠPar": 3738,
      "Ġprobe": 3739,
      "éĻ¤": 3740,
      "Ġlichaam": 3741,
      "çł´": 3742,
      "Ġpretty": 3743,
      "Ġbegrij": 3744,
      "Ġinterest": 3745,
      "erv": 3746,
      "Ġhoren": 3747,
      "ĠDan": 3748,
      "illy": 3749,
      "Ġarm": 3750,
      "Ġgesp": 3751,
      "Ġprom": 3752,
      "Ġev": 3753,
      "Ġshop": 3754,
      "Ġpick": 3755,
      "å¿ĥéĩĮ": 3756,
      "Just": 3757,
      "Ġä»Ģä¹Ī": 3758,
      "Ġeas": 3759,
      "åħĥ": 3760,
      "Deze": 3761,
      "Ġinv": 3762,
      "Ġparty": 3763,
      "ior": 3764,
      "esh": 3765,
      "å¾®": 3766,
      "aint": 3767,
      "Ġhappened": 3768,
      "An": 3769,
      "éŃ": 3770,
      "Ġuh": 3771,
      "Ġgrot": 3772,
      "ĠSchrijf": 3773,
      "åŀ": 3774,
      "ä½łæĺ¯": 3775,
      "Ġstory": 3776,
      "ä¸ªäºº": 3777,
      "Ġ202": 3778,
      "Ġwin": 3779,
      "å¤į": 3780,
      "å«": 3781,
      "ĠJan": 3782,
      "dem": 3783,
      "ĠAB": 3784,
      "Ġref": 3785,
      "Ġsit": 3786,
      "weede": 3787,
      "Ġoude": 3788,
      "Ġet": 3789,
      "Ġtaken": 3790,
      "è¡£": 3791,
      "æĶ¯": 3792,
      "ç«Ł": 3793,
      "Ġéĥ½": 3794,
      "Ġleng": 3795,
      "Ġpict": 3796,
      "è¿ĻåĦ¿": 3797,
      "ç»Ń": 3798,
      "ä¸įèµ·": 3799,
      "ently": 3800,
      "ç»Ĩ": 3801,
      "éģĩ": 3802,
      "å£«": 3803,
      "?'": 3804,
      "got": 3805,
      "ize": 3806,
      "Ġtable": 3807,
      "Ġnacht": 3808,
      "æĪĳä¸į": 3809,
      "irth": 3810,
      "Ġhair": 3811,
      "because": 3812,
      "å±Ģ": 3813,
      "uil": 3814,
      "omin": 3815,
      "äºĨåĲ§": 3816,
      "è®º": 3817,
      "Ġmens": 3818,
      "Ġappear": 3819,
      "bare": 3820,
      "Ġhen": 3821,
      "Ġdead": 3822,
      "ieten": 3823,
      "æĬĵ": 3824,
      "åĺ´": 3825,
      "Ġnoemen": 3826,
      "è§Ħ": 3827,
      "éĿĴ": 3828,
      "ç§Ģ": 3829,
      "Ġgotta": 3830,
      "ĠPaul": 3831,
      "Ġonderzoek": 3832,
      "Wij": 3833,
      "iness": 3834,
      "äºī": 3835,
      "Ġchar": 3836,
      "ĠUnited": 3837,
      "Ġtijdens": 3838,
      "Ġhoop": 3839,
      "Ġnatuurlijk": 3840,
      "inger": 3841,
      "Ġeff": 3842,
      "Ġwouldn": 3843,
      "ç¤¼": 3844,
      "maar": 3845,
      "Ġoh": 3846,
      "orp": 3847,
      "Ġwerken": 3848,
      "Ġvindt": 3849,
      "Ġcase": 3850,
      "Ġkilled": 3851,
      "ä¸ĵ": 3852,
      "reven": 3853,
      "Ġtek": 3854,
      "esten": 3855,
      "Ġnoise": 3856,
      "æĴŃ": 3857,
      "é¾Ļ": 3858,
      "Ġverz": 3859,
      "oepen": 3860,
      "Ġoud": 3861,
      "Ġpot": 3862,
      "Ġbek": 3863,
      "Laten": 3864,
      "ads": 3865,
      "æ´ĭ": 3866,
      "æķħäºĭ": 3867,
      "Bedankt": 3868,
      "oms": 3869,
      "Ġpolitie": 3870,
      "ĠOok": 3871,
      "ning": 3872,
      "mb": 3873,
      "Ġang": 3874,
      "Ġ197": 3875,
      "èĻ½çĦ¶": 3876,
      "ĠåĨį": 3877,
      "Ã¶r": 3878,
      "Ġkijk": 3879,
      "Ġupon": 3880,
      "éĺ³": 3881,
      "uig": 3882,
      "Ġzon": 3883,
      "ä¼Ļ": 3884,
      "ney": 3885,
      "Ġbas": 3886,
      "Ġlik": 3887,
      "Ġcity": 3888,
      "åģĩ": 3889,
      "Ġwhole": 3890,
      "Who": 3891,
      "Ġoppervlakte": 3892,
      "Ġniemand": 3893,
      "Ġdenken": 3894,
      "ĠSo": 3895,
      "åħĶ": 3896,
      "xim": 3897,
      "ĠX": 3898,
      "Ġquest": 3899,
      "Are": 3900,
      "Maak": 3901,
      "æ¨": 3902,
      "æĿ¿": 3903,
      "Ġblack": 3904,
      "çĪ¹": 3905,
      "æŀģ": 3906,
      "æ¯Ľ": 3907,
      "Ġwoord": 3908,
      "Ġzoon": 3909,
      "bel": 3910,
      "Ġmooi": 3911,
      "ital": 3912,
      "ä»·": 3913,
      "Ġenige": 3914,
      "è°Ī": 3915,
      "fe": 3916,
      "æ¦": 3917,
      "Ġduring": 3918,
      "Ġheld": 3919,
      "Ġpak": 3920,
      "Alles": 3921,
      "acter": 3922,
      "ĠPat": 3923,
      "abel": 3924,
      "Ġgebied": 3925,
      "Ġmine": 3926,
      "ĠThat": 3927,
      "è¿ĩåİ»": 3928,
      "ense": 3929,
      "Ġalmost": 3930,
      "å·´": 3931,
      "åĩĨå¤ĩ": 3932,
      "zus": 3933,
      "urs": 3934,
      "aybe": 3935,
      "Ġ196": 3936,
      "åĶ±": 3937,
      "æĪĸèĢħ": 3938,
      "Ġbar": 3939,
      "aanse": 3940,
      "Ġzag": 3941,
      "antwoord": 3942,
      "åĳ³": 3943,
      "çĸĳ": 3944,
      "enden": 3945,
      "åħ»": 3946,
      "ĠRo": 3947,
      "ains": 3948,
      "rat": 3949,
      "Ġvide": 3950,
      "Ġgebruik": 3951,
      "ying": 3952,
      "ĠæĬĬ": 3953,
      "owers": 3954,
      "åĪ«äºº": 3955,
      "Ġbrought": 3956,
      "oto": 3957,
      "è·³": 3958,
      "Ġmonth": 3959,
      "ON": 3960,
      "con": 3961,
      "ager": 3962,
      "Ġgeloof": 3963,
      "Ġblijft": 3964,
      "åĬŀæ³ķ": 3965,
      "ä¼Ĺ": 3966,
      "Ġsuper": 3967,
      "çĮª": 3968,
      "Ġfull": 3969,
      "æĺ¯ä¸Ģ": 3970,
      "Ġspel": 3971,
      "Ġbes": 3972,
      "Ġzin": 3973,
      "Zeg": 3974,
      "åī§": 3975,
      "Ġocc": 3976,
      "itten": 3977,
      "éĿĻ": 3978,
      "Ġav": 3979,
      "åľŁ": 3980,
      "æĬķ": 3981,
      "åĩºåİ»": 3982,
      "é¹": 3983,
      "Ġçľĭ": 3984,
      "iter": 3985,
      "Ġresp": 3986,
      "ĠDuit": 3987,
      "ĠæĪĳè§īå¾Ĺ": 3988,
      "ement": 3989,
      "Ġgebeurd": 3990,
      "Ġbere": 3991,
      "offen": 3992,
      "cess": 3993,
      "ĠVer": 3994,
      "Men": 3995,
      "hel": 3996,
      "äº¬": 3997,
      "å°½": 3998,
      "Then": 3999,
      "Ġadd": 4000,
      "Ġruim": 4001,
      "çŃĶæ¡Ī": 4002,
      "Ġverhaal": 4003,
      "Ġvijf": 4004,
      "Ġcouldn": 4005,
      "Ġä»İ": 4006,
      "éĢĤ": 4007,
      "Ġåı¯æĺ¯": 4008,
      "Ġhoek": 4009,
      "adi": 4010,
      "cks": 4011,
      "é¡»": 4012,
      "Blijf": 4013,
      "inde": 4014,
      "æĿĥ": 4015,
      "æĪĳä¹Ł": 4016,
      "stof": 4017,
      "ĠHer": 4018,
      "æĸŃ": 4019,
      "æĭį": 4020,
      "heen": 4021,
      "Ġwhe": 4022,
      "Ġvergelijk": 4023,
      "Ġcompl": 4024,
      "Ġfamilie": 4025,
      "Ġzoek": 4026,
      "ĠAg": 4027,
      "è·Łä½łè¯´": 4028,
      "Ġ30": 4029,
      "Ġhoudt": 4030,
      "Ġbal": 4031,
      "omet": 4032,
      "ola": 4033,
      "æİ¨": 4034,
      "è¸": 4035,
      "Ġdeath": 4036,
      "Ġpiece": 4037,
      "Ġvandaag": 4038,
      "è¯´ä½ł": 4039,
      "Ġzelfs": 4040,
      "Ġminute": 4041,
      "Ġvroeg": 4042,
      "ocht": 4043,
      "ç»§": 4044,
      "æĢĢ": 4045,
      "ĠOm": 4046,
      "Ń¦": 4047,
      "Ġmoo": 4048,
      "Ġij": 4049,
      "ises": 4050,
      "Ġwants": 4051,
      "èģĮ": 4052,
      "Ġä»Ĭå¤©": 4053,
      "veer": 4054,
      "Ġrather": 4055,
      "åıĤ": 4056,
      "irty": 4057,
      "ä»¥åīį": 4058,
      "æĭħ": 4059,
      "ĠZo": 4060,
      "Ġspelen": 4061,
      "æ±ī": 4062,
      "Ã¶rdin": 4063,
      "zer": 4064,
      "Ġåĩ": 4065,
      "æĢİä¹Īæł·": 4066,
      "æĺ¯ä»Ģä¹Ī": 4067,
      "ram": 4068,
      "Ġles": 4069,
      "çİ¯": 4070,
      "sk": 4071,
      "Âł": 4072,
      "Ġble": 4073,
      "Ġpijn": 4074,
      "verd": 4075,
      "ĠPro": 4076,
      "æ±Ł": 4077,
      "Ġmarried": 4078,
      "Ġgeweldig": 4079,
      "CDS": 4080,
      "alm": 4081,
      "Ġraak": 4082,
      "ana": 4083,
      "Ġsun": 4084,
      "Ġsince": 4085,
      "ided": 4086,
      "Ġsacrif": 4087,
      "Ġbra": 4088,
      "ilijk": 4089,
      "Ġopge": 4090,
      "å¥½åĥı": 4091,
      "éĽĨ": 4092,
      "just": 4093,
      "uin": 4094,
      "oul": 4095,
      "Ġ14": 4096,
      "åĽŃ": 4097,
      "Ġplaying": 4098,
      "èį¯": 4099,
      "Ġdi": 4100,
      "iets": 4101,
      "Ġbirth": 4102,
      "ijnen": 4103,
      "è§Ĵ": 4104,
      "bert": 4105,
      "Erm": 4106,
      "gram": 4107,
      "Ġposit": 4108,
      "Ġfine": 4109,
      "Ġleav": 4110,
      "Ġgebeurt": 4111,
      "Ah": 4112,
      "del": 4113,
      "Ġincl": 4114,
      "Ġkaart": 4115,
      "è´£": 4116,
      "Ġfloor": 4117,
      "Ġå®ĥ": 4118,
      "Ġgreen": 4119,
      "Ġæ²¡æľī": 4120,
      "heden": 4121,
      "Ġoorlog": 4122,
      "cum": 4123,
      "Ġstem": 4124,
      "ĠTe": 4125,
      "lijke": 4126,
      "çº§": 4127,
      "æľºä¼ļ": 4128,
      "æ¸ħæ¥ļ": 4129,
      "Ġcult": 4130,
      "iezen": 4131,
      "Ġbekend": 4132,
      "Ġring": 4133,
      "ĠAt": 4134,
      "è´¹": 4135,
      "è´Ł": 4136,
      "raagd": 4137,
      "èµ¶ç´§": 4138,
      "Ġtou": 4139,
      "Ġpull": 4140,
      "Ġum": 4141,
      "ret": 4142,
      "Ġvak": 4143,
      "Ġhum": 4144,
      "æľĿ": 4145,
      "Ġans": 4146,
      "åĬ©": 4147,
      "ç®Ģ": 4148,
      "Ġmedicine": 4149,
      "mper": 4150,
      "Ġfight": 4151,
      "ä¸įåĪ°": 4152,
      "ĠLeg": 4153,
      "çªģçĦ¶": 4154,
      "Ġmark": 4155,
      "Ġsent": 4156,
      "åĪ°åºķ": 4157,
      "schapp": 4158,
      "é£Ł": 4159,
      "ering": 4160,
      "åİĭ": 4161,
      "Ġzouden": 4162,
      "ç¦ı": 4163,
      "Look": 4164,
      "Ġtill": 4165,
      "Ġmouth": 4166,
      "èĥĮ": 4167,
      "ç¤º": 4168,
      "Ġbrengen": 4169,
      "kele": 4170,
      "æ¹": 4171,
      "è¯»": 4172,
      "æĶ¾å¿ĥ": 4173,
      "çĮ«": 4174,
      "bye": 4175,
      "Ġmoeilijk": 4176,
      "houd": 4177,
      "reg": 4178,
      "Thank": 4179,
      "Ġimport": 4180,
      "came": 4181,
      "ruit": 4182,
      "ä»¥ä¸º": 4183,
      "ç¬¬äºĮ": 4184,
      "ä¸įè¡Į": 4185,
      "irt": 4186,
      "Ġ100": 4187,
      "osten": 4188,
      "Ġbereken": 4189,
      "Ġpas": 4190,
      "Ġcra": 4191,
      "rew": 4192,
      "æĿ¾": 4193,
      "appen": 4194,
      "åİĨ": 4195,
      "Ġbegin": 4196,
      "Ġjong": 4197,
      "Ġander": 4198,
      "ilig": 4199,
      "Ġpersoon": 4200,
      "Ġconsider": 4201,
      "aties": 4202,
      "ä¸Ģæ¬¡": 4203,
      "Ġåĳĥ": 4204,
      "Ġmak": 4205,
      "Ġcou": 4206,
      "Ġopg": 4207,
      "ello": 4208,
      "rienden": 4209,
      "çĽ¸ä¿¡": 4210,
      "Ġvoice": 4211,
      "ĠMad": 4212,
      "Ġglad": 4213,
      "sche": 4214,
      "çļĦéĤ£": 4215,
      "é¦Ļ": 4216,
      "cellen": 4217,
      "Ġlost": 4218,
      "çļĦä¸Ģä¸ª": 4219,
      "bal": 4220,
      "äºĳ": 4221,
      "ĠGeef": 4222,
      "æŀª": 4223,
      "è®©ä½ł": 4224,
      "Ġplek": 4225,
      "Echt": 4226,
      "IS": 4227,
      "ude": 4228,
      "vrouw": 4229,
      "ada": 4230,
      "Ġcannot": 4231,
      "Ġdress": 4232,
      "æĽ¾": 4233,
      "Ġkrijg": 4234,
      "ined": 4235,
      "Ġhut": 4236,
      "çļĦäºĭæĥħ": 4237,
      "Ġkr": 4238,
      "Ġjob": 4239,
      "Ġhappy": 4240,
      "Ġthank": 4241,
      "Ġmeans": 4242,
      "Ġtrans": 4243,
      "éªĮ": 4244,
      "ä¸įè¿ĩ": 4245,
      "åĪĽ": 4246,
      "iÃ«n": 4247,
      "anc": 4248,
      "Ġ25": 4249,
      "Ġblue": 4250,
      "ouse": 4251,
      "Ġbecame": 4252,
      "è¿ĻéĩĮ": 4253,
      "Ġactually": 4254,
      "Ġhang": 4255,
      "ä¸īåįģ": 4256,
      "ĠéĤ£ä½ł": 4257,
      "ublic": 4258,
      "Get": 4259,
      "Ġhat": 4260,
      "uth": 4261,
      "Ġmeter": 4262,
      "éĻª": 4263,
      "ç¾Ĭ": 4264,
      "Ġaren": 4265,
      "ĠAd": 4266,
      "å¾·": 4267,
      "press": 4268,
      "æĹ¥æľ¬": 4269,
      "Ġmaxim": 4270,
      "Ġprecies": 4271,
      "Ġkamer": 4272,
      "å¿µ": 4273,
      "Stop": 4274,
      "ç©¿": 4275,
      "ĠWhen": 4276,
      "Ġmorgen": 4277,
      "Ġcup": 4278,
      "åıĳçĶŁ": 4279,
      "Good": 4280,
      "lish": 4281,
      "Ġmess": 4282,
      "Ġthrow": 4283,
      "Ġalready": 4284,
      "Ġsat": 4285,
      "Ġval": 4286,
      "ieken": 4287,
      "unch": 4288,
      "ĠAng": 4289,
      "ima": 4290,
      "ĠJap": 4291,
      "iful": 4292,
      "wards": 4293,
      "Ġpa": 4294,
      "ĠEl": 4295,
      "å¸Ŀ": 4296,
      "ĠGer": 4297,
      "Ġtest": 4298,
      "Ġluister": 4299,
      "Ġfav": 4300,
      "äºĨä¸Ģä¸ª": 4301,
      "iers": 4302,
      "çĽĳ": 4303,
      "æ¯Ĵ": 4304,
      "rum": 4305,
      "Ġchange": 4306,
      "å±ŀ": 4307,
      "åĽŀåİ»": 4308,
      "Luister": 4309,
      "sten": 4310,
      "Ġteken": 4311,
      "åĦ¿åŃĲ": 4312,
      "ekent": 4313,
      "Ġvrouwen": 4314,
      "Ġverkl": 4315,
      "Ġhoogte": 4316,
      "Ġkru": 4317,
      "Ġones": 4318,
      "aalde": 4319,
      "Ġgevraagd": 4320,
      "Ġaunt": 4321,
      "Ġlearn": 4322,
      "Ġafstand": 4323,
      "å½ĵæĹ¶": 4324,
      "æ¸©": 4325,
      "Ġwit": 4326,
      "ural": 4327,
      "plaat": 4328,
      "Ġmot": 4329,
      "Ġhell": 4330,
      "Ġfield": 4331,
      "Ġcold": 4332,
      "åľ¨ä¸Ģèµ·": 4333,
      "more": 4334,
      "tle": 4335,
      "Ġgame": 4336,
      "è¯´æĪĳ": 4337,
      "çĬ¶": 4338,
      "Ġprot": 4339,
      "Ġquick": 4340,
      "èĥ¡": 4341,
      "arling": 4342,
      "ĠåĴ±ä»¬": 4343,
      "ĠHis": 4344,
      "ience": 4345,
      "rying": 4346,
      "Ġschat": 4347,
      "æĥ³åĪ°": 4348,
      "Ġhimself": 4349,
      "Can": 4350,
      "Ġoutside": 4351,
      "Ġfelt": 4352,
      "ĠRose": 4353,
      "Ġweergegeven": 4354,
      "Re": 4355,
      "wee": 4356,
      "å¡": 4357,
      "Ġwarm": 4358,
      "Ġpen": 4359,
      "ĠWik": 4360,
      "Ġvlak": 4361,
      "Ġfront": 4362,
      "kl": 4363,
      "Ġhuh": 4364,
      "å¹¸": 4365,
      "æŃ£ç¡®": 4366,
      "euw": 4367,
      "ç¯": 4368,
      "ä¹¡": 4369,
      "olf": 4370,
      "Ġsheep": 4371,
      "Ġresult": 4372,
      "zie": 4373,
      "Ġill": 4374,
      "Ġbuy": 4375,
      "ester": 4376,
      "ç»ĥ": 4377,
      "ogel": 4378,
      "Ġbetekent": 4379,
      "Ġtien": 4380,
      "Ġage": 4381,
      "Ġless": 4382,
      "å°Ķ": 4383,
      "Ġsometimes": 4384,
      "zij": 4385,
      "ĠBl": 4386,
      "tern": 4387,
      "æłĩ": 4388,
      "Ġboek": 4389,
      "åģľ": 4390,
      "å±ħ": 4391,
      "èĦļ": 4392,
      "Ġverwacht": 4393,
      "Ġsong": 4394,
      "Ġvond": 4395,
      "lex": 4396,
      "æĭ©": 4397,
      "ijdt": 4398,
      "Ġsold": 4399,
      "Ġbag": 4400,
      "çļĦå¤§": 4401,
      "æ²³": 4402,
      "midd": 4403,
      "ä¸¥": 4404,
      "åı¤": 4405,
      "Ġlengte": 4406,
      "Ex": 4407,
      "Ġkracht": 4408,
      "å¤ļå°ĳ": 4409,
      "ĠStates": 4410,
      "Vol": 4411,
      "èĵ": 4412,
      "Ġpost": 4413,
      "Ġinc": 4414,
      "Ġexper": 4415,
      "æľĢè¿ĳ": 4416,
      "Ġmilj": 4417,
      "Ġcolor": 4418,
      "åľ¨è¿ĻåĦ¿": 4419,
      "Ġeight": 4420,
      "Ġgeef": 4421,
      "Ġuitleg": 4422,
      "eerde": 4423,
      "åıªæĺ¯": 4424,
      "Zijn": 4425,
      "Ġ:": 4426,
      "idge": 4427,
      "ardon": 4428,
      "Ġgrou": 4429,
      "Ġlate": 4430,
      "Ġfree": 4431,
      "è¯Ń": 4432,
      "Ġ13": 4433,
      "èĤ¡": 4434,
      "ship": 4435,
      "ĠAfric": 4436,
      "hal": 4437,
      "punt": 4438,
      "Ġsqu": 4439,
      "Ġstate": 4440,
      "ĠAust": 4441,
      "éĹ»": 4442,
      "slag": 4443,
      "åĵ¦": 4444,
      "Ġbegan": 4445,
      "åĳĬè¯īä½ł": 4446,
      "Ġoper": 4447,
      "Ġ194": 4448,
      "æ´¾": 4449,
      "Denk": 4450,
      "Mag": 4451,
      "Ġsett": 4452,
      "Ġlekker": 4453,
      "Ġeigenlijk": 4454,
      "Mummy": 4455,
      "Te": 4456,
      "Ġinside": 4457,
      "Ġya": 4458,
      "Ġorder": 4459,
      "amba": 4460,
      "Kan": 4461,
      "Ġpower": 4462,
      "Ġå¼": 4463,
      "éĢŁ": 4464,
      "å¢ĥ": 4465,
      "Ġband": 4466,
      "ĠDo": 4467,
      "é¼ł": 4468,
      "As": 4469,
      "gg": 4470,
      "ĠAunt": 4471,
      "éĿł": 4472,
      "Ġontmo": 4473,
      "Did": 4474,
      "Ġstuff": 4475,
      "akker": 4476,
      "ĠSte": 4477,
      "Ġmill": 4478,
      "Ġgun": 4479,
      "Ġrele": 4480,
      "ragen": 4481,
      "rijs": 4482,
      "Ġvolgens": 4483,
      "rouwen": 4484,
      "Ġouders": 4485,
      "ĠèĢĮä¸Ķ": 4486,
      "Ġhond": 4487,
      "çļ®": 4488,
      "åĢ¼": 4489,
      "hand": 4490,
      "Ġsil": 4491,
      "æ²¹": 4492,
      "åĿı": 4493,
      "Ġè°¢è°¢": 4494,
      "aks": 4495,
      "å¹¿": 4496,
      "Ġgenoemd": 4497,
      "è¡Ģ": 4498,
      "Ġechte": 4499,
      "werp": 4500,
      "Ġlanden": 4501,
      "æ¼Ĥ": 4502,
      "Ġdou": 4503,
      "Ġgas": 4504,
      "stem": 4505,
      "Ġenerg": 4506,
      "ully": 4507,
      "lagen": 4508,
      "ewijs": 4509,
      "Ġanswer": 4510,
      "EL": 4511,
      "Ġgiven": 4512,
      "Ġvrienden": 4513,
      "Ġzet": 4514,
      "æĺ¨": 4515,
      "ica": 4516,
      "vers": 4517,
      "åĪĿ": 4518,
      "æī¿": 4519,
      "ĠEurope": 4520,
      "Ġeng": 4521,
      "18": 4522,
      "Kl": 4523,
      "èĹ": 4524,
      "Ġè°ģ": 4525,
      "Ġgere": 4526,
      "è®®": 4527,
      "itting": 4528,
      "Tot": 4529,
      "Toen": 4530,
      "ham": 4531,
      "Ġbird": 4532,
      "å©Ĩ": 4533,
      "wijl": 4534,
      "huh": 4535,
      "æĵ": 4536,
      "Ġding": 4537,
      "thank": 4538,
      "anger": 4539,
      "ĠFor": 4540,
      "åĽ½å®¶": 4541,
      "rench": 4542,
      "èŃ¦": 4543,
      "ico": 4544,
      "Ġconst": 4545,
      "åĽŀå®¶": 4546,
      "Ġgevonden": 4547,
      "é²": 4548,
      "anen": 4549,
      "arth": 4550,
      "read": 4551,
      "æĪı": 4552,
      "åħ·": 4553,
      "ppen": 4554,
      "æµİ": 4555,
      "for": 4556,
      "Ġeeuw": 4557,
      "æĪĳæĥ³": 4558,
      "äºĨè§£": 4559,
      "raid": 4560,
      "æĹ¢": 4561,
      "ĠPr": 4562,
      "éĨĴ": 4563,
      "To": 4564,
      "Ġloc": 4565,
      "Ġkap": 4566,
      "Ġenkele": 4567,
      "åĩºäºĨ": 4568,
      "è¶ħ": 4569,
      "Ġplayed": 4570,
      "åĪļæīį": 4571,
      "aande": 4572,
      "Ġdarling": 4573,
      "Ġhowever": 4574,
      "é©¬ä¸Ĭ": 4575,
      "used": 4576,
      "ĠItal": 4577,
      "èıľ": 4578,
      "bur": 4579,
      "isk": 4580,
      "åı¶": 4581,
      "ĠMet": 4582,
      "ante": 4583,
      "åĩ»": 4584,
      "reng": 4585,
      "Ġstarted": 4586,
      "Ã¡": 4587,
      "Ġbesl": 4588,
      "ikk": 4589,
      "Ġä½łæĺ¯": 4590,
      "ĠPl": 4591,
      "ĠMrs": 4592,
      "dred": 4593,
      "ĠJohn": 4594,
      "Ġcontin": 4595,
      "Ġbuild": 4596,
      "50": 4597,
      "è¿İ": 4598,
      "å¿ħé¡»": 4599,
      "ained": 4600,
      "Ġdenkt": 4601,
      "Ġguess": 4602,
      "inken": 4603,
      "Ġeither": 4604,
      "çļĦäºĭ": 4605,
      "par": 4606,
      "Ġtaking": 4607,
      "ĠWel": 4608,
      "schijn": 4609,
      "bank": 4610,
      "ging": 4611,
      "Ġhon": 4612,
      "Ġvoet": 4613,
      "Ġleeft": 4614,
      "èĭ±": 4615,
      "Ġdezelfde": 4616,
      "æĿ¨": 4617,
      "Ġwords": 4618,
      "ĠåĪ°": 4619,
      "Bij": 4620,
      "Ġhoort": 4621,
      "dag": 4622,
      "nel": 4623,
      "Ġgets": 4624,
      "Ġtwenty": 4625,
      "Ġhundred": 4626,
      "è±Ĩ": 4627,
      "10": 4628,
      "Go": 4629,
      "haps": 4630,
      "çľĭè§ģ": 4631,
      "Ã¼": 4632,
      "ĠDen": 4633,
      "ĠPh": 4634,
      "Ġgeval": 4635,
      "Ġlangs": 4636,
      "å·ŀ": 4637,
      "å¯Ł": 4638,
      "Ġbrief": 4639,
      "Ġclose": 4640,
      "å§ĳå¨ĺ": 4641,
      "vely": 4642,
      "ommy": 4643,
      "å°±ä¼ļ": 4644,
      "Ġconf": 4645,
      "æĸ¹éĿ¢": 4646,
      "æīĭæľº": 4647,
      "å®¹æĺĵ": 4648,
      "Ġgele": 4649,
      "then": 4650,
      "éĩĮçļĦ": 4651,
      "æĮī": 4652,
      "åĻ¨": 4653,
      "Ġvideo": 4654,
      "åŃĺ": 4655,
      "ING": 4656,
      "Ġturned": 4657,
      "ç£": 4658,
      "Ġtakes": 4659,
      "æĥĬ": 4660,
      "plant": 4661,
      "Over": 4662,
      "hell": 4663,
      "å¹´çļĦ": 4664,
      "Ã«n": 4665,
      "ĠYork": 4666,
      "Ġvergelijking": 4667,
      "ĠhÃ¨": 4668,
      "Ġdef": 4669,
      "ç»ĵæŀľ": 4670,
      "Here": 4671,
      "Ġlisten": 4672,
      "è¯´è¯Ŀ": 4673,
      "æŃ¦": 4674,
      "éĻĪ": 4675,
      "é«ĺåħ´": 4676,
      "éĢīæĭ©": 4677,
      "Ġtrying": 4678,
      "Ġsweet": 4679,
      "cri": 4680,
      "sy": 4681,
      "aste": 4682,
      "äºĨåķĬ": 4683,
      "ĠMay": 4684,
      "é¡º": 4685,
      "åĩłä¸ª": 4686,
      "Ġhurt": 4687,
      "ention": 4688,
      "åĪĻ": 4689,
      "Ġyourself": 4690,
      "éĻħ": 4691,
      "åıĳå±ķ": 4692,
      "Ġroll": 4693,
      "Neem": 4694,
      "ĠFrank": 4695,
      "Ġpopul": 4696,
      "Ġæĥ³": 4697,
      "è¿½": 4698,
      "æĺ¥": 4699,
      "åĲĽ": 4700,
      "å°±ä¸į": 4701,
      "ments": 4702,
      "Ġlaug": 4703,
      "Ġgehad": 4704,
      "Ġwachten": 4705,
      "Ġongeveer": 4706,
      "Ġmakes": 4707,
      "Ġges": 4708,
      "Ġzat": 4709,
      "ahu": 4710,
      "è¿Ļæł·çļĦ": 4711,
      "ziek": 4712,
      "Ġvij": 4713,
      "æŀĲ": 4714,
      "ç±³": 4715,
      "Ġoef": 4716,
      "beren": 4717,
      "æĺİå¤©": 4718,
      "dra": 4719,
      "Ġbaan": 4720,
      "rab": 4721,
      "ĠAm": 4722,
      "èĻİ": 4723,
      "Ġgirls": 4724,
      "zaam": 4725,
      "Ġmacht": 4726,
      "Ġvoort": 4727,
      "åĩºçİ°": 4728,
      "Ġklas": 4729,
      "èĢĮä¸Ķ": 4730,
      "Ġtrouble": 4731,
      "Zie": 4732,
      "like": 4733,
      "èļ": 4734,
      "iep": 4735,
      "ĠCl": 4736,
      "Ġsomeone": 4737,
      "çº¦": 4738,
      "hem": 4739,
      "eeuw": 4740,
      "ĠWil": 4741,
      "è·Łä»ĸ": 4742,
      "HE": 4743,
      "Ġvle": 4744,
      "Ġzee": 4745,
      "ä¹±": 4746,
      "rap": 4747,
      "èĩ´": 4748,
      "ĠChi": 4749,
      "éĢļè¿ĩ": 4750,
      "éº»": 4751,
      "Ġbeautiful": 4752,
      "AP": 4753,
      "God": 4754,
      "Ã³": 4755,
      "estourn": 4756,
      "æºĲ": 4757,
      "have": 4758,
      "ĠPer": 4759,
      "reekt": 4760,
      "Ġsever": 4761,
      "Ġ193": 4762,
      "éĺ²": 4763,
      "çĭ¼": 4764,
      "Ġclean": 4765,
      "Ġable": 4766,
      "Was": 4767,
      "good": 4768,
      "å§¨": 4769,
      "avid": 4770,
      "çĭĹ": 4771,
      "Ġmusic": 4772,
      "estournier": 4773,
      "'.": 4774,
      "Ġbecome": 4775,
      "gend": 4776,
      "æĪĲäºĨ": 4777,
      "é¡¾": 4778,
      "werk": 4779,
      "Ġwet": 4780,
      "ieved": 4781,
      "å¿ĺ": 4782,
      "åĨ·": 4783,
      "ists": 4784,
      "Ġontw": 4785,
      "éĽ¨": 4786,
      "ä¾Ŀ": 4787,
      "ming": 4788,
      "Ġtweede": 4789,
      "Ġbeer": 4790,
      "Ġalone": 4791,
      "pped": 4792,
      "ĠThen": 4793,
      "Ġrelig": 4794,
      "Ġacross": 4795,
      "ism": 4796,
      "Ġriver": 4797,
      "Ġtemper": 4798,
      "Ġamong": 4799,
      "Ġgrootste": 4800,
      "Ġplane": 4801,
      "æĲŀ": 4802,
      "Ġdiv": 4803,
      "inig": 4804,
      "Ġlay": 4805,
      "Ġzom": 4806,
      "Ġcap": 4807,
      "Ġrij": 4808,
      "æĻ¯": 4809,
      "ari": 4810,
      "Ġå·": 4811,
      "ä¸ŃçļĦ": 4812,
      "pril": 4813,
      "éħį": 4814,
      "Ġè¡Į": 4815,
      "atter": 4816,
      "Ġhope": 4817,
      "ä»ħ": 4818,
      "åŃĲçļĦ": 4819,
      "ç´¯": 4820,
      "Ġtrue": 4821,
      "oer": 4822,
      "wa": 4823,
      "Ġaarde": 4824,
      "recht": 4825,
      "æĺ¯ä¸Ģä¸ª": 4826,
      "rop": 4827,
      "è´µ": 4828,
      "ç©¶": 4829,
      "çĥ¦": 4830,
      "éªĹ": 4831,
      "aptain": 4832,
      "åıªæľī": 4833,
      "ized": 4834,
      "Fr": 4835,
      "Nog": 4836,
      "Ġpound": 4837,
      "ĠSam": 4838,
      "Ġleast": 4839,
      "ĠKing": 4840,
      "Ġsnake": 4841,
      "æ´Ĺ": 4842,
      "æ¯ıå¤©": 4843,
      "At": 4844,
      "Ġè®©": 4845,
      "ĠSm": 4846,
      "å§Ķ": 4847,
      "Ġ2020": 4848,
      "Natuurlijk": 4849,
      "zien": 4850,
      "Ġbor": 4851,
      "ured": 4852,
      "Ġä½łçľĭ": 4853,
      "æĬ±": 4854,
      "Ġbepaalde": 4855,
      "TE": 4856,
      "huis": 4857,
      "Ġra": 4858,
      "ĠWaar": 4859,
      "Your": 4860,
      "Ġhanden": 4861,
      "fort": 4862,
      "Ġpoor": 4863,
      "Ġjezelf": 4864,
      "ution": 4865,
      "å¼ķ": 4866,
      "ĠKen": 4867,
      "Ġafraid": 4868,
      "Ġsucc": 4869,
      "è®¤ä¸º": 4870,
      "ene": 4871,
      "Ġtried": 4872,
      "atten": 4873,
      "Ġbody": 4874,
      "Ġfro": 4875,
      "vert": 4876,
      "etting": 4877,
      "æĦ¿æĦı": 4878,
      "sc": 4879,
      "ino": 4880,
      "Ġaw": 4881,
      "Ġvia": 4882,
      "æĺ¯åĲ§": 4883,
      "Ġdochter": 4884,
      "åĬ¿": 4885,
      "ĠNan": 4886,
      "Ġabs": 4887,
      "èĥľ": 4888,
      "é¸¡": 4889,
      "Ġhy": 4890,
      "Ġriv": 4891,
      "ĠCar": 4892,
      "éĤ£äºĽ": 4893,
      "åĨ²": 4894,
      "Ġbrother": 4895,
      "è¿Ľè¡Į": 4896,
      "Ġmaybe": 4897,
      "Ġdirect": 4898,
      "æ¼Ĥäº®": 4899,
      "ĠSc": 4900,
      "ĠTo": 4901,
      "Ġvooral": 4902,
      "ä¸ĬäºĨ": 4903,
      "çĶµå½±": 4904,
      "âĮ": 4905,
      "ä¸¾": 4906,
      "Ġvern": 4907,
      "Ġtea": 4908,
      "ĠGerman": 4909,
      "Mar": 4910,
      "Ġleren": 4911,
      "ä½łä¸į": 4912,
      "Ġverst": 4913,
      "éĴŁ": 4914,
      "komt": 4915,
      "èĬĤçĽ®": 4916,
      "ĠEurop": 4917,
      "è¾Ī": 4918,
      "Ġbeginnen": 4919,
      "Ġtomorrow": 4920,
      "For": 4921,
      "see": 4922,
      "icro": 4923,
      "ĠDie": 4924,
      "ä¼´": 4925,
      "Ġboys": 4926,
      "Ġpaper": 4927,
      "Ġfriends": 4928,
      "Ġvergeten": 4929,
      "æĪĳæĪĳ": 4930,
      "Ġä½łæĢİä¹Ī": 4931,
      "å¼Ħ": 4932,
      "åº§": 4933,
      "ç«¥": 4934,
      "èĤ²": 4935,
      "Ġsituatie": 4936,
      "Pro": 4937,
      "ĠBen": 4938,
      "éĩĩ": 4939,
      "eert": 4940,
      "hoog": 4941,
      "pos": 4942,
      "æĪĳè¦ģ": 4943,
      "Ġwaarin": 4944,
      "Pap": 4945,
      "Sp": 4946,
      "ately": 4947,
      "unk": 4948,
      "åĪĴ": 4949,
      "ĠOr": 4950,
      "æī¾åĪ°": 4951,
      "èĲ¥": 4952,
      "Ġjuist": 4953,
      "Ġsister": 4954,
      "edia": 4955,
      "Ġpakken": 4956,
      "ĠMc": 4957,
      "ç»Ļä»ĸ": 4958,
      "Ġwerkt": 4959,
      "Ġbehind": 4960,
      "when": 4961,
      "Ġminutes": 4962,
      "å¢ŀ": 4963,
      "Ġeinde": 4964,
      "Ġfell": 4965,
      "èº«ä½ĵ": 4966,
      "ĠIndian": 4967,
      "Af": 4968,
      "aien": 4969,
      "æ¿": 4970,
      "Ġsin": 4971,
      "Ġbeweg": 4972,
      "Ġbehulp": 4973,
      "ĠEnglish": 4974,
      "å½±åĵį": 4975,
      "Ġdelen": 4976,
      "Ġwoon": 4977,
      "ä½łçľĭ": 4978,
      "Ġsta": 4979,
      "Ġalsof": 4980,
      "Ġpartic": 4981,
      "æ¯ĶèµĽ": 4982,
      "Ġimportant": 4983,
      "ding": 4984,
      "ery": 4985,
      "Ġbouw": 4986,
      "Ġstond": 4987,
      "Ġago": 4988,
      "çļĦå¥³": 4989,
      "ä¸Ģå¤©": 4990,
      "ĠJapan": 4991,
      "houden": 4992,
      "ilt": 4993,
      "genomen": 4994,
      "rokken": 4995,
      "åĽ´": 4996,
      "ĠKe": 4997,
      "key": 4998,
      "åģ·": 4999,
      "ĠokÃ©": 5000,
      "ians": 5001,
      "want": 5002,
      "Ġcond": 5003,
      "reet": 5004,
      "vern": 5005,
      "ĠæĪĳä¸į": 5006,
      "ards": 5007,
      "Ġtekst": 5008,
      "æĺ¾": 5009,
      "åħĭ": 5010,
      "ç½ª": 5011,
      "ox": 5012,
      "Ġwanneer": 5013,
      "ĠFe": 5014,
      "Ġgeloven": 5015,
      "Ġfeest": 5016,
      "Ġpicture": 5017,
      "!'": 5018,
      "Pr": 5019,
      "erst": 5020,
      "Ġmaat": 5021,
      "ĠDaddy": 5022,
      "derd": 5023,
      "reeg": 5024,
      "æİ§": 5025,
      "Vert": 5026,
      "Ġthahu": 5027,
      "è®°å¾Ĺ": 5028,
      "born": 5029,
      "cil": 5030,
      "ieu": 5031,
      "ç¦»å¼Ģ": 5032,
      "Omdat": 5033,
      "Ġduid": 5034,
      "ä¸½": 5035,
      "ides": 5036,
      "æĿ¥è¯´": 5037,
      "è´Ŀ": 5038,
      "ç»ıæµİ": 5039,
      "çĹĽ": 5040,
      "åħĦå¼Ł": 5041,
      "æ¨¡": 5042,
      "Ġcel": 5043,
      "ä¼¼": 5044,
      "ugust": 5045,
      "å§ĵ": 5046,
      "bt": 5047,
      "orden": 5048,
      "Ġstar": 5049,
      "ĠBar": 5050,
      "Ġtonight": 5051,
      "ds": 5052,
      "Ġdieren": 5053,
      "regen": 5054,
      "Ġaange": 5055,
      "Ġmeestal": 5056,
      "Ġhorse": 5057,
      "Ġmach": 5058,
      "Ġlady": 5059,
      "Ġcover": 5060,
      "æĪĳè¿ĺ": 5061,
      "Ġeruit": 5062,
      "Ġfunny": 5063,
      "kig": 5064,
      "ĠCHI": 5065,
      "Ġvanavond": 5066,
      "è¿Ļæ¬¡": 5067,
      "Ġrock": 5068,
      "Ġbusiness": 5069,
      "æ¿Ģ": 5070,
      "Ġvallen": 5071,
      "Ġstep": 5072,
      "ĠBel": 5073,
      "æĸ¯": 5074,
      "Ġgekomen": 5075,
      "è®¤è¯Ĩ": 5076,
      "åŀĭ": 5077,
      "cuse": 5078,
      "eur": 5079,
      "Ġmidden": 5080,
      "Ġsend": 5081,
      "Ġdeal": 5082,
      "Ġfish": 5083,
      "æľīäºº": 5084,
      "Ġmogen": 5085,
      "Ġgevangen": 5086,
      "éĵģ": 5087,
      "foon": 5088,
      "chn": 5089,
      "ente": 5090,
      "ĠTro": 5091,
      "çĿĽ": 5092,
      "åĿļ": 5093,
      "èĮĥ": 5094,
      "uizen": 5095,
      "Ġrol": 5096,
      "akt": 5097,
      "thers": 5098,
      "Ġproberen": 5099,
      "æ¯Ķå¦Ĥ": 5100,
      "ira": 5101,
      "Ġcow": 5102,
      "oeien": 5103,
      "Ġafg": 5104,
      "Ġusually": 5105,
      "çĭ¬": 5106,
      "Ġextra": 5107,
      "Ġzes": 5108,
      "ott": 5109,
      "åĳ¼": 5110,
      "Ġzodat": 5111,
      "Ġpray": 5112,
      "ä¹ĭéĹ´": 5113,
      "åĨįè§ģ": 5114,
      "Ġä¸įè¿ĩ": 5115,
      "iously": 5116,
      "Ġvalt": 5117,
      "å®¤": 5118,
      "çİī": 5119,
      "éĥ½æ²¡æľī": 5120,
      "åºĹ": 5121,
      "ĠéĤ£ä¸ª": 5122,
      "ĠJezus": 5123,
      "æĺ¨å¤©": 5124,
      "Gr": 5125,
      "Ġoog": 5126,
      "ete": 5127,
      "onde": 5128,
      "Ġalright": 5129,
      "éĢīé¡¹": 5130,
      "æ¥¼": 5131,
      "Ġvoedsel": 5132,
      "ues": 5133,
      "Ġsupposed": 5134,
      "Ġdruk": 5135,
      "Ġhar": 5136,
      "åı¦": 5137,
      "urch": 5138,
      "Ġdoden": 5139,
      "æĬĹ": 5140,
      "Ġshort": 5141,
      "Ġdaarna": 5142,
      "Ġmiljoen": 5143,
      "Cl": 5144,
      "Ġmain": 5145,
      "eding": 5146,
      "Ġthr": 5147,
      "Ġstick": 5148,
      "Ġmovie": 5149,
      "ĠFel": 5150,
      "Ġmeat": 5151,
      "Ġchang": 5152,
      "å®¶éĩĮ": 5153,
      "obby": 5154,
      "velop": 5155,
      "Ġanimals": 5156,
      "Kun": 5157,
      "ford": 5158,
      "ative": 5159,
      "Ġdeur": 5160,
      "alley": 5161,
      "ä¸ĭåİ»": 5162,
      "Ġcomput": 5163,
      "Ġmeeste": 5164,
      "èĿ": 5165,
      "ĠMOT": 5166,
      "åıĮ": 5167,
      "ĠDestournier": 5168,
      "opp": 5169,
      "æİĮ": 5170,
      "Ġcommun": 5171,
      "fully": 5172,
      "oi": 5173,
      "Ġäºº": 5174,
      "head": 5175,
      "Ġwish": 5176,
      "Ġzoeken": 5177,
      "gem": 5178,
      "Ġslapen": 5179,
      "Ġneemt": 5180,
      "Ġeffect": 5181,
      "Ġfuck": 5182,
      "Ġrijk": 5183,
      "ĠMan": 5184,
      "Ġä½łå°±": 5185,
      "ĠRome": 5186,
      "æĮĳ": 5187,
      "Ġlarge": 5188,
      "Ġkreeg": 5189,
      "ä¹İ": 5190,
      "ĠMain": 5191,
      "Ġwild": 5192,
      "Ġgevaar": 5193,
      "åĨ³å®ļ": 5194,
      "ris": 5195,
      "uut": 5196,
      "omp": 5197,
      "strijd": 5198,
      "Ġzoveel": 5199,
      "çľĭçĿĢ": 5200,
      "Ġroad": 5201,
      "Ġclub": 5202,
      "Ġantwoorden": 5203,
      "Ġice": 5204,
      "Ġequ": 5205,
      "Ġkil": 5206,
      "reem": 5207,
      "Ġarea": 5208,
      "Ġbelong": 5209,
      "Ġclass": 5210,
      "ä»»ä½ķ": 5211,
      "èİ·": 5212,
      "Ġceremony": 5213,
      "iam": 5214,
      "ode": 5215,
      "ä¸įå¯¹": 5216,
      "ĠæĪĳä¹Ł": 5217,
      "åį³": 5218,
      "å¤ļçļĦ": 5219,
      "ĠCharl": 5220,
      "Ġclear": 5221,
      "¿½": 5222,
      "ï¿½": 5223,
      "Ġhulp": 5224,
      "å®Ī": 5225,
      "Ġveroor": 5226,
      "Ġslag": 5227,
      "hey": 5228,
      "Ġsug": 5229,
      "äºĴ": 5230,
      "Ġearly": 5231,
      "ision": 5232,
      "èĻĳ": 5233,
      "éľ²": 5234,
      "ç¤¾ä¼ļ": 5235,
      "Ġwood": 5236,
      "çļĦè¿Ļä¸ª": 5237,
      "alth": 5238,
      "ä½İ": 5239,
      "ä¸įå¾Ĺ": 5240,
      "Ġelder": 5241,
      "é¡¶": 5242,
      "ç¡®å®ŀ": 5243,
      "Ġfavor": 5244,
      "reden": 5245,
      "ered": 5246,
      "éĹ¹": 5247,
      "åŃ¦çĶŁ": 5248,
      "çľ¼çĿĽ": 5249,
      "aven": 5250,
      "vorm": 5251,
      "ute": 5252,
      "ĠBrit": 5253,
      "åı¥è¯Ŀ": 5254,
      "ases": 5255,
      "Ġongel": 5256,
      "Ġteach": 5257,
      "æĢİä¹ĪåĬŀ": 5258,
      "Ġarr": 5259,
      "neta": 5260,
      "17": 5261,
      "Ġmama": 5262,
      "Ġfruit": 5263,
      "Ġins": 5264,
      "æĺ¯ä½ł": 5265,
      "çĶ°": 5266,
      "ä¼ĺ": 5267,
      "Ġwaarbij": 5268,
      "olle": 5269,
      "ç½®": 5270,
      "æł¹æľ¬": 5271,
      "Ġinde": 5272,
      "Ġricht": 5273,
      "ĠæĪĳæĥ³": 5274,
      "ĠWar": 5275,
      "Ġ24": 5276,
      "è¡£æľį": 5277,
      "RO": 5278,
      "ket": 5279,
      "Ġmam": 5280,
      "Ġhetzelfde": 5281,
      "ĠFrench": 5282,
      "å®ĥä»¬": 5283,
      "çĨŁ": 5284,
      "Ġdollar": 5285,
      "schijnlijk": 5286,
      "Ġbi": 5287,
      "ĠHit": 5288,
      "æĭĽ": 5289,
      "berg": 5290,
      "ection": 5291,
      "ording": 5292,
      "ç³ĸ": 5293,
      "Ġstrong": 5294,
      "Ġredenen": 5295,
      "ĠçŃī": 5296,
      "reed": 5297,
      "æĺ¯åľ¨": 5298,
      "weer": 5299,
      "Ġtrees": 5300,
      "æĪ¿åŃĲ": 5301,
      "èĽĭ": 5302,
      "One": 5303,
      "ooh": 5304,
      "Ġweinig": 5305,
      "Ġprogram": 5306,
      "Ġsnow": 5307,
      "èĪ¬": 5308,
      "inning": 5309,
      "æĬĢæľ¯": 5310,
      "upp": 5311,
      "was": 5312,
      "zet": 5313,
      "Ġothers": 5314,
      "ĠNa": 5315,
      "ç§°": 5316,
      "Ġproblemen": 5317,
      "èĹı": 5318,
      "line": 5319,
      "Ġdaught": 5320,
      "Ġimm": 5321,
      "Ġlopen": 5322,
      "Ġkiss": 5323,
      "rekken": 5324,
      "Ġenter": 5325,
      "å½©": 5326,
      "æ¾": 5327,
      "Ġol": 5328,
      "Ġlab": 5329,
      "Ġfoto": 5330,
      "ume": 5331,
      "äºĮéĽ¶": 5332,
      "ĠDuits": 5333,
      "Ġner": 5334,
      "Ġåģ": 5335,
      "æľ¨": 5336,
      "Ġthinking": 5337,
      "Ġmilk": 5338,
      "ĠQu": 5339,
      "Ġseveral": 5340,
      "uary": 5341,
      "Ġvanaf": 5342,
      "ĠDoor": 5343,
      "åĽ¾": 5344,
      "Ġpriv": 5345,
      "ç»§ç»Ń": 5346,
      "ĠAustral": 5347,
      "Ġmond": 5348,
      "eland": 5349,
      "Ġtoys": 5350,
      "è¯º": 5351,
      "icult": 5352,
      "ĠDon": 5353,
      "Ġrece": 5354,
      "Ġrode": 5355,
      "Ġtelevis": 5356,
      "Gaat": 5357,
      "ring": 5358,
      "rik": 5359,
      "igheid": 5360,
      "è¯¾": 5361,
      "Ġmeteen": 5362,
      "æ½": 5363,
      "Ġwall": 5364,
      "igin": 5365,
      "æĿĲ": 5366,
      "Ġdoctor": 5367,
      "Ġervan": 5368,
      "ptember": 5369,
      "ousin": 5370,
      "Ġserv": 5371,
      "Ġnieuws": 5372,
      "zak": 5373,
      "Ġhol": 5374,
      "Ġbeide": 5375,
      "ĠMart": 5376,
      "åĨľ": 5377,
      "Ġchoc": 5378,
      "Ġbeneden": 5379,
      "Ġgedacht": 5380,
      "ä¸Ģå®ļè¦ģ": 5381,
      "Ġåİ»": 5382,
      "Ġacht": 5383,
      "Ġzult": 5384,
      "reen": 5385,
      "åı²": 5386,
      "æ¯ķ": 5387,
      "ĠéĤ£æĪĳ": 5388,
      "olly": 5389,
      "æŃ»äºĨ": 5390,
      "Ġveilig": 5391,
      "orge": 5392,
      "ä¸Ģç§į": 5393,
      "ĠEx": 5394,
      "Ġalsjeblieft": 5395,
      "Ġverdw": 5396,
      "Ġsnelheid": 5397,
      "é¸Ł": 5398,
      "Ã¯n": 5399,
      "Ġbirthday": 5400,
      "water": 5401,
      "lease": 5402,
      "å¼¹": 5403,
      "ä¿®": 5404,
      "ä½ľä¸º": 5405,
      "Ġlaw": 5406,
      "ublieft": 5407,
      "ĠPaulina": 5408,
      "makes": 5409,
      "Ġdepart": 5410,
      "vember": 5411,
      "å¼Ģå¿ĥ": 5412,
      "Ġbelieved": 5413,
      "Ġworking": 5414,
      "ç´ł": 5415,
      "Ġtype": 5416,
      "Zij": 5417,
      "Ġbru": 5418,
      "Ġlift": 5419,
      "ĠMon": 5420,
      "Ġleu": 5421,
      "ĠRep": 5422,
      "Ġ195": 5423,
      "ç»ĵå©ļ": 5424,
      "Ġliefde": 5425,
      "ED": 5426,
      "æĿ¥æĿ¥": 5427,
      "Ġneer": 5428,
      "å¯¹å¯¹": 5429,
      "éĽª": 5430,
      "æĽ¿": 5431,
      "åĲĥé¥Ń": 5432,
      "ĠAmerik": 5433,
      "Ġorganis": 5434,
      "gas": 5435,
      "¤Ĳ": 5436,
      "Ġegg": 5437,
      "kende": 5438,
      "Ġrepl": 5439,
      "Ġmoved": 5440,
      "Ġcheck": 5441,
      "Ġè¿ĺæĺ¯": 5442,
      "orld": 5443,
      "çļĦåľ°æĸ¹": 5444,
      "åĪĹ": 5445,
      "ĠWill": 5446,
      "éĥ½ä¼ļ": 5447,
      "Ġgehoord": 5448,
      "nee": 5449,
      "é¤Ĳ": 5450,
      "Ġpraat": 5451,
      "oef": 5452,
      "ĠMa": 5453,
      "Ġproper": 5454,
      "çºª": 5455,
      "Ġtouch": 5456,
      "ES": 5457,
      "raÃ¯": 5458,
      "iment": 5459,
      "Ġfort": 5460,
      "çŁŃ": 5461,
      "èĥĸ": 5462,
      "Ġtrad": 5463,
      "Ġpapa": 5464,
      "sje": 5465,
      "ä¼ĳ": 5466,
      "éķľ": 5467,
      "å½ĵä¸Ń": 5468,
      "éĽĢ": 5469,
      "uzz": 5470,
      "Ġziekte": 5471,
      "Ġmooie": 5472,
      "Ġduidelijk": 5473,
      "Na": 5474,
      "va": 5475,
      "stublieft": 5476,
      "ä¸įåĲĮ": 5477,
      "uli": 5478,
      "indelijk": 5479,
      "åŃ¦æł¡": 5480,
      "èĤī": 5481,
      "Ġgezicht": 5482,
      "Ġmer": 5483,
      "Ġnoem": 5484,
      "æŃ¢": 5485,
      "ousand": 5486,
      "èº«ä¸Ĭ": 5487,
      "kk": 5488,
      "ices": 5489,
      "ä¹Łæ²¡": 5490,
      "ĠOne": 5491,
      "Ġwaarden": 5492,
      "æĻ¨": 5493,
      "Ġ_": 5494,
      "Ġmount": 5495,
      "urk": 5496,
      "å¾ĭ": 5497,
      "Ġblad": 5498,
      "Ġprofess": 5499,
      "Ġzwaar": 5500,
      "Ġbom": 5501,
      "Ġbank": 5502,
      "Ġline": 5503,
      "æľīä¸ª": 5504,
      "ĠSer": 5505,
      "åį«": 5506,
      "Ġsoft": 5507,
      "eens": 5508,
      "kn": 5509,
      "arken": 5510,
      "æĪ·": 5511,
      "Ġwaardoor": 5512,
      "Ġorde": 5513,
      "Ġgrand": 5514,
      "does": 5515,
      "çĽ´æİ¥": 5516,
      "Nie": 5517,
      "Ġzetten": 5518,
      "Ġfair": 5519,
      "Ġlead": 5520,
      "ĠKl": 5521,
      "éĢĢ": 5522,
      "æŀ¶": 5523,
      "elsel": 5524,
      "æģĭ": 5525,
      "Ġå¤§å®¶": 5526,
      "Ġvierkant": 5527,
      "Ġdecim": 5528,
      "Heel": 5529,
      "Help": 5530,
      "Ġä¸Ģä¸ª": 5531,
      "Ġfa": 5532,
      "Ġcool": 5533,
      "ĠWas": 5534,
      "indt": 5535,
      "Ġcircum": 5536,
      "lor": 5537,
      "äº«": 5538,
      "ĠPan": 5539,
      "ĠJa": 5540,
      "è¿ĺä¸į": 5541,
      "æİ¢": 5542,
      "Ġspecial": 5543,
      "ĠUnivers": 5544,
      "Ġå¿«": 5545,
      "Meneer": 5546,
      "Ġhit": 5547,
      "Ġgep": 5548,
      "ersch": 5549,
      "ĠJu": 5550,
      "è¿Ļä¹Īå¤ļ": 5551,
      "èīº": 5552,
      "Ġgrafieken": 5553,
      "Ġquestion": 5554,
      "èĵĿ": 5555,
      "ges": 5556,
      "||": 5557,
      "Ġcompany": 5558,
      "Ar": 5559,
      "bit": 5560,
      "oorten": 5561,
      "Ġwear": 5562,
      "ĠNick": 5563,
      "åºľ": 5564,
      "Ġconc": 5565,
      "çłĶ": 5566,
      "çĬ¯": 5567,
      "ç»Īäºİ": 5568,
      "Ġho": 5569,
      "Ġspreken": 5570,
      "ĠLet": 5571,
      "que": 5572,
      "æĪĲä¸º": 5573,
      "Ġå¾Ī": 5574,
      "Her": 5575,
      "æĪĳè¯´": 5576,
      "å®ĭ": 5577,
      "umm": 5578,
      "ĠNot": 5579,
      "Ġbegint": 5580,
      "Ġsystem": 5581,
      "}$$": 5582,
      "Ġ#": 5583,
      "å¥Ĺ": 5584,
      "éĢĥ": 5585,
      "Ġfootball": 5586,
      "rict": 5587,
      "Ġluck": 5588,
      "deren": 5589,
      "Ġgovern": 5590,
      "ĠRuss": 5591,
      "æĬĬæĪĳ": 5592,
      "Ġlijnstuk": 5593,
      "ĠAgneta": 5594,
      "Ġgroup": 5595,
      "Aan": 5596,
      "Ġthousand": 5597,
      "Ġstil": 5598,
      "Ġopl": 5599,
      "Ġ50": 5600,
      "éĵ¶": 5601,
      "Ġavond": 5602,
      "AL": 5603,
      "sd": 5604,
      "ç»¿": 5605,
      "æīįèĥ½": 5606,
      "gers": 5607,
      "åĹ": 5608,
      "Ġfly": 5609,
      "çļĦä¸ľè¥¿": 5610,
      "Ġran": 5611,
      "å®Ĺ": 5612,
      "ç§ģ": 5613,
      "Ġgeworden": 5614,
      "æµĭ": 5615,
      "Ġä¸ºä»Ģä¹Ī": 5616,
      "Ġdier": 5617,
      "Ġvent": 5618,
      "Ġ21": 5619,
      "istory": 5620,
      "Ġyours": 5621,
      "Ġgeboren": 5622,
      "Ġgaf": 5623,
      "hold": 5624,
      "nam": 5625,
      "pend": 5626,
      "Ġfur": 5627,
      "èµµ": 5628,
      "Ġ22": 5629,
      "Ġwaarvoor": 5630,
      "æķĪ": 5631,
      "æĭ¬": 5632,
      "Ġseven": 5633,
      "Ġperfect": 5634,
      "èº«è¾¹": 5635,
      "æĹ¥åŃĲ": 5636,
      "Or": 5637,
      "orie": 5638,
      "Ġhop": 5639,
      "Ġlezen": 5640,
      "beelden": 5641,
      "æķ£": 5642,
      "Ġè¿Ļä¹Ī": 5643,
      "å¤ļäºĨ": 5644,
      "æ³¢": 5645,
      "avy": 5646,
      "å¥¹çļĦ": 5647,
      "æŃ£åľ¨": 5648,
      "Per": 5649,
      "Ġä¸Ĭ": 5650,
      "iled": 5651,
      "Ġergens": 5652,
      "åŃ£": 5653,
      "Ġaangegeven": 5654,
      "å¤§åĵ¥": 5655,
      "Ġplat": 5656,
      "éĻ©": 5657,
      "Ġterwijl": 5658,
      "ĠåıĪ": 5659,
      "æĦŁæĥħ": 5660,
      "åĩłå¤©": 5661,
      "Ġvoelt": 5662,
      "Ġcreat": 5663,
      "Ġabove": 5664,
      "Ġgrap": 5665,
      "Ġspeci": 5666,
      "èŀ": 5667,
      "Ġ&": 5668,
      "igde": 5669,
      "imb": 5670,
      "ĠæĪĳçŁ¥éģĵ": 5671,
      "Ġgevol": 5672,
      "å¹²ä»Ģä¹Ī": 5673,
      "Ġspeak": 5674,
      "Ġvraagt": 5675,
      "Ġrunning": 5676,
      "çĪ¶äº²": 5677,
      "èī²çļĦ": 5678,
      "Ġruimte": 5679,
      "hello": 5680,
      "Iedereen": 5681,
      "Ġè·Ł": 5682,
      "Ġdroom": 5683,
      "Ġobs": 5684,
      "Ġmist": 5685,
      "Ġnad": 5686,
      "Ġfix": 5687,
      "Ġstation": 5688,
      "ĠMin": 5689,
      "ĠæĪĳçļĦ": 5690,
      "ĠOl": 5691,
      "laim": 5692,
      "æµª": 5693,
      "èĭ¥": 5694,
      "Ġdaughter": 5695,
      "Ġpark": 5696,
      "ically": 5697,
      "ĠComm": 5698,
      "æ²Ļ": 5699,
      "Ġseat": 5700,
      "uch": 5701,
      "Ġder": 5702,
      "Ġmix": 5703,
      "Ġpract": 5704,
      "ä½łä¹Ł": 5705,
      "å¯Į": 5706,
      "èī¯": 5707,
      "Ġdriehoek": 5708,
      "view": 5709,
      "nieuw": 5710,
      "two": 5711,
      "aars": 5712,
      "Ġrot": 5713,
      "Ġrad": 5714,
      "è¯į": 5715,
      "Ġreact": 5716,
      "umb": 5717,
      "æķĮ": 5718,
      "çģµ": 5719,
      "ä¿ĿæĬ¤": 5720,
      "Ġjuice": 5721,
      "Ġberekening": 5722,
      "12": 5723,
      "friend": 5724,
      "sing": 5725,
      "staande": 5726,
      "Ġåĸ": 5727,
      "ĠBereken": 5728,
      "Ġvoorbij": 5729,
      "wegen": 5730,
      "Ġsick": 5731,
      "ä¸ĢåĿĹ": 5732,
      "Ġrain": 5733,
      "ondon": 5734,
      "Ġlovely": 5735,
      "Ġå¦Ī": 5736,
      "Ġrechthoek": 5737,
      "Ġnamed": 5738,
      "Ġwou": 5739,
      "elk": 5740,
      "Ġinfl": 5741,
      "æĺ¯ä¸ª": 5742,
      "Ġdank": 5743,
      "inkt": 5744,
      "æ±½": 5745,
      "ä¾Ľ": 5746,
      "Maybe": 5747,
      "cel": 5748,
      "Ġtired": 5749,
      "Ġä½łè¦ģ": 5750,
      "åĪĨä¹ĭ": 5751,
      "Ġpartij": 5752,
      "oops": 5753,
      "èĪĴ": 5754,
      "å£°éŁ³": 5755,
      "Ġphone": 5756,
      "Ġmonths": 5757,
      "conom": 5758,
      "çĶļ": 5759,
      "IJ": 5760,
      "rs": 5761,
      "etend": 5762,
      "ä½Ľ": 5763,
      "Ġbear": 5764,
      "ĠHar": 5765,
      "Ġschuld": 5766,
      "Ġnative": 5767,
      "Ġmaximaal": 5768,
      "ĠHitler": 5769,
      "dom": 5770,
      "Ġdet": 5771,
      "Ġsterk": 5772,
      "ays": 5773,
      "éĩĬ": 5774,
      "åĵŃ": 5775,
      "Heeft": 5776,
      "Moet": 5777,
      "maken": 5778,
      "Ġmater": 5779,
      "Ġhuid": 5780,
      "Ġrep": 5781,
      "Ġverteld": 5782,
      "é¦Ĩ": 5783,
      "amera": 5784,
      "Malley": 5785,
      "itie": 5786,
      "Ġfear": 5787,
      "Ġram": 5788,
      "Ġgoat": 5789,
      "æĸĹ": 5790,
      "æ¢ħ": 5791,
      "Ġontstaan": 5792,
      "ĠPatty": 5793,
      "Ġport": 5794,
      "steem": 5795,
      "Ġvoordat": 5796,
      "ille": 5797,
      "rip": 5798,
      "å¹²åĲĹ": 5799,
      "Ġrechts": 5800,
      "Ġsuppose": 5801,
      "Ġobject": 5802,
      "Ġlots": 5803,
      "Ġcor": 5804,
      "ä»ĭ": 5805,
      "ests": 5806,
      "ĠWest": 5807,
      "ules": 5808,
      "Ġdrinken": 5809,
      "ç´¢": 5810,
      "Meer": 5811,
      "oest": 5812,
      "Ġvor": 5813,
      "itter": 5814,
      "Ġliving": 5815,
      "Ġchair": 5816,
      "åıªè¦ģ": 5817,
      "ç¾¤": 5818,
      "åĲĮå¿Ĺ": 5819,
      "Ġtelefoon": 5820,
      "çĨĬ": 5821,
      "Ġherself": 5822,
      "Ġes": 5823,
      "olon": 5824,
      "Ġworry": 5825,
      "Ġuitge": 5826,
      "éĥ½åľ¨": 5827,
      "è¿Ľåİ»": 5828,
      "çģ°": 5829,
      "Ġpresident": 5830,
      "Ġinclud": 5831,
      "str": 5832,
      "ague": 5833,
      "ache": 5834,
      "ĠOf": 5835,
      "ĠZw": 5836,
      "åŃ¦ä¹ł": 5837,
      "æĻº": 5838,
      "Ġtijdst": 5839,
      "fer": 5840,
      "mas": 5841,
      "Ġdien": 5842,
      "ĠAfter": 5843,
      "åį±": 5844,
      "è¿ĩç¨ĭ": 5845,
      "æ°¸": 5846,
      "Ġsmell": 5847,
      "ç¾İåĽ½": 5848,
      "Ġbroer": 5849,
      "Ġeasy": 5850,
      "gra": 5851,
      "inc": 5852,
      "arte": 5853,
      "åĪĺ": 5854,
      "Ġnose": 5855,
      "ç§ĺ": 5856,
      "ç¬Ķ": 5857,
      "las": 5858,
      "èĨ": 5859,
      "åįĪ": 5860,
      "Ġèĥ½": 5861,
      "Ġmm": 5862,
      "ä½łè¦ģ": 5863,
      "osp": 5864,
      "ĠVol": 5865,
      "Ġeerder": 5866,
      "çĲĨè§£": 5867,
      "ĠAllison": 5868,
      "Hello": 5869,
      "Ġdinner": 5870,
      "Ġdevelop": 5871,
      "åĲ¸": 5872,
      "Ġoverle": 5873,
      "ruct": 5874,
      "Ġseems": 5875,
      "ä¸īä¸ª": 5876,
      "Ġlaughs": 5877,
      "Ġpour": 5878,
      "Ġstroom": 5879,
      "ĠDr": 5880,
      "Ġallowed": 5881,
      "Wees": 5882,
      "Ġbijl": 5883,
      "åĲİæĿ¥": 5884,
      "Ġè¿Ļæł·": 5885,
      "é¢ĺå¹²": 5886,
      "won": 5887,
      "Ġsinds": 5888,
      "ijl": 5889,
      "Ġkor": 5890,
      "æ²¡äºĭ": 5891,
      "åıªèĥ½": 5892,
      "shall": 5893,
      "ĠMaria": 5894,
      "Ġè¯·": 5895,
      "ieur": 5896,
      "ĠCon": 5897,
      "ĠJune": 5898,
      "æĸ¹å¼ı": 5899,
      "eget": 5900,
      "vloed": 5901,
      "æ¦Ĥ": 5902,
      "30": 5903,
      "ula": 5904,
      "è´¢": 5905,
      "Ġhours": 5906,
      "iod": 5907,
      "zier": 5908,
      "è¹": 5909,
      "Ġkost": 5910,
      "Ġåº": 5911,
      "ĠMy": 5912,
      "antie": 5913,
      "Ġomhoog": 5914,
      "wezen": 5915,
      "Ġcommon": 5916,
      "keur": 5917,
      "ffic": 5918,
      "äºİæĺ¯": 5919,
      "schappen": 5920,
      "Ġbezig": 5921,
      "Ġwinter": 5922,
      "15": 5923,
      "Please": 5924,
      "Ġlived": 5925,
      "Ġrijden": 5926,
      "ĠMun": 5927,
      "è¦ģæ±Ĥ": 5928,
      "åį¡": 5929,
      "å°ıå§Ĳ": 5930,
      "æł·åŃĲ": 5931,
      "erence": 5932,
      "æĬĬä½ł": 5933,
      "Ġpoints": 5934,
      "AS": 5935,
      "Ġsol": 5936,
      "Ġpan": 5937,
      "Ġcre": 5938,
      "Ġent": 5939,
      "å®£": 5940,
      "ĠCot": 5941,
      "ä¹Łæ²¡æľī": 5942,
      "ĠLondon": 5943,
      "Ġontde": 5944,
      "Ġlangu": 5945,
      "clus": 5946,
      "æĸĩåĮĸ": 5947,
      "Will": 5948,
      "Ġdark": 5949,
      "Ġbacter": 5950,
      "Ġlives": 5951,
      "Ġfast": 5952,
      "anten": 5953,
      "zeker": 5954,
      "ified": 5955,
      "çŃĸ": 5956,
      "Ġonderwerp": 5957,
      "Ġgedrag": 5958,
      "etters": 5959,
      "Rust": 5960,
      "Ġker": 5961,
      "ached": 5962,
      "ĠWhy": 5963,
      "è¿ĺæ²¡": 5964,
      "Ġorigin": 5965,
      "Ġclot": 5966,
      "Ġhoeft": 5967,
      "Ġquiet": 5968,
      "Alleen": 5969,
      "Ġfollowing": 5970,
      "ĠJanuary": 5971,
      "bes": 5972,
      "goed": 5973,
      "hor": 5974,
      "tjes": 5975,
      "Ġvi": 5976,
      "otte": 5977,
      "aged": 5978,
      "ĠWorld": 5979,
      "reep": 5980,
      "èĢģæĿ¿": 5981,
      "åĬ¨çī©": 5982,
      "ĠBeeld": 5983,
      "æļĸ": 5984,
      "ç¿»": 5985,
      "Ġveroorz": 5986,
      "Br": 5987,
      "ped": 5988,
      "enry": 5989,
      "ette": 5990,
      "æľµ": 5991,
      "ĠéĤ£ä¹Ī": 5992,
      "Ġcontrol": 5993,
      "Ġverklaring": 5994,
      "Uit": 5995,
      "gn": 5996,
      "Ġmur": 5997,
      "Ġsal": 5998,
      "Ġvuur": 5999,
      "Ġnational": 6000,
      "Ġpassen": 6001,
      "å¤ı": 6002,
      "icken": 6003,
      "ç»´": 6004,
      "Ġwaarheid": 6005,
      "åģļçļĦ": 6006,
      "Ġblijf": 6007,
      "Ġkept": 6008,
      "æļĹ": 6009,
      "Ġvliegt": 6010,
      "Verd": 6011,
      "ror": 6012,
      "ya": 6013,
      "Ġwinnen": 6014,
      "Ġnauw": 6015,
      "Ġfit": 6016,
      "isc": 6017,
      "è¿Ļä»¶": 6018,
      "ĠBer": 6019,
      "Ġprov": 6020,
      "éĺµ": 6021,
      "Ġkleur": 6022,
      "Ġmaj": 6023,
      "é½": 6024,
      "enn": 6025,
      "Ġbull": 6026,
      "Ġnut": 6027,
      "Ġlog": 6028,
      "ä¸įä½ı": 6029,
      "ility": 6030,
      "Ġschip": 6031,
      "æĥ³è¦ģ": 6032,
      "Ġsnap": 6033,
      "é¢Ħ": 6034,
      "Ġadm": 6035,
      "æĸ°çļĦ": 6036,
      "Ġverdomme": 6037,
      "è¿·": 6038,
      "ĠTom": 6039,
      "beer": 6040,
      "Ġgrow": 6041,
      "ç¥Ŀ": 6042,
      "æ¬¢è¿İ": 6043,
      "çĪ¶æ¯į": 6044,
      "æĹ¢çĦ¶": 6045,
      "sjech": 6046,
      "ov": 6047,
      "waring": 6048,
      "æľīæ²¡æľī": 6049,
      "Ġä½łåĪ«": 6050,
      "åİī": 6051,
      "Ġspot": 6052,
      "éĥ½æ²¡": 6053,
      "Ġbijz": 6054,
      "ĠChin": 6055,
      "Ġgemeen": 6056,
      "å®īåħ¨": 6057,
      "Ġenergie": 6058,
      "ioen": 6059,
      "Ġest": 6060,
      "Ġli": 6061,
      "omst": 6062,
      "ampl": 6063,
      "ĠMaak": 6064,
      "éĤ£åĦ¿": 6065,
      "Ġå¤©": 6066,
      "Have": 6067,
      "inen": 6068,
      "Ġpage": 6069,
      "Ġkent": 6070,
      "Ġsnijdt": 6071,
      "é¢ĳ": 6072,
      "é¡¿": 6073,
      "Ġcontact": 6074,
      "vangen": 6075,
      "Ġproblem": 6076,
      "æ³¨æĦı": 6077,
      "Ġgroter": 6078,
      "TEA": 6079,
      "11": 6080,
      "Se": 6081,
      "kner": 6082,
      "æ¤": 6083,
      "Ġlange": 6084,
      "Ġzak": 6085,
      "Ġerop": 6086,
      "è¿ĩäºĨ": 6087,
      "wijs": 6088,
      "ippen": 6089,
      "aulkner": 6090,
      "Bel": 6091,
      "Ġloopt": 6092,
      "ald": 6093,
      "stelsel": 6094,
      "geet": 6095,
      "Ġleger": 6096,
      "çİĩ": 6097,
      "Ġslim": 6098,
      "Ġnaast": 6099,
      "Ġgemidd": 6100,
      "ĠMarch": 6101,
      "Ġrespect": 6102,
      "El": 6103,
      "ĠçľŁçļĦ": 6104,
      "Ġzen": 6105,
      "ality": 6106,
      "erecht": 6107,
      "ĠDavid": 6108,
      "è¡¥": 6109,
      "laag": 6110,
      "çľŁæŃ£": 6111,
      "Ġgebouw": 6112,
      "Ġglass": 6113,
      "éĶĻè¯¯": 6114,
      "Ġsacrifice": 6115,
      "Ġain": 6116,
      "Ġcm": 6117,
      "ĠFaulkner": 6118,
      "æ¬¾": 6119,
      "Ġvlucht": 6120,
      "ĠåĽŀ": 6121,
      "boek": 6122,
      "owel": 6123,
      "Ġhaal": 6124,
      "èĢ³": 6125,
      "osaur": 6126,
      "éĥ½æľī": 6127,
      "æĸ½": 6128,
      "ruce": 6129,
      "åĢŁ": 6130,
      "æķ´ä¸ª": 6131,
      "ae": 6132,
      "punten": 6133,
      "åĲĵ": 6134,
      "ional": 6135,
      "Ġregen": 6136,
      "åķĬä½ł": 6137,
      "ç§¯": 6138,
      "ç²ī": 6139,
      "Ġbread": 6140,
      "selves": 6141,
      "Ġfinished": 6142,
      "Ġbekijken": 6143,
      "Ġdik": 6144,
      "Ġdoel": 6145,
      "ĠWell": 6146,
      "romen": 6147,
      "å½Ĵ": 6148,
      "è®©ä»ĸ": 6149,
      "å½ĵçĦ¶": 6150,
      "Ġkennen": 6151,
      "Ġvermoord": 6152,
      "iest": 6153,
      "ĠåĮ": 6154,
      "ä¸įæĥ³": 6155,
      "çĶļèĩ³": 6156,
      "nemen": 6157,
      "Ġnine": 6158,
      "Ġrug": 6159,
      "æĿ¯": 6160,
      "Ġå¤ª": 6161,
      "cient": 6162,
      "èĪŀ": 6163,
      "Ġdescri": 6164,
      "æ¶Īæģ¯": 6165,
      "kw": 6166,
      "Ġbellen": 6167,
      "stairs": 6168,
      "åľĪ": 6169,
      "eeg": 6170,
      "imin": 6171,
      "åľ¨æĪĳ": 6172,
      "åķĬæĪĳ": 6173,
      "å¤§äºĨ": 6174,
      "Ġredden": 6175,
      "Ġkeu": 6176,
      "trell": 6177,
      "èĸ": 6178,
      "Ġbecom": 6179,
      "raf": 6180,
      "ills": 6181,
      "éĻĨ": 6182,
      "åłĤ": 6183,
      "16": 6184,
      "dden": 6185,
      "iot": 6186,
      "Ġlid": 6187,
      "ä»ĺ": 6188,
      "Ġyellow": 6189,
      "uture": 6190,
      "åĪ¤": 6191,
      "ĠAan": 6192,
      "Ġknows": 6193,
      "çŃ¾": 6194,
      "Ġadv": 6195,
      "çĮ´": 6196,
      "Ġiron": 6197,
      "ä¸Ģä¼ļåĦ¿": 6198,
      "ä¸įçĶ¨": 6199,
      "çľģ": 6200,
      "emarken": 6201,
      "Ġåıį": 6202,
      "Ġclos": 6203,
      "èĪ¹": 6204,
      "ĠåĲ¬": 6205,
      "ĠCottrell": 6206,
      "Ġèµ°": 6207,
      "Ġdin": 6208,
      "ona": 6209,
      "Ġthirty": 6210,
      "è¯Ħ": 6211,
      "Ġeraan": 6212,
      "åįļ": 6213,
      "Ġ192": 6214,
      "Ġcars": 6215,
      "Ġrecord": 6216,
      "Ġcomputer": 6217,
      "æ±½è½¦": 6218,
      "bers": 6219,
      "dr": 6220,
      "oning": 6221,
      "åįĩ": 6222,
      "æĪĲåĬŁ": 6223,
      "ĠåĪļ": 6224,
      "Ġwrite": 6225,
      "Ġgebeuren": 6226,
      "Vooruit": 6227,
      "lingen": 6228,
      "oken": 6229,
      "Ġbreat": 6230,
      "repen": 6231,
      "å°Ĭ": 6232,
      "æĹģ": 6233,
      "äººä»¬": 6234,
      "ĠNe": 6235,
      "Ġshoes": 6236,
      "å°±æĺ¯è¯´": 6237,
      "éĥ¨åĪĨ": 6238,
      "Ġsterven": 6239,
      "è¿ĲåĬ¨": 6240,
      "æĭħå¿ĥ": 6241,
      "Beg": 6242,
      "Some": 6243,
      "though": 6244,
      "å¦ĩ": 6245,
      "çĪ·çĪ·": 6246,
      "Ġåıªè¦ģ": 6247,
      "æīĢæľīçļĦ": 6248,
      "Ġplaces": 6249,
      "40": 6250,
      "æĺ¯åķĬ": 6251,
      "åĲįåŃĹ": 6252,
      "Ġbepaald": 6253,
      "Ã¶rdinaten": 6254,
      "ç®Ģåįķ": 6255,
      "Gel": 6256,
      "Ġgesl": 6257,
      "Ġforgot": 6258,
      "æĿ¥åĪ°": 6259,
      "Ġreason": 6260,
      "Ġsport": 6261,
      "ĠLu": 6262,
      "Ġhung": 6263,
      "Ġmeisjes": 6264,
      "åª": 6265,
      "Ġaand": 6266,
      "Ġbath": 6267,
      "Ġbuurt": 6268,
      "Ġeye": 6269,
      "Ġweken": 6270,
      "ĠMen": 6271,
      "ç»ĩ": 6272,
      "pper": 6273,
      "uiste": 6274,
      "Daarom": 6275,
      "åĳĬè¯īæĪĳ": 6276,
      "joy": 6277,
      "uist": 6278,
      "ita": 6279,
      "Ġfift": 6280,
      "ĠAugust": 6281,
      "ĠTr": 6282,
      "ĠCount": 6283,
      "å°ıæĹ¶": 6284,
      "Ġboom": 6285,
      "çº¸": 6286,
      "Ġongeluk": 6287,
      "Door": 6288,
      "TER": 6289,
      "ga": 6290,
      "Ġlow": 6291,
      "Ġcoun": 6292,
      "asc": 6293,
      "Ġå§": 6294,
      "åĬª": 6295,
      "Ġvolk": 6296,
      "æĸ°éĹ»": 6297,
      "XX": 6298,
      "cer": 6299,
      "ĠæľĢ": 6300,
      "annen": 6301,
      "Ġwest": 6302,
      "ä¸´": 6303,
      "Ġcross": 6304,
      "ĠMil": 6305,
      "Ġformer": 6306,
      "åĴĭ": 6307,
      "Ġsex": 6308,
      "ĠGrand": 6309,
      "ï¿½ï¿½": 6310,
      "æĪĳåľ¨": 6311,
      "ĠApril": 6312,
      "Ġneck": 6313,
      "å±ĭ": 6314,
      "åĹ¯åĹ¯": 6315,
      "Hoi": 6316,
      "bum": 6317,
      "druk": 6318,
      "oom": 6319,
      "ogen": 6320,
      "Ġdad": 6321,
      "ä¸Ŀ": 6322,
      "Ġmember": 6323,
      "agina": 6324,
      "æī§": 6325,
      "ĠCent": 6326,
      "åĸĦ": 6327,
      "Alsjeblieft": 6328,
      "å®ĥçļĦ": 6329,
      "ubb": 6330,
      "Ġleaves": 6331,
      "å®«": 6332,
      "ĠPol": 6333,
      "ĠRiver": 6334,
      "Ġunivers": 6335,
      "Ġevening": 6336,
      "æĪ¿éĹ´": 6337,
      "Ġattack": 6338,
      "ances": 6339,
      "Ġnorth": 6340,
      "Ġcust": 6341,
      "Ġkijkt": 6342,
      "åĲ¦": 6343,
      "Ġstom": 6344,
      "Ġtechn": 6345,
      "aches": 6346,
      "è¿ĺè¦ģ": 6347,
      "å®¶çļĦ": 6348,
      "è´¥": 6349,
      "åħ³æ³¨": 6350,
      "Ġmaanden": 6351,
      "çĻ¾åĪĨä¹ĭ": 6352,
      "Ġdifficult": 6353,
      "Ġbegrijp": 6354,
      "ĠAfrica": 6355,
      "wijk": 6356,
      "»åŃĲ": 6357,
      "Ġvie": 6358,
      "iting": 6359,
      "Ġfat": 6360,
      "ä¸Ģå¹´": 6361,
      "ä¸ĭçļĦ": 6362,
      "--\"": 6363,
      "ĠåĲİ": 6364,
      "Ġsand": 6365,
      "anda": 6366,
      "Ġcousin": 6367,
      "iland": 6368,
      "åĳĹ": 6369,
      "åŃĻ": 6370,
      "ĠEd": 6371,
      "æĬĺ": 6372,
      "å¼ĥ": 6373,
      "çĽĺ": 6374,
      "å¿«ä¹Ĳ": 6375,
      "Ġneeds": 6376,
      "gelopen": 6377,
      "Ġstoppen": 6378,
      "åĽłæŃ¤": 6379,
      "ç»Ŀå¯¹": 6380,
      "Ġwhether": 6381,
      "Rustig": 6382,
      "ozen": 6383,
      "uper": 6384,
      "zetten": 6385,
      "Ġ+": 6386,
      "ľçļĦ": 6387,
      "Ġjuiste": 6388,
      "Ġrid": 6389,
      "roll": 6390,
      "Ġpleas": 6391,
      "Ġparab": 6392,
      "ä¸Ģå®ļä¼ļ": 6393,
      "ç¼º": 6394,
      "æĭľæĭľ": 6395,
      "Ġtrouw": 6396,
      "Ġsitting": 6397,
      "ä»ĸæĺ¯": 6398,
      "Ġreis": 6399,
      "Ġmodel": 6400,
      "è®Ń": 6401,
      "å¼Ĥ": 6402,
      "çĿĢæĪĳ": 6403,
      "ankelijk": 6404,
      "Ġsudden": 6405,
      "æł·çļĦ": 6406,
      "itein": 6407,
      "Ġarri": 6408,
      "eltje": 6409,
      "Ġvandaan": 6410,
      "derdaad": 6411,
      "Vertel": 6412,
      "Ġcircumc": 6413,
      "Bewijs": 6414,
      "Gew": 6415,
      "cut": 6416,
      "ĠYeah": 6417,
      "Ġtaal": 6418,
      "Ġgingen": 6419,
      "Ġcorn": 6420,
      "ä½łäºĨ": 6421,
      "Ġstof": 6422,
      "è¡ĮåĬ¨": 6423,
      "ĠSchool": 6424,
      "çĶ·äºº": 6425,
      "çİ¯å¢ĥ": 6426,
      "Ġkruis": 6427,
      "elingen": 6428,
      "Ġfijn": 6429,
      "ä¸Ģåıª": 6430,
      "ĠæĪĳçİ°åľ¨": 6431,
      "oppen": 6432,
      "åŃĲéĩĮ": 6433,
      "Ġdaarom": 6434,
      "å¦Ĥä½ķ": 6435,
      "äºĶåįģ": 6436,
      "çĿ¡è§ī": 6437,
      "Ġveranderen": 6438,
      "ĠWilson": 6439,
      "point": 6440,
      "ijst": 6441,
      "Ġtoward": 6442,
      "stad": 6443,
      "okken": 6444,
      "Ġshut": 6445,
      "Ġdance": 6446,
      "ç§ĭ": 6447,
      "æīĵå¼Ģ": 6448,
      "æŁĲ": 6449,
      "èģª": 6450,
      "æħ¢æħ¢": 6451,
      "é¦ĸåħĪ": 6452,
      "Volgens": 6453,
      "ĠWelke": 6454,
      "é½Ĳ": 6455,
      "Naar": 6456,
      "give": 6457,
      "Ġpracht": 6458,
      "ä»Ļ": 6459,
      "åħ°": 6460,
      "ĠTer": 6461,
      "ĠTsjech": 6462,
      "esterd": 6463,
      "tend": 6464,
      "Ġshot": 6465,
      "Ġ40": 6466,
      "Ġkwamen": 6467,
      "Ġvechten": 6468,
      "è¾ĪåŃĲ": 6469,
      "esterday": 6470,
      "Any": 6471,
      "å³": 6472,
      "Ġboos": 6473,
      "Ġjump": 6474,
      "ĠBig": 6475,
      "å¯»": 6476,
      "Ġè¿ĻäºĽ": 6477,
      "çŁ¥éģĵåĲĹ": 6478,
      "Ġarms": 6479,
      "Ġlanger": 6480,
      "overn": 6481,
      "Ġjonge": 6482,
      "Ġverloren": 6483,
      "ç¢°": 6484,
      "èħ¿": 6485,
      "Ġdaddy": 6486,
      "Ġpuzz": 6487,
      "Ġei": 6488,
      "alright": 6489,
      "Ġstood": 6490,
      "æĿ¥è¶Ĭ": 6491,
      "Ġdanger": 6492,
      "ugs": 6493,
      "è¡Ĺ": 6494,
      "çĶŁæ°Ķ": 6495,
      "laas": 6496,
      "Ġbooks": 6497,
      "æĳĨ": 6498,
      "æ£®": 6499,
      "éĩİéĽĢ": 6500,
      "bruary": 6501,
      "Ġraaklijn": 6502,
      "ĠMainwaring": 6503,
      "æĪĳåİ»": 6504,
      "Ġanderen": 6505,
      "amm": 6506,
      "å°Ŀ": 6507,
      "æĿŁ": 6508,
      "Ġforget": 6509,
      "ĠæĪĳè¦ģ": 6510,
      "åį°": 6511,
      "bei": 6512,
      "your": 6513,
      "åģ¥": 6514,
      "Ġbetalen": 6515,
      "Ġperiod": 6516,
      "Ġworked": 6517,
      "groep": 6518,
      "Ġwonen": 6519,
      "åıĺæĪĲ": 6520,
      "Zoals": 6521,
      "è¶ĬæĿ¥è¶Ĭ": 6522,
      "Ġcareful": 6523,
      "Ġanimal": 6524,
      "gang": 6525,
      "zoeken": 6526,
      "Ġearth": 6527,
      "åĪº": 6528,
      "åħħ": 6529,
      "Ġmeth": 6530,
      "ĠCal": 6531,
      "inkel": 6532,
      "æĭ¼": 6533,
      "stead": 6534,
      "éĻį": 6535,
      "Ġnews": 6536,
      "Ġmeester": 6537,
      "Ġinge": 6538,
      "bor": 6539,
      "some": 6540,
      "Ġsummer": 6541,
      "Ġnamen": 6542,
      "Ġled": 6543,
      "Ġevent": 6544,
      "Ġvanuit": 6545,
      "ĠBos": 6546,
      "åºĬ": 6547,
      "Ġwelk": 6548,
      "oger": 6549,
      "ukt": 6550,
      "Ġanyone": 6551,
      "Ġmuziek": 6552,
      "iÃ«nt": 6553,
      "Ġtelling": 6554,
      "anny": 6555,
      "ĠSeptember": 6556,
      "Ġguys": 6557,
      "Ġ/": 6558,
      "Ġtail": 6559,
      "Ġeet": 6560,
      "æĪ´": 6561,
      "ĠII": 6562,
      "ĠIr": 6563,
      "åºŃ": 6564,
      "ĠChina": 6565,
      "Ġeating": 6566,
      "Ġbroken": 6567,
      "Ġwindow": 6568,
      "Ġwedstrijd": 6569,
      "Ġhuman": 6570,
      "Ġcouple": 6571,
      "za": 6572,
      "çĳ": 6573,
      "Ġadem": 6574,
      "Ġvac": 6575,
      "äºļ": 6576,
      "Ġlad": 6577,
      "Ġlach": 6578,
      "Ġlunch": 6579,
      "çļĦéĤ£ä¸ª": 6580,
      "ieke": 6581,
      "Ġreken": 6582,
      "ĠCarl": 6583,
      "åľ°è¯´": 6584,
      "è¾ĵ": 6585,
      "åī¯": 6586,
      "æĽ²": 6587,
      "æģ©": 6588,
      "ç½Ĺ": 6589,
      "é¡¹çĽ®": 6590,
      "Ġsacred": 6591,
      "Ġontstaat": 6592,
      "Ġquickly": 6593,
      "cing": 6594,
      "ex": 6595,
      "ray": 6596,
      "ety": 6597,
      "Ġca": 6598,
      "Ġervoor": 6599,
      "æŀĦ": 6600,
      "spraak": 6601,
      "Ġcray": 6602,
      "éģĩåĪ°": 6603,
      "Ġabsol": 6604,
      "IT": 6605,
      "would": 6606,
      "ching": 6607,
      "Ġcamera": 6608,
      "ä½Ļ": 6609,
      "Ġmeant": 6610,
      "Ġstat": 6611,
      "ikkel": 6612,
      "eller": 6613,
      "rucht": 6614,
      "ä»Ģä¹ĪæĹ¶åĢĻ": 6615,
      "ç«¯": 6616,
      "pres": 6617,
      "äº§åħļ": 6618,
      "Ġbloody": 6619,
      "çĵ¶": 6620,
      "ĠJuly": 6621,
      "ober": 6622,
      "ĠÃ": 6623,
      "Ġzus": 6624,
      "oeger": 6625,
      "è®¨": 6626,
      "éĿ©": 6627,
      "Ġsomebody": 6628,
      "Ġgevoel": 6629,
      "ç²¾ç¥ŀ": 6630,
      "é¬¼åŃĲ": 6631,
      "Ġfrog": 6632,
      "eken": 6633,
      "èĶ": 6634,
      "ingers": 6635,
      "Ġcamp": 6636,
      "ĠåŃ": 6637,
      "under": 6638,
      "gene": 6639,
      "æľīäºĽ": 6640,
      "éĤ£ç§į": 6641,
      "Ġwaarschijnlijk": 6642,
      "åºĨ": 6643,
      "which": 6644,
      "Ġhardly": 6645,
      "æĶ¹åıĺ": 6646,
      "Ġmiddel": 6647,
      "Lees": 6648,
      "ĠChinese": 6649,
      ".)": 6650,
      "issen": 6651,
      "æĪĳéĥ½": 6652,
      "åİħ": 6653,
      "åĨ°": 6654,
      "Ġschrijven": 6655,
      "åĽŀæĿ¥äºĨ": 6656,
      "éļ¾éģĵ": 6657,
      "Ġskin": 6658,
      "Ġmoesten": 6659,
      "Ġhoeveelheid": 6660,
      "Ġmachine": 6661,
      "Mooi": 6662,
      "Wanneer": 6663,
      "cember": 6664,
      "Ġdream": 6665,
      "ĠCity": 6666,
      "Ġnoises": 6667,
      "ç¥¨": 6668,
      "Ġweeks": 6669,
      "ashion": 6670,
      "Ġmaakte": 6671,
      "Ġsurpr": 6672,
      "Ġrivier": 6673,
      "After": 6674,
      "pel": 6675,
      "vere": 6676,
      "Ġdig": 6677,
      "Ġwakker": 6678,
      "Ġapart": 6679,
      "Ġgiving": 6680,
      "Ġfuture": 6681,
      "Ġcop": 6682,
      "Ġcake": 6683,
      "iging": 6684,
      "Ġstellen": 6685,
      "ĠAmy": 6686,
      "ĠSome": 6687,
      "roat": 6688,
      "æĹħ": 6689,
      "ĠStap": 6690,
      "Ġä¸įè¦ģ": 6691,
      "Ã¨re": 6692,
      "Ġplanten": 6693,
      "burg": 6694,
      "wood": 6695,
      "Ġä¸ī": 6696,
      "Ġliet": 6697,
      "stellen": 6698,
      "Ġbeoord": 6699,
      "ä¸įéĶĻ": 6700,
      "Ġren": 6701,
      "Ġstuck": 6702,
      "Ġwithin": 6703,
      "rible": 6704,
      "Ġplezier": 6705,
      "Ġæĺ¯ä¸įæĺ¯": 6706,
      "çŀ§": 6707,
      "ĠOnder": 6708,
      "Ġnormaal": 6709,
      "Excuse": 6710,
      "ĠEuropa": 6711,
      "gar": 6712,
      "Ġterecht": 6713,
      "Ġmicro": 6714,
      "Ġhur": 6715,
      "cten": 6716,
      "Ġdiep": 6717,
      "ä¸Ĭæµ·": 6718,
      "arts": 6719,
      "Ġpress": 6720,
      "Ġslaan": 6721,
      "Welke": 6722,
      "Ġgeheim": 6723,
      "Ġlaughed": 6724,
      "Ġtemperatuur": 6725,
      "Ġä¸º": 6726,
      "ä¸ģ": 6727,
      "ä¸Ģè¾¹": 6728,
      "çĤ¹åĦ¿": 6729,
      "éĴĪ": 6730,
      "Ġgeluid": 6731,
      "Ġsomm": 6732,
      "Ġperform": 6733,
      "Ġtribe": 6734,
      "Ġtruck": 6735,
      "Dr": 6736,
      "Ġtit": 6737,
      "Ġdest": 6738,
      "Ġbaas": 6739,
      "Ġcellen": 6740,
      "asion": 6741,
      "åĬ³": 6742,
      "Ġgrass": 6743,
      "gesteld": 6744,
      "Niemand": 6745,
      "Ġbos": 6746,
      "ä¸¹": 6747,
      "Ġhig": 6748,
      "Ġfill": 6749,
      "Ġcried": 6750,
      "Ġraakt": 6751,
      "å¥½åĲ§": 6752,
      "Ġ28": 6753,
      "Ġboot": 6754,
      "åĲĮåŃ¦": 6755,
      "å¨ģ": 6756,
      "Ġpolice": 6757,
      "Ġbott": 6758,
      "ä»»åĬ¡": 6759,
      "Ġassist": 6760,
      "Ġspirit": 6761,
      "halen": 6762,
      "Ġban": 6763,
      "Ġenjoy": 6764,
      "ĠDicks": 6765,
      "Ġ(\"": 6766,
      "åįģäºĮ": 6767,
      "éĹ®ä½ł": 6768,
      "anning": 6769,
      "Ġsecret": 6770,
      "Ġstrange": 6771,
      "Papa": 6772,
      "Gen": 6773,
      "gie": 6774,
      "Ġsilly": 6775,
      "ä¸¢": 6776,
      "Ġpil": 6777,
      "Ġåī": 6778,
      "è¿Ļè¾¹": 6779,
      "ikken": 6780,
      "ctober": 6781,
      "èĩªçĦ¶": 6782,
      "Ġbrown": 6783,
      "è¶£": 6784,
      "çĥ§": 6785,
      "åħ¶ä»ĸ": 6786,
      "isteren": 6787,
      "komst": 6788,
      "èĮ¶": 6789,
      "Ġconsidered": 6790,
      "Pak": 6791,
      "dad": 6792,
      "hij": 6793,
      "lad": 6794,
      "toe": 6795,
      "Ġmass": 6796,
      "Ġkiezen": 6797,
      "å°¾": 6798,
      "Ġverr": 6799,
      "Ġvoorbeelden": 6800,
      "ĠPres": 6801,
      "Ġschoon": 6802,
      "æĻ®": 6803,
      "æľ¬æĿ¥": 6804,
      "çĭĲ": 6805,
      "åĵ¥åĵ¥": 6806,
      "æł¹æį®": 6807,
      "produ": 6808,
      "Ġdrive": 6809,
      "Ġprobeer": 6810,
      "ban": 6811,
      "uigen": 6812,
      "Ġdam": 6813,
      "è§ģè¿ĩ": 6814,
      "å¨ĥ": 6815,
      "Ġmiladi": 6816,
      "Ġnummer": 6817,
      "Ġpassed": 6818,
      "OM": 6819,
      "Ġburn": 6820,
      "Ġloop": 6821,
      "Ġletters": 6822,
      "Ġbeeld": 6823,
      "Ġreport": 6824,
      "æĬĬå®ĥ": 6825,
      "å¥³åĦ¿": 6826,
      "ä»ĸä»¬çļĦ": 6827,
      "èĭı": 6828,
      "éĺŁéķ¿": 6829,
      "ĠFebruary": 6830,
      "åĬªåĬĽ": 6831,
      "ube": 6832,
      "Ġheer": 6833,
      "Ġeconom": 6834,
      "Ġfarm": 6835,
      "aces": 6836,
      "ĠRob": 6837,
      "Ġbelief": 6838,
      "Stan": 6839,
      "Onze": 6840,
      "ĠNovember": 6841,
      "éŁ³ä¹Ĳ": 6842,
      "ology": 6843,
      "Ġpossible": 6844,
      "å´": 6845,
      "çĺ": 6846,
      "Ġtick": 6847,
      "Ġtabel": 6848,
      "Ġpublic": 6849,
      "ä½łæĢİä¹Ī": 6850,
      "ãĢĬ": 6851,
      "ãĢĭ": 6852,
      "ĠRock": 6853,
      "æİ¥åıĹ": 6854,
      "å¸¦çĿĢ": 6855,
      "Ġåı¯ä»¥": 6856,
      "Ġseries": 6857,
      "åİŁåĽł": 6858,
      "ĠåĴĮ": 6859,
      "cos": 6860,
      "ature": 6861,
      "igs": 6862,
      "Ġur": 6863,
      "uri": 6864,
      "ĠSw": 6865,
      "ĠDE": 6866,
      "å·¦": 6867,
      "è´¦": 6868,
      "åĽŀäºĭ": 6869,
      "Ġanyway": 6870,
      "å¸®åĬ©": 6871,
      "volgens": 6872,
      "åĮ»éĻ¢": 6873,
      "Ġä¼ļ": 6874,
      "ongen": 6875,
      "aling": 6876,
      "ugd": 6877,
      "iefd": 6878,
      "Ġcarry": 6879,
      "æ£Ģ": 6880,
      "æĢĢçĸĳ": 6881,
      "æĺ¯æľī": 6882,
      "Ġene": 6883,
      "imm": 6884,
      "bec": 6885,
      "ffen": 6886,
      "Ġklopt": 6887,
      "å¸®æĪĳ": 6888,
      "Ġregels": 6889,
      "Ġspirits": 6890,
      "çĬ¶æĢģ": 6891,
      "Twee": 6892,
      "Zet": 6893,
      "kamer": 6894,
      "zin": 6895,
      "Ġfre": 6896,
      "leur": 6897,
      "ĠSouth": 6898,
      "Ġalbum": 6899,
      "ä¼¯": 6900,
      "Ġä½łçļĦ": 6901,
      "rift": 6902,
      "å·§": 6903,
      "èĥ½åĬĽ": 6904,
      "åĽŀçŃĶ": 6905,
      "åĸĬ": 6906,
      "Ġwaiting": 6907,
      "å¹¸ç¦ı": 6908,
      "Ġreleased": 6909,
      "æĺ¯è°ģ": 6910,
      "å½ķ": 6911,
      "noon": 6912,
      "è¾Ľ": 6913,
      "Ġterm": 6914,
      "ç»ıå¸¸": 6915,
      "ä½ıäºĨ": 6916,
      "Ġmakkelijk": 6917,
      "SIS": 6918,
      "ael": 6919,
      "Ġsouth": 6920,
      "Ġyesterday": 6921,
      "Ġroe": 6922,
      "Ġdok": 6923,
      "lymp": 6924,
      "oph": 6925,
      "çĶĦ": 6926,
      "Ġneg": 6927,
      "çĿĢæĢ¥": 6928,
      "Ġwilden": 6929,
      "auwe": 6930,
      "Ġzijde": 6931,
      "éŁ©": 6932,
      "ĠIndia": 6933,
      "åıĤåĬł": 6934,
      "Ġcultuur": 6935,
      "AM": 6936,
      "iaal": 6937,
      "oft": 6938,
      "Ġtreat": 6939,
      "ato": 6940,
      "Ġzorg": 6941,
      "Ġcaught": 6942,
      "èµ¢": 6943,
      "Ġomge": 6944,
      "ĠJung": 6945,
      "uurd": 6946,
      "ivil": 6947,
      "play": 6948,
      "åģļäºĨ": 6949,
      "ä¸¤å¤©": 6950,
      "å¦ĤæŃ¤": 6951,
      "Ġfeeling": 6952,
      "ĠNederlandse": 6953,
      "Ġfinish": 6954,
      "æļ´": 6955,
      "ĠSmith": 6956,
      "dan": 6957,
      "zel": 6958,
      "Ġwa": 6959,
      "Ġwand": 6960,
      "Ġtoeg": 6961,
      "rok": 6962,
      "Ġ23": 6963,
      "ĠLy": 6964,
      "Ġwaarop": 6965,
      "ä¸ĭäºĨ": 6966,
      "Ġsocial": 6967,
      "å¹´è½»": 6968,
      "Ġslow": 6969,
      "Ġkonden": 6970,
      "phone": 6971,
      "ubliek": 6972,
      "Ġgeneral": 6973,
      "Amer": 6974,
      "Pl": 6975,
      "Ġinsp": 6976,
      "ä¹Ķ": 6977,
      "ĠPart": 6978,
      "åĬ²": 6979,
      "è¢ĭ": 6980,
      "æĳĩ": 6981,
      "æĲľ": 6982,
      "ĠEngland": 6983,
      "Because": 6984,
      "Ġvlakdeel": 6985,
      "Ġmillion": 6986,
      "Ġdecimalen": 6987,
      "With": 6988,
      "dam": 6989,
      "nes": 6990,
      "Ġtape": 6991,
      "ĠhÃ©": 6992,
      "Ġlist": 6993,
      "çļĦå°±æĺ¯": 6994,
      "oose": 6995,
      "å°±è¦ģ": 6996,
      "æĥ¯": 6997,
      "å¥½ä¸įå¥½": 6998,
      "éģį": 6999,
      "Ġbestaan": 7000,
      "æĹłæ³ķ": 7001,
      "çĪ±çļĦ": 7002,
      "æĽ¾ç»ı": 7003,
      "éº»çĥ¦": 7004,
      "Ġtijdstip": 7005,
      "Ġbijlage": 7006,
      "ba": 7007,
      "hankelijk": 7008,
      "Ġthee": 7009,
      "Ġmemb": 7010,
      "åĽ°": 7011,
      "å¿į": 7012,
      "ĠDecember": 7013,
      "éĢ¼": 7014,
      "ĠZijn": 7015,
      "éĥİ": 7016,
      "çĥŁ": 7017,
      "æĳ¸": 7018,
      "Ġvormen": 7019,
      "Dag": 7020,
      "lies": 7021,
      "Ġhoney": 7022,
      "Ġhole": 7023,
      "Ġkids": 7024,
      "åĲ´": 7025,
      "Ġstor": 7026,
      "entie": 7027,
      "roon": 7028,
      "Ġforward": 7029,
      "æĥľ": 7030,
      "å¿Ĩ": 7031,
      "éĢı": 7032,
      "Ġweren": 7033,
      "æ¬§": 7034,
      "naam": 7035,
      "é¢ľ": 7036,
      "æģĲ": 7037,
      "æ¡Į": 7038,
      "å®Įåħ¨": 7039,
      "è¡¨çİ°": 7040,
      "Ġstraight": 7041,
      "åĤ»": 7042,
      "fast": 7043,
      "yy": 7044,
      "éŀ": 7045,
      "ites": 7046,
      "ä¸ĢåĪĩ": 7047,
      "Ġmevrouw": 7048,
      "äººæ°ĳ": 7049,
      "å¾ĹäºĨ": 7050,
      "å±Ĥ": 7051,
      "åĲ¬è¯´": 7052,
      "Ġactiv": 7053,
      "Ġstraal": 7054,
      "Ġhotel": 7055,
      "ĠChristmas": 7056,
      "Ġlinks": 7057,
      "Ġleaving": 7058,
      "æ¹ĸ": 7059,
      "Ġmale": 7060,
      "Ġtoy": 7061,
      "Ġrace": 7062,
      "Ġopnieuw": 7063,
      "æī¹": 7064,
      "Ġregel": 7065,
      "å¸ħ": 7066,
      "aalt": 7067,
      "Ġkwijt": 7068,
      "Ġparents": 7069,
      "Ġbusy": 7070,
      "Ġbroke": 7071,
      "Ġå¹²": 7072,
      "Ġwitte": 7073,
      "åİīå®³": 7074,
      "Ook": 7075,
      "dd": 7076,
      "çĩ": 7077,
      "Ġkm": 7078,
      "è¯Ĺ": 7079,
      "Ġverde": 7080,
      "ĠAb": 7081,
      "ĠCom": 7082,
      "æĬ¢": 7083,
      "åİ»æī¾": 7084,
      "éķ¿çļĦ": 7085,
      "espe": 7086,
      "çģŃ": 7087,
      "Ġbehand": 7088,
      "è§£åĨ³": 7089,
      "Ġmaand": 7090,
      "Ġzieken": 7091,
      "Ġregion": 7092,
      "çŃĶåºĶ": 7093,
      "Ġcontrole": 7094,
      "Ġå¸Ī": 7095,
      "ĠMunson": 7096,
      "ĠCounty": 7097,
      "UN": 7098,
      "Ġæ¯ı": 7099,
      "andid": 7100,
      "Ġzuur": 7101,
      "stelling": 7102,
      "ils": 7103,
      "ĠSl": 7104,
      "åľ¨è¿Ļä¸ª": 7105,
      "ĠOctober": 7106,
      "Ġbegon": 7107,
      "uwen": 7108,
      "æĦŁè°¢": 7109,
      "oenen": 7110,
      "è§£éĩĬ": 7111,
      "Ġverschil": 7112,
      "åŁİå¸Ĥ": 7113,
      "å¸Ĥåľº": 7114,
      "Ġaardig": 7115,
      "èĳ£": 7116,
      "å«ģ": 7117,
      "æĶ¯æĮģ": 7118,
      "Ã¶rdinaat": 7119,
      "Ġmotor": 7120,
      "ç¯®": 7121,
      "IE": 7122,
      "sters": 7123,
      "æī¬": 7124,
      "ĠVeren": 7125,
      "Ġgebracht": 7126,
      "Ġafternoon": 7127,
      "Ġslaap": 7128,
      "éº¦": 7129,
      "Ġinflu": 7130,
      "14": 7131,
      "Cos": 7132,
      "Ġdom": 7133,
      "Ġsoul": 7134,
      "ä½łè¿Ļ": 7135,
      "dern": 7136,
      "ĠGovern": 7137,
      "osh": 7138,
      "å¾ĹåĪ°": 7139,
      "Ġkunst": 7140,
      "åĪ«çļĦ": 7141,
      "ĠZuid": 7142,
      "ĠUit": 7143,
      "Ġputting": 7144,
      "åĲĥçļĦ": 7145,
      "Ġappro": 7146,
      "brand": 7147,
      "Ġfilmp": 7148,
      "ĠLees": 7149,
      "Ġhoriz": 7150,
      "Ġpopulation": 7151,
      "Ġvreem": 7152,
      "Ġheavy": 7153,
      "Ġpush": 7154,
      "stop": 7155,
      "ĠSy": 7156,
      "Ġä½łè¿Ļ": 7157,
      "ĠPe": 7158,
      "ĠLo": 7159,
      "èĥ½ä¸įèĥ½": 7160,
      "Hoeveel": 7161,
      "è§£æŀĲ": 7162,
      "å¥¶å¥¶": 7163,
      "Ġcertainly": 7164,
      "Ġgovernment": 7165,
      "Ġmembers": 7166,
      "Every": 7167,
      "Uh": 7168,
      "ermen": 7169,
      "Ġsense": 7170,
      "Ġlu": 7171,
      "Ġfashion": 7172,
      "Ġkort": 7173,
      "åı³": 7174,
      "ĠMark": 7175,
      "Ġvoorkomen": 7176,
      "ä¼ģ": 7177,
      "å¯¹æĪĳ": 7178,
      "Ġpretend": 7179,
      "Ġconn": 7180,
      "Ġcommand": 7181,
      "åĽŀåĪ°": 7182,
      "è§ģåĪ°": 7183,
      "èĥĨ": 7184,
      "Ġappar": 7185,
      "Ġpaid": 7186,
      "Ġtelevision": 7187,
      "Ġdue": 7188,
      "ĠToon": 7189,
      "ĠæĪĳè¯´": 7190,
      "Ġuite": 7191,
      "ä»Ģä¹ĪåĳĢ": 7192,
      "Ġgrapp": 7193,
      "æĻĵ": 7194,
      "ĠYOU": 7195,
      "Ġfresh": 7196,
      "åĭĩ": 7197,
      "ĠDenemarken": 7198,
      "Ġdepartment": 7199,
      "Ġä¸ĭ": 7200,
      "Ġnor": 7201,
      "çļĦäºĭåĦ¿": 7202,
      "Ġinf": 7203,
      "plicht": 7204,
      "æīĵçĶµè¯Ŀ": 7205,
      "æģ¶": 7206,
      "ä¸»è¦ģ": 7207,
      "ĠWeb": 7208,
      "Ġrustig": 7209,
      "iedenis": 7210,
      "bruik": 7211,
      "åħĶåŃĲ": 7212,
      "Ġtal": 7213,
      "Ġduur": 7214,
      "Ġmun": 7215,
      "æľīäºĨ": 7216,
      "Ġzeer": 7217,
      "ä¸ĬéĿ¢": 7218,
      "åİ»åĲ§": 7219,
      "Ġmann": 7220,
      "è¡ĮäºĨ": 7221,
      "Ġseconden": 7222,
      "board": 7223,
      "æĹ©å°±": 7224,
      "åĶĲ": 7225,
      "ĠSpan": 7226,
      "ĠcoÃ¶rdinaten": 7227,
      "èı²": 7228,
      "Ġplaced": 7229,
      "éĻ¤äºĨ": 7230,
      "èŀį": 7231,
      "kan": 7232,
      "wing": 7233,
      "will": 7234,
      "Ġtun": 7235,
      "Ġsoorten": 7236,
      "Ġdev": 7237,
      "çļĦæĹ¶éĹ´": 7238,
      "ä½łåľ¨": 7239,
      "iced": 7240,
      "veren": 7241,
      "rodu": 7242,
      "agram": 7243,
      "Ġhaat": 7244,
      "ĠOlymp": 7245,
      "Ġbloemen": 7246,
      "Ġchance": 7247,
      "Ġhasn": 7248,
      "Ġsmith": 7249,
      "æ¡ĥ": 7250,
      "Ġ2014": 7251,
      "orspr": 7252,
      "Ġcolon": 7253,
      "Ġåįģ": 7254,
      "åħ±äº§åħļ": 7255,
      "Ġreturned": 7256,
      "Ġ2021": 7257,
      "alf": 7258,
      "æĪĳè¿Ļ": 7259,
      "staan": 7260,
      "æĿĤ": 7261,
      "Ġä½łæĥ³": 7262,
      "elijkheid": 7263,
      "Ġlaag": 7264,
      "Mum": 7265,
      "UR": 7266,
      "Zelf": 7267,
      "ping": 7268,
      "ÉĻ": 7269,
      "Ġvir": 7270,
      "elly": 7271,
      "Ġkamp": 7272,
      "ĠBro": 7273,
      "Ġnearly": 7274,
      "çľĭäºĨ": 7275,
      "Ġsuff": 7276,
      "woordig": 7277,
      "ĠFran": 7278,
      "Ġvliegen": 7279,
      "éŃı": 7280,
      "Ġoefen": 7281,
      "Ġåģļ": 7282,
      "ĠUniversity": 7283,
      "See": 7284,
      "ĠäºĮ": 7285,
      "onk": 7286,
      "ĠRoy": 7287,
      "ĠFred": 7288,
      "Ġblock": 7289,
      "çĽĬ": 7290,
      "æķ¬": 7291,
      "éĩĮè¾¹": 7292,
      "æĬĬä»ĸ": 7293,
      "bles": 7294,
      "ä¿¡æģ¯": 7295,
      "Ġcheese": 7296,
      "Ġstraat": 7297,
      "Ġvriendin": 7298,
      "ĠAdam": 7299,
      "Ġdokter": 7300,
      "Want": 7301,
      "bouw": 7302,
      "night": 7303,
      "onen": 7304,
      "Ġlim": 7305,
      "raal": 7306,
      "Ġverv": 7307,
      "Ġalstublieft": 7308,
      "Ġerin": 7309,
      "uses": 7310,
      "Ġä½łä¸į": 7311,
      "ĠGel": 7312,
      "åº·": 7313,
      "åĪĨéĴŁ": 7314,
      "Ġdragen": 7315,
      "ĠåĲĮ": 7316,
      "coÃ¶rdinaat": 7317,
      "åĮĹäº¬": 7318,
      "æĶ¿åºľ": 7319,
      "Ġpain": 7320,
      "Ġkool": 7321,
      "æĺ¯ä¸į": 7322,
      "leep": 7323,
      "entle": 7324,
      "çĶŁçļĦ": 7325,
      "æ°´æŀľ": 7326,
      "å®ĮäºĨ": 7327,
      "Ġrestaur": 7328,
      "itude": 7329,
      "Ġmiddle": 7330,
      "Ġdistrict": 7331,
      "Ġleerlingen": 7332,
      "Ġchocol": 7333,
      "Ġclothes": 7334,
      "EÃ©n": 7335,
      "Veel": 7336,
      "ĠÂ": 7337,
      "Ġdry": 7338,
      "Ġnatuur": 7339,
      "aliz": 7340,
      "ä½łè¿ĺ": 7341,
      "ĠSieur": 7342,
      "ĠMommy": 7343,
      "iform": 7344,
      "çĪ¬": 7345,
      "çĤ¸": 7346,
      "éĽ·": 7347,
      "Thanks": 7348,
      "Ġeerlijk": 7349,
      "å¥³äºº": 7350,
      "åĪļåĪļ": 7351,
      "Ġmum": 7352,
      "Ġinhoud": 7353,
      "ask": 7354,
      "åĲ¹": 7355,
      "å°ģ": 7356,
      "ikel": 7357,
      "Ġzeven": 7358,
      "çīĮ": 7359,
      "åľ°ä¸Ĭ": 7360,
      "Ġcarried": 7361,
      "Ġchanged": 7362,
      "Ġhorizont": 7363,
      ",--": 7364,
      "nummer": 7365,
      "Ġéĥ½æĺ¯": 7366,
      "ander": 7367,
      "Ġzaak": 7368,
      "æĪĳçŁ¥éģĵ": 7369,
      "åĲµ": 7370,
      "ician": 7371,
      "riage": 7372,
      "å¥½å¤ļ": 7373,
      "ĠRight": 7374,
      "astic": 7375,
      "rijden": 7376,
      "lands": 7377,
      "èĻļ": 7378,
      "ç¼ĺ": 7379,
      "æĿ¡ä»¶": 7380,
      "Ġliever": 7381,
      "ĠAmerica": 7382,
      "Ġpossess": 7383,
      "Ġsettle": 7384,
      "ä¼ĳæģ¯": 7385,
      "Ġgift": 7386,
      "ora": 7387,
      "Ġfinger": 7388,
      "ä¹Į": 7389,
      "Ġmoon": 7390,
      "empt": 7391,
      "åĨł": 7392,
      "oeder": 7393,
      "Ġanymore": 7394,
      "ä»Ĭå¹´": 7395,
      "åĵªéĩĮ": 7396,
      "Ġlonger": 7397,
      "å§Ĳå§Ĳ": 7398,
      "Ġgehouden": 7399,
      "æľįåĬ¡": 7400,
      "Ġcurr": 7401,
      "Ġgenerally": 7402,
      "Ġliked": 7403,
      "wil": 7404,
      "Ġfail": 7405,
      "ä½łåķĬ": 7406,
      "Ġmeen": 7407,
      "Ġstone": 7408,
      "sem": 7409,
      "Ġerbij": 7410,
      "ĠæĪĳè¿Ļ": 7411,
      "Ġovert": 7412,
      "Ġnecess": 7413,
      "Ġwaarvan": 7414,
      "æ¬º": 7415,
      "Ġåħ³": 7416,
      "ĠMadame": 7417,
      "Ġdoubt": 7418,
      "ĠKennis": 7419,
      "Ġverniet": 7420,
      "ĠåıįæŃ£": 7421,
      "Even": 7422,
      "bre": 7423,
      "wassen": 7424,
      "Ġfout": 7425,
      "æĪĳçİ°åľ¨": 7426,
      "ä¸ĢæĿ¡": 7427,
      "genoot": 7428,
      "æīĺ": 7429,
      "ĠBra": 7430,
      "Ġverdien": 7431,
      "zichtig": 7432,
      "è´£ä»»": 7433,
      "Ġesc": 7434,
      "Ġnauwkeur": 7435,
      "bin": 7436,
      "Ġleef": 7437,
      "kens": 7438,
      "æł¸": 7439,
      "å¦®": 7440,
      "åĲİéĿ¢": 7441,
      "Ġusing": 7442,
      "å®ŀåľ¨": 7443,
      "åĲĮæĹ¶": 7444,
      "Ġkwaad": 7445,
      "çĥĪ": 7446,
      "idence": 7447,
      "èĢĥèĻĳ": 7448,
      "Ġsingle": 7449,
      "æ°¸è¿ľ": 7450,
      "yl": 7451,
      "ooien": 7452,
      "uro": 7453,
      "å®¡": 7454,
      "ushed": 7455,
      "Ġspl": 7456,
      "teen": 7457,
      "wez": 7458,
      "å°ıçļĦ": 7459,
      "èĩ£": 7460,
      "ĠThese": 7461,
      "æĭ¥": 7462,
      "è¿Ļä¸ªäºº": 7463,
      "Ġclan": 7464,
      "å®ĮæĪĲ": 7465,
      "è®¡åĪĴ": 7466,
      "Ġverandert": 7467,
      "Ġspring": 7468,
      "Ġå¹¶": 7469,
      "Ġbreakfast": 7470,
      "Ġspeelt": 7471,
      "plaats": 7472,
      "Ġmurder": 7473,
      "aft": 7474,
      "cont": 7475,
      "Ġtoek": 7476,
      "çľł": 7477,
      "éĤ£è¾¹": 7478,
      "çĸ¼": 7479,
      "Ġ2000": 7480,
      "Ġdelight": 7481,
      "ining": 7482,
      "Ġmut": 7483,
      "Ġfant": 7484,
      "åĪĢ": 7485,
      "ĠAh": 7486,
      "å°±èĥ½": 7487,
      "ĠNorth": 7488,
      "çĶµè§Ĩ": 7489,
      "please": 7490,
      "è·ŁæĪĳè¯´": 7491,
      "Ġposition": 7492,
      "Ġimag": 7493,
      "fil": 7494,
      "light": 7495,
      "Ġmid": 7496,
      "Ġhield": 7497,
      "ä¸įè§ģ": 7498,
      "ĠWhere": 7499,
      "Ġonderstaande": 7500,
      "Ġsnij": 7501,
      "bled": 7502,
      "Ġflight": 7503,
      "è¿Ľåħ¥": 7504,
      "ç¾İä¸½": 7505,
      "Ġallebei": 7506,
      "é¼ĵ": 7507,
      "å±ŀäºİ": 7508,
      "ĠDuitsland": 7509,
      "Pardon": 7510,
      "Ġdeep": 7511,
      "Ġjud": 7512,
      "Ġä½łè¿ĺ": 7513,
      "Ġä½łçİ°åľ¨": 7514,
      "åİ¿": 7515,
      "ĠPeter": 7516,
      "è¾ŀ": 7517,
      "èĪį": 7518,
      "æ··": 7519,
      "çĻ¾å§ĵ": 7520,
      "Ġä¸Ģå®ļ": 7521,
      "Ġrecog": 7522,
      "è®¸å¤ļ": 7523,
      "ä¸¤ä¸ªäºº": 7524,
      "Ġopgave": 7525,
      "Ġparabool": 7526,
      "ially": 7527,
      "rika": 7528,
      "wanna": 7529,
      "Ġgang": 7530,
      "Ġhom": 7531,
      "Ġcro": 7532,
      "CHAP": 7533,
      "ĠMas": 7534,
      "ĠTHE": 7535,
      "å°±åı¯ä»¥": 7536,
      "ĠChe": 7537,
      "å¾Ĺå¾Ī": 7538,
      "Ġschil": 7539,
      "Ġprim": 7540,
      "åģı": 7541,
      "èµ·äºĨ": 7542,
      "ekt": 7543,
      "Ġplaatsen": 7544,
      "è·¯ä¸Ĭ": 7545,
      "åİŁæĿ¥": 7546,
      "Ġcatch": 7547,
      "èĴĻ": 7548,
      "çłĶç©¶": 7549,
      "Ken": 7550,
      "even": 7551,
      "sm": 7552,
      "with": 7553,
      "ĠMot": 7554,
      "ĠæĪĳè¿ĺ": 7555,
      "æĿ¥çľĭ": 7556,
      "Ġrechter": 7557,
      "ä¹Łæľī": 7558,
      "Ġchicken": 7559,
      "thern": 7560,
      "afel": 7561,
      "ĠåħĪ": 7562,
      "Ġvoelen": 7563,
      "Ġ2018": 7564,
      "Ġowner": 7565,
      "å¦¹å¦¹": 7566,
      "elpunt": 7567,
      "Ġsommige": 7568,
      "Ġsou": 7569,
      "Ġpack": 7570,
      "Ġeaten": 7571,
      "Ġopt": 7572,
      "å¼±": 7573,
      "Ġorange": 7574,
      "Ġchurch": 7575,
      "Ġsea": 7576,
      "å¤ĸéĿ¢": 7577,
      "ample": 7578,
      "Ġsupport": 7579,
      "Ġpieces": 7580,
      "Ġvisit": 7581,
      "Ġwatching": 7582,
      "geld": 7583,
      "Ġought": 7584,
      "Ġdece": 7585,
      "Ġstap": 7586,
      "aka": 7587,
      "ĠBruce": 7588,
      "Ġann": 7589,
      "Ġspend": 7590,
      "ĠRom": 7591,
      "è°ĵ": 7592,
      "Ġagent": 7593,
      "Ġperhaps": 7594,
      "Ġworks": 7595,
      "ç³Ĭ": 7596,
      "è¡¨ç¤º": 7597,
      "Ġkoningin": 7598,
      "é²ľ": 7599,
      "æĿĲæĸĻ": 7600,
      "amplain": 7601,
      "Ġgeslacht": 7602,
      "Net": 7603,
      "é¥¿": 7604,
      "ĠæĪĸèĢħ": 7605,
      "Ġtong": 7606,
      "Ġduurt": 7607,
      "Ġoorspr": 7608,
      "Ġsight": 7609,
      "icy": 7610,
      "Ġuitg": 7611,
      "ĠLou": 7612,
      "ichael": 7613,
      "èĢģèĻİ": 7614,
      "éĿ¢åīį": 7615,
      "æĴĴ": 7616,
      "Ġdiscuss": 7617,
      "Ġquestions": 7618,
      "su": 7619,
      "zil": 7620,
      "Ġbesp": 7621,
      "ä»ģ": 7622,
      "ä½łèĩªå·±": 7623,
      "Ġstam": 7624,
      "ĠAir": 7625,
      "ĠMum": 7626,
      "estig": 7627,
      "ĠRond": 7628,
      "éģĵçĲĨ": 7629,
      "ogels": 7630,
      "Ġseason": 7631,
      "æĮ¥": 7632,
      "Ġanybody": 7633,
      "å®ŀè¯Ŀ": 7634,
      "onderd": 7635,
      "åĲĪä½ľ": 7636,
      "ç¨³": 7637,
      "Ġvliegtuig": 7638,
      "Ġæīį": 7639,
      "Ġcases": 7640,
      "illen": 7641,
      "ctions": 7642,
      "æ²ī": 7643,
      "åĩĢ": 7644,
      "çĽĽ": 7645,
      "Ġbridge": 7646,
      "éĺ¶": 7647,
      "æ£Ĵ": 7648,
      "Ġkennis": 7649,
      "itchen": 7650,
      "Ġsounds": 7651,
      "olonel": 7652,
      "Iemand": 7653,
      "Take": 7654,
      "Ġcry": 7655,
      "Ġkopen": 7656,
      "ureau": 7657,
      "è¿ĽæĿ¥": 7658,
      "Ġbevindt": 7659,
      "Ġnamelijk": 7660,
      "ĠWho": 7661,
      "çĵľ": 7662,
      "æ¯ķç«Ł": 7663,
      "ais": 7664,
      "eh": 7665,
      "ĠèĻ½çĦ¶": 7666,
      "Ġzul": 7667,
      "Ġinvloed": 7668,
      "æĪĳæľī": 7669,
      "ä¸įçĿĢ": 7670,
      "Ġmezelf": 7671,
      "iling": 7672,
      "ĠEast": 7673,
      "æīĵç®Ĺ": 7674,
      "ission": 7675,
      "Ġgekregen": 7676,
      "cially": 7677,
      "çľŁçļĦæĺ¯": 7678,
      "Ġgelukkig": 7679,
      "woners": 7680,
      "Ġlanguage": 7681,
      "Ġinse": 7682,
      "Ġkid": 7683,
      "rem": 7684,
      "ĠAlex": 7685,
      "ĠSun": 7686,
      "ĠNow": 7687,
      "éĹŃ": 7688,
      "ĠZij": 7689,
      "åıĺåĮĸ": 7690,
      "çĽ®åīį": 7691,
      "ç»Ħç»ĩ": 7692,
      "ĠBritish": 7693,
      "ym": 7694,
      "Ġsad": 7695,
      "Ġkoff": 7696,
      "ĠMag": 7697,
      "ĠPort": 7698,
      "å¥½åĲĹ": 7699,
      "Ġblik": 7700,
      "Ġschree": 7701,
      "åºĵ": 7702,
      "Ġgevo": 7703,
      "æ¸Ĳ": 7704,
      "çĭ±": 7705,
      "éªĤ": 7706,
      "$$\\": 7707,
      "Ġvarious": 7708,
      "æ¯Ķå¦Ĥè¯´": 7709,
      "Ġsuggest": 7710,
      "Uw": 7711,
      "has": 7712,
      "Ġdomin": 7713,
      "orde": 7714,
      "eless": 7715,
      "igg": 7716,
      "ĠLa": 7717,
      "è°·": 7718,
      "ector": 7719,
      "Ġvolgt": 7720,
      "Ġfigure": 7721,
      "é»ĺ": 7722,
      "éĤ£ä¹Īå¤ļ": 7723,
      "ominic": 7724,
      "200": 7725,
      "time": 7726,
      "ĠæĢ»": 7727,
      "Ġpet": 7728,
      "Ġzowel": 7729,
      "ä¸įå¤ª": 7730,
      "Ġmoving": 7731,
      "å¥½åķĬ": 7732,
      "ulf": 7733,
      "Ġ27": 7734,
      "bez": 7735,
      "å°ıå¿ĥ": 7736,
      "æĤĦ": 7737,
      "ä»İæĿ¥": 7738,
      "Ġzichzelf": 7739,
      "Ġloved": 7740,
      "Ġident": 7741,
      "Ġhoorde": 7742,
      "éĩįè¦ģçļĦ": 7743,
      "Ġleeftijd": 7744,
      "å³°": 7745,
      "Ġroept": 7746,
      "çļĦåĲĹ": 7747,
      "Ġthird": 7748,
      "Ġherinner": 7749,
      "ĠOver": 7750,
      "å¯¹äºİ": 7751,
      "è·ŁçĿĢ": 7752,
      "Ġarch": 7753,
      "ç®Ĺæĺ¯": 7754,
      "ipped": 7755,
      "Ġstraw": 7756,
      "Ġgrew": 7757,
      "åįĥä¸ĩ": 7758,
      "Schiet": 7759,
      "Ġcapital": 7760,
      "æ¤į": 7761,
      "ratie": 7762,
      "ares": 7763,
      "Ġnin": 7764,
      "Ġdecl": 7765,
      "adem": 7766,
      "ä¸įæķ¢": 7767,
      "è¯ļ": 7768,
      "ceed": 7769,
      "Ġspace": 7770,
      "Ġ26": 7771,
      "Ġship": 7772,
      "Ġafgelopen": 7773,
      "Ġexample": 7774,
      "ĠéĤ£å°±": 7775,
      "åĲ¬åĪ°": 7776,
      "Ġamb": 7777,
      "Ġvertic": 7778,
      "éĶ®": 7779,
      "Ġtrack": 7780,
      "Ġbottle": 7781,
      "Ġdecided": 7782,
      "Ġtyp": 7783,
      "PO": 7784,
      "pers": 7785,
      "take": 7786,
      "itions": 7787,
      "ä¸ĢèĪ¬": 7788,
      "Ġgeg": 7789,
      "åħį": 7790,
      "ä¼°": 7791,
      "Ġprop": 7792,
      "Ġhieronder": 7793,
      "Ġprima": 7794,
      "æŁĵ": 7795,
      "grond": 7796,
      "Ġintern": 7797,
      "Ġzwem": 7798,
      "Ġè¦ģä¸į": 7799,
      "Ġoccasion": 7800,
      "Ġontmoeten": 7801,
      "Ġview": 7802,
      "Ġä»¥": 7803,
      "äº¡": 7804,
      "unior": 7805,
      "ĠSan": 7806,
      "ĠSim": 7807,
      "ĠJoe": 7808,
      "æĮ£": 7809,
      "Ġå½ĵçĦ¶": 7810,
      "åĵĪåĵĪåĵĪ": 7811,
      "èľľ": 7812,
      "Ġijs": 7813,
      "Ġnergens": 7814,
      "ey": 7815,
      "kay": 7816,
      "erve": 7817,
      "arch": 7818,
      "Ġpupp": 7819,
      "æĪĳçľĭ": 7820,
      "iday": 7821,
      "Ġenorm": 7822,
      "Ġverwij": 7823,
      "çĶľ": 7824,
      "Ġaller": 7825,
      "Weg": 7826,
      "çĪĨ": 7827,
      "Ġgrens": 7828,
      "Ġhemel": 7829,
      "Ġputs": 7830,
      "Ġvertelt": 7831,
      "Ġåĵª": 7832,
      "åĽĽåįģ": 7833,
      "Ġmarry": 7834,
      "Ġsky": 7835,
      "æ¯įäº²": 7836,
      "Ġexpect": 7837,
      "Ġåĩº": 7838,
      "enior": 7839,
      "æĺ¯åĲĹ": 7840,
      "ç»į": 7841,
      "ella": 7842,
      "ĠGu": 7843,
      "Ġ29": 7844,
      "rijft": 7845,
      "ohol": 7846,
      "Ġsomewhere": 7847,
      "éĻĲ": 7848,
      "ĠChamplain": 7849,
      "uebec": 7850,
      "Ġstraks": 7851,
      "Ġ2019": 7852,
      "Ġmonster": 7853,
      "Onder": 7854,
      "ä»£è¡¨": 7855,
      "Ġontmoet": 7856,
      "Zou": 7857,
      "ĠæĪĳåľ¨": 7858,
      "Ġreger": 7859,
      "Ġspoke": 7860,
      "ĠGa": 7861,
      "ĠGood": 7862,
      "ugg": 7863,
      "achtig": 7864,
      "Ġprison": 7865,
      "Ġbelow": 7866,
      "Ġrob": 7867,
      "blad": 7868,
      "Ġklinkt": 7869,
      "Ġremo": 7870,
      "Ġhappens": 7871,
      "Ġåı¯èĥ½": 7872,
      "Ġstopped": 7873,
      "æ®µæĹ¶éĹ´": 7874,
      "ĠParis": 7875,
      "æĬķèµĦ": 7876,
      "say": 7877,
      "Ġäººå®¶": 7878,
      "oute": 7879,
      "Ġviel": 7880,
      "Ġcell": 7881,
      "ä¸ĢæŃ¥": 7882,
      "å®ĩ": 7883,
      "è¯´ä»Ģä¹Ī": 7884,
      "...\"": 7885,
      "ĠLaur": 7886,
      "lav": 7887,
      "Ġvoldo": 7888,
      "ç¡Ģ": 7889,
      "Ġverliefd": 7890,
      "Ġmiddelpunt": 7891,
      "Ġexactly": 7892,
      "éĺ¿å§¨": 7893,
      "æĵį": 7894,
      "]?": 7895,
      "Ġwapen": 7896,
      "Ġhosp": 7897,
      "andy": 7898,
      "Ġking": 7899,
      "æĪĳæĿ¥": 7900,
      "äºĨä»ĸ": 7901,
      "Ġbeurt": 7902,
      "éĤ£ä½ł": 7903,
      "ĠJust": 7904,
      "è¿ĺåľ¨": 7905,
      "æĥ³æ³ķ": 7906,
      "ansas": 7907,
      "æŁı": 7908,
      "ictor": 7909,
      "çªĹ": 7910,
      "Ġidi": 7911,
      "voerd": 7912,
      "Ġaccount": 7913,
      "Ġbuilt": 7914,
      "çļĦä¸ĢäºĽ": 7915,
      "ĠGeorge": 7916,
      "ĠBelg": 7917,
      "Ġbeoordeling": 7918,
      "ĠMasai": 7919,
      "OK": 7920,
      "cohol": 7921,
      "wow": 7922,
      "Ġahead": 7923,
      "Ġgives": 7924,
      "orr": 7925,
      "Ġvere": 7926,
      "Ġzaken": 7927,
      "Ġkitchen": 7928,
      "ĠIN": 7929,
      "æī°": 7930,
      "Ġknock": 7931,
      "Ġheren": 7932,
      "itted": 7933,
      "æ´ŀ": 7934,
      "ĠUk": 7935,
      "Ġontb": 7936,
      "ä¹Łä¸įçŁ¥éģĵ": 7937,
      "Ġhalve": 7938,
      "Ġbevat": 7939,
      "èİ²": 7940,
      "Ġlearned": 7941,
      "sych": 7942,
      "Ġradio": 7943,
      "éŀĭ": 7944,
      "13": 7945,
      "Un": 7946,
      "dien": 7947,
      "ih": 7948,
      "iant": 7949,
      "maybe": 7950,
      "zi": 7951,
      "Ġgold": 7952,
      "Ġnood": 7953,
      "Ġpagina": 7954,
      "Ġalgeb": 7955,
      "Ġplate": 7956,
      "Ġafge": 7957,
      "åĩºæĿ¥äºĨ": 7958,
      "èĢģåħ¬": 7959,
      "Ġhandle": 7960,
      "Ġflowers": 7961,
      "Ġwalked": 7962,
      "Ġgeschreven": 7963,
      "Ġnauwkeurig": 7964,
      "CHAPTER": 7965,
      "Ġtin": 7966,
      "ijm": 7967,
      "ä¸įä¸Ģæł·": 7968,
      "iety": 7969,
      "å®ģ": 7970,
      "æľīçļĦ": 7971,
      "Ġteeth": 7972,
      "ç»©": 7973,
      "ĠBobby": 7974,
      "Ġreached": 7975,
      "ĠCaptain": 7976,
      "å·¨": 7977,
      "Ġseeing": 7978,
      "å¼ĢäºĨ": 7979,
      "æ´²": 7980,
      "èº²": 7981,
      "Ġtruth": 7982,
      "å®īæİĴ": 7983,
      "ipper": 7984,
      "ĠDaarna": 7985,
      "gevallen": 7986,
      "vocaliz": 7987,
      "èĴĭ": 7988,
      "Ġprobeert": 7989,
      "Ġevil": 7990,
      "Ġpounds": 7991,
      "ĠWaarom": 7992,
      "Ġreplied": 7993,
      "Ġhoge": 7994,
      "Ġfifty": 7995,
      "Ġgrappig": 7996,
      "ius": 7997,
      "ration": 7998,
      "ÃŃ": 7999,
      "Ġgate": 8000,
      "Ġvred": 8001,
      "Ġkerk": 8002,
      "ston": 8003,
      "ä¸Ģå®¶": 8004,
      "æľīå¤ļ": 8005,
      "æĹ§": 8006,
      "ĠEgy": 8007,
      "ĠGra": 8008,
      "weet": 8009,
      "æŃ£å¸¸": 8010,
      "æĢĿèĢĥ": 8011,
      "Ġsubject": 8012,
      "Ġfucking": 8013,
      "Ġservice": 8014,
      "DE": 8015,
      "RE": 8016,
      "âĢ": 8017,
      "Ġwide": 8018,
      "edig": 8019,
      "Ġund": 8020,
      "Ġwhom": 8021,
      "Ġvoorbeeld": 8022,
      "åĩ¶": 8023,
      "åĩŃ": 8024,
      "ĠNet": 8025,
      "romme": 8026,
      "ĠKar": 8027,
      "ĠVeel": 8028,
      "ivid": 8029,
      "ively": 8030,
      "ĠHeb": 8031,
      "æĮĤ": 8032,
      "uwelijk": 8033,
      "Ġgeleerd": 8034,
      "ĠThank": 8035,
      "Ġauthor": 8036,
      "åľ¨è¿ĻéĩĮ": 8037,
      "Ġcentury": 8038,
      "Ġbasket": 8039,
      "Ġbleef": 8040,
      "Ġsucces": 8041,
      "Ġsuccess": 8042,
      "Ġbeweging": 8043,
      "Ġreceived": 8044,
      "Sl": 8045,
      "Would": 8046,
      "kin": 8047,
      "len": 8048,
      "Ġiedere": 8049,
      "ä½łåĪ«": 8050,
      "åį·": 8051,
      "è®¿": 8052,
      "å¤§åŃ¦": 8053,
      "Ġneigh": 8054,
      "Ġè¿Ļç§į": 8055,
      "Ġbran": 8056,
      "hington": 8057,
      "bling": 8058,
      "ä½ľçĶ¨": 8059,
      "oogle": 8060,
      "çĪ±æĥħ": 8061,
      "Ġmiles": 8062,
      "æĶ¿æ²»": 8063,
      "åŁºç¡Ģ": 8064,
      "zijn": 8065,
      "Ġdut": 8066,
      "Ġmad": 8067,
      "Ġfem": 8068,
      "çļĦåķĬ": 8069,
      "oma": 8070,
      "å¥½çľĭ": 8071,
      "Ġshit": 8072,
      "wege": 8073,
      "Ġcomfort": 8074,
      "çŃīçŃī": 8075,
      "standig": 8076,
      "æİ¥ä¸ĭæĿ¥": 8077,
      "Ġtoege": 8078,
      "æ°ĳæĹı": 8079,
      "æľīä¸Ģå¤©": 8080,
      "åĿĹéĴ±": 8081,
      "Ġdropped": 8082,
      "ĠåºĶ": 8083,
      "ĠPresident": 8084,
      "Jon": 8085,
      "LE": 8086,
      "set": 8087,
      "Ġdromen": 8088,
      "Ġbak": 8089,
      "Ġbracht": 8090,
      "Ġenkel": 8091,
      "Ġdol": 8092,
      "geant": 8093,
      "ulk": 8094,
      "Ġspell": 8095,
      "...?": 8096,
      "Ġwaarmee": 8097,
      "éģĹ": 8098,
      "çĽĸ": 8099,
      "pens": 8100,
      "Ġoffer": 8101,
      "ekijk": 8102,
      "ixon": 8103,
      "çıł": 8104,
      "å¤ĦçĲĨ": 8105,
      "Ġbeschermen": 8106,
      "organ": 8107,
      "åĮħæĭ¬": 8108,
      "Ġhangt": 8109,
      "ĠMartin": 8110,
      "cream": 8111,
      "pte": 8112,
      "ĠçľŁ": 8113,
      "Ġcost": 8114,
      "æĺ¯åĽłä¸º": 8115,
      "ida": 8116,
      "ä¸Ģçľĭ": 8117,
      "ä¸ĢçĻ¾": 8118,
      "å¾ģ": 8119,
      "ĠPri": 8120,
      "ĠGoogle": 8121,
      "Ġdonker": 8122,
      "ekst": 8123,
      "ç¬¦": 8124,
      "Ġgevallen": 8125,
      "ç¥ĸ": 8126,
      "Ġlaugh": 8127,
      "slaan": 8128,
      "Ġcurious": 8129,
      "è®¾è®¡": 8130,
      "ĠCanada": 8131,
      "Ġveroorzaakt": 8132,
      "ĠåĲİæĿ¥": 8133,
      "ĠalgebraÃ¯": 8134,
      "Ġgoud": 8135,
      "Ġleeg": 8136,
      "Ġjack": 8137,
      "ä½³": 8138,
      "ä¸įåľ¨": 8139,
      "icle": 8140,
      "å¥¥": 8141,
      "aga": 8142,
      "äººç±»": 8143,
      "ä¸ĬçıŃ": 8144,
      "ĠJer": 8145,
      "ipe": 8146,
      "Ġdrank": 8147,
      "Ġhoef": 8148,
      "Ġcareer": 8149,
      "Ġcompet": 8150,
      "éĶĻäºĨ": 8151,
      "Ġcourt": 8152,
      "Ġgeheel": 8153,
      "gemaakt": 8154,
      "ĠAmerikaanse": 8155,
      "Ġgemiddelde": 8156,
      "Mama": 8157,
      "Ne": 8158,
      "ply": 8159,
      "zz": 8160,
      "Ġtv": 8161,
      "Ġdun": 8162,
      "Ġpig": 8163,
      "Ġinn": 8164,
      "ieus": 8165,
      "Ġut": 8166,
      "Ġraken": 8167,
      "sey": 8168,
      "cties": 8169,
      "Ġoveral": 8170,
      "å®¶åºŃ": 8171,
      "Ġthemselves": 8172,
      "Ġvolgen": 8173,
      "Ġmommy": 8174,
      "Ġtrekken": 8175,
      "ledge": 8176,
      "Ġbelangrijke": 8177,
      "éŃĶ": 8178,
      "ĠEuropean": 8179,
      "Ter": 8180,
      "Toon": 8181,
      "ĠæĹł": 8182,
      "Ġmuur": 8183,
      "Ġgrijs": 8184,
      "Ġfool": 8185,
      "Ġstuur": 8186,
      "ĠDem": 8187,
      "å°±åĥı": 8188,
      "aans": 8189,
      "ĠGen": 8190,
      "å¤§å¤«": 8191,
      "åĨĴ": 8192,
      "Ġexcept": 8193,
      "çĶŁæĦı": 8194,
      "iano": 8195,
      "å¥³åŃ©": 8196,
      "çķ¥": 8197,
      "Ġspec": 8198,
      "ç»ĵæĿŁ": 8199,
      "Ġouder": 8200,
      "åºĶè¯¥æĺ¯": 8201,
      "èĽ®": 8202,
      "æ¢¦æĥ³": 8203,
      "Ġpromise": 8204,
      "Ġhungry": 8205,
      "Ġtoekomst": 8206,
      "laten": 8207,
      "sings": 8208,
      "ising": 8209,
      "Ġå±": 8210,
      "icip": 8211,
      "Ġalive": 8212,
      "çĶŁåĳ½": 8213,
      "Ġboots": 8214,
      "icked": 8215,
      "Ġå¤ļ": 8216,
      "Ġlaid": 8217,
      "ç¬¬ä¸ī": 8218,
      "æ¶¨": 8219,
      "Ġopened": 8220,
      "Niets": 8221,
      "Ġaccept": 8222,
      "ĠåİŁ": 8223,
      ".,": 8224,
      "hoe": 8225,
      "Ġtap": 8226,
      "Ġderde": 8227,
      "Ġmor": 8228,
      "Ġbought": 8229,
      "Ġieder": 8230,
      "Ġcream": 8231,
      "oty": 8232,
      "Ġrub": 8233,
      "vecht": 8234,
      "ĠMont": 8235,
      "å¥ĸ": 8236,
      "å°±åľ¨": 8237,
      "ĠCome": 8238,
      "è§¦": 8239,
      "istor": 8240,
      "Ġgroepen": 8241,
      "åĴĮä½ł": 8242,
      "Ġkloot": 8243,
      "çĶ·åŃ©": 8244,
      "Ġå¯¹ä¸įèµ·": 8245,
      "å®³æĢķ": 8246,
      "Ġbelangrijkste": 8247,
      "Ġbegrijpen": 8248,
      "Ġcharacter": 8249,
      "Ġbuilding": 8250,
      "Ġparticular": 8251,
      "åĿļæĮģ": 8252,
      "laimed": 8253,
      "singing": 8254,
      "vr": 8255,
      "elle": 8256,
      "Ġhealth": 8257,
      "Ġcivil": 8258,
      "Ġstorm": 8259,
      "Ġstreet": 8260,
      "amous": 8261,
      "chtend": 8262,
      "ĠArab": 8263,
      "Ġreach": 8264,
      "ĠEle": 8265,
      "åĩı": 8266,
      "æĶ»": 8267,
      "æĢİä¹ĪäºĨ": 8268,
      "Ġvolg": 8269,
      "Ġsmile": 8270,
      "Ġechter": 8271,
      "Ġtrust": 8272,
      "çģ¯": 8273,
      "appy": 8274,
      "Ġ2017": 8275,
      "Ġwritten": 8276,
      "Ġserious": 8277,
      "ĠQuebec": 8278,
      "Ġwonderful": 8279,
      "åŁºæľ¬": 8280,
      "Ġinterested": 8281,
      "Mam": 8282,
      "èķ": 8283,
      "Ġbother": 8284,
      "Ġzuid": 8285,
      "çļĦå¥½": 8286,
      "Ġkeek": 8287,
      "leet": 8288,
      "idt": 8289,
      "Ġride": 8290,
      "ĠMother": 8291,
      "irm": 8292,
      "Ġworth": 8293,
      "æĬ½": 8294,
      "éģ¿": 8295,
      "Ġbreng": 8296,
      "ival": 8297,
      "æ³½": 8298,
      "pty": 8299,
      "æīĢè°ĵ": 8300,
      "åĲĥäºĨ": 8301,
      "ampion": 8302,
      "formatie": 8303,
      "çłģ": 8304,
      "gebied": 8305,
      "ommige": 8306,
      "ç§ĳæĬĢ": 8307,
      "HAT": 8308,
      "loos": 8309,
      "Ã¤": 8310,
      "Ġvres": 8311,
      "Ġlose": 8312,
      "Ġeieren": 8313,
      "Ġinstead": 8314,
      "ometer": 8315,
      "stoffen": 8316,
      "Ġversp": 8317,
      "ĠSal": 8318,
      "Ġherinn": 8319,
      "ĠRoman": 8320,
      "ĠLuc": 8321,
      "ä¼ļæľī": 8322,
      "å°ıçĮª": 8323,
      "Ġbutter": 8324,
      "Ġthema": 8325,
      "Ġoffice": 8326,
      "ç»ıè¿ĩ": 8327,
      "èµ°åĲ§": 8328,
      "athol": 8329,
      "å¸®ä½ł": 8330,
      "çħ§é¡¾": 8331,
      "Ġreading": 8332,
      "Ġsimil": 8333,
      "ĠAngel": 8334,
      "ĠWebster": 8335,
      "Ġä¸ºäºĨ": 8336,
      "ero": 8337,
      "inter": 8338,
      "Ġstu": 8339,
      "ĠEm": 8340,
      "éĥ½è¦ģ": 8341,
      "Ġzoiets": 8342,
      "Ġshirt": 8343,
      "rukt": 8344,
      "Ġfeit": 8345,
      "ä½įç½®": 8346,
      "çĸ«": 8347,
      "Ġdiscover": 8348,
      "Zelfs": 8349,
      "Ġdeceased": 8350,
      "Wait": 8351,
      "aire": 8352,
      "car": 8353,
      "hi": 8354,
      "nst": 8355,
      "wagen": 8356,
      "work": 8357,
      "heb": 8358,
      "Ġdorp": 8359,
      "Ġstrip": 8360,
      "ires": 8361,
      "Ġforce": 8362,
      "Ġworse": 8363,
      "romos": 8364,
      "éĽĦ": 8365,
      "Ġplayer": 8366,
      "èĦ±": 8367,
      "Alle": 8368,
      "boom": 8369,
      "Ġlijnen": 8370,
      "Ġcounty": 8371,
      "åĲĦä½į": 8372,
      "Ġvijand": 8373,
      "ä¼ģä¸ļ": 8374,
      "Che": 8375,
      "His": 8376,
      "Man": 8377,
      "Ġç»Ļ": 8378,
      "ened": 8379,
      "erc": 8380,
      "Ġhuil": 8381,
      "Ġnest": 8382,
      "ĠåĬ": 8383,
      "ades": 8384,
      "owl": 8385,
      "Ġwee": 8386,
      "ĠMor": 8387,
      "ĠWie": 8388,
      "èµļ": 8389,
      "ä¹Łä¸įæĺ¯": 8390,
      "Ġshout": 8391,
      "çŁ¿": 8392,
      "itty": 8393,
      "éķ¿å¾Ĺ": 8394,
      "é¢Ĺ": 8395,
      "Ġgewonnen": 8396,
      "Ġsmart": 8397,
      "çĭĤ": 8398,
      "Ġdraag": 8399,
      "ometimes": 8400,
      "Ġvlees": 8401,
      "delen": 8402,
      "fact": 8403,
      "tell": 8404,
      "Ġ$": 8405,
      "Ġwol": 8406,
      "Ġbood": 8407,
      "çļĦåĳĢ": 8408,
      "aser": 8409,
      "stel": 8410,
      "Ġonbe": 8411,
      "Ġbeat": 8412,
      "ä¸įåı¯": 8413,
      "Ġstel": 8414,
      "å¯¹ä¸įèµ·": 8415,
      "éĿ¢å¯¹": 8416,
      "åħ¨éĥ¨": 8417,
      "Ġglas": 8418,
      "Ġ2011": 8419,
      "æı¡": 8420,
      "Ġdriving": 8421,
      "Ġstukje": 8422,
      "Pas": 8423,
      "anam": 8424,
      "Ġwint": 8425,
      "Ġgisteren": 8426,
      "Ġhout": 8427,
      "Ġfingers": 8428,
      "ä¸Ģä½į": 8429,
      "Ġstub": 8430,
      "agon": 8431,
      "å¯¹ä¸įå¯¹": 8432,
      "Ġbeteken": 8433,
      "è´Ń": 8434,
      "éļĲ": 8435,
      "werken": 8436,
      "Ġlevens": 8437,
      "Ġbehaald": 8438,
      "boy": 8439,
      "è±ª": 8440,
      "ç¼ĸ": 8441,
      "é¸Ń": 8442,
      "è¯ģæį®": 8443,
      "Ġplaneet": 8444,
      "Ġzenuw": 8445,
      "Haal": 8446,
      "Zal": 8447,
      "ki": 8448,
      "nem": 8449,
      "Ġtrouwen": 8450,
      "Ġzand": 8451,
      "alle": 8452,
      "ĠTed": 8453,
      "Ġaanv": 8454,
      "Ġsafe": 8455,
      "Ġprof": 8456,
      "Ġelect": 8457,
      "iva": 8458,
      "Ġbegonnen": 8459,
      "Ġgekozen": 8460,
      "æ¶²": 8461,
      "å¥ĩæĢª": 8462,
      "æĹ¥æľ¬äºº": 8463,
      "ĠbacteriÃ«n": 8464,
      "uel": 8465,
      "Ġä¹Łæĺ¯": 8466,
      "Ġfan": 8467,
      "Ġthanks": 8468,
      "rey": 8469,
      "ĠBewijs": 8470,
      "ĠæĪĳçľĭ": 8471,
      "rian": 8472,
      "èµı": 8473,
      "Ġleiden": 8474,
      "Ġblank": 8475,
      "Ġgrowing": 8476,
      "These": 8477,
      "ç¨į": 8478,
      "çıį": 8479,
      "Ġgegevens": 8480,
      "Ġvissen": 8481,
      "Ġvermoorden": 8482,
      "Ġdolly": 8483,
      "Ġpositie": 8484,
      "æĶ¾å¿ĥåĲ§": 8485,
      "Ġsilence": 8486,
      "Ġgevolg": 8487,
      "ĠOlive": 8488,
      "Ġziekenhuis": 8489,
      "gave": 8490,
      "ky": 8491,
      "Ġæīĵ": 8492,
      "ä¸°": 8493,
      "äº¿": 8494,
      "Ġcy": 8495,
      "Ġcab": 8496,
      "è¿°": 8497,
      "Ġstreng": 8498,
      "åĳĲ": 8499,
      "aced": 8500,
      "éĤ£éĩĮ": 8501,
      "Ġlevel": 8502,
      "ä»Ģä¹Īåĳ¢": 8503,
      "rouwd": 8504,
      "Ġtrots": 8505,
      "upid": 8506,
      "Ġpositieve": 8507,
      "ç£¨": 8508,
      "çĮ´åŃĲ": 8509,
      "Rose": 8510,
      "ias": 8511,
      "Ġberg": 8512,
      "itution": 8513,
      "Ġfright": 8514,
      "Ġfiets": 8515,
      "Ġinwoners": 8516,
      "æĺ¯æľĢ": 8517,
      "ä½łæľī": 8518,
      "ĠAN": 8519,
      "è·Ŀ": 8520,
      "èģļ": 8521,
      "åĲĪéĢĤ": 8522,
      "ç¡¬": 8523,
      "volking": 8524,
      "æĬ¥åĳĬ": 8525,
      "ĠåĵİåĳĢ": 8526,
      "åĲĦç§į": 8527,
      "æľªæĿ¥": 8528,
      "Ġvakantie": 8529,
      "ĠPhil": 8530,
      "Oke": 8531,
      "hee": 8532,
      "Ġmention": 8533,
      "Ġsize": 8534,
      "Ġbab": 8535,
      "Ġgentle": 8536,
      "ales": 8537,
      "Ġkogel": 8538,
      "æĪĳäºĨ": 8539,
      "Ġgegaan": 8540,
      "ä¼į": 8541,
      "åĬĿ": 8542,
      "Ġspullen": 8543,
      "å¯Ĵ": 8544,
      "åºĦ": 8545,
      "å¯¹åķĬ": 8546,
      "Ġdaarmee": 8547,
      "Ġterrit": 8548,
      "æĦŁåĪ°": 8549,
      "Ġways": 8550,
      "çĶµèĦĳ": 8551,
      "èĪħ": 8552,
      "Ġwrote": 8553,
      "æĽ´åĬł": 8554,
      "box": 8555,
      "æ»ļ": 8556,
      "Ġbescherm": 8557,
      "ĠMex": 8558,
      "Ġcommune": 8559,
      "æĮĳæĪĺ": 8560,
      "anamee": 8561,
      "veld": 8562,
      "Ġeiland": 8563,
      "Ġinfect": 8564,
      "igar": 8565,
      "æľ«": 8566,
      "Ġtemp": 8567,
      "ĠMary": 8568,
      "gew": 8569,
      "åįł": 8570,
      "ĠNational": 8571,
      "Ġwhose": 8572,
      "Ġkleding": 8573,
      "hys": 8574,
      "ä¾ĭ": 8575,
      "éĶĢ": 8576,
      "eltjes": 8577,
      "éĩįæĸ°": 8578,
      "æ¡¥": 8579,
      "clock": 8580,
      "Ġdisapp": 8581,
      "ĠâĮ": 8582,
      "Ġveranderd": 8583,
      "ologie": 8584,
      "æ´ĭæ´ĭ": 8585,
      "åİĨåı²": 8586,
      "Ġindeed": 8587,
      "Ġeggs": 8588,
      "Ġuiteindelijk": 8589,
      "Hel": 8590,
      "ĠæĿİ": 8591,
      "Ġself": 8592,
      "Ġzacht": 8593,
      "Ġcijf": 8594,
      "Ġthus": 8595,
      "rees": 8596,
      "Ġmeid": 8597,
      "raad": 8598,
      "Ġalcohol": 8599,
      "ä¼¦": 8600,
      "ĠWind": 8601,
      "ä¸Ĭåİ»": 8602,
      "è¾ĳ": 8603,
      "offee": 8604,
      "åıįåºĶ": 8605,
      "waarde": 8606,
      "ç¬¬ä¸Ģæ¬¡": 8607,
      "Probeer": 8608,
      "Ġgevaarlijk": 8609,
      "Ġcreated": 8610,
      "Ġzuurstof": 8611,
      "Daddy": 8612,
      "rr": 8613,
      "Ġwinkel": 8614,
      "Ġmelk": 8615,
      "Ġvogel": 8616,
      "edi": 8617,
      "child": 8618,
      "alph": 8619,
      "ĠNic": 8620,
      "æ²¡æĥ³åĪ°": 8621,
      "Ġshoul": 8622,
      "å¯¹åĲ§": 8623,
      "Ġexam": 8624,
      "çĻ»": 8625,
      "eph": 8626,
      "åħ³äºİ": 8627,
      "çŃīçĿĢ": 8628,
      "Ġeverybody": 8629,
      "Ġä½Ĩæĺ¯æĪĳ": 8630,
      "ĠAlan": 8631,
      "voer": 8632,
      "Ġinformation": 8633,
      "Ġholding": 8634,
      "regon": 8635,
      "ternational": 8636,
      "èĪĴæľį": 8637,
      "Ġdinosaur": 8638,
      "Ġcouncil": 8639,
      "bour": 8640,
      "cra": 8641,
      "hah": 8642,
      "Ġdw": 8643,
      "Ġsus": 8644,
      "Ġnon": 8645,
      "esse": 8646,
      "esley": 8647,
      "çļĦéĹ®é¢ĺ": 8648,
      "ishing": 8649,
      "Ġtoest": 8650,
      "ä¸įæĩĤ": 8651,
      "ament": 8652,
      "Ġerv": 8653,
      "å¤§äºº": 8654,
      "Ġgrown": 8655,
      "Ġeleph": 8656,
      "è¡Įä¸º": 8657,
      "ĠUS": 8658,
      "å¤ªéĺ³": 8659,
      "èĥ¸": 8660,
      "æŃ»èĢħ": 8661,
      "Ġ60": 8662,
      "ĠAmerika": 8663,
      "ibly": 8664,
      "uldig": 8665,
      "ification": 8666,
      "Ġofficer": 8667,
      "Ġpictures": 8668,
      "Ġincre": 8669,
      "Give": 8670,
      "Ġä»¥åĲİ": 8671,
      "Ġvet": 8672,
      "Ġlood": 8673,
      "Ġbezoek": 8674,
      "ä¸įçŁ¥": 8675,
      "Ġroof": 8676,
      "Ġgeme": 8677,
      "Ġstage": 8678,
      "ĠAct": 8679,
      "è¯´æĺ¯": 8680,
      "ĠJo": 8681,
      "Ġshr": 8682,
      "Ġshoot": 8683,
      "earch": 8684,
      "èĤļ": 8685,
      "Ġparts": 8686,
      "Ġgezin": 8687,
      "Ġkwal": 8688,
      "iction": 8689,
      "æ´»åĬ¨": 8690,
      "Ġinterview": 8691,
      "Ġslechts": 8692,
      "Ġintrodu": 8693,
      "Ġverdeeld": 8694,
      "Leg": 8695,
      "Ooh": 8696,
      "Tube": 8697,
      "bere": 8698,
      "zingen": 8699,
      "æĨ": 8700,
      "Ġdeden": 8701,
      "oorde": 8702,
      "oorlog": 8703,
      "leiding": 8704,
      "aded": 8705,
      "ä¸Ģä»¶": 8706,
      "Ġrose": 8707,
      "ç»ª": 8708,
      "Ġgras": 8709,
      "è½¯": 8710,
      "Ġbedankt": 8711,
      "Ġvertrouwen": 8712,
      "å°ĨåĨĽ": 8713,
      "Ġanswered": 8714,
      "Ġå·²": 8715,
      "ä»ĭç»į": 8716,
      "Ġbottom": 8717,
      ".-": 8718,
      "Com": 8719,
      "NA": 8720,
      "Sn": 8721,
      "ĠæĹ¢çĦ¶": 8722,
      "Ġduck": 8723,
      "Ġboeken": 8724,
      "Ġtowel": 8725,
      "äºĨè¿Ļ": 8726,
      "Ġrood": 8727,
      "Ġrich": 8728,
      "urdie": 8729,
      "ammer": 8730,
      "Ġverantwoord": 8731,
      "ago": 8732,
      "æĹ¦": 8733,
      "Ġaanwez": 8734,
      "æŀĿ": 8735,
      "Ġbron": 8736,
      "ipedia": 8737,
      "å®ŀéĻħ": 8738,
      "å¤ªå¤ª": 8739,
      "Ġremain": 8740,
      "Ġ2015": 8741,
      "ĠåĲĥ": 8742,
      "Ġturns": 8743,
      "ĠNederlands": 8744,
      "Ġattempt": 8745,
      "åĤħ": 8746,
      "é¢Ĩå¯¼": 8747,
      "Ġbasis": 8748,
      "ĠWashington": 8749,
      "especially": 8750,
      "SH": 8751,
      "aid": 8752,
      "bb": 8753,
      "lopen": 8754,
      "äºı": 8755,
      "Ġpaard": 8756,
      "ä¸įå¤ļ": 8757,
      "Ġforty": 8758,
      "Ġbright": 8759,
      "éĺ»": 8760,
      "å®ŀçİ°": 8761,
      "ĠStone": 8762,
      "èĤĸ": 8763,
      "æģ¨": 8764,
      "éĶģ": 8765,
      "Ġåĵ¦": 8766,
      "Ġcrash": 8767,
      "åķĨéĩı": 8768,
      "Ġstemmen": 8769,
      "schappelijke": 8770,
      "Ġkapitein": 8771,
      "lop": 8772,
      "Ġsum": 8773,
      "Ġzinnen": 8774,
      "Ġrare": 8775,
      "åľĨ": 8776,
      "ĠDad": 8777,
      "ribut": 8778,
      "æŃī": 8779,
      "Ġgram": 8780,
      "æĤĶ": 8781,
      "Ġbeginning": 8782,
      "Ġontsn": 8783,
      "Ġä¸įç®¡": 8784,
      "Ġshouldn": 8785,
      "Ġ2012": 8786,
      "åĮ»çĶŁ": 8787,
      "èģĶç³»": 8788,
      "COU": 8789,
      "beep": 8790,
      "Ġcal": 8791,
      "Ġkosten": 8792,
      "Ġenem": 8793,
      "æľīåı¯èĥ½": 8794,
      "å°±è¯´": 8795,
      "æ²Ī": 8796,
      "å¹´åīį": 8797,
      "Ġgebieden": 8798,
      "issing": 8799,
      "Ġneeded": 8800,
      "Ġtalked": 8801,
      "èį£": 8802,
      "æľĪäº®": 8803,
      "Hebben": 8804,
      "Ġfollowed": 8805,
      "Ġbrengt": 8806,
      "Ġrestaurant": 8807,
      "vocalizes": 8808,
      "LAN": 8809,
      "wise": 8810,
      "ĠæĽ´": 8811,
      "Ġpsych": 8812,
      "Ġki": 8813,
      "ä½łçİ°åľ¨": 8814,
      "oost": 8815,
      "ĠAre": 8816,
      "ĠMed": 8817,
      "ĠBang": 8818,
      "aped": 8819,
      "cted": 8820,
      "okk": 8821,
      "ĠJones": 8822,
      "Ġafspraak": 8823,
      "æĦıä¹ī": 8824,
      "æ¶Ĥ": 8825,
      "åĲĪåĲĮ": 8826,
      "Ġermee": 8827,
      "æĮºå¥½çļĦ": 8828,
      "Ġstanding": 8829,
      "ä¹łæĥ¯": 8830,
      "ĠAfrican": 8831,
      "æĮīçħ§": 8832,
      "Ġzomer": 8833,
      "Pre": 8834,
      "aj": 8835,
      "hood": 8836,
      "kle": 8837,
      "Ġtent": 8838,
      "Ġliter": 8839,
      "Ġear": 8840,
      "çļĦå¿ĥ": 8841,
      "æĪĳä¸Ģ": 8842,
      "Ġå¨": 8843,
      "ä¸įåİ»": 8844,
      "å°Ħ": 8845,
      "Ġalthough": 8846,
      "ikker": 8847,
      "åĩī": 8848,
      "Ġvolwassen": 8849,
      "Ġindust": 8850,
      "Ġeduc": 8851,
      "Ġjoden": 8852,
      "orpor": 8853,
      "ĠDuitse": 8854,
      "Ġcontinu": 8855,
      "Ġrichting": 8856,
      "Ġmajor": 8857,
      "Kids": 8858,
      "ts": 8859,
      "Ġpo": 8860,
      "Ġpad": 8861,
      "ä½łæĥ³": 8862,
      "oegen": 8863,
      "ĠHenry": 8864,
      "Ġfore": 8865,
      "ĠBill": 8866,
      "Ġrequ": 8867,
      "ending": 8868,
      "çīĻ": 8869,
      "èĢģé¼ł": 8870,
      "é¢Ŀ": 8871,
      "Ġminst": 8872,
      "Ġfuncties": 8873,
      "Ġprep": 8874,
      "å²Ľ": 8875,
      "èİ«": 8876,
      "Ġleggen": 8877,
      "Ġfollow": 8878,
      "ç§ĳåŃ¦": 8879,
      "ĠWikipedia": 8880,
      "åŃĺåľ¨": 8881,
      "Ġzomaar": 8882,
      "Ġspeciale": 8883,
      "ĠBosn": 8884,
      "pet": 8885,
      "wan": 8886,
      "Ġdur": 8887,
      "orpen": 8888,
      "Ġharm": 8889,
      "Ġlag": 8890,
      "asten": 8891,
      "ĠMat": 8892,
      "Ġalarm": 8893,
      "åİ¨": 8894,
      "abl": 8895,
      "Ġnaartoe": 8896,
      "Ġgraden": 8897,
      "keken": 8898,
      "Ġbye": 8899,
      "åī©": 8900,
      "æĸ¹æ³ķ": 8901,
      "èº«ä»½": 8902,
      "çĭ¸": 8903,
      "Ġsleut": 8904,
      "Ġzwarte": 8905,
      "Ġmilit": 8906,
      "åıĹåĪ°": 8907,
      "Ġtraining": 8908,
      "æ¸¸æĪı": 8909,
      "Ġprivate": 8910,
      "Ġkerel": 8911,
      "Ġåīį": 8912,
      "Ġsimilar": 8913,
      "AB": 8914,
      "book": 8915,
      "rel": 8916,
      "spr": 8917,
      "Ġochtend": 8918,
      "arry": 8919,
      "isme": 8920,
      "Ġtowards": 8921,
      "ĠAnt": 8922,
      "å¾Ĵ": 8923,
      "ĠKansas": 8924,
      "ä»Ģä¹Īäºĭ": 8925,
      "å¤©å¤©": 8926,
      "æĭ¾": 8927,
      "Ġexpress": 8928,
      "Ġhierheen": 8929,
      "ĠYouTube": 8930,
      "Ġvraagnummer": 8931,
      "Ġfilms": 8932,
      "Ġ2022": 8933,
      "åı¦å¤ĸ": 8934,
      "Ġmountain": 8935,
      "Ġhospital": 8936,
      "Jack": 8937,
      "jij": 8938,
      "vragen": 8939,
      "Ġpock": 8940,
      "Ġpants": 8941,
      "ĠæĪĳæĢİä¹Ī": 8942,
      "emorgen": 8943,
      "æĥħç»ª": 8944,
      "çŁ¥éģĵäºĨ": 8945,
      "Ġ35": 8946,
      "çħ§çīĩ": 8947,
      "Ġvroeger": 8948,
      "attle": 8949,
      "Ġlaughing": 8950,
      "Ġnecessary": 8951,
      "Am": 8952,
      "bi": 8953,
      "gro": 8954,
      "ters": 8955,
      "Ġwen": 8956,
      "Ġoce": 8957,
      "ored": 8958,
      "Ġpath": 8959,
      "Ġeh": 8960,
      "ä½łåİ»": 8961,
      "Ġraad": 8962,
      "Ġstoffen": 8963,
      "ĠTekst": 8964,
      "ĠGo": 8965,
      "ify": 8966,
      "Ġbeloof": 8967,
      "ĠStaten": 8968,
      "rence": 8969,
      "çĽ¸åħ³": 8970,
      "Ġmarriage": 8971,
      "æĢ»æĺ¯": 8972,
      "ç¡®å®ļ": 8973,
      "ĠAlleen": 8974,
      "Ġcurse": 8975,
      "Welkom": 8976,
      "Ġå¿ĥ": 8977,
      "Ġslechte": 8978,
      "ç«ŁçĦ¶": 8979,
      "Ġlikes": 8980,
      "Ġcomplet": 8981,
      "Ġbijzonder": 8982,
      "IL": 8983,
      "Lu": 8984,
      "Like": 8985,
      "Morgen": 8986,
      "viously": 8987,
      "èŁ": 8988,
      "Ġmaan": 8989,
      "Ġ..": 8990,
      "Ġsens": 8991,
      "iem": 8992,
      "ä¸įä»ħ": 8993,
      "Ġrib": 8994,
      "å¿ĥçļĦ": 8995,
      "Ġpeace": 8996,
      "Ġcheek": 8997,
      "ç©ºæ°Ķ": 8998,
      "Ġgeschiedenis": 8999,
      "åİĭåĬĽ": 9000,
      "ĠItalian": 9001,
      "wit": 9002,
      "eral": 9003,
      "ito": 9004,
      "Ġcast": 9005,
      "aardig": 9006,
      "derij": 9007,
      "ĠFord": 9008,
      "ĠKon": 9009,
      "Ġcharm": 9010,
      "è¿ĩçļĦ": 9011,
      "å°±æĺ¯æĪĳ": 9012,
      "è½®": 9013,
      "Ġusual": 9014,
      "åįģåħ«": 9015,
      "æ±ł": 9016,
      "Ġflat": 9017,
      "åĪĨäº«": 9018,
      "çĮľ": 9019,
      "iode": 9020,
      "Ġdelic": 9021,
      "ĠHierdoor": 9022,
      "Ġgesproken": 9023,
      "Ġengine": 9024,
      "Verdomme": 9025,
      "Ġlachen": 9026,
      "çĭĲçĭ¸": 9027,
      "ĠBrazil": 9028,
      "Ke": 9029,
      "bren": 9030,
      "tv": 9031,
      "vang": 9032,
      "Ġ;": 9033,
      "ĹçīĽ": 9034,
      "orgt": 9035,
      "Ġstru": 9036,
      "ĠTV": 9037,
      "ested": 9038,
      "ĠBird": 9039,
      "ĠWith": 9040,
      "Ġblow": 9041,
      "inkrijk": 9042,
      "FATHER": 9043,
      "æĶ¾åľ¨": 9044,
      "Ġapple": 9045,
      "Ġåħ¨": 9046,
      "Ġ2010": 9047,
      "Ġverlaten": 9048,
      "å¹³æĹ¶": 9049,
      "éħ¸": 9050,
      "åĩºæĿ¥çļĦ": 9051,
      "ä¸ĢçĽ´åľ¨": 9052,
      "Ġstudy": 9053,
      "èľĹçīĽ": 9054,
      "Ġjoin": 9055,
      "Ġinteresting": 9056,
      "Ġcustom": 9057,
      "Ġrecogn": 9058,
      "21": 9059,
      "Had": 9060,
      "ID": 9061,
      "Miss": 9062,
      "Two": 9063,
      "cast": 9064,
      "etjes": 9065,
      "Ġnone": 9066,
      "çļĦæķħäºĭ": 9067,
      "Ġkoud": 9068,
      "lei": 9069,
      "ä¸įä¸Ĭ": 9070,
      "ura": 9071,
      "Ġgeest": 9072,
      "Ġstars": 9073,
      "ilige": 9074,
      "Ġdans": 9075,
      "Jezus": 9076,
      "è´¾": 9077,
      "ç«ł": 9078,
      "éĽħ": 9079,
      "igenlijk": 9080,
      "Ġgezond": 9081,
      "Ġmagic": 9082,
      "fessor": 9083,
      "iÃ«nten": 9084,
      "Ġsuddenly": 9085,
      "Ġdestro": 9086,
      "Ġregering": 9087,
      "):": 9088,
      "Drie": 9089,
      "Ste": 9090,
      "big": 9091,
      "pardon": 9092,
      "ua": 9093,
      "wed": 9094,
      "Ġtax": 9095,
      "Ġdem": 9096,
      "Ġcause": 9097,
      "isper": 9098,
      "isatie": 9099,
      "oted": 9100,
      "icit": 9101,
      "unde": 9102,
      "Ġverp": 9103,
      "ĠTijdens": 9104,
      "Ġreag": 9105,
      "Ġspreek": 9106,
      "å¸Ń": 9107,
      "ĠLaw": 9108,
      "ĠFl": 9109,
      "romer": 9110,
      "Ġgetrouwd": 9111,
      "ä»Ģä¹Īéĥ½": 9112,
      "ç»ıåİĨ": 9113,
      "Ġminim": 9114,
      "å¥³æľĭåıĭ": 9115,
      "Ġbehalen": 9116,
      "Ġzwak": 9117,
      "Ġmission": 9118,
      "åıĶåıĶ": 9119,
      "Ġbrave": 9120,
      "Ġoploss": 9121,
      "45": 9122,
      "Tell": 9123,
      "wacht": 9124,
      "³å¦ĩ": 9125,
      "Ġhuwelijk": 9126,
      "oni": 9127,
      "Ġdemon": 9128,
      "iste": 9129,
      "ä»Ĺ": 9130,
      "ä½łä½ł": 9131,
      "iders": 9132,
      "Ġweekend": 9133,
      "raph": 9134,
      "è¿ĺèĥ½": 9135,
      "Ġschrijf": 9136,
      "Ġwhatever": 9137,
      "Ġnogal": 9138,
      "ograp": 9139,
      "Ġverliezen": 9140,
      "çĸĹ": 9141,
      "åĬłæ²¹": 9142,
      "æķ°æį®": 9143,
      "Leuk": 9144,
      "Nothing": 9145,
      "gasps": 9146,
      "Ġcrayon": 9147,
      "',": 9148,
      "down": 9149,
      "zing": 9150,
      "anje": 9151,
      "Ġbill": 9152,
      "Ġhistory": 9153,
      "Ġeager": 9154,
      "Ġziel": 9155,
      "Ġtoil": 9156,
      "äºĨåĳ¢": 9157,
      "rain": 9158,
      "ç»ķ": 9159,
      "Ġmocht": 9160,
      "oking": 9161,
      "ä¸ĭåĪĹ": 9162,
      "Ġschiet": 9163,
      "åĽ½çļĦ": 9164,
      "åįģåĪĨ": 9165,
      "çĲ´": 9166,
      "oci": 9167,
      "Ġ2016": 9168,
      "Ġcolour": 9169,
      "Ġpolitical": 9170,
      "Ġlieverd": 9171,
      "Ġwalking": 9172,
      "Ġemb": 9173,
      "Ġbeside": 9174,
      "æĵ¦": 9175,
      "ĠVerenigde": 9176,
      "Nick": 9177,
      "bet": 9178,
      "vat": 9179,
      "Ġä»Ĭ": 9180,
      "eters": 9181,
      "Ġvoll": 9182,
      "Ġhall": 9183,
      "çļĦæĥħåĨµ": 9184,
      "Ġcoffee": 9185,
      "Ġmeas": 9186,
      "å¥ĭ": 9187,
      "åİļ": 9188,
      "Ġspent": 9189,
      "ĠKijk": 9190,
      "å¯¹äºĨ": 9191,
      "åĩºçļĦ": 9192,
      "çİ°åľº": 9193,
      "Ġclimb": 9194,
      "Ġhelft": 9195,
      "ä½łä»¬çļĦ": 9196,
      "Ġliep": 9197,
      "æĶ¿çŃĸ": 9198,
      "Ġdiagram": 9199,
      "Ġluisteren": 9200,
      "kere": 9201,
      "lob": 9202,
      "pect": 9203,
      "rus": 9204,
      "Ġmug": 9205,
      "Ġgat": 9206,
      "isa": 9207,
      "ĠTen": 9208,
      "è¯´å®Į": 9209,
      "apl": 9210,
      "tered": 9211,
      "çº³": 9212,
      "Ġklim": 9213,
      "èĤ¥": 9214,
      "æįŁ": 9215,
      "ç¬¬ä¸Ģä¸ª": 9216,
      "éľĩ": 9217,
      "çĸ¯": 9218,
      "Ġcircle": 9219,
      "Ġbereiken": 9220,
      "Ġå¼Ģ": 9221,
      "å¿ĺäºĨ": 9222,
      "Ġgevangenis": 9223,
      "ĠRepublic": 9224,
      "60": 9225,
      "MAR": 9226,
      "Soms": 9227,
      "lk": 9228,
      "sorry": 9229,
      "Ġlied": 9230,
      "Ġpink": 9231,
      "Ġkromme": 9232,
      "æĪĳèĩªå·±": 9233,
      "sterd": 9234,
      "ä¸įç®¡": 9235,
      "aker": 9236,
      "ĠHello": 9237,
      "Ġerf": 9238,
      "ĠBowers": 9239,
      "äººäºĨ": 9240,
      "Ġä½łå¥½": 9241,
      "Ġate": 9242,
      "ĠReg": 9243,
      "Ġaffect": 9244,
      "onger": 9245,
      "Ġprocent": 9246,
      "çİ°å®ŀ": 9247,
      "æĪĳä»¬å°±": 9248,
      "Ġbodem": 9249,
      "Ġä»ĸè¯´": 9250,
      "Ġvertel": 9251,
      "Ġcontain": 9252,
      "çĮİ": 9253,
      "Ġstarts": 9254,
      "ä¿Ŀè¯ģ": 9255,
      "æĢ§çļĦ": 9256,
      "Ġaccording": 9257,
      "Ġbuik": 9258,
      "çĶ±äºİ": 9259,
      "è§Ĩé¢ĳ": 9260,
      "Ġdrop": 9261,
      "Ġappeared": 9262,
      "ĠAngola": 9263,
      "ĠWiki": 9264,
      "ĠGermany": 9265,
      "points": 9266,
      "ĠåºĶè¯¥": 9267,
      "Gay": 9268,
      "oeld": 9269,
      "Ġoom": 9270,
      "Ġsele": 9271,
      "Ġbased": 9272,
      "itor": 9273,
      "chan": 9274,
      "Ġzoo": 9275,
      "Ġfol": 9276,
      "çļĦçĶŁæ´»": 9277,
      "ä»²": 9278,
      "Ġsteden": 9279,
      "Ġwezen": 9280,
      "Ġdate": 9281,
      "ĠMom": 9282,
      "åįı": 9283,
      "ugu": 9284,
      "Ġblijkt": 9285,
      "åºŁ": 9286,
      "éĢĶ": 9287,
      "Ġè¿ĻéĩĮ": 9288,
      "achtbare": 9289,
      "Ġsluiten": 9290,
      "æ»´": 9291,
      "éĺŁä¼į": 9292,
      "Ġshowed": 9293,
      "æķĻèĤ²": 9294,
      "Ġattention": 9295,
      "Ġnames": 9296,
      "ä½¿çĶ¨": 9297,
      "Ġdistance": 9298,
      "çīĽå¥¶": 9299,
      "Ġcollect": 9300,
      "èİ·å¾Ĺ": 9301,
      "redenen": 9302,
      "ĠKlik": 9303,
      "Ġbecomes": 9304,
      "Ġbreath": 9305,
      "Ph": 9306,
      "tes": 9307,
      "yer": 9308,
      "zaak": 9309,
      "Ġespecially": 9310,
      "Ġda": 9311,
      "Ġler": 9312,
      "Ġcrying": 9313,
      "otion": 9314,
      "ĠSuper": 9315,
      "agn": 9316,
      "ĠæĪĳéĥ½": 9317,
      "ä»ĸå°±": 9318,
      "Ġmoed": 9319,
      "éĤ£æĺ¯": 9320,
      "ĠJul": 9321,
      "ĠOF": 9322,
      "isted": 9323,
      "Ġtwel": 9324,
      "Ġgren": 9325,
      "Ġminister": 9326,
      "ocrat": 9327,
      "Ġtotaal": 9328,
      "iana": 9329,
      "åĲ¬è§ģ": 9330,
      "æī¾æĪĳ": 9331,
      "åĺī": 9332,
      "Stel": 9333,
      "ä¸»ä»»": 9334,
      "Ġgemak": 9335,
      "Ġnumbers": 9336,
      "Ġkey": 9337,
      "ĠIndians": 9338,
      "Ġgestolen": 9339,
      "astern": 9340,
      "Ġverzam": 9341,
      "Ġincluding": 9342,
      "è¾Ľèĭ¦": 9343,
      "\")": 9344,
      "Could": 9345,
      "gent": 9346,
      "Ġzaad": 9347,
      "Ġcard": 9348,
      "Ġinderdaad": 9349,
      "ijnt": 9350,
      "ĠAL": 9351,
      "ĠMus": 9352,
      "ĠHelen": 9353,
      "ĠBo": 9354,
      "opdracht": 9355,
      "Ġasleep": 9356,
      "ĠRalph": 9357,
      "æĭĴ": 9358,
      "Ġminuut": 9359,
      "Ġ2013": 9360,
      "Ġdifference": 9361,
      "æıĲä¾Ľ": 9362,
      "è§Ĥå¯Ł": 9363,
      "Ġreligion": 9364,
      "æ£®æŀĹ": 9365,
      "present": 9366,
      "Haar": 9367,
      "bon": 9368,
      "best": 9369,
      "tain": 9370,
      "èª": 9371,
      "Ġbast": 9372,
      "Ġbeden": 9373,
      "Ġbatter": 9374,
      "eloos": 9375,
      "isse": 9376,
      "äºĨä¸Ģä¸ĭ": 9377,
      "ĠBy": 9378,
      "ĠCorn": 9379,
      "ĠPap": 9380,
      "ç»ĻäºĨ": 9381,
      "Zeker": 9382,
      "å±ģ": 9383,
      "Ġeveryone": 9384,
      "gelaten": 9385,
      "æľŁå¾ħ": 9386,
      "Ġexclaimed": 9387,
      "minist": 9388,
      "Ġresultaten": 9389,
      "ä¸¥éĩį": 9390,
      "Ġvoetbal": 9391,
      "Ġafgele": 9392,
      "Ġdetail": 9393,
      "Elke": 9394,
      "æ¤įçī©": 9395,
      "Ġverticale": 9396,
      "Ġtwelve": 9397,
      "Sam": 9398,
      "rust": 9399,
      "Ġwal": 9400,
      "Ġovere": 9401,
      "Ġsake": 9402,
      "Ġbod": 9403,
      "Ġinj": 9404,
      "èµŀ": 9405,
      "åĬ±": 9406,
      "Ġomsch": 9407,
      "æ¯ģ": 9408,
      "iao": 9409,
      "çº·": 9410,
      "åĿĩ": 9411,
      "icted": 9412,
      "Ġremark": 9413,
      "éª¨": 9414,
      "Ġsleeping": 9415,
      "Ġschatje": 9416,
      "Ġkeuze": 9417,
      "Ġelephant": 9418,
      "CK": 9419,
      "Toe": 9420,
      "kte": 9421,
      "onken": 9422,
      "asy": 9423,
      "æĪĳæĢİä¹Ī": 9424,
      "igr": 9425,
      "igt": 9426,
      "ĠæĪĳå°±æĺ¯": 9427,
      "Ġä½łçŁ¥éģĵ": 9428,
      "ĠNie": 9429,
      "Ġgetal": 9430,
      "Ġprocess": 9431,
      "Ġprins": 9432,
      "å¾Īéļ¾": 9433,
      "Ġclim": 9434,
      "æĽ¼": 9435,
      "Ġdraaien": 9436,
      "Ġprem": 9437,
      "boden": 9438,
      "äºĭåĦ¿åķĬ": 9439,
      "æĭ¿çĿĢ": 9440,
      "moet": 9441,
      "ĠAnge": 9442,
      "Wilt": 9443,
      "å®Ŀå®Ŀ": 9444,
      "199": 9445,
      "Ġå¾Ĺ": 9446,
      "ç¤¼çī©": 9447,
      "è±Ĩè±Ĩ": 9448,
      "Ġwoont": 9449,
      "Ġicecream": 9450,
      "otype": 9451,
      "Breng": 9452,
      "John": 9453,
      "ao": 9454,
      "dere": 9455,
      "ç¦ģ": 9456,
      "erste": 9457,
      "Ġgast": 9458,
      "Ġjun": 9459,
      "stru": 9460,
      "Ġåĥı": 9461,
      "Ġrand": 9462,
      "Ġmeeget": 9463,
      "åŃ¤": 9464,
      "apens": 9465,
      "ĠWer": 9466,
      "Ġshare": 9467,
      "ĠKong": 9468,
      "iforn": 9469,
      "Ġåıĳ": 9470,
      "Ġkleren": 9471,
      "å¹²åĺĽ": 9472,
      "Ġadvoc": 9473,
      "ç©·": 9474,
      "èĪª": 9475,
      "Ġvoelde": 9476,
      "Ġrefer": 9477,
      "draw": 9478,
      "Ġå¦Īå¦Ī": 9479,
      "ç§ĺå¯Ĩ": 9480,
      "Ġprachtig": 9481,
      "Ġmeegeteld": 9482,
      "25": 9483,
      "Ang": 9484,
      "Vind": 9485,
      "eeld": 9486,
      "hoor": 9487,
      "yed": 9488,
      "¹æŀľ": 9489,
      "Ġmap": 9490,
      "order": 9491,
      "æĪĳä¼ļ": 9492,
      "Ġbewij": 9493,
      "ä¸įåı¯èĥ½": 9494,
      "ĠSat": 9495,
      "å¥Ķ": 9496,
      "Ġgoats": 9497,
      "äººéĥ½": 9498,
      "ĠCol": 9499,
      "tens": 9500,
      "inks": 9501,
      "åħĪèµ°äºĨ": 9502,
      "iÃ«le": 9503,
      "æįķ": 9504,
      "Ġgroene": 9505,
      "Ġbreed": 9506,
      "æľīä¸ĢäºĽ": 9507,
      "çļĩä¸Ĭ": 9508,
      "Ġprotect": 9509,
      "ĠCarol": 9510,
      "éĵ¶è¡Į": 9511,
      "Ġdienst": 9512,
      "Jongens": 9513,
      "Kamba": 9514,
      "dog": 9515,
      "hr": 9516,
      "vle": 9517,
      "Ġhous": 9518,
      "esus": 9519,
      "Ġdepend": 9520,
      "ä¸įå®¹æĺĵ": 9521,
      "ĠMal": 9522,
      "ĠHeer": 9523,
      "æī«": 9524,
      "Ġhaalt": 9525,
      "Ġdansen": 9526,
      "Ġbloem": 9527,
      "Ġboard": 9528,
      "ffe": 9529,
      "åĸ½": 9530,
      "ertje": 9531,
      "èºº": 9532,
      "è¿Ļä¹Īè¯´": 9533,
      "é¥¼": 9534,
      "gebracht": 9535,
      "going": 9536,
      "Ġcattle": 9537,
      "Ġverband": 9538,
      "Ġgelukt": 9539,
      "Ġpromised": 9540,
      "Ġuitleggen": 9541,
      "Ġdivided": 9542,
      "Ind": 9543,
      "loop": 9544,
      "ti": 9545,
      "Ġtim": 9546,
      "Ġtone": 9547,
      "ini": 9548,
      "Ġbell": 9549,
      "Ġln": 9550,
      "Ġfellow": 9551,
      "rein": 9552,
      "è¿ª": 9553,
      "Ġrough": 9554,
      "ĠTweede": 9555,
      "ĠCong": 9556,
      "Ġè¿Ļæ¬¡": 9557,
      "Ġuncle": 9558,
      "æ³ª": 9559,
      "udd": 9560,
      "Ġarg": 9561,
      "Ġpercent": 9562,
      "èĥŀ": 9563,
      "cious": 9564,
      "Ġåħ¬": 9565,
      "gress": 9566,
      "Ġvoeren": 9567,
      "åıĺå¾Ĺ": 9568,
[...]
